{"version":"1.0","truncation":null,"padding":null,"added_tokens":[{"id":0,"special":true,"content":"[MASK]","single_word":false,"lstrip":false,"rstrip":false,"normalized":false},{"id":1,"special":true,"content":"[PAD]","single_word":false,"lstrip":false,"rstrip":false,"normalized":false},{"id":3,"special":true,"content":"[UNK]","single_word":false,"lstrip":false,"rstrip":false,"normalized":false},{"id":4,"special":true,"content":"[CLS]","single_word":false,"lstrip":false,"rstrip":false,"normalized":false},{"id":5,"special":true,"content":"[SEP]","single_word":false,"lstrip":false,"rstrip":false,"normalized":false},{"id":31002,"special":false,"content":"@usuario","single_word":false,"lstrip":false,"rstrip":false,"normalized":true},{"id":31003,"special":false,"content":"url","single_word":false,"lstrip":false,"rstrip":false,"normalized":true},{"id":31004,"special":false,"content":"hashtag","single_word":false,"lstrip":false,"rstrip":false,"normalized":true},{"id":31005,"special":false,"content":"emoji","single_word":false,"lstrip":false,"rstrip":false,"normalized":true}],"normalizer":{"type":"BertNormalizer","clean_text":true,"handle_chinese_chars":true,"strip_accents":false,"lowercase":true},"pre_tokenizer":{"type":"BertPreTokenizer"},"post_processor":{"type":"TemplateProcessing","single":[{"SpecialToken":{"id":"[CLS]","type_id":0}},{"Sequence":{"id":"A","type_id":0}},{"SpecialToken":{"id":"[SEP]","type_id":0}}],"pair":[{"SpecialToken":{"id":"[CLS]","type_id":0}},{"Sequence":{"id":"A","type_id":0}},{"SpecialToken":{"id":"[SEP]","type_id":0}},{"Sequence":{"id":"B","type_id":1}},{"SpecialToken":{"id":"[SEP]","type_id":1}}],"special_tokens":{"[CLS]":{"id":"[CLS]","ids":[4],"tokens":["[CLS]"]},"[SEP]":{"id":"[SEP]","ids":[5],"tokens":["[SEP]"]}}},"decoder":{"type":"WordPiece","prefix":"##","cleanup":true},"model":{"type":"WordPiece","unk_token":"[UNK]","continuing_subword_prefix":"##","max_input_chars_per_word":100,"vocab":{"[MASK]":0,"[PAD]":1,"[EOS]":2,"[UNK]":3,"[CLS]":4,"[SEP]":5,"[unused0]":6,"[unused1]":7,"[unused2]":8,"[unused3]":9,"[unused4]":10,"[unused5]":11,"[unused6]":12,"[unused7]":13,"[unused8]":14,"[unused9]":15,"[unused10]":16,"[unused11]":17,"[unused12]":18,"[unused13]":19,"[unused14]":20,"[unused15]":21,"[unused16]":22,"[unused17]":23,"[unused18]":24,"[unused19]":25,"[unused20]":26,"[unused21]":27,"[unused22]":28,"[unused23]":29,"[unused24]":30,"[unused25]":31,"[unused26]":32,"[unused27]":33,"[unused28]":34,"[unused29]":35,"[unused30]":36,"[unused31]":37,"[unused32]":38,"[unused33]":39,"[unused34]":40,"[unused35]":41,"[unused36]":42,"[unused37]":43,"[unused38]":44,"[unused39]":45,"[unused40]":46,"[unused41]":47,"[unused42]":48,"[unused43]":49,"[unused44]":50,"[unused45]":51,"[unused46]":52,"[unused47]":53,"[unused48]":54,"[unused49]":55,"[unused50]":56,"[unused51]":57,"[unused52]":58,"[unused53]":59,"[unused54]":60,"[unused55]":61,"[unused56]":62,"[unused57]":63,"[unused58]":64,"[unused59]":65,"[unused60]":66,"[unused61]":67,"[unused62]":68,"[unused63]":69,"[unused64]":70,"[unused65]":71,"[unused66]":72,"[unused67]":73,"[unused68]":74,"[unused69]":75,"[unused70]":76,"[unused71]":77,"[unused72]":78,"[unused73]":79,"[unused74]":80,"[unused75]":81,"[unused76]":82,"[unused77]":83,"[unused78]":84,"[unused79]":85,"[unused80]":86,"[unused81]":87,"[unused82]":88,"[unused83]":89,"[unused84]":90,"[unused85]":91,"[unused86]":92,"[unused87]":93,"[unused88]":94,"[unused89]":95,"[unused90]":96,"[unused91]":97,"[unused92]":98,"[unused93]":99,"[unused94]":100,"[unused95]":101,"[unused96]":102,"[unused97]":103,"[unused98]":104,"[unused99]":105,"[unused100]":106,"[unused101]":107,"[unused102]":108,"[unused103]":109,"[unused104]":110,"[unused105]":111,"[unused106]":112,"[unused107]":113,"[unused108]":114,"[unused109]":115,"[unused110]":116,"[unused111]":117,"[unused112]":118,"[unused113]":119,"[unused114]":120,"[unused115]":121,"[unused116]":122,"[unused117]":123,"[unused118]":124,"[unused119]":125,"[unused120]":126,"[unused121]":127,"[unused122]":128,"[unused123]":129,"[unused124]":130,"[unused125]":131,"[unused126]":132,"[unused127]":133,"[unused128]":134,"[unused129]":135,"[unused130]":136,"[unused131]":137,"[unused132]":138,"[unused133]":139,"[unused134]":140,"[unused135]":141,"[unused136]":142,"[unused137]":143,"[unused138]":144,"[unused139]":145,"[unused140]":146,"[unused141]":147,"[unused142]":148,"[unused143]":149,"[unused144]":150,"[unused145]":151,"[unused146]":152,"[unused147]":153,"[unused148]":154,"[unused149]":155,"[unused150]":156,"[unused151]":157,"[unused152]":158,"[unused153]":159,"[unused154]":160,"[unused155]":161,"[unused156]":162,"[unused157]":163,"[unused158]":164,"[unused159]":165,"[unused160]":166,"[unused161]":167,"[unused162]":168,"[unused163]":169,"[unused164]":170,"[unused165]":171,"[unused166]":172,"[unused167]":173,"[unused168]":174,"[unused169]":175,"[unused170]":176,"[unused171]":177,"[unused172]":178,"[unused173]":179,"[unused174]":180,"[unused175]":181,"[unused176]":182,"[unused177]":183,"[unused178]":184,"[unused179]":185,"[unused180]":186,"[unused181]":187,"[unused182]":188,"[unused183]":189,"[unused184]":190,"[unused185]":191,"[unused186]":192,"[unused187]":193,"[unused188]":194,"[unused189]":195,"[unused190]":196,"[unused191]":197,"[unused192]":198,"[unused193]":199,"[unused194]":200,"[unused195]":201,"[unused196]":202,"[unused197]":203,"[unused198]":204,"[unused199]":205,"[unused200]":206,"[unused201]":207,"[unused202]":208,"[unused203]":209,"[unused204]":210,"[unused205]":211,"[unused206]":212,"[unused207]":213,"[unused208]":214,"[unused209]":215,"[unused210]":216,"[unused211]":217,"[unused212]":218,"[unused213]":219,"[unused214]":220,"[unused215]":221,"[unused216]":222,"[unused217]":223,"[unused218]":224,"[unused219]":225,"[unused220]":226,"[unused221]":227,"[unused222]":228,"[unused223]":229,"[unused224]":230,"[unused225]":231,"[unused226]":232,"[unused227]":233,"[unused228]":234,"[unused229]":235,"[unused230]":236,"[unused231]":237,"[unused232]":238,"[unused233]":239,"[unused234]":240,"[unused235]":241,"[unused236]":242,"[unused237]":243,"[unused238]":244,"[unused239]":245,"[unused240]":246,"[unused241]":247,"[unused242]":248,"[unused243]":249,"[unused244]":250,"[unused245]":251,"[unused246]":252,"[unused247]":253,"[unused248]":254,"[unused249]":255,"[unused250]":256,"[unused251]":257,"[unused252]":258,"[unused253]":259,"[unused254]":260,"[unused255]":261,"[unused256]":262,"[unused257]":263,"[unused258]":264,"[unused259]":265,"[unused260]":266,"[unused261]":267,"[unused262]":268,"[unused263]":269,"[unused264]":270,"[unused265]":271,"[unused266]":272,"[unused267]":273,"[unused268]":274,"[unused269]":275,"[unused270]":276,"[unused271]":277,"[unused272]":278,"[unused273]":279,"[unused274]":280,"[unused275]":281,"[unused276]":282,"[unused277]":283,"[unused278]":284,"[unused279]":285,"[unused280]":286,"[unused281]":287,"[unused282]":288,"[unused283]":289,"[unused284]":290,"[unused285]":291,"[unused286]":292,"[unused287]":293,"[unused288]":294,"[unused289]":295,"[unused290]":296,"[unused291]":297,"[unused292]":298,"[unused293]":299,"[unused294]":300,"[unused295]":301,"[unused296]":302,"[unused297]":303,"[unused298]":304,"[unused299]":305,"[unused300]":306,"[unused301]":307,"[unused302]":308,"[unused303]":309,"[unused304]":310,"[unused305]":311,"[unused306]":312,"[unused307]":313,"[unused308]":314,"[unused309]":315,"[unused310]":316,"[unused311]":317,"[unused312]":318,"[unused313]":319,"[unused314]":320,"[unused315]":321,"[unused316]":322,"[unused317]":323,"[unused318]":324,"[unused319]":325,"[unused320]":326,"[unused321]":327,"[unused322]":328,"[unused323]":329,"[unused324]":330,"[unused325]":331,"[unused326]":332,"[unused327]":333,"[unused328]":334,"[unused329]":335,"[unused330]":336,"[unused331]":337,"[unused332]":338,"[unused333]":339,"[unused334]":340,"[unused335]":341,"[unused336]":342,"[unused337]":343,"[unused338]":344,"[unused339]":345,"[unused340]":346,"[unused341]":347,"[unused342]":348,"[unused343]":349,"[unused344]":350,"[unused345]":351,"[unused346]":352,"[unused347]":353,"[unused348]":354,"[unused349]":355,"[unused350]":356,"[unused351]":357,"[unused352]":358,"[unused353]":359,"[unused354]":360,"[unused355]":361,"[unused356]":362,"[unused357]":363,"[unused358]":364,"[unused359]":365,"[unused360]":366,"[unused361]":367,"[unused362]":368,"[unused363]":369,"[unused364]":370,"[unused365]":371,"[unused366]":372,"[unused367]":373,"[unused368]":374,"[unused369]":375,"[unused370]":376,"[unused371]":377,"[unused372]":378,"[unused373]":379,"[unused374]":380,"[unused375]":381,"[unused376]":382,"[unused377]":383,"[unused378]":384,"[unused379]":385,"[unused380]":386,"[unused381]":387,"[unused382]":388,"[unused383]":389,"[unused384]":390,"[unused385]":391,"[unused386]":392,"[unused387]":393,"[unused388]":394,"[unused389]":395,"[unused390]":396,"[unused391]":397,"[unused392]":398,"[unused393]":399,"[unused394]":400,"[unused395]":401,"[unused396]":402,"[unused397]":403,"[unused398]":404,"[unused399]":405,"[unused400]":406,"[unused401]":407,"[unused402]":408,"[unused403]":409,"[unused404]":410,"[unused405]":411,"[unused406]":412,"[unused407]":413,"[unused408]":414,"[unused409]":415,"[unused410]":416,"[unused411]":417,"[unused412]":418,"[unused413]":419,"[unused414]":420,"[unused415]":421,"[unused416]":422,"[unused417]":423,"[unused418]":424,"[unused419]":425,"[unused420]":426,"[unused421]":427,"[unused422]":428,"[unused423]":429,"[unused424]":430,"[unused425]":431,"[unused426]":432,"[unused427]":433,"[unused428]":434,"[unused429]":435,"[unused430]":436,"[unused431]":437,"[unused432]":438,"[unused433]":439,"[unused434]":440,"[unused435]":441,"[unused436]":442,"[unused437]":443,"[unused438]":444,"[unused439]":445,"[unused440]":446,"[unused441]":447,"[unused442]":448,"[unused443]":449,"[unused444]":450,"[unused445]":451,"[unused446]":452,"[unused447]":453,"[unused448]":454,"[unused449]":455,"[unused450]":456,"[unused451]":457,"[unused452]":458,"[unused453]":459,"[unused454]":460,"[unused455]":461,"[unused456]":462,"[unused457]":463,"[unused458]":464,"[unused459]":465,"[unused460]":466,"[unused461]":467,"[unused462]":468,"[unused463]":469,"[unused464]":470,"[unused465]":471,"[unused466]":472,"[unused467]":473,"[unused468]":474,"[unused469]":475,"[unused470]":476,"[unused471]":477,"[unused472]":478,"[unused473]":479,"[unused474]":480,"[unused475]":481,"[unused476]":482,"[unused477]":483,"[unused478]":484,"[unused479]":485,"[unused480]":486,"[unused481]":487,"[unused482]":488,"[unused483]":489,"[unused484]":490,"[unused485]":491,"[unused486]":492,"[unused487]":493,"[unused488]":494,"[unused489]":495,"[unused490]":496,"[unused491]":497,"[unused492]":498,"[unused493]":499,"[unused494]":500,"[unused495]":501,"[unused496]":502,"[unused497]":503,"[unused498]":504,"[unused499]":505,"[unused500]":506,"[unused501]":507,"[unused502]":508,"[unused503]":509,"[unused504]":510,"[unused505]":511,"[unused506]":512,"[unused507]":513,"[unused508]":514,"[unused509]":515,"[unused510]":516,"[unused511]":517,"[unused512]":518,"[unused513]":519,"[unused514]":520,"[unused515]":521,"[unused516]":522,"[unused517]":523,"[unused518]":524,"[unused519]":525,"[unused520]":526,"[unused521]":527,"[unused522]":528,"[unused523]":529,"[unused524]":530,"[unused525]":531,"[unused526]":532,"[unused527]":533,"[unused528]":534,"[unused529]":535,"[unused530]":536,"[unused531]":537,"[unused532]":538,"[unused533]":539,"[unused534]":540,"[unused535]":541,"[unused536]":542,"[unused537]":543,"[unused538]":544,"[unused539]":545,"[unused540]":546,"[unused541]":547,"[unused542]":548,"[unused543]":549,"[unused544]":550,"[unused545]":551,"[unused546]":552,"[unused547]":553,"[unused548]":554,"[unused549]":555,"[unused550]":556,"[unused551]":557,"[unused552]":558,"[unused553]":559,"[unused554]":560,"[unused555]":561,"[unused556]":562,"[unused557]":563,"[unused558]":564,"[unused559]":565,"[unused560]":566,"[unused561]":567,"[unused562]":568,"[unused563]":569,"[unused564]":570,"[unused565]":571,"[unused566]":572,"[unused567]":573,"[unused568]":574,"[unused569]":575,"[unused570]":576,"[unused571]":577,"[unused572]":578,"[unused573]":579,"[unused574]":580,"[unused575]":581,"[unused576]":582,"[unused577]":583,"[unused578]":584,"[unused579]":585,"[unused580]":586,"[unused581]":587,"[unused582]":588,"[unused583]":589,"[unused584]":590,"[unused585]":591,"[unused586]":592,"[unused587]":593,"[unused588]":594,"[unused589]":595,"[unused590]":596,"[unused591]":597,"[unused592]":598,"[unused593]":599,"[unused594]":600,"[unused595]":601,"[unused596]":602,"[unused597]":603,"[unused598]":604,"[unused599]":605,"[unused600]":606,"[unused601]":607,"[unused602]":608,"[unused603]":609,"[unused604]":610,"[unused605]":611,"[unused606]":612,"[unused607]":613,"[unused608]":614,"[unused609]":615,"[unused610]":616,"[unused611]":617,"[unused612]":618,"[unused613]":619,"[unused614]":620,"[unused615]":621,"[unused616]":622,"[unused617]":623,"[unused618]":624,"[unused619]":625,"[unused620]":626,"[unused621]":627,"[unused622]":628,"[unused623]":629,"[unused624]":630,"[unused625]":631,"[unused626]":632,"[unused627]":633,"[unused628]":634,"[unused629]":635,"[unused630]":636,"[unused631]":637,"[unused632]":638,"[unused633]":639,"[unused634]":640,"[unused635]":641,"[unused636]":642,"[unused637]":643,"[unused638]":644,"[unused639]":645,"[unused640]":646,"[unused641]":647,"[unused642]":648,"[unused643]":649,"[unused644]":650,"[unused645]":651,"[unused646]":652,"[unused647]":653,"[unused648]":654,"[unused649]":655,"[unused650]":656,"[unused651]":657,"[unused652]":658,"[unused653]":659,"[unused654]":660,"[unused655]":661,"[unused656]":662,"[unused657]":663,"[unused658]":664,"[unused659]":665,"[unused660]":666,"[unused661]":667,"[unused662]":668,"[unused663]":669,"[unused664]":670,"[unused665]":671,"[unused666]":672,"[unused667]":673,"[unused668]":674,"[unused669]":675,"[unused670]":676,"[unused671]":677,"[unused672]":678,"[unused673]":679,"[unused674]":680,"[unused675]":681,"[unused676]":682,"[unused677]":683,"[unused678]":684,"[unused679]":685,"[unused680]":686,"[unused681]":687,"[unused682]":688,"[unused683]":689,"[unused684]":690,"[unused685]":691,"[unused686]":692,"[unused687]":693,"[unused688]":694,"[unused689]":695,"[unused690]":696,"[unused691]":697,"[unused692]":698,"[unused693]":699,"[unused694]":700,"[unused695]":701,"[unused696]":702,"[unused697]":703,"[unused698]":704,"[unused699]":705,"[unused700]":706,"[unused701]":707,"[unused702]":708,"[unused703]":709,"[unused704]":710,"[unused705]":711,"[unused706]":712,"[unused707]":713,"[unused708]":714,"[unused709]":715,"[unused710]":716,"[unused711]":717,"[unused712]":718,"[unused713]":719,"[unused714]":720,"[unused715]":721,"[unused716]":722,"[unused717]":723,"[unused718]":724,"[unused719]":725,"[unused720]":726,"[unused721]":727,"[unused722]":728,"[unused723]":729,"[unused724]":730,"[unused725]":731,"[unused726]":732,"[unused727]":733,"[unused728]":734,"[unused729]":735,"[unused730]":736,"[unused731]":737,"[unused732]":738,"[unused733]":739,"[unused734]":740,"[unused735]":741,"[unused736]":742,"[unused737]":743,"[unused738]":744,"[unused739]":745,"[unused740]":746,"[unused741]":747,"[unused742]":748,"[unused743]":749,"[unused744]":750,"[unused745]":751,"[unused746]":752,"[unused747]":753,"[unused748]":754,"[unused749]":755,"[unused750]":756,"[unused751]":757,"[unused752]":758,"[unused753]":759,"[unused754]":760,"[unused755]":761,"[unused756]":762,"[unused757]":763,"[unused758]":764,"[unused759]":765,"[unused760]":766,"[unused761]":767,"[unused762]":768,"[unused763]":769,"[unused764]":770,"[unused765]":771,"[unused766]":772,"[unused767]":773,"[unused768]":774,"[unused769]":775,"[unused770]":776,"[unused771]":777,"[unused772]":778,"[unused773]":779,"[unused774]":780,"[unused775]":781,"[unused776]":782,"[unused777]":783,"[unused778]":784,"[unused779]":785,"[unused780]":786,"[unused781]":787,"[unused782]":788,"[unused783]":789,"[unused784]":790,"[unused785]":791,"[unused786]":792,"[unused787]":793,"[unused788]":794,"[unused789]":795,"[unused790]":796,"[unused791]":797,"[unused792]":798,"[unused793]":799,"[unused794]":800,"[unused795]":801,"[unused796]":802,"[unused797]":803,"[unused798]":804,"[unused799]":805,"[unused800]":806,"[unused801]":807,"[unused802]":808,"[unused803]":809,"[unused804]":810,"[unused805]":811,"[unused806]":812,"[unused807]":813,"[unused808]":814,"[unused809]":815,"[unused810]":816,"[unused811]":817,"[unused812]":818,"[unused813]":819,"[unused814]":820,"[unused815]":821,"[unused816]":822,"[unused817]":823,"[unused818]":824,"[unused819]":825,"[unused820]":826,"[unused821]":827,"[unused822]":828,"[unused823]":829,"[unused824]":830,"[unused825]":831,"[unused826]":832,"[unused827]":833,"[unused828]":834,"[unused829]":835,"[unused830]":836,"[unused831]":837,"[unused832]":838,"[unused833]":839,"[unused834]":840,"[unused835]":841,"[unused836]":842,"[unused837]":843,"[unused838]":844,"[unused839]":845,"[unused840]":846,"[unused841]":847,"[unused842]":848,"[unused843]":849,"[unused844]":850,"[unused845]":851,"[unused846]":852,"[unused847]":853,"[unused848]":854,"[unused849]":855,"[unused850]":856,"[unused851]":857,"[unused852]":858,"[unused853]":859,"[unused854]":860,"[unused855]":861,"[unused856]":862,"[unused857]":863,"[unused858]":864,"[unused859]":865,"[unused860]":866,"[unused861]":867,"[unused862]":868,"[unused863]":869,"[unused864]":870,"[unused865]":871,"[unused866]":872,"[unused867]":873,"[unused868]":874,"[unused869]":875,"[unused870]":876,"[unused871]":877,"[unused872]":878,"[unused873]":879,"[unused874]":880,"[unused875]":881,"[unused876]":882,"[unused877]":883,"[unused878]":884,"[unused879]":885,"[unused880]":886,"[unused881]":887,"[unused882]":888,"[unused883]":889,"[unused884]":890,"[unused885]":891,"[unused886]":892,"[unused887]":893,"[unused888]":894,"[unused889]":895,"[unused890]":896,"[unused891]":897,"[unused892]":898,"[unused893]":899,"[unused894]":900,"[unused895]":901,"[unused896]":902,"[unused897]":903,"[unused898]":904,"[unused899]":905,"[unused900]":906,"[unused901]":907,"[unused902]":908,"[unused903]":909,"[unused904]":910,"[unused905]":911,"[unused906]":912,"[unused907]":913,"[unused908]":914,"[unused909]":915,"[unused910]":916,"[unused911]":917,"[unused912]":918,"[unused913]":919,"[unused914]":920,"[unused915]":921,"[unused916]":922,"[unused917]":923,"[unused918]":924,"[unused919]":925,"[unused920]":926,"[unused921]":927,"[unused922]":928,"[unused923]":929,"[unused924]":930,"[unused925]":931,"[unused926]":932,"[unused927]":933,"[unused928]":934,"[unused929]":935,"[unused930]":936,"[unused931]":937,"[unused932]":938,"[unused933]":939,"[unused934]":940,"[unused935]":941,"[unused936]":942,"[unused937]":943,"[unused938]":944,"[unused939]":945,"[unused940]":946,"[unused941]":947,"[unused942]":948,"[unused943]":949,"[unused944]":950,"[unused945]":951,"[unused946]":952,"[unused947]":953,"[unused948]":954,"[unused949]":955,"[unused950]":956,"[unused951]":957,"##|":958,"|":959,"##}":960,"}":961,"##{":962,"{":963,"##_":964,"_":965,"##+":966,"+":967,"##*":968,"*":969,"##&":970,"&":971,"##$":972,"$":973,"##]":974,"]":975,"##[":976,"[":977,"##=":978,"=":979,"##>":980,">":981,"##<":982,"<":983,"##@":984,"@":985,"##\\":986,"\\":987,"##/":988,"/":989,"##%":990,"%":991,"##;":992,";":993,"##:":994,":":995,"##8":996,"8":997,"##7":998,"7":999,"##6":1000,"6":1001,"4":1002,"##4":1003,"##w":1004,"w":1005,"e":1006,"d":1007,".":1008,"de":1009,"l":1010,"p":1011,"a":1012,"c":1013,"##os":1014,"s":1015,"##er":1016,"##en":1017,"##es":1018,",":1019,"##ar":1020,"##as":1021,"##on":1022,"m":1023,"##ci":1024,"##qu":1025,"##or":1026,"t":1027,"es":1028,"##an":1029,"qu":1030,"##ad":1031,"la":1032,"n":1033,"##un":1034,"en":1035,"##re":1036,"##in":1037,"##al":1038,"el":1039,"y":1040,"que":1041,"h":1042,"##te":1043,"un":1044,"##ón":1045,"v":1046,"##ta":1047,"con":1048,"##to":1049,"##do":1050,"##ti":1051,"##ra":1052,"##ro":1053,"no":1054,"f":1055,"##is":1056,"se":1057,"##om":1058,"?":1059,"##ic":1060,"b":1061,"##am":1062,"¿":1063,"##ien":1064,"##ción":1065,"##id":1066,"los":1067,"o":1068,"su":1069,"re":1070,"g":1071,"par":1072,"in":1073,"al":1074,"ha":1075,"por":1076,"##ue":1077,"est":1078,"com":1079,"##le":1080,"del":1081,"##ado":1082,"##ol":1083,"##res":1084,"las":1085,"lo":1086,"##ri":1087,"##ec":1088,"##ía":1089,"##em":1090,"una":1091,"##lo":1092,"##ente":1093,"me":1094,"##la":1095,"si":1096,"para":1097,"1":1098,"per":1099,"\"":1100,"##tr":1101,"##cu":1102,"cu":1103,"##di":1104,"##cion":1105,"pro":1106,"##ab":1107,"##us":1108,"!":1109,"##go":1110,"di":1111,"##ación":1112,"##ier":1113,"##de":1114,"##ch":1115,"##ás":1116,"j":1117,"des":1118,"##ter":1119,"¡":1120,"i":1121,"##ent":1122,"##il":1123,"##tu":1124,"##gu":1125,"##ada":1126,"##od":1127,"mu":1128,"2":1129,"##io":1130,"##ando":1131,"##bre":1132,"##idad":1133,"##el":1134,")":1135,"mi":1136,"##ia":1137,"##mp":1138,"-":1139,"qué":1140,"##ma":1141,"##tos":1142,"##cia":1143,"##ran":1144,"so":1145,"as":1146,"(":1147,"##tar":1148,"esta":1149,"##ir":1150,"como":1151,"##ba":1152,"##mo":1153,"##ciones":1154,"te":1155,"ac":1156,"está":1157,"ex":1158,"##ca":1159,"##iz":1160,"##ales":1161,"##tiv":1162,"ten":1163,"##ión":1164,"le":1165,"##ados":1166,"##da":1167,"an":1168,"pue":1169,"ser":1170,"##co":1171,"##ica":1172,"##jo":1173,"##tes":1174,"##tor":1175,"##po":1176,"##bi":1177,"##era":1178,"##tra":1179,"esp":1180,"##ten":1181,"##se":1182,"tra":1183,"##ici":1184,"ma":1185,"más":1186,"##ce":1187,"pa":1188,"##dad":1189,"##me":1190,"ar":1191,"##ues":1192,"r":1193,"##én":1194,"pero":1195,"res":1196,"##án":1197,"hab":1198,"##tro":1199,"##mente":1200,"##ul":1201,"esto":1202,"tu":1203,"##tas":1204,"ap":1205,"##ig":1206,"##que":1207,"20":1208,"##amos":1209,"to":1210,"##iv":1211,"sí":1212,"##ero":1213,"bien":1214,"##ora":1215,"pre":1216,"##ez":1217,"dis":1218,"##mos":1219,"19":1220,"##lar":1221,"tien":1222,"ti":1223,"##iento":1224,"##ble":1225,"##emos":1226,"tod":1227,"ca":1228,"##cer":1229,"comp":1230,"##tan":1231,"ver":1232,"sus":1233,"##man":1234,"cons":1235,"cre":1236,"bu":1237,"##ida":1238,"ent":1239,"##ie":1240,"##orm":1241,"car":1242,"##uc":1243,"##és":1244,"##gun":1245,"sobre":1246,"fue":1247,"##ico":1248,"pr":1249,"eso":1250,"cas":1251,"yo":1252,"##ones":1253,"am":1254,"##ces":1255,"aqu":1256,"or":1257,"inter":1258,"na":1259,"deb":1260,"pres":1261,"ah":1262,"fu":1263,"man":1264,"mar":1265,"##los":1266,"quier":1267,"ch":1268,"##im":1269,"co":1270,"##gar":1271,"pas":1272,"##lan":1273,"buen":1274,"##ido":1275,"sab":1276,"este":1277,"##tal":1278,"imp":1279,"##pa":1280,"##con":1281,"pod":1282,"ob":1283,"##ga":1284,"mis":1285,"##ambi":1286,"##rim":1287,"##ento":1288,"po":1289,"##ún":1290,"##tros":1291,"##eces":1292,"sal":1293,"##pe":1294,"##ens":1295,"##encia":1296,"aquí":1297,"##ver":1298,"##ras":1299,"todo":1300,"##ño":1301,"sol":1302,"##ios":1303,"ad":1304,"inf":1305,"3":1306,"##per":1307,"##je":1308,"##ños":1309,"##cias":1310,"hay":1311,"us":1312,"lle":1313,"##ores":1314,"##lam":1315,"##na":1316,"k":1317,"son":1318,"ya":1319,"sin":1320,"##ís":1321,"nos":1322,"##adas":1323,"é":1324,"200":1325,"##les":1326,"ab":1327,"##tin":1328,"pe":1329,"##vo":1330,"##par":1331,"cor":1332,"##ur":1333,"##ib":1334,"##amente":1335,"##ías":1336,"así":1337,"deci":1338,"##um":1339,"##las":1340,"entre":1341,"##ud":1342,"##ac":1343,"ro":1344,"##it":1345,"fin":1346,"##des":1347,"##za":1348,"##av":1349,"traba":1350,"cuando":1351,"tambi":1352,"##min":1353,"has":1354,"muy":1355,"también":1356,"##enta":1357,"much":1358,"##gan":1359,"cam":1360,"hacer":1361,"##fer":1362,"reg":1363,"##son":1364,"##eci":1365,"##ru":1366,"##mas":1367,"lu":1368,"gra":1369,"tan":1370,"neces":1371,"ni":1372,"segu":1373,"##emp":1374,"##lic":1375,"##fici":1376,"##den":1377,"prim":1378,"##ech":1379,"##iste":1380,"nue":1381,"ba":1382,"gen":1383,"##ven":1384,"##vi":1385,"##cional":1386,"##br":1387,"ahora":1388,"pu":1389,"ter":1390,"emp":1391,"mo":1392,"##gra":1393,"tiene":1394,"##pon":1395,"##fic":1396,"##ve":1397,"##va":1398,"todos":1399,"##der":1400,"pol":1401,"cos":1402,"có":1403,"ra":1404,"##ina":1405,"hu":1406,"señ":1407,"esc":1408,"##almente":1409,"##oy":1410,"dos":1411,"era":1412,"5":1413,"gran":1414,"parti":1415,"##idas":1416,"ins":1417,"ven":1418,"##entes":1419,"##esti":1420,"##isión":1421,"él":1422,"algo":1423,"##iendo":1424,"inc":1425,"du":1426,"##tras":1427,"puede":1428,"##gr":1429,"person":1430,"##ja":1431,"pos":1432,"mun":1433,"vez":1434,"estoy":1435,"##jer":1436,"gu":1437,"dic":1438,"##por":1439,"he":1440,"vamos":1441,"nues":1442,"##dos":1443,"0":1444,"##tic":1445,"##mi":1446,"##lu":1447,"##duc":1448,"medi":1449,"au":1450,"##ólo":1451,"##endo":1452,"va":1453,"##pu":1454,"##cip":1455,"##iones":1456,"ay":1457,"##ana":1458,"##ío":1459,"men":1460,"mej":1461,"hom":1462,"llam":1463,"##idades":1464,"##no":1465,"mal":1466,"##rech":1467,"sólo":1468,"años":1469,"##aron":1470,"##cuer":1471,"##ista":1472,"##tado":1473,"##ador":1474,"cómo":1475,"ir":1476,"##rec":1477,"can":1478,"rela":1479,"ve":1480,"##iente":1481,"u":1482,"##tivo":1483,"tengo":1484,"##aliz":1485,"sé":1486,"do":1487,"##car":1488,"for":1489,"san":1490,"bueno":1491,"##ante":1492,"tú":1493,"##ían":1494,"##tri":1495,"impor":1496,"##ion":1497,"##tica":1498,"estás":1499,"tom":1500,"##ino":1501,"gener":1502,"##ita":1503,"ne":1504,"nada":1505,"hasta":1506,"cal":1507,"##ias":1508,"derech":1509,"ese":1510,"##ario":1511,"ella":1512,"##ren":1513,"parte":1514,"cono":1515,"comun":1516,"##pues":1517,"han":1518,"##ola":1519,"estado":1520,"don":1521,"uste":1522,"##empo":1523,"algun":1524,"##aba":1525,"tiempo":1526,"país":1527,"rep":1528,"estu":1529,"her":1530,"fun":1531,"contra":1532,"may":1533,"hi":1534,"##itar":1535,"sec":1536,"##miento":1537,"##ín":1538,"##cio":1539,"desde":1540,"ju":1541,"gracias":1542,"##ito":1543,"mejor":1544,"mil":1545,"fuer":1546,"##pos":1547,"##til":1548,"conse":1549,"##ícu":1550,"##tiva":1551,"porque":1552,"estar":1553,"##ecto":1554,"puedo":1555,"podr":1556,"conf":1557,"##idos":1558,"##arro":1559,"##titu":1560,"##can":1561,"##ea":1562,"quiero":1563,"especi":1564,"ci":1565,"vol":1566,"cab":1567,"bas":1568,"##bier":1569,"decir":1570,"##tura":1571,"tran":1572,"199":1573,"##icos":1574,"##uro":1575,"cer":1576,"##tir":1577,"están":1578,"##ena":1579,"##adre":1580,"soy":1581,"##jar":1582,"col":1583,"plan":1584,"sig":1585,"9":1586,"##che":1587,"min":1588,"##ér":1589,"val":1590,"##ña":1591,"á":1592,"##tó":1593,"estaba":1594,"##uel":1595,"cual":1596,"verdad":1597,"##arrol":1598,"##onces":1599,"##zo":1600,"go":1601,"desarrol":1602,"señor":1603,"##avor":1604,"mon":1605,"##cur":1606,"esa":1607,"trabajo":1608,"##mb":1609,"##rante":1610,"entonces":1611,"##unto":1612,"vida":1613,"uno":1614,"favor":1615,"##jos":1616,"id":1617,"##du":1618,"##ara":1619,"euro":1620,"##tante":1621,"exp":1622,"##ing":1623,"##quier":1624,"hech":1625,"mujer":1626,"##cial":1627,"solo":1628,"201":1629,"##able":1630,"##ién":1631,"acuer":1632,"##bl":1633,"##ano":1634,"casa":1635,"da":1636,"inform":1637,"##trar":1638,"##eros":1639,"rec":1640,"direc":1641,"progra":1642,"prin":1643,"##qui":1644,"dios":1645,"lugar":1646,"hace":1647,"despu":1648,"después":1649,"tienes":1650,"ce":1651,"usted":1652,"interna":1653,"inv":1654,"donde":1655,"encon":1656,"##tad":1657,"##lti":1658,"estados":1659,"##tación":1660,"general":1661,"##nos":1662,"##ución":1663,"creo":1664,"mismo":1665,"pens":1666,"##ior":1667,"##ería":1668,"eres":1669,"antes":1670,"organ":1671,"durante":1672,"10":1673,"##pi":1674,"comisión":1675,"viv":1676,"lib":1677,"trans":1678,"den":1679,"##cil":1680,"af":1681,"ej":1682,"##entos":1683,"cr":1684,"##dr":1685,"##entar":1686,"##dar":1687,"##das":1688,"##udad":1689,"vi":1690,"##if":1691,"princip":1692,"form":1693,"llev":1694,"##tur":1695,"gus":1696,"z":1697,"ciudad":1698,"##so":1699,"mucho":1700,"había":1701,"##ónde":1702,"##tico":1703,"quién":1704,"voy":1705,"har":1706,"día":1707,"nun":1708,"sr":1709,"prop":1710,"##ber":1711,"##ece":1712,"tal":1713,"mí":1714,"human":1715,"nunca":1716,"polí":1717,"sabes":1718,"##sión":1719,"##guien":1720,"ú":1721,"##gas":1722,"vis":1723,"acuerdo":1724,"##gos":1725,"##lación":1726,"gru":1727,"serv":1728,"muer":1729,"año":1730,"##uego":1731,"pon":1732,"nom":1733,"hola":1734,"otros":1735,"mayor":1736,"sen":1737,"art":1738,"fran":1739,"hecho":1740,"##cha":1741,"##ya":1742,"ref":1743,"hombre":1744,"##gen":1745,"tar":1746,"espa":1747,"cada":1748,"reci":1749,"ind":1750,"otra":1751,"consejo":1752,"##ición":1753,"dónde":1754,"##oso":1755,"##ió":1756,"##amil":1757,"mundo":1758,"dec":1759,"##gua":1760,"li":1761,"##ible":1762,"ofici":1763,"sido":1764,"##tivos":1765,"desarrollo":1766,"produc":1767,"##embre":1768,"proble":1769,"##empre":1770,"bo":1771,"siempre":1772,"med":1773,"tr":1774,"esper":1775,"##th":1776,"les":1777,"##og":1778,"##tamente":1779,"bar":1780,"##arios":1781,"sa":1782,"miem":1783,"##eo":1784,"dar":1785,"pla":1786,"sea":1787,"famil":1788,"últi":1789,"##rib":1790,"##ona":1791,"ellos":1792,"##vis":1793,"all":1794,"forma":1795,"tenemos":1796,"##gún":1797,"pues":1798,"organiz":1799,"##icas":1800,"sub":1801,"op":1802,"quieres":1803,"tres":1804,"jo":1805,"fi":1806,"actu":1807,"##adores":1808,"##ord":1809,"##aciones":1810,"otro":1811,"jun":1812,"##zar":1813,"##ciendo":1814,"##yo":1815,"##dido":1816,"##end":1817,"ef":1818,"poco":1819,"##ame":1820,"super":1821,"países":1822,"is":1823,"##ho":1824,"todas":1825,"mom":1826,"nuevo":1827,"clar":1828,"siento":1829,"presid":1830,"##úbl":1831,"encu":1832,"mer":1833,"siste":1834,"##cionales":1835,"cosas":1836,"his":1837,"escu":1838,"##antes":1839,"apar":1840,"##lus":1841,"europe":1842,"bus":1843,"th":1844,"personas":1845,"pal":1846,"##ticas":1847,"nombre":1848,"def":1849,"tanto":1850,"##ismo":1851,"cul":1852,"segun":1853,"##ye":1854,"ev":1855,"estudi":1856,"oh":1857,"##eron":1858,"artícu":1859,"##ge":1860,"##ár":1861,"puedes":1862,"prof":1863,"##ál":1864,"##lig":1865,"##arse":1866,"fr":1867,"ayud":1868,"##ilidad":1869,"##mpl":1870,"##argo":1871,"##ne":1872,"gobier":1873,"servici":1874,"ri":1875,"proy":1876,"noso":1877,"pregun":1878,"##ton":1879,"segur":1880,"##tido":1881,"primera":1882,"oc":1883,"econ":1884,"menos":1885,"ahí":1886,"haber":1887,"tener":1888,"derechos":1889,"alguien":1890,"##amiento":1891,"##óm":1892,"inclu":1893,"tras":1894,"apro":1895,"obje":1896,"##alidad":1897,"##ientos":1898,"debe":1899,"##orme":1900,"of":1901,"pap":1902,"##eza":1903,"##tis":1904,"nosotros":1905,"aplic":1906,"ho":1907,"##zón":1908,"internacional":1909,"consid":1910,"##mento":1911,"pes":1912,"##dia":1913,"estos":1914,"momento":1915,"tipo":1916,"##ers":1917,"##cido":1918,"cier":1919,"tem":1920,"dijo":1921,"padre":1922,"##toria":1923,"estable":1924,"quien":1925,"información":1926,"din":1927,"fe":1928,"activ":1929,"##dió":1930,"realiz":1931,"estas":1932,"mé":1933,"##ecu":1934,"mes":1935,"mor":1936,"ban":1937,"##bros":1938,"primer":1939,"##ha":1940,"fal":1941,"hablar":1942,"##ban":1943,"##tados":1944,"##cen":1945,"cuenta":1946,"noche":1947,"pueden":1948,"##sa":1949,"##ine":1950,"estamos":1951,"programa":1952,"##tores":1953,"nacional":1954,"seguridad":1955,"be":1956,"herman":1957,"##ará":1958,"gan":1959,"naciones":1960,"grupo":1961,"##tec":1962,"##erv":1963,"ag":1964,"quer":1965,"pel":1966,"dej":1967,"obs":1968,"##bo":1969,"00":1970,"emb":1971,"15":1972,"gente":1973,"##xi":1974,"##igo":1975,"##osa":1976,"aun":1977,"contin":1978,"##cul":1979,"repres":1980,"peque":1981,"dé":1982,"equi":1983,"resp":1984,"podría":1985,"ún":1986,"comer":1987,"nor":1988,"vuel":1989,"situ":1990,"##tivas":1991,"12":1992,"ol":1993,"secre":1994,"##cup":1995,"nad":1996,"##tre":1997,"fuera":1998,"nú":1999,"parece":2000,"##ial":2001,"##tencia":2002,"##teg":2003,"resul":2004,"pri":2005,"apo":2006,"util":2007,"unidas":2008,"##ific":2009,"vas":2010,"##ús":2011,"hor":2012,"##van":2013,"miembros":2014,"artículo":2015,"pasa":2016,"##ceso":2017,"tienen":2018,"##ene":2019,"tenía":2020,"otras":2021,"gobierno":2022,"adem":2023,"amb":2024,"##sos":2025,"##ientes":2026,"jus":2027,"difer":2028,"toda":2029,"ley":2030,"deber":2031,"##cimiento":2032,"luego":2033,"además":2034,"nueva":2035,"##rar":2036,"##ác":2037,"pi":2038,"##mon":2039,"##cos":2040,"días":2041,"hijo":2042,"comple":2043,"utiliz":2044,"nuestro":2045,"conven":2046,"soci":2047,"cualquier":2048,"cl":2049,"ing":2050,"cap":2051,"##ice":2052,"caso":2053,"núm":2054,"##uda":2055,"nadie":2056,"derecho":2057,"##entro":2058,"##vid":2059,"trabaj":2060,"sigu":2061,"mas":2062,"##anos":2063,"cen":2064,"mira":2065,"hoy":2066,"familia":2067,"quiere":2068,"pob":2069,"##puesto":2070,"##bu":2071,"##blic":2072,"##ril":2073,"sistema":2074,"termin":2075,"##cep":2076,"resol":2077,"presidente":2078,"medio":2079,"autor":2080,"fa":2081,"loc":2082,"mien":2083,"##ill":2084,"##tantes":2085,"guer":2086,"respon":2087,"##00":2088,"##cado":2089,"habi":2090,"contro":2091,"capa":2092,"nuestra":2093,"##len":2094,"##tru":2095,"temp":2096,"##izo":2097,"investi":2098,"consider":2099,"ado":2100,"##ité":2101,"os":2102,"económ":2103,"mientras":2104,"agr":2105,"je":2106,"vo":2107,"és":2108,"##ke":2109,"univ":2110,"recon":2111,"##ública":2112,"##inar":2113,"mill":2114,"finan":2115,"11":2116,"cin":2117,"##ectos":2118,"será":2119,"tor":2120,"##truc":2121,"preo":2122,"enti":2123,"lleg":2124,"##imiento":2125,"permi":2126,"##ensa":2127,"empres":2128,"som":2129,"aunque":2130,"informe":2131,"cuán":2132,"##terior":2133,"##ard":2134,"dinero":2135,"dice":2136,"mater":2137,"##cidad":2138,"hacia":2139,"orden":2140,"##gación":2141,"cambi":2142,"reun":2143,"entr":2144,"niños":2145,"##minis":2146,"##tener":2147,"algunos":2148,"##fr":2149,"##fo":2150,"fueron":2151,"aún":2152,"var":2153,"elec":2154,"##cular":2155,"número":2156,"gar":2157,"##vier":2158,"##cho":2159,"manera":2160,"##ivel":2161,"##and":2162,"comité":2163,"humanos":2164,"seguro":2165,"tier":2166,"##ticos":2167,"madre":2168,"##bas":2169,"claro":2170,"ale":2171,"podemos":2172,"inte":2173,"nivel":2174,"igu":2175,"cuesti":2176,"##lec":2177,"##istas":2178,"##atro":2179,"anti":2180,"exper":2181,"bajo":2182,"auto":2183,"trata":2184,"ases":2185,"##tando":2186,"allí":2187,"##zas":2188,"ses":2189,"dejar":2190,"puer":2191,"quiz":2192,"dentro":2193,"haciendo":2194,"##tun":2195,"poder":2196,"##bres":2197,"##ala":2198,"##áp":2199,"profes":2200,"financi":2201,"persona":2202,"mam":2203,"##íamos":2204,"funcion":2205,"##éc":2206,"acab":2207,"importante":2208,"mujeres":2209,"ru":2210,"hizo":2211,"perd":2212,"##cel":2213,"##ed":2214,"##all":2215,"espera":2216,"desa":2217,"total":2218,"##rá":2219,"mañ":2220,"nuev":2221,"##esta":2222,"##peración":2223,"##anza":2224,"institu":2225,"liber":2226,"sign":2227,"univers":2228,"encontrar":2229,"em":2230,"social":2231,"unos":2232,"##lamento":2233,"rev":2234,"medidas":2235,"sabe":2236,"##iar":2237,"leg":2238,"diver":2239,"edi":2240,"según":2241,"veces":2242,"mañana":2243,"##ist":2244,"buena":2245,"tus":2246,"ta":2247,"sur":2248,"##torio":2249,"##encias":2250,"##lor":2251,"cosa":2252,"##rig":2253,"prepar":2254,"conc":2255,"extra":2256,"amigo":2257,"the":2258,"clas":2259,"##dio":2260,"##taría":2261,"##jas":2262,"##alo":2263,"pueb":2264,"especial":2265,"##tel":2266,"##íodo":2267,"##bido":2268,"proyecto":2269,"período":2270,"seman":2271,"saber":2272,"necesita":2273,"guerra":2274,"##erg":2275,"##ional":2276,"declar":2277,"##tific":2278,"ja":2279,"adop":2280,"particip":2281,"##cas":2282,"##uela":2283,"##tención":2284,"política":2285,"30":2286,"##ep":2287,"equipo":2288,"ayudar":2289,"esos":2290,"comunidad":2291,"polic":2292,"##ros":2293,"volver":2294,"recur":2295,"13":2296,"##ferencia":2297,"proce":2298,"habl":2299,"##mar":2300,"##entra":2301,"##ich":2302,"cele":2303,"emple":2304,"hombres":2305,"ante":2306,"##inación":2307,"ayuda":2308,"fel":2309,"##reg":2310,"##puesta":2311,"historia":2312,"##iado":2313,"eran":2314,"##ór":2315,"servicios":2316,"##bio":2317,"punto":2318,"continu":2319,"coo":2320,"amig":2321,"problema":2322,"llegar":2323,"tarde":2324,"conti":2325,"agua":2326,"tendr":2327,"##be":2328,"mundi":2329,"compa":2330,"gusta":2331,"dicho":2332,"int":2333,"final":2334,"##ves":2335,"escri":2336,"sh":2337,"embargo":2338,"millones":2339,"regres":2340,"ele":2341,"##ecer":2342,"actividades":2343,"##olog":2344,"muchos":2345,"hici":2346,"exam":2347,"##ifica":2348,"##rió":2349,"##untos":2350,"##ura":2351,"x":2352,"##iso":2353,"interes":2354,"##fe":2355,"palab":2356,"orig":2357,"norm":2358,"jul":2359,"recuer":2360,"paz":2361,"##tac":2362,"fo":2363,"##mientos":2364,"fon":2365,"##illa":2366,"pien":2367,"posible":2368,"##istencia":2369,"##ció":2370,"000":2371,"ráp":2372,"dif":2373,"##ivo":2374,"##ip":2375,"##óg":2376,"minu":2377,"sue":2378,"##aste":2379,"##cios":2380,"##tural":2381,"población":2382,"##ierda":2383,"adminis":2384,"recono":2385,"cuer":2386,"ejemp":2387,"acer":2388,"##tran":2389,"condi":2390,"centro":2391,"hemos":2392,"fund":2393,"##isto":2394,"##tario":2395,"prob":2396,"problemas":2397,"dem":2398,"gas":2399,"tierra":2400,"igual":2401,"unidos":2402,"van":2403,"alguna":2404,"er":2405,"sex":2406,"aplicación":2407,"nin":2408,"##tancia":2409,"minis":2410,"##eras":2411,"supon":2412,"vie":2413,"mad":2414,"##ts":2415,"##ck":2416,"razón":2417,"necesito":2418,"##bol":2419,"##tribu":2420,"##lares":2421,"vien":2422,"mierda":2423,"amor":2424,"docu":2425,"constitu":2426,"cuatro":2427,"lan":2428,"inclus":2429,"##termin":2430,"maldi":2431,"##tera":2432,"gol":2433,"##té":2434,"doc":2435,"##dor":2436,"##vin":2437,"partes":2438,"policía":2439,"inici":2440,"##ular":2441,"decisión":2442,"##dir":2443,"##ental":2444,"##duci":2445,"##ual":2446,"hora":2447,"##igu":2448,"esti":2449,"##zos":2450,"escuch":2451,"cien":2452,"##tada":2453,"particular":2454,"##tral":2455,"##visión":2456,"present":2457,"muchas":2458,"##ell":2459,"respecto":2460,"##abor":2461,"salud":2462,"pan":2463,"##ques":2464,"##aban":2465,"lado":2466,"##cid":2467,"trib":2468,"caus":2469,"##ono":2470,"situación":2471,"dep":2472,"sac":2473,"##aré":2474,"debería":2475,"nego":2476,"pasado":2477,"##dic":2478,"##men":2479,"matar":2480,"##jes":2481,"represent":2482,"##ex":2483,"dije":2484,"##ror":2485,"importa":2486,"compañ":2487,"##dose":2488,"visto":2489,"demas":2490,"aquel":2491,"encontr":2492,"resolución":2493,"##bro":2494,"sos":2495,"mundial":2496,"papá":2497,"siendo":2498,"ningun":2499,"algunas":2500,"idea":2501,"esas":2502,"relación":2503,"vale":2504,"##ry":2505,"misma":2506,"##arlo":2507,"sep":2508,"recom":2509,"mamá":2510,"##ñas":2511,"control":2512,"##fico":2513,"##inas":2514,"desp":2515,"todav":2516,"determin":2517,"##pital":2518,"##ger":2519,"##mple":2520,"##tió":2521,"##ama":2522,"aum":2523,"oye":2524,"casi":2525,"ren":2526,"hacerlo":2527,"##col":2528,"mod":2529,"compe":2530,"cuan":2531,"##ustri":2532,"fir":2533,"comen":2534,"##ables":2535,"quería":2536,"terri":2537,"realmente":2538,"segundo":2539,"dici":2540,"crees":2541,"república":2542,"via":2543,"ense":2544,"má":2545,"logr":2546,"alcan":2547,"significa":2548,"apoyo":2549,"muerte":2550,"cierto":2551,"ig":2552,"sería":2553,"jue":2554,"todavía":2555,"and":2556,"trav":2557,"europea":2558,"atra":2559,"pron":2560,"norte":2561,"encuentra":2562,"##iciones":2563,"##siones":2564,"##fica":2565,"aprob":2566,"##gado":2567,"mío":2568,"##migo":2569,"real":2570,"conmigo":2571,"cir":2572,"ampl":2573,"blan":2574,"dom":2575,"tí":2576,"mus":2577,"empez":2578,"ade":2579,"alem":2580,"25":2581,"inten":2582,"opor":2583,"##dades":2584,"conver":2585,"enfer":2586,"tur":2587,"##tud":2588,"través":2589,"prue":2590,"##bor":2591,"cinco":2592,"oblig":2593,"gr":2594,"oportun":2595,"horas":2596,"prác":2597,"##ire":2598,"oficina":2599,"br":2600,"ello":2601,"qued":2602,"##ización":2603,"protec":2604,"##uer":2605,"public":2606,"##cis":2607,"diciembre":2608,"preocup":2609,"respons":2610,"cerca":2611,"compro":2612,"personal":2613,"##arme":2614,"viol":2615,"##lante":2616,"consegu":2617,"cara":2618,"##tí":2619,"##ase":2620,"proceso":2621,"incluso":2622,"##itas":2623,"perf":2624,"##icación":2625,"lí":2626,"##ficiente":2627,"##rir":2628,"ocur":2629,"dirig":2630,"cuid":2631,"##écn":2632,"##eta":2633,"desc":2634,"bol":2635,"tec":2636,"ase":2637,"dó":2638,"equ":2639,"recursos":2640,"##tán":2641,"cuar":2642,"dispos":2643,"mucha":2644,"ur":2645,"##ós":2646,"aso":2647,"rad":2648,"trad":2649,"vir":2650,"administra":2651,"sino":2652,"técn":2653,"acep":2654,"mov":2655,"unión":2656,"pueblo":2657,"esf":2658,"sup":2659,"##aría":2660,"camino":2661,"ton":2662,"mos":2663,"base":2664,"estr":2665,"envi":2666,"jur":2667,"demasiado":2668,"##bra":2669,"ejemplo":2670,"jug":2671,"cora":2672,"ustedes":2673,"algún":2674,"enten":2675,"educ":2676,"##gre":2677,"##ieron":2678,"##ág":2679,"##ám":2680,"organización":2681,"vig":2682,"distin":2683,"rey":2684,"espec":2685,"##icip":2686,"nuestros":2687,"déj":2688,"junto":2689,"alto":2690,"##entación":2691,"encar":2692,"##má":2693,"municip":2694,"##turas":2695,"acu":2696,"civ":2697,"dan":2698,"ima":2699,"socie":2700,"lín":2701,"fil":2702,"seguir":2703,"programas":2704,"pen":2705,"##ría":2706,"pár":2707,"cabeza":2708,"grandes":2709,"haya":2710,"##imo":2711,"##gi":2712,"##tón":2713,"fá":2714,"julio":2715,"on":2716,"##lica":2717,"##eric":2718,"hon":2719,"indi":2720,"descu":2721,"primero":2722,"contigo":2723,"suce":2724,"bro":2725,"##ale":2726,"hermano":2727,"##tion":2728,"sesiones":2729,"cooperación":2730,"mol":2731,"civil":2732,"##trás":2733,"ga":2734,"##bern":2735,"tomar":2736,"##dida":2737,"##ide":2738,"españ":2739,"promo":2740,"##gel":2741,"serio":2742,"salv":2743,"21":2744,"amigos":2745,"dólares":2746,"garan":2747,"oí":2748,"expres":2749,"celebr":2750,"ata":2751,"agu":2752,"destin":2753,"##gro":2754,"tele":2755,"##eas":2756,"protección":2757,"##tt":2758,"##ología":2759,"único":2760,"##zó":2761,"pasó":2762,"##ches":2763,"investigación":2764,"##uso":2765,"junio":2766,"frente":2767,"chica":2768,"ofre":2769,"##ticia":2770,"último":2771,"cumpl":2772,"##dico":2773,"##gres":2774,"##cito":2775,"productos":2776,"largo":2777,"##amble":2778,"armas":2779,"compar":2780,"salir":2781,"cur":2782,"datos":2783,"##hn":2784,"##isa":2785,"##ilar":2786,"##aria":2787,"cambio":2788,"niño":2789,"perman":2790,"posib":2791,"asamble":2792,"segunda":2793,"##fa":2794,"siguiente":2795,"poner":2796,"dispon":2797,"cris":2798,"ví":2799,"tribun":2800,"pasar":2801,"defin":2802,"deben":2803,"serie":2804,"pelícu":2805,"##rea":2806,"presente":2807,"sigue":2808,"servicio":2809,"tecn":2810,"mediante":2811,"##ancia":2812,"##icia":2813,"##tio":2814,"encan":2815,"##imos":2816,"meses":2817,"##ka":2818,"22":2819,"##zado":2820,"##sas":2821,"fer":2822,"asamblea":2823,"##respon":2824,"energ":2825,"debido":2826,"dispar":2827,"industri":2828,"##itos":2829,"arreg":2830,"quedar":2831,"##trucción":2832,"tema":2833,"deba":2834,"manten":2835,"ii":2836,"##bió":2837,"regis":2838,"tuvo":2839,"solici":2840,"km":2841,"cru":2842,"##nas":2843,"##pas":2844,"##éis":2845,"##ciales":2846,"2000":2847,"inde":2848,"libre":2849,"papel":2850,"educación":2851,"##iores":2852,"mús":2853,"correspon":2854,"vin":2855,"hac":2856,"atención":2857,"cuerpo":2858,"semana":2859,"llevar":2860,"##ile":2861,"universidad":2862,"región":2863,"acción":2864,"##erva":2865,"##cal":2866,"ninguna":2867,"lista":2868,"ning":2869,"realidad":2870,"tempor":2871,"consul":2872,"mano":2873,"suficiente":2874,"##orma":2875,"tel":2876,"ningún":2877,"bel":2878,"hubier":2879,"grande":2880,"mayo":2881,"bor":2882,"cri":2883,"recib":2884,"minutos":2885,"##hi":2886,"partido":2887,"capacidad":2888,"uso":2889,"ór":2890,"##alu":2891,"habla":2892,"difí":2893,"sector":2894,"##via":2895,"mayoría":2896,"pad":2897,"guar":2898,"mag":2899,"##ign":2900,"natural":2901,"23":2902,"condiciones":2903,"##lado":2904,"pie":2905,"estra":2906,"conv":2907,"enseñ":2908,"varios":2909,"europa":2910,"zona":2911,"toma":2912,"pró":2913,"secretario":2914,"mercado":2915,"ocup":2916,"##tamento":2917,"asegu":2918,"haces":2919,"##porte":2920,"última":2921,"eh":2922,"##echa":2923,"jefe":2924,"alim":2925,"somos":2926,"marco":2927,"ben":2928,"modo":2929,"cla":2930,"buenos":2931,"arri":2932,"##bia":2933,"juego":2934,"##tá":2935,"puerta":2936,"lin":2937,"##érica":2938,"fre":2939,"simple":2940,"##illo":2941,"españa":2942,"escuela":2943,"tex":2944,"##leg":2945,"red":2946,"##ick":2947,"##ula":2948,"sentido":2949,"pin":2950,"##und":2951,"arm":2952,"beb":2953,"bal":2954,"##ducir":2955,"##bar":2956,"##ándo":2957,"apren":2958,"##ológ":2959,"octu":2960,"asoci":2961,"siglo":2962,"hijos":2963,"conj":2964,"sor":2965,"##iera":2966,"octubre":2967,"veo":2968,"opera":2969,"##ler":2970,"prome":2971,"buenas":2972,"##tiembre":2973,"john":2974,"militar":2975,"abs":2976,"ge":2977,"hos":2978,"cuanto":2979,"pelig":2980,"quizá":2981,"puesto":2982,"sent":2983,"tro":2984,"ub":2985,"sociedad":2986,"común":2987,"relacion":2988,"reglamento":2989,"novi":2990,"at":2991,"efec":2992,"rápido":2993,"vaya":2994,"conoci":2995,"marzo":2996,"##terio":2997,"corazón":2998,"procedi":2999,"der":3000,"tam":3001,"##erte":3002,"manos":3003,"gri":3004,"##mentos":3005,"##yó":3006,"pronto":3007,"##iencia":3008,"muerto":3009,"septiembre":3010,"ves":3011,"conten":3012,"depar":3013,"nacionales":3014,"pueda":3015,"bene":3016,"propor":3017,"##li":3018,"##inos":3019,"señal":3020,"##tulo":3021,"bon":3022,"gesti":3023,"agrad":3024,"principal":3025,"##entales":3026,"organizaciones":3027,"señora":3028,"dol":3029,"feder":3030,"##pend":3031,"ital":3032,"internacionales":3033,"correc":3034,"##rio":3035,"av":3036,"cee":3037,"observ":3038,"hija":3039,"##dan":3040,"##olu":3041,"##gue":3042,"exac":3043,"demás":3044,"noviembre":3045,"lar":3046,"edad":3047,"sabía":3048,"igles":3049,"enero":3050,"ros":3051,"disc":3052,"lim":3053,"constru":3054,"diferentes":3055,"anim":3056,"trabajar":3057,"##cin":3058,"dese":3059,"cari":3060,"digo":3061,"olvid":3062,"unas":3063,"vista":3064,"##taciones":3065,"reunión":3066,"chicos":3067,"acerca":3068,"supuesto":3069,"luz":3070,"discul":3071,"busc":3072,"objetivo":3073,"jam":3074,"debo":3075,"priv":3076,"fra":3077,"seis":3078,"perten":3079,"##adamente":3080,"jes":3081,"##quiera":3082,"2001":3083,"iden":3084,"##ste":3085,"jos":3086,"##remos":3087,"clase":3088,"casos":3089,"abril":3090,"cuál":3091,"50":3092,"reco":3093,"len":3094,"provin":3095,"##ionales":3096,"ka":3097,"##tero":3098,"europeo":3099,"clu":3100,"libertad":3101,"pregunta":3102,"corr":3103,"doctor":3104,"presu":3105,"río":3106,"mic":3107,"adelante":3108,"##brero":3109,"lig":3110,"falta":3111,"producción":3112,"iba":3113,"estruc":3114,"ejer":3115,"párra":3116,"origin":3117,"##abilidad":3118,"inver":3119,"partir":3120,"fuerte":3121,"sim":3122,"tri":3123,"pop":3124,"línea":3125,"esposa":3126,"públ":3127,"club":3128,"az":3129,"público":3130,"acceso":3131,"cuestión":3132,"pensé":3133,"2005":3134,"difícil":3135,"##ll":3136,"asistencia":3137,"##dedor":3138,"allá":3139,"distri":3140,"dorm":3141,"##ablemente":3142,"orien":3143,"legis":3144,"grupos":3145,"esfuer":3146,"dij":3147,"dio":3148,"respe":3149,"##ack":3150,"tribunal":3151,"incre":3152,"pequeño":3153,"ojos":3154,"valor":3155,"31":3156,"fácil":3157,"##ense":3158,"cariño":3159,"formación":3160,"dado":3161,"afec":3162,"labor":3163,"##turo":3164,"próxi":3165,"##tadas":3166,"hablando":3167,"director":3168,"##tivamente":3169,"cabo":3170,"empresas":3171,"chico":3172,"nota":3173,"convención":3174,"adi":3175,"ejecu":3176,"come":3177,"evalu":3178,"intent":3179,"conferencia":3180,"políticas":3181,"figu":3182,"char":3183,"##ny":3184,"fan":3185,"demo":3186,"modi":3187,"vic":3188,"dirección":3189,"necesario":3190,"justicia":3191,"##este":3192,"fuerza":3193,"sra":3194,"fondo":3195,"hice":3196,"cuad":3197,"habían":3198,"ll":3199,"##tidad":3200,"##ug":3201,"##ork":3202,"##pre":3203,"independ":3204,"juntos":3205,"##rera":3206,"oficial":3207,"2002":3208,"entrar":3209,"##ración":3210,"contribu":3211,"proteg":3212,"libro":3213,"consecu":3214,"materia":3215,"##adora":3216,"pág":3217,"##arte":3218,"##bles":3219,"paso":3220,"cál":3221,"##rado":3222,"##pec":3223,"morir":3224,"##ificación":3225,"##edo":3226,"oportunidad":3227,"suerte":3228,"anterior":3229,"lon":3230,"##icamente":3231,"##eme":3232,"##bur":3233,"cuidado":3234,"cuestiones":3235,"resid":3236,"##enda":3237,"desapar":3238,"##ende":3239,"##tales":3240,"##ficio":3241,"##onas":3242,"única":3243,"sangre":3244,"energía":3245,"iglesia":3246,"estaban":3247,"mues":3248,"pobre":3249,"suf":3250,"##guientes":3251,"miembro":3252,"dise":3253,"bra":3254,"película":3255,"pers":3256,"capit":3257,"justo":3258,"##tina":3259,"español":3260,"conseguir":3261,"quin":3262,"##yendo":3263,"joven":3264,"deja":3265,"conocer":3266,"resultados":3267,"quizás":3268,"palabra":3269,"gén":3270,"sir":3271,"carac":3272,"##ley":3273,"##ania":3274,"campo":3275,"tenido":3276,"sitio":3277,"##ris":3278,"##inado":3279,"##enso":3280,"conte":3281,"##él":3282,"##et":3283,"100":3284,"obra":3285,"reino":3286,"pudi":3287,"debemos":3288,"recu":3289,"buscar":3290,"tratado":3291,"comunitar":3292,"bastante":3293,"fundam":3294,"esté":3295,"mantener":3296,"viene":3297,"alre":3298,"##lear":3299,"música":3300,"##ismos":3301,"exis":3302,"especialmente":3303,"bur":3304,"fecha":3305,"contac":3306,"siguientes":3307,"medios":3308,"ud":3309,"##ándose":3310,"central":3311,"empresa":3312,"2003":3313,"aus":3314,"recor":3315,"refier":3316,"principio":3317,"vivir":3318,"asuntos":3319,"llamado":3320,"gestión":3321,"##ete":3322,"##ese":3323,"creer":3324,"llama":3325,"mode":3326,"opin":3327,"quis":3328,"ejér":3329,"arg":3330,"asp":3331,"bos":3332,"##alización":3333,"espero":3334,"siquiera":3335,"##oría":3336,"##ff":3337,"##unci":3338,"calidad":3339,"##ly":3340,"futuro":3341,"entiendo":3342,"calle":3343,"avan":3344,"víc":3345,"##ducción":3346,"departamento":3347,"##anas":3348,"##diós":3349,"carta":3350,"adiós":3351,"arch":3352,"integr":3353,"gal":3354,"proyectos":3355,"##oc":3356,"29":3357,"##ite":3358,"##ima":3359,"parlamento":3360,"propie":3361,"estudio":3362,"ber":3363,"pac":3364,"##ko":3365,"podía":3366,"coord":3367,"genial":3368,"pier":3369,"##ph":3370,"2010":3371,"##uelo":3372,"mec":3373,"participación":3374,"rob":3375,"garanti":3376,"miedo":3377,"rus":3378,"viejo":3379,"escrib":3380,"ingres":3381,"mencion":3382,"dro":3383,"195":3384,"estuvo":3385,"febrero":3386,"cuánto":3387,"nuevos":3388,"padres":3389,"nuevas":3390,"elim":3391,"misión":3392,"indic":3393,"##ki":3394,"inicia":3395,"dr":3396,"varias":3397,"##yen":3398,"agos":3399,"eleg":3400,"##xim":3401,"comien":3402,"##vil":3403,"relaciones":3404,"##udo":3405,"principales":3406,"terror":3407,"##xico":3408,"supongo":3409,"esca":3410,"abier":3411,"##dado":3412,"arriba":3413,"éste":3414,"bri":3415,"feliz":3416,"cargo":3417,"ries":3418,"haz":3419,"tér":3420,"declaración":3421,"##lés":3422,"alma":3423,"fis":3424,"hubiera":3425,"ambos":3426,"conform":3427,"##turales":3428,"##culo":3429,"aba":3430,"cree":3431,"agosto":3432,"enfr":3433,"domin":3434,"##vitar":3435,"lucha":3436,"sociales":3437,"##cina":3438,"inm":3439,"vuelta":3440,"compren":3441,"proporcion":3442,"espacio":3443,"párrafo":3444,"mir":3445,"exc":3446,"venir":3447,"diab":3448,"##ielo":3449,"queda":3450,"hacen":3451,"limp":3452,"corre":3453,"pensar":3454,"inglés":3455,"mensa":3456,"capital":3457,"ham":3458,"sorp":3459,"##onia":3460,"importancia":3461,"separ":3462,"argent":3463,"##iza":3464,"##tima":3465,"pú":3466,"democ":3467,"imag":3468,"palabras":3469,"##entemente":3470,"estudios":3471,"##óp":3472,"##teriores":3473,"capitán":3474,"##quis":3475,"facil":3476,"##ric":3477,"propio":3478,"elem":3479,"##graf":3480,"instal":3481,"selec":3482,"##ag":3483,"aband":3484,"##ecen":3485,"ejército":3486,"##éf":3487,"respuesta":3488,"encuen":3489,"campe":3490,"##iales":3491,"##media":3492,"antigu":3493,"nuestras":3494,"posición":3495,"gustaría":3496,"elabor":3497,"propuesta":3498,"éx":3499,"propia":3500,"objetivos":3501,"ubic":3502,"necesidad":3503,"##iva":3504,"ellas":3505,"##bamos":3506,"##entas":3507,"ambiente":3508,"alrededor":3509,"##taron":3510,"##quil":3511,"golpe":3512,"##eno":3513,"##dica":3514,"dijiste":3515,"##yan":3516,"dev":3517,"york":3518,"caracter":3519,"##nes":3520,"importantes":3521,"ál":3522,"cuales":3523,"##puestas":3524,"debes":3525,"et":3526,"méxico":3527,"excep":3528,"##miso":3529,"##trum":3530,"alta":3531,"explic":3532,"preocu":3533,"normas":3534,"sam":3535,"dav":3536,"examen":3537,"pequeña":3538,"relig":3539,"mat":3540,"tío":3541,"acom":3542,"##frica":3543,"##bil":3544,"teléf":3545,"actual":3546,"juan":3547,"camp":3548,"enter":3549,"refer":3550,"principios":3551,"conci":3552,"creación":3553,"##lla":3554,"##mes":3555,"pid":3556,"popular":3557,"jack":3558,"##zco":3559,"án":3560,"compr":3561,"especie":3562,"##oma":3563,"desem":3564,"comercio":3565,"##ritu":3566,"ped":3567,"##ner":3568,"##lie":3569,"##enas":3570,"francia":3571,"económico":3572,"maes":3573,"volun":3574,"abajo":3575,"resto":3576,"superior":3577,"términ":3578,"conflic":3579,"produ":3580,"##rido":3581,"##ciente":3582,"haga":3583,"económica":3584,"cad":3585,"pagar":3586,"##cri":3587,"municipio":3588,"haré":3589,"dra":3590,"instrum":3591,"local":3592,"##una":3593,"ocas":3594,"##later":3595,"partici":3596,"conce":3597,"colabor":3598,"fron":3599,"empleo":3600,"amena":3601,"##ian":3602,"conta":3603,"fuerzas":3604,"1999":3605,"foto":3606,"revis":3607,"##char":3608,"segura":3609,"prueba":3610,"pesar":3611,"disf":3612,"éxito":3613,"color":3614,"interior":3615,"##rimon":3616,"comunicación":3617,"hey":3618,"193":3619,"interpre":3620,"fab":3621,"comb":3622,"perder":3623,"actualmente":3624,"diez":3625,"medida":3626,"atrás":3627,"levan":3628,"ano":3629,"carrera":3630,"sean":3631,"bom":3632,"cuarto":3633,"jó":3634,"vino":3635,"tercer":3636,"prem":3637,"conocido":3638,"posterior":3639,"efica":3640,"##itan":3641,"nave":3642,"##vención":3643,"pública":3644,"##grá":3645,"##cada":3646,"especí":3647,"##mó":3648,"progres":3649,"cuándo":3650,"##tbol":3651,"venta":3652,"##tate":3653,"cel":3654,"##uales":3655,"##yas":3656,"ste":3657,"intro":3658,"inmedia":3659,"formas":3660,"pl":3661,"crí":3662,"compañía":3663,"lleva":3664,"llegó":3665,"demon":3666,"##fi":3667,"habitantes":3668,"hermos":3669,"econom":3670,"quieren":3671,"##icio":3672,"instituciones":3673,"noches":3674,"##zada":3675,"estre":3676,"llamada":3677,"cientí":3678,"adecu":3679,"ám":3680,"américa":3681,"disposiciones":3682,"fuego":3683,"##eció":3684,"estrateg":3685,"##eb":3686,"déjame":3687,"jurí":3688,"##illos":3689,"ep":3690,"públic":3691,"puntos":3692,"##ment":3693,"##gon":3694,"coche":3695,"preci":3696,"destru":3697,"necesitamos":3698,"##ilidades":3699,"##arias":3700,"##icaciones":3701,"##olución":3702,"relativa":3703,"##unid":3704,"##ins":3705,"fac":3706,"directiva":3707,"simplemente":3708,"enci":3709,"2009":3710,"##arán":3711,"escucha":3712,"banda":3713,"tenga":3714,"corte":3715,"probablemente":3716,"sola":3717,"hal":3718,"romp":3719,"existe":3720,"##ty":3721,"profesional":3722,"hol":3723,"santa":3724,"bás":3725,"interés":3726,"##poco":3727,"##ecución":3728,"presentar":3729,"##yos":3730,"asunto":3731,"caball":3732,"dedic":3733,"##ibles":3734,"últimos":3735,"estadounid":3736,"consigu":3737,"hiciste":3738,"tampoco":3739,"##tiendo":3740,"ed":3741,"categ":3742,"abog":3743,"##vieron":3744,"num":3745,"territorio":3746,"##irse":3747,"nar":3748,"media":3749,"estad":3750,"sistemas":3751,"exten":3752,"temporada":3753,"dele":3754,"##aro":3755,"causa":3756,"teléfono":3757,"usar":3758,"jóven":3759,"objeto":3760,"fiesta":3761,"zonas":3762,"hermana":3763,"administración":3764,"listo":3765,"bre":3766,"sosten":3767,"proto":3768,"finalmente":3769,"cré":3770,"construcción":3771,"pasando":3772,"env":3773,"##emor":3774,"comis":3775,"resultado":3776,"luc":3777,"##bum":3778,"##ramos":3779,"jóvenes":3780,"ps":3781,"ámbi":3782,"canción":3783,"habría":3784,"loco":3785,"enc":3786,"radio":3787,"resta":3788,"##gamos":3789,"moder":3790,"hospital":3791,"sentir":3792,"género":3793,"enferme":3794,"iz":3795,"entren":3796,"nuc":3797,"##by":3798,"órgan":3799,"hago":3800,"códi":3801,"transporte":3802,"detal":3803,"impres":3804,"aire":3805,"concep":3806,"##trado":3807,"##rael":3808,"venga":3809,"épo":3810,"##val":3811,"##trón":3812,"efecto":3813,"##mado":3814,"glo":3815,"llamar":3816,"conformidad":3817,"arte":3818,"abandon":3819,"##jero":3820,"##orn":3821,"##ído":3822,"israel":3823,"hel":3824,"##itado":3825,"informes":3826,"provincia":3827,"viaje":3828,"ok":3829,"##pción":3830,"terc":3831,"honor":3832,"exactamente":3833,"##vió":3834,"gua":3835,"diciendo":3836,"experiencia":3837,"##isis":3838,"##tín":3839,"asi":3840,"autoridades":3841,"esperar":3842,"titu":3843,"jugar":3844,"proces":3845,"murió":3846,"isla":3847,"##tric":3848,"hotel":3849,"##unta":3850,"##talla":3851,"arma":3852,"dices":3853,"movimiento":3854,"gobern":3855,"##ír":3856,"evitar":3857,"mejores":3858,"función":3859,"comida":3860,"##land":3861,"demos":3862,"máxi":3863,"manif":3864,"álbum":3865,"acompa":3866,"raz":3867,"sabemos":3868,"##dicos":3869,"##sidad":3870,"efectos":3871,"ido":3872,"bi":3873,"fís":3874,"afir":3875,"sala":3876,"conjunto":3877,"documento":3878,"convir":3879,"equivo":3880,"##bución":3881,"operaciones":3882,"regu":3883,"extran":3884,"##íos":3885,"##ria":3886,"perdón":3887,"mejorar":3888,"fui":3889,"nuclear":3890,"##tró":3891,"ésta":3892,"##viv":3893,"plen":3894,"geor":3895,"##ficos":3896,"comba":3897,"actividad":3898,"incor":3899,"##pen":3900,"lejos":3901,"##rimonio":3902,"alter":3903,"plazo":3904,"##jus":3905,"dir":3906,"sens":3907,"##ecta":3908,"tipos":3909,"##iano":3910,"alemania":3911,"apoy":3912,"esfuerzos":3913,"jap":3914,"obras":3915,"individ":3916,"vete":3917,"semanas":3918,"necesidades":3919,"división":3920,"##tarse":3921,"##ut":3922,"ras":3923,"monta":3924,"tecnología":3925,"dur":3926,"tir":3927,"buscando":3928,"fortal":3929,"##ísticas":3930,"jer":3931,"vivo":3932,"##dy":3933,"identific":3934,"colec":3935,"mitad":3936,"preguntas":3937,"ecu":3938,"za":3939,"modific":3940,"crim":3941,"dicen":3942,"##álisis":3943,"contar":3944,"testi":3945,"anex":3946,"aver":3947,"##culos":3948,"deberías":3949,"conserv":3950,"##leo":3951,"pare":3952,"##bal":3953,"##posición":3954,"título":3955,"noti":3956,"influ":3957,"confi":3958,"crear":3959,"origen":3960,"detec":3961,"vé":3962,"mecan":3963,"gre":3964,"oro":3965,"quí":3966,"área":3967,"práctica":3968,"##torios":3969,"violencia":3970,"médico":3971,"##tino":3972,"época":3973,"depor":3974,"##mien":3975,"##ju":3976,"##ácter":3977,"##jado":3978,"##cidente":3979,"carácter":3980,"familiar":3981,"##mis":3982,"##one":3983,"dame":3984,"vid":3985,"previs":3986,"izquier":3987,"##tór":3988,"presupuesto":3989,"vues":3990,"frecu":3991,"##are":3992,"descri":3993,"posibilidad":3994,"josé":3995,"##enci":3996,"satis":3997,"deman":3998,"##ivos":3999,"costa":4000,"##titud":4001,"lengua":4002,"regional":4003,"2011":4004,"decisiones":4005,"trabajadores":4006,"tre":4007,"ran":4008,"banco":4009,"procedimiento":4010,"benefici":4011,"culpa":4012,"primeros":4013,"malo":4014,"estará":4015,"pose":4016,"amo":4017,"siete":4018,"defensa":4019,"pruebas":4020,"##vas":4021,"##vio":4022,"##net":4023,"##bernam":4024,"voz":4025,"saben":4026,"##tida":4027,"deten":4028,"obtener":4029,"opinión":4030,"permite":4031,"##ira":4032,"##gó":4033,"continuación":4034,"permitir":4035,"concre":4036,"correspond":4037,"##var":4038,"descub":4039,"##tamos":4040,"observa":4041,"##uesto":4042,"##jeros":4043,"##timas":4044,"méto":4045,"idio":4046,"habitación":4047,"disfru":4048,"##pl":4049,"metros":4050,"americ":4051,"trá":4052,"##ical":4053,"comenzó":4054,"##lad":4055,"##viera":4056,"##izar":4057,"espí":4058,"cielo":4059,"estabas":4060,"sesión":4061,"ocu":4062,"bru":4063,"ministro":4064,"bienes":4065,"##acción":4066,"china":4067,"fl":4068,"cantidad":4069,"il":4070,"ul":4071,"imper":4072,"aproxim":4073,"suel":4074,"192":4075,"áfrica":4076,"conduc":4077,"denom":4078,"código":4079,"esco":4080,"##dap":4081,"##tancias":4082,"nega":4083,"despe":4084,"fondos":4085,"conozco":4086,"necesitas":4087,"##tista":4088,"análisis":4089,"##ker":4090,"edificio":4091,"pele":4092,"##her":4093,"##ígen":4094,"##ky":4095,"##tuvo":4096,"extre":4097,"##ég":4098,"cha":4099,"perió":4100,"discu":4101,"##ística":4102,"quienes":4103,"absolu":4104,"exig":4105,"protocol":4106,"superfici":4107,"pelo":4108,"retir":4109,"blo":4110,"##tim":4111,"manda":4112,"##oro":4113,"responsabilidad":4114,"asociación":4115,"unido":4116,"tales":4117,"locales":4118,"comunidades":4119,"refle":4120,"asesina":4121,"##erto":4122,"vac":4123,"frances":4124,"bras":4125,"hogar":4126,"bebé":4127,"maría":4128,"bes":4129,"##rac":4130,"dime":4131,"plata":4132,"encontra":4133,"blanco":4134,"gastos":4135,"campa":4136,"discrim":4137,"asim":4138,"##hu":4139,"##echo":4140,"dolor":4141,"pedir":4142,"lec":4143,"representante":4144,"existen":4145,"##ps":4146,"ejerci":4147,"argentina":4148,"publ":4149,"evaluación":4150,"##ane":4151,"cambiar":4152,"impos":4153,"##form":4154,"cabal":4155,"marav":4156,"##imen":4157,"llen":4158,"podrá":4159,"intelig":4160,"##esión":4161,"prior":4162,"establecer":4163,"##americ":4164,"desta":4165,"acompañ":4166,"presenta":4167,"##my":4168,"##ático":4169,"puta":4170,"35":4171,"baja":4172,"maldita":4173,"##tén":4174,"franc":4175,"conoc":4176,"mesa":4177,"experim":4178,"##uls":4179,"ár":4180,"##idamente":4181,"repar":4182,"flor":4183,"bienven":4184,"documentos":4185,"arro":4186,"temas":4187,"mala":4188,"finales":4189,"proteger":4190,"nie":4191,"contacto":4192,"##ecido":4193,"texto":4194,"aten":4195,"enem":4196,"acus":4197,"tend":4198,"cultura":4199,"##úp":4200,"lograr":4201,"mensaje":4202,"escon":4203,"vio":4204,"unidad":4205,"##don":4206,"estación":4207,"pensando":4208,"modelo":4209,"riesgo":4210,"ministerio":4211,"acciones":4212,"##chos":4213,"recibir":4214,"negro":4215,"jesús":4216,"teniendo":4217,"televisión":4218,"político":4219,"competencia":4220,"tratar":4221,"explo":4222,"##illas":4223,"descon":4224,"mue":4225,"div":4226,"roman":4227,"ira":4228,"empi":4229,"##iamente":4230,"nu":4231,"tuve":4232,"versión":4233,"sección":4234,"cere":4235,"##at":4236,"entra":4237,"lic":4238,"aumento":4239,"##úa":4240,"##vos":4241,"ejecución":4242,"desempe":4243,"interc":4244,"participar":4245,"##icul":4246,"vesti":4247,"tes":4248,"regiones":4249,"##rid":4250,"estilo":4251,"entender":4252,"excel":4253,"##lin":4254,"afu":4255,"cama":4256,"posi":4257,"chicas":4258,"adap":4259,"mente":4260,"2012":4261,"##ioso":4262,"agente":4263,"alf":4264,"hue":4265,"trato":4266,"realizar":4267,"mone":4268,"confir":4269,"representa":4270,"entrada":4271,"evid":4272,"habrá":4273,"técnica":4274,"32":4275,"artículos":4276,"pros":4277,"##bilidad":4278,"lad":4279,"añ":4280,"##ies":4281,"bill":4282,"caf":4283,"multi":4284,"apartado":4285,"ocho":4286,"hagas":4287,"menor":4288,"profesor":4289,"##omas":4290,"recuper":4291,"demonios":4292,"diferente":4293,"sar":4294,"memor":4295,"##menes":4296,"##gaciones":4297,"disco":4298,"portu":4299,"nombr":4300,"191":4301,"recuerdo":4302,"##ced":4303,"mur":4304,"estadounidense":4305,"noticias":4306,"contr":4307,"detrás":4308,"fom":4309,"industria":4310,"dormir":4311,"basta":4312,"90":4313,"##lio":4314,"vigil":4315,"asus":4316,"dejó":4317,"derro":4318,"##rón":4319,"pudo":4320,"secretaría":4321,"jod":4322,"dí":4323,"##cida":4324,"esperando":4325,"lis":4326,"ron":4327,"frank":4328,"verte":4329,"correcto":4330,"naturaleza":4331,"##usión":4332,"##xto":4333,"##uciones":4334,"##torias":4335,"nomb":4336,"trabajando":4337,"##ciaciones":4338,"pena":4339,"fú":4340,"francis":4341,"peor":4342,"histór":4343,"##encial":4344,"considera":4345,"##iación":4346,"referencia":4347,"comprar":4348,"anexo":4349,"##drá":4350,"profun":4351,"increí":4352,"perdido":4353,"##cidos":4354,"exist":4355,"##arca":4356,"##ecía":4357,"##ni":4358,"conoce":4359,"junta":4360,"humano":4361,"encuentran":4362,"ganar":4363,"##ticamente":4364,"elementos":4365,"pér":4366,"instituto":4367,"crecimiento":4368,"felici":4369,"##ámara":4370,"fútbol":4371,"numeros":4372,"##có":4373,"apre":4374,"##eca":4375,"podrían":4376,"acos":4377,"sencil":4378,"##taba":4379,"emo":4380,"##tidos":4381,"tranqui":4382,"tendrá":4383,"oído":4384,"mane":4385,"##laciones":4386,"##elos":4387,"##tará":4388,"##reno":4389,"cop":4390,"vuelve":4391,"##tería":4392,"encima":4393,"diferencia":4394,"asegurar":4395,"italia":4396,"equipos":4397,"ph":4398,"economía":4399,"niña":4400,"entien":4401,"##jeron":4402,"rég":4403,"muestra":4404,"material":4405,"conden":4406,"##ibilidad":4407,"precio":4408,"arreglo":4409,"regionales":4410,"podrías":4411,"provo":4412,"ámbito":4413,"om":4414,"error":4415,"ín":4416,"##reas":4417,"hubo":4418,"lugares":4419,"##ezas":4420,"##qué":4421,"##iana":4422,"##tual":4423,"##laz":4424,"garantizar":4425,"circ":4426,"cruz":4427,"aquellos":4428,"descan":4429,"curso":4430,"asimismo":4431,"veci":4432,"maldito":4433,"veh":4434,"##grafía":4435,"régimen":4436,"empezar":4437,"etc":4438,"2015":4439,"tratamiento":4440,"peri":4441,"financiación":4442,"2013":4443,"similar":4444,"##bert":4445,"record":4446,"##gración":4447,"página":4448,"dul":4449,"convertir":4450,"fuente":4451,"oficiales":4452,"##metros":4453,"mc":4454,"##ay":4455,"estúp":4456,"##date":4457,"presencia":4458,"##use":4459,"conclus":4460,"##he":4461,"##tia":4462,"suje":4463,"kil":4464,"hará":4465,"##itario":4466,"tercera":4467,"##cados":4468,"acon":4469,"relativo":4470,"volv":4471,"hum":4472,"juegos":4473,"cámara":4474,"##ósito":4475,"virtud":4476,"propiedad":4477,"ali":4478,"minuto":4479,"jim":4480,"serán":4481,"promover":4482,"queremos":4483,"grab":4484,"boca":4485,"dicha":4486,"jud":4487,"britán":4488,"##gada":4489,"colom":4490,"##uns":4491,"##dra":4492,"david":4493,"tas":4494,"crédi":4495,"marido":4496,"usu":4497,"figura":4498,"sosp":4499,"original":4500,"##tía":4501,"##elas":4502,"café":4503,"tradi":4504,"##tiene":4505,"tren":4506,"representantes":4507,"diablos":4508,"##rantes":4509,"francés":4510,"desper":4511,"distrito":4512,"piensa":4513,"véase":4514,"1990":4515,"admi":4516,"trabajos":4517,"mantenimiento":4518,"totalmente":4519,"acad":4520,"##mentar":4521,"ataque":4522,"velo":4523,"pueblos":4524,"producto":4525,"sexo":4526,"##mica":4527,"oeste":4528,"cole":4529,"##ham":4530,"##umen":4531,"hicieron":4532,"##quina":4533,"especiales":4534,"pec":4535,"enfo":4536,"líder":4537,"recomend":4538,"##alizar":4539,"##au":4540,"ara":4541,"olv":4542,"defini":4543,"sorpren":4544,"gobiernos":4545,"##mit":4546,"puedan":4547,"secu":4548,"mismos":4549,"##llas":4550,"##ego":4551,"elecciones":4552,"acaba":4553,"pase":4554,"madrid":4555,"llegado":4556,"venido":4557,"##tente":4558,"##ierno":4559,"increíble":4560,"espíritu":4561,"due":4562,"castil":4563,"democrá":4564,"pobreza":4565,"políticos":4566,"ángel":4567,"1995":4568,"tenían":4569,"afuera":4570,"posteriormente":4571,"pul":4572,"cambios":4573,"relativas":4574,"puerto":4575,"salvo":4576,"##oda":4577,"##istán":4578,"iré":4579,"lími":4580,"batalla":4581,"incorpor":4582,"intentar":4583,"protocolo":4584,"diá":4585,"pertin":4586,"marcha":4587,"promoción":4588,"añad":4589,"drogas":4590,"bib":4591,"completamente":4592,"subs":4593,"vá":4594,"traer":4595,"##taria":4596,"organismos":4597,"deseo":4598,"eta":4599,"##mor":4600,"ger":4601,"copa":4602,"víctimas":4603,"##ema":4604,"edu":4605,"suelo":4606,"##gal":4607,"vent":4608,"carre":4609,"ech":4610,"candida":4611,"amar":4612,"alcanzar":4613,"ingresos":4614,"peligro":4615,"sede":4616,"jamás":4617,"premio":4618,"preocupes":4619,"imagen":4620,"deberíamos":4621,"##orta":4622,"planes":4623,"sud":4624,"conex":4625,"far":4626,"anun":4627,"recomenda":4628,"##mer":4629,"formul":4630,"invi":4631,"mín":4632,"##tador":4633,"##dados":4634,"solamente":4635,"prácticas":4636,"leyes":4637,"izquierda":4638,"##ró":4639,"ingen":4640,"encontrado":4641,"##iga":4642,"##gues":4643,"aqui":4644,"supone":4645,"hacemos":4646,"recomendaciones":4647,"crisis":4648,"##emen":4649,"##ys":4650,"santo":4651,"##ienda":4652,"lla":4653,"##ines":4654,"idiota":4655,"judi":4656,"superficie":4657,"acog":4658,"principalmente":4659,"pales":4660,"precios":4661,"generales":4662,"vehícu":4663,"llevó":4664,"500":4665,"permanente":4666,"solución":4667,"dig":4668,"plante":4669,"debate":4670,"electrón":4671,"respeto":4672,"##pol":4673,"destino":4674,"daño":4675,"quisiera":4676,"preguntar":4677,"perro":4678,"matrimonio":4679,"##zan":4680,"##rate":4681,"abogado":4682,"funciones":4683,"aspectos":4684,"incluye":4685,"discriminación":4686,"recha":4687,"moles":4688,"ropa":4689,"obten":4690,"diga":4691,"obstante":4692,"coordinación":4693,"estrategia":4694,"há":4695,"##ética":4696,"##irá":4697,"pací":4698,"##ang":4699,"##rán":4700,"animales":4701,"##curso":4702,"dich":4703,"refiere":4704,"secreto":4705,"árbol":4706,"##ron":4707,"niveles":4708,"##rios":4709,"duro":4710,"##late":4711,"pienso":4712,"##monos":4713,"##ft":4714,"menudo":4715,"##dios":4716,"coron":4717,"##logo":4718,"##gul":4719,"negocios":4720,"##dieron":4721,"oper":4722,"period":4723,"acuerdos":4724,"campeona":4725,"legislación":4726,"elev":4727,"xi":4728,"diversos":4729,"internet":4730,"autoridad":4731,"bril":4732,"33":4733,"1992":4734,"categoría":4735,"silen":4736,"##tarios":4737,"sobreviv":4738,"especies":4739,"directamente":4740,"carlos":4741,"aman":4742,"completo":4743,"##ila":4744,"pequeños":4745,"vive":4746,"##ks":4747,"ciudadanos":4748,"escrito":4749,"paci":4750,"ára":4751,"libros":4752,"parís":4753,"estructura":4754,"arres":4755,"aprov":4756,"igualdad":4757,"cristi":4758,"tratando":4759,"##table":4760,"recuerda":4761,"vemos":4762,"cuadro":4763,"conocimiento":4764,"aero":4765,"comercial":4766,"##tividad":4767,"salida":4768,"##pro":4769,"agricul":4770,"canad":4771,"##terios":4772,"centros":4773,"sueño":4774,"mía":4775,"##bel":4776,"perfecto":4777,"##amento":4778,"##ficas":4779,"satisf":4780,"federal":4781,"##día":4782,"normal":4783,"poten":4784,"sucede":4785,"haría":4786,"gor":4787,"##iles":4788,"chile":4789,"nav":4790,"carne":4791,"celebra":4792,"##orías":4793,"independiente":4794,"gubernam":4795,"campaña":4796,"##quen":4797,"necesitar":4798,"tama":4799,"recordar":4800,"emi":4801,"cine":4802,"compos":4803,"derecha":4804,"peter":4805,"pide":4806,"##ficul":4807,"maestro":4808,"mez":4809,"##jan":4810,"senti":4811,"abor":4812,"##éndo":4813,"occid":4814,"digas":4815,"enga":4816,"##ong":4817,"dificul":4818,"##hael":4819,"mostrar":4820,"hen":4821,"##rez":4822,"yu":4823,"capí":4824,"grave":4825,"propon":4826,"sch":4827,"negocio":4828,"ajus":4829,"##itaria":4830,"reclam":4831,"desarroll":4832,"##entado":4833,"##diendo":4834,"cuyo":4835,"fines":4836,"cár":4837,"mul":4838,"bob":4839,"##mbre":4840,"familias":4841,"doble":4842,"provis":4843,"##gica":4844,"luch":4845,"catal":4846,"juicio":4847,"victoria":4848,"cic":4849,"extraño":4850,"ofrece":4851,"cumplir":4852,"##ensión":4853,"fas":4854,"duda":4855,"anton":4856,"antiguo":4857,"ejercicio":4858,"consecuencia":4859,"maravillos":4860,"##amientos":4861,"caja":4862,"agrí":4863,"sacar":4864,"##estruc":4865,"expertos":4866,"censo":4867,"##alla":4868,"anoche":4869,"azul":4870,"procedimientos":4871,"aprobación":4872,"motivo":4873,"diseñ":4874,"1993":4875,"##ares":4876,"pala":4877,"llor":4878,"##tiles":4879,"puestos":4880,"contrato":4881,"ue":4882,"##ude":4883,"penal":4884,"infer":4885,"tab":4886,"órganos":4887,"sp":4888,"suminis":4889,"sién":4890,"lond":4891,"querido":4892,"abrir":4893,"odio":4894,"congres":4895,"comunic":4896,"propuestas":4897,"prensa":4898,"capaz":4899,"plane":4900,"ocurre":4901,"abre":4902,"presentación":4903,"operación":4904,"asign":4905,"recibió":4906,"##eran":4907,"circu":4908,"exclus":4909,"famos":4910,"baño":4911,"contexto":4912,"idi":4913,"joe":4914,"pequeñas":4915,"apor":4916,"utilizar":4917,"hun":4918,"##teras":4919,"compromiso":4920,"hechos":4921,"##yn":4922,"##ól":4923,"muertos":4924,"japón":4925,"ke":4926,"michael":4927,"aumentar":4928,"busca":4929,"cualquiera":4930,"oír":4931,"estudiantes":4932,"localidad":4933,"reforma":4934,"che":4935,"##amor":4936,"establecimiento":4937,"sel":4938,"flo":4939,"actos":4940,"sho":4941,"ai":4942,"decidió":4943,"gusto":4944,"partidos":4945,"##com":4946,"video":4947,"some":4948,"diversas":4949,"conclu":4950,"incluyendo":4951,"reducir":4952,"lanz":4953,"##cura":4954,"##ulas":4955,"preten":4956,"ide":4957,"deri":4958,"signific":4959,"competi":4960,"elección":4961,"ciudades":4962,"término":4963,"parque":4964,"siente":4965,"convirtió":4966,"próxima":4967,"enfermedad":4968,"circuns":4969,"facul":4970,"funciona":4971,"##iro":4972,"hacía":4973,"reuniones":4974,"registro":4975,"##cionar":4976,"hermanos":4977,"londres":4978,"paul":4979,"diré":4980,"colaboración":4981,"privado":4982,"##iel":4983,"##torno":4984,"##taste":4985,"##adoras":4986,"##ood":4987,"teatro":4988,"##triz":4989,"##rada":4990,"##uros":4991,"instrumentos":4992,"expor":4993,"llega":4994,"fle":4995,"reducción":4996,"entiendes":4997,"ciencia":4998,"destac":4999,"terminar":5000,"##ht":5001,"escal":5002,"##izado":5003,"lab":5004,"ofer":5005,"terrorismo":5006,"cuentas":5007,"accidente":5008,"austral":5009,"##sen":5010,"deberían":5011,"volvió":5012,"imposible":5013,"##idor":5014,"miles":5015,"visita":5016,"brasil":5017,"fru":5018,"55":5019,"asesinato":5020,"##han":5021,"convenio":5022,"ayer":5023,"iii":5024,"planeta":5025,"##xic":5026,"##capa":5027,"mig":5028,"velocidad":5029,"##uelas":5030,"desaf":5031,"##nie":5032,"92":5033,"francisco":5034,"##cor":5035,"ocul":5036,"##ender":5037,"puso":5038,"cro":5039,"distancia":5040,"pago":5041,"##tiz":5042,"humana":5043,"informa":5044,"srta":5045,"##tible":5046,"rusia":5047,"consum":5048,"sospech":5049,"hablas":5050,"##cción":5051,"divid":5052,"sá":5053,"islas":5054,"ama":5055,"##tificación":5056,"cuya":5057,"liga":5058,"avión":5059,"compon":5060,"george":5061,"aprovech":5062,"pun":5063,"iniciativa":5064,"pidió":5065,"##mán":5066,"sectores":5067,"##cionado":5068,"##gando":5069,"comand":5070,"avis":5071,"##empos":5072,"crea":5073,"hayan":5074,"asis":5075,"mayores":5076,"##ington":5077,"##emia":5078,"adul":5079,"01":5080,"constitución":5081,"asesino":5082,"diseño":5083,"39":5084,"utilización":5085,"##éndose":5086,"estrech":5087,"norma":5088,"1991":5089,"raro":5090,"transform":5091,"diario":5092,"design":5093,"encuentro":5094,"funcionarios":5095,"##melo":5096,"tomó":5097,"respec":5098,"##tres":5099,"iv":5100,"comprome":5101,"patr":5102,"suena":5103,"cita":5104,"leer":5105,"##umo":5106,"capaci":5107,"##torial":5108,"barco":5109,"fes":5110,"aé":5111,"reserv":5112,"repro":5113,"fiscal":5114,"##ash":5115,"estim":5116,"militares":5117,"asc":5118,"sustitu":5119,"##ity":5120,"flu":5121,"carajo":5122,"piensas":5123,"condado":5124,"darle":5125,"verano":5126,"##ney":5127,"voso":5128,"##ov":5129,"conoces":5130,"kar":5131,"resulta":5132,"##inario":5133,"podríamos":5134,"prisión":5135,"##tora":5136,"arqui":5137,"antigua":5138,"debía":5139,"distribu":5140,"roma":5141,"rur":5142,"reina":5143,"##tades":5144,"condición":5145,"depend":5146,"verdadero":5147,"responsable":5148,"##adu":5149,"próximo":5150,"señorita":5151,"aproximadamente":5152,"pat":5153,"torn":5154,"grado":5155,"arquitec":5156,"emerg":5157,"##tistas":5158,"##rano":5159,"sil":5160,"contes":5161,"pref":5162,"larga":5163,"##tieron":5164,"consol":5165,"regresar":5166,"##undar":5167,"luis":5168,"otor":5169,"conflicto":5170,"alum":5171,"ganó":5172,"cumple":5173,"india":5174,"aeropu":5175,"salvar":5176,"escuchar":5177,"mandato":5178,"requier":5179,"dismin":5180,"adoptar":5181,"cállate":5182,"lid":5183,"clientes":5184,"jard":5185,"agentes":5186,"prevención":5187,"enseñanza":5188,"inspec":5189,"tiempos":5190,"concepto":5191,"##ígenas":5192,"luna":5193,"terminado":5194,"máximo":5195,"contrario":5196,"querida":5197,"fase":5198,"pocos":5199,"eg":5200,"desarrollar":5201,"debajo":5202,"tamaño":5203,"##didas":5204,"##ther":5205,"ubicado":5206,"irme":5207,"sostenible":5208,"pone":5209,"orgul":5210,"##ienta":5211,"arti":5212,"##sh":5213,"distintos":5214,"##alizado":5215,"sum":5216,"desas":5217,"transpor":5218,"caballeros":5219,"económicos":5220,"bús":5221,"edición":5222,"##cioso":5223,"prev":5224,"terreno":5225,"cub":5226,"dispuesto":5227,"defens":5228,"examin":5229,"cubier":5230,"##ñar":5231,"##burgo":5232,"##dición":5233,"despier":5234,"repu":5235,"dile":5236,"salva":5237,"##ung":5238,"190":5239,"campeonato":5240,"##cía":5241,"quieras":5242,"verde":5243,"infan":5244,"amiga":5245,"convers":5246,"peso":5247,"inno":5248,"intereses":5249,"reserva":5250,"##lada":5251,"hambre":5252,"rock":5253,"casti":5254,"detener":5255,"preocupa":5256,"aguas":5257,"pudiera":5258,"enamor":5259,"carga":5260,"estaría":5261,"nerv":5262,"cultural":5263,"confianza":5264,"voluntad":5265,"marca":5266,"03":5267,"##tn":5268,"pis":5269,"apenas":5270,"contenido":5271,"tierras":5272,"##iosa":5273,"##idores":5274,"##íes":5275,"adónde":5276,"escribir":5277,"##osas":5278,"reconocimiento":5279,"lamento":5280,"creí":5281,"placer":5282,"resolver":5283,"salió":5284,"delegación":5285,"cans":5286,"recuerdas":5287,"bla":5288,"##zando":5289,"cercan":5290,"tocar":5291,"vul":5292,"coleg":5293,"perfec":5294,"mirar":5295,"sexual":5296,"vuelto":5297,"década":5298,"expe":5299,"geo":5300,"mate":5301,"recibido":5302,"##timo":5303,"##denes":5304,"esperanza":5305,"infra":5306,"irlan":5307,"alex":5308,"descar":5309,"estatu":5310,"española":5311,"menores":5312,"novia":5313,"##rieron":5314,"usa":5315,"seas":5316,"##bes":5317,"##ferencias":5318,"delante":5319,"fuentes":5320,"chris":5321,"intento":5322,"refu":5323,"##anes":5324,"propios":5325,"invol":5326,"perspec":5327,"estaré":5328,"museo":5329,"##stru":5330,"aprender":5331,"archivo":5332,"cumplimiento":5333,"decirle":5334,"acabo":5335,"alterna":5336,"cá":5337,"##jada":5338,"##úl":5339,"planta":5340,"impac":5341,"aceptar":5342,"q":5343,"reglas":5344,"##ok":5345,"pies":5346,"propósito":5347,"asum":5348,"presión":5349,"ambas":5350,"cárcel":5351,"ofrecer":5352,"hid":5353,"##quía":5354,"vosotros":5355,"cán":5356,"##tus":5357,"aplicar":5358,"flores":5359,"rich":5360,"fantas":5361,"hier":5362,"examinar":5363,"apropi":5364,"exterior":5365,"##roso":5366,"razones":5367,"consecuencias":5368,"regreso":5369,"distribución":5370,"##puestos":5371,"tráfico":5372,"nueve":5373,"soldados":5374,"##áticos":5375,"occidental":5376,"##genes":5377,"facilitar":5378,"pilo":5379,"##dí":5380,"##vela":5381,"mando":5382,"##ille":5383,"##ardo":5384,"relacionados":5385,"existencia":5386,"bajos":5387,"err":5388,"materiales":5389,"capítulo":5390,"##cimientos":5391,"empezó":5392,"alemán":5393,"vidas":5394,"huel":5395,"legisla":5396,"##pir":5397,"gubernamentales":5398,"embara":5399,"establecido":5400,"##ístico":5401,"pedro":5402,"cliente":5403,"ideas":5404,"you":5405,"civiles":5406,"fern":5407,"ee":5408,"publicado":5409,"abra":5410,"##vers":5411,"##tás":5412,"canal":5413,"cho":5414,"trabaja":5415,"##áis":5416,"##éctr":5417,"opción":5418,"io":5419,"##selo":5420,"necesitan":5421,"##abe":5422,"siguen":5423,"artes":5424,"conflictos":5425,"aplica":5426,"james":5427,"##entan":5428,"dispu":5429,"escol":5430,"selección":5431,"nació":5432,"bio":5433,"##inada":5434,"mezc":5435,"kiló":5436,"convier":5437,"oriental":5438,"segundos":5439,"suces":5440,"parecer":5441,"##igan":5442,"negoci":5443,"repor":5444,"transmi":5445,"secundar":5446,"acto":5447,"escena":5448,"##erra":5449,"plaza":5450,"permiso":5451,"revista":5452,"##viste":5453,"tienda":5454,"##ple":5455,"##nud":5456,"mó":5457,"rode":5458,"pris":5459,"presentó":5460,"quedó":5461,"##telo":5462,"##gados":5463,"lev":5464,"##arle":5465,"dipu":5466,"europeas":5467,"##rue":5468,"ken":5469,"##quia":5470,"estan":5471,"##ionado":5472,"##iedad":5473,"##iero":5474,"##itación":5475,"culp":5476,"divertido":5477,"verlo":5478,"##tive":5479,"fotos":5480,"colo":5481,"diálogo":5482,"nombres":5483,"nic":5484,"conocida":5485,"obligaciones":5486,"términos":5487,"adopción":5488,"congreso":5489,"dejado":5490,"desea":5491,"iniciativas":5492,"incen":5493,"encanta":5494,"cerv":5495,"##ológico":5496,"##vimos":5497,"villa":5498,"aparece":5499,"entendido":5500,"naturales":5501,"silencio":5502,"condu":5503,"mató":5504,"piso":5505,"acabó":5506,"enf":5507,"global":5508,"tarje":5509,"mexic":5510,"órdenes":5511,"estuve":5512,"##quer":5513,"uh":5514,"indígenas":5515,"motor":5516,"clave":5517,"alcal":5518,"viste":5519,"##log":5520,"mercan":5521,"dam":5522,"disposición":5523,"interesante":5524,"dulce":5525,"##inte":5526,"brin":5527,"encontré":5528,"pensaba":5529,"quiera":5530,"sem":5531,"reh":5532,"##ónica":5533,"vaca":5534,"emba":5535,"fen":5536,"llamó":5537,"piel":5538,"##dimiento":5539,"nucleares":5540,"##tame":5541,"triste":5542,"búsque":5543,"comenzar":5544,"##nidad":5545,"presentado":5546,"##laterra":5547,"refugi":5548,"##ético":5549,"##illi":5550,"mm":5551,"rojo":5552,"##itó":5553,"arru":5554,"dijeron":5555,"excelente":5556,"inglaterra":5557,"pérdida":5558,"tengan":5559,"##pres":5560,"educa":5561,"xvi":5562,"tranquilo":5563,"canciones":5564,"ninguno":5565,"eficaz":5566,"disculpe":5567,"pertinentes":5568,"##olo":5569,"inmediatamente":5570,"traje":5571,"decirte":5572,"decía":5573,"completa":5574,"##ting":5575,"venez":5576,"bloque":5577,"acá":5578,"##ésimo":5579,"afric":5580,"fundamental":5581,"amplia":5582,"quédate":5583,"oportunidades":5584,"coronel":5585,"públicos":5586,"sín":5587,"##yeron":5588,"memoria":5589,"comerciales":5590,"eras":5591,"llamo":5592,"asia":5593,"##rup":5594,"ambien":5595,"05":5596,"falle":5597,"anual":5598,"escala":5599,"involuc":5600,"300":5601,"barcel":5602,"antonio":5603,"delito":5604,"anteriores":5605,"mac":5606,"##emente":5607,"preocupación":5608,"cató":5609,"urg":5610,"peti":5611,"fuiste":5612,"##ática":5613,"march":5614,"##enio":5615,"características":5616,"tuyo":5617,"conec":5618,"aeropuerto":5619,"excepto":5620,"dor":5621,"##uestos":5622,"estén":5623,"ileg":5624,"mike":5625,"establece":5626,"preven":5627,"##est":5628,"sale":5629,"intención":5630,"vía":5631,"calif":5632,"comandante":5633,"teniente":5634,"##menta":5635,"creado":5636,"vari":5637,"##misión":5638,"abierto":5639,"zapa":5640,"actualidad":5641,"escuelas":5642,"federación":5643,"colon":5644,"##entó":5645,"asesor":5646,"ferro":5647,"frontera":5648,"métodos":5649,"altura":5650,"arreglar":5651,"traslad":5652,"escapar":5653,"coin":5654,"redu":5655,"charlie":5656,"ahor":5657,"valores":5658,"prín":5659,"cena":5660,"##amentos":5661,"lech":5662,"##ade":5663,"relacionadas":5664,"estábamos":5665,"rea":5666,"describ":5667,"espi":5668,"restau":5669,"##éro":5670,"terrible":5671,"##osos":5672,"papa":5673,"constante":5674,"hermosa":5675,"procesos":5676,"casas":5677,"##inal":5678,"determinar":5679,"muchacho":5680,"avi":5681,"mire":5682,"ilus":5683,"sha":5684,"fabric":5685,"dando":5686,"líneas":5687,"estrella":5688,"ram":5689,"##zca":5690,"##arla":5691,"financiera":5692,"contiene":5693,"sopor":5694,"prohi":5695,"distintas":5696,"financieros":5697,"canadá":5698,"reac":5699,"91":5700,"búsqueda":5701,"agricultura":5702,"adelan":5703,"##anda":5704,"solicitud":5705,"hubi":5706,"funcionamiento":5707,"ces":5708,"##tz":5709,"etapa":5710,"sientes":5711,"cocina":5712,"##ulación":5713,"##mación":5714,"colombia":5715,"puente":5716,"muchachos":5717,"alquil":5718,"mecanismos":5719,"lun":5720,"prac":5721,"menti":5722,"plantas":5723,"densidad":5724,"##tch":5725,"fres":5726,"ayudas":5727,"crimen":5728,"##teca":5729,"##itada":5730,"cristo":5731,"##tagon":5732,"profesionales":5733,"##aremos":5734,"aires":5735,"carretera":5736,"esposo":5737,"sorpres":5738,"biblio":5739,"##mática":5740,"convo":5741,"93":5742,"pesca":5743,"carb":5744,"ater":5745,"##tien":5746,"##tinos":5747,"agar":5748,"ocupar":5749,"independencia":5750,"valle":5751,"comerci":5752,"realizado":5753,"lou":5754,"##jate":5755,"públicas":5756,"encontramos":5757,"ang":5758,"deberá":5759,"doy":5760,"rico":5761,"##itados":5762,"democra":5763,"encontró":5764,"##pó":5765,"das":5766,"películas":5767,"apa":5768,"##ológica":5769,"vel":5770,"##imientos":5771,"incluyen":5772,"##nor":5773,"unidades":5774,"prefer":5775,"torre":5776,"alber":5777,"espal":5778,"barcelona":5779,"comunicaciones":5780,"cuel":5781,"prima":5782,"amenaza":5783,"vender":5784,"emergencia":5785,"patri":5786,"##gué":5787,"clases":5788,"haremos":5789,"brome":5790,"individu":5791,"##illiam":5792,"blanca":5793,"tomando":5794,"indica":5795,"realizó":5796,"loca":5797,"terminó":5798,"negativo":5799,"cerebro":5800,"aspecto":5801,"extraord":5802,"##tadora":5803,"juez":5804,"manifes":5805,"primeras":5806,"prove":5807,"ó":5808,"reglam":5809,"secues":5810,"95":5811,"##ald":5812,"eléctr":5813,"requis":5814,"eno":5815,"participantes":5816,"redes":5817,"instalaciones":5818,"##cipe":5819,"firme":5820,"barrio":5821,"industrial":5822,"egip":5823,"sara":5824,"perteneci":5825,"consumo":5826,"piedra":5827,"##uno":5828,"##enti":5829,"ray":5830,"ib":5831,"rum":5832,"áreas":5833,"podido":5834,"situado":5835,"gab":5836,"aquella":5837,"teoría":5838,"labora":5839,"lee":5840,"kilómetros":5841,"capacitación":5842,"##orden":5843,"víctima":5844,"vuelo":5845,"exteriores":5846,"baile":5847,"pab":5848,"vengan":5849,"infraestruc":5850,"explos":5851,"seguimiento":5852,"elegido":5853,"precis":5854,"integración":5855,"um":5856,"averigu":5857,"cif":5858,"##ambio":5859,"rápidamente":5860,"##ise":5861,"##ologías":5862,"alimentos":5863,"##leta":5864,"02":5865,"##tulos":5866,"maldición":5867,"servir":5868,"##gh":5869,"star":5870,"baj":5871,"refugiados":5872,"innov":5873,"tendría":5874,"dibu":5875,"juris":5876,"enfoque":5877,"##rados":5878,"tempera":5879,"##aso":5880,"herra":5881,"estraté":5882,"colum":5883,"##hib":5884,"ayú":5885,"masa":5886,"juz":5887,"ko":5888,"visión":5889,"prepara":5890,"episo":5891,"creen":5892,"fundación":5893,"##chas":5894,"pacto":5895,"sco":5896,"preparación":5897,"festiv":5898,"##uri":5899,"pus":5900,"aud":5901,"##ds":5902,"perio":5903,"##dores":5904,"incon":5905,"robo":5906,"##mentación":5907,"disposi":5908,"alcance":5909,"pude":5910,"##viamente":5911,"dud":5912,"##gráfica":5913,"herramien":5914,"constituye":5915,"tenías":5916,"luchar":5917,"##mico":5918,"dim":5919,"vice":5920,"vigor":5921,"ensa":5922,"conocimientos":5923,"resoluciones":5924,"##tte":5925,"estup":5926,"circunstancias":5927,"inversión":5928,"bosque":5929,"castillo":5930,"simp":5931,"niñas":5932,"vámonos":5933,"efectu":5934,"refor":5935,"59":5936,"inoc":5937,"vienen":5938,"cáncer":5939,"##toral":5940,"responder":5941,"fundamentales":5942,"dirigida":5943,"recog":5944,"bailar":5945,"conciencia":5946,"fol":5947,"##ecimiento":5948,"ens":5949,"comienza":5950,"poderos":5951,"##mul":5952,"cog":5953,"adj":5954,"decre":5955,"escla":5956,"judicial":5957,"comunitario":5958,"##pira":5959,"##odos":5960,"pacífico":5961,"demanda":5962,"enmien":5963,"anteriormente":5964,"incluidos":5965,"clás":5966,"técnicas":5967,"bea":5968,"##alizada":5969,"metro":5970,"aper":5971,"oferta":5972,"##inados":5973,"escribió":5974,"ace":5975,"californ":5976,"##ección":5977,"colegio":5978,"caer":5979,"reemp":5980,"##ore":5981,"depende":5982,"##ices":5983,"consolid":5984,"quitar":5985,"mercados":5986,"estúpido":5987,"francesa":5988,"##trices":5989,"humanidad":5990,"vigilancia":5991,"caballo":5992,"investigaciones":5993,"##abas":5994,"contamin":5995,"ocasiones":5996,"irlanda":5997,"cent":5998,"crédito":5999,"revolución":6000,"magn":6001,"##esa":6002,"##hesión":6003,"sencillo":6004,"52":6005,"rue":6006,"##bano":6007,"claramente":6008,"jugador":6009,"psic":6010,"tropas":6011,"##idez":6012,"hin":6013,"tonto":6014,"perú":6015,"imperio":6016,"ocurrió":6017,"gustan":6018,"escú":6019,"##gría":6020,"posibilidades":6021,"comunes":6022,"##uf":6023,"monte":6024,"culturales":6025,"##pado":6026,"corto":6027,"tradicional":6028,"##tional":6029,"##ezco":6030,"torneo":6031,"controlar":6032,"intercambio":6033,"frecuencia":6034,"bonito":6035,"tarea":6036,"##años":6037,"ocupado":6038,"construir":6039,"presidencia":6040,"##arnos":6041,"sucedió":6042,"##ini":6043,"profund":6044,"ganado":6045,"##ides":6046,"desgra":6047,"medic":6048,"centr":6049,"##íd":6050,"abierta":6051,"príncipe":6052,"##iene":6053,"motivos":6054,"máquina":6055,"arre":6056,"adu":6057,"cartas":6058,"negociaciones":6059,"parecía":6060,"##resión":6061,"navidad":6062,"##ñado":6063,"esperaba":6064,"montón":6065,"evolución":6066,"protagon":6067,"necesarias":6068,"##dó":6069,"##íz":6070,"51":6071,"##ámica":6072,"compañero":6073,"##pes":6074,"exter":6075,"mejora":6076,"gobernador":6077,"tomado":6078,"proced":6079,"democrática":6080,"madera":6081,"dipl":6082,"periodo":6083,"pista":6084,"realización":6085,"##ficientes":6086,"obtuvo":6087,"pic":6088,"regalo":6089,"enemigo":6090,"reform":6091,"tratados":6092,"contemp":6093,"sug":6094,"##edor":6095,"##cy":6096,"mover":6097,"palacio":6098,"##éramos":6099,"gir":6100,"oscu":6101,"rid":6102,"cm":6103,"meter":6104,"despa":6105,"comporta":6106,"##vera":6107,"pisto":6108,"prote":6109,"disponible":6110,"repe":6111,"max":6112,"glor":6113,"##ik":6114,"tru":6115,"física":6116,"##jal":6117,"podrán":6118,"héro":6119,"prestar":6120,"##abil":6121,"##dera":6122,"visitas":6123,"directo":6124,"##iere":6125,"observaciones":6126,"##fes":6127,"cola":6128,"imá":6129,"##terrán":6130,"pobres":6131,"adver":6132,"##ortun":6133,"puertas":6134,"influencia":6135,"muerta":6136,"##ive":6137,"california":6138,"periódico":6139,"alguno":6140,"devol":6141,"##die":6142,"vier":6143,"vieja":6144,"##ísimo":6145,"frío":6146,"##gio":6147,"alco":6148,"esfuerzo":6149,"##forma":6150,"cumpleaños":6151,"##tribución":6152,"recientemente":6153,"australia":6154,"##ificar":6155,"publicación":6156,"peda":6157,"posibles":6158,"pareja":6159,"suici":6160,"euros":6161,"dieron":6162,"novio":6163,"musical":6164,"traduc":6165,"##izada":6166,"##edores":6167,"culo":6168,"estrellas":6169,"sonido":6170,"exposición":6171,"mono":6172,"##istente":6173,"utiliza":6174,"##dez":6175,"ocasión":6176,"escúch":6177,"femen":6178,"amis":6179,"##si":6180,"clima":6181,"##fos":6182,"espere":6183,"liter":6184,"playa":6185,"viendo":6186,"##rey":6187,"nación":6188,"##gia":6189,"tecnologías":6190,"##gón":6191,"rebel":6192,"##guay":6193,"recep":6194,"##cidas":6195,"firma":6196,"armon":6197,"##lon":6198,"ofrec":6199,"guardia":6200,"económicas":6201,"escen":6202,"continuar":6203,"tuvieron":6204,"comunitaria":6205,"##inaria":6206,"##ivamente":6207,"formula":6208,"adentro":6209,"tendrás":6210,"##cra":6211,"explor":6212,"cuba":6213,"malas":6214,"expresión":6215,"add":6216,"boda":6217,"aconte":6218,"rin":6219,"imágenes":6220,"horri":6221,"tengas":6222,"instrumento":6223,"##dimos":6224,"viva":6225,"visitar":6226,"resca":6227,"inversiones":6228,"##dias":6229,"momentos":6230,"bul":6231,"cumbre":6232,"martin":6233,"temo":6234,"stan":6235,"tiro":6236,"ventana":6237,"##50":6238,"detalles":6239,"##ilib":6240,"gira":6241,"surg":6242,"##timos":6243,"inferior":6244,"financiero":6245,"##itarios":6246,"infierno":6247,"jen":6248,"incluir":6249,"audi":6250,"dale":6251,"##ello":6252,"##aliza":6253,"##bita":6254,"preparado":6255,"propias":6256,"intentando":6257,"##estas":6258,"conclusiones":6259,"##tudes":6260,"participó":6261,"unif":6262,"##zz":6263,"elaboración":6264,"meta":6265,"##guen":6266,"mecanismo":6267,"ku":6268,"gradu":6269,"##ficios":6270,"dicta":6271,"##vent":6272,"ana":6273,"descono":6274,"usando":6275,"##bición":6276,"oficinas":6277,"..":6278,"...":6279,"quedan":6280,"llevo":6281,"rap":6282,"##entarios":6283,"##dría":6284,"espiritu":6285,"ruta":6286,"apoyar":6287,"harry":6288,"hagan":6289,"situaciones":6290,"enorme":6291,"ejecutivo":6292,"miren":6293,"sta":6294,"impresion":6295,"acce":6296,"prés":6297,"actuar":6298,"generalmente":6299,"entró":6300,"eliminación":6301,"estés":6302,"##etas":6303,"chan":6304,"socio":6305,"equilib":6306,"dificultades":6307,"revel":6308,"##eler":6309,"comienzo":6310,"##gs":6311,"horrible":6312,"decirme":6313,"##tarlo":6314,"provisional":6315,"calles":6316,"sorpresa":6317,"micro":6318,"bomba":6319,"alar":6320,"llé":6321,"##guida":6322,"renov":6323,"cabe":6324,"remo":6325,"belle":6326,"regular":6327,"veras":6328,"##olucion":6329,"mentir":6330,"##int":6331,"mary":6332,"##cadas":6333,"territorios":6334,"modifica":6335,"sentar":6336,"necesarios":6337,"árabe":6338,"atribu":6339,"sacri":6340,"##ashington":6341,"legal":6342,"hazlo":6343,"cambiado":6344,"##bien":6345,"##tem":6346,"tol":6347,"##anía":6348,"gon":6349,"archivos":6350,"basura":6351,"##ábamos":6352,"emplea":6353,"rica":6354,"nombrado":6355,"volumen":6356,"##ami":6357,"fantás":6358,"##metro":6359,"raza":6360,"nacido":6361,"fracas":6362,"portugal":6363,"acord":6364,"combate":6365,"##tú":6366,"##teles":6367,"##lesc":6368,"considerado":6369,"##rique":6370,"##quete":6371,"llevado":6372,"emis":6373,"haci":6374,"disponibles":6375,"únicamente":6376,"anda":6377,"##mate":6378,"llamas":6379,"beber":6380,"puesta":6381,"riesgos":6382,"eliminar":6383,"henry":6384,"método":6385,"##bras":6386,"organismo":6387,"orgullos":6388,"animal":6389,"sirve":6390,"amable":6391,"##grad":6392,"prometo":6393,"##gular":6394,"elegir":6395,"pelea":6396,"daniel":6397,"##tadores":6398,"santia":6399,"cadena":6400,"##bios":6401,"intervención":6402,"inau":6403,"##alizados":6404,"interven":6405,"locura":6406,"argu":6407,"adolesc":6408,"tareas":6409,"##99":6410,"atac":6411,"consultas":6412,"combus":6413,"##ína":6414,"mirando":6415,"##eld":6416,"entidades":6417,"pedido":6418,"listos":6419,"paciente":6420,"##cola":6421,"inicio":6422,"lago":6423,"##teros":6424,"caliente":6425,"hermoso":6426,"sovi":6427,"párr":6428,"creía":6429,"incluido":6430,"intenta":6431,"##rump":6432,"agencia":6433,"siéntate":6434,"viven":6435,"##iencias":6436,"obliga":6437,"##ford":6438,"diría":6439,"nuevamente":6440,"##tismo":6441,"longi":6442,"decide":6443,"##táculo":6444,"robert":6445,"tendremos":6446,"nov":6447,"53":6448,"té":6449,"normalmente":6450,"llegue":6451,"xx":6452,"diri":6453,"empieza":6454,"europeos":6455,"domingo":6456,"personaje":6457,"hall":6458,"graves":6459,"inteligente":6460,"##bado":6461,"##rame":6462,"vehículos":6463,"##uci":6464,"austri":6465,"almacen":6466,"deriv":6467,"##san":6468,"campeón":6469,"campos":6470,"pá":6471,"##ulo":6472,"##uma":6473,"detective":6474,"institución":6475,"técnico":6476,"##ída":6477,"retras":6478,"duración":6479,"martín":6480,"clara":6481,"tasa":6482,"hues":6483,"santiago":6484,"médicos":6485,"sy":6486,"municipal":6487,"ec":6488,"##zaron":6489,"razon":6490,"calor":6491,"abuela":6492,"celebrada":6493,"tramp":6494,"agradable":6495,"mínimo":6496,"abuelo":6497,"ia":6498,"verdadera":6499,"##rupción":6500,"impacto":6501,"##tios":6502,"##cando":6503,"sida":6504,"hable":6505,"formar":6506,"enfermedades":6507,"óp":6508,"##omo":6509,"alquiler":6510,"deje":6511,"factores":6512,"foro":6513,"##misos":6514,"alo":6515,"desarme":6516,"mismas":6517,"ojo":6518,"entorno":6519,"chil":6520,"trae":6521,"##dice":6522,"correo":6523,"requiere":6524,"gracioso":6525,"licencia":6526,"##tano":6527,"amplio":6528,"##rie":6529,"prisa":6530,"sierra":6531,"logró":6532,"medicina":6533,"apertura":6534,"obligación":6535,"avent":6536,"democracia":6537,"eficacia":6538,"vine":6539,"votos":6540,"vulner":6541,"universal":6542,"aprobado":6543,"##itor":6544,"##micos":6545,"mel":6546,"misiones":6547,"rel":6548,"pacientes":6549,"disculpa":6550,"##grado":6551,"león":6552,"juro":6553,"dura":6554,"##erso":6555,"##deo":6556,"broma":6557,"inicial":6558,"numerosos":6559,"lleno":6560,"beneficios":6561,"vacaciones":6562,"hones":6563,"necesaria":6564,"adqui":6565,"semin":6566,"oriente":6567,"zo":6568,"existentes":6569,"consiguiente":6570,"inaugu":6571,"atre":6572,"##zaje":6573,"##gros":6574,"recomendación":6575,"vestido":6576,"cn":6577,"##bos":6578,"##últi":6579,"##enses":6580,"ais":6581,"previsto":6582,"##ciles":6583,"incluida":6584,"rem":6585,"considerar":6586,"igualmente":6587,"basado":6588,"sien":6589,"jean":6590,"peligros":6591,"nick":6592,"richard":6593,"impuestos":6594,"##idae":6595,"perdió":6596,"números":6597,"sacer":6598,"supervisión":6599,"##uesta":6600,"monstru":6601,"directa":6602,"peligroso":6603,"explica":6604,"##tidas":6605,"destruir":6606,"leche":6607,"ángeles":6608,"alcoh":6609,"##trados":6610,"##alos":6611,"habr":6612,"##pia":6613,"miras":6614,"mué":6615,"ubicada":6616,"sacerdo":6617,"supre":6618,"respuestas":6619,"miguel":6620,"##landia":6621,"cham":6622,"reda":6623,"bajar":6624,"planificación":6625,"esqu":6626,"disminu":6627,"ox":6628,"declaraciones":6629,"entrega":6630,"afirma":6631,"compu":6632,"jane":6633,"anal":6634,"identidad":6635,"empu":6636,"usuarios":6637,"perdon":6638,"perí":6639,"temprano":6640,"llave":6641,"autob":6642,"manuel":6643,"festival":6644,"relo":6645,"consig":6646,"cau":6647,"it":6648,"concentra":6649,"investig":6650,"tv":6651,"##jó":6652,"##lia":6653,"acabar":6654,"explotación":6655,"cuántos":6656,"estrategias":6657,"efectivo":6658,"plenamente":6659,"##tum":6660,"estudiar":6661,"confiar":6662,"vayas":6663,"austria":6664,"##lán":6665,"##lev":6666,"inmig":6667,"longitud":6668,"enla":6669,"fras":6670,"##ith":6671,"prision":6672,"##reo":6673,"podamos":6674,"elig":6675,"maravilloso":6676,"coches":6677,"ciencias":6678,"compartir":6679,"##rimiento":6680,"montaña":6681,"ador":6682,"protes":6683,"desplaz":6684,"órgano":6685,"##dré":6686,"correr":6687,"enferm":6688,"guía":6689,"llu":6690,"viola":6691,"##ibe":6692,"quie":6693,"presupues":6694,"rato":6695,"##tarme":6696,"estuviera":6697,"aguan":6698,"posee":6699,"fábr":6700,"transición":6701,"cooper":6702,"imb":6703,"querías":6704,"##gico":6705,"seguros":6706,"blancos":6707,"##bs":6708,"privada":6709,"anunci":6710,"modos":6711,"deuda":6712,"impe":6713,"entregar":6714,"##segu":6715,"compra":6716,"linda":6717,"pertenece":6718,"tuya":6719,"##colas":6720,"salvador":6721,"bis":6722,"resistencia":6723,"##tara":6724,"saberlo":6725,"hablo":6726,"irre":6727,"creó":6728,"ése":6729,"perra":6730,"débil":6731,"empleados":6732,"definición":6733,"##zados":6734,"límite":6735,"venezuela":6736,"seres":6737,"ciertas":6738,"##eos":6739,"orientación":6740,"jardín":6741,"tome":6742,"opciones":6743,"criterios":6744,"sarg":6745,"autén":6746,"parecen":6747,"útil":6748,"##tificado":6749,"##icidad":6750,"llevan":6751,"atrac":6752,"laboratorio":6753,"evento":6754,"adicional":6755,"lor":6756,"preocupar":6757,"votación":6758,"destrucción":6759,"introducción":6760,"denun":6761,"suma":6762,"conforme":6763,"##dis":6764,"conferencias":6765,"tún":6766,"##trucciones":6767,"espalda":6768,"lindo":6769,"subir":6770,"vuelva":6771,"phil":6772,"aprobó":6773,"consiguió":6774,"99":6775,"proporcionar":6776,"cielos":6777,"suiza":6778,"cuch":6779,"universo":6780,"##feras":6781,"##entario":6782,"tendré":6783,"correspondiente":6784,"utilizado":6785,"pensado":6786,"ord":6787,"##pens":6788,"díg":6789,"enseguida":6790,"contribuciones":6791,"artista":6792,"compuesto":6793,"clim":6794,"definitivamente":6795,"italiano":6796,"camar":6797,"##ficiencia":6798,"incu":6799,"cargos":6800,"arras":6801,"inmediato":6802,"móvil":6803,"jugando":6804,"delitos":6805,"conces":6806,"basada":6807,"cierta":6808,"apos":6809,"reempla":6810,"##icales":6811,"daños":6812,"complic":6813,"vih":6814,"hicimos":6815,"corriente":6816,"plano":6817,"generación":6818,"firm":6819,"entiende":6820,"##gin":6821,"fues":6822,"enfrentar":6823,"##américa":6824,"hablado":6825,"cerveza":6826,"##guas":6827,"reales":6828,"##ure":6829,"expan":6830,"bolsa":6831,"reti":6832,"ministros":6833,"alianza":6834,"deberán":6835,"taller":6836,"viento":6837,"pene":6838,"apartamento":6839,"uc":6840,"eter":6841,"perspectiva":6842,"descubier":6843,"reper":6844,"realiza":6845,"bl":6846,"alegro":6847,"##aran":6848,"##mático":6849,"metal":6850,"autón":6851,"extranjero":6852,"hisp":6853,"representación":6854,"##ld":6855,"trasero":6856,"##logía":6857,"mantiene":6858,"calma":6859,"tarjeta":6860,"religión":6861,"empren":6862,"encargado":6863,"siga":6864,"situada":6865,"familiares":6866,"##enciales":6867,"gig":6868,"puedas":6869,"apreci":6870,"alimentar":6871,"inteligencia":6872,"##ánico":6873,"##adura":6874,"dinam":6875,"páginas":6876,"eva":6877,"##esper":6878,"fabr":6879,"charles":6880,"violación":6881,"modelos":6882,"##ispo":6883,"agen":6884,"subra":6885,"practic":6886,"##asión":6887,"pud":6888,"transpar":6889,"sher":6890,"brazo":6891,"##abilidades":6892,"eventos":6893,"esfera":6894,"sargento":6895,"concen":6896,"cuo":6897,"##erador":6898,"urban":6899,"alm":6900,"poderes":6901,"actuación":6902,"##eso":6903,"múlti":6904,"conexión":6905,"templo":6906,"progreso":6907,"religios":6908,"probar":6909,"suyo":6910,"reconocer":6911,"##gn":6912,"sof":6913,"hig":6914,"hablamos":6915,"esencial":6916,"##dicas":6917,"embaj":6918,"particularmente":6919,"##than":6920,"##ey":6921,"notas":6922,"##guar":6923,"fic":6924,"daré":6925,"uru":6926,"##eraciones":6927,"dictamen":6928,"impuls":6929,"alcalde":6930,"diablo":6931,"vayan":6932,"ignor":6933,"grecia":6934,"piloto":6935,"vecinos":6936,"##eles":6937,"llegada":6938,"sueños":6939,"equiv":6940,"joder":6941,"bron":6942,"arran":6943,"recomienda":6944,"fus":6945,"evan":6946,"límites":6947,"##10":6948,"idioma":6949,"dispone":6950,"cuello":6951,"discapa":6952,"rápida":6953,"parar":6954,"abur":6955,"##onos":6956,"##20":6957,"estructuras":6958,"artistas":6959,"reciente":6960,"diferencias":6961,"##kin":6962,"viernes":6963,"envió":6964,"irán":6965,"actuales":6966,"gil":6967,"requer":6968,"rit":6969,"cuidad":6970,"jurisdic":6971,"financieras":6972,"éstos":6973,"##didos":6974,"esperan":6975,"máxima":6976,"elemento":6977,"actor":6978,"restric":6979,"corea":6980,"cañ":6981,"irse":6982,"##sion":6983,"descubrir":6984,"##agésimo":6985,"publicó":6986,"lav":6987,"titulado":6988,"aprendi":6989,"##fas":6990,"##ples":6991,"ayúd":6992,"contribuir":6993,"##ix":6994,"##reras":6995,"producir":6996,"objetos":6997,"continúa":6998,"últimas":6999,"empe":7000,"##ículo":7001,"##itales":7002,"fenóm":7003,"ayudarte":7004,"responsables":7005,"majes":7006,"pregunto":7007,"bara":7008,"afgan":7009,"defender":7010,"intens":7011,"evidencia":7012,"enviar":7013,"fuertes":7014,"limita":7015,"decidido":7016,"temperatura":7017,"cantante":7018,"rei":7019,"pend":7020,"##tones":7021,"enviado":7022,"llaman":7023,"##ezca":7024,"romper":7025,"roja":7026,"duer":7027,"infancia":7028,"apareció":7029,"iraq":7030,"##nia":7031,"aven":7032,"adicionales":7033,"numerosas":7034,"ingles":7035,"infantil":7036,"probable":7037,"piezas":7038,"##plic":7039,"solía":7040,"##tencias":7041,"latina":7042,"progresos":7043,"##berg":7044,"asociados":7045,"##adero":7046,"demostrar":7047,"coger":7048,"inscri":7049,"##tarte":7050,"##traste":7051,"relativos":7052,"celebración":7053,"introdu":7054,"seguido":7055,"doce":7056,"brillante":7057,"adoptado":7058,"##ímp":7059,"comportamiento":7060,"irnos":7061,"secundaria":7062,"##cías":7063,"sentencia":7064,"porc":7065,"##ivas":7066,"contribución":7067,"enemig":7068,"##gus":7069,"absoluto":7070,"odi":7071,"sabías":7072,"hem":7073,"respecta":7074,"tuviera":7075,"camin":7076,"costos":7077,"petición":7078,"##lí":7079,"convertido":7080,"harás":7081,"oscur":7082,"consiste":7083,"intercambi":7084,"dia":7085,"señores":7086,"guitar":7087,"##pora":7088,"directrices":7089,"vea":7090,"vege":7091,"tía":7092,"##ándome":7093,"noticia":7094,"##ficamente":7095,"fomento":7096,"cate":7097,"millón":7098,"bosques":7099,"alej":7100,"clasific":7101,"##erta":7102,"hacerse":7103,"##todo":7104,"academia":7105,"belleza":7106,"echar":7107,"pantal":7108,"##ólogo":7109,"científicos":7110,"historias":7111,"decidir":7112,"##red":7113,"ape":7114,"autores":7115,"extranjeros":7116,"telef":7117,"chu":7118,"tranquil":7119,"asal":7120,"enfermo":7121,"##trada":7122,"my":7123,"##dencias":7124,"virgen":7125,"típ":7126,"incluidas":7127,"recoger":7128,"enfrenta":7129,"##ily":7130,"##entando":7131,"compañeros":7132,"delin":7133,"pablo":7134,"##allas":7135,"boliv":7136,"ari":7137,"requisitos":7138,"##eramente":7139,"nig":7140,"guard":7141,"dichos":7142,"anillo":7143,"##inta":7144,"##xil":7145,"océ":7146,"##fir":7147,"##ish":7148,"histórico":7149,"aclar":7150,"chi":7151,"##icios":7152,"##túa":7153,"minas":7154,"adultos":7155,"fij":7156,"sustan":7157,"ataques":7158,"egipto":7159,"aceler":7160,"##ville":7161,"recurso":7162,"estatal":7163,"##presid":7164,"siguiendo":7165,"gro":7166,"verás":7167,"desempeñ":7168,"vil":7169,"discurso":7170,"ciertos":7171,"suav":7172,"##ling":7173,"encer":7174,"llegaron":7175,"##vista":7176,"porqué":7177,"breve":7178,"escúchame":7179,"suficientemente":7180,"mark":7181,"tony":7182,"interpretación":7183,"reca":7184,"princes":7185,"juvent":7186,"##ualmente":7187,"intelec":7188,"corresponde":7189,"borra":7190,"##pera":7191,"regla":7192,"soft":7193,"retro":7194,"salón":7195,"llena":7196,"torm":7197,"escas":7198,"recién":7199,"tendrán":7200,"##alter":7201,"bél":7202,"log":7203,"##piración":7204,"bah":7205,"restos":7206,"desastre":7207,"##elle":7208,"ingenier":7209,"determinados":7210,"suger":7211,"dejé":7212,"caribe":7213,"revisión":7214,"recibe":7215,"mercancías":7216,"divor":7217,"gratu":7218,"sober":7219,"##risto":7220,"##dro":7221,"concer":7222,"conclusión":7223,"movimientos":7224,"equivocado":7225,"fla":7226,"acadé":7227,"bec":7228,"jugadores":7229,"cuerpos":7230,"leon":7231,"captur":7232,"negra":7233,"necesitaba":7234,"carl":7235,"caballero":7236,"vicepresid":7237,"estima":7238,"edificios":7239,"##talo":7240,"transferencia":7241,"promes":7242,"##risa":7243,"luces":7244,"##ulos":7245,"insta":7246,"lanzamiento":7247,"carol":7248,"##let":7249,"veré":7250,"consulta":7251,"arries":7252,"desay":7253,"vuestra":7254,"ago":7255,"imbé":7256,"episodio":7257,"bonita":7258,"ciento":7259,"##pal":7260,"nacimiento":7261,"produce":7262,"personajes":7263,"##queros":7264,"convierte":7265,"##gante":7266,"indis":7267,"ronda":7268,"acre":7269,"similares":7270,"dichas":7271,"hielo":7272,"fortalecer":7273,"tortura":7274,"pistola":7275,"##tiste":7276,"impon":7277,"demues":7278,"milenio":7279,"tej":7280,"tribu":7281,"brazos":7282,"partida":7283,"##yes":7284,"##ome":7285,"sentimientos":7286,"tradición":7287,"pocas":7288,"garantía":7289,"letra":7290,"acaso":7291,"plena":7292,"asociaciones":7293,"excepción":7294,"interro":7295,"limpi":7296,"recuperar":7297,"agrícola":7298,"presentes":7299,"delincu":7300,"termina":7301,"llamadas":7302,"09":7303,"novela":7304,"jurídica":7305,"ilí":7306,"##rito":7307,"##enos":7308,"sinc":7309,"agrícolas":7310,"difusión":7311,"xvii":7312,"##itz":7313,"inició":7314,"potencial":7315,"pintura":7316,"##tol":7317,"##táculos":7318,"preciso":7319,"cenar":7320,"inci":7321,"tera":7322,"voto":7323,"tribunales":7324,"quise":7325,"sobr":7326,"veamos":7327,"fomentar":7328,"pared":7329,"##sar":7330,"suya":7331,"##tuales":7332,"escenario":7333,"apun":7334,"jan":7335,"##ianos":7336,"marina":7337,"residencia":7338,"sú":7339,"##vina":7340,"opon":7341,"espada":7342,"##ánd":7343,"fundad":7344,"culpable":7345,"soldado":7346,"conservación":7347,"##ándolo":7348,"rural":7349,"corta":7350,"rod":7351,"jimmy":7352,"variedad":7353,"eu":7354,"##cedentes":7355,"juventud":7356,"adquis":7357,"turismo":7358,"incom":7359,"jor":7360,"sepa":7361,"encargar":7362,"composición":7363,"cuarta":7364,"trabajó":7365,"decreto":7366,"flex":7367,"##laterales":7368,"cayó":7369,"extrem":7370,"podían":7371,"tonel":7372,"restaurante":7373,"juega":7374,"interesados":7375,"estadio":7376,"antiguos":7377,"##cación":7378,"cerrar":7379,"preparar":7380,"escritor":7381,"guatem":7382,"cocin":7383,"##quí":7384,"causas":7385,"explicar":7386,"compromisos":7387,"esferas":7388,"##cieron":7389,"cie":7390,"adecuada":7391,"alde":7392,"enrique":7393,"categorías":7394,"org":7395,"triun":7396,"recuperación":7397,"##itando":7398,"cig":7399,"porcenta":7400,"##ejo":7401,"bienvenido":7402,"árboles":7403,"prov":7404,"eslo":7405,"dientes":7406,"reconoce":7407,"##ku":7408,"##pr":7409,"implic":7410,"mich":7411,"básicos":7412,"absolutamente":7413,"suple":7414,"violaciones":7415,"mutu":7416,"prioridad":7417,"auxil":7418,"##tle":7419,"pleno":7420,"mapa":7421,"ruso":7422,"adoptadas":7423,"sól":7424,"renta":7425,"infraestructura":7426,"seleccion":7427,"##ógica":7428,"ruido":7429,"teníamos":7430,"empa":7431,"jurídico":7432,"rosa":7433,"##ses":7434,"clasificación":7435,"##iten":7436,"toca":7437,"encontraron":7438,"nena":7439,"cursos":7440,"##idar":7441,"libres":7442,"##eral":7443,"iremos":7444,"##úcar":7445,"cra":7446,"##gadas":7447,"bienvenida":7448,"expon":7449,"vuestro":7450,"##rero":7451,"bases":7452,"ocupa":7453,"kim":7454,"apuesto":7455,"joy":7456,"adecuado":7457,"biblioteca":7458,"pasos":7459,"impar":7460,"comprender":7461,"interno":7462,"##for":7463,"##ela":7464,"trop":7465,"supervis":7466,"##cita":7467,"congo":7468,"acces":7469,"majestad":7470,"##terías":7471,"fbi":7472,"errores":7473,"bélgica":7474,"damas":7475,"##tique":7476,"enemigos":7477,"perros":7478,"extensión":7479,"ciclo":7480,"##ológicos":7481,"volveré":7482,"conducir":7483,"alumnos":7484,"abri":7485,"##enza":7486,"##ider":7487,"acabado":7488,"desf":7489,"detención":7490,"##cipl":7491,"ty":7492,"audiencia":7493,"fernando":7494,"satisfacción":7495,"altos":7496,"##mando":7497,"ecus":7498,"##andia":7499,"cír":7500,"coordin":7501,"##eco":7502,"poblaciones":7503,"fisc":7504,"##ek":7505,"hubiese":7506,"##ns":7507,"alegra":7508,"oscuro":7509,"héroe":7510,"gine":7511,"##pp":7512,"famoso":7513,"##tilla":7514,"invierno":7515,"uds":7516,"circulación":7517,"suele":7518,"terceros":7519,"experiencias":7520,"lux":7521,"oliv":7522,"electrónico":7523,"estric":7524,"figuran":7525,"vienes":7526,"manejar":7527,"sitios":7528,"##micas":7529,"contratos":7530,"científico":7531,"##tillas":7532,"acor":7533,"##nización":7534,"profundo":7535,"##bran":7536,"ei":7537,"150":7538,"diplom":7539,"veremos":7540,"mediados":7541,"botel":7542,"##tron":7543,"decirlo":7544,"muere":7545,"terroristas":7546,"##ísticos":7547,"colores":7548,"vehículo":7549,"##cismo":7550,"ojal":7551,"estarán":7552,"utilizando":7553,"estándar":7554,"determinadas":7555,"reloj":7556,"ans":7557,"prestación":7558,"grá":7559,"publicaciones":7560,"cria":7561,"siglos":7562,"##key":7563,"seré":7564,"bole":7565,"zapatos":7566,"decír":7567,"##lín":7568,"parlam":7569,"opiniones":7570,"bau":7571,"cierra":7572,"interrump":7573,"##tarias":7574,"aran":7575,"##lados":7576,"coorden":7577,"marí":7578,"debió":7579,"dejes":7580,"latino":7581,"medalla":7582,"##uck":7583,"í":7584,"emperador":7585,"costo":7586,"despierta":7587,"##áver":7588,"fabricación":7589,"molesta":7590,"cadáver":7591,"##nal":7592,"británico":7593,"princesa":7594,"matado":7595,"ojalá":7596,"quinto":7597,"anci":7598,"desen":7599,"anunció":7600,"##tter":7601,"##cad":7602,"períodos":7603,"##his":7604,"símb":7605,"hayas":7606,"activa":7607,"casado":7608,"##pan":7609,"diag":7610,"ginebra":7611,"continú":7612,"estabilidad":7613,"armados":7614,"celebrar":7615,"devolver":7616,"##fin":7617,"verme":7618,"thomas":7619,"cantar":7620,"ine":7621,"precisamente":7622,"chip":7623,"##desa":7624,"petró":7625,"habido":7626,"cél":7627,"##íste":7628,"mari":7629,"verla":7630,"produci":7631,"mila":7632,"##gráfico":7633,"fronteras":7634,"caminar":7635,"##ique":7636,"norue":7637,"suficientes":7638,"prevenir":7639,"polonia":7640,"colección":7641,"mata":7642,"subsid":7643,"##echos":7644,"personales":7645,"razas":7646,"leo":7647,"inspir":7648,"aprue":7649,"##del":7650,"bala":7651,"##itarias":7652,"testigo":7653,"##jera":7654,"##uta":7655,"##ms":7656,"pra":7657,"azúcar":7658,"reservas":7659,"monum":7660,"coordenadas":7661,"##omía":7662,"olímp":7663,"perteneciente":7664,"mentira":7665,"histor":7666,"coloc":7667,"equival":7668,"clín":7669,"##iría":7670,"tuvimos":7671,"estatuto":7672,"sigues":7673,"laboral":7674,"combatir":7675,"volar":7676,"renunci":7677,"##lez":7678,"señaló":7679,"fácilmente":7680,"##tización":7681,"aparte":7682,"darte":7683,"soluciones":7684,"isl":7685,"proc":7686,"##íe":7687,"plataforma":7688,"hojas":7689,"internos":7690,"policías":7691,"declaró":7692,"##icion":7693,"##ster":7694,"sole":7695,"exacto":7696,"##adic":7697,"piernas":7698,"pido":7699,"exclu":7700,"créditos":7701,"atrapar":7702,"##tesis":7703,"indem":7704,"fuese":7705,"darme":7706,"##tty":7707,"integ":7708,"##tha":7709,"llegando":7710,"conde":7711,"convertirse":7712,"determinación":7713,"lados":7714,"potencia":7715,"ganas":7716,"recons":7717,"##citos":7718,"lunes":7719,"crítica":7720,"ultra":7721,"traducción":7722,"apara":7723,"malos":7724,"##tración":7725,"entrenador":7726,"jugó":7727,"lanzado":7728,"##sto":7729,"entrevista":7730,"##tienen":7731,"testigos":7732,"abordar":7733,"reto":7734,"desapareci":7735,"##ili":7736,"escul":7737,"medicamentos":7738,"gracia":7739,"dará":7740,"estarás":7741,"conversación":7742,"pelear":7743,"alcohol":7744,"##quinas":7745,"##quilla":7746,"siguió":7747,"oficialmente":7748,"factor":7749,"petróleo":7750,"##íg":7751,"japones":7752,"acta":7753,"prohib":7754,"considerando":7755,"##letas":7756,"asiento":7757,"múltiples":7758,"tradicionales":7759,"##tías":7760,"litera":7761,"alemanes":7762,"##ings":7763,"atacar":7764,"peces":7765,"boy":7766,"relator":7767,"xix":7768,"##restre":7769,"ritmo":7770,"rayos":7771,"fábrica":7772,"##chi":7773,"##gosla":7774,"asom":7775,"##ison":7776,"resuel":7777,"##iremos":7778,"franco":7779,"estaremos":7780,"hacerle":7781,"##ime":7782,"tos":7783,"brus":7784,"##art":7785,"espectáculo":7786,"pese":7787,"actriz":7788,"electoral":7789,"##istir":7790,"instancia":7791,"lás":7792,"pata":7793,"complejo":7794,"roy":7795,"##ieran":7796,"torno":7797,"solu":7798,"##cula":7799,"##izados":7800,"humor":7801,"##eria":7802,"inmun":7803,"suél":7804,"viejos":7805,"promedio":7806,"perju":7807,"mortal":7808,"presidenta":7809,"lectura":7810,"identificación":7811,"##rones":7812,"yugosla":7813,"paseo":7814,"cambia":7815,"querer":7816,"contó":7817,"turquía":7818,"reafir":7819,"vistazo":7820,"pensamiento":7821,"##pié":7822,"dirigido":7823,"adam":7824,"engañ":7825,"trabajan":7826,"##onso":7827,"confun":7828,"román":7829,"vivienda":7830,"##tese":7831,"oposición":7832,"##trop":7833,"transmisión":7834,"##tamentos":7835,"veinte":7836,"obviamente":7837,"superiores":7838,"técnicos":7839,"compens":7840,"permiten":7841,"##cé":7842,"hacerte":7843,"descripción":7844,"respectivamente":7845,"##ilo":7846,"gloria":7847,"herido":7848,"caballos":7849,"duele":7850,"irá":7851,"escolar":7852,"reforzar":7853,"##máticas":7854,"ocupación":7855,"##cus":7856,"costu":7857,"ucran":7858,"jefes":7859,"##ux":7860,"fantástico":7861,"vam":7862,"##ella":7863,"choc":7864,"robar":7865,"señala":7866,"##ándole":7867,"tanta":7868,"arbi":7869,"##americanos":7870,"firmado":7871,"octa":7872,"garcía":7873,"ideal":7874,"alemana":7875,"esperen":7876,"##ah":7877,"quinta":7878,"arena":7879,"montañas":7880,"actitud":7881,"titular":7882,"vál":7883,"acero":7884,"##lano":7885,"llám":7886,"asegur":7887,"refug":7888,"divis":7889,"permanecer":7890,"gana":7891,"usado":7892,"fro":7893,"##mith":7894,"hí":7895,"##fía":7896,"regresa":7897,"vín":7898,"desemp":7899,"lamenta":7900,"tantos":7901,"##ij":7902,"huevos":7903,"interesa":7904,"levanta":7905,"propone":7906,"revolucion":7907,"sép":7908,"fortalecimiento":7909,"realizados":7910,"células":7911,"bienestar":7912,"##tría":7913,"onu":7914,"imagin":7915,"beneficio":7916,"alimentación":7917,"cerem":7918,"bern":7919,"vii":7920,"flota":7921,"polvo":7922,"tradu":7923,"llevaron":7924,"pasada":7925,"##uelos":7926,"disfrutar":7927,"st":7928,"imbécil":7929,"##imas":7930,"proyec":7931,"##lico":7932,"cura":7933,"llevas":7934,"##mí":7935,"quedarse":7936,"sujeto":7937,"sigo":7938,"repercu":7939,"##ánica":7940,"mete":7941,"cuá":7942,"##ari":7943,"preocupado":7944,"##trocin":7945,"llevaba":7946,"##bral":7947,"##gate":7948,"sarah":7949,"toneladas":7950,"delib":7951,"bran":7952,"dioses":7953,"demasi":7954,"acontecimientos":7955,"contrar":7956,"ferrocar":7957,"descanso":7958,"habéis":7959,"adhesión":7960,"##the":7961,"candidatos":7962,"americano":7963,"viajes":7964,"institucional":7965,"perci":7966,"textos":7967,"perfecta":7968,"vincul":7969,"producido":7970,"constituyen":7971,"##ormes":7972,"estren":7973,"##ume":7974,"enfad":7975,"##fera":7976,"quiénes":7977,"cerrado":7978,"facultad":7979,"gonz":7980,"noruega":7981,"atraves":7982,"##sie":7983,"realizada":7984,"angel":7985,"##chel":7986,"aprendizaje":7987,"grie":7988,"electri":7989,"extremo":7990,"idiomas":7991,"dejando":7992,"##pá":7993,"forman":7994,"decep":7995,"funcionar":7996,"##ua":7997,"nas":7998,"plu":7999,"cór":8000,"pnud":8001,"reclu":8002,"moral":8003,"##ertos":8004,"luxem":8005,"combustible":8006,"neu":8007,"campes":8008,"estableció":8009,"católica":8010,"guatemala":8011,"rol":8012,"entero":8013,"ic":8014,"prácticamente":8015,"serás":8016,"##mba":8017,"vías":8018,"ampliación":8019,"destaca":8020,"poca":8021,"##teo":8022,"lenguaje":8023,"barb":8024,"celebró":8025,"jas":8026,"steve":8027,"##sey":8028,"##iff":8029,"porcentaje":8030,"bille":8031,"guarda":8032,"punta":8033,"regresó":8034,"bastar":8035,"##maras":8036,"sínto":8037,"carro":8038,"diversidad":8039,"temporal":8040,"quedado":8041,"viviendo":8042,"bancos":8043,"leván":8044,"aves":8045,"##cientes":8046,"prioridades":8047,"pieza":8048,"conocí":8049,"encam":8050,"logrado":8051,"esperamos":8052,"desh":8053,"##ecían":8054,"##uras":8055,"##éspe":8056,"reún":8057,"parro":8058,"infec":8059,"mr":8060,"afganistán":8061,"conjun":8062,"sindica":8063,"núc":8064,"irte":8065,"sustancias":8066,"salga":8067,"catedr":8068,"delic":8069,"silla":8070,"bella":8071,"accid":8072,"oscuridad":8073,"médica":8074,"repente":8075,"llaves":8076,"conducta":8077,"activo":8078,"espacial":8079,"cientos":8080,"##téli":8081,"imple":8082,"##pulación":8083,"pronunci":8084,"haberlo":8085,"stu":8086,"respal":8087,"mensajes":8088,"insu":8089,"##field":8090,"droga":8091,"perfectamente":8092,"evaluar":8093,"##uerzo":8094,"vos":8095,"##hor":8096,"instrucciones":8097,"estadísticas":8098,"perdí":8099,"cerr":8100,"johnny":8101,"diam":8102,"##riendo":8103,"gato":8104,"tó":8105,"##ski":8106,"reflex":8107,"##zadas":8108,"már":8109,"muñ":8110,"bromeando":8111,"##americana":8112,"filoso":8113,"mediterrán":8114,"##zcan":8115,"##cara":8116,"mand":8117,"periodista":8118,"##tibles":8119,"##tidades":8120,"componentes":8121,"##alidades":8122,"pez":8123,"salido":8124,"movil":8125,"##gaste":8126,"ambiental":8127,"recientes":8128,"embarazada":8129,"suministro":8130,"mostr":8131,"corona":8132,"impedir":8133,"comparación":8134,"fri":8135,"aviones":8136,"discipl":8137,"retra":8138,"danny":8139,"trampa":8140,"visi":8141,"observación":8142,"cambió":8143,"testimon":8144,"turno":8145,"formado":8146,"ríos":8147,"ventaja":8148,"conseguido":8149,"sociedades":8150,"cuen":8151,"##grama":8152,"patrimonio":8153,"##orld":8154,"produjo":8155,"entidad":8156,"bordo":8157,"##30":8158,"satéli":8159,"investigar":8160,"rehabil":8161,"espiritual":8162,"consta":8163,"camión":8164,"cubrir":8165,"impul":8166,"gay":8167,"dama":8168,"lá":8169,"prohibición":8170,"hallar":8171,"llamaré":8172,"utilizan":8173,"pájar":8174,"participa":8175,"judíos":8176,"vuelvo":8177,"##taña":8178,"park":8179,"desier":8180,"dejaré":8181,"hidro":8182,"prostitu":8183,"logro":8184,"ruman":8185,"rurales":8186,"##ológicas":8187,"natal":8188,"viajar":8189,"descubierto":8190,"tranquila":8191,"correcta":8192,"cabello":8193,"primo":8194,"cortes":8195,"dinamarca":8196,"ted":8197,"adaptación":8198,"seguramente":8199,"suceder":8200,"moneda":8201,"marcas":8202,"fueran":8203,"desarrollado":8204,"éstas":8205,"construido":8206,"ventas":8207,"digi":8208,"suecia":8209,"##tentes":8210,"prevé":8211,"limpiar":8212,"máquinas":8213,"##kistán":8214,"coinci":8215,"comentarios":8216,"árabes":8217,"títulos":8218,"##donos":8219,"lasti":8220,"asesoramiento":8221,"entrenamiento":8222,"logra":8223,"registros":8224,"ecuador":8225,"herramientas":8226,"tin":8227,"papi":8228,"cy":8229,"##sula":8230,"virus":8231,"fuimos":8232,"caída":8233,"reyes":8234,"celular":8235,"aplicaciones":8236,"aliv":8237,"inocente":8238,"delegaciones":8239,"##rer":8240,"complementar":8241,"coraz":8242,"informó":8243,"##yec":8244,"abus":8245,"dependencia":8246,"copia":8247,"creemos":8248,"asesinado":8249,"pareces":8250,"presentan":8251,"##eración":8252,"renun":8253,"autobús":8254,"destinados":8255,"traído":8256,"##mej":8257,"gratis":8258,"##ull":8259,"creciente":8260,"cero":8261,"cortar":8262,"castel":8263,"##iéndo":8264,"mirada":8265,"papeles":8266,"homici":8267,"techo":8268,"reacción":8269,"cercano":8270,"corrupción":8271,"étn":8272,"hy":8273,"tim":8274,"mental":8275,"océano":8276,"mezcla":8277,"merece":8278,"##arlos":8279,"black":8280,"caza":8281,"atender":8282,"here":8283,"empresar":8284,"premios":8285,"humil":8286,"rastre":8287,"documentación":8288,"pantalla":8289,"##nis":8290,"aterri":8291,"##éticos":8292,"pira":8293,"discutir":8294,"rick":8295,"##estia":8296,"concurso":8297,"noble":8298,"cuáles":8299,"negros":8300,"embajador":8301,"ocurrido":8302,"refiero":8303,"cifras":8304,"hierro":8305,"iban":8306,"##ges":8307,"dueño":8308,"cinta":8309,"dejo":8310,"##lateral":8311,"integrado":8312,"arque":8313,"##cl":8314,"liberación":8315,"habitaciones":8316,"computadora":8317,"rostro":8318,"py":8319,"hecha":8320,"primaria":8321,"cuántas":8322,"periódicos":8323,"rendimiento":8324,"cubierta":8325,"desn":8326,"ky":8327,"guin":8328,"proven":8329,"##gie":8330,"##mina":8331,"volverá":8332,"comisionado":8333,"fór":8334,"##barde":8335,"digital":8336,"##duras":8337,"encontraba":8338,"estudiante":8339,"autorización":8340,"##echas":8341,"argentino":8342,"##bus":8343,"cámaras":8344,"magis":8345,"letras":8346,"consigue":8347,"pobl":8348,"ésa":8349,"individual":8350,"lenguas":8351,"escuché":8352,"rein":8353,"encuent":8354,"expuls":8355,"específicas":8356,"viena":8357,"constitucional":8358,"innovación":8359,"pé":8360,"##12":8361,"confes":8362,"bols":8363,"solar":8364,"brig":8365,"privi":8366,"literatura":8367,"cancel":8368,"discúl":8369,"apla":8370,"international":8371,"##till":8372,"chino":8373,"patrocin":8374,"implica":8375,"equilibrio":8376,"palestina":8377,"reunir":8378,"##áns":8379,"prom":8380,"discapacidad":8381,"líderes":8382,"entrevis":8383,"compañías":8384,"sentado":8385,"habló":8386,"procedentes":8387,"jord":8388,"raíz":8389,"##cón":8390,"##tifica":8391,"ámbitos":8392,"##ández":8393,"ubicación":8394,"oto":8395,"presentada":8396,"efectiva":8397,"magia":8398,"##entimiento":8399,"secretos":8400,"índice":8401,"##inadas":8402,"sun":8403,"continua":8404,"mandar":8405,"quedarme":8406,"city":8407,"autos":8408,"##ivers":8409,"hablan":8410,"billy":8411,"##licos":8412,"##ot":8413,"comprende":8414,"##izas":8415,"llame":8416,"productores":8417,"ilegal":8418,"saliendo":8419,"paisa":8420,"##ieras":8421,"acceder":8422,"amistad":8423,"polici":8424,"solos":8425,"ayudarme":8426,"lord":8427,"##quir":8428,"ejemplos":8429,"sube":8430,"bendi":8431,"capaces":8432,"pasará":8433,"científica":8434,"##oras":8435,"comunitarias":8436,"alas":8437,"smith":8438,"atrap":8439,"neg":8440,"pagos":8441,"invitado":8442,"ly":8443,"extraordinario":8444,"elaborar":8445,"campamento":8446,"clic":8447,"ponga":8448,"tour":8449,"lleve":8450,"##ógico":8451,"administr":8452,"etique":8453,"farma":8454,"ges":8455,"altas":8456,"invitar":8457,"rango":8458,"##vanse":8459,"##moslo":8460,"rar":8461,"listas":8462,"climático":8463,"vay":8464,"vieron":8465,"emisiones":8466,"dió":8467,"greg":8468,"##mula":8469,"perdona":8470,"uruguay":8471,"persegu":8472,"exitos":8473,"indicadores":8474,"##óstico":8475,"treinta":8476,"ayúdame":8477,"concesión":8478,"jar":8479,"afortun":8480,"tendencia":8481,"##óptero":8482,"cirug":8483,"hipo":8484,"vivos":8485,"hiciera":8486,"cd":8487,"##orro":8488,"hit":8489,"crímenes":8490,"##ze":8491,"tomo":8492,"##americano":8493,"ilum":8494,"llegamos":8495,"glob":8496,"detente":8497,"##mm":8498,"socor":8499,"diputados":8500,"##ándote":8501,"griego":8502,"tantas":8503,"resumen":8504,"compras":8505,"españoles":8506,"señalar":8507,"mascul":8508,"jorge":8509,"mantuvo":8510,"##25":8511,"fred":8512,"hero":8513,"suelen":8514,"##abel":8515,"averiguar":8516,"déjalo":8517,"kir":8518,"respir":8519,"fortun":8520,"pecho":8521,"criminal":8522,"inú":8523,"arquitectura":8524,"trate":8525,"decor":8526,"desaparecido":8527,"##uos":8528,"##móvil":8529,"gim":8530,"dispositivo":8531,"sobrevivir":8532,"poniendo":8533,"##iendas":8534,"##ctur":8535,"paga":8536,"niñ":8537,"##ence":8538,"cóm":8539,"##bieron":8540,"conocen":8541,"olvidado":8542,"primavera":8543,"organizado":8544,"abogados":8545,"capi":8546,"##gor":8547,"ala":8548,"##drán":8549,"obispo":8550,"estadounidenses":8551,"paquete":8552,"amp":8553,"post":8554,"##grafo":8555,"exportación":8556,"concierto":8557,"filip":8558,"vistas":8559,"instalación":8560,"desgraci":8561,"abandonar":8562,"usuario":8563,"##ónimo":8564,"proli":8565,"pantalones":8566,"basa":8567,"armada":8568,"##medi":8569,"##zi":8570,"barcos":8571,"##dedores":8572,"jurado":8573,"##teza":8574,"##aje":8575,"##elo":8576,"importe":8577,"##úrate":8578,"tercero":8579,"televis":8580,"aparecer":8581,"físico":8582,"nombra":8583,"establecen":8584,"futbol":8585,"dedos":8586,"vendrá":8587,"vídeo":8588,"satisfa":8589,"quiso":8590,"enca":8591,"garantías":8592,"ausencia":8593,"jorn":8594,"mundiales":8595,"##ites":8596,"cuestion":8597,"celebrado":8598,"tardar":8599,"concentración":8600,"representan":8601,"sábado":8602,"musul":8603,"##elly":8604,"corriendo":8605,"maneras":8606,"aceite":8607,"##dal":8608,"cuyos":8609,"impresión":8610,"gala":8611,"llevará":8612,"aj":8613,"adn":8614,"olvidar":8615,"rodi":8616,"bretaña":8617,"corresponden":8618,"anna":8619,"sensación":8620,"##cialmente":8621,"bronce":8622,"pierna":8623,"##mbres":8624,"##tren":8625,"##omun":8626,"superar":8627,"estuviste":8628,"pura":8629,"tommy":8630,"quede":8631,"trajo":8632,"pastel":8633,"ayude":8634,"##ificado":8635,"significado":8636,"zel":8637,"##ló":8638,"##cí":8639,"taxi":8640,"actores":8641,"##tions":8642,"donantes":8643,"comisario":8644,"##iss":8645,"luxemburgo":8646,"automóvil":8647,"competencias":8648,"redon":8649,"jurídicos":8650,"##áfrica":8651,"desha":8652,"guardar":8653,"ayunta":8654,"estáis":8655,"activos":8656,"verá":8657,"cigar":8658,"particulares":8659,"habías":8660,"informar":8661,"filosofía":8662,"permitió":8663,"dun":8664,"cuidar":8665,"imaginar":8666,"##izan":8667,"##11":8668,"perdiendo":8669,"berlín":8670,"vicepresidente":8671,"hermanas":8672,"fenómeno":8673,"sudáfrica":8674,"chicago":8675,"harán":8676,"dedicado":8677,"rique":8678,"modificado":8679,"colega":8680,"lluvia":8681,"hacerme":8682,"corpor":8683,"devuel":8684,"scott":8685,"bancar":8686,"santos":8687,"##izon":8688,"##st":8689,"amer":8690,"fores":8691,"horm":8692,"cuotas":8693,"nervioso":8694,"bandera":8695,"consciente":8696,"productor":8697,"conocía":8698,"interesado":8699,"hagamos":8700,"determinado":8701,"cálmate":8702,"##ius":8703,"párrafos":8704,"formato":8705,"industriales":8706,"##mada":8707,"leal":8708,"coher":8709,"##cidencia":8710,"##rillo":8711,"injus":8712,"susp":8713,"descen":8714,"abund":8715,"invitados":8716,"bil":8717,"contempor":8718,"##up":8719,"cobr":8720,"solicitudes":8721,"pasajeros":8722,"##quista":8723,"socios":8724,"limpio":8725,"fiestas":8726,"candidato":8727,"escrita":8728,"agre":8729,"motiv":8730,"reformas":8731,"absor":8732,"##oles":8733,"lanzar":8734,"amenazas":8735,"##ance":8736,"##hal":8737,"cierre":8738,"configu":8739,"aprobada":8740,"##stein":8741,"##tom":8742,"top":8743,"dejas":8744,"nariz":8745,"xii":8746,"remi":8747,"louis":8748,"descend":8749,"semej":8750,"independientes":8751,"intergu":8752,"poli":8753,"ridículo":8754,"posiciones":8755,"formó":8756,"discre":8757,"reconocido":8758,"ore":8759,"contaminación":8760,"monstruo":8761,"##garse":8762,"manifies":8763,"diego":8764,"extin":8765,"##tana":8766,"mírame":8767,"##ré":8768,"##cionamiento":8769,"plás":8770,"fid":8771,"##ónico":8772,"cansado":8773,"##ariamente":8774,"gam":8775,"##tta":8776,"bang":8777,"pobla":8778,"insul":8779,"felices":8780,"bajas":8781,"señales":8782,"trago":8783,"grados":8784,"prolifer":8785,"##reros":8786,"convencer":8787,"asenta":8788,"batal":8789,"cober":8790,"podrás":8791,"##mond":8792,"trin":8793,"específicos":8794,"##icef":8795,"##ager":8796,"emocion":8797,"##tense":8798,"##ans":8799,"lea":8800,"beso":8801,"legí":8802,"cue":8803,"yendo":8804,"nomin":8805,"##dero":8806,"llan":8807,"republic":8808,"nicara":8809,"##indo":8810,"sev":8811,"gras":8812,"consolidación":8813,"consumidores":8814,"##dente":8815,"notable":8816,"toler":8817,"ofrecen":8818,"##jando":8819,"consideración":8820,"margen":8821,"##andro":8822,"serían":8823,"##crib":8824,"andre":8825,"by":8826,"##ipe":8827,"legales":8828,"tay":8829,"italiana":8830,"jugue":8831,"##alia":8832,"##orra":8833,"##dras":8834,"provincias":8835,"afectados":8836,"presion":8837,"vacío":8838,"difíciles":8839,"importación":8840,"cristal":8841,"incapa":8842,"##ters":8843,"##úr":8844,"veter":8845,"##grafías":8846,"obed":8847,"muestran":8848,"identificar":8849,"##kes":8850,"expresa":8851,"cuento":8852,"intergubernam":8853,"alegría":8854,"jueves":8855,"##ls":8856,"sigan":8857,"ejercer":8858,"llegan":8859,"##ualidad":8860,"acercar":8861,"huellas":8862,"inicialmente":8863,"franceses":8864,"pasan":8865,"combinación":8866,"moto":8867,"electricidad":8868,"##áticas":8869,"superviv":8870,"llevando":8871,"permí":8872,"evangel":8873,"##uña":8874,"talento":8875,"##econ":8876,"sospechoso":8877,"gó":8878,"custo":8879,"##onía":8880,"frag":8881,"natur":8882,"##uth":8883,"##jeras":8884,"relá":8885,"desesper":8886,"debu":8887,"propa":8888,"semi":8889,"croa":8890,"podremos":8891,"distingu":8892,"extraña":8893,"jurisdicción":8894,"aquellas":8895,"fren":8896,"alternativa":8897,"codi":8898,"conting":8899,"recuerdos":8900,"intentó":8901,"##izó":8902,"sed":8903,"line":8904,"hil":8905,"municipios":8906,"aparición":8907,"##tie":8908,"verg":8909,"##tumbr":8910,"llevaré":8911,"marcos":8912,"señoría":8913,"propiedades":8914,"cuesta":8915,"trabajado":8916,"##ji":8917,"continuó":8918,"abar":8919,"cantidades":8920,"##tone":8921,"humanitaria":8922,"##tela":8923,"sentía":8924,"tormenta":8925,"capacidades":8926,"enmiendas":8927,"holly":8928,"##idge":8929,"##ning":8930,"ple":8931,"agradezco":8932,"claus":8933,"disparar":8934,"domés":8935,"refieres":8936,"demonio":8937,"##urt":8938,"canta":8939,"bud":8940,"aéreo":8941,"mediano":8942,"cirugía":8943,"ascen":8944,"clan":8945,"##quie":8946,"conocidos":8947,"felicidad":8948,"uniforme":8949,"destacar":8950,"avenida":8951,"alcanzó":8952,"consenso":8953,"metas":8954,"brian":8955,"dirigir":8956,"josep":8957,"pecado":8958,"proclam":8959,"simon":8960,"racial":8961,"carreras":8962,"evidente":8963,"construc":8964,"estupendo":8965,"pérdidas":8966,"##ben":8967,"respira":8968,"cuchillo":8969,"invita":8970,"air":8971,"seminario":8972,"nan":8973,"indones":8974,"consa":8975,"fich":8976,"justific":8977,"##unda":8978,"aparecen":8979,"bienio":8980,"individuales":8981,"supe":8982,"##pla":8983,"transfer":8984,"##usa":8985,"guinea":8986,"profunda":8987,"priva":8988,"##diente":8989,"tasas":8990,"oigan":8991,"##tándo":8992,"##21":8993,"encen":8994,"##inó":8995,"contemporán":8996,"destinado":8997,"haberse":8998,"##entalmente":8999,"alerta":9000,"##cana":9001,"contratación":9002,"curios":9003,"ponte":9004,"aplicable":9005,"só":9006,"escog":9007,"cae":9008,"dominio":9009,"esquina":9010,"ingreso":9011,"dirige":9012,"juntas":9013,"prefiero":9014,"lanzó":9015,"jeff":9016,"soviética":9017,"duque":9018,"aparentemente":9019,"publicidad":9020,"simul":9021,"coca":9022,"##guez":9023,"##gase":9024,"detenido":9025,"sentí":9026,"herida":9027,"ejecutiva":9028,"acusado":9029,"firmar":9030,"astu":9031,"borde":9032,"##dón":9033,"tig":9034,"fib":9035,"privadas":9036,"oiga":9037,"referirse":9038,"##tidi":9039,"originalmente":9040,"proliferación":9041,"##dé":9042,"##ugh":9043,"síntomas":9044,"perpe":9045,"cable":9046,"estudió":9047,"programación":9048,"estructurales":9049,"avances":9050,"horizon":9051,"hered":9052,"obstáculos":9053,"##90":9054,"telec":9055,"tuviste":9056,"deportivo":9057,"##vieran":9058,"jaco":9059,"exces":9060,"auton":9061,"desierto":9062,"cú":9063,"hábita":9064,"procur":9065,"arco":9066,"bebe":9067,"versiones":9068,"observar":9069,"juven":9070,"tabla":9071,"agres":9072,"afro":9073,"deporte":9074,"llorar":9075,"habiendo":9076,"##vel":9077,"totalidad":9078,"organizar":9079,"vital":9080,"impuesto":9081,"eri":9082,"gris":9083,"##bie":9084,"botella":9085,"encom":9086,"use":9087,"ibas":9088,"habilidades":9089,"##lim":9090,"congel":9091,"comprob":9092,"trataba":9093,"##mental":9094,"utilizados":9095,"bobby":9096,"##tillo":9097,"##mir":9098,"locos":9099,"posiblemente":9100,"socorro":9101,"escuchado":9102,"encantaría":9103,"americanos":9104,"residuos":9105,"##gulo":9106,"aduan":9107,"organizada":9108,"encantado":9109,"dimens":9110,"urgente":9111,"tomé":9112,"estuvieron":9113,"cump":9114,"aérea":9115,"redac":9116,"tráns":9117,"próximos":9118,"bici":9119,"estaciones":9120,"eli":9121,"toc":9122,"ingeniería":9123,"desayuno":9124,"escuche":9125,"estando":9126,"confía":9127,"bir":9128,"alé":9129,"préstamos":9130,"bruselas":9131,"copias":9132,"finlandia":9133,"acepta":9134,"resultó":9135,"piz":9136,"transformación":9137,"eficiencia":9138,"dejen":9139,"proporciona":9140,"británica":9141,"noctur":9142,"##tár":9143,"caz":9144,"comenzaron":9145,"colonia":9146,"transportes":9147,"gama":9148,"clark":9149,"vag":9150,"positivo":9151,"millas":9152,"administrativa":9153,"ayuntamiento":9154,"dimensión":9155,"parecido":9156,"empec":9157,"embar":9158,"lenta":9159,"cerdo":9160,"ego":9161,"##ganda":9162,"##vete":9163,"relacionado":9164,"dada":9165,"##lantes":9166,"relativamente":9167,"usan":9168,"##lón":9169,"permitido":9170,"##hat":9171,"unicef":9172,"lider":9173,"recordando":9174,"ampliar":9175,"##quito":9176,"seria":9177,"concretas":9178,"acostumbr":9179,"##cher":9180,"cé":9181,"destro":9182,"solidar":9183,"##uestas":9184,"cuentan":9185,"catedral":9186,"esconder":9187,"##cla":9188,"moderna":9189,"modificación":9190,"dudas":9191,"fortuna":9192,"decis":9193,"consideran":9194,"anivers":9195,"previstos":9196,"desapareció":9197,"hogares":9198,"siria":9199,"inquie":9200,"stre":9201,"roca":9202,"individuos":9203,"roto":9204,"degrad":9205,"##usias":9206,"ganador":9207,"llamaba":9208,"intelectual":9209,"avance":9210,"series":9211,"jones":9212,"jake":9213,"distra":9214,"corpora":9215,"cometido":9216,"##jón":9217,"coño":9218,"ryan":9219,"preparados":9220,"entera":9221,"##quero":9222,"enlace":9223,"iniciar":9224,"tránsito":9225,"debí":9226,"muro":9227,"realizadas":9228,"africana":9229,"she":9230,"bomb":9231,"rehabilitación":9232,"casó":9233,"comprendido":9234,"sanciones":9235,"materias":9236,"equip":9237,"nieve":9238,"kan":9239,"eddie":9240,"coste":9241,"ponerse":9242,"enmienda":9243,"bolivia":9244,"daba":9245,"##esco":9246,"chis":9247,"apoya":9248,"agradecer":9249,"pedí":9250,"##jun":9251,"demostrado":9252,"entusias":9253,"rever":9254,"afecta":9255,"responde":9256,"posteriores":9257,"explicación":9258,"fría":9259,"presta":9260,"##laba":9261,"sexuales":9262,"deportes":9263,"universidades":9264,"tumba":9265,"chocola":9266,"liv":9267,"##pul":9268,"cuén":9269,"castilla":9270,"adolescentes":9271,"venganza":9272,"artifici":9273,"soñ":9274,"##mann":9275,"miss":9276,"##thy":9277,"ahi":9278,"fantasma":9279,"preguntó":9280,"controles":9281,"big":9282,"serp":9283,"muestras":9284,"vengo":9285,"##vie":9286,"senador":9287,"##usal":9288,"olvíd":9289,"king":9290,"libertades":9291,"##ester":9292,"revisar":9293,"contaba":9294,"depen":9295,"bab":9296,"##ísima":9297,"frase":9298,"kg":9299,"mexicano":9300,"oración":9301,"núcleo":9302,"ponen":9303,"mio":9304,"corrientes":9305,"##old":9306,"atlán":9307,"orgulloso":9308,"poblacional":9309,"iguales":9310,"camion":9311,"porta":9312,"paredes":9313,"##ópez":9314,"magní":9315,"impresionante":9316,"##ere":9317,"##zgo":9318,"merid":9319,"géneros":9320,"déjeme":9321,"ucrania":9322,"inspector":9323,"sabido":9324,"modalidades":9325,"transparencia":9326,"maestros":9327,"aloj":9328,"compla":9329,"##berto":9330,"arancel":9331,"creada":9332,"aniversario":9333,"residentes":9334,"##tig":9335,"hubieran":9336,"##cú":9337,"personalmente":9338,"valiente":9339,"denunci":9340,"vayamos":9341,"estatales":9342,"tesoro":9343,"##ilio":9344,"##iller":9345,"##15":9346,"debían":9347,"ciertamente":9348,"destinadas":9349,"texas":9350,"lópez":9351,"colombi":9352,"part":9353,"costes":9354,"armen":9355,"coopera":9356,"ferrocarril":9357,"exige":9358,"manz":9359,"dedo":9360,"obligado":9361,"##dam":9362,"reproduc":9363,"petro":9364,"toque":9365,"eng":9366,"ambi":9367,"##kov":9368,"dejaste":9369,"##diste":9370,"sudán":9371,"fundada":9372,"dc":9373,"martes":9374,"bienvenidos":9375,"sexto":9376,"espacios":9377,"pón":9378,"von":9379,"libras":9380,"fué":9381,"concreto":9382,"cia":9383,"sombrero":9384,"electro":9385,"formular":9386,"invasión":9387,"##tid":9388,"bail":9389,"valencia":9390,"kevin":9391,"250":9392,"administrativos":9393,"##piro":9394,"##ércol":9395,"supremo":9396,"##ander":9397,"##har":9398,"##ósitos":9399,"veía":9400,"##hur":9401,"administrativo":9402,"brad":9403,"círculo":9404,"##rana":9405,"estrecha":9406,"gustaba":9407,"ampli":9408,"defensor":9409,"puse":9410,"sufrir":9411,"expansión":9412,"establecidos":9413,"sacerdote":9414,"falleció":9415,"aventura":9416,"detalle":9417,"incremento":9418,"pc":9419,"imperial":9420,"##rí":9421,"armadas":9422,"into":9423,"eric":9424,"bá":9425,"##ral":9426,"quedarte":9427,"moda":9428,"competentes":9429,"gem":9430,"marc":9431,"ricos":9432,"abrió":9433,"propuesto":9434,"indemnización":9435,"##ak":9436,"considerable":9437,"120":9438,"##ícula":9439,"manual":9440,"indonesia":9441,"prestaciones":9442,"tea":9443,"andr":9444,"proceder":9445,"anuncio":9446,"conserva":9447,"goles":9448,"líqu":9449,"argel":9450,"saint":9451,"patrón":9452,"##enme":9453,"preserv":9454,"ann":9455,"romano":9456,"crecer":9457,"dirigió":9458,"huir":9459,"habitual":9460,"mencionado":9461,"bahía":9462,"ventajas":9463,"sois":9464,"haberte":9465,"décadas":9466,"##igna":9467,"tomas":9468,"piensan":9469,"##geno":9470,"perfil":9471,"torres":9472,"especializados":9473,"##istía":9474,"sufr":9475,"cruel":9476,"crimin":9477,"promesa":9478,"margar":9479,"restricciones":9480,"asistir":9481,"anuales":9482,"##endario":9483,"##ait":9484,"conocemos":9485,"##istentes":9486,"adquir":9487,"ric":9488,"continente":9489,"posesión":9490,"##lando":9491,"drama":9492,"experto":9493,"aplicables":9494,"despacio":9495,"hill":9496,"nacionalidad":9497,"saca":9498,"hungría":9499,"huesos":9500,"querían":9501,"dejarlo":9502,"cheque":9503,"estadística":9504,"rena":9505,"terra":9506,"predic":9507,"castigo":9508,"eficaces":9509,"aca":9510,"demand":9511,"comunitarios":9512,"enferma":9513,"##isco":9514,"sombra":9515,"##udas":9516,"bandas":9517,"puto":9518,"piedras":9519,"consultiva":9520,"murieron":9521,"felipe":9522,"calendario":9523,"específico":9524,"bac":9525,"amas":9526,"pensó":9527,"##ruecos":9528,"líbano":9529,"green":9530,"cáp":9531,"##viendo":9532,"admitir":9533,"investigadores":9534,"habita":9535,"poes":9536,"##mamente":9537,"migra":9538,"ong":9539,"preciosa":9540,"eléctrica":9541,"profesores":9542,"pareci":9543,"exclusivamente":9544,"auditor":9545,"##tian":9546,"durm":9547,"seno":9548,"alan":9549,"ceremonia":9550,"sul":9551,"debates":9552,"rafa":9553,"jav":9554,"grabación":9555,"cerrada":9556,"dignidad":9557,"parcial":9558,"##19":9559,"palestino":9560,"populares":9561,"reiter":9562,"dejan":9563,"helic":9564,"marruecos":9565,"brasile":9566,"##alizó":9567,"escuad":9568,"fotografía":9569,"##ibil":9570,"prisioneros":9571,"condena":9572,"profundamente":9573,"##amo":9574,"agujero":9575,"previa":9576,"##inter":9577,"acoge":9578,"difun":9579,"correg":9580,"importaciones":9581,"caminos":9582,"##vieras":9583,"desempleo":9584,"indican":9585,"anf":9586,"intentado":9587,"agreg":9588,"discos":9589,"naves":9590,"personalidad":9591,"jerusal":9592,"aprovechar":9593,"discusión":9594,"carbón":9595,"explosión":9596,"motores":9597,"olvídalo":9598,"##yu":9599,"##rense":9600,"gall":9601,"química":9602,"habilidad":9603,"conjunta":9604,"contactos":9605,"##rum":9606,"taba":9607,"##taré":9608,"pir":9609,"quincu":9610,"##erse":9611,"mueve":9612,"adquisición":9613,"##terial":9614,"fing":9615,"realizan":9616,"##vado":9617,"deseos":9618,"adoptó":9619,"distinto":9620,"##taje":9621,"asumir":9622,"tail":9623,"##omé":9624,"últimamente":9625,"símbolo":9626,"interac":9627,"##tiende":9628,"ganan":9629,"amante":9630,"zam":9631,"dirigentes":9632,"yugoslavia":9633,"encuentre":9634,"##crip":9635,"comisiones":9636,"dejaron":9637,"##adera":9638,"seg":9639,"designado":9640,"cultiv":9641,"olor":9642,"fórmula":9643,"##fac":9644,"solidaridad":9645,"quince":9646,"pesad":9647,"##ieren":9648,"consejos":9649,"espar":9650,"moderno":9651,"##dita":9652,"noro":9653,"buques":9654,"escudo":9655,"concur":9656,"subcom":9657,"##ulares":9658,"volviendo":9659,"queso":9660,"##amá":9661,"digamos":9662,"gonzá":9663,"cuenca":9664,"##económ":9665,"prolon":9666,"##yentes":9667,"socialista":9668,"diste":9669,"expresar":9670,"tonterías":9671,"cristianos":9672,"##yer":9673,"##posiciones":9674,"quincuagésimo":9675,"expedición":9676,"##toso":9677,"vein":9678,"apell":9679,"##rosa":9680,"poderoso":9681,"##bla":9682,"##icana":9683,"ascenso":9684,"##sal":9685,"ling":9686,"comuna":9687,"sk":9688,"pollo":9689,"trató":9690,"mencionar":9691,"aseg":9692,"##esen":9693,"##haus":9694,"##rioso":9695,"asistente":9696,"diputado":9697,"##tnam":9698,"carn":9699,"##op":9700,"lagun":9701,"referente":9702,"##domin":9703,"excu":9704,"mataron":9705,"palestinos":9706,"inútil":9707,"cobertura":9708,"derrota":9709,"##entados":9710,"dieci":9711,"##jarse":9712,"simpl":9713,"llo":9714,"##ife":9715,"cintur":9716,"bote":9717,"telecomun":9718,"tendencias":9719,"conquis":9720,"jackson":9721,"adjunto":9722,"auténtico":9723,"psi":9724,"event":9725,"pagan":9726,"debut":9727,"##ciar":9728,"columna":9729,"##garon":9730,"escribe":9731,"electrónica":9732,"profundidad":9733,"paral":9734,"acabas":9735,"checa":9736,"pasaron":9737,"ciudadano":9738,"llegué":9739,"proporción":9740,"##oder":9741,"conm":9742,"levántate":9743,"grandi":9744,"cruzar":9745,"hipó":9746,"genio":9747,"##hen":9748,"desastres":9749,"julie":9750,"##ficación":9751,"mama":9752,"hinca":9753,"alcanzado":9754,"críticas":9755,"inclusión":9756,"ree":9757,"sid":9758,"pescado":9759,"japon":9760,"rece":9761,"enamorado":9762,"intervenciones":9763,"colegas":9764,"gonzález":9765,"privileg":9766,"nam":9767,"##iéndose":9768,"llamando":9769,"estancia":9770,"rachel":9771,"químicos":9772,"unir":9773,"tiendas":9774,"elevado":9775,"periodistas":9776,"urbano":9777,"actú":9778,"zar":9779,"##rimir":9780,"consigo":9781,"##enten":9782,"andy":9783,"pudieron":9784,"sello":9785,"lima":9786,"noroeste":9787,"##000":9788,"once":9789,"modificaciones":9790,"robin":9791,"depos":9792,"disparo":9793,"later":9794,"sepas":9795,"descubr":9796,"americana":9797,"##rias":9798,"mantén":9799,"conocerte":9800,"hijas":9801,"descansar":9802,"##leto":9803,"kit":9804,"semillas":9805,"quem":9806,"cp":9807,"discúlp":9808,"sto":9809,"rara":9810,"##35":9811,"desaparecer":9812,"##demos":9813,"impera":9814,"huéspe":9815,"llamados":9816,"hablé":9817,"audio":9818,"básica":9819,"desearía":9820,"fc":9821,"pakistán":9822,"trabajaba":9823,"pí":9824,"herramienta":9825,"lástima":9826,"separación":9827,"retirada":9828,"organiza":9829,"##ciliación":9830,"racional":9831,"hincapié":9832,"dígame":9833,"##tativo":9834,"doug":9835,"barro":9836,"contento":9837,"centa":9838,"abarca":9839,"monedas":9840,"minorías":9841,"matarme":9842,"##izaciones":9843,"musulman":9844,"##tito":9845,"##yente":9846,"añadir":9847,"preocupe":9848,"reconstrucción":9849,"kate":9850,"éramos":9851,"reduci":9852,"##mano":9853,"biblia":9854,"unc":9855,"describe":9856,"panamá":9857,"ms":9858,"pn":9859,"exportaciones":9860,"tensión":9861,"recorrido":9862,"poeta":9863,"ash":9864,"piano":9865,"religiosa":9866,"delan":9867,"reciben":9868,"definir":9869,"limpia":9870,"estúpida":9871,"viviendas":9872,"pierde":9873,"recepción":9874,"##cam":9875,"##ub":9876,"bombas":9877,"escuchando":9878,"córdo":9879,"ancho":9880,"fechas":9881,"centrales":9882,"borracho":9883,"delici":9884,"lisa":9885,"nicaragua":9886,"barra":9887,"completar":9888,"pareció":9889,"tambien":9890,"##guesa":9891,"##máticamente":9892,"pidiendo":9893,"apres":9894,"pensamientos":9895,"parada":9896,"intim":9897,"matan":9898,"suspen":9899,"florida":9900,"##medio":9901,"empleado":9902,"solicitar":9903,"##queta":9904,"##boy":9905,"ayudó":9906,"saque":9907,"clásico":9908,"##13":9909,"tripulación":9910,"falso":9911,"heridas":9912,"##enaje":9913,"hoja":9914,"amy":9915,"conoció":9916,"##ificaciones":9917,"disminución":9918,"definitiva":9919,"aldea":9920,"almas":9921,"cuidados":9922,"seguimos":9923,"##undo":9924,"departamentos":9925,"evi":9926,"previstas":9927,"monas":9928,"##alizadas":9929,"nove":9930,"respetar":9931,"encab":9932,"ment":9933,"dosis":9934,"##ficar":9935,"desv":9936,"##titudes":9937,"gimnas":9938,"negociación":9939,"up":9940,"hablaba":9941,"pere":9942,"guitarra":9943,"comprensión":9944,"histórica":9945,"sincer":9946,"date":9947,"seguirá":9948,"ts":9949,"dimensiones":9950,"##ear":9951,"luci":9952,"##bana":9953,"ambientales":9954,"empezando":9955,"impro":9956,"jerry":9957,"joseph":9958,"##lamiento":9959,"confid":9960,"pará":9961,"metodo":9962,"ip":9963,"alimentaria":9964,"almacenamiento":9965,"georgia":9966,"etapas":9967,"quedas":9968,"mid":9969,"procede":9970,"vencer":9971,"enseñar":9972,"ocupada":9973,"pasión":9974,"específicamente":9975,"armado":9976,"rescate":9977,"##fia":9978,"liqu":9979,"##tti":9980,"rose":9981,"moscú":9982,"permita":9983,"patio":9984,"ponente":9985,"##inete":9986,"descrito":9987,"almuerzo":9988,"##vada":9989,"gasol":9990,"demuestra":9991,"aer":9992,"lobo":9993,"comunista":9994,"dave":9995,"avanzar":9996,"##ócra":9997,"pil":9998,"administrativas":9999,"##ércoles":10000,"##king":10001,"querría":10002,"logros":10003,"cifra":10004,"disfra":10005,"##mago":10006,"##politan":10007,"jueces":10008,"relev":10009,"miércoles":10010,"acerc":10011,"##tuario":10012,"##vias":10013,"ino":10014,"tenéis":10015,"pete":10016,"mami":10017,"formulación":10018,"trono":10019,"##abeth":10020,"ecol":10021,"campañas":10022,"apropiado":10023,"oyes":10024,"vera":10025,"perdone":10026,"ordenó":10027,"##teme":10028,"regal":10029,"depósito":10030,"guad":10031,"planos":10032,"directora":10033,"integridad":10034,"alien":10035,"eco":10036,"pudieran":10037,"##uración":10038,"integrada":10039,"##rás":10040,"inspección":10041,"sebas":10042,"fama":10043,"altitud":10044,"entradas":10045,"agenda":10046,"koso":10047,"steph":10048,"##pé":10049,"cemen":10050,"japonés":10051,"cuantos":10052,"incidente":10053,"despedir":10054,"cincu":10055,"mens":10056,"##burg":10057,"granja":10058,"sufrido":10059,"lidera":10060,"leído":10061,"nosotras":10062,"##tamo":10063,"##hua":10064,"rean":10065,"dormido":10066,"compi":10067,"ina":10068,"##pula":10069,"agrup":10070,"perspectivas":10071,"atm":10072,"canales":10073,"apareci":10074,"relie":10075,"##jano":10076,"##deci":10077,"cens":10078,"hubieras":10079,"privados":10080,"aumenta":10081,"##eamente":10082,"positiva":10083,"vivía":10084,"peru":10085,"##oraciones":10086,"mauri":10087,"básicamente":10088,"capilla":10089,"gordo":10090,"llamé":10091,"participaron":10092,"pur":10093,"##orman":10094,"tardes":10095,"subjun":10096,"porno":10097,"sexy":10098,"hábitat":10099,"normativa":10100,"fundado":10101,"##emas":10102,"firmó":10103,"optim":10104,"subjuntivo":10105,"existente":10106,"impulso":10107,"cón":10108,"poesía":10109,"##pin":10110,"gib":10111,"##diera":10112,"invitación":10113,"industrias":10114,"ajuste":10115,"##drí":10116,"unió":10117,"##ecería":10118,"representar":10119,"piscina":10120,"pico":10121,"sienta":10122,"acuerdas":10123,"precip":10124,"suave":10125,"##íces":10126,"vietnam":10127,"limpieza":10128,"##áus":10129,"sufrió":10130,"refuer":10131,"##01":10132,"antecedentes":10133,"histori":10134,"orqu":10135,"gros":10136,"promul":10137,"matt":10138,"ey":10139,"##érico":10140,"encontraste":10141,"limitar":10142,"humanitario":10143,"maté":10144,"terren":10145,"figuras":10146,"bosnia":10147,"ocurrir":10148,"andar":10149,"concepción":10150,"esenciales":10151,"##blar":10152,"jess":10153,"granada":10154,"##gencias":10155,"bin":10156,"despertar":10157,"denominado":10158,"are":10159,"asilo":10160,"##pista":10161,"cés":10162,"naturalmente":10163,"chocolate":10164,"riqueza":10165,"comprobar":10166,"claire":10167,"conveniente":10168,"formal":10169,"##tring":10170,"jama":10171,"encargo":10172,"podré":10173,"preocupaciones":10174,"llámame":10175,"simb":10176,"##lyn":10177,"isabel":10178,"virgin":10179,"##fil":10180,"lento":10181,"##onal":10182,"paro":10183,"declarado":10184,"pretende":10185,"incendio":10186,"abuso":10187,"complicado":10188,"coge":10189,"analizar":10190,"##landés":10191,"guardias":10192,"leyenda":10193,"causar":10194,"diseñado":10195,"ester":10196,"house":10197,"creerlo":10198,"judiciales":10199,"activamente":10200,"##hite":10201,"valent":10202,"refugio":10203,"cruc":10204,"bastardo":10205,"aquello":10206,"disponibilidad":10207,"1950":10208,"gravedad":10209,"créeme":10210,"rodrí":10211,"reparación":10212,"empiez":10213,"##uría":10214,"jason":10215,"pastor":10216,"inn":10217,"##23":10218,"introducir":10219,"##cea":10220,"testimonio":10221,"imagino":10222,"manejo":10223,"clubes":10224,"##udic":10225,"religiosas":10226,"##ef":10227,"consultar":10228,"satisfacer":10229,"disculpas":10230,"##tuvieron":10231,"rodríguez":10232,"guerras":10233,"asesinatos":10234,"##tman":10235,"satisfac":10236,"izquierdo":10237,"soportar":10238,"ocasion":10239,"cle":10240,"orquesta":10241,"controvers":10242,"iglesias":10243,"córdoba":10244,"##pía":10245,"referencias":10246,"##bimos":10247,"razonable":10248,"xviii":10249,"coal":10250,"buscan":10251,"satélite":10252,"cabezas":10253,"elaborado":10254,"##itri":10255,"morgan":10256,"bebida":10257,"maravillosa":10258,"separado":10259,"pam":10260,"pasé":10261,"##aca":10262,"proveedores":10263,"##trina":10264,"conceder":10265,"provincial":10266,"restable":10267,"##íso":10268,"extrañ":10269,"##ket":10270,"ensayo":10271,"##inarias":10272,"kosovo":10273,"##ámenes":10274,"##ight":10275,"derrib":10276,"coun":10277,"##eses":10278,"retroce":10279,"mintiendo":10280,"conductor":10281,"box":10282,"autónoma":10283,"césar":10284,"casarse":10285,"pensamos":10286,"fundó":10287,"##garia":10288,"caído":10289,"##trarse":10290,"truco":10291,"bola":10292,"alfonso":10293,"componente":10294,"ordinario":10295,"lady":10296,"##dremos":10297,"##tto":10298,"considerada":10299,"sentimiento":10300,"asqueros":10301,"gustó":10302,"hec":10303,"mataste":10304,"aconse":10305,"ross":10306,"pedazo":10307,"finalidad":10308,"daría":10309,"tira":10310,"ruedas":10311,"penín":10312,"abaste":10313,"informaciones":10314,"fiel":10315,"mix":10316,"fundador":10317,"antiguas":10318,"gh":10319,"##gol":10320,"ladrón":10321,"expresó":10322,"vulnerables":10323,"##riel":10324,"sangr":10325,"mina":10326,"##ucristo":10327,"cultivo":10328,"equivalente":10329,"noven":10330,"evacu":10331,"nutri":10332,"diferenci":10333,"salto":10334,"cincuenta":10335,"racismo":10336,"##iense":10337,"fortaleza":10338,"editor":10339,"someter":10340,"##ring":10341,"mediterráneo":10342,"pusieron":10343,"básico":10344,"jesucristo":10345,"afron":10346,"augus":10347,"actuaciones":10348,"indirec":10349,"critic":10350,"sagr":10351,"##itadas":10352,"cabrón":10353,"##restres":10354,"participan":10355,"tono":10356,"levantar":10357,"reputación":10358,"aviso":10359,"flujo":10360,"unctad":10361,"voluntarios":10362,"contado":10363,"territorial":10364,"integral":10365,"visitantes":10366,"aeron":10367,"##tiera":10368,"marsh":10369,"explí":10370,"pertinente":10371,"hip":10372,"cataluña":10373,"##jam":10374,"península":10375,"efectivamente":10376,"##bec":10377,"desafío":10378,"##95":10379,"vivió":10380,"reducido":10381,"that":10382,"verdaderamente":10383,"latinos":10384,"muriendo":10385,"##chada":10386,"despre":10387,"colocar":10388,"batería":10389,"##ant":10390,"##ciste":10391,"cuyas":10392,"mejoras":10393,"##turación":10394,"divul":10395,"jerusalén":10396,"misterio":10397,"##lice":10398,"voces":10399,"tac":10400,"indispens":10401,"dela":10402,"##izos":10403,"envía":10404,"laura":10405,"espan":10406,"carter":10407,"limitado":10408,"conduce":10409,"infrac":10410,"##dario":10411,"destacan":10412,"rusa":10413,"rafael":10414,"mexicana":10415,"medioam":10416,"observó":10417,"temporadas":10418,"tok":10419,"déci":10420,"roger":10421,"plato":10422,"diagn":10423,"pecados":10424,"estó":10425,"gui":10426,"##kins":10427,"malditos":10428,"transmitir":10429,"míos":10430,"##ándola":10431,"plas":10432,"estratégico":10433,"réc":10434,"atmós":10435,"ascend":10436,"##22":10437,"toques":10438,"escuchen":10439,"individuo":10440,"senado":10441,"parado":10442,"construyó":10443,"desigu":10444,"específica":10445,"filipinas":10446,"rele":10447,"diversión":10448,"##ifa":10449,"lucas":10450,"restaur":10451,"editorial":10452,"certificado":10453,"gratuita":10454,"##gg":10455,"mentiras":10456,"johan":10457,"tengamos":10458,"##cán":10459,"ampliamente":10460,"previamente":10461,"bicic":10462,"venía":10463,"pesc":10464,"melo":10465,"hur":10466,"subre":10467,"ayudará":10468,"aplas":10469,"asociado":10470,"sevilla":10471,"retor":10472,"espejo":10473,"retiro":10474,"huele":10475,"lum":10476,"preocupada":10477,"##ted":10478,"##ulla":10479,"fiscales":10480,"delincuencia":10481,"##tinas":10482,"indios":10483,"finanzas":10484,"##ités":10485,"compuesta":10486,"interesadas":10487,"casco":10488,"séptimo":10489,"robó":10490,"récord":10491,"terre":10492,"empresarial":10493,"##idación":10494,"originales":10495,"discur":10496,"arroz":10497,"olvidé":10498,"homenaje":10499,"reclamaciones":10500,"publicada":10501,"islámica":10502,"compor":10503,"incl":10504,"ensayos":10505,"feo":10506,"aprueba":10507,"avergon":10508,"##31":10509,"une":10510,"##tanos":10511,"##tsu":10512,"quedará":10513,"fumar":10514,"##emato":10515,"maria":10516,"prelim":10517,"descubrió":10518,"sujetos":10519,"##ígena":10520,"naran":10521,"cumplido":10522,"llév":10523,"bravo":10524,"grav":10525,"##organ":10526,"absoluta":10527,"quedo":10528,"ze":10529,"cach":10530,"##traje":10531,"preliminar":10532,"musicales":10533,"salas":10534,"##para":10535,"darse":10536,"chipre":10537,"alberto":10538,"dll":10539,"condenado":10540,"economías":10541,"orgullo":10542,"favorito":10543,"lanza":10544,"##ñal":10545,"futura":10546,"manifiesto":10547,"afirmó":10548,"dañ":10549,"botán":10550,"criterio":10551,"rio":10552,"informado":10553,"insis":10554,"ferrovi":10555,"termine":10556,"gigante":10557,"##tale":10558,"intenté":10559,"famosa":10560,"mostró":10561,"arthur":10562,"abe":10563,"##dadas":10564,"camisa":10565,"sexta":10566,"miami":10567,"spe":10568,"únicos":10569,"multitud":10570,"dispositivos":10571,"##ips":10572,"heridos":10573,"femenina":10574,"labios":10575,"previo":10576,"pérez":10577,"penas":10578,"tác":10579,"desperdi":10580,"deshacer":10581,"naval":10582,"##tiéndose":10583,"larry":10584,"pendientes":10585,"fracaso":10586,"jodido":10587,"tomen":10588,"##92":10589,"botón":10590,"rusos":10591,"fusión":10592,"suponía":10593,"traicion":10594,"desarrolló":10595,"emig":10596,"existir":10597,"monitor":10598,"desgracia":10599,"ordenador":10600,"respondió":10601,"salen":10602,"solas":10603,"madres":10604,"ventanas":10605,"##ind":10606,"##iebre":10607,"##ólogos":10608,"tóm":10609,"balas":10610,"##gá":10611,"define":10612,"seguía":10613,"cafe":10614,"##endas":10615,"cicl":10616,"nova":10617,"##ití":10618,"##edad":10619,"corazones":10620,"camioneta":10621,"incons":10622,"music":10623,"desempeñar":10624,"sas":10625,"##aco":10626,"raíces":10627,"quita":10628,"##ículas":10629,"encabez":10630,"ejecutar":10631,"incorporación":10632,"rumbo":10633,"crítico":10634,"##isas":10635,"contenidos":10636,"serbia":10637,"entendimiento":10638,"dedicada":10639,"promue":10640,"conversaciones":10641,"miran":10642,"escritura":10643,"eduardo":10644,"notific":10645,"robado":10646,"##rillos":10647,"liberal":10648,"apuesta":10649,"casar":10650,"fernández":10651,"emer":10652,"deser":10653,"profesión":10654,"sau":10655,"amarillo":10656,"ingeniero":10657,"lección":10658,"alejandro":10659,"enfermera":10660,"gargan":10661,"sucedido":10662,"consideró":10663,"doctora":10664,"esclavos":10665,"##line":10666,"metido":10667,"futbolista":10668,"comienzos":10669,"recaud":10670,"futur":10671,"##ídate":10672,"préstamo":10673,"terapia":10674,"guerrero":10675,"producen":10676,"oo":10677,"desarrollados":10678,"consentimiento":10679,"alban":10680,"reglamentos":10681,"lit":10682,"##ics":10683,"pilar":10684,"##iy":10685,"fueras":10686,"##entaron":10687,"vimos":10688,"hú":10689,"sheriff":10690,"competición":10691,"estabil":10692,"milagro":10693,"pelota":10694,"infin":10695,"##cripción":10696,"repetir":10697,"saltar":10698,"excelencia":10699,"harías":10700,"inmigración":10701,"carbono":10702,"##quez":10703,"funcionario":10704,"##rus":10705,"kris":10706,"ambul":10707,"sabor":10708,"##itorio":10709,"cementerio":10710,"harris":10711,"constantemente":10712,"pistas":10713,"salgan":10714,"data":10715,"casada":10716,"honduras":10717,"placa":10718,"estómago":10719,"inmigrantes":10720,"llevamos":10721,"ceca":10722,"guardi":10723,"dá":10724,"extremadamente":10725,"meridional":10726,"atmósfera":10727,"##ulsión":10728,"llegará":10729,"tenia":10730,"encuentras":10731,"salvaje":10732,"desarrolla":10733,"ofens":10734,"##02":10735,"tratos":10736,"hume":10737,"fraude":10738,"##tea":10739,"##cre":10740,"##ciosa":10741,"judío":10742,"vean":10743,"paris":10744,"tratan":10745,"##ule":10746,"vib":10747,"exámenes":10748,"marie":10749,"revistas":10750,"lógica":10751,"bestia":10752,"limitada":10753,"eje":10754,"refleja":10755,"him":10756,"##movil":10757,"detén":10758,"##its":10759,"hoteles":10760,"eliz":10761,"denuncia":10762,"admir":10763,"dv":10764,"##tamiento":10765,"registrado":10766,"debutó":10767,"##jen":10768,"##rimas":10769,"##tología":10770,"arresto":10771,"desplie":10772,"prevista":10773,"lamentable":10774,"##gráficas":10775,"muévete":10776,"##ited":10777,"##bc":10778,"precioso":10779,"time":10780,"declara":10781,"##rese":10782,"bay":10783,"custodia":10784,"ayudarle":10785,"inglesa":10786,"federales":10787,"femenino":10788,"despacho":10789,"comprendo":10790,"##vir":10791,"sufra":10792,"conjuntamente":10793,"manifesta":10794,"##dería":10795,"agra":10796,"atras":10797,"sindic":10798,"considerarse":10799,"intentarlo":10800,"asustado":10801,"jornada":10802,"##trico":10803,"dre":10804,"propuso":10805,"##cesis":10806,"##eder":10807,"sugiere":10808,"denominación":10809,"aliados":10810,"##igh":10811,"##ép":10812,"xxi":10813,"incumpl":10814,"gasto":10815,"obtenido":10816,"votar":10817,"restring":10818,"jac":10819,"cajas":10820,"velar":10821,"funeral":10822,"balance":10823,"subreg":10824,"criatura":10825,"##pur":10826,"love":10827,"pudiste":10828,"concluir":10829,"marino":10830,"carden":10831,"hables":10832,"tonta":10833,"abo":10834,"alba":10835,"soberanía":10836,"##enen":10837,"##zaba":10838,"provocar":10839,"##eña":10840,"autonomía":10841,"##93":10842,"pintor":10843,"##tita":10844,"testa":10845,"subray":10846,"gestion":10847,"##vez":10848,"kra":10849,"alienta":10850,"conciertos":10851,"suprema":10852,"vuelvas":10853,"eficiente":10854,"##rad":10855,"dispara":10856,"permanentes":10857,"croacia":10858,"quedando":10859,"adquirir":10860,"envío":10861,"señoras":10862,"emily":10863,"eas":10864,"##orio":10865,"subven":10866,"sufrimiento":10867,"disciplina":10868,"apellido":10869,"##abo":10870,"alu":10871,"aline":10872,"verse":10873,"reconstru":10874,"##pio":10875,"terrorista":10876,"hacienda":10877,"repercusiones":10878,"##ders":10879,"disper":10880,"cí":10881,"caminando":10882,"respirar":10883,"hong":10884,"##olas":10885,"##kh":10886,"##try":10887,"idiotas":10888,"##viese":10889,"##ácito":10890,"intern":10891,"participado":10892,"urgencia":10893,"ascens":10894,"##ium":10895,"##tine":10896,"bell":10897,"##mez":10898,"arquitecto":10899,"cuerda":10900,"escaleras":10901,"bañ":10902,"vincu":10903,"ción":10904,"durmiendo":10905,"vuestros":10906,"permitirá":10907,"grand":10908,"mudar":10909,"##aman":10910,"almac":10911,"puro":10912,"acredi":10913,"latín":10914,"perdida":10915,"rama":10916,"requieren":10917,"##05":10918,"aceptado":10919,"##esh":10920,"cuadros":10921,"mués":10922,"religiosos":10923,"##tualmente":10924,"inad":10925,"asignación":10926,"destacó":10927,"suspensión":10928,"taylor":10929,"decirles":10930,"instante":10931,"paraguay":10932,"susan":10933,"grandioso":10934,"soporte":10935,"balonces":10936,"mínima":10937,"criminales":10938,"tarjetas":10939,"compró":10940,"ave":10941,"muevas":10942,"##bn":10943,"charla":10944,"jefa":10945,"roll":10946,"futuras":10947,"##pensa":10948,"##ídos":10949,"secretaria":10950,"desafíos":10951,"importar":10952,"johnson":10953,"voc":10954,"intercambios":10955,"teór":10956,"elegante":10957,"metropolitan":10958,"cinturón":10959,"radiación":10960,"saldrá":10961,"##blo":10962,"dirá":10963,"usó":10964,"rib":10965,"timor":10966,"##gués":10967,"viniste":10968,"##inarios":10969,"haberme":10970,"detenidos":10971,"ordenación":10972,"##ladas":10973,"emma":10974,"aro":10975,"acaban":10976,"atlántico":10977,"afectan":10978,"preguntaba":10979,"interv":10980,"olvides":10981,"acumul":10982,"mont":10983,"aceptación":10984,"hacían":10985,"vueltas":10986,"enve":10987,"martínez":10988,"hitler":10989,"##culares":10990,"terremo":10991,"favorable":10992,"húme":10993,"anticip":10994,"incur":10995,"conceptos":10996,"caras":10997,"##tenta":10998,"chal":10999,"registr":11000,"verdes":11001,"adic":11002,"denuncias":11003,"##ilson":11004,"matarlo":11005,"miel":11006,"lár":11007,"muévanse":11008,"sing":11009,"redacción":11010,"relieve":11011,"clínica":11012,"británicos":11013,"contras":11014,"elizabeth":11015,"tomaron":11016,"##arquía":11017,"##mentado":11018,"decenio":11019,"##deros":11020,"##far":11021,"kong":11022,"simultán":11023,"paciencia":11024,"matando":11025,"##91":11026,"hablemos":11027,"uti":11028,"parroquia":11029,"patria":11030,"cercana":11031,"negativa":11032,"vivido":11033,"democrático":11034,"ruego":11035,"impid":11036,"amigas":11037,"rompió":11038,"##ern":11039,"relájate":11040,"bolsillo":11041,"liderazgo":11042,"desafortun":11043,"ácido":11044,"migrantes":11045,"sucio":11046,"certific":11047,"comentario":11048,"utilizada":11049,"fotografías":11050,"vaso":11051,"emisión":11052,"cargar":11053,"domici":11054,"submar":11055,"##izadas":11056,"obvio":11057,"comités":11058,"felicitaciones":11059,"armonización":11060,"falsa":11061,"fila":11062,"##ss":11063,"videoj":11064,"abandonó":11065,"disparó":11066,"propietario":11067,"##olv":11068,"humo":11069,"fruto":11070,"mitch":11071,"divertir":11072,"lág":11073,"prestado":11074,"vicente":11075,"toman":11076,"##tipo":11077,"dudo":11078,"street":11079,"puertos":11080,"alcanza":11081,"##chez":11082,"consumidor":11083,"ecos":11084,"pregún":11085,"##iti":11086,"sír":11087,"##erías":11088,"##non":11089,"##yl":11090,"calific":11091,"##erba":11092,"convenios":11093,"migración":11094,"guapo":11095,"##hí":11096,"cerro":11097,"ayudando":11098,"##quería":11099,"##dicamente":11100,"terminal":11101,"nervios":11102,"rendir":11103,"escenas":11104,"leona":11105,"cc":11106,"pongo":11107,"pasaba":11108,"fresco":11109,"institucionales":11110,"cuarenta":11111,"acabamos":11112,"imperativo":11113,"estratég":11114,"pom":11115,"haciéndo":11116,"inmediata":11117,"hispanos":11118,"spa":11119,"cristiana":11120,"desagrad":11121,"olímpicos":11122,"disfrute":11123,"desigual":11124,"alojamiento":11125,"irás":11126,"mora":11127,"sobres":11128,"actúa":11129,"espíri":11130,"íbamos":11131,"anfitri":11132,"deprisa":11133,"rom":11134,"ópera":11135,"auxiliar":11136,"jab":11137,"cubierto":11138,"magni":11139,"entreten":11140,"fé":11141,"tailandia":11142,"asalto":11143,"barrios":11144,"divorcio":11145,"trabajador":11146,"adecuadas":11147,"##ons":11148,"kelly":11149,"solitario":11150,"ocupados":11151,"establecidas":11152,"##therine":11153,"curiosidad":11154,"nik":11155,"accidentes":11156,"exci":11157,"costumbre":11158,"lujo":11159,"kno":11160,"quieto":11161,"##ani":11162,"contempl":11163,"modificar":11164,"prepá":11165,"cohesión":11166,"dean":11167,"desempeño":11168,"monasterio":11169,"abiertos":11170,"romanos":11171,"devo":11172,"sensible":11173,"encuesta":11174,"chuck":11175,"inscripción":11176,"llamamiento":11177,"##sk":11178,"bad":11179,"temor":11180,"muertes":11181,"lucy":11182,"invo":11183,"bulgaria":11184,"##ónicas":11185,"##03":11186,"##ribles":11187,"incrementar":11188,"cansada":11189,"actuando":11190,"american":11191,"inex":11192,"aproximación":11193,"abandonado":11194,"básicas":11195,"observadores":11196,"boston":11197,"jurídicas":11198,"vinieron":11199,"gord":11200,"dy":11201,"##enes":11202,"##rimes":11203,"trage":11204,"quedaron":11205,"##unción":11206,"culto":11207,"aumentado":11208,"##vey":11209,"otoño":11210,"habrían":11211,"esfor":11212,"ofreció":11213,"##riles":11214,"caro":11215,"maris":11216,"sacrificio":11217,"pesado":11218,"parejas":11219,"ov":11220,"operativo":11221,"##dil":11222,"##terrestre":11223,"característica":11224,"relacionada":11225,"tirar":11226,"inferiores":11227,"##íp":11228,"golf":11229,"##máticos":11230,"sensibil":11231,"##crito":11232,"joan":11233,"##dese":11234,"luke":11235,"clo":11236,"renunciar":11237,"##ball":11238,"fija":11239,"hern":11240,"litu":11241,"circuito":11242,"bod":11243,"##ándonos":11244,"negar":11245,"grabado":11246,"fur":11247,"sales":11248,"##emin":11249,"##53":11250,"dificultad":11251,"infección":11252,"rumania":11253,"##anzas":11254,"israelíes":11255,"mario":11256,"pregunté":11257,"indicar":11258,"galax":11259,"culturas":11260,"compositor":11261,"bruja":11262,"suicidio":11263,"cont":11264,"habida":11265,"habíamos":11266,"##ater":11267,"##bili":11268,"##trad":11269,"generar":11270,"policial":11271,"asiáticos":11272,"helado":11273,"medioambien":11274,"comunicado":11275,"vínculos":11276,"religioso":11277,"presentadas":11278,"limitaciones":11279,"sonrisa":11280,"percep":11281,"defensores":11282,"antig":11283,"frus":11284,"generaciones":11285,"coalición":11286,"necesariamente":11287,"salvaguar":11288,"paisaje":11289,"golfo":11290,"busco":11291,"israelí":11292,"equivocada":11293,"##gaba":11294,"tax":11295,"camina":11296,"rebeldes":11297,"baloncesto":11298,"##cons":11299,"deriva":11300,"face":11301,"aquél":11302,"hechas":11303,"##cate":11304,"reem":11305,"nace":11306,"ganando":11307,"pones":11308,"encargados":11309,"llego":11310,"estro":11311,"oce":11312,"talleres":11313,"##drás":11314,"##gador":11315,"secciones":11316,"horario":11317,"ató":11318,"alice":11319,"desac":11320,"muchísimo":11321,"denominada":11322,"tomaré":11323,"homos":11324,"finalizar":11325,"adoptada":11326,"##rador":11327,"municipales":11328,"shel":11329,"ida":11330,"hierba":11331,"herz":11332,"realizando":11333,"establecida":11334,"##zamos":11335,"vecino":11336,"encarcel":11337,"prosper":11338,"reestruc":11339,"adiv":11340,"ficción":11341,"asesinos":11342,"remun":11343,"fiebre":11344,"invad":11345,"mah":11346,"pse":11347,"im":11348,"manip":11349,"dejamos":11350,"cil":11351,"ola":11352,"benepl":11353,"pertenecientes":11354,"matemáticas":11355,"futuros":11356,"guste":11357,"urbana":11358,"##ai":11359,"instrucción":11360,"beneplácito":11361,"jura":11362,"##món":11363,"pensión":11364,"externa":11365,"salario":11366,"##ximas":11367,"escalera":11368,"##kar":11369,"reba":11370,"garganta":11371,"pertenecen":11372,"##entada":11373,"asentamientos":11374,"sirvió":11375,"constan":11376,"creando":11377,"##erales":11378,"national":11379,"supervivencia":11380,"desconocido":11381,"suministros":11382,"##enciado":11383,"mani":11384,"ciego":11385,"encontraremos":11386,"desvi":11387,"funcionó":11388,"##din":11389,"dick":11390,"bebidas":11391,"exh":11392,"##lle":11393,"iniciado":11394,"oso":11395,"juzgar":11396,"restaurantes":11397,"##ígeno":11398,"##éricas":11399,"##rilla":11400,"nombramiento":11401,"largas":11402,"juvenil":11403,"roc":11404,"debil":11405,"confío":11406,"champ":11407,"##baciones":11408,"victor":11409,"normales":11410,"##undi":11411,"##port":11412,"diagnóstico":11413,"siéntese":11414,"homosex":11415,"corn":11416,"competente":11417,"gasolina":11418,"annie":11419,"alarma":11420,"persigu":11421,"equita":11422,"grace":11423,"##udos":11424,"gla":11425,"usos":11426,"costas":11427,"olvida":11428,"mataré":11429,"misterios":11430,"apli":11431,"aprendido":11432,"tecnológico":11433,"destinada":11434,"sexagésimo":11435,"tabaco":11436,"canto":11437,"trasladó":11438,"cálculo":11439,"tejido":11440,"##vido":11441,"rocas":11442,"##teria":11443,"cómodo":11444,"vuelos":11445,"cubr":11446,"##mita":11447,"ramón":11448,"golpes":11449,"mem":11450,"expecta":11451,"deterior":11452,"encantador":11453,"vom":11454,"financiar":11455,"monumento":11456,"facultativo":11457,"sorprende":11458,"calla":11459,"asombr":11460,"presentados":11461,"duerme":11462,"##tear":11463,"fascin":11464,"norman":11465,"desaparición":11466,"afectadas":11467,"contienen":11468,"comenzado":11469,"##tadura":11470,"maestra":11471,"pagado":11472,"argelia":11473,"disculpar":11474,"describir":11475,"navegación":11476,"celda":11477,"records":11478,"sacó":11479,"feria":11480,"causado":11481,"triunfo":11482,"##rian":11483,"convic":11484,"vegas":11485,"competitividad":11486,"fronter":11487,"adelantados":11488,"descubrimiento":11489,"##rección":11490,"rebo":11491,"##32":11492,"##ígenes":11493,"extiende":11494,"scho":11495,"fox":11496,"reduc":11497,"legislaciones":11498,"hábi":11499,"altamente":11500,"halla":11501,"sangu":11502,"diamantes":11503,"excepcional":11504,"construida":11505,"sav":11506,"consejero":11507,"cañón":11508,"cis":11509,"philip":11510,"##éticas":11511,"secreta":11512,"empezaron":11513,"confirmar":11514,"##phy":11515,"escritorio":11516,"escucho":11517,"grad":11518,"titulada":11519,"film":11520,"vuelven":11521,"##boa":11522,"homicidio":11523,"##ezcan":11524,"##gráficos":11525,"##udencia":11526,"direcciones":11527,"idén":11528,"entrado":11529,"flam":11530,"exca":11531,"denomina":11532,"boo":11533,"gl":11534,"##cro":11535,"verificación":11536,"almi":11537,"alab":11538,"coma":11539,"andando":11540,"pertur":11541,"compara":11542,"##taban":11543,"basados":11544,"atrapado":11545,"enseñó":11546,"conviene":11547,"empezamos":11548,"anne":11549,"vecin":11550,"ak":11551,"implan":11552,"vivimos":11553,"young":11554,"trenes":11555,"campesinos":11556,"duc":11557,"##gela":11558,"##umbre":11559,"copi":11560,"bruce":11561,"signos":11562,"preju":11563,"emocional":11564,"desl":11565,"ánimo":11566,"túnel":11567,"fallo":11568,"gases":11569,"unirse":11570,"funcionando":11571,"##erro":11572,"enven":11573,"despues":11574,"escritos":11575,"1930":11576,"aga":11577,"dependiendo":11578,"seco":11579,"cubre":11580,"##vá":11581,"laborales":11582,"##bul":11583,"trabajas":11584,"derra":11585,"acn":11586,"bun":11587,"##eman":11588,"uni":11589,"aseguro":11590,"gabriel":11591,"fijar":11592,"##fu":11593,"rueda":11594,"##tecas":11595,"matarte":11596,"oxígeno":11597,"isbn":11598,"dulces":11599,"justa":11600,"vd":11601,"intr":11602,"permitan":11603,"abord":11604,"reembol":11605,"visual":11606,"atlan":11607,"##manos":11608,"muel":11609,"aprobar":11610,"##trans":11611,"barry":11612,"hostil":11613,"hosp":11614,"joey":11615,"derivados":11616,"distritos":11617,"incorrec":11618,"calcul":11619,"##tif":11620,"sindicatos":11621,"exager":11622,"kyle":11623,"recopi":11624,"##egovina":11625,"bren":11626,"pasamos":11627,"sán":11628,"presidencial":11629,"manifestaciones":11630,"damos":11631,"vigilar":11632,"estemos":11633,"##licas":11634,"conducto":11635,"distinta":11636,"recibieron":11637,"##51":11638,"maíz":11639,"peligrosos":11640,"abrigo":11641,"cuantas":11642,"luchando":11643,"cultivos":11644,"gara":11645,"sótano":11646,"hiper":11647,"desechos":11648,"tron":11649,"organizó":11650,"precisión":11651,"sri":11652,"pájaro":11653,"quítate":11654,"ilícito":11655,"##trica":11656,"felicidades":11657,"herzegovina":11658,"taza":11659,"atractivo":11660,"concretos":11661,"jon":11662,"literalmente":11663,"mach":11664,"vives":11665,"conmo":11666,"aparatos":11667,"apariencia":11668,"##uu":11669,"bellas":11670,"emociones":11671,"confeder":11672,"buque":11673,"russ":11674,"##tándose":11675,"giro":11676,"desci":11677,"##dill":11678,"cond":11679,"##dole":11680,"galería":11681,"pit":11682,"guion":11683,"##dete":11684,"frecuentemente":11685,"alteza":11686,"mantenido":11687,"geográfica":11688,"marin":11689,"##asta":11690,"cláus":11691,"boletín":11692,"##legados":11693,"haití":11694,"trayec":11695,"obtiene":11696,"cima":11697,"##quera":11698,"##33":11699,"##umer":11700,"humanas":11701,"##ture":11702,"podías":11703,"recompensa":11704,"examinó":11705,"adecuados":11706,"##ecia":11707,"guapa":11708,"encontrará":11709,"subterrán":11710,"##bir":11711,"##jones":11712,"notificación":11713,"tomamos":11714,"proviene":11715,"molesto":11716,"argumento":11717,"riv":11718,"orador":11719,"##itores":11720,"exclusión":11721,"hard":11722,"aparato":11723,"cobarde":11724,"tumb":11725,"inesta":11726,"darles":11727,"pendiente":11728,"##cinas":11729,"pinturas":11730,"julia":11731,"misiles":11732,"##ild":11733,"cuartel":11734,"residiendo":11735,"##ory":11736,"albert":11737,"serlo":11738,"quebr":11739,"sirven":11740,"conquista":11741,"perdóname":11742,"críticos":11743,"parale":11744,"quir":11745,"andal":11746,"magnitud":11747,"directivas":11748,"agricultores":11749,"rh":11750,"menciona":11751,"##tala":11752,"embajada":11753,"masas":11754,"represión":11755,"##ayne":11756,"enormes":11757,"gigantes":11758,"esperas":11759,"útiles":11760,"fos":11761,"##29":11762,"sky":11763,"comando":11764,"tic":11765,"genera":11766,"##fron":11767,"qa":11768,"cher":11769,"dal":11770,"isa":11771,"profesora":11772,"enju":11773,"empeor":11774,"jazz":11775,"tap":11776,"crece":11777,"observando":11778,"poseen":11779,"enojado":11780,"rodillas":11781,"honesto":11782,"##céu":11783,"lentamente":11784,"platos":11785,"kal":11786,"reclamación":11787,"absur":11788,"arrepen":11789,"##ally":11790,"fuga":11791,"##trales":11792,"traslado":11793,"nores":11794,"##tarán":11795,"históricos":11796,"disculpen":11797,"alegre":11798,"##urg":11799,"one":11800,"catá":11801,"regalos":11802,"pho":11803,"flan":11804,"nigeria":11805,"preparando":11806,"andrés":11807,"gi":11808,"llorando":11809,"cristiano":11810,"formada":11811,"##ev":11812,"castro":11813,"bebés":11814,"hank":11815,"ford":11816,"desean":11817,"##olos":11818,"muchacha":11819,"##ídas":11820,"##illy":11821,"mencionados":11822,"junior":11823,"##zy":11824,"peores":11825,"cinemato":11826,"cron":11827,"sánchez":11828,"fós":11829,"reparto":11830,"subcomisión":11831,"##derson":11832,"##endar":11833,"##cista":11834,"detallada":11835,"##any":11836,"oíste":11837,"aléjate":11838,"permaneció":11839,"encontrarlo":11840,"ear":11841,"suplemento":11842,"##dilla":11843,"permit":11844,"recomendó":11845,"##ttle":11846,"universitario":11847,"oliver":11848,"noreste":11849,"testamento":11850,"súper":11851,"##inan":11852,"##riera":11853,"negociar":11854,"semejante":11855,"acompañado":11856,"regrese":11857,"legislativo":11858,"ricardo":11859,"analiz":11860,"largos":11861,"espon":11862,"multilaterales":11863,"empezado":11864,"##hara":11865,"frac":11866,"quieran":11867,"lágrimas":11868,"transcur":11869,"sucediendo":11870,"alternativas":11871,"guiller":11872,"cometer":11873,"##velo":11874,"ove":11875,"##hisky":11876,"movilidad":11877,"mato":11878,"avanzada":11879,"barba":11880,"recibiendo":11881,"irak":11882,"sabid":11883,"dirigidas":11884,"##quetes":11885,"respectivos":11886,"plantea":11887,"inser":11888,"rastro":11889,"##onde":11890,"dispuestos":11891,"lastimar":11892,"##ordi":11893,"retorno":11894,"##ánicos":11895,"cantón":11896,"##ken":11897,"romana":11898,"inmor":11899,"mantienen":11900,"core":11901,"protocolos":11902,"coincidencia":11903,"vidrio":11904,"concretamente":11905,"mandatos":11906,"##yd":11907,"liz":11908,"expediente":11909,"supra":11910,"cuida":11911,"meteor":11912,"kenne":11913,"##gara":11914,"vendido":11915,"vende":11916,"invitó":11917,"ki":11918,"mír":11919,"stra":11920,"oigo":11921,"onda":11922,"comprometido":11923,"hanna":11924,"salta":11925,"efectivos":11926,"geno":11927,"oscar":11928,"eslova":11929,"escape":11930,"recolec":11931,"artill":11932,"comedia":11933,"bár":11934,"traj":11935,"frutas":11936,"separados":11937,"##ficaciones":11938,"##cent":11939,"monetaria":11940,"prohibido":11941,"pp":11942,"carmen":11943,"servidor":11944,"capitales":11945,"##rando":11946,"realizaron":11947,"amaba":11948,"auditoría":11949,"músicos":11950,"times":11951,"celebrará":11952,"reunió":11953,"##rica":11954,"destacado":11955,"##quín":11956,"disparos":11957,"debidamente":11958,"publicar":11959,"ofertas":11960,"##gers":11961,"mortalidad":11962,"130":11963,"pedirle":11964,"mantenga":11965,"panor":11966,"resistir":11967,"artístico":11968,"amanecer":11969,"penales":11970,"cómp":11971,"llamamos":11972,"encargada":11973,"maqu":11974,"clásica":11975,"cuartos":11976,"epid":11977,"bruto":11978,"coro":11979,"disponer":11980,"transna":11981,"##heim":11982,"naz":11983,"malasia":11984,"##utas":11985,"##tigio":11986,"volví":11987,"evangelio":11988,"preparada":11989,"##ámico":11990,"miser":11991,"supiera":11992,"##ficado":11993,"farmacéu":11994,"invis":11995,"verle":11996,"índole":11997,"gary":11998,"##imp":11999,"##oo":12000,"parad":12001,"funcionan":12002,"##asa":12003,"documental":12004,"saco":12005,"cueva":12006,"azo":12007,"aburrido":12008,"existía":12009,"sencilla":12010,"evaluaciones":12011,"orilla":12012,"pierre":12013,"##icen":12014,"##pper":12015,"garantiza":12016,"##gén":12017,"sienten":12018,"músico":12019,"ligeramente":12020,"hmm":12021,"jacob":12022,"reír":12023,"contando":12024,"directores":12025,"##ony":12026,"deliberaciones":12027,"temprana":12028,"##uch":12029,"lealtad":12030,"##lis":12031,"indicó":12032,"escocia":12033,"##kay":12034,"plástico":12035,"envenen":12036,"presa":12037,"extranjera":12038,"inevi":12039,"mentiroso":12040,"dijera":12041,"utilizó":12042,"comod":12043,"##55":12044,"presentaron":12045,"aceptó":12046,"caridad":12047,"helen":12048,"instin":12049,"africanos":12050,"llevarte":12051,"sures":12052,"##tarla":12053,"vestir":12054,"precisa":12055,"horror":12056,"vertic":12057,"arreglos":12058,"uu":12059,"seguida":12060,"civilización":12061,"espaciales":12062,"supo":12063,"##rek":12064,"radical":12065,"##ñe":12066,"piense":12067,"##dito":12068,"empresarios":12069,"dejarme":12070,"utilidad":12071,"indispensable":12072,"perver":12073,"indicado":12074,"##elli":12075,"##ess":12076,"##iaciones":12077,"##tosa":12078,"rumores":12079,"##uk":12080,"pesadilla":12081,"loren":12082,"terrestre":12083,"1000":12084,"ocupó":12085,"educativo":12086,"##ordia":12087,"unida":12088,"éxi":12089,"rosario":12090,"despren":12091,"vocal":12092,"prisionero":12093,"vapor":12094,"preval":12095,"##yera":12096,"extrema":12097,"sm":12098,"reconciliación":12099,"karen":12100,"bilaterales":12101,"renuncia":12102,"##illiams":12103,"exigencias":12104,"gráfico":12105,"sopa":12106,"claridad":12107,"destruido":12108,"##uss":12109,"reconoció":12110,"conseguí":12111,"retraso":12112,"formando":12113,"prohí":12114,"selva":12115,"terrenos":12116,"hueso":12117,"amado":12118,"cotidi":12119,"dibujos":12120,"valenci":12121,"ibíd":12122,"descubre":12123,"éxitos":12124,"perjuicio":12125,"presento":12126,"exhaus":12127,"estimada":12128,"tibur":12129,"consagr":12130,"comarca":12131,"ilegales":12132,"captura":12133,"descenso":12134,"##enco":12135,"sustancia":12136,"culmin":12137,"pasillo":12138,"rojas":12139,"yan":12140,"dvd":12141,"agradecimiento":12142,"incumb":12143,"carreteras":12144,"billetes":12145,"pondré":12146,"imaginación":12147,"secuencia":12148,"renovación":12149,"contradic":12150,"esperanzas":12151,"cadenas":12152,"good":12153,"##árselo":12154,"land":12155,"salsa":12156,"acp":12157,"escánd":12158,"##52":12159,"dragón":12160,"sumamente":12161,"ducha":12162,"##lero":12163,"dene":12164,"octavo":12165,"##amba":12166,"guy":12167,"podéis":12168,"ratificación":12169,"guillermo":12170,"elevada":12171,"vuelvan":12172,"##ideos":12173,"sagrado":12174,"pegar":12175,"paraíso":12176,"atraer":12177,"tradiciones":12178,"long":12179,"correctamente":12180,"acogida":12181,"envuel":12182,"revela":12183,"##nar":12184,"united":12185,"south":12186,"confidencial":12187,"intentos":12188,"##dem":12189,"helicóptero":12190,"tropical":12191,"hablaré":12192,"unesco":12193,"reaccion":12194,"contingentes":12195,"veneno":12196,"arrestado":12197,"dieta":12198,"##tarle":12199,"desma":12200,"postura":12201,"bello":12202,"nathan":12203,"publica":12204,"dólar":12205,"elena":12206,"asegura":12207,"enfrente":12208,"tortur":12209,"colina":12210,"irri":12211,"neuro":12212,"odia":12213,"ever":12214,"colectiva":12215,"##oria":12216,"##guera":12217,"centen":12218,"evolu":12219,"preguntarle":12220,"cuentos":12221,"roberto":12222,"escuchas":12223,"##ota":12224,"hectá":12225,"##sky":12226,"criaturas":12227,"arn":12228,"jin":12229,"pánico":12230,"morales":12231,"huevo":12232,"##zob":12233,"gordon":12234,"##rirá":12235,"jay":12236,"secuestro":12237,"primi":12238,"high":12239,"colle":12240,"estratégica":12241,"masac":12242,"sacado":12243,"out":12244,"seremos":12245,"acondi":12246,"lac":12247,"sabiduría":12248,"chaqueta":12249,"predomin":12250,"leí":12251,"trayectoria":12252,"iría":12253,"colonial":12254,"jal":12255,"##adme":12256,"huelga":12257,"empecé":12258,"portal":12259,"pensiones":12260,"elegidos":12261,"regí":12262,"explosivos":12263,"ratific":12264,"##chen":12265,"iniciales":12266,"demócra":12267,"sabrá":12268,"900":12269,"agresión":12270,"manio":12271,"químicas":12272,"vela":12273,"rellen":12274,"preguntarte":12275,"salvó":12276,"frutos":12277,"basadas":12278,"armenia":12279,"##ecos":12280,"intoler":12281,"códigos":12282,"coordinador":12283,"positivos":12284,"ayudarnos":12285,"encontrarse":12286,"##fan":12287,"reanud":12288,"intra":12289,"escapó":12290,"ganancias":12291,"dibujo":12292,"##tornos":12293,"convento":12294,"examinado":12295,"restauración":12296,"tragedia":12297,"dolores":12298,"disputó":12299,"insign":12300,"consultivo":12301,"necesite":12302,"huéspedes":12303,"tramo":12304,"mires":12305,"excusa":12306,"cardenal":12307,"##pus":12308,"mencionó":12309,"convencido":12310,"depresión":12311,"hablaremos":12312,"vita":12313,"exposiciones":12314,"trimes":12315,"quedamos":12316,"compré":12317,"despliegue":12318,"##aduras":12319,"curioso":12320,"poquito":12321,"patrick":12322,"rayo":12323,"conservar":12324,"##quita":12325,"arruinar":12326,"rup":12327,"venezol":12328,"gn":12329,"apu":12330,"alrededores":12331,"etio":12332,"acnur":12333,"arzob":12334,"brindar":12335,"túnez":12336,"protagonista":12337,"embarazo":12338,"simples":12339,"comido":12340,"buscas":12341,"cartera":12342,"aplicado":12343,"aeronav":12344,"conocidas":12345,"ramas":12346,"multilateral":12347,"comiendo":12348,"rosas":12349,"típico":12350,"ocupan":12351,"bush":12352,"entrando":12353,"seminarios":12354,"obses":12355,"concil":12356,"hambr":12357,"medir":12358,"bolso":12359,"funcional":12360,"medias":12361,"retos":12362,"cambiando":12363,"##cker":12364,"ful":12365,"sad":12366,"program":12367,"miller":12368,"hospitales":12369,"episodios":12370,"gustas":12371,"hipótesis":12372,"asigna":12373,"permanece":12374,"teléfonos":12375,"refieren":12376,"joa":12377,"intenciones":12378,"mancha":12379,"legislativas":12380,"ame":12381,"tortu":12382,"##teto":12383,"##deses":12384,"elector":12385,"elog":12386,"retiró":12387,"esposas":12388,"discrimina":12389,"comput":12390,"##vor":12391,"perdimos":12392,"north":12393,"lesiones":12394,"##cientos":12395,"caos":12396,"##anse":12397,"órbita":12398,"japoneses":12399,"##camiento":12400,"rutas":12401,"centra":12402,"despierto":12403,"altar":12404,"regímenes":12405,"kent":12406,"virginia":12407,"divorci":12408,"recibí":12409,"creador":12410,"##ionada":12411,"oscura":12412,"##toriales":12413,"pedazos":12414,"umbral":12415,"recurrir":12416,"continuo":12417,"biológica":12418,"gerente":12419,"formuladas":12420,"egoís":12421,"bolas":12422,"especta":12423,"remon":12424,"pyme":12425,"serpiente":12426,"##59":12427,"determinada":12428,"##deste":12429,"die":12430,"caba":12431,"##hl":12432,"sureste":12433,"desgraciado":12434,"ciudadanía":12435,"leyendo":12436,"recoge":12437,"1920":12438,"##ím":12439,"falla":12440,"creencias":12441,"funda":12442,"echo":12443,"tomará":12444,"aragón":12445,"volvieron":12446,"almirante":12447,"mandó":12448,"peregr":12449,"##gl":12450,"asegurarse":12451,"duplic":12452,"##ímetros":12453,"conseguiste":12454,"localidades":12455,"municiones":12456,"fax":12457,"jersey":12458,"1939":12459,"danza":12460,"integrantes":12461,"abol":12462,"solucionar":12463,"presentarse":12464,"##ridos":12465,"sabían":12466,"ayudante":12467,"errad":12468,"##39":12469,"corredor":12470,"diarios":12471,"exhi":12472,"costumbres":12473,"misa":12474,"comprado":12475,"confirmó":12476,"acordado":12477,"aumentó":12478,"armario":12479,"definitivo":12480,"decimos":12481,"afil":12482,"puntu":12483,"anto":12484,"enunci":12485,"agencias":12486,"asci":12487,"explotar":12488,"##cano":12489,"ye":12490,"reemplazar":12491,"etiopía":12492,"maggie":12493,"grabar":12494,"irregular":12495,"gene":12496,"ecosiste":12497,"sever":12498,"curar":12499,"##mante":12500,"temer":12501,"persecución":12502,"##entri":12503,"corro":12504,"muñeca":12505,"competir":12506,"##vaciones":12507,"azerba":12508,"##tines":12509,"vínculo":12510,"alfabe":12511,"##inando":12512,"marshall":12513,"andaluc":12514,"fí":12515,"peligrosa":12516,"vendría":12517,"abran":12518,"kara":12519,"salieron":12520,"presupuestos":12521,"##mad":12522,"musulmanes":12523,"casualidad":12524,"bicicleta":12525,"díaz":12526,"asesinar":12527,"##inger":12528,"cf":12529,"jenny":12530,"secundarios":12531,"suro":12532,"practicar":12533,"estuvimos":12534,"prometido":12535,"somalia":12536,"sobrino":12537,"transac":12538,"dictadura":12539,"doctrina":12540,"quedé":12541,"nubes":12542,"davis":12543,"javier":12544,"héroes":12545,"110":12546,"distinción":12547,"##uts":12548,"dj":12549,"##gelo":12550,"esperado":12551,"crema":12552,"aliento":12553,"interacción":12554,"salimos":12555,"blancas":12556,"##ecemos":12557,"resum":12558,"contener":12559,"decidieron":12560,"##íen":12561,"##ianas":12562,"preguntado":12563,"gubernamental":12564,"##ledo":12565,"##radas":12566,"preguntando":12567,"cod":12568,"sentimos":12569,"líquido":12570,"##unidad":12571,"fals":12572,"fabul":12573,"agus":12574,"pozo":12575,"##rista":12576,"sonr":12577,"añadido":12578,"##cemos":12579,"parlamentar":12580,"blue":12581,"jona":12582,"montar":12583,"##dices":12584,"tanque":12585,"pongan":12586,"arriesgar":12587,"##ificada":12588,"ayudado":12589,"xv":12590,"ediciones":12591,"continental":12592,"neum":12593,"marg":12594,"oficiosas":12595,"sindicato":12596,"adolescente":12597,"incid":12598,"islam":12599,"exce":12600,"pondrá":12601,"##pil":12602,"parezca":12603,"bó":12604,"encuentros":12605,"béis":12606,"jung":12607,"partículas":12608,"pizza":12609,"alejar":12610,"gold":12611,"adonde":12612,"atl":12613,"seamos":12614,"ministerial":12615,"ambulancia":12616,"zara":12617,"erradicación":12618,"medicamento":12619,"rub":12620,"restantes":12621,"jubi":12622,"béisbol":12623,"sepul":12624,"pasta":12625,"reproducción":12626,"preocuparse":12627,"neer":12628,"creció":12629,"exclusiva":12630,"dispuesta":12631,"soph":12632,"muebles":12633,"tatu":12634,"##ele":12635,"déjenme":12636,"volando":12637,"fachada":12638,"tubo":12639,"creados":12640,"espl":12641,"net":12642,"sufre":12643,"lárgate":12644,"voluntario":12645,"trág":12646,"intensidad":12647,"herencia":12648,"despla":12649,"interpretó":12650,"##tete":12651,"afroamericanos":12652,"llegas":12653,"deme":12654,"malta":12655,"decepcion":12656,"uganda":12657,"llevarlo":12658,"mt":12659,"nerviosa":12660,"almacén":12661,"desee":12662,"dejarte":12663,"volvamos":12664,"clau":12665,"desnud":12666,"experimento":12667,"gabinete":12668,"sostiene":12669,"miseric":12670,"dinas":12671,"gritar":12672,"##fal":12673,"ecua":12674,"agru":12675,"##uél":12676,"velas":12677,"decírselo":12678,"##áramos":12679,"signo":12680,"##uz":12681,"##qués":12682,"##dador":12683,"estrecho":12684,"ingleses":12685,"##mela":12686,"coordinar":12687,"vigente":12688,"josh":12689,"##iosos":12690,"sugi":12691,"arabia":12692,"ral":12693,"##jé":12694,"play":12695,"controla":12696,"importaría":12697,"##rimido":12698,"medianoche":12699,"narra":12700,"pares":12701,"compañera":12702,"presidentes":12703,"oz":12704,"payas":12705,"presos":12706,"filas":12707,"sabéis":12708,"xiii":12709,"salvación":12710,"incluía":12711,"estudiando":12712,"ayudarlo":12713,"originarios":12714,"estrechamente":12715,"dea":12716,"encontraban":12717,"aguanta":12718,"propietarios":12719,"palo":12720,"oficio":12721,"desar":12722,"##xo":12723,"formulario":12724,"socioeconóm":12725,"abad":12726,"promesas":12727,"eligió":12728,"descrita":12729,"jardines":12730,"demandante":12731,"integrar":12732,"##mail":12733,"##09":12734,"imponer":12735,"##ser":12736,"estructural":12737,"refi":12738,"mantenerse":12739,"##deos":12740,"terry":12741,"tesis":12742,"poderosa":12743,"estimaciones":12744,"inocentes":12745,"encuentren":12746,"qui":12747,"despid":12748,"plenaria":12749,"muera":12750,"autopista":12751,"mision":12752,"administrador":12753,"astero":12754,"deudas":12755,"shin":12756,"dilo":12757,"exen":12758,"dígale":12759,"##fle":12760,"1959":12761,"nicol":12762,"##orth":12763,"obreros":12764,"adulto":12765,"laur":12766,"confusión":12767,"flexibilidad":12768,"empresario":12769,"##raste":12770,"##nan":12771,"##ecera":12772,"quedaba":12773,"diámetro":12774,"angus":12775,"flora":12776,"escritores":12777,"##feros":12778,"teresa":12779,"exhorta":12780,"##diz":12781,"incluyó":12782,"inmo":12783,"azerbaiy":12784,"sanitaria":12785,"digan":12786,"suelta":12787,"reporte":12788,"quemar":12789,"inus":12790,"oral":12791,"amerin":12792,"escribiendo":12793,"##umas":12794,"##zarse":12795,"proceda":12796,"sofá":12797,"subpro":12798,"dedica":12799,"neo":12800,"espíritus":12801,"internas":12802,"##mal":12803,"gómez":12804,"físicas":12805,"refrig":12806,"griega":12807,"devas":12808,"electrónicos":12809,"negó":12810,"paté":12811,"ss":12812,"olvide":12813,"víctor":12814,"piedad":12815,"sacerdotes":12816,"articulo":12817,"##izando":12818,"quedaré":12819,"##nm":12820,"grues":12821,"chinos":12822,"significativa":12823,"##fronter":12824,"libremente":12825,"recogida":12826,"japonesa":12827,"requisito":12828,"lyn":12829,"aplican":12830,"##xido":12831,"##egu":12832,"solicita":12833,"parker":12834,"##alker":12835,"##daje":12836,"lagos":12837,"impre":12838,"nico":12839,"basándose":12840,"enfermos":12841,"verlos":12842,"esloven":12843,"##ship":12844,"grano":12845,"ix":12846,"verán":12847,"diles":12848,"traición":12849,"causó":12850,"desembo":12851,"pib":12852,"escar":12853,"anuncios":12854,"conversión":12855,"escuchaste":12856,"estrés":12857,"##rigo":12858,"##uses":12859,"did":12860,"extraños":12861,"diócesis":12862,"aumentando":12863,"##tizado":12864,"mars":12865,"perpetu":12866,"queja":12867,"volveremos":12868,"pájaros":12869,"mili":12870,"lana":12871,"##vol":12872,"dias":12873,"##úmenes":12874,"obtenidos":12875,"reta":12876,"pienses":12877,"afectado":12878,"debilidad":12879,"##eller":12880,"demandas":12881,"dedicó":12882,"1955":12883,"fases":12884,"entrevistas":12885,"##dirá":12886,"catálogo":12887,"##icias":12888,"desembar":12889,"esencia":12890,"viniendo":12891,"royal":12892,"observatorio":12893,"especialista":12894,"empleos":12895,"significativo":12896,"défici":12897,"especialistas":12898,"lleven":12899,"gav":12900,"sacu":12901,"energética":12902,"##dt":12903,"lío":12904,"##ellón":12905,"rival":12906,"coch":12907,"ancianos":12908,"camis":12909,"anth":12910,"vinos":12911,"##emo":12912,"montes":12913,"##hel":12914,"comprue":12915,"colectivo":12916,"artística":12917,"hombro":12918,"siguieron":12919,"##caron":12920,"okay":12921,"aprobadas":12922,"##anim":12923,"abusos":12924,"perdiste":12925,"conexas":12926,"advier":12927,"observador":12928,"##ganse":12929,"gaza":12930,"multiplic":12931,"blanque":12932,"machos":12933,"marítimo":12934,"buscamos":12935,"##olf":12936,"declarar":12937,"caracteriza":12938,"infantería":12939,"salí":12940,"##ciación":12941,"frecuente":12942,"alentar":12943,"estonia":12944,"sebasti":12945,"105":12946,"sorprendente":12947,"bach":12948,"marcado":12949,"nieto":12950,"obligados":12951,"sirv":12952,"automóviles":12953,"citas":12954,"productividad":12955,"escoger":12956,"alimento":12957,"maravilla":12958,"##piros":12959,"inevitable":12960,"rota":12961,"alfa":12962,"eeuu":12963,"##pole":12964,"##igue":12965,"autorizado":12966,"mud":12967,"##cedente":12968,"dímelo":12969,"day":12970,"crean":12971,"##igas":12972,"móviles":12973,"despedida":12974,"enamorada":12975,"imagina":12976,"##gencia":12977,"ejemplares":12978,"robot":12979,"favorita":12980,"creas":12981,"congre":12982,"cerebral":12983,"llamarme":12984,"modernos":12985,"tercio":12986,"santuario":12987,"suroeste":12988,"portugués":12989,"pilotos":12990,"hazme":12991,"pertenecían":12992,"configuración":12993,"##tés":12994,"involucrado":12995,"colgar":12996,"##zona":12997,"señalado":12998,"##eland":12999,"andalucía":13000,"charlo":13001,"turistas":13002,"provocó":13003,"indio":13004,"espé":13005,"bou":13006,"hugo":13007,"laguna":13008,"##ards":13009,"rig":13010,"##ógicos":13011,"expectativas":13012,"##yac":13013,"vasco":13014,"extranjeras":13015,"convenciones":13016,"##locu":13017,"cristian":13018,"##odía":13019,"máscara":13020,"varie":13021,"llamaste":13022,"##redo":13023,"recin":13024,"deliber":13025,"rechazo":13026,"dominicana":13027,"vuestras":13028,"agro":13029,"pion":13030,"reinado":13031,"perdieron":13032,"rechazar":13033,"veinti":13034,"navar":13035,"transfronter":13036,"tai":13037,"vendió":13038,"viuda":13039,"parcialmente":13040,"parámetros":13041,"palma":13042,"efectuar":13043,"lincol":13044,"ende":13045,"queridos":13046,"plazos":13047,"eman":13048,"reúne":13049,"echa":13050,"aprecio":13051,"almor":13052,"revolucionario":13053,"contenta":13054,"liberar":13055,"aur":13056,"bode":13057,"continúe":13058,"accion":13059,"fabricante":13060,"lex":13061,"##tton":13062,"reduce":13063,"##emy":13064,"caca":13065,"utilizadas":13066,"##clo":13067,"provoca":13068,"##bara":13069,"asqueroso":13070,"sentirse":13071,"darnos":13072,"cereales":13073,"met":13074,"extrad":13075,"seguidores":13076,"lincoln":13077,"buscaba":13078,"ejercicios":13079,"contabilidad":13080,"##ement":13081,"académico":13082,"singa":13083,"aviación":13084,"reconocida":13085,"macro":13086,"##institu":13087,"##eamiento":13088,"##ipol":13089,"defend":13090,"ciru":13091,"sostener":13092,"vincent":13093,"práctico":13094,"desplazados":13095,"valer":13096,"sitúa":13097,"sientas":13098,"divisiones":13099,"cápita":13100,"eléctrico":13101,"convoca":13102,"medallas":13103,"##chester":13104,"poema":13105,"ios":13106,"contestar":13107,"hectáreas":13108,"##vía":13109,"mirad":13110,"niega":13111,"preca":13112,"asientos":13113,"entienden":13114,"lé":13115,"faltan":13116,"supues":13117,"##encialmente":13118,"repent":13119,"extender":13120,"aje":13121,"manifestación":13122,"semes":13123,"subdi":13124,"apelación":13125,"##omos":13126,"##eres":13127,"lituania":13128,"ball":13129,"incorporar":13130,"##lash":13131,"casados":13132,"corrección":13133,"consign":13134,"estrope":13135,"surgió":13136,"aclarar":13137,"##cería":13138,"tokio":13139,"pasaría":13140,"##tam":13141,"ole":13142,"christo":13143,"estatua":13144,"callar":13145,"interpretar":13146,"incumplimiento":13147,"retirado":13148,"##eciendo":13149,"league":13150,"formulada":13151,"canadiense":13152,"mejoramiento":13153,"##gámoslo":13154,"transmis":13155,"sera":13156,"cali":13157,"oídos":13158,"culpar":13159,"##amp":13160,"aflu":13161,"probado":13162,"tocando":13163,"auxilio":13164,"dejará":13165,"manteniendo":13166,"##ceae":13167,"miti":13168,"##terna":13169,"ingred":13170,"indígena":13171,"iny":13172,"tech":13173,"estarías":13174,"trinidad":13175,"##abora":13176,"naranja":13177,"ocurra":13178,"suéltame":13179,"débiles":13180,"burundi":13181,"desfavor":13182,"marinos":13183,"circular":13184,"##ars":13185,"amerindios":13186,"temperaturas":13187,"lily":13188,"och":13189,"retirarse":13190,"rendición":13191,"advertencia":13192,"cass":13193,"emoción":13194,"##ei":13195,"regulación":13196,"asignado":13197,"transacciones":13198,"alqu":13199,"ocultar":13200,"enjuici":13201,"viii":13202,"ponerme":13203,"##boro":13204,"separa":13205,"##tain":13206,"school":13207,"rodeado":13208,"lecciones":13209,"asustada":13210,"italianos":13211,"goog":13212,"island":13213,"marx":13214,"salgamos":13215,"alivio":13216,"dormitorio":13217,"occidente":13218,"triple":13219,"##áce":13220,"##onancia":13221,"##unas":13222,"llamaron":13223,"vais":13224,"##lago":13225,"destruc":13226,"portada":13227,"rata":13228,"imi":13229,"dinámica":13230,"operadores":13231,"chlo":13232,"sc":13233,"##rida":13234,"artillería":13235,"inca":13236,"##omer":13237,"contesta":13238,"orientaciones":13239,"recuerde":13240,"solicitó":13241,"ética":13242,"divina":13243,"talentos":13244,"##leños":13245,"##zoso":13246,"supuestamente":13247,"abastecimiento":13248,"brutal":13249,"enlo":13250,"kilos":13251,"depender":13252,"bloqueo":13253,"lorenzo":13254,"cica":13255,"rt":13256,"##sores":13257,"cargas":13258,"estrenó":13259,"##minente":13260,"aprobados":13261,"actualización":13262,"minor":13263,"confirmado":13264,"emocionante":13265,"encantadora":13266,"terremoto":13267,"tyler":13268,"nicolás":13269,"encanto":13270,"vendedor":13271,"christian":13272,"vuelves":13273,"viejas":13274,"##mones":13275,"sabia":13276,"facilidad":13277,"sueldo":13278,"proponer":13279,"planeado":13280,"deberes":13281,"eb":13282,"noveno":13283,"comparte":13284,"intente":13285,"resultar":13286,"bombarde":13287,"traducido":13288,"fm":13289,"matthe":13290,"próximas":13291,"##érf":13292,"inesper":13293,"décimo":13294,"masculino":13295,"eugen":13296,"venecia":13297,"capítulos":13298,"encaminadas":13299,"traspas":13300,"deportiva":13301,"##fobia":13302,"porte":13303,"tuber":13304,"lap":13305,"decidí":13306,"cazar":13307,"explicó":13308,"cabecera":13309,"fijado":13310,"popularidad":13311,"reconociendo":13312,"vernos":13313,"reclus":13314,"pesos":13315,"nombró":13316,"llegaste":13317,"coll":13318,"escándalo":13319,"peniten":13320,"azules":13321,"peligrosas":13322,"repito":13323,"invertir":13324,"destina":13325,"inspiración":13326,"federa":13327,"##book":13328,"avanzado":13329,"##jados":13330,"##isten":13331,"camboy":13332,"afectar":13333,"##tern":13334,"urbanas":13335,"preferiría":13336,"confederación":13337,"reglamentación":13338,"masco":13339,"ker":13340,"monstruos":13341,"nel":13342,"your":13343,"silves":13344,"exceso":13345,"coleóptero":13346,"solicitado":13347,"facultades":13348,"modificada":13349,"toro":13350,"perj":13351,"concluyó":13352,"tíos":13353,"jeho":13354,"producida":13355,"##cino":13356,"joyas":13357,"prestando":13358,"acepto":13359,"suyos":13360,"disputa":13361,"had":13362,"##temos":13363,"atacó":13364,"fatal":13365,"duró":13366,"##tables":13367,"considerados":13368,"##ándolos":13369,"fantasmas":13370,"cartel":13371,"mencionadas":13372,"##ray":13373,"apagar":13374,"casino":13375,"operacionales":13376,"sensa":13377,"envid":13378,"intér":13379,"ahorrar":13380,"legislativa":13381,"##íqu":13382,"ji":13383,"##omen":13384,"##199":13385,"hún":13386,"discursos":13387,"##guardia":13388,"##oni":13389,"##jaba":13390,"##traba":13391,"torpe":13392,"inters":13393,"##sor":13394,"liberia":13395,"lisboa":13396,"##rich":13397,"mail":13398,"creciendo":13399,"refres":13400,"salvado":13401,"occidentales":13402,"glen":13403,"inhu":13404,"stone":13405,"hoc":13406,"##tase":13407,"##dula":13408,"chad":13409,"##terias":13410,"huérf":13411,"##mun":13412,"lograron":13413,"##drome":13414,"revuel":13415,"conexiones":13416,"##tuoso":13417,"1951":13418,"adher":13419,"##éndome":13420,"reve":13421,"karl":13422,"amén":13423,"enta":13424,"matr":13425,"ladrones":13426,"angola":13427,"mord":13428,"descrip":13429,"beth":13430,"cuota":13431,"##irán":13432,"pás":13433,"stephen":13434,"acusaciones":13435,"##ose":13436,"espía":13437,"modern":13438,"domicilio":13439,"##hr":13440,"deso":13441,"matrimon":13442,"brigada":13443,"test":13444,"cocinar":13445,"##áneo":13446,"traigo":13447,"magnífico":13448,"combina":13449,"mostrado":13450,"asegúrate":13451,"muros":13452,"intérpre":13453,"marty":13454,"pedimos":13455,"##med":13456,"##dense":13457,"queréis":13458,"dispararon":13459,"funcione":13460,"##tho":13461,"respaldo":13462,"én":13463,"algodón":13464,"azerbaiyán":13465,"doña":13466,"##canes":13467,"sintió":13468,"eur":13469,"1952":13470,"águ":13471,"sác":13472,"cav":13473,"marqués":13474,"espectadores":13475,"minerales":13476,"##cedonia":13477,"##hit":13478,"##ucos":13479,"singapur":13480,"muero":13481,"##dell":13482,"trafic":13483,"derrotar":13484,"cometidos":13485,"##cend":13486,"singular":13487,"considere":13488,"seriamente":13489,"pongas":13490,"ángulo":13491,"enterrado":13492,"asso":13493,"sincero":13494,"dial":13495,"melan":13496,"##ee":13497,"abiertas":13498,"compensación":13499,"perdidos":13500,"detección":13501,"google":13502,"acusación":13503,
[...]
