{"version":"1.0","truncation":null,"padding":null,"added_tokens":[{"id":0,"special":true,"content":"<s>","single_word":false,"lstrip":false,"rstrip":false,"normalized":false},{"id":1,"special":true,"content":"<pad>","single_word":false,"lstrip":false,"rstrip":false,"normalized":false},{"id":2,"special":true,"content":"</s>","single_word":false,"lstrip":false,"rstrip":false,"normalized":false},{"id":3,"special":true,"content":"<unk>","single_word":false,"lstrip":false,"rstrip":false,"normalized":false},{"id":4,"special":true,"content":"<mask>","single_word":false,"lstrip":false,"rstrip":false,"normalized":false}],"normalizer":{"type":"Sequence","normalizers":[{"type":"NFKC"},{"type":"BertNormalizer","clean_text":true,"handle_chinese_chars":true,"strip_accents":false,"lowercase":false},{"type":"Replace","pattern":{"Regex":"(\\W)?@usuario(\\W)"},"content":" @usuario "},{"type":"Replace","pattern":{"String":"hashtag"},"content":" hashtag "},{"type":"Replace","pattern":{"Regex":"(\\W)url(\\W)"},"content":" url "},{"type":"Replace","pattern":{"String":"http://url"},"content":" url "}]},"pre_tokenizer":{"type":"Metaspace","replacement":"▁","add_prefix_space":true},"post_processor":{"type":"RobertaProcessing","sep":["</s>",2],"cls":["<s>",0],"trim_offsets":true,"add_prefix_space":true},"decoder":{"type":"Metaspace","replacement":"▁","add_prefix_space":true},"model":{"type":"BPE","dropout":null,"unk_token":null,"continuing_subword_prefix":null,"end_of_word_suffix":null,"fuse_unk":false,"vocab":{"<s>":0,"<pad>":1,"</s>":2,"<unk>":3,"<mask>":4,"!":5,"\"":6,"#":7,"$":8,"%":9,"&":10,"'":11,"(":12,")":13,"*":14,"+":15,",":16,"-":17,".":18,"/":19,"0":20,"1":21,"2":22,"3":23,"4":24,"5":25,"6":26,"7":27,"8":28,"9":29,":":30,";":31,"=":32,"?":33,"@":34,"A":35,"B":36,"C":37,"D":38,"E":39,"F":40,"G":41,"H":42,"I":43,"J":44,"K":45,"L":46,"M":47,"N":48,"O":49,"P":50,"Q":51,"R":52,"S":53,"T":54,"U":55,"V":56,"W":57,"X":58,"Y":59,"Z":60,"[":61,"\\":62,"]":63,"^":64,"_":65,"`":66,"a":67,"b":68,"c":69,"d":70,"e":71,"f":72,"g":73,"h":74,"i":75,"j":76,"k":77,"l":78,"m":79,"n":80,"o":81,"p":82,"q":83,"r":84,"s":85,"t":86,"u":87,"v":88,"w":89,"x":90,"y":91,"z":92,"|":93,"¡":94,"¿":95,"Á":96,"Ã":97,"Ç":98,"É":99,"Í":100,"Ñ":101,"Ó":102,"Ú":103,"Ü":104,"à":105,"á":106,"â":107,"ã":108,"ä":109,"ç":110,"è":111,"é":112,"ê":113,"ì":114,"í":115,"ï":116,"ñ":117,"ò":118,"ó":119,"ô":120,"õ":121,"ö":122,"ù":123,"ú":124,"ü":125,"ğ":126,"ı":127,"ş":128,"ɪ":129,"ɴ":130,"ʀ":131,"ʟ":132,"̄":133,"̶":134,"α":135,"ι":136,"а":137,"в":138,"д":139,"е":140,"и":141,"к":142,"л":143,"м":144,"н":145,"о":146,"п":147,"р":148,"с":149,"т":150,"у":151,"я":152,"أ":153,"ب":154,"ة":155,"ت":156,"ج":157,"ح":158,"خ":159,"د":160,"ر":161,"ز":162,"س":163,"ش":164,"ص":165,"ط":166,"ع":167,"ف":168,"ق":169,"ك":170,"ل":171,"م":172,"ن":173,"ه":174,"و":175,"ي":176,"َ":177,"ک":178,"ہ":179,"ی":180,"ے":181,"ं":182,"क":183,"ज":184,"त":185,"द":186,"न":187,"प":188,"ब":189,"म":190,"य":191,"र":192,"ल":193,"स":194,"ह":195,"ा":196,"ि":197,"ी":198,"े":199,"ो":200,"्":201,"க":202,"த":203,"ி":204,"ு":205,"்":206,"ก":207,"ข":208,"ค":209,"ง":210,"จ":211,"ช":212,"ด":213,"ต":214,"ท":215,"น":216,"บ":217,"ป":218,"พ":219,"ม":220,"ย":221,"ร":222,"ล":223,"ว":224,"ส":225,"ห":226,"อ":227,"ะ":228,"ั":229,"า":230,"ิ":231,"ี":232,"ื":233,"ุ":234,"ู":235,"เ":236,"แ":237,"ใ":238,"ไ":239,"็":240,"่":241,"้":242,"์":243,"ᄏ":244,"ᅠ":245,"ᅲ":246,"ᴀ":247,"ᴇ":248,"ᴏ":249,"ᴛ":250,"⃣":251,"→":252,"─":253,"━":254,"┃":255,"┓":256,"▁":257,"█":258,"▶":259,"►":260,"★":261,"☆":262,"♪":263,"♫":264,"✔":265,"❣":266,"➡":267,"⠀":268,"⬇":269,"、":270,"。":271,"「":272,"」":273,"【":274,"】":275,"あ":276,"い":277,"う":278,"お":279,"か":280,"が":281,"き":282,"く":283,"け":284,"こ":285,"ご":286,"さ":287,"し":288,"す":289,"た":290,"だ":291,"ち":292,"っ":293,"て":294,"で":295,"と":296,"な":297,"に":298,"の":299,"は":300,"ま":301,"み":302,"め":303,"も":304,"ゃ":305,"よ":306,"ら":307,"り":308,"る":309,"れ":310,"を":311,"ん":312,"ア":313,"イ":314,"カ":315,"キ":316,"ク":317,"コ":318,"シ":319,"ジ":320,"ス":321,"タ":322,"ッ":323,"ト":324,"ド":325,"フ":326,"プ":327,"ラ":328,"リ":329,"ル":330,"レ":331,"ロ":332,"ン":333,"・":334,"人":335,"日":336,"生":337,"가":338,"갓":339,"게":340,"고":341,"기":342,"김":343,"나":344,"년":345,"는":346,"니":347,"다":348,"단":349,"대":350,"도":351,"드":352,"들":353,"라":354,"랑":355,"로":356,"리":357,"마":358,"무":359,"민":360,"방":361,"보":362,"븐":363,"사":364,"생":365,"서":366,"세":367,"소":368,"수":369,"스":370,"시":371,"아":372,"어":373,"에":374,"엑":375,"여":376,"오":377,"요":378,"우":379,"원":380,"은":381,"을":382,"의":383,"이":384,"인":385,"일":386,"자":387,"정":388,"제":389,"주":390,"즈":391,"지":392,"진":393,"탄":394,"트":395,"하":396,"한":397,"해":398,"현":399,"호":400,"🎙":401,"🏟":402,"👁":403,"🗣":404,"▁e":405,"ar":406,"▁d":407,"▁c":408,"mo":409,"io":410,"▁de":411,"▁p":412,"▁l":413,"as":414,"er":415,"en":416,"▁a":417,"us":418,"▁s":419,"ji":420,"▁emo":421,"▁emoji":422,"an":423,"▁m":424,"ario":425,"os":426,"usu":427,"usuario":428,"@usuario":429,"▁@usuario":430,"ue":431,"or":432,"on":433,"ta":434,"▁h":435,"▁t":436,"es":437,"▁q":438,"do":439,"▁n":440,"▁U":441,"▁es":442,"▁que":443,"in":444,"RL":445,"▁la":446,"▁URL":447,"re":448,"▁y":449,"un":450,"al":451,"▁v":452,"▁en":453,"ci":454,"te":455,"ara":456,"is":457,"da":458,"▁f":459,"▁has":460,"▁con":461,"tag":462,"ra":463,"htag":464,"▁hashtag":465,"▁el":466,"▁b":467,"to":468,"ic":469,"..":470,"ien":471,"▁un":472,"▁no":473,"ro":474,"ón":475,"▁se":476,"▁me":477,"ol":478,"▁g":479,"▁E":480,"▁cara":481,"▁o":482,"ando":483,"le":484,"▁C":485,"▁A":486,"▁M":487,"ti":488,"▁S":489,"▁ha":490,"la":491,"mp":492,"▁P":493,"de":494,"ch":495,"▁por":496,"▁L":497,"▁co":498,"el":499,"ri":500,"▁re":501,"▁al":502,"ja":503,"ui":504,"▁los":505,"▁lo":506,"▁to":507,"▁per":508,"mos":509,"▁T":510,"▁.":511,"ora":512,"▁r":513,"▁D":514,"ia":515,"▁N":516,"ma":517,"go":518,"▁in":519,"▁si":520,"ía":521,"▁para":522,"▁mi":523,"▁i":524,"lo":525,"ca":526,"dos":527,"ción":528,"▁cu":529,"ion":530,"▁del":531,"ente":532,"▁est":533,"▁te":534,"ba":535,"▁su":536,"▁ca":537,"di":538,"▁las":539,"ec":540,"ás":541,"vi":542,"iendo":543,"...":544,"era":545,"▁man":546,"mb":547,"▁una":548,"dad":549,"▁son":550,"mi":551,"▁B":552,"▁Y":553,"ga":554,"res":555,"!!":556,"cu":557,"▁H":558,"ent":559,"me":560,"▁j":561,"ero":562,"▁le":563,"gu":564,"co":565,"▁mu":566,"▁des":567,"oy":568,"cia":569,"▁Es":570,"JA":571,"▁R":572,"tr":573,"▁Q":574,"▁cora":575,"▁ll":576,"▁I":577,"▁coraz":578,"▁di":579,"▁ma":580,"que":581,"▁\"":582,"ica":583,"▁V":584,"ce":585,"▁1":586,"it":587,"▁vi":588,"▁an":589,"▁G":590,"ab":591,"▁F":592,"jo":593,"▁w":594,"il":595,"tu":596,"▁th":597,"▁llor":598,"isa":599,"za":600,"▁J":601,"▁más":602,"▁mo":603,"▁pa":604,"ul":605,"ran":606,"▁ten":607,"▁2":608,"ter":609,"tra":610,"▁pi":611,"▁corazón":612,"uer":613,"▁pro":614,"ues":615,"▁llorando":616,"▁ver":617,"tos":618,"▁como":619,"▁risa":620,"cion":621,"▁ser":622,"ing":623,"▁ch":624,"pa":625,"▁yo":626,"▁so":627,"▁No":628,"▁sonr":629,"JAJA":630,"▁esta":631,"jos":632,"tes":633,"lar":634,"▁pero":635,"tas":636,"tar":637,"▁ap":638,"va":639,"▁ex":640,"▁na":641,"ir":642,"▁par":643,"▁po":644,"ico":645,"▁as":646,"▁O":647,"ur":648,"ono":649,"ve":650,"ana":651,"das":652,"én":653,"▁ar":654,"jaja":655,"án":656,"uen":657,"son":658,"dio":659,"▁El":660,"ez":661,"▁qui":662,"▁sonriendo":663,"se":664,"vo":665,"ina":666,"▁ya":667,"▁ojos":668,"▁La":669,"tor":670,"▁pas":671,"▁ta":672,"▁fa":673,"▁tu":674,"▁va":675,"ten":676,"ué":677,"cer":678,"dor":679,"cha":680,"qui":681,"men":682,"▁pue":683,"▁person":684,"ver":685,"tro":686,"der":687,"sa":688,"emp":689,"▁sal":690,"so":691,"▁ti":692,"▁the":693,"▁ni":694,"▁tra":695,"▁todo":696,"mente":697,"li":698,"lan":699,"▁sol":700,"gar":701,"ble":702,"ud":703,"▁pe":704,"▁piel":705,"▁tien":706,"▁mano":707,"no":708,"▁(":709,"ño":710,"▁tono":711,"cho":712,"iz":713,"▁ro":714,"▁Que":715,"per":716,"▁Me":717,"si":718,"▁-":719,"▁pre":720,"▁hab":721,"▁mis":722,"▁¿":723,"▁res":724,"▁ac":725,"▁tan":726,"▁ab":727,"▁li":728,"ios":729,"ha":730,"laro":731,"▁sin":732,"ru":733,"▁comp":734,"▁cas":735,"▁nos":736,"ier":737,"tan":738,"ER":739,"▁Si":740,"bre":741,"▁esto":742,"po":743,"cias":744,"pe":745,"na":746,"▁da":747,"ice":748,"▁En":749,"OS":750,"▁claro":751,"!!!":752,"00":753,"▁manos":754,"idad":755,"les":756,"ales":757,"▁este":758,"▁ah":759,"las":760,"??":761,"EN":762,"jor":763,"den":764,"▁hay":765,"min":766,"et":767,"▁k":768,"man":769,"▁pen":770,"ños":771,"des":772,"▁cre":773,"▁com":774,"▁jaja":775,"je":776,"▁sab":777,"▁cuando":778,"▁can":779,"ita":780,"▁está":781,"los":782,"oo":783,"▁buen":784,"▁lle":785,"▁he":786,"▁men":787,"ay":788,"be":789,"▁mejor":790,"ones":791,"▁Se":792,"mas":793,"▁pu":794,"▁todos":795,"eces":796,"mar":797,"ici":798,"du":799,"▁persona":800,"▁mal":801,"ras":802,"▁porque":803,"▁bien":804,"ín":805,"▁cor":806,"▁3":807,"ciones":808,"▁ra":809,"▁of":810,"▁fuer":811,"tre":812,"▁for":813,"▁¡":814,"and":815,"AN":816,"ES":817,"▁día":818,"olvi":819,"▁mas":820,"▁dis":821,"▁hacer":822,"▁mar":823,"ac":824,"▁sus":825,"gun":826,"AR":827,"▁ho":828,"▁do":829,"▁cos":830,"▁medio":831,"at":832,"▁W":833,"▁eso":834,"▁imp":835,"ún":836,"ren":837,"▁bo":838,"▁ne":839,"▁rev":840,"ut":841,"ista":842,"ña":843,"▁Yo":844,"ber":845,"▁Co":846,"▁u":847,"AS":848,"iento":849,"ión":850,"gan":851,"▁ven":852,"ho":853,"OR":854,"▁De":855,"ías":856,"▁DE":857,"▁fr":858,"▁fue":859,"mbi":860,"emos":861,"empre":862,"▁vida":863,"▁20":864,"ces":865,"▁car":866,"▁nada":867,"▁dor":868,"racias":869,"▁qu":870,"▁tiene":871,"▁amo":872,"ON":873,"tal":874,"ito":875,"ado":876,"▁pres":877,"ed":878,"vor":879,"gui":880,"o,":881,"▁gente":882,"qu":883,"▁ba":884,"▁and":885,"▁cal":886,"▁be":887,"▁ami":888,"▁pri":889,"▁gran":890,"▁hace":891,"▁fin":892,"▁les":893,"▁ju":894,"▁muy":895,"▁vo":896,"dose":897,"és":898,"▁nues":899,"▁Con":900,"che":901,"▁emp":902,"▁go":903,"▁Por":904,"▁qué":905,"ven":906,"▁pr":907,"ts":908,"▁favor":909,"ere":910,"▁gan":911,"▁Al":912,"gra":913,"▁on":914,"▁or":915,"▁col":916,"UE":917,"uel":918,"▁fel":919,"id":920,"20":921,"▁us":922,"▁hoy":923,"for":924,"iste":925,"▁:":926,"ís":927,"ena":928,"▁fuerte":929,"endo":930,"ona":931,"por":932,"▁hacia":933,"▁así":934,"▁,":935,"tros":936,"ad":937,"▁solo":938,"▁ter":939,"zo":940,"▁Lo":941,"car":942,"ig":943,"▁In":944,"▁fal":945,"mer":946,"▁lu":947,"bajo":948,"▁gus":949,"▁siempre":950,"▁fo":951,"eo":952,"▁pol":953,"enta":954,"▁deci":955,"▁is":956,"▁4":957,"▁dos":958,"éndose":959,"▁nue":960,"ada":961,"▁pon":962,"jer":963,"van":964,"▁quiero":965,"he":966,"▁sobre":967,"▁años":968,"ros":969,"▁tengo":970,"encia":971,"ido":972,"JAJAJAJA":973,"olviéndose":974,"▁revolviéndose":975,"con":976,"bo":977,"jar":978,"▁estar":979,"▁5":980,"▁mun":981,"▁K":982,"▁estoy":983,"▁Jjaja":984,"▁band":985,"▁ir":986,"▁x":987,"rar":988,"▁vez":989,"dar":990,"▁é":991,"▁Un":992,"▁bandera":993,"▁you":994,"pon":995,"mbre":996,"AL":997,"tic":998,"▁her":999,"ie":1000,"ll":1001,"unca":1002,"▁To":1003,"▁ahora":1004,"▁hi":1005,"tiva":1006,"▁voy":1007,"▁bes":1008,"▁cer":1009,"▁Ya":1010,"tir":1011,"ante":1012,"▁Re":1013,"▁don":1014,"fer":1015,"dr":1016,"▁ES":1017,"aa":1018,"▁algo":1019,"▁mucho":1020,"AD":1021,"▁fu":1022,"cial":1023,"can":1024,"▁apla":1025,"par":1026,"tras":1027,"ke":1028,"gue":1029,"CI":1030,"ino":1031,"▁hasta":1032,"if":1033,"▁puede":1034,"am":1035,"olo":1036,"gos":1037,"mbién":1038,"guien":1039,"▁Los":1040,"▁esp":1041,"▁pel":1042,"▁Te":1043,"▁casa":1044,"▁quer":1045,"▁Cu":1046,"19":1047,"bl":1048,"ola":1049,"▁inter":1050,"IN":1051,"▁real":1052,"▁hu":1053,"erda":1054,"▁aplaud":1055,"▁ay":1056,"ment":1057,"▁aplaudiendo":1058,"lla":1059,"▁entre":1060,"tado":1061,"▁Mi":1062,"ck":1063,"▁esc":1064,"o.":1065,"ida":1066,"as,":1067,"▁sa":1068,"▁pos":1069,"ciendo":1070,"miento":1071,"ly":1072,"▁pla":1073,"▁ese":1074,"th":1075,"es,":1076,"cio":1077,"▁au":1078,"▁fle":1079,"dice":1080,"cep":1081,"mento":1082,"▁feliz":1083,"▁parti":1084,"\".":1085,"TA":1086,"▁neces":1087,"ee":1088,"▁exp":1089,"▁desp":1090,"▁sen":1091,"▁ín":1092,"nos":1093,"bier":1094,"▁dere":1095,"▁también":1096,"ece":1097,"tando":1098,"▁du":1099,"▁An":1100,"▁NO":1101,"▁conf":1102,"▁tener":1103,"▁tiemp":1104,"▁desde":1105,"▁índice":1106,"▁toda":1107,"▁min":1108,"▁menos":1109,"▁Ma":1110,"▁fe":1111,"bol":1112,"▁esa":1113,"▁os":1114,"▁días":1115,"cen":1116,"▁Pero":1117,"▁soy":1118,"▁nunca":1119,"▁cosas":1120,"▁dorso":1121,"▁señ":1122,"gas":1123,"▁quien":1124,"▁dar":1125,"▁vol":1126,"▁verdad":1127,"ale":1128,"▁sea":1129,"rado":1130,"▁much":1131,"▁ve":1132,"▁ob":1133,"toria":1134,"es.":1135,"▁corazones":1136,"ão":1137,"▁Ch":1138,"▁era":1139,"ientes":1140,"die":1141,"ismo":1142,"ano":1143,"▁cons":1144,"▁ga":1145,"tica":1146,"▁contra":1147,"▁Mar":1148,"▁reg":1149,"gual":1150,"▁mundo":1151,"TE":1152,"mana":1153,"ómo":1154,"?.":1155,"▁ins":1156,"▁his":1157,"os,":1158,"gua":1159,"ío":1160,"ya":1161,"▁mujer":1162,"▁decir":1163,"▁lin":1164,"▁segui":1165,"ala":1166,"▁op":1167,"▁estu":1168,"uela":1169,"zando":1170,"▁dic":1171,"▁están":1172,"▁ce":1173,"▁QUE":1174,"▁ent":1175,"cas":1176,"▁LA":1177,"▁Le":1178,"ge":1179,"ñana":1180,"▁Buen":1181,"istas":1182,"vir":1183,"dores":1184,"bi":1185,"to,":1186,"dre":1187,"cional":1188,"▁hor":1189,"▁Hoy":1190,"tin":1191,"▁vis":1192,"▁amor":1193,"quí":1194,"ris":1195,"aron":1196,"▁mismo":1197,"▁país":1198,"tion":1199,"▁mes":1200,"▁6":1201,"eron":1202,"iza":1203,"br":1204,"▁jun":1205,"▁jo":1206,"▁10":1207,"▁ci":1208,"▁alguien":1209,"▁ad":1210,"???":1211,"IS":1212,"▁frente":1213,"pi":1214,"▁equi":1215,"▁tar":1216,"os.":1217,"deo":1218,"▁personas":1219,"▁impor":1220,"▁blan":1221,"▁lla":1222,"▁ganas":1223,"▁tr":1224,"▁sí":1225,"TO":1226,"!.":1227,"▁donde":1228,"▁año":1229,"DO":1230,"▁uno":1231,"▁...":1232,"▁cada":1233,"ves":1234,"lti":1235,"▁rojo":1236,"▁jue":1237,"▁rec":1238,"▁Gracias":1239,"ine":1240,"▁Ca":1241,"▁aca":1242,"rec":1243,"▁gracias":1244,"tura":1245,"▁escu":1246,"▁Ah":1247,"do,":1248,"▁san":1249,"▁#":1250,"do.":1251,"dia":1252,"▁levan":1253,"culo":1254,"gen":1255,"▁jus":1256,"ima":1257,"▁ri":1258,"dic":1259,"to.":1260,"▁fi":1261,"s.":1262,"▁lan":1263,"fec":1264,"▁7":1265,"tivo":1266,"pas":1267,"bierno":1268,"ias":1269,"▁EN":1270,"via":1271,"RE":1272,"xico":1273,"t;":1274,"▁gu":1275,"▁cono":1276,"▁we":1277,"▁han":1278,"var":1279,"mil":1280,"▁8":1281,"▁Esta":1282,"▁cuenta":1283,"▁traba":1284,"▁pasa":1285,"AM":1286,"▁ja":1287,"ués":1288,"más":1289,"▁haciendo":1290,"lu":1291,"▁tran":1292,"▁tw":1293,"▁nadie":1294,"▁San":1295,"▁beso":1296,"▁puedo":1297,"▁tienen":1298,"▁rep":1299,"▁abajo":1300,"▁igual":1301,"▁eu":1302,"▁cump":1303,"▁gra":1304,"▁tanto":1305,"▁tiempo":1306,"▁Ar":1307,"▁Mu":1308,"▁van":1309,"ted":1310,"cuer":1311,"gent":1312,"▁dia":1313,"▁pes":1314,"tó":1315,"cal":1316,"▁gen":1317,"iente":1318,"ern":1319,"▁EL":1320,"gn":1321,"▁Esto":1322,"▁quier":1323,"▁otro":1324,"▁Des":1325,"▁it":1326,"ían":1327,"▁bus":1328,"pen":1329,"▁pens":1330,"▁dice":1331,"▁def":1332,"▁As":1333,"▁Na":1334,"má":1335,"▁mus":1336,"▁otra":1337,"▁at":1338,"▁super":1339,"▁vos":1340,"ID":1341,"vos":1342,"mir":1343,"▁cual":1344,"▁vuel":1345,"RA":1346,"▁val":1347,"▁pal":1348,"▁boca":1349,"forma":1350,"arios":1351,"▁9":1352,"▁Ha":1353,"im":1354,"tada":1355,"▁mierda":1356,"ír":1357,"▁sonrientes":1358,"ril":1359,"▁grande":1360,"▁bar":1361,"ea":1362,"▁mañana":1363,"▁pensa":1364,"▁may":1365,"as.":1366,"cel":1367,"cil":1368,"▁segu":1369,"HA":1370,"dan":1371,"▁mon":1372,"ban":1373,"▁plan":1374,"ores":1375,"▁derecha":1376,"tico":1377,"▁&":1378,"▁poco":1379,"▁semana":1380,"▁algun":1381,"▁arri":1382,"▁pan":1383,"▁mil":1384,"▁ú":1385,"cre":1386,"▁cul":1387,"una":1388,"OL":1389,"▁gusta":1390,"▁final":1391,"▁vamos":1392,"▁mer":1393,"▁URL.":1394,"iones":1395,"▁Ten":1396,"▁nuevo":1397,"IC":1398,"▁Las":1399,"vio":1400,"rib":1401,"▁Como":1402,"▁Pa":1403,"icio":1404,"▁blanco":1405,"▁bas":1406,"▁todas":1407,"zar":1408,"ith":1409,"▁sac":1410,"entes":1411,"▁poder":1412,"um":1413,"iene":1414,"▁Para":1415,"OM":1416,"▁mie":1417,"ria":1418,"▁sé":1419,"imo":1420,"oración":1421,"▁veces":1422,").":1423,"▁prim":1424,"▁az":1425,"▁esper":1426,"udad":1427,"▁abra":1428,"ér":1429,":.":1430,"▁Ro":1431,"▁bol":1432,"idente":1433,"▁den":1434,"char":1435,"▁antes":1436,"hi":1437,"▁nuestro":1438,"icos":1439,"tante":1440,"▁momento":1441,"pues":1442,"ill":1443,"▁ún":1444,"mis":1445,"▁después":1446,"'s":1447,"vis":1448,"uda":1449,"▁últi":1450,"▁Cuando":1451,"esta":1452,"▁0":1453,"▁pues":1454,"iver":1455,"▁bal":1456,"vel":1457,"▁temp":1458,"▁parte":1459,"▁that":1460,"▁polí":1461,"▁camp":1462,"▁inf":1463,"pp":1464,"▁foto":1465,"▁reci":1466,"ible":1467,"gh":1468,"rá":1469,"▁So":1470,"▁sue":1471,"▁bueno":1472,"▁JAJAJAJA":1473,"▁my":1474,"len":1475,"▁arriba":1476,"▁SE":1477,"▁trabajo":1478,"▁aquí":1479,"▁pregun":1480,"fa":1481,"▁creo":1482,"▁..":1483,"▁tus":1484,"▁ban":1485,"▁espa":1486,"▁cele":1487,"▁this":1488,"▁|":1489,"vid":1490,"ne":1491,"fe":1492,"▁Qui":1493,"erte":1494,"ezuela":1495,"▁gol":1496,"▁Car":1497,"ta,":1498,"▁pun":1499,"▁ME":1500,"▁extra":1501,"lor":1502,"icar":1503,"gres":1504,"▁?":1505,"▁Dios":1506,"▁lanzando":1507,"▁fun":1508,"ólo":1509,"ff":1510,"amp":1511,"ta.":1512,"ridad":1513,"▁dej":1514,"▁cómo":1515,"▁estos":1516,"▁201":1517,"▁eres":1518,"tv":1519,"▁noche":1520,"ile":1521,"▁with":1522,"▁vía":1523,"▁gui":1524,"▁Ven":1525,"lante":1526,"▁azul":1527,"▁The":1528,"cl":1529,"vas":1530,"bar":1531,"▁Po":1532,"▁Su":1533,"▁Una":1534,"úbl":1535,"s,":1536,"tad":1537,"ular":1538,"▁!":1539,"▁oración":1540,"pos":1541,"▁fuego":1542,"▁music":1543,"titu":1544,"▁quiere":1545,"trar":1546,"▁señal":1547,"tbol":1548,"▁falta":1549,"▁apro":1550,"▁gobierno":1551,"▁cabe":1552,"▁queda":1553,"llo":1554,"OO":1555,"icación":1556,"▁apoy":1557,"útbol":1558,"▁parece":1559,"▁19":1560,"▁mí":1561,"a,":1562,"▁flecha":1563,"ton":1564,"ctor":1565,"ionado":1566,"▁all":1567,"▁dejar":1568,"gún":1569,"▁dormir":1570,"ian":1571,"tual":1572,"▁via":1573,"blo":1574,"dir":1575,"▁tú":1576,"▁ellos":1577,"gt;":1578,"▁proble":1579,"▁seguir":1580,"▁ojo":1581,"▁Sal":1582,"▁hora":1583,"▁vio":1584,"cur":1585,"gro":1586,"....":1587,"▁sub":1588,"mia":1589,"▁Qué":1590,"TI":1591,"▁vas":1592,"ral":1593,"▁salir":1594,"▁respon":1595,"▁af":1596,"▁Per":1597,"js":1598,"▁sos":1599,"▁RT":1600,"▁UN":1601,"▁ima":1602,"▁Par":1603,"▁estamos":1604,"low":1605,"▁cuar":1606,"▁ahí":1607,"mes":1608,"amos":1609,"▁Ex":1610,"▁hermos":1611,"éxico":1612,"pu":1613,"mon":1614,"cción":1615,"▁Fel":1616,"▁bon":1617,"▁fútbol":1618,"▁termin":1619,"▁dan":1620,"▁video":1621,"bra":1622,"▁clas":1623,"da,":1624,"▁cír":1625,"itter":1626,"▁miedo":1627,"▁somos":1628,"▁pelo":1629,"tif":1630,"▁marca":1631,"▁debe":1632,"▁Este":1633,"▁círculo":1634,"▁mtv":1635,"UN":1636,"rid":1637,"▁nuestra":1638,"one":1639,"▁Hay":1640,"▁historia":1641,"jas":1642,"anos":1643,"▁z":1644,"▁CON":1645,"▁flex":1646,"gentina":1647,"▁comun":1648,"▁estas":1649,"mbia":1650,"alo":1651,"use":1652,"▁X":1653,"▁homb":1654,"cos":1655,"▁Di":1656,"▁buena":1657,"▁unos":1658,"▁Ay":1659,"▁prof":1660,"milia":1661,"ds":1662,"▁am":1663,"▁ella":1664,"eando":1665,"▁olvi":1666,"▁estaba":1667,"000":1668,"ñando":1669,"EL":1670,"▁ide":1671,"▁ciudad":1672,"▁amigos":1673,"▁nueva":1674,"▁bí":1675,"tón":1676,"itar":1677,"▁Z":1678,"ceps":1679,"▁har":1680,"▁bíceps":1681,"tido":1682,"▁Go":1683,"▁estre":1684,"▁salud":1685,"▁hecho":1686,"▁cabeza":1687,"▁cuer":1688,"a.":1689,"▁cap":1690,"▁AM":1691,"▁gri":1692,"chas":1693,"pera":1694,"▁mill":1695,"▁flexionado":1696,"▁cr":1697,"▁frío":1698,"▁equipo":1699,"mina":1700,"▁Ja":1701,"cuerdo":1702,"▁sudor":1703,"otros":1704,"▁madre":1705,"▁fuera":1706,"▁comer":1707,"entro":1708,"▁hablar":1709,"▁primer":1710,"lea":1711,"▁hacen":1712,"da.":1713,"▁cha":1714,"ger":1715,"▁fan":1716,"▁dijo":1717,"RO":1718,"ús":1719,"▁pin":1720,"dido":1721,"▁pasar":1722,"mal":1723,"▁sabe":1724,"ár":1725,"▁chis":1726,"▁peor":1727,"AA":1728,"▁forma":1729,"rr":1730,"uego":1731,"▁trans":1732,"▁deja":1733,"▁sor":1734,"▁Pro":1735,"▁saber":1736,"▁pensativa":1737,"gi":1738,"▁tal":1739,"▁poner":1740,"▁será":1741,"▁Ju":1742,"quier":1743,"tadas":1744,"rir":1745,"▁TO":1746,"val":1747,"▁are":1748,"añ":1749,"▁tor":1750,"vil":1751,"▁juga":1752,"▁amigo":1753,"▁amar":1754,"unque":1755,"itos":1756,"bil":1757,"▁Así":1758,"▁pul":1759,"ks":1760,"▁desa":1761,"eja":1762,"▁familia":1763,"elo":1764,"▁Lu":1765,"ientras":1766,"antes":1767,"▁din":1768,"▁él":1769,"▁corona":1770,"ticia":1771,"▁Th":1772,"y.":1773,"ual":1774,"ción.":1775,"▁lib":1776,"▁morado":1777,"izo":1778,"IL":1779,"▁comi":1780,"▁cier":1781,"▁direc":1782,"▁ale":1783,"▁tenemos":1784,"bación":1785,"▁social":1786,"dades":1787,"eral":1788,"ka":1789,"ura":1790,"▁'":1791,"▁Bar":1792,"ior":1793,"▁lugar":1794,"ua":1795,"▁[":1796,"▁15":1797,"▁segun":1798,"▁len":1799,"▁veo":1800,"▁dif":1801,"olu":1802,"tá":1803,"▁*":1804,"▁ag":1805,"▁cri":1806,"\",":1807,"mor":1808,"▁encan":1809,"tedes":1810,"▁medi":1811,"yo":1812,"hat":1813,"▁compar":1814,"ital":1815,"▁siento":1816,"▁ade":1817,"port":1818,"▁Ahora":1819,"▁by":1820,"▁Estoy":1821,"demos":1822,"▁Mad":1823,"osa":1824,"icas":1825,"▁partido":1826,"▁elec":1827,"▁/":1828,"▁guiñando":1829,"▁enten":1830,"▁informa":1831,"tru":1832,"llas":1833,"▁esos":1834,"bas":1835,"▁ning":1836,"ss":1837,"▁HA":1838,"chos":1839,"illo":1840,"▁triste":1841,"▁pra":1842,"▁nor":1843,"▁invi":1844,"eta":1845,"▁wh":1846,"▁bab":1847,"▁não":1848,"op":1849,"▁bril":1850,"▁ví":1851,"tados":1852,"▁pueden":1853,"▁:(":1854,"ción,":1855,"ira":1856,"▁primera":1857,"▁mayor":1858,"▁puta":1859,"▁¿Q":1860,"▁deber":1861,"▁tro":1862,"illa":1863,"entar":1864,"rup":1865,"▁12":1866,"▁volver":1867,"guen":1868,"▁hombre":1869,"idos":1870,"ich":1871,"ord":1872,"▁pien":1873,"fi":1874,"ísi":1875,"eet":1876,"tamente":1877,"all":1878,"▁your":1879,"ers":1880,"▁cl":1881,"mm":1882,"lica":1883,"▁!!!":1884,"▁perd":1885,"▁otros":1886,"bles":1887,"▁públ":1888,"▁horas":1889,"▁ali":1890,"▁Espa":1891,"jal":1892,"ty":1893,"sión":1894,"▁presidente":1895,"▁auto":1896,"tua":1897,"amp;":1898,"tima":1899,"▁Cor":1900,"ting":1901,"▁+":1902,"▁hizo":1903,"▁vic":1904,"para":1905,"▁Ser":1906,"▁RE":1907,"▁Ni":1908,"RI":1909,"lando":1910,"eros":1911,"▁pueblo":1912,"▁AL":1913,"▁sólo":1914,"▁IN":1915,"▁notas":1916,"▁ben":1917,"▁podr":1918,"▁Ta":1919,"▁gana":1920,"▁tarde":1921,"▁haber":1922,"virus":1923,"▁respe":1924,"▁POR":1925,"▁produ":1926,"bado":1927,"▁encon":1928,"▁Tw":1929,"▁fotos":1930,"▁tipo":1931,"▁LO":1932,"t.":1933,"mien":1934,"ear":1935,"▁llega":1936,"▁amiga":1937,"▁llama":1938,"▁defen":1939,"▁pap":1940,"haha":1941,"▁rela":1942,"ial":1943,"▁sigue":1944,"▁cosa":1945,"▁sido":1946,"▁muer":1947,"cía":1948,"óx":1949,"▁Pues":1950,"cri":1951,"gando":1952,"entena":1953,"cis":1954,"▁tienes":1955,"▁asi":1956,"brando":1957,"▁mos":1958,"▁Bo":1959,"▁Cre":1960,"▁cambi":1961,"▁chispas":1962,"▁\"E":1963,"▁viene":1964,"cido":1965,"▁deb":1966,"ándo":1967,"US":1968,"▁DI":1969,"▁digo":1970,"duca":1971,"▁lindo":1972,"uso":1973,"te.":1974,"&gt;":1975,"sab":1976,"ook":1977,"▁profes":1978,"▁SI":1979,"▁je":1980,"fas":1981,"pro":1982,"▁Ra":1983,"▁loco":1984,"EM":1985,"▁espe":1986,"▁muchos":1987,"▁lengua":1988,"mentos":1989,"▁cui":1990,"▁llegar":1991,"▁11":1992,"fru":1993,"dió":1994,"▁br":1995,"dica":1996,"ÓN":1997,"▁Li":1998,"eno":1999,"ció":2000,"▁estado":2001,"▁apar":2002,"y,":2003,"▁tomar":2004,"▁balón":2005,"éis":2006,"▁raz":2007,"▁ele":2008,"▁difer":2009,"▁prop":2010,"ícu":2011,"migo":2012,"▁apren":2013,"▁dicen":2014,"ant":2015,"▁habla":2016,"▁Ne":2017,"comp":2018,"▁Fa":2019,"te,":2020,"▁nar":2021,"▁había":2022,"ye":2023,"▁único":2024,"ii":2025,"▁PAR":2026,"▁publ":2027,"▁pulgar":2028,"▁brillante":2029,"▁bel":2030,"tina":2031,"▁ante":2032,"▁cur":2033,"cul":2034,"▁minu":2035,"kk":2036,"cip":2037,"ió":2038,"eti":2039,"▁sho":2040,"▁gas":2041,"▁dinero":2042,"▁ustedes":2043,"▁espera":2044,"▁sueño":2045,"▁imag":2046,"▁MI":2047,"izar":2048,"▁dios":2049,"▁celebrando":2050,"hh":2051,"vía":2052,"▁Cas":2053,"▁cru":2054,"ollow":2055,"fo":2056,"UI":2057,"tri":2058,"LE":2059,"▁cualquier":2060,"▁casi":2061,"JAJAJA":2062,"imada":2063,"▁aten":2064,"▁suf":2065,"▁Qu":2066,"▁Pres":2067,"esti":2068,"rante":2069,"▁Tengo":2070,"▁like":2071,"jalá":2072,"▁visto":2073,"pero":2074,"ál":2075,"ys":2076,"▁palab":2077,"til":2078,"▁estudi":2079,"cie":2080,"▁muchas":2081,"▁empres":2082,"▁aún":2083,"col":2084,"té":2085,"mingo":2086,"▁cuarentena":2087,"▁Eso":2088,"CH":2089,"▁paso":2090,"▁pasado":2091,"▁luego":2092,"rados":2093,"▁2020":2094,"▁tras":2095,"▁interes":2096,"▁camb":2097,"▁desan":2098,"yec":2099,"gía":2100,"▁España":2101,"▁nosotros":2102,"ches":2103,"itas":2104,"▁gru":2105,"gida":2106,"▁Quiero":2107,"▁mad":2108,"king":2109,"lo.":2110,"▁$":2111,"▁Pre":2112,"▁18":2113,"▁amb":2114,"uro":2115,"▁che":2116,"vin":2117,"▁ley":2118,"▁quieren":2119,"▁Pe":2120,"▁ej":2121,"tis":2122,"▁progra":2123,"menta":2124,"▁Jo":2125,"▁musicales":2126,"▁oscu":2127,"▁He":2128,"▁estás":2129,"▁Venezuela":2130,"▁jugar":2131,"dida":2132,"▁Man":2133,"▁not":2134,"aria":2135,"▁dol":2136,"▁levantadas":2137,"▁&amp;":2138,"ell":2139,"anto":2140,"▁ur":2141,"▁desanimada":2142,"▁mientras":2143,"▁love":2144,"10":2145,"▁comple":2146,"DI":2147,"LO":2148,"ula":2149,"mara":2150,"ini":2151,"▁Do":2152,"▁liber":2153,"DE":2154,"ciales":2155,"▁sex":2156,"pm":2157,"▁quedar":2158,"▁encu":2159,"▁em":2160,"▁lab":2161,"▁hue":2162,"LA":2163,"▁vir":2164,"tel":2165,"▁beb":2166,"▁Tu":2167,"▁acuerdo":2168,"▁come":2169,"vidad":2170,"▁Nos":2171,"▁was":2172,"lo,":2173,"▁LOS":2174,"30":2175,"▁México":2176,"▁colo":2177,"▁have":2178,"DA":2179,"fil":2180,"▁ol":2181,"mano":2182,"onces":2183,"▁TE":2184,"▁mucha":2185,"▁wor":2186,"▁Todo":2187,"cn":2188,"▁pensar":2189,"▁100":2190,"▁covid":2191,"idades":2192,"▁tema":2193,"ry":2194,"▁tenía":2195,"▁aunque":2196,"▁esas":2197,"▁empez":2198,"gó":2199,"jes":2200,"▁um":2201,"ase":2202,"▁Val":2203,"▁millones":2204,"rom":2205,"▁enco":2206,"▁COM":2207,"▁\"L":2208,"'t":2209,"est":2210,"wn":2211,"dez":2212,"▁camin":2213,"▁coronavirus":2214,"ood":2215,"▁hici":2216,"▁nuestros":2217,"▁Madrid":2218,"tencia":2219,"▁ru":2220,"▁agua":2221,"gado":2222,"dos.":2223,"▁pod":2224,"▁posi":2225,"▁Son":2226,"lub":2227,"▁recor":2228,"▁mejores":2229,"▁Porque":2230,"▁mé":2231,"▁próx":2232,"gre":2233,"inos":2234,"pec":2235,"▁caso":2236,"▁corrup":2237,"▁problema":2238,"▁misma":2239,"▁alto":2240,"dial":2241,"ps":2242,"No":2243,"cios":2244,"▁romp":2245,"▁Vi":2246,"▁lado":2247,"vent":2248,"HAHA":2249,"yas":2250,"▁verde":2251,"▁polic":2252,"▁iz":2253,"▁felici":2254,"▁hombros":2255,"▁abo":2256,"▁inten":2257,"ñas":2258,"▁negro":2259,"▁mujeres":2260,"▁manera":2261,"▁Da":2262,"▁calle":2263,"▁ref":2264,"asta":2265,"▁but":2266,"▁30":2267,"AB":2268,"▁disfru":2269,"▁sale":2270,"ix":2271,"gia":2272,"zas":2273,"▁mono":2274,"▁tri":2275,"▁serv":2276,"icial":2277,"▁sino":2278,"▁ayud":2279,"don":2280,"▁cho":2281,"ght":2282,"iden":2283,"▁one":2284,"▁sh":2285,"▁mor":2286,"day":2287,"▁prin":2288,"cado":2289,"▁comida":2290,"▁¿C":2291,"▁blo":2292,"▁cá":2293,"ar,":2294,"diendo":2295,"▁viern":2296,"▁!!":2297,"ocu":2298,"▁Twitter":2299,"▁Ho":2300,"ERO":2301,"ard":2302,"▁vivir":2303,"▁hago":2304,"▁compañ":2305,"tos,":2306,"▁iba":2307,"gal":2308,"rada":2309,"usa":2310,"tamos":2311,"igh":2312,"▁resul":2313,"▁entr":2314,"bla":2315,"▁et":2316,"cor":2317,"▁encogida":2318,"▁fir":2319,"ung":2320,"▁necesita":2321,"bal":2322,"▁tele":2323,"▁ayer":2324,"▁Mo":2325,"▁unas":2326,"▁agu":2327,"▁bro":2328,"▁reco":2329,"▁Hola":2330,"ick":2331,"ar.":2332,"▁bor":2333,"▁due":2334,"▁odio":2335,"▁peque":2336,"ens":2337,"▁opin":2338,"tivos":2339,"gü":2340,"tiendo":2341,"▁vie":2342,"▁mamá":2343,"▁Sin":2344,"▁nivel":2345,"demia":2346,"A.":2347,"▁puedes":2348,"▁You":2349,"▁sig":2350,"zos":2351,"iod":2352,"ional":2353,"▁oscuro":2354,"▁importante":2355,"▁victoria":2356,"gio":2357,"▁quién":2358,"▁Siempre":2359,"st":2360,"tur":2361,"▁tapa":2362,"▁cel":2363,"▁agra":2364,"amo":2365,"▁escuchar":2366,"cima":2367,"unes":2368,"▁conse":2369,"▁comprar":2370,":00":2371,"iado":2372,"▁2019":2373,"▁ama":2374,"tos.":2375,"uu":2376,"▁lleva":2377,"ticos":2378,"▁enf":2379,"▁inte":2380,"▁seguro":2381,"pres":2382,"URL":2383,"▁ases":2384,"▁just":2385,"▁ren":2386,"oco":2387,"iencia":2388,"dos,":2389,"▁nota":2390,"e.":2391,"▁up":2392,"▁lar":2393,"▁from":2394,"▁out":2395,"cono":2396,"▁vale":2397,"▁grandes":2398,"▁mtvla":2399,"▁tui":2400,"▁pier":2401,"▁sentir":2402,"▁CU":2403,"▁sabes":2404,"▁tres":2405,"▁gato":2406,"▁chin":2407,"▁consi":2408,"▁Gu":2409,"diante":2410,"e,":2411,"▁total":2412,"dado":2413,"▁educa":2414,"▁bail":2415,"▁14":2416,"▁capa":2417,"▁gafas":2418,"mun":2419,"▁babeando":2420,"▁Mon":2421,"m.":2422,"dí":2423,"▁fami":2424,"uld":2425,"▁Mor":2426,"▁Sa":2427,"▁proyec":2428,"IEN":2429,"▁dur":2430,"▁mensa":2431,"lado":2432,"▁meses":2433,"dy":2434,"▁tweet":2435,"▁siendo":2436,"▁enfer":2437,"▁Rec":2438,"gel":2439,"tia":2440,"▁Solo":2441,"tigo":2442,"▁espero":2443,"cra":2444,"▁confeti":2445,"ong":2446,"cidad":2447,"leaños":2448,"▁actual":2449,"▁funcion":2450,"▁recu":2451,"▁realidad":2452,"▁preocu":2453,"▁Más":2454,"ciente":2455,"▁24":2456,"▁entiendo":2457,"▁prem":2458,"▁aprobación":2459,"▁hijo":2460,"GO":2461,"▁juego":2462,"▁trabaja":2463,"▁viernes":2464,"▁new":2465,"ko":2466,"IA":2467,"▁entra":2468,"▁perfil":2469,"▁domingo":2470,"ecer":2471,"ría":2472,"▁algún":2473,"▁pende":2474,"▁ganar":2475,"▁CO":2476,"▁cris":2477,"mple":2478,"ies":2479,"her":2480,"inas":2481,"▁Ins":2482,"▁art":2483,"▁conmigo":2484,"▁exper":2485,"▁tur":2486,"▁programa":2487,"▁radiante":2488,"▁Creo":2489,"18":2490,"ip":2491,"▁nombre":2492,"▁Vamos":2493,"▁pl":2494,"▁lit":2495,"▁Gran":2496,"fono":2497,"▁Neces":2498,"aña":2499,"▁información":2500,"uestra":2501,"▁cambio":2502,"ese":2503,"▁dio":2504,"ñar":2505,"▁recib":2506,"rea":2507,"▁cla":2508,"▁mús":2509,"▁argentina":2510,"▁roto":2511,"▁niños":2512,"▁viendo":2513,"sos":2514,"▁pone":2515,"▁sería":2516,"uncia":2517,"▁gar":2518,"▁acá":2519,"▁escri":2520,"▁aque":2521,"▁fiesta":2522,"▁perfec":2523,"▁señor":2524,"▁int":2525,"▁il":2526,"▁Can":2527,"▁Feliz":2528,"▁some":2529,"▁grupo":2530,"quierda":2531,"taron":2532,"▁paz":2533,"▁estrellas":2534,"▁cumpleaños":2535,"▁exis":2536,"▁tempora":2537,"▁ago":2538,"qué":2539,"▁futu":2540,"▁more":2541,"▁demás":2542,"▁Soy":2543,"▁top":2544,"▁demas":2545,"▁política":2546,"▁prote":2547,"▁13":2548,"ang":2549,"▁pq":2550,"mero":2551,"▁Don":2552,"▁saben":2553,"▁leer":2554,"▁repres":2555,"▁cues":2556,"▁haga":2557,"▁ayuda":2558,"ican":2559,"▁usted":2560,"CA":2561,"▁nacional":2562,"ificación":2563,"▁razón":2564,"▁trabajar":2565,"▁entonces":2566,"cimiento":2567,"▁situa":2568,"▁abrazando":2569,"▁importa":2570,"güen":2571,"▁policía":2572,"▁Dis":2573,"▁MU":2574,"▁durante":2575,"▁serio":2576,"atro":2577,"▁tendr":2578,"lt;":2579,"▁llorar":2580,"▁cerrados":2581,"▁Nunca":2582,"ex":2583,"▁ever":2584,"▁hos":2585,"▁gritando":2586,"taría":2587,"▁emb":2588,"dora":2589,"▁expres":2590,"▁sola":2591,"vés":2592,"mando":2593,"▁organ":2594,"▁és":2595,"▁suerte":2596,"▁arre":2597,"tación":2598,"▁ton":2599,"▁hijos":2600,"EE":2601,"▁extraño":2602,"pre":2603,"▁We":2604,"▁conver":2605,"▁especial":2606,"▁sacar":2607,"▁mira":2608,"▁amarillo":2609,"▁17":2610,"▁16":2611,"IT":2612,"ire":2613,"ms":2614,"tagra":2615,"▁pron":2616,"▁wa":2617,"udo":2618,"vesti":2619,"▁necesito":2620,"▁Colo":2621,"▁period":2622,"▁desper":2623,"ki":2624,"▁Buenos":2625,"ça":2626,"▁human":2627,"icia":2628,"▁sá":2629,"▁Cal":2630,"▁menti":2631,"▁escrib":2632,"ifica":2633,"▁tamp":2634,"▁vaya":2635,"inal":2636,"ite":2637,"udos":2638,"d.":2639,"▁normal":2640,"▁viol":2641,"▁pelícu":2642,"▁tir":2643,"ticas":2644,"▁Cha":2645,"▁Ba":2646,"quiera":2647,"▁Ac":2648,"AT":2649,"iso":2650,"▁izquierda":2651,"jada":2652,"ónde":2653,"▁símb":2654,"portun":2655,"▁SU":2656,"▁play":2657,"gada":2658,"▁creer":2659,"▁fil":2660,"▁encima":2661,"ró":2662,"▁encanta":2663,"ñón":2664,"rump":2665,"ity":2666,"▁:)":2667,"▁no,":2668,"▁pagar":2669,"▁Todos":2670,"ición":2671,"▁haya":2672,"▁will":2673,"ENTE":2674,"▁DEL":2675,"▁Ver":2676,"▁bts":2677,"▁AN":2678,"ADO":2679,"▁É":2680,"▁what":2681,"▁través":2682,"ioridad":2683,"▁perder":2684,"▁ata":2685,"▁permi":2686,"mó":2687,"ador":2688,"EC":2689,"▁Pol":2690,"▁personal":2691,"▁hubi":2692,"ág":2693,"▁Fran":2694,"ust":2695,"▁Ale":2696,"▁españ":2697,"▁gor":2698,"dó":2699,"▁contro":2700,"▁Min":2701,"▁coment":2702,"▁perro":2703,"usión":2704,"óm":2705,"▁dec":2706,"▁fá":2707,"▁serie":2708,"▁demo":2709,"▁ges":2710,"▁Tra":2711,"▁wo":2712,"▁famili":2713,"ror":2714,"▁club":2715,"ia,":2716,"dito":2717,"▁incre":2718,"▁venezuela":2719,"▁Res":2720,"▁pobre":2721,"▁Muy":2722,"▁I'":2723,"▁otras":2724,"▁llevar":2725,"▁Or":2726,"▁ejemp":2727,"▁buenos":2728,"pan":2729,"▁fra":2730,"OY":2731,"▁música":2732,"▁\"S":2733,"▁Inter":2734,"ila":2735,"▁mala":2736,"▁sur":2737,"▁1.":2738,"▁vivo":2739,"▁partici":2740,"▁puer":2741,"-19":2742,"▁pena":2743,"▁abier":2744,"▁chu":2745,"now":2746,"▁tenga":2747,"▁Gobierno":2748,"IO":2749,"cito":2750,"▁punto":2751,"dal":2752,"▁tampoco":2753,"▁EST":2754,"▁canción":2755,"▁ves":2756,"▁precio":2757,"oso":2758,"dera":2759,"▁edi":2760,"▁guar":2761,"▁sigo":2762,"pido":2763,"MA":2764,"▁expl":2765,"▁contin":2766,"embre":2767,"ivers":2768,"▁200":2769,"▁gua":2770,"güenza":2771,"ancia":2772,"▁botón":2773,"óg":2774,"eras":2775,"▁dé":2776,"▁tre":2777,"cla":2778,"▁difí":2779,"▁alguna":2780,"▁cabre":2781,"▁uma":2782,"▁Cómo":2783,"▁they":2784,"▁dicho":2785,"▁podemos":2786,"▁Juan":2787,"ENT":2788,"▁cañón":2789,"▁idea":2790,"▁VI":2791,"▁mara":2792,"trás":2793,"▁Pri":2794,"▁primero":2795,"▁PARA":2796,"▁sele":2797,"▁evi":2798,"icios":2799,"▁Aquí":2800,"▁tranqui":2801,"▁pandemia":2802,"ísimo":2803,"▁Á":2804,"▁responsab":2805,"▁prue":2806,"▁Aca":2807,"▁orgu":2808,"puesta":2809,"▁cámara":2810,"ANDO":2811,"2020":2812,"▁Hab":2813,"▁get":2814,"▁depor":2815,"ciar":2816,"▁meu":2817,"▁Pue":2818,"▁cuernos":2819,"ticias":2820,"pren":2821,"RES":2822,"▁culpa":2823,"cando":2824,"▁bur":2825,"▁bu":2826,"rera":2827,"arro":2828,"bilidad":2829,"▁nu":2830,"▁mais":2831,"▁oportun":2832,"▁apoyo":2833,"▁bb":2834,"JS":2835,"▁plata":2836,"istra":2837,"ack":2838,"▁todavía":2839,"▁flor":2840,"▁anti":2841,"ink":2842,"▁¿Qué":2843,"▁conta":2844,"▁contigo":2845,"▁Desde":2846,"▁incl":2847,"▁now":2848,"are":2849,"▁25":2850,"vista":2851,"bro":2852,".000":2853,"miendo":2854,"▁compro":2855,"dios":2856,"▁peop":2857,"▁Fe":2858,"ctu":2859,"TS":2860,"▁linda":2861,"▁Men":2862,"ok":2863,"▁sir":2864,"del":2865,"▁junto":2866,"ron":2867,"z,":2868,"ist":2869,"▁log":2870,"▁minutos":2871,"ítu":2872,"▁pelotu":2873,"▁último":2874,"llos":2875,"▁fueron":2876,"▁Argentina":2877,"la,":2878,"▁pasó":2879,"▁anda":2880,"ct":2881,"▁21":2882,"▁vs":2883,"▁conocer":2884,"▁ps":2885,"VID":2886,"ld":2887,"▁people":2888,"▁orden":2889,"▁dije":2890,"MO":2891,"ins":2892,"▁libre":2893,"▁cabreada":2894,"▁¿P":2895,"▁YO":2896,"▁Ojalá":2897,"▁glo":2898,"▁payas":2899,"und":2900,"jando":2901,"▁princip":2902,"▁toma":2903,"ra.":2904,"rible":2905,"▁movi":2906,"▁corr":2907,"▁investi":2908,"▁ano":2909,"▁quienes":2910,"sidad":2911,"pez":2912,"tera":2913,"▁entender":2914,"ía,":2915,"imos":2916,"▁puño":2917,"CIÓN":2918,"▁nego":2919,"ind":2920,"mientos":2921,"ia.":2922,"▁inde":2923,"ór":2924,"▁buenas":2925,"ess":2926,"▁follow":2927,"▁futuro":2928,"▁acomp":2929,"▁enamo":2930,"ans":2931,"▁about":2932,"▁clase":2933,"tancia":2934,"▁lunes":2935,"▁palabras":2936,"quer":2937,"▁debería":2938,"▁abs":2939,"▁quieres":2940,"gencia":2941,"▁cole":2942,"▁fui":2943,"▁única":2944,"aro":2945,"mba":2946,"▁senti":2947,"▁xd":2948,"ra,":2949,"▁pren":2950,"▁Lle":2951,"▁presenta":2952,"▁Pla":2953,"icip":2954,"érica":2955,"ADA":2956,"io,":2957,"▁tamb":2958,"▁justicia":2959,"duro":2960,"ser":2961,"▁chi":2962,"▁mundial":2963,"way":2964,"▁Mis":2965,"▁pedir":2966,"jan":2967,"▁sabor":2968,"▁ign":2969,"▁acti":2970,"),":2971,"▁Mun":2972,"▁Jos":2973,"▁última":2974,"mbo":2975,"▁infor":2976,"▁lpm":2977,"▁50":2978,"Es":2979,"la.":2980,"aaa":2981,"ef":2982,"ezol":2983,"t,":2984,"▁Hace":2985,"▁cuerpo":2986,"▁AR":2987,"▁Pas":2988,"chando":2989,"▁mic":2990,"ther":2991,"▁Nue":2992,"▁Hu":2993,"▁regal":2994,"▁TH":2995,"▁interna":2996,"▁novio":2997,"▁regres":2998,"▁\"C":2999,"arias":3000,"▁sacando":3001,"▁hablando":3002,"istema":3003,"▁dentro":3004,"▁calor":3005,"▁fácil":3006,"▁Nacional":3007,"▁posible":3008,"▁day":3009,"▁verificación":3010,"▁sta":3011,"▁autor":3012,"dencia":3013,"ización":3014,"hy":3015,"▁cansa":3016,"▁cine":3017,"▁Ci":3018,"uir":3019,"▁mue":3020,"io.":3021,"▁algunos":3022,"guay":3023,"▁recono":3024,"▁Necesito":3025,"UL":3026,"▁Col":3027,"das.":3028,"tener":3029,"▁libro":3030,"▁pesso":3031,"▁conci":3032,"▁á":3033,"▁querer":3034,"▁pase":3035,"▁entien":3036,"arse":3037,"▁Bueno":3038,"▁etc":3039,"▁guer":3040,"▁radio":3041,"ienen":3042,"ING":3043,"tt":3044,"2019":3045,"book":3046,"▁dig":3047,"▁gi":3048,"▁vídeo":3049,"21":3050,"▁LE":3051,"▁cent":3052,"ía.":3053,"voca":3054,"▁nú":3055,"m,":3056,"▁indi":3057,"▁bonito":3058,"▁estrella":3059,"▁derecho":3060,"▁confir":3061,"das,":3062,"ppy":3063,"bel":3064,"cto":3065,"▁difícil":3066,"▁media":3067,"▁Vo":3068,"▁sean":3069,"▁Mañana":3070,"ish":3071,"▁existe":3072,"▁abrazo":3073,"▁Colombia":3074,"▁haces":3075,"bu":3076,"▁Les":3077,"cir":3078,"▁Hasta":3079,"▁tier":3080,"net":3081,"▁temporada":3082,"▁know":3083,"isi":3084,"▁CH":3085,"▁no?":3086,"▁time":3087,"celente":3088,"my":3089,"▁dejo":3090,"▁Estado":3091,"▁campe":3092,"VE":3093,"▁lí":3094,"MP":3095,"fica":3096,"▁seguridad":3097,"▁luz":3098,"ques":3099,"greso":3100,"▁alta":3101,"▁lis":3102,"vera":3103,"▁cambiar":3104,"▁ense":3105,"▁morir":3106,"▁diga":3107,"▁anim":3108,"▁pare":3109,"▁esperando":3110,"CO":3111,"CION":3112,"▁premios":3113,"▁Sí":3114,"mena":3115,"ecen":3116,"&gt;&gt;":3117,"▁bra":3118,"ieron":3119,"▁servicio":3120,"dico":3121,"▁dolor":3122,"▁casos":3123,"gente":3124,"▁juntos":3125,"▁hermosa":3126,"eramente":3127,"yy":3128,"▁MA":3129,"▁buscar":3130,"▁envi":3131,"▁gro":3132,"▁twitter":3133,"▁rico":3134,"▁Her":3135,"▁PA":3136,"▁diciendo":3137,"▁Mal":3138,"▁eh":3139,"▁US":3140,"▁hemos":3141,"▁llamar":3142,"▁Os":3143,"▁Comp":3144,"i,":3145,"▁show":3146,"au":3147,"▁usar":3148,"anza":3149,"▁rá":3150,"▁JAJAJA":3151,"ooo":3152,"▁vergüenza":3153,"▁encontrar":3154,"▁22":3155,"sion":3156,"▁acaba":3157,"▁gira":3158,"▁vec":3159,"▁sign":3160,"arme":3161,"rasil":3162,"▁kkk":3163,"▁agrade":3164,"▁dias":3165,"quito":3166,"▁Mes":3167,"▁das":3168,"▁pedo":3169,"fico":3170,"ices":3171,"▁exa":3172,"▁moles":3173,"▁Cada":3174,"íble":3175,"ceso":3176,"▁muerte":3177,"▁Sab":3178,"▁acep":3179,"12":3180,"▁ul":3181,"gles":3182,"▁cuent":3183,"rando":3184,"▁cir":3185,"▁EX":3186,"▁der":3187,"UR":3188,"▁Ese":3189,"go,":3190,"▁deses":3191,"▁\"A":3192,"isión":3193,"▁voz":3194,"▁nada,":3195,"dita":3196,"▁hermoso":3197,"▁encuent":3198,"▁libertad":3199,"▁priva":3200,"▁contes":3201,"▁got":3202,"▁español":3203,"▁&lt;":3204,"▁crisis":3205,"▁dando":3206,"▁redes":3207,"▁problemas":3208,"▁Be":3209,"IR":3210,"ados":3211,"▁alma":3212,"▁bien,":3213,"▁Real":3214,"▁cerve":3215,"▁tel":3216,"▁solu":3217,"▁superioridad":3218,"▁vida.":3219,"▁hice":3220,"▁toca":3221,"▁podría":3222,"▁bir":3223,"▁chile":3224,"▁nada.":3225,"deos":3226,"ep":3227,"▁ignor":3228,"BA":3229,"▁cumple":3230,"▁if":3231,"thing":3232,"tero":3233,"rió":3234,"▁chan":3235,"▁Bol":3236,"▁mater":3237,"este":3238,"tagram":3239,"▁estan":3240,"ác":3241,"▁sábado":3242,"sas":3243,"▁payaso":3244,"▁lista":3245,"▁só":3246,"▁bloque":3247,"quen":3248,"cebook":3249,"▁copa":3250,"ento":3251,"ção":3252,"terio":3253,"▁2.":3254,"▁bajo":3255,"▁Cris":3256,"▁Pu":3257,"▁fon":3258,"GA":3259,"▁agar":3260,"▁Am":3261,"▁asco":3262,"pital":3263,"tas,":3264,"▁cien":3265,"▁revés":3266,"▁trata":3267,"▁ningún":3268,"▁For":3269,"▁valor":3270,"▁má":3271,"▁deba":3272,"▁covid19":3273,"ém":3274,"▁Ter":3275,"▁PER":3276,"▁fuerza":3277,"▁Día":3278,"torios":3279,"▁españa":3280,"▁av":3281,"cin":3282,"▁err":3283,"▁\"T":3284,"▁queremos":3285,"▁méxico":3286,"▁ado":3287,"▁obli":3288,"▁explo":3289,"▁cama":3290,"tantes":3291,"úper":3292,"▁Mas":3293,"UU":3294,"▁hombres":3295,"▁público":3296,"rio":3297,"orna":3298,"▁doy":3299,"▁nuestras":3300,"▁LAS":3301,"▁than":3302,"ciedad":3303,"tral":3304,"gamos":3305,"▁Cons":3306,"em":3307,"▁realmente":3308,"▁\"El":3309,"tador":3310,"▁simple":3311,"▁\"M":3312,"▁pensando":3313,"jsjs":3314,"▁sentido":3315,"▁eno":3316,"▁creciente":3317,"▁afec":3318,"rate":3319,"▁jugador":3320,"▁fran":3321,"sar":3322,"conóm":3323,"table":3324,"orn":3325,"▁quería":3326,"brar":3327,"▁dónde":3328,"iro":3329,"pol":3330,"▁Quien":3331,"▁vuelta":3332,"▁Muchas":3333,"conom":3334,"date":3335,"r.":3336,"gl":3337,"▁descu":3338,"▁abur":3339,"▁ayudar":3340,"visión":3341,"▁AS":3342,"▁mensaje":3343,"▁papá":3344,"▁sistema":3345,"11":3346,"▁aj":3347,"▁PU":3348,"▁violencia":3349,"▁every":3350,"OT":3351,"tran":3352,"tas.":3353,"▁contag":3354,"▁tanta":3355,"▁23":3356,"▁;":3357,"▁xq":3358,"▁our":3359,"▁Presidente":3360,"▁demasiado":3361,"taciones":3362,"▁comen":3363,"▁ou":3364,"art":3365,"▁mandar":3366,"ner":3367,"▁Del":3368,"▁Ben":3369,"▁Dan":3370,"▁Euro":3371,"▁limp":3372,"!!!.":3373,"torio":3374,"ído":3375,"▁2018":3376,"tino":3377,"▁when":3378,"istro":3379,"▁bailando":3380,"rez":3381,"▁fas":3382,"▁situación":3383,"▁Felici":3384,"▁lucha":3385,"▁mex":3386,"cina":3387,"▁dra":3388,"gación":3389,"ude":3390,"ft":3391,"▁desapro":3392,"ORA":3393,"▁vaca":3394,"▁\"P":3395,"▁sent":3396,"▁puntos":3397,"▁ocur":3398,"▁venezol":3399,"ología":3400,"▁busca":3401,"▁JA":3402,"aya":3403,"▁hicieron":3404,"▁Trump":3405,"▁//":3406,"▁Chile":3407,"▁verga":3408,"▁padre":3409,"▁acos":3410,"▁empezar":3411,"▁¿S":3412,"▁Espero":3413,"▁who":3414,"▁voto":3415,"▁avan":3416,"▁cuad":3417,"ales.":3418,"ull":3419,"tidad":3420,"▁euro":3421,"aste":3422,"▁hon":3423,"▁elecciones":3424,"ieza":3425,"eza":3426,"▁además":3427,"▁luna":3428,"▁ji":3429,"▁year":3430,"▁gal":3431,"▁fre":3432,"▁más.":3433,"ales,":3434,"tió":3435,"PA":3436,"▁siguen":3437,"ning":3438,"-0":3439,"▁vino":3440,"▁agotada":3441,"▁desarro":3442,"enas":3443,"dres":3444,"▁pregunta":3445,"▁40":3446,"san":3447,"15":3448,"▁sociales":3449,"tarme":3450,"▁bla":3451,"tili":3452,"ón,":3453,"▁segundo":3454,"▁Esa":3455,"itan":3456,"▁terminar":3457,"▁see":3458,"▁decep":3459,"torias":3460,"▁dispon":3461,"▁suel":3462,"▁&gt;":3463,"ju":3464,"▁xD":3465,"▁mó":3466,"able":3467,"▁DES":3468,"incu":3469,"▁saboreando":3470,"edad":3471,"tí":3472,"gran":3473,"▁respeto":3474,"▁duele":3475,"diente":3476,"▁té":3477,"▁vac":3478,"mente,":3479,"▁gesto":3480,"coles":3481,"gir":3482,"ré":3483,"▁Ti":3484,"▁económ":3485,"▁Alguien":3486,".\"":3487,"tural":3488,"hu":3489,"▁acer":3490,"▁hermano":3491,"▁pop":3492,"▁culo":3493,"▁niño":3494,"▁I'm":3495,"▁segunda":3496,"ecu":3497,"▁fut":3498,"▁herman":3499,"▁Jun":3500,"▁Is":3501,"▁darle":3502,"▁desaprobación":3503,"▁YA":3504,"mite":3505,"▁bola":3506,"▁esperar":3507,"zan":3508,"iva":3509,"▁diver":3510,"dente":3511,"▁sector":3512,"damos":3513,"▁noticias":3514,"▁liga":3515,"al.":3516,"▁gober":3517,"gura":3518,"▁cierto":3519,"▁seman":3520,"uno":3521,"▁mama":3522,"▁\"La":3523,"▁Igual":3524,"▁pasando":3525,"▁quiera":3526,"▁cin":3527,"▁virus":3528,"ses":3529,"▁llu":3530,"▁za":3531,"hora":3532,":30":3533,"hor":3534,"ket":3535,"▁atención":3536,"▁aqui":3537,"▁QUI":3538,"end":3539,"▁Luis":3540,"▁esté":3541,"▁momentos":3542,"O.":3543,"▁termina":3544,"▁reun":3545,"▁tem":3546,"▁jul":3547,"▁even":3548,"17":3549,"▁vida,":3550,"▁Us":3551,"uito":3552,"▁próximo":3553,"up":3554,"▁crea":3555,"▁cerca":3556,"me,":3557,"DOS":3558,"▁súper":3559,"▁meter":3560,"▁alcan":3561,"tivas":3562,"▁cli":3563,"▁candida":3564,"▁votar":3565,"lación":3566,"▁impos":3567,"▁Carlos":3568,"▁partidos":3569,"▁genera":3570,"▁signo":3571,"mera":3572,"▁pis":3573,"▁vuelve":3574,"▁Gen":3575,"eck":3576,"▁faz":3577,"celona":3578,"▁enter":3579,"▁cerveza":3580,"TR":3581,"tle":3582,"villa":3583,"▁fer":3584,"▁tapados":3585,"graf":3586,"▁acor":3587,"teo":3588,"▁entrar":3589,"▁gir":3590,"▁dado":3591,"▁amigas":3592,"▁diri":3593,"feo":3594,"▁AC":3595,"▁UNA":3596,"▁símbolo":3597,"▁sonro":3598,"▁viv":3599,"▁Gar":3600,"▁pienso":3601,"▁luces":3602,"▁deben":3603,"▁Está":3604,"50":3605,"▁promo":3606,"▁hambre":3607,"▁malo":3608,"▁rato":3609,"▁jueves":3610,"ugh":3611,"gon":3612,"yan":3613,"▁cuatro":3614,"▁puesto":3615,"▁tren":3616,"▁si,":3617,"▁how":3618,"ero,":3619,"ares":3620,"▁mascar":3621,"▁ener":3622,"dieron":3623,"dura":3624,"▁hubiera":3625,"dis":3626,"▁Du":3627,"▁stre":3628,"▁pueda":3629,"▁univer":3630,"▁acabo":3631,"▁fis":3632,"▁ejemplo":3633,"▁idio":3634,"mber":3635,"▁Bien":3636,"▁campaña":3637,"▁conten":3638,"▁CA":3639,"▁hagan":3640,"▁Desp":3641,"▁desespera":3642,"ete":3643,"mación":3644,"▁Estamos":3645,"ÍA":3646,"▁ok":3647,"▁proyecto":3648,"▁onda":3649,"\"..":3650,"▁aman":3651,"▁seu":3652,"▁contar":3653,"▁Emp":3654,"▁general":3655,"éndo":3656,"▁sociedad":3657,"▁camino":3658,"▁matar":3659,"▁Fern":3660,"top":3661,"▁preocupa":3662,"ach":3663,"▁allá":3664,"al,":3665,"ste":3666,"▁martes":3667,"bes":3668,"▁star":3669,"▁bebé":3670,"tán":3671,"▁Voy":3672,"ica,":3673,"▁silen":3674,"▁consegui":3675,"▁This":3676,"▁noches":3677,"▁centro":3678,"▁nie":3679,"▁JAJAJAJAJA":3680,"có":3681,"cracia":3682,"ni":3683,"▁obje":3684,"▁Ga":3685,"▁Jaja":3686,"▁ré":3687,"▁sonrojada":3688,"▁)":3689,"umen":3690,"PE":3691,"gor":3692,"▁seas":3693,"▁ahor":3694,"▁oportunidad":3695,"▁durmiendo":3696,"▁¿Y":3697,"▁Sol":3698,"▁mando":3699,"▁película":3700,"tarse":3701,"▁trofeo":3702,"▁manda":3703,"▁efec":3704,"fé":3705,"cida":3706,"▁imagen":3707,"▁Nada":3708,"▁good":3709,"▁produc":3710,"▁Quer":3711,"ero.":3712,"▁quedo":3713,"itch":3714,"▁fla":3715,"▁bi":3716,"IM":3717,"▁vive":3718,"lin":3719,"TER":3720,"▁Mira":3721,"berto":3722,"▁tenes":3723,"ric":3724,"▁prepara":3725,"miaw":3726,"▁Jul":3727,"▁demos":3728,"ight":3729,"bia":3730,"▁say":3731,"▁venir":3732,"icado":3733,"QUE":3734,"▁corre":3735,"VO":3736,"▁Au":3737,"▁merece":3738,"ions":3739,"▁sup":3740,"▁econom":3741,"▁ros":3742,"▁COVID":3743,"▁Ad":3744,"lidad":3745,"▁ár":3746,"gues":3747,"▁hija":3748,"CE":3749,"▁ninguna":3750,"nn":3751,"▁papel":3752,"▁beca":3753,"rito":3754,"co,":3755,"▁sabemos":3756,"rano":3757,"su":3758,"▁todo,":3759,"icion":3760,"bli":3761,"chi":3762,"▁sep":3763,"▁gusto":3764,"▁cerrado":3765,"ler":3766,"▁bastante":3767,"▁Pi":3768,"▁canal":3769,"!!.":3770,"▁dro":3771,"áis":3772,"▁opinión":3773,"▁vieja":3774,"▁color":3775,"andom":3776,"▁ESTA":3777,"ÁS":3778,"▁Fal":3779,"▁off":3780,"uestro":3781,"CIA":3782,"bres":3783,"menda":3784,"▁FA":3785,"▁según":3786,"▁rápido":3787,"▁derechos":3788,"▁sorpren":3789,"▁novia":3790,"▁tit":3791,"▁protes":3792,"▁tuvi":3793,"▁back":3794,"▁oficial":3795,"cheta":3796,"▁VER":3797,"▁Mer":3798,"CU":3799,"▁joven":3800,"rin":3801,"▁PS":3802,"▁partir":3803,"chez":3804,"GU":3805,"▁terror":3806,"▁eran":3807,"▁número":3808,"▁Fo":3809,"ga,":3810,"▁labor":3811,"▁Señ":3812,"▁viejo":3813,"▁pronto":3814,"▁bien.":3815,"zada":3816,"▁estudiar":3817,"▁esti":3818,"▁pequeño":3819,"curso":3820,"▁avis":3821,"▁pessoas":3822,"▁celular":3823,"▁far":3824,"volu":3825,"▁Mac":3826,"▁best":3827,"ph":3828,"El":3829,"▁Eu":3830,"▁char":3831,"▁noticia":3832,"▁any":3833,"▁nuevos":3834,"▁Jus":3835,"▁clases":3836,"me.":3837,"▁felicidad":3838,"eek":3839,"diciones":3840,"▁municip":3841,"cle":3842,"▁subir":3843,"line":3844,"▁minha":3845,"lease":3846,"respon":3847,"▁impres":3848,"▁duda":3849,"▁hermana":3850,"▁Tan":3851,"▁compartir":3852,"▁José":3853,"lix":3854,"▁no.":3855,"▁uso":3856,"▁musical":3857,"▁llen":3858,"cuador":3859,"ker":3860,"cê":3861,"▁Camp":3862,"ey":3863,"▁descan":3864,"RAN":3865,"▁opos":3866,"ica.":3867,"▁alivio":3868,"▁detal":3869,"▁¿A":3870,"▁recuer":3871,"▁Facebook":3872,"▁mente":3873,"▁Maduro":3874,"▁pele":3875,"▁regalo":3876,"▁salva":3877,"ón.":3878,"▁mtvmiaw":3879,"▁sec":3880,"an,":3881,"▁Fu":3882,"▁desapar":3883,"▁???":3884,"OOO":3885,"E.":3886,"▁foi":3887,"▁significa":3888,"▁Ab":3889,"▁It":3890,"xs":3891,"ille":3892,"ca,":3893,"▁local":3894,"▁May":3895,"fuer":3896,"▁tenido":3897,"▁chincheta":3898,"bum":3899,"▁team":3900,"▁adver":3901,"▁pat":3902,"▁atrás":3903,"▁TODO":3904,"puesto":3905,"▁Después":3906,"▁cumpl":3907,"▁levantada":3908,"AMOS":3909,"▁ropa":3910,"▁resto":3911,"iciente":3912,"▁Messi":3913,"▁cree":3914,"ítulo":3915,"▁profesional":3916,"▁aleg":3917,"JO":3918,"▁web":3919,"ilidad":3920,"ma,":3921,"▁lig":3922,"go.":3923,"▁telé":3924,"▁jamás":3925,"ving":3926,"16":3927,"▁mín":3928,"▁fras":3929,"▁jugadores":3930,"▁insta":3931,"▁gre":3932,"unt":3933,"pla":3934,"▁TU":3935,"▁live":3936,"▁ase":3937,"▁medidas":3938,"▁espec":3939,"de,":3940,"▁carrera":3941,"▁vacaciones":3942,"▁giratorios":3943,"▁LI":3944,"▁need":3945,"▁Imp":3946,"▁Tor":3947,"icana":3948,"▁cari":3949,"bamos":3950,"▁Toda":3951,"▁móvil":3952,"▁literal":3953,"ky":3954,"dd":3955,"nes":3956,"▁indepen":3957,"▁ka":3958,"▁vai":3959,"▁años,":3960,"▁correc":3961,"▁aire":3962,"▁decepcion":3963,"▁here":3964,"▁tambien":3965,"▁vemos":3966,"▁puto":3967,"▁tecn":3968,"▁increíble":3969,"izado":3970,"▁SER":3971,"zco":3972,"▁edad":3973,"▁niña":3974,"ctubre":3975,"▁futbol":3976,"▁=":3977,"▁señora":3978,"▁globo":3979,"▁golpe":3980,"▁aw":3981,"▁institu":3982,"▁pongo":3983,"porte":3984,"mpl":3985,"ará":3986,"▁todo.":3987,"▁apa":3988,"▁rosa":3989,"BI":3990,"▁cont":3991,"▁medios":3992,"▁creen":3993,"▁Gua":3994,"▁lín":3995,"▁respuesta":3996,"▁SO":3997,"▁manif":3998,"quis":3999,"▁New":4000,"▁hel":4001,"▁más,":4002,"ornada":4003,"▁dó":4004,"2.":4005,"▁ESTO":4006,"▁ON":4007,"▁cuanto":4008,"▁AH":4009,"▁colombia":4010,"▁Santa":4011,"▁QU":4012,"bió":4013,"cent":4014,"ustra":4015,"uras":4016,"ós":4017,"de.":4018,"▁And":4019,"UT":4020,"▁orto":4021,"▁exig":4022,"ally":4023,"▁repro":4024,"▁Mil":4025,"▁paci":4026,"inda":4027,"▁educación":4028,"II":4029,"▁apor":4030,"▁calidad":4031,"▁arran":4032,"▁vomi":4033,"ICA":4034,"▁Che":4035,"▁mayoría":4036,"▁lejos":4037,"▁eso,":4038,"3.":4039,"arte":4040,"▁Ob":4041,"yendo":4042,"▁Ros":4043,"como":4044,"▁BTS":4045,"▁disfrutar":4046,"icol":4047,"▁conven":4048,"rí":4049,"▁ponen":4050,"ings":4051,"▁viola":4052,"▁Entre":4053,"d,":4054,"▁cere":4055,"▁its":4056,"▁PRO":4057,"?!":4058,"▁datos":4059,"▁Je":4060,"▁político":4061,"▁ahre":4062,"▁utili":4063,"▁Claro":4064,"▁mismos":4065,"▁distin":4066,"▁dedo":4067,"▁cab":4068,"an.":4069,"▁blanca":4070,"▁libros":4071,"En":4072,"▁ejer":4073,"▁Ú":4074,"▁Ade":4075,"ándose":4076,"EZ":4077,"cola":4078,"▁their":4079,"▁aut":4080,"▁olvidar":4081,"▁prome":4082,"▁AMO":4083,"▁ojalá":4084,"cti":4085,"▁¡¡":4086,"▁(?":4087,"h,":4088,"pira":4089,"▁refer":4090,"▁abor":4091,"tito":4092,"za,":4093,"▁salió":4094,"▁juega":4095,"misión":4096,"terna":4097,"eres":4098,"▁atra":4099,"▁emple":4100,"▁imagin":4101,"▁Pal":4102,"▁viaje":4103,"▁feo":4104,"▁¡A":4105,"erto":4106,"▁3.":4107,"▁ofre":4108,"VA":4109,"▁militar":4110,"▁femin":4111,"zado":4112,"i.":4113,"▁También":4114,"▁Segu":4115,"▁vivi":4116,"▁Eres":4117,"mental":4118,"▁opera":4119,"anja":4120,"▁defender":4121,"iel":4122,"▁dejen":4123,"atch":4124,",.":4125,"▁because":4126,"▁Amo":4127,"ópez":4128,"▁éx":4129,"▁pareja":4130,"ANT":4131,"mu":4132,"▁Than":4133,"▁ep":4134,"IG":4135,"▁reac":4136,"gna":4137,"▁baja":4138,"▁kca":4139,"▁escucha":4140,"▁PO":4141,"día":4142,"▁mane":4143,"▁lluvia":4144,"▁red":4145,"▁jugando":4146,"▁bomb":4147,"▁recuerdo":4148,"▁teléfono":4149,"jun":4150,"VER":4151,"▁canciones":4152,"▁siguien":4153,"▁26":4154,"▁hin":4155,"itario":4156,"▁pais":4157,"▁dólar":4158,"▁humor":4159,"lash":4160,"buen":4161,"▁denun":4162,"tions":4163,"AAA":4164,"JAJAJ":4165,"▁want":4166,"▁On":4167,"▁mirar":4168,"▁habrá":4169,"▁secre":4170,"▁GRA":4171,"▁My":4172,"rido":4173,"icha":4174,"ulta":4175,"▁llev":4176,"ME":4177,"▁aga":4178,"taje":4179,"▁CAR":4180,"orge":4181,"▁COMO":4182,"▁apre":4183,"▁feel":4184,"▁pelig":4185,"▁unidos":4186,"▁cambia":4187,"▁evitar":4188,"ico,":4189,"▁l'":4190,"▁colec":4191,"▁mate":4192,"▁28":4193,"14":4194,"▁Mejor":4195,"▁orig":4196,"ma.":4197,"▁varios":4198,"▁duer":4199,"MOS":4200,"▁Im":4201,"▁respec":4202,"▁Pab":4203,"gle":4204,"▁aprender":4205,"▁esca":4206,"▁án":4207,"IZ":4208,"▁café":4209,"▁políticos":4210,"▁acuer":4211,"▁llegó":4212,"▁Nor":4213,"ICI":4214,"erta":4215,"▁¿Por":4216,"▁ido":4217,"▁comien":4218,"▁Ped":4219,"tín":4220,"▁ل":4221,"ducir":4222,"▁Ayer":4223,"▁constru":4224,"▁aprove":4225,"▁isso":4226,"mado":4227,"▁aso":4228,"▁fuck":4229,"tiembre":4230,"jen":4231,"▁expresión":4232,"▁impues":4233,"▁justo":4234,"▁llevo":4235,",,":4236,"kes":4237,"▁cra":4238,"mente.":4239,"▁bet":4240,"▁dese":4241,"▁27":4242,"sito":4243,"▁alcal":4244,"▁benef":4245,"▁inteli":4246,"▁anun":4247,"▁cae":4248,"EO":4249,"jeje":4250,"▁sabía":4251,"miso":4252,"flix":4253,"▁admi":4254,"▁refle":4255,"▁encuentro":4256,"▁gustaría":4257,"▁PUE":4258,"ku":4259,"▁hacerlo":4260,"▁Ru":4261,"▁Va":4262,"▁solid":4263,"▁esfuer":4264,"▁\"D":4265,"ny":4266,"▁empi":4267,"▁adelante":4268,"▁dieron":4269,"get":4270,"▁capital":4271,"▁No,":4272,"▁silencio":4273,"fiero":4274,"sen":4275,"▁años.":4276,"▁chil":4277,"▁Cara":4278,"z.":4279,"▁Jes":4280,"▁fecha":4281,"▁zona":4282,"hib":4283,"▁bru":4284,"▁dev":4285,"▁delincu":4286,"SS":4287,"óven":4288,"nt":4289,"▁llegue":4290,"▁aguan":4291,"▁deje":4292,"//":4293,"▁diferencia":4294,"▁inver":4295,"1.":4296,"▁mueca":4297,"IST":4298,"etflix":4299,"dé":4300,"▁cuba":4301,"▁tantas":4302,"▁empresa":4303,"▁palabra":4304,"▁&lt;3":4305,"iar":4306,"ding":4307,"▁maes":4308,"▁prepar":4309,"▁ries":4310,"▁Nadie":4311,"▁siente":4312,"▁marcha":4313,"▁aband":4314,"▁memo":4315,"▁algunas":4316,"za.":4317,"▁TEN":4318,"INA":4319,"▁cruz":4320,"▁lec":4321,"ista,":4322,"dando":4323,"▁happy":4324,"▁absolu":4325,"▁VID":4326,"▁tuit":4327,"▁esperamos":4328,"▁escribir":4329,"▁tiempos":4330,"▁despe":4331,"icano":4332,"▁López":4333,"▁Cos":4334,"▁cansada":4335,"▁vc":4336,"▁depen":4337,"▁saca":4338,"▁did":4339,"▁doble":4340,"▁tengan":4341,"▁caer":4342,"tores":4343,"▁colab":4344,"mán":4345,"co.":4346,"cara":4347,"▁At":4348,"▁sw":4349,"▁juro":4350,"▁¿T":4351,"▁rob":4352,"▁quedan":4353,"▁aun":4354,"fr":4355,"▁internacional":4356,"▁pide":4357,"▁inc":4358,"ure":4359,"terior":4360,"encias":4361,"ise":4362,"▁entrevista":4363,"till":4364,"▁Ap":4365,"▁fantas":4366,"ramos":4367,"▁dipu":4368,"▁acu":4369,"unda":4370,"▁escuela":4371,"int":4372,"▁ligeramente":4373,"▁hilo":4374,"▁bonita":4375,"▁enfada":4376,"▁madrid":4377,"▁ocu":4378,"turas":4379,"▁Covid":4380,"▁banda":4381,"ina,":4382,"uelo":4383,"ole":4384,"▁presiden":4385,"▁ke":4386,"▁rey":4387,"▁verano":4388,"▁ansi":4389,"▁repe":4390,"▁excla":4391,"cidos":4392,"▁dont":4393,"▁así,":4394,"ca.":4395,"SE":4396,"▁chicos":4397,"▁llena":4398,"onas":4399,"tale":4400,"▁mental":4401,"trando":4402,"sel":4403,"▁\"No":4404,"▁técn":4405,"▁estudio":4406,"▁empresas":4407,"▁cuan":4408,"▁imposible":4409,"ga.":4410,"▁seria":4411,"inho":4412,"▁Har":4413,"▁stream":4414,"▁tec":4415,"▁Barcelona":4416,"▁tuvo":4417,"▁maravil":4418,"▁você":4419,"▁cuán":4420,"▁make":4421,"▁naranja":4422,"▁been":4423,"▁padres":4424,"▁mel":4425,"mexico":4426,"▁experiencia":4427,"▁Bel":4428,"tilla":4429,"▁ala":4430,"gados":4431,"pita":4432,"PO":4433,"hats":4434,"ters":4435,"▁control":4436,"▁hacemos":4437,"▁caliente":4438,"ANA":4439,"ezo":4440,"40":4441,"ley":4442,"▁trabajando":4443,"ista.":4444,"tiv":4445,"ércoles":4446,"▁celebra":4447,"chan":4448,"▁over":4449,"▁pus":4450,"▁error":4451,"ime":4452,"▁recordar":4453,"talla":4454,"▁crí":4455,"▁siquiera":4456,"▁líder":4457,"lec":4458,"▁rt":4459,"▁cultura":4460,"▁only":4461,"uerto":4462,"▁THE":4463,"▁enga":4464,"▁disponible":4465,"▁país.":4466,"▁digan":4467,"ribu":4468,"zz":4469,"imin":4470,"▁Ami":4471,"▁gustan":4472,"▁exclamación":4473,"▁falle":4474,"ls":4475,"TRA":4476,"▁arro":4477,"▁sí,":4478,"▁bron":4479,"ro,":4480,"▁Gra":4481,"▁pensé":4482,"▁obra":4483,"5.":4484,"▁Ciudad":4485,"anti":4486,"ICO":4487,"▁preven":4488,"▁relación":4489,"▁basura":4490,"ico.":4491,"▁horrible":4492,"ulo":4493,"ículo":4494,"eran":4495,"ERA":4496,"▁países":4497,"olver":4498,"▁critic":4499,"▁\"H":4500,"2018":4501,"idad.":4502,"▁anal":4503,"▁peda":4504,"▁chor":4505,"▁puso":4506,"ose":4507,"▁democracia":4508,"▁mascarilla":4509,"▁explica":4510,"▁TODOS":4511,"▁Buenas":4512,"▁sirve":4513,"indo":4514,"7.":4515,"▁gratis":4516,"tivamente":4517,"▁recur":4518,"▁SAL":4519,"▁dejan":4520,"▁she":4521,"▁iden":4522,"▁im":4523,"queo":4524,"▁orgullo":4525,"▁emocion":4526,"▁semanas":4527,"▁leg":4528,"▁tá":4529,"▁Mientras":4530,"ak":4531,"▁desesperada":4532,"▁pasan":4533,"▁inicia":4534,"▁necesario":4535,"▁Saludos":4536,"gus":4537,"▁perdón":4538,"▁AP":4539,"▁despier":4540,"▁conoce":4541,"▁tuve":4542,"▁mitad":4543,"▁JAJAJAJAJAJAJAJA":4544,"iantina":4545,"eee":4546,"nas":4547,"▁pana":4548,"KK":4549,"▁suspen":4550,"▁Aunque":4551,"_de":4552,"AY":4553,"▁prensa":4554,"▁hojas":4555,"▁guerra":4556,"▁mío":4557,"ze":4558,"hs":4559,"▁quedó":4560,"▁fís":4561,"▁Ban":4562,"/0":4563,"13":4564,"▁agre":4565,"▁suce":4566,"▁salen":4567,"unta":4568,"CIAS":4569,"▁Ce":4570,"▁ellas":4571,"▁ud":4572,"▁recibir":4573,"ví":4574,"zó":4575,"▁Instagram":4576,"▁intent":4577,"wer":4578,"▁máx":4579,"▁descar":4580,"ming":4581,"▁contr":4582,"▁d'":4583,"zados":4584,"we":4585,"jul":4586,"ienes":4587,"▁Ri":4588,"▁hoy,":4589,"▁participa":4590,"▁tí":4591,"▁directo":4592,"▁jóven":4593,"ública":4594,"ánchez":4595,"_de_":4596,"▁dale":4597,"inha":4598,"▁er":4599,"▁día,":4600,"▁Super":4601,"onz":4602,"DAD":4603,"mos.":4604,"▁him":4605,"▁MAR":4606,"▁largo":4607,"ianza":4608,"▁really":4609,"▁Hi":4610,"▁would":4611,"La":4612,"▁hablan":4613,"▁deseo":4614,"▁miles":4615,"▁frien":4616,"▁Si,":4617,"mos,":4618,"▁internet":4619,"ñan":4620,"▁historias":4621,"▁Ve":4622,"▁sien":4623,"riendo":4624,"tró":4625,"▁loca":4626,"▁bueno,":4627,"▁poquito":4628,"▁convi":4629,"▁pic":4630,"▁90":4631,"▁ner":4632,"▁paro":4633,"cionar":4634,"cien":4635,"▁andar":4636,"▁pesar":4637,"▁asesina":4638,"▁tv":4639,"▁pág":4640,"by":4641,"▁muertos":4642,"▁Def":4643,"▁temprano":4644,"▁presente":4645,"▁ran":4646,"▁insul":4647,"jeron":4648,"▁¿Cómo":4649,"loj":4650,":(":4651,"▁life":4652,"▁cuesta":4653,"▁boy":4654,"▁app":4655,"▁DIOS":4656,"isis":4657,"▁publicar":4658,"▁Direc":4659,"▁buscando":4660,"▁encar":4661,"▁mode":4662,"▁fri":4663,"mel":4664,"▁pobla":4665,"▁entrena":4666,"isla":4667,"▁reti":4668,"TU":4669,"▁again":4670,"-2":4671,"▁repor":4672,"▁Tran":4673,"▁grogui":4674,"tes,":4675,"▁nomb":4676,"éc":4677,"monio":4678,"▁conversa":4679,"▁them":4680,"▁compra":4681,"lic":4682,"dp":4683,"▁dormi":4684,"▁legal":4685,"▁puse":4686,"▁Uno":4687,"mentar":4688,"▁Bueno,":4689,"tear":4690,"follow":4691,"tea":4692,"rue":4693,"▁chica":4694,"▁calles":4695,"tór":4696,"▁excelente":4697,"▁¿Cu":4698,"voz":4699,"▁visita":4700,"▁lea":4701,"▁defini":4702,"▁venta":4703,"ble.":4704,"▁finde":4705,"▁jar":4706,"pal":4707,"▁PR":4708,"hol":4709,"▁black":4710,"▁world":4711,"▁mundo.":4712,"tonces":4713,"▁cuidar":4714,"QU":4715,"▁corriendo":4716,"▁colisión":4717,"▁defensa":4718,"▁Cab":4719,"▁tb":4720,"▁Pos":4721,"▁participar":4722,"pia":4723,"▁MAS":4724,"KS":4725,"tifica":4726,"▁extre":4727,"tiago":4728,"▁dise":4729,"▁tierra":4730,"▁Gal":4731,"▁acabar":4732,"▁Pat":4733,"▁sit":4734,"▁últimos":4735,"▁pruebas":4736,"dición":4737,"▁way":4738,"▁ahi":4739,"▁Segui":4740,"▁línea":4741,"crip":4742,"▁PERO":4743,"▁Fer":4744,"▁80":4745,"▁Polic":4746,"jala":4747,"▁pendejo":4748,"▁videos":4749,"▁navidad":4750,"NO":4751,"▁week":4752,"▁có":4753,"▁árbol":4754,"▁Rep":4755,"▁cualquiera":4756,"gg":4757,"▁empieza":4758,"▁estuvo":4759,"▁nas":4760,"▁já":4761,"▁PP":4762,"▁debate":4763,"▁nuevas":4764,"▁??":4765,"▁amena":4766,"▁docu":4767,"▁recla":4768,"▁flash":4769,"▁recha":4770,"uido":4771,"tales":4772,"▁querido":4773,"IE":4774,"▁comunidad":4775,"▁Europa":4776,"▁¡S":4777,"__":4778,"▁concha":4779,"▁enfadada":4780,"▁Sec":4781,"clara":4782,"▁representa":4783,"▁sueños":4784,"icamente":4785,"▁causa":4786,"ily":4787,"▁fav":4788,"▁win":4789,"▁bre":4790,"▁cagar":4791,"cí":4792,"▁don't":4793,"▁PAS":4794,"▁arte":4795,"ture":4796,"▁ind":4797,"▁aus":4798,"▁diferente":4799,"▁espacio":4800,"▁Sánchez":4801,"▁orgullos":4802,"ws":4803,"ciones.":4804,"▁nomas":4805,"▁Brasil":4806,"isiera":4807,"lito":4808,"iga":4809,"▁ses":4810,"▁gil":4811,"taba":4812,"▁What":4813,"cus":4814,"▁seguidores":4815,"▁non":4816,"sal":4817,"'re":4818,"▁argent":4819,"▁estuvi":4820,"▁daño":4821,"▁camis":4822,"ministra":4823,"▁latiendo":4824,"▁consu":4825,"▁think":4826,"▁decía":4827,"▁supon":4828,"▁¡F":4829,"▁tengas":4830,"ller":4831,"▁pido":4832,"ro.":4833,"▁fl":4834,"▁Pablo":4835,"dimos":4836,"▁volvi":4837,"▁arreg":4838,"▁joder":4839,"taria":4840,"▁acompañ":4841,"▁post":4842,"▁colegio":4843,"▁vienen":4844,"▁Mig":4845,"▁cala":4846,"▁cuentas":4847,"▁vomitando":4848,"▁eso.":4849,"entos":4850,"ina.":4851,"▁sonrisa":4852,"▁temas":4853,"-1":4854,"▁¿Qui":4855,"▁día.":4856,"▁kcamexico":4857,"ide":4858,"roso":4859,"▁cabr":4860,"ensa":4861,"arn":4862,"▁casa,":4863,"didos":4864,"▁lograr":4865,"ruz":4866,"▁Bus":4867,"▁televisión":4868,"▁cola":4869,"▁dejó":4870,"▁COVID-19":4871,"▁corrupción":4872,"▁argu":4873,"▁bici":4874,"ciones,":4875,"▁América":4876,"h.":4877,"▁stor":4878,"▁ansiedad":4879,"▁Estu":4880,"▁advertencia":4881,"gimen":4882,"▁vou":4883,"▁esse":4884,"▁EE":4885,"tem":4886,"▁check":4887,"▁prác":4888,"medad":4889,"xa":4890,"▁obvio":4891,"▁próxima":4892,"mática":4893,"▁amer":4894,"▁bajar":4895,"▁emer":4896,"cular":4897,"▁presu":4898,"▁dicta":4899,"▁Pon":4900,"uta":4901,"▁asus":4902,"talia":4903,"4.":4904,"▁SOL":4905,"▁cielo":4906,"lada":4907,"siones":4908,"BRE":4909,"▁there":4910,"▁cumplir":4911,"▁hospital":4912,"▁comentarios":4913,"▁que,":4914,"han":4915,"▁dices":4916,"▁Comun":4917,"▁caus":4918,"▁abril":4919,"chu":4920,"▁Tú":4921,"▁octubre":4922,"▁Reg":4923,"ying":4924,"▁à":4925,"puestas":4926,"gué":4927,"▁dul":4928,"truir":4929,"timos":4930,"▁salga":4931,"olos":4932,"▁muito":4933,"mate":4934,"BL":4935,"▁mía":4936,"cera":4937,"IDAD":4938,"ferencia":4939,"ET":4940,"▁somb":4941,"▁María":4942,"ba,":4943,"▁Bu":4944,"ways":4945,"▁piensa":4946,"▁palo":4947,"▁inicio":4948,"▁Fue":4949,"▁Tal":4950,"▁conseguir":4951,"▁ko":4952,"▁podes":4953,"▁arco":4954,"remos":4955,"▁Recuer":4956,"▁usa":4957,"▁fondo":4958,"▁casa.":4959,"fra":4960,"▁contrario":4961,"▁100%":4962,"ctura":4963,"▁épo":4964,"▁ber":4965,"▁huevo":4966,"▁declara":4967,"ines":4968,"▁TV":4969,"▁escuchando":4970,"▁patr":4971,"cons":4972,"HH":4973,"AC":4974,"▁60":4975,"▁sangre":4976,"ñe":4977,"▁provin":4978,"teros":4979,"juliantina":4980,"▁nove":4981,"▁distancia":4982,"▁\"a":4983,"▁diario":4984,"ww":4985,"▁capaz":4986,"▁29":4987,"ical":4988,"▁Cono":4989,"▁tapada":4990,"▁first":4991,"▁estren":4992,"▁Salud":4993,"▁genial":4994,"ense":4995,"▁funda":4996,"ou":4997,"▁paja":4998,"▁curso":4999,"▁dem":5000,"▁info":5001,"hoto":5002,"▁Vic":5003,"cionales":5004,"wa":5005,"PER":5006,"▁masa":5007,"▁despues":5008,"▁VEN":5009,"pes":5010,"▁mantener":5011,"▁ingres":5012,"ández":5013,"▁modo":5014,"cita":5015,"▁crimin":5016,"▁Vos":5017,"▁recuper":5018,"▁sexual":5019,"▁deten":5020,"▁ná":5021,"fff":5022,"rán":5023,"▁quede":5024,"erva":5025,"▁amista":5026,"▁llego":5027,"▁cic":5028,"▁Estos":5029,"mita":5030,"▁estaban":5031,"▁cargo":5032,"ari":5033,"▁cam":5034,"tes.":5035,"▁vista":5036,"▁constitu":5037,"▁Además":5038,"vez":5039,"▁estaría":5040,"▁segura":5041,"dilla":5042,"▁suficiente":5043,"uros":5044,"estión":5045,"timo":5046,"▁tenia":5047,"icara":5048,"▁Gre":5049,"▁fans":5050,"cate":5051,"▁Entonces":5052,"▁adop":5053,"▁solici":5054,"▁necesidad":5055,"aban":5056,"▁never":5057,"xt":5058,"▁podía":5059,"▁últimas":5060,"▁AMLO":5061,"▁septiembre":5062,"▁siguiente":5063,"▁HOY":5064,"tw":5065,"rero":5066,"▁equipos":5067,"▁denuncia":5068,"▁alco":5069,"dri":5070,"▁PRE":5071,"▁gener":5072,"▁Sus":5073,"▁Bra":5074,"▁CAM":5075,"▁tiro":5076,"▁besando":5077,"▁VO":5078,"▁caca":5079,"ismo.":5080,"▁chocola":5081,"▁after":5082,"▁playa":5083,"▁actu":5084,"TOS":5085,"▁proba":5086,"p:":5087,"▁éxito":5088,"▁acab":5089,"RU":5090,"▁viva":5091,"▁into":5092,"▁Pin":5093,"▁resultados":5094,"▁sensa":5095,"▁Ima":5096,"▁jaja.":5097,"bio":5098,"▁abrir":5099,"▁caga":5100,"clus":5101,"▁propio":5102,"▁4.":5103,"is,":5104,"▁brind":5105,"▁disco":5106,"món":5107,"▁oro":5108,"▁proceso":5109,"▁MÁS":5110,"ded":5111,"▁dudas":5112,"▁jornada":5113,"uesta":5114,"▁servicios":5115,"▁huel":5116,"mé":5117,"▁present":5118,"▁goles":5119,"▁unfollow":5120,"▁mayo":5121,"▁COR":5122,"▁game":5123,"k.":5124,"matic":5125,"JJA":5126,"▁preten":5127,"▁escon":5128,"▁NA":5129,"▁¡M":5130,"kook":5131,"▁Tiene":5132,"ards":5133,"lé":5134,"▁decisión":5135,"▁stan":5136,"▁maravillos":5137,"▁jóvenes":5138,"▁decepcionada":5139,"cura":5140,"▁cantidad":5141,"mula":5142,"▁miércoles":5143,"▁tirar":5144,"ismo,":5145,"▁destru":5146,"▁extraña":5147,"▁PE":5148,"▁lleno":5149,"▁prohib":5150,"▁dign":5151,"▁polit":5152,"ders":5153,"fu":5154,"iego":5155,"▁conden":5156,"▁fracas":5157,"igo":5158,"▁apoyar":5159,"▁feste":5160,"▁Martín":5161,"▁Somos":5162,"▁Of":5163,"▁carajo":5164,"▁Gol":5165,"▁leche":5166,"icó":5167,"▁fiscal":5168,"UM":5169,"▁Cer":5170,"▁mínimo":5171,"▁todos.":5172,"xi":5173,"▁Señor":5174,"▁too":5175,"▁esperanza":5176,"▁vin":5177,"▁spo":5178,"▁altavoz":5179,"so,":5180,"KA":5181,"orar":5182,"▁enfr":5183,"▁pidiendo":5184,"▁bos":5185,"▁abierta":5186,"▁economía":5187,"ney":5188,"hhh":5189,"▁EEUU":5190,"eco":5191,"▁Pedro":5192,"▁\"Es":5193,"▁jajaj":5194,"▁moral":5195,"▁gén":5196,"▁siga":5197,"▁mal,":5198,"ísima":5199,"▁tocar":5200,"pl":5201,"▁dedos":5202,"▁triun":5203,"▁tantos":5204,"▁mtvlaf":5205,"isco":5206,"zo,":5207,"▁organiza":5208,"▁frustra":5209,"iana":5210,"gular":5211,"▁penal":5212,"▁trabajadores":5213,"▁vote":5214,"▁look":5215,"▁mier":5216,"▁estorn":5217,"Que":5218,"A,":5219,"▁incluso":5220,"▁mul":5221,"▁Escu":5222,"pó":5223,"▁NI":5224,"▁sui":5225,"idad,":5226,"▁base":5227,"▁varias":5228,"▁equivo":5229,"6.":5230,"▁desarrollo":5231,"▁dura":5232,"on,":5233,"tiene":5234,"▁puerta":5235,"▁AB":5236,"mada":5237,"dón":5238,"ería":5239,"▁médica":5240,"ciembre":5241,"udando":5242,"▁Otro":5243,"▁sel":5244,"ush":5245,"gs":5246,"▁Wh":5247,"▁Macri":5248,"▁vent":5249,"pir":5250,"ce.":5251,"test":5252,"tter":5253,"▁clara":5254,"▁Miguel":5255,"▁dibu":5256,"illas":5257,"k,":5258,"cente":5259,"yó":5260,"on.":5261,"▁popular":5262,"▁¡C":5263,"▁imb":5264,"keting":5265,"▁home":5266,"▁Otra":5267,"▁muchísimo":5268,"▁gobier":5269,"▁pública":5270,"▁basta":5271,"▁explicar":5272,"▁días,":5273,"p.":5274,"PM":5275,"bran":5276,"▁defien":5277,"▁venga":5278,"▁estados":5279,"▁vender":5280,"▁condu":5281,"ful":5282,"▁asis":5283,"▁¡G":5284,"▁hal":5285,"▁¿D":5286,"▁muero":5287,"▁SON":5288,"▁prueba":5289,"▁Parece":5290,"▁bebida":5291,"en,":5292,"▁cuento":5293,"▁diciembre":5294,"▁MAN":5295,"▁brindando":5296,"▁cerrar":5297,"tui":5298,"▁Cla":5299,"▁baj":5300,"▁conozco":5301,"EMOS":5302,"▁essa":5303,"▁tes":5304,"▁enor":5305,"gosto":5306,"▁online":5307,"mentable":5308,"▁barrio":5309,"▁paga":5310,"▁marzo":5311,"▁seguimos":5312,"capa":5313,"TEN":5314,"▁apl":5315,"segu":5316,"▁reír":5317,"▁conte":5318,"▁neu":5319,"jus":5320,"▁TAN":5321,"▁hablo":5322,"DER":5323,"▁Ahí":5324,"VI":5325,"▁LL":5326,"▁PRI":5327,"ditos":5328,"▁estará":5329,"oogle":5330,"ple":5331,"▁animal":5332,"istas,":5333,"▁derro":5334,"▁esto,":5335,"▁Jue":5336,"▁BU":5337,"dicos":5338,"icanos":5339,"useas":5340,"▁big":5341,"se.":5342,"▁mata":5343,"▁dijeron":5344,"▁verte":5345,"itaria":5346,"▁clar":5347,"▁proces":5348,"▁els":5349,"?\"":5350,"olina":5351,"▁resop":5352,"▁realiz":5353,"▁actitu":5354,"ivo":5355,"▁preci":5356,"▁echar":5357,"▁recién":5358,"n't":5359,"▁bille":5360,"ign":5361,"mn":5362,"▁bri":5363,"▁termine":5364,"▁bio":5365,"▁propia":5366,"▁resoplando":5367,"▁símbolos":5368,"▁narco":5369,"▁Acabo":5370,"▁manten":5371,"fan":5372,"▁GO":5373,"vic":5374,"is.":5375,"dedor":5376,"▁reloj":5377,"▁gh":5378,"▁Rey":5379,"▁raro":5380,"ene":5381,"▁compren":5382,"▁ador":5383,"▁siesta":5384,"arma":5385,"▁incen":5386,"▁salida":5387,"▁régimen":5388,"▁porfa":5389,"▁bbmas":5390,"▁lol":5391,"▁piz":5392,"cy":5393,"▁cerebro":5394,"▁resultado":5395,"orado":5396,"▁ofen":5397,"en.":5398,"▁desta":5399,"fir":5400,"▁náuseas":5401,"▁MAD":5402,"▁espal":5403,"▁bomba":5404,"▁If":5405,"CK":5406,"▁memoria":5407,"tillo":5408,"▁uni":5409,"EST":5410,"▁campo":5411,"▁publi":5412,"ardo":5413,"media":5414,"▁Será":5415,"▁mediana":5416,"9.":5417,"D.":5418,"▁apenas":5419,"lez":5420,"▁totalmente":5421,"▁mach":5422,"24":5423,"▁still":5424,"▁novi":5425,"▁Jam":5426,"▁Án":5427,"urs":5428,"▁pinche":5429,"pida":5430,"▁pobres":5431,"tida":5432,"▁negocio":5433,"mpa":5434,"▁saludando":5435,"▁Ana":5436,"era,":5437,"▁ganó":5438,"rida":5439,"▁70":5440,"▁visit":5441,"▁Sh":5442,"▁cancha":5443,"▁Mir":5444,"row":5445,"▁hola":5446,"gin":5447,"▁Felicidades":5448,"▁robo":5449,"▁mundo,":5450,"endario":5451,"▁romper":5452,"▁riesgo":5453,"mo,":5454,"mx":5455,"▁comentario":5456,"▁bote":5457,"▁concierto":5458,"▁toque":5459,"25":5460,"▁colombi":5461,"▁js":5462,"ENA":5463,"▁duro":5464,"▁encontra":5465,"icular":5466,"▁coche":5467,"▁Final":5468,"▁mercado":5469,"▁won":5470,"▁titular":5471,"vier":5472,"▁familias":5473,"▁tarta":5474,"▁pago":5475,"▁stop":5476,"pri":5477,"▁CAS":5478,"▁hacía":5479,"▁puro":5480,"▁perdido":5481,"ITO":5482,"tres":5483,"ORES":5484,"▁allí":5485,"▁repar":5486,"vidades":5487,"▁ejerci":5488,"▁Algun":5489,"gentes":5490,"▁responsabilidad":5491,"iversario":5492,"▁mari":5493,"ribe":5494,"▁clás":5495,"les.":5496,"▁vayan":5497,"▁mesa":5498,"les,":5499,"▁entrada":5500,"tás":5501,"▁elector":5502,"▁represent":5503,"▁¡P":5504,"vios":5505,"▁recuerda":5506,"▁teclas":5507,"▁2017":5508,"▁esfuerzo":5509,"▁mani":5510,"▁Esper":5511,"▁mentira":5512,"▁ene":5513,"▁muestra":5514,"viada":5515,"▁digital":5516,"▁ras":5517,"▁así.":5518,"▁RES":5519,"EMP":5520,"▁pil":5521,"▁aur":5522,"▁Bor":5523,"▁Excelente":5524,"cian":5525,"▁\"I":5526,"▁explotando":5527,"▁cariño":5528,"tumb":5529,"▁Ama":5530,"▁enc":5531,"ilo":5532,"▁Liber":5533,"▁bás":5534,"▁Donde":5535,"▁ando":5536,"▁empren":5537,"HAHAHAHA":5538,"tagon":5539,"▁diferentes":5540,"▁Dos":5541,"tive":5542,"▁Sos":5543,"▁desay":5544,"▁opción":5545,"▁goberna":5546,"▁abuela":5547,"quina":5548,"▁MAL":5549,"viendo":5550,"▁deberían":5551,"▁grave":5552,"FA":5553,"mendo":5554,"▁responder":5555,"▁entrega":5556,"dremos":5557,"▁TI":5558,"▁ass":5559,"▁quin":5560,"▁verdad,":5561,"▁racis":5562,"▁crees":5563,"▁\"no":5564,"▁embar":5565,"▁histór":5566,"so.":5567,"inar":5568,"cada":5569,"▁gay":5570,"▁ching":5571,"▁estudiantes":5572,"▁Interna":5573,"▁vecinos":5574,"bor":5575,"▁Era":5576,"▁CD":5577,"▁anto":5578,"▁realizar":5579,"Tu":5580,"▁pie":5581,"itor":5582,"▁were":5583,"▁interesante":5584,"▁serán":5585,"esa":5586,"▁yo,":5587,"▁Nueva":5588,"xto":5589,"icaragua":5590,"▁placer":5591,"▁alum":5592,"ionales":5593,"▁Sólo":5594,"genes":5595,"▁mete":5596,"▁ai":5597,"brero":5598,"drá":5599,"mg":5600,"▁tudo":5601,"▁famos":5602,"▁descon":5603,"zás":5604,"▁wan":5605,"▁var":5606,"▁Sor":5607,"▁asegu":5608,"*.":5609,"▁simplemente":5610,"▁pegar":5611,"ciona":5612,"▁eta":5613,"▁Anton":5614,"jue":5615,"rita":5616,"▁micró":5617,"▁IS":5618,"▁Gonz":5619,"unto":5620,"▁right":5621,"▁Mus":5622,"▁Copa":5623,"▁\"N":5624,"▁Extra":5625,"▁chico":5626,"▁bella":5627,"dría":5628,"QUI":5629,"▁bl":5630,"▁Catal":5631,"mio":5632,"kin":5633,"▁Amer":5634,"los.":5635,"▁saludos":5636,"▁pied":5637,"▁parar":5638,"fon":5639,"▁ile":5640,"todo":5641,"▁neg":5642,"▁selector":5643,"▁vuelvo":5644,"▁ela":5645,"ttp:":5646,"hip":5647,"▁¡V":5648,"▁cár":5649,"▁cuándo":5650,"▁discul":5651,"▁sha":5652,"lido":5653,"▁pudo":5654,"▁estrate":5655,"▁papa":5656,"▁Hol":5657,"▁Mara":5658,"▁objetivo":5659,"▁entiende":5660,"▁spe":5661,"▁sua":5662,"▁mostrando":5663,"▁calendario":5664,"▁Av":5665,"▁fres":5666,"▁domin":5667,"ttp://":5668,"▁pesos":5669,"mo.":5670,"▁MIS":5671,"▁Asi":5672,"▁amor,":5673,"quita":5674,"▁país,":5675,"▁interesa":5676,"▁pocos":5677,"▁banco":5678,"▁precios":5679,"vie":5680,"▁votos":5681,"▁parecer":5682,"▁Hos":5683,"▁humil":5684,"era.":5685,"jd":5686,"ráqueo":5687,"▁esto.":5688,"▁alre":5689,"▁belle":5690,"▁frase":5691,"▁Bon":5692,"iti":5693,"▁huevos":5694,"▁nem":5695,"tora":5696,"▁desas":5697,"▁;)":5698,"▁viento":5699,"▁General":5700,"▁Cul":5701,"ILL":5702,"▁ciudadanos":5703,"▁llegan":5704,"▁Nuevo":5705,"▁continu":5706,"▁julio":5707,"▁brasil":5708,"▁Gab":5709,"u.":5710,"ady":5711,"▁vidas":5712,"▁Estas":5713,"▁cn":5714,"BER":5715,"ela":5716,"▁torn":5717,"▁estadio":5718,"▁existen":5719,"▁sorpres":5720,"22":5721,"uma":5722,"ben":5723,"▁mejorar":5724,"▁HER":5725,"▁pega":5726,"fes":5727,"▁debemos":5728,"tividad":5729,"▁ot":5730,"▁Cent":5731,"ZA":5732,"▁felices":5733,"ba.":5734,"▁deman":5735,"los,":5736,"quilla":5737,"dro":5738,"acto":5739,"▁fron":5740,"▁NOS":5741,"mmm":5742,"▁quieras":5743,"▁finan":5744,"grafía":5745,"▁Jorge":5746,"▁OF":5747,"▁hahaha":5748,"▁pija":5749,"▁crack":5750,"▁aliviada":5751,"▁Unidos":5752,"▁going":5753,"▁estornudando":5754,"úa":5755,"▁acciones":5756,"▁personaje":5757,"eas":5758,"▁madru":5759,"▁Az":5760,"buena":5761,"▁mio":5762,"▁honor":5763,"gido":5764,"▁Centro":5765,"▁juegos":5766,"▁Fuer":5767,"▁es,":5768,"ana,":5769,"▁cuarto":5770,"▁mexico":5771,"▁compañeros":5772,"--":5773,"▁teniendo":5774,"▁RO":5775,"▁GRACIAS":5776,"▁chiste":5777,"▁TRA":5778,"▁mag":5779,"▁Plan":5780,"▁Sí,":5781,"▁micrófono":5782,"▁FIN":5783,"▁Ur":5784,"▁anoche":5785,"▁versión":5786,"▁siempre.":5787,"▁ino":5788,"▁juz":5789,"▁comba":5790,"fans":5791,"zon":5792,"▁heart":5793,"▁pudi":5794,"▁tomando":5795,"SI":5796,"▁twit":5797,"▁baño":5798,"▁saque":5799,"▁enca":5800,"▁revolu":5801,"matically":5802,"▁had":5803,"▁viven":5804,"▁llevan":5805,"▁salvar":5806,"▁http://":5807,"▁terráqueo":5808,"▁FU":5809,"le,":5810,"▁ideas":5811,"▁being":5812,"▁Wo":5813,"▁alcohol":5814,"▁(?)":5815,"▁rock":5816,"%.":5817,"le.":5818,"▁His":5819,"▁checked":5820,"▁energía":5821,"jero":5822,"▁bolsa":5823,".0":5824,"▁verlo":5825,"▁Netflix":5826,"▁gos":5827,"tto":5828,"▁compe":5829,"▁menor":5830,"▁SIN":5831,"▁besos":5832,"álisis":5833,"▁imagino":5834,"CHO":5835,"▁always":5836,"▁Pens":5837,"▁rece":5838,"logo":5839,"▁queria":5840,"▁cocina":5841,"ncia":5842,"▁automatically":5843,"hn":5844,"eratura":5845,"▁común":5846,"▁cate":5847,"▁Corona":5848,"tería":5849,"tré":5850,"▁FEL":5851,"glés":5852,"▁pendeja":5853,"▁perfecto":5854,"▁listo":5855,"▁reto":5856,"▁miss":5857,"▁XD":5858,"▁31":5859,"▁EU":5860,"▁zapa":5861,"▁preguntas":5862,"▁supera":5863,"▁FAV":5864,"▁stu":5865,"▁redon":5866,"▁¡B":5867,"ALL":5868,"▁cuál":5869,"▁medal":5870,"quin":5871,"▁years":5872,"estival":5873,"▁celebrar":5874,"▁muerto":5875,"bit":5876,"▁1,":5877,"▁multi":5878,"▁recursos":5879,"ivia":5880,"▁comb":5881,"▁fru":5882,"▁All":5883,"▁odi":5884,"pareja":5885,"od":5886,"▁obliga":5887,"▁página":5888,"ce,":5889,"▁River":5890,"pin":5891,"mas,":5892,"▁Van":5893,"▁crear":5894,"▁afu":5895,"▁free":5896,"▁necesitan":5897,"▁películas":5898,"▁avi":5899,"ana.":5900,"▁joda":5901,"▁NE":5902,"cán":5903,"▁please":5904,"▁robar":5905,"▁arma":5906,"▁neta":5907,"▁it's":5908,"▁encuentra":5909,"dor,":5910,"▁today":5911,"▁down":5912,"▁hubo":5913,"▁gotas":5914,"ecuen":5915,"▁Igles":5916,"▁perros":5917,"pel":5918,"▁why":5919,"ducción":5920,"ÁN":5921,"bri":5922,"▁Fin":5923,"▁vuelva":5924,"▁Mundial":5925,"ché":5926,"eliz":5927,"▁Pan":5928,"▁Ley":5929,"▁primeros":5930,"▁confianza":5931,"▁Deja":5932,"▁work":5933,"▁patria":5934,"er,":5935,"▁inclu":5936,"▁elegir":5937,"▁obras":5938,"▁Cual":5939,"▁hogar":5940,"ADOS":5941,"ing.":5942,"▁Perú":5943,"▁empa":5944,"▁Total":5945,"▁Fi":5946,"idas":5947,"▁\"B":5948,"▁sem":5949,"▁TIEN":5950,"▁hagas":5951,"▁tiempo.":5952,"S.":5953,"se,":5954,"▁complica":5955,"tario":5956,"▁gestión":5957,"▁capacidad":5958,"▁hol":5959,"▁vul":5960,"u,":5961,"▁Congreso":5962,"▁grá":5963,"▁detrás":5964,"▁alegría":5965,"▁episo":5966,"bin":5967,"▁ladr":5968,"dor.":5969,"▁Guar":5970,"▁tin":5971,"▁Flor":5972,"▁medic":5973,"leta":5974,"▁periodista":5975,"ars":5976,"▁Constitu":5977,"8.":5978,"▁Estados":5979,"▁Sen":5980,"er.":5981,"dela":5982,"99":5983,"▁ó":5984,"▁tiempo,":5985,"▁champ":5986,"▁hacerme":5987,"lle":5988,"▁grupos":5989,"▁cita":5990,"▁tira":5991,"▁completo":5992,"▁agora":5993,"teando":5994,"▁montón":5995,"mí":5996,"eria":5997,"▁bara":5998,"▁estilo":5999,"▁borra":6000,"▁campeón":6001,"▁JAJAJAJAJAJA":6002,"▁sigan":6003,"▁recupera":6004,"tadores":6005,"▁cárcel":6006,"▁caí":6007,"▁ST":6008,"▁DO":6009,"▁VA":6010,"▁sing":6011,"ble,":6012,"enar":6013,"thday":6014,"▁pinta":6015,"▁veh":6016,"▁publica":6017,"▁Tenemos":6018,"▁puedan":6019,"▁tru":6020,"▁Univer":6021,"▁selección":6022,"▁sat":6023,"▁intentar":6024,"▁interés":6025,"gracia":6026,"▁prima":6027,"▁AY":6028,"▁suena":6029,"▁artículo":6030,"▁should":6031,"▁does":6032,"▁ara":6033,"▁CAN":6034,"ork":6035,"▁CL":6036,"▁rin":6037,"▁acompaña":6038,"▁pude":6039,"▁eter":6040,"▁\"Y":6041,"▁propon":6042,"▁wey":6043,"▁trá":6044,"▁quando":6045,"▁watch":6046,"▁bronca":6047,"▁Domingo":6048,"cta":6049,"▁tol":6050,"▁bailar":6051,"DES":6052,"▁inici":6053,"▁followed":6054,"▁Bla":6055,"istemo":6056,"▁tratar":6057,"▁época":6058,"▁mismo.":6059,"▁acco":6060,"▁mtvlapareja":6061,"▁500":6062,"▁haz":6063,"▁ecuador":6064,"▁micro":6065,"▁estupi":6066,"▁junio":6067,"▁ocas":6068,"dientes":6069,"▁ciudadan":6070,"▁¡T":6071,"▁quem":6072,"▁recomenda":6073,"land":6074,"▁baby":6075,"lento":6076,"▁acon":6077,"yna":6078,"▁Ara":6079,"▁administra":6080,"▁favorito":6081,"▁could":6082,"▁favor,":6083,"fin":6084,"▁vea":6085,"igan":6086,"▁importantes":6087,"▁Alberto":6088,"JAJAJAJAJAJAJAJA":6089,"ustria":6090,"▁esco":6091,"▁mal.":6092,"▁ESTE":6093,"tique":6094,"▁Ella":6095,"▁Sil":6096,"▁OM":6097,"▁hoy.":6098,"▁resta":6099,"▁Ka":6100,"▁pura":6101,"luen":6102,"dent":6103,"▁ti,":6104,"mpre":6105,"ts.":6106,"▁tendrá":6107,"▁Dale":6108,"quero":6109,"▁Tre":6110,"rs":6111,"▁llamado":6112,"fia":6113,"▁sera":6114,"▁agen":6115,"ges":6116,"▁Acá":6117,"meros":6118,"▁rica":6119,"jado":6120,"60":6121,"self":6122,"▁km":6123,"tus":6124,"ando.":6125,"ife":6126,"icos,":6127,"▁hdp":6128,"▁sala":6129,"isas":6130,"▁cd":6131,"back":6132,"▁periodistas":6133,"dere":6134,"▁tecnología":6135,"▁sou":6136,"tian":6137,"▁Vaya":6138,"▁chicas":6139,"▁Sigue":6140,"▁difun":6141,"CHA":6142,"▁pregunto":6143,"▁Yo:":6144,"▁estú":6145,"ço":6146,"olog":6147,"▁Menos":6148,"▁gobern":6149,"▁Algo":6150,"▁europe":6151,"▁tenés":6152,"▁tour":6153,"▁DA":6154,"udas":6155,"Qué":6156,"▁adul":6157,"▁días.":6158,"venida":6159,"▁consecuen":6160,"bs":6161,"mica":6162,"▁mia":6163,"▁Ol":6164,"▁confirma":6165,"▁levantar":6166,"▁flo":6167,"sor":6168,"▁link":6169,"aso":6170,"SA":6171,"▁fazer":6172,"guez":6173,"jo,":6174,"▁clave":6175,"▁mensajes":6176,"▁nega":6177,"▁tuyo":6178,"ioso":6179,"ónica":6180,"▁Nuestro":6181,"▁sopor":6182,"▁Thank":6183,"▁Vol":6184,"▁hones":6185,"▁quedate":6186,"ándome":6187,"▁emergencia":6188,"▁reli":6189,"▁mentiras":6190,"▁irme":6191,"▁Odio":6192,"▁China":6193,"▁Hermos":6194,"▁verdadero":6195,"▁población":6196,"▁Esc":6197,"▁Deber":6198,"▁aparece":6199,"▁cantar":6200,"▁mirando":6201,"▁todos,":6202,"▁YouTu":6203,"▁solidar":6204,"▁metro":6205,"sh":6206,"▁IMP":6207,"éctr":6208,"aram":6209,"▁hiciste":6210,"▁Antes":6211,"▁prefer":6212,"▁dele":6213,"eep":6214,"▁preciosa":6215,"▁fol":6216,"CER":6217,"▁http://URL":6218,"▁discu":6219,"eci":6220,"▁terrible":6221,"▁negra":6222,"▁Pen":6223,"▁YOU":6224,"▁justif":6225,"íris":6226,"▁Abra":6227,"▁digas":6228,"▁há":6229,"▁llegado":6230,"▁Gente":6231,"▁imagina":6232,"alu":6233,"HO":6234,"▁cinco":6235,"doba":6236,"▁estén":6237,"▁take":6238,"▁minuto":6239,"▁Dia":6240,"▁condiciones":6241,"▁ascen":6242,"▁gustó":6243,"éro":6244,"▁arru":6245,"▁Francis":6246,"eso":6247,"ando,":6248,"chen":6249,"▁last":6250,"▁dedica":6251,"▁malas":6252,"▁ál":6253,"▁mostra":6254,"▁confun":6255,"▁other":6256,"▁arcoíris":6257,"▁elimin":6258,"▁médico":6259,"▁aaa":6260,"▁Whats":6261,"ons":6262,"▁Cl":6263,"▁shit":6264,"▁ocul":6265,"▁Villa":6266,"▁camiseta":6267,"fort":6268,"mágenes":6269,"▁hospita":6270,"▁Media":6271,"▁natural":6272,"gios":6273,"▁usuario":6274,"▁viste":6275,"▁auricular":6276,"▁oposición":6277,"▁ministro":6278,"▁ello":6279,"ident":6280,"asa":6281,"▁realiza":6282,"▁NADA":6283,"ándole":6284,"▁urgente":6285,"▁ig":6286,"▁tendría":6287,"een":6288,"rena":6289,"▁cero":6290,"▁siempre,":6291,"▁humano":6292,"&lt;":6293,"ONA":6294,"▁HI":6295,"▁impuestos":6296,"▁suma":6297,"▁piso":6298,"gotá":6299,"OE":6300,"▁porq":6301,"tita":6302,"▁venezolanos":6303,"▁Ste":6304,"▁investiga":6305,"▁correspon":6306,"▁vide":6307,"inci":6308,"ipol":6309,"onal":6310,"▁gracia":6311,"▁preguntar":6312,"▁army":6313,"▁pelotudo":6314,"nova":6315,"▁AD":6316,"▁5.":6317,"mático":6318,"▁carne":6319,"ANTE":6320,"▁part":6321,"▁MEN":6322,"tate":6323,"▁etc.":6324,"▁Tur":6325,"lón":6326,"▁Están":6327,"icen":6328,"▁Vía":6329,"▁gente,":6330,"▁ao":6331,"▁whi":6332,"▁natur":6333,"▁voltaje":6334,"▁hac":6335,"▁funciona":6336,"▁perdon":6337,"▁same":6338,"▁Pana":6339,"▁acerca":6340,"▁exac":6341,"centes":6342,"▁cua":6343,"tici":6344,"▁sempre":6345,"zo.":6346,"▁ti.":6347,"▁concep":6348,"crá":6349,"▁م":6350,"iler":6351,"▁compromiso":6352,"▁comiendo":6353,"▁YouTube":6354,"▁clima":6355,"▁plen":6356,"▁cami":6357,"▁cuida":6358,"▁Social":6359,"▁One":6360,"▁repetir":6361,"▁(C":6362,"▁piensan":6363,"ito,":6364,"▁escol":6365,"ÑO":6366,"▁saco":6367,"▁recibiendo":6368,"▁jefe":6369,"▁pierde":6370,"▁García":6371,"volución":6372,"▁amlo":6373,"dimiento":6374,"▁acto":6375,"▁Just":6376,"tube":6377,"▁afir":6378,"▁aniversario":6379,"App":6380,"anas":6381,"▁evento":6382,"▁tarje":6383,"▁visual":6384,"▁positivo":6385,"BLE":6386,"▁mejor.":6387,"▁Vir":6388,"23":6389,"▁coño":6390,"ALES":6391,"mas.":6392,"▁cán":6393,"▁said":6394,"▁favorita":6395,"ane":6396,"▁mol":6397,"▁pros":6398,"▁exo":6399,"▁simp":6400,"▁vícti":6401,"▁Club":6402,"▁Acaba":6403,"▁deporte":6404,"▁decirle":6405,"▁:D":6406,"▁atre":6407,"▁aud":6408,"▁ciencia":6409,"▁actividades":6410,"▁corte":6411,"torial":6412,"ógico":6413,"▁impul":6414,"otras":6415,"▁vosotros":6416,"▁の":6417,"\":":6418,"▁altura":6419,"▁detalles":6420,"▁Rus":6421,"▁guste":6422,"▁respecto":6423,"▁univers":6424,"▁gustado":6425,"imina":6426,"\"...":6427,"▁Cap":6428,"▁motivo":6429,"▁hable":6430,"▁rombo":6431,"▁necesitamos":6432,"▁fortale":6433,"rique":6434,"▁bad":6435,"▁plaza":6436,"▁Oye":6437,"fac":6438,"▁ofic":6439,"ueva":6440,"▁tío":6441,"▁full":6442,"▁escucho":6443,"horabuena":6444,"let":6445,"▁Conse":6446,"▁infec":6447,"▁quitar":6448,"▁repu":6449,"NA":6450,"▁pé":6451,"▁pode":6452,"baja":6453,"▁reunión":6454,"jeros":6455,"▁neutral":6456,"▁garanti":6457,"ISTA":6458,"▁reflex":6459,"▁bebe":6460,"▁better":6461,"▁event":6462,"▁presentar":6463,"JE":6464,"▁cré":6465,"▁Covid-19":6466,"lados":6467,"▁sexo":6468,"istas.":6469,"red":6470,"].":6471,"▁\"V":6472,"▁logra":6473,"MI":6474,"▁central":6475,"▁moment":6476,"andro":6477,"▁examen":6478,"udia":6479,"res,":6480,"▁comunicación":6481,"▁jeje":6482,"ante.":6483,"▁dona":6484,"▁gon":6485,"▁Za":6486,"tec":6487,"▁lanza":6488,"▁Lor":6489,"▁Dar":6490,"▁anterior":6491,"▁molesta":6492,"▁queres":6493,"▁mostrar":6494,"▁ada":6495,"cter":6496,"gala":6497,"P.":6498,"▁Chi":6499,"▁leo":6500,"Un":6501,"é,":6502,"gol":6503,"▁most":6504,"▁hincha":6505,"▁Bal":6506,"tch":6507,"ei":6508,"▁tweets":6509,"ONES":6510,"▁modelo":6511,"▁quisiera":6512,"▁ESTOY":6513,"▁cocin":6514,"▁salgo":6515,"▁inglés":6516,"▁empleo":6517,"▁discurso":6518,"ÑOS":6519,"lip":6520,"▁abus":6521,"ctores":6522,"▁piden":6523,"tm":6524,"tali":6525,"▁edición":6526,"▁pio":6527,"▁Luego":6528,"▁fascis":6529,"▁acostumb":6530,"▁Bro":6531,"tidos":6532,"▁Ber":6533,"80":6534,"?,":6535,"▁Cá":6536,"▁¿Es":6537,"▁verdad.":6538,"x.":6539,"bos":6540,"▁protagon":6541,"▁loo":6542,"&amp;":6543,"▁photo":6544,"▁chav":6545,"▁considera":6546,"arlo":6547,"▁principal":6548,"▁!.":6549,"▁nin":6550,"▁conec":6551,"▁cuidado":6552,"▁empezó":6553,"▁estable":6554,"▁cambios":6555,"▁¡H":6556,"**":6557,"ns":6558,"/10":6559,"▁2021":6560,"▁viajar":6561,"ets":6562,"▁premio":6563,"▁perió":6564,"▁Tar":6565,"▁series":6566,",000":6567,"▁mismo,":6568,"▁peso":6569,"▁particip":6570,"▁faltan":6571,"▁éste":6572,"▁ataque":6573,"▁virtual":6574,"▁reme":6575,"cón":6576,"parta":6577,"▁35":6578,"▁Municip":6579,"teca":6580,"▁coj":6581,"▁mareo":6582,"▁medalla":6583,"▁mina":6584,"▁perman":6585,"▁volun":6586,"▁Mel":6587,"isterio":6588,"▁Wa":6589,"▁desastre":6590,"▁(y":6591,"amiento":6592,"▁actividad":6593,"cidente":6594,"▁agosto":6595,"estas":6596,"M.":6597,"dra":6598,"▁Podemos":6599,"ógica":6600,"quia":6601,"▁culp":6602,"▁injus":6603,"▁mayores":6604,"▁Nicol":6605,"ym":6606,"▁encer":6607,"▁extran":6608,"▁humanos":6609,"▁solución":6610,"▁desgracia":6611,"estar":6612,"tieron":6613,"▁diá":6614,"yos":6615,"▁record":6616,"mania":6617,"óme":6618,"▁permitir":6619,"▁hará":6620,"C.":6621,"mmer":6622,"etas":6623,"▁help":6624,"&gt;&gt;&gt;&gt;":6625,"▁agres":6626,"GAR":6627,"ever":6628,"▁tré":6629,"▁BE":6630,"▁capítulo":6631,"▁pierdas":6632,"formación":6633,"▁anuncia":6634,"BE":6635,"ECES":6636,"ENDO":6637,"hab":6638,"▁miemb":6639,"▁Liga":6640,"lab":6641,"▁resulta":6642,"▁give":6643,"▁entera":6644,"▁uru":6645,"▁JU":6646,"▁Pobre":6647,"▁álbum":6648,"▁LU":6649,"▁CR":6650,"▁Den":6651,"▁trébol":6652,"uis":6653,"▁dejado":6654,"▁Internacional":6655,"▁debes":6656,"▁mucho,":6657,"▁importancia":6658,"gina":6659,"vaila":6660,"▁frustración":6661,"▁sil":6662,"ive":6663,"mestre":6664,"▁marketing":6665,"▁Cur":6666,"rés":6667,"cé":6668,"▁cruzados":6669,"▁Lit":6670,"▁director":6671,"▁PUTA":6672,"▁Diego":6673,"▁PRES":6674,"▁enero":6675,"dade":6676,"dena":6677,"▁aplica":6678,"▁Happy":6679,"▁Seguro":6680,"▁PI":6681,"▁Manuel":6682,"▁pers":6683,"▁env":6684,"uuu":6685,"▁terri":6686,"▁ge":6687,"tará":6688,"vile":6689,"▁tarea":6690,"▁mates":6691,"▁HAY":6692,"▁responsable":6693,"▁acción":6694,"▁patri":6695,"▁limi":6696,"▁AAA":6697,"▁quieran":6698,"▁Rafa":6699,"▁provincia":6700,"bur":6701,"▁hipo":6702,"didas":6703,"▁Ali":6704,"▁lá":6705,"▁abue":6706,"▁animales":6707,"▁FOR":6708,"tional":6709,"ó,":6710,"▁ub":6711,"▁reno":6712,"joy":6713,"▁Dere":6714,"▁brin":6715,"▁2016":6716,"ics":6717,"▁Alex":6718,"T.":6719,"▁joy":6720,"▁Boca":6721,"ath":6722,"▁fase":6723,"▁Jesús":6724,"▁Ecuador":6725,"▁redonda":6726,"▁let":6727,"▁Pé":6728,"cing":6729,"▁GRAN":6730,"▁SAB":6731,"ficio":6732,"...\"":6733,"▁confusión":6734,"DAS":6735,"▁David":6736,"▁RA":6737,"▁belleza":6738,"▁cuestion":6739,"▁Santiago":6740,"gá":6741,"▁afuera":6742,"▁chocolate":6743,"▁COL":6744,"▁mierda.":6745,"anda":6746,"▁instagram":6747,"▁Bas":6748,"▁poniendo":6749,"vidu":6750,"▁MEJ":6751,"mino":6752,"▁dedic":6753,"ASTA":6754,"▁femen":6755,"▁Sur":6756,"ejo":6757,"▁cobrar":6758,"▁horario":6759,"▁Antonio":6760,"▁end":6761,"▁QUIERO":6762,"▁universidad":6763,"▁pibe":6764,"▁olvida":6765,"▁Champ":6766,"tión":6767,"▁ambos":6768,"▁cosas,":6769,"its":6770,"▁meta":6771,"▁costa":6772,"▁got7":6773,"▁vengan":6774,"▁tardes":6775,"▁trabajos":6776,"▁debo":6777,"▁Guer":6778,"▁pizza":6779,"ITA":6780,"ux":6781,"▁diría":6782,"gón":6783,"dero":6784,"▁perten":6785,"▁ambiente":6786,"▁Ag":6787,"ipe":6788,"sible":6789,"CIONES":6790,"▁Fis":6791,"▁Vis":6792,"▁Ustedes":6793,"▁QUÉ":6794,"GR":6795,"vailable":6796,"▁nooo":6797,"▁cabel":6798,"▁quis":6799,"▁consul":6800,"▁ilus":6801,"tiful":6802,"cero":6803,"g.":6804,"▁Ai":6805,"▁cantando":6806,"100":6807,"▁plena":6808,"▁santa":6809,"ISTE":6810,"▁cumpli":6811,"▁interven":6812,"▁torneo":6813,"▁Love":6814,"▁productos":6815,"▁une":6816,"▁felicidades":6817,"▁night":6818,"▁Star":6819,"▁dólares":6820,"guém":6821,"▁compara":6822,"▁How":6823,"▁But":6824,"▁Educa":6825,"▁WhatsApp":6826,"▁noviembre":6827,"▁correr":6828,"▁interior":6829,"▁visitar":6830,"▁habría":6831,"▁rele":6832,"JD":6833,"logía":6834,"▁carga":6835,"▁embara":6836,"▁progres":6837,"▁familiar":6838,"▁excep":6839,"▁abierto":6840,"▁made":6841,"berna":6842,"▁consider":6843,"▁completa":6844,"ística":6845,"▁45":6846,"iciones":6847,"res.":6848,"▁audio":6849,"erno":6850,"▁ocupa":6851,"iados":6852,"ring":6853,"▁(P":6854,"▁Chris":6855,"▁these":6856,"ling":6857,"RG":6858,"responsab":6859,"▁fea":6860,"▁hablas":6861,"▁mez":6862,"▁account":6863,"▁sobr":6864,"ik":6865,"hos":6866,"▁lugares":6867,"▁GU":6868,"▁cerezo":6869,"▁Sho":6870,"▁convoca":6871,"▁facul":6872,"▁Sha":6873,"▁JO":6874,"▁INF":6875,"▁ef":6876,"▁enorme":6877,"▁porqué":6878,"▁Siii":6879,"▁ejercicio":6880,"▁protección":6881,"▁div":6882,"▁traer":6883,"hone":6884,"▁¿Quién":6885,"cua":6886,"JSJS":6887,"▁GAN":6888,"▁uruguay":6889,"▁original":6890,"ZO":6891,"sed":6892,"sea":6893,"▁pela":6894,"tf":6895,"▁acordar":6896,"▁mesmo":6897,"▁dictadura":6898,"rer":6899,"PAR":6900,"▁febrero":6901,"nal":6902,"enario":6903,"▁carta":6904,"▁reproducir":6905,"c.":6906,"▁(S":6907,"▁igles":6908,"▁saludo":6909,"rias":6910,"ína":6911,"▁candidato":6912,"▁calavera":6913,"▁\"R":6914,"▁....":6915,"▁:'":6916,"▁Mucho":6917,"▁termino":6918,"▁ron":6919,"▁Oli":6920,"▁Aún":6921,"▁sp":6922,"▁principio":6923,"▁eléctr":6924,"▁Estaba":6925,"▁Fernández":6926,"▁proyectos":6927,"encia.":6928,"'.":6929,"▁sube":6930,"etw":6931,"▁desin":6932,"din":6933,"▁mur":6934,"▁trae":6935,"▁perdió":6936,"▁Kar":6937,"▁prefiero":6938,"▁flores":6939,"dores,":6940,"ente,":6941,"tti":6942,"▁¿No":6943,"ciéndo":6944,"▁mi,":6945,"▁gente.":6946,"▁ganado":6947,"▁impun":6948,"▁cif":6949,"▁Alcal":6950,"▁Não":6951,"/2":6952,"▁aquellos":6953,"▁sepa":6954,"▁volumen":6955,"seguridad":6956,"oncesto":6957,"▁MOR":6958,"▁artis":6959,"ibles":6960,"ella":6961,"▁run":6962,"▁agradecer":6963,"tillas":6964,"▁jarras":6965,"drí":6966,"ración":6967,"▁descono":6968,"▁merecen":6969,"▁glor":6970,"▁niñas":6971,"▁¡No":6972,"dicial":6973,"iedad":6974,"sin":6975,"▁carre":6976,"▁dema":6977,"▁NUN":6978,"▁aborto":6979,"▁cáncer":6980,"▁presentación":6981,"▁fandom":6982,"▁mucho.":6983,"encia,":6984,"▁cago":6985,"cados":6986,"▁querés":6987,"lie":6988,"DIO":6989,"▁PL":6990,"liza":6991,"ló":6992,"▁Cruz":6993,"▁poca":6994,"forme":6995,"▁BA":6996,"ree":6997,"cales":6998,"▁Mario":6999,"▁very":7000,"▁género":7001,"▁TA":7002,"▁elig":7003,"▁hoje":7004,"TES":7005,"▁enfermedad":7006,"▁vende":7007,"▁pies":7008,"▁profesor":7009,"45":7010,"PU":7011,"▁hoja":7012,"▁vacuna":7013,"ente.":7014,"▁obser":7015,"▁ingen":7016,"▁concent":7017,"UEL":7018,"▁mami":7019,"▁máximo":7020,"▁ic":7021,"oro":7022,"▁cientí":7023,"▁leí":7024,"duras":7025,"▁quita":7026,"▁coger":7027,"menes":7028,"▁investigación":7029,"amer":7030,"▁fren":7031,"▁roja":7032,"▁Según":7033,"▁psic":7034,"dona":7035,"crib":7036,"▁sk":7037,"▁llaman":7038,"▁pequeña":7039,"▁habit":7040,"▁hayan":7041,"DEN":7042,"ado,":7043,"▁práctica":7044,"▁privile":7045,"▁cach":7046,"▁JAJAJAJAJAJAJA":7047,"▁Lis":7048,"▁Temp":7049,"▁superar":7050,"ah":7051,"▁masaje":7052,"ezco":7053,"▁girl":7054,"▁elimina":7055,"cun":7056,"sta":7057,"▁Secre":7058,"▁mierda,":7059,"jj":7060,"▁CRE":7061,"▁Coronavirus":7062,"har":7063,"90":7064,"▁bul":7065,"▁NUE":7066,"▁spa":7067,"▁bendi":7068,"▁movimiento":7069,"▁cancel":7070,"▁inso":7071,"▁MUN":7072,"▁Oh":7073,"▁qual":7074,"▁¡Y":7075,"▁Nooo":7076,"▁motiva":7077,"▁asu":7078,"less":7079,"EMPRE":7080,"RAS":7081,"▁también.":7082,"▁AHORA":7083,"ced":7084,"▁profe":7085,"á,":7086,"▁cabal":7087,"▁tuya":7088,"▁empeza":7089,"▁extrañar":7090,"brir":7091,"iano":7092,"▁sar":7093,"▁segundos":7094,"tar.":7095,"▁FI":7096,"▁talento":7097,"▁hubiese":7098,"▁título":7099,"▁parque":7100,"▁Incre":7101,"▁imágenes":7102,"▁salido":7103,"▁Casa":7104,"KE":7105,"▁estrategia":7106,"▁rue":7107,"▁energ":7108,"▁volvió":7109,"▁medida":7110,"iona":7111,"-3":7112,"▁Daniel":7113,"onia":7114,"nd":7115,"▁Uribe":7116,"▁carro":7117,"▁billete":7118,"▁1000":7119,"▁moto":7120,"ino.":7121,"▁coca":7122,"▁influen":7123,"▁inú":7124,"riel":7125,"▁¿Que":7126,"▁autoridades":7127,"íamos":7128,"▁calla":7129,"▁informe":7130,"▁KKK":7131,"▁médicos":7132,"▁Grande":7133,"▁trabajo,":7134,"tar,":7135,"▁Blan":7136,"70":7137,"▁tod":7138,"▁assi":7139,"fic":7140,"tric":7141,"vemos":7142,"▁Bogotá":7143,"▁Learn":7144,"▁Puerto":7145,"▁hablamos":7146,"▁individu":7147,"▁Cui":7148,"▁sueldo":7149,"ged":7150,"▁Quién":7151,"▁(A":7152,"▁profun":7153,"▁ficha":7154,"ball":7155,"▁Mujer":7156,"-C":7157,"▁tristeza":7158,"▁pelota":7159,"▁App":7160,"▁cant":7161,"▁deix":7162,"▁coun":7163,"▁Madre":7164,"▁esperan":7165,"▁Wor":7166,"▁querida":7167,"▁Ej":7168,"▁Mat":7169,"ítulos":7170,"▁estuve":7171,"▁Hahaha":7172,"▁Ger":7173,"▁helado":7174,"bert":7175,"▁dejaron":7176,"▁pantal":7177,"▁WE":7178,"▁BO":7179,"TAR":7180,"▁vez,":7181,"▁cierto,":7182,"▁euros":7183,"▁Sta":7184,"▁Julio":7185,"oli":7186,"▁yo.":7187,"▁ponga":7188,"▁bue":7189,"puta":7190,"▁muere":7191,"▁و":7192,"▁imper":7193,"OS.":7194,"▁viviendo":7195,"▁300":7196,"▁\"F":7197,"▁bem":7198,"▁ponerme":7199,"doras":7200,"▁Google":7201,"mbra":7202,"▁(URL":7203,"▁actitud":7204,"▁planes":7205,"igna":7206,"▁Gui":7207,"▁HE":7208,"cs":7209,"▁periódico":7210,"▁probar":7211,"torno":7212,"▁indica":7213,"▁tercera":7214,"ante,":7215,"▁Salva":7216,"llar":7217,"▁integ":7218,"uelas":7219,"tify":7220,"PI":7221,"▁(a":7222,"eración":7223,"▁proteger":7224,"fier":7225,"ó.":7226,"▁dre":7227,"▁sea,":7228,"▁Lea":7229,"▁categor":7230,"▁material":7231,"ado.":7232,"▁corto":7233,"▁entero":7234,"menaje":7235,"▁2015":7236,"▁ver,":7237,"▁invito":7238,"▁Rodrí":7239,"▁espalda":7240,"▁leyendo":7241,"▁more.":7242,"ast":7243,"xo":7244,"ñado":7245,"▁Buena":7246,"▁alcalde":7247,"▁ejecu":7248,"▁SIEMPRE":7249,"▁SA":7250,"▁vota":7251,"tacular":7252,"▁supuesto":7253,"▁great":7254,"▁PSOE":7255,"pop":7256,"iosa":7257,"▁isla":7258,"kkk":7259,"tiza":7260,"▁kid":7261,"▁separa":7262,"▁sober":7263,"tz":7264,"▁tercer":7265,"▁Fr":7266,"▁destino":7267,"digo":7268,"▁pez":7269,"▁irre":7270,"▁resis":7271,"▁C.":7272,"▁análisis":7273,"▁renun":7274,"▁Francisco":7275,"▁adelan":7276,"▁dignidad":7277,"oría":7278,"▁SAN":7279,"▁Unas":7280,"cemos":7281,"▁reina":7282,"▁pecho":7283,"▁Person":7284,"▁well":7285,"▁equivoca":7286,"▁cuel":7287,"▁etapa":7288,"▁misera":7289,"▁entregar":7290,"orada":7291,"▁aquel":7292,"▁depres":7293,"▁contenido":7294,"the":7295,"▁zo":7296,"melo":7297,"gas,":7298,"▁víctimas":7299,"vado":7300,"▁pesa":7301,"▁hier":7302,"▁ánimo":7303,"▁ya.":7304,"▁transporte":7305,"▁rode":7306,"▁yendo":7307,"udes":7308,"dillo":7309,"erac":7310,"▁merec":7311,"jin":7312,"▁abandon":7313,"▁war":7314,"▁literalmente":7315,"▁beau":7316,"▁juicio":7317,"▁año,":7318,"▁vengo":7319,"uestros":7320,"▁MO":7321,"yen":7322,"▁revis":7323,"▁hand":7324,"▁cerdo":7325,"▁Mexico":7326,"ordina":7327,"é.":7328,"▁Justicia":7329,"▁ninguno":7330,"▁JAJAJ":7331,"▁Últi":7332,"▁chupa":7333,"tory":7334,"▁políticas":7335,"▁nomás":7336,"zón":7337,"▁producción":7338,"▁Agu":7339,"▁fuiste":7340,"▁ego":7341,"▁capit":7342,"▁kil":7343,"▁puerto":7344,"▁No.":7345,"▁lun":7346,"▁sei":7347,"▁inau":7348,"▁open":7349,"▁acabe":7350,"▁pones":7351,"kan":7352,"▁estres":7353,"28":7354,"▁Han":7355,"▁ultima":7356,"▁hun":7357,"▁Hor":7358,"uña":7359,"▁llo":7360,"allen":7361,"erop":7362,"jito":7363,"▁¿Sab":7364,"▁es.":7365,"jate":7366,"▁little":7367,"\"?":7368,"▁nadie,":7369,"▁Er":7370,"▁NUNCA":7371,"▁exclus":7372,"▁wait":7373,"Me":7374,"▁Uru":7375,"▁senta":7376,"▁then":7377,"▁BUEN":7378,"▁aceptar":7379,"▁ace":7380,"cia,":7381,"▁birthday":7382,"▁Sá":7383,"▁song":7384,"▁Cór":7385,"ehy":7386,"▁hubier":7387,"▁baloncesto":7388,"▁permite":7389,"▁Char":7390,"▁tenían":7391,"▁Primera":7392,"TAS":7393,"▁ellos.":7394,"▁piern":7395,"▁ahorita":7396,"ross":7397,"▁uñas":7398,"▁profesionales":7399,"▁cuestión":7400,"▁¿Te":7401,"▁JAJAJAJ":7402,"▁cuantos":7403,"ynamite":7404,"▁Esos":7405,"▁Barça":7406,"▁infin":7407,"usta":7408,"@URL":7409,"▁podido":7410,"▁prohibido":7411,"▁necesitas":7412,"derno":7413,"▁jaja,":7414,"ANO":7415,"ito.":7416,"▁hy":7417,"▁aco":7418,"blos":7419,"26":7420,"MY":7421,"▁¿H":7422,"▁República":7423,"▁That":7424,"▁prac":7425,"▁Red":7426,"▁thank":7427,"27":7428,"▁responde":7429,"▁IG":7430,"ienda":7431,"▁año.":7432,"▁FAVOR":7433,"▁cuánto":7434,"▁mejor,":7435,"▁BIEN":7436,"▁compañero":7437,"BO":7438,"▁moda":7439,"▁exc":7440,"▁amp":7441,"onato":7442,"▁CN":7443,"minación":7444,"▁casas":7445,"▁Amor":7446,"▁ans":7447,"▁interpre":7448,"▁also":7449,"▁Seguimos":7450,"▁Compar":7451,"ppen":7452,"▁quero":7453,"ículos":7454,"▁precisa":7455,"▁nao":7456,"ones,":7457,"▁lic":7458,"ión.":7459,")..":7460,"▁planeta":7461,"▁lamentable":7462,"▁renuncia":7463,"▁pensamiento":7464,"pul":7465,"úl":7466,"▁conce":7467,"▁quedado":7468,"▁pocas":7469,"▁andan":7470,"▁Spo":7471,"▁It's":7472,"isimo":7473,"▁regreso":7474,"▁MIN":7475,"▁Segun":7476,"▁aro":7477,"▁conoci":7478,"▁nieve":7479,"▁ceja":7480,"▁brea":7481,"▁They":7482,"oos":7483,"▁ilegal":7484,"lace":7485,"▁millon":7486,"▁murió":7487,"▁Good":7488,"▁memes":7489,"▁Fernando":7490,"wu":7491,"ked":7492,"ástima":7493,"vida":7494,"icho":7495,"▁jung":7496,"▁pasada":7497,"▁bicicle":7498,"▁vean":7499,"▁Casi":7500,"▁Trans":7501,"▁sad":7502,"▁cro":7503,"▁Perdón":7504,"▁tremendo":7505,"▁até":7506,"ek":7507,"▁AF":7508,"▁Dr.":7509,":3":7510,"▁teatro":7511,"▁decisiones":7512,"/7":7513,"vol":7514,"▁anima":7515,"▁valen":7516,"▁funcionarios":7517,"ribun":7518,"▁corruptos":7519,"cidio":7520,"▁Ano":7521,"▁Tienes":7522,"▁global":7523,"▁rus":7524,"▁inteligente":7525,"▁criminal":7526,"▁canta":7527,"▁nadie.":7528,"▁favor.":7529,"SO":7530,"▁princes":7531,"▁Vier":7532,"▁monta":7533,"▁sitio":7534,"ramien":7535,"fore":7536,"lita":7537,"▁lopez":7538,"ERDA":7539,"zca":7540,"▁hermanos":7541,"CON":7542,"▁awards":7543,"-.":7544,"▁6.":7545,"▁peru":7546,"▁diz":7547,"▁saliendo":7548,"▁reforma":7549,"▁\"la":7550,"▁tenho":7551,"leo":7552,"cia.":7553,"▁algo,":7554,"▁DM":7555,"▁dulce":7556,"▁Universidad":7557,"cks":7558,"▁alterna":7559,"▁malos":7560,"▁SUS":7561,"▁ainda":7562,"mul":7563,"cord":7564,"iss":7565,"grantes":7566,"▁solamente":7567,"▁locura":7568,"▁absolutamente":7569,"sapp":7570,"zamos":7571,"enos":7572,"▁Todavía":7573,"ance":7574,"▁aparte":7575,"▁amigo,":7576,"▁⠀":7577,"▁sencil":7578,"▁Sevilla":7579,"▁construcción":7580,"▁Dor":7581,"▁cuch":7582,"▁cierre":7583,"▁disponible!":7584,"▁amor.":7585,"▁Cuba":7586,"▁fab":7587,"alth":7588,"▁Ke":7589,"mbur":7590,"▁provo":7591,"▁envidia":7592,"▁barr":7593,"ñera":7594,"ones.":7595,"▁fern":7596,"▁Ok":7597,"▁Day":7598,"▁Video":7599,"▁pacientes":7600,"▁peron":7601,"▁propa":7602,"▁news":7603,"▁amistad":7604,"▁irresponsab":7605,"▁iban":7606,"▁rompe":7607,"▁Andr":7608,"▁Sala":7609,"▁demostrar":7610,"ts,":7611,"▁abre":7612,"▁confina":7613,"▁civil":7614,"▁¡D":7615,"jec":7616,"iciales":7617,"ub":7618,"▁lados":7619,"▁conjun":7620,"▁dejes":7621,"▁unico":7622,"▁Sobre":7623,"▁She":7624,"▁materia":7625,"▁ste":7626,"▁estés":7627,"▁comienza":7628,"▁llora":7629,"▁pongan":7630,"▁manifesta":7631,"▁contacto":7632,"timi":7633,"yn":7634,"mblea":7635,"▁Aten":7636,"▁deuda":7637,"Lo":7638,"▁BAR":7639,"ja,":7640,"▁river":7641,"▁lazo":7642,"▁Cristina":7643,"▁entradas":7644,"▁semi":7645,"▁PEL":7646,"▁incon":7647,"▁Alej":7648,"▁Ele":7649,"▁\"Si":7650,"med":7651,"ticular":7652,"▁\"el":7653,"▁Hern":7654,"▁Tele":7655,"ieve":7656,"▁escribe":7657,"▁Campe":7658,"▁juntas":7659,"has":7660,"▁propuesta":7661,"▁amigos,":7662,"▁AND":7663,"▁melhor":7664,"▁baile":7665,"▁resca":7666,"▁rata":7667,"▁LLE":7668,"▁expon":7669,"▁A.":7670,"▁siii":7671,"▁nosotras":7672,"grama":7673,"▁?.":7674,"▁tomo":7675,"▁sé,":7676,"▁gasolina":7677,"▁next":7678,"om":7679,"▁cosas.":7680,"udar":7681,"▁Mucha":7682,"uri":7683,"▁hechos":7684,"▁Uruguay":7685,"ENTO":7686,"try":7687,"▁sobrevi":7688,"▁dejamos":7689,"▁JAJA":7690,"▁MUY":7691,"▁pensaba":7692,"▁cobar":7693,"▁Dra":7694,"ENTA":7695,"elli":7696,"tant":7697,"▁ola":7698,"▁tell":7699,"iche":7700,"▁rar":7701,"▁siglo":7702,"▁NAD":7703,"▁compañía":7704,"▁perdi":7705,"▁rí":7706,"▁recuerdos":7707,"depen":7708,"▁coisa":7709,"▁diji":7710,"▁nariz":7711,"▁gordo":7712,"▁si.":7713,"tivo.":7714,"▁ESO":7715,"rosa":7716,"▁congreso":7717,"ciación":7718,"▁deter":7719,"des,":7720,"▁friends":7721,"▁catal":7722,"▁haría":7723,"▁Extraño":7724,"▁habían":7725,"rael":7726,"▁Black":7727,"▁fiel":7728,"quete":7729,"▁devuel":7730,"▁fake":7731,"ccion":7732,"▁thing":7733,"▁formas":7734,"▁VAMOS":7735,"▁MEJOR":7736,"▁Pregun":7737,"▁hp":7738,"▁iniciativa":7739,"icul":7740,"▁adoles":7741,"▁culia":7742,"▁colores":7743,"▁\"es":7744,"▁casual":7745,"urar":7746,":0":7747,"▁escribiendo":7748,"▁2020.":7749,"▁tho":7750,"imp":7751,"▁ple":7752,"▁pagan":7753,"gulo":7754,"▁cop":7755,"▁gane":7756,"▁marido":7757,"▁Fiscal":7758,"▁Él":7759,"▁pleno":7760,"ister":7761,"vs":7762,"▁apo":7763,"▁proto":7764,"▁Puede":7765,"▁pendejos":7766,"▁enamorada":7767,"▁album":7768,"▁emi":7769,"▁coinci":7770,"▁pedido":7771,"▁where":7772,"▁gala":7773,"▁probable":7774,"▁Reci":7775,"ión,":7776,"▁care":7777,"▁echa":7778,"▁tenéis":7779,"▁alumnos":7780,"▁Siento":7781,"▁consecuencias":7782,"▁perdiendo":7783,"▁fuerzas":7784,"PP":7785,"▁something":7786,"▁intento":7787,"▁viejos":7788,"▁angel":7789,"▁Ir":7790,"▁peligro":7791,"▁36":7792,"las.":7793,"con_":7794,"ías,":7795,"▁familiares":7796,"colo":7797,"▁avión":7798,"ERE":7799,"uto":7800,"jo.":7801,"▁ocurre":7802,"enti":7803,"▁presencia":7804,"▁cuadrado":7805,"▁nen":7806,"▁defin":7807,"▁pedazo":7808,"▁sena":7809,"▁II":7810,"▁negocios":7811,"todos":7812,"dores.":7813,"REN":7814,"▁perra":7815,"▁sabia":7816,"▁maltra":7817,"▁AT":7818,"▁cata":7819,"▁igu":7820,"▁asomb":7821,"plo":7822,"▁depende":7823,"▁buscan":7824,"▁HD":7825,"▁acus":7826,"▁encontré":7827,"▁artista":7828,"▁high":7829,"▁ridí":7830,"▁Thanks":7831,"zá":7832,"▁ganan":7833,"án,":7834,"▁ridículo":7835,"In":7836,"▁norte":7837,"deral":7838,"gos,":7839,"▁sí.":7840,"▁arras":7841,"▁acceso":7842,"viamente":7843,"▁Nuestra":7844,"▁luchar":7845,"empo":7846,"▁Radio":7847,"ali":7848,"▁act":7849,"▁testi":7850,"▁tratando":7851,"ÉN":7852,"▁Ed":7853,"▁mismas":7854,"▁pudiera":7855,"bus":7856,"eció":7857,"as?":7858,"▁refor":7859,"▁innova":7860,"▁usu":7861,"▁toy":7862,"iencias":7863,"▁sabado":7864,"▁Bri":7865,"▁bole":7866,"2,":7867,"▁sombrero":7868,"▁necesit":7869,"▁:3":7870,"▁Disfru":7871,"ueve":7872,"anta":7873,"▁jard":7874,"GAN":7875,"▁7.":7876,"omo":7877,"▁divi":7878,"reo":7879,"GUI":7880,"▁sois":7881,"EP":7882,"▁lloro":7883,"▁gratui":7884,"▁ignorancia":7885,"▁presos":7886,"▁habita":7887,"▁John":7888,"▁Sub":7889,"▁usando":7890,"▁playing":7891,"▁hope":7892,"▁alguno":7893,"▁Hola,":7894,"ario.":7895,"▁españoles":7896,"▁pa'":7897,"▁cool":7898,"▁instru":7899,"▁despertar":7900,"▁¡Es":7901,"dicion":7902,"▁invierno":7903,"▁errores":7904,"▁económica":7905,"▁fiestas":7906,"▁insu":7907,"▁support":7908,"▁publicidad":7909,"▁hotel":7910,"ceramente":7911,"▁perdí":7912,"▁corta":7913,"XI":7914,"▁gilipol":7915,"milio":7916,"tely":7917,"iam":7918,"▁enfrentar":7919,"▁pasaron":7920,"▁disfra":7921,"▁américa":7922,"▁Com":7923,"▁PORQUE":7924,"▁meme":7925,"▁enseñ":7926,"▁Plaza":7927,"▁CAL":7928,"▁País":7929,"jó":7930,"icos.":7931,"▁peores":7932,"▁finales":7933,"▁daba":7934,"▁crecer":7935,"▁electoral":7936,"▁party":7937,"zi":7938,"imnas":7939,"▁idiota":7940,"▁peli":7941,"idal":7942,"▁pata":7943,"▁clásico":7944,"▁이":7945,"▁diputados":7946,"bara":7947,"▁Amb":7948,"▁Ram":7949,"▁oh":7950,"UD":7951,"▁declar":7952,"▁sensación":7953,"▁quizás":7954,"▁boo":7955,"▁Navidad":7956,"▁util":7957,"ezas":7958,"▁Agra":7959,"▁Ángel":7960,"▁seres":7961,"▁hacerse":7962,"▁verla":7963,"▁it.":7964,"▁participación":7965,"):":7966,"▁adic":7967,"▁etique":7968,"▁Usted":7969,"▁cabo":7970,"▁guapo":7971,"▁conciencia":7972,"▁vice":7973,"▁guitar":7974,"▁2,":7975,"▁asquer":7976,"uth":7977,"▁desea":7978,"▁imbé":7979,"▁When":7980,"▁199":7981,"▁Depor":7982,"▁igualdad":7983,"▁atras":7984,"▁personajes":7985,"▁tik":7986,"▁Jjaja,":7987,"▁homenaje":7988,"▁Mé":7989,"▁ب":7990,"▁CAB":7991,"▁escena":7992,"▁happen":7993,"▁independiente":7994,"▁use":7995,"▁cayó":7996,"▁fues":7997,"▁ahora,":7998,"▁DON":7999,"▁habia":8000,"▁Apren":8001,"▁botella":8002,"ventud":8003,"▁CI":8004,"▁trump":8005,"▁larga":8006,"▁chab":8007,"▁adentro":8008,"▁contagios":8009,"▁proce":8010,"asol":8011,"▁TER":8012,"any":8013,"▁Pad":8014,"▁reconocer":8015,"▁pendiente":8016,"nera":8017,"▁herramien":8018,"▁mtvlafandom":8019,"▁y,":8020,"▁things":8021,"dem":8022,"cast":8023,"ifa":8024,"▁medica":8025,"▁queso":8026,"▁decís":8027,"▁planta":8028,"▁beautiful":8029,"▁obs":8030,"▁Mc":8031,"▁lastima":8032,"▁héro":8033,"ness":8034,"▁periodismo":8035,"▁pusieron":8036,"▁consejos":8037,"_a":8038,"▁parecen":8039,"eda":8040,"▁corazon":8041,"▁someone":8042,"▁crush":8043,"▁apun":8044,"▁delincuentes":8045,"▁laboral":8046,"▁hs":8047,"▁Debe":8048,"▁él.":8049,"▁odia":8050,"▁SOLO":8051,"▁olor":8052,"▁tranquila":8053,"▁agenda":8054,"▁recuperar":8055,"▁Sw":8056,"▁maestro":8057,"▁¿qué":8058,"▁keep":8059,"▁contac":8060,"▁decre":8061,"▁NU":8062,"pico":8063,"itarios":8064,"▁vídeos":8065,"29":8066,"_con_":8067,"▁tiran":8068,"izando":8069,"▁española":8070,"cá":8071,"▁posición":8072,"vamos":8073,"▁Todas":8074,"▁posta":8075,"abo":8076,"▁vos,":8077,"▁¡El":8078,"▁cena":8079,"▁Nar":8080,"▁exten":8081,"▁bom":8082,"ificar":8083,"▁sosten":8084,"▁Dec":8085,"▁diálogo":8086,"▁rival":8087,"▁tanto,":8088,"▁(+":8089,"▁abrazar":8090,"▁inven":8091,"▁facil":8092,"▁democrá":8093,"▁adi":8094,"▁esque":8095,"▁verdadera":8096,"gers":8097,"▁Primer":8098,"▁wal":8099,"▁Via":8100,"▁Conoce":8101,"▁dispos":8102,"▁Hon":8103,"queta":8104,"▁set":8105,"aas":8106,"▁sufrir":8107,"dá":8108,"▁mues":8109,"vers":8110,"▁Sam":8111,"▁vel":8112,"▁ampl":8113,"antil":8114,"▁tía":8115,"tiz":8116,"▁partida":8117,"vision":8118,"usto":8119,"▁convertir":8120,"ped":8121,"l.":8122,"▁vá":8123,"▁qué?":8124,"jera":8125,"uerte":8126,"JAJ":8127,"▁\"En":8128,"▁fucking":8129,"▁nena":8130,"▁mere":8131,"▁pour":8132,"ões":8133,"▁inmedia":8134,"▁Ko":8135,"▁existir":8136,"▁públicos":8137,"OS,":8138,"▁cabello":8139,"▁mtvlaparejajuliantina":8140,"ele":8141,"▁darme":8142,"▁Gru":8143,"▁magia":8144,"▁impresion":8145,"▁pobreza":8146,"▁duermo":8147,"▁tão":8148,"▁Javier":8149,"▁later":8150,"iii":8151,"cho,":8152,"▁emplea":8153,"▁orien":8154,"▁aprue":8155,"▁muertes":8156,"teras":8157,"▁many":8158,"▁compras":8159,"encial":8160,"▁supues":8161,"▁cens":8162,"▁constante":8163,"▁ki":8164,"▁fumar":8165,"▁mtvlafandomjuliantina":8166,"▁posibilidad":8167,"▁rendir":8168,"AJ":8169,"▁vez.":8170,"tivo,":8171,"▁\"s":8172,"▁\"G":8173,"▁mirada":8174,"▁restau":8175,"sa,":8176,"▁tmb":8177,"▁entienden":8178,"▁recon":8179,"ham":8180,"▁piedra":8181,"▁Its":8182,"▁servi":8183,"cr":8184,"▁Vas":8185,"▁Dipu":8186,"▁can't":8187,"▁sorteo":8188,"▁USA":8189,"▁mañan":8190,"▁gall":8191,"rey":8192,"▁invent":8193,"als":8194,"▁ms":8195,"ADOR":8196,"▁Lar":8197,"▁し":8198,":5":8199,"▁invita":8200,"▁prioridad":8201,"▁llamada":8202,"▁musica":8203,"▁PEN":8204,"ongi":8205,"▁inteligencia":8206,"pool":8207,"gr":8208,"▁informar":8209,"▁TW":8210,"▁rever":8211,"▁aver":8212,"▁vuelto":8213,"▁Ge":8214,"of":8215,"las,":8216,"▁aumento":8217,"▁dr":8218,"▁hacerle":8219,"tiano":8220,"▁desayun":8221,"▁esperaba":8222,"▁recomiendo":8223,"▁IM":8224,"▁caja":8225,"hua":8226,"jsj":8227,"-M":8228,"▁solidaridad":8229,"▁\"¿":8230,"EEE":8231,"▁rit":8232,"lia":8233,"▁identif":8234,"▁-.":8235,"▁assim":8236,"▁actua":8237,"▁nose":8238,"▁temporar":8239,"▁ng":8240,"▁Sabes":8241,"▁expul":8242,"▁#1":8243,"▁redu":8244,"▁Joa":8245,"ique":8246,"▁\"Los":8247,"▁Cami":8248,"▁tendencia":8249,"ientos":8250,"▁IT":8251,"▁dejando":8252,"▁charla":8253,"▁Hel":8254,"▁clos":8255,"▁saluda":8256,"▁ellos,":8257,"▁naturale":8258,"▁Cr":8259,"AS.":8260,"▁2019.":8261,"▁VIDA":8262,"ken":8263,"▁URL\"":8264,"▁tatua":8265,"vela":8266,"▁comunica":8267,"▁face":8268,"▁coo":8269,"izada":8270,"▁Leo":8271,"▁Bern":8272,"▁friend":8273,"▁privado":8274,"▁NECES":8275,"▁dispar":8276,"▁guapa":8277,"LTI":8278,"▁Tras":8279,"▁debido":8280,"cier":8281,"▁trai":8282,"▁descen":8283,"▁dirección":8284,"▁Gonzá":8285,"reola":8286,"AND":8287,"ágri":8288,"▁mentir":8289,"ano,":8290,"▁eso?":8291,"▁sorry":8292,"▁Paz":8293,"▁podrá":8294,"▁%":8295,"▁respuestas":8296,"KD":8297,"x,":8298,"tage":8299,"imas":8300,"▁lon":8301,"▁turismo":8302,"▁trabajo.":8303,"▁pantalla":8304,"▁:/":8305,"pto":8306,"▁ordenador":8307,"▁¡¡¡":8308,"▁Wal":8309,"entes.":8310,"ritu":8311,"▁irse":8312,"2017":8313,"▁personas,":8314,"TOR":8315,"▁vuelven":8316,"in.":8317,"▁compa":8318,"trol":8319,"▁batalla":8320,"▁quedé":8321,"▁Ever":8322,"tado.":8323,"▁Felicitaciones":8324,"▁recomen":8325,"▁violates":8326,"gether":8327,"▁met":8328,"▁mencion":8329,"ísimas":8330,"uca":8331,"▁claro,":8332,"▁lidera":8333,"▁madres":8334,"▁rea":8335,"▁rio":8336,"▁MAM":8337,"arnos":8338,"▁comenzar":8339,"km":8340,"trado":8341,"▁Má":8342,"▁die":8343,"▁sana":8344,"ilita":8345,"cela":8346,"▁Br":8347,"▁fort":8348,"tiva.":8349,"pula":8350,"▁mini":8351,"▁atender":8352,"▁Viernes":8353,"p,":8354,"deces":8355,"ather":8356,"▁sesión":8357,"▁sorpresa":8358,"▁ficar":8359,"▁kar":8360,"gante":8361,"▁nes":8362,"▁pequeños":8363,"▁transpar":8364,"▁Rodri":8365,"▁mim":8366,"ENCIA":8367,"▁estaremos":8368,"▁Foto":8369,"▁despertador":8370,"▁mereces":8371,"▁satis":8372,"▁Ojala":8373,"▁gam":8374,"▁jur":8375,"ash":8376,"▁supone":8377,"▁Martin":8378,"▁lavar":8379,"▁tonto":8380,"▁alzada":8381,"ñé":8382,"pón":8383,"▁Will":8384,"in,":8385,"▁comprome":8386,"▁Defini":8387,"▁sacan":8388,"▁facultad":8389,"dencias":8390,"tamiento":8391,"▁quedarse":8392,"serio":8393,"▁tienda":8394,"far":8395,"▁ruta":8396,"▁own":8397,"▁put":8398,"▁perú":8399,"▁Dios,":8400,"INO":8401,"▁temporarily":8402,"▁everyone":8403,"▁cultural":8404,"▁nal":8405,"▁competi":8406,"▁diez":8407,"▁leído":8408,"▁に":8409,"▁sufri":8410,"▁Duque":8411,"500":8412,"▁superior":8413,"gil":8414,"▁:((":8415,"▁construir":8416,"▁peti":8417,"¡¡":8418,"▁papas":8419,"▁Confir":8420,"talidad":8421,"▁parla":8422,"▁unavailable":8423,"IDA":8424,"▁demuestra":8425,"▁hate":8426,"▁estima":8427,"list":8428,"▁quédate":8429,"illos":8430,"▁horror":8431,"▁monó":8432,"▁sín":8433,"▁aureola":8434,"▁darte":8435,"dell":8436,"▁expec":8437,"▁discri":8438,"▁generación":8439,"▁més":8440,"▁mila":8441,"▁perfecta":8442,"▁contrato":8443,"tara":8444,"▁MADRE":8445,"▁gonna":8446,"▁Fla":8447,"dible":8448,"▁ésta":8449,"chada":8450,"▁JUN":8451,"▁razones":8452,"ezca":8453,"▁Policy.":8454,"▁ens":8455,"▁particular":8456,"▁power":8457,"▁semana.":8458,"▁Fan":8459,"uales":8460,"▁turno":8461,"▁gustar":8462,"▁stay":8463,"▁frio":8464,"▁diseño":8465,"▁marco":8466,"▁unidad":8467,"entes,":8468,"▁gracio":8469,"cciones":8470,"loud":8471,"33":8472,"▁Ví":8473,"▁incor":8474,"▁historia.":8475,"▁pelea":8476,"ony":8477,"▁blog":8478,"▁unfollowed":8479,"▁pibes":8480,"des.":8481,"dias":8482,"▁Chá":8483,"▁drama":8484,"▁Vuel":8485,"illar":8486,"▁jimin":8487,"▁polític":8488,"▁poten":8489,"▁valores":8490,"▁LES":8491,"▁intereses":8492,"▁box":8493,"▁humana":8494,"▁damos":8495,"▁bello":8496,"▁delito":8497,"▁¿E":8498,"jora":8499,"▁Hugo":8500,"tame":8501,"▁sun":8502,"▁terminó":8503,"HS":8504,"▁jejeje":8505,"▁jubi":8506,"cripción":8507,"▁Policía":8508,"zy":8509,"▁agarrar":8510,"▁(1":8511,"▁Andrés":8512,"▁Bur":8513,"quez":8514,"▁Estás":8515,"▁you.":8516,"▁long":8517,"▁Tr":8518,"▁veía":8519,"▁actor":8520,"dezco":8521,"▁melo":8522,"▁tera":8523,"pris":8524,"▁pelotuda":8525,"allenge":8526,"visa":8527,"▁Pel":8528,"▁FAL":8529,"bano":8530,"▁bat":8531,"PS":8532,"▁tarjeta":8533,"▁¡Gracias":8534,"ita,":8535,"▁premi":8536,"▁lágri":8537,"▁Top":8538,"▁mega":8539,"▁cercan":8540,"▁maduro":8541,"ios,":8542,"▁Apar":8543,"uco":8544,"▁magn":8545,"▁esposa":8546,"ario,":8547,"▁tér":8548,"ano.":8549,"cula":8550,"▁before":8551,"milar":8552,"▁Pr":8553,"▁gobiernos":8554,"log":8555,"▁ec":8556,"▁velo":8557,"lano":8558,"▁expos":8559,"▁vieron":8560,"▁amas":8561,"▁Pérez":8562,"▁Mill":8563,"▁suelo":8564,"▁colum":8565,"▁nervio":8566,"▁adap":8567,"▁entro":8568,"▁completamente":8569,"▁num":8570,"▁criticar":8571,"▁área":8572,"án.":8573,"',":8574,"▁gorda":8575,"igual":8576,"▁iP":8577,"LI":8578,"▁COMP":8579,"ved":8580,"ARIO":8581,"▁bolas":8582,"icando":8583,"▁decir,":8584,"▁retro":8585,"gri":8586,"come":8587,"▁Ellos":8588,"?...":8589,"▁compor":8590,"▁POL":8591,"-4":8592,"/3":8593,"▁mtvlafandomjuliantinafans":8594,"▁pm":8595,"ing,":8596,"▁municipio":8597,"eada":8598,"▁Primero":8599,"vern":8600,"▁prefier":8601,"v.":8602,"temala":8603,"mentación":8604,"▁tô":8605,"▁Sigo":8606,"▁Anda":8607,"diós":8608,"fal":8609,"▁recibe":8610,"▁Obvio":8611,"▁directamente":8612,"200":8613,"▁remo":8614,"▁abri":8615,"▁él,":8616,"▁Cier":8617,"iales":8618,"▁emoción":8619,"▁acaban":8620,"kers":8621,"▁policías":8622,"pecial":8623,"▁Valencia":8624,"play":8625,"▁pidió":8626,"▁podrían":8627,"box":8628,"▁conflic":8629,"▁comercial":8630,"ports":8631,"RR":8632,"▁seis":8633,"▁pessoa":8634,"▁Muchos":8635,"▁personas.":8636,"(?":8637,"▁tome":8638,"▁bols":8639,"▁0.":8640,"▁lee":8641,"vando":8642,"▁\"O":8643,"▁alar":8644,"▁capaci":8645,"▁reconocimiento":8646,"tado,":8647,"ate":8648,"▁PC":8649,"▁echo":8650,"▁¿En":8651,"▁conocido":8652,"▁vulnera":8653,"dical":8654,"▁voluntad":8655,"▁alerta":8656,"▁10.":8657,"▁relacion":8658,"▁episodio":8659,"▁MIL":8660,"▁activa":8661,"...y":8662,"▁Sergio":8663,"▁corrupto":8664,"▁técnico":8665,"▁aí":8666,"▁electr":8667,"árez":8668,"▁¿Al":8669,"▁è":8670,"CAR":8671,"▁conocimiento":8672,"manos":8673,"ñez":8674,"▁río":8675,"▁DIS":8676,"▁tama":8677,"▁Hospital":8678,"▁Ning":8679,"▁persona,":8680,"▁universo":8681,"▁girasol":8682,"▁mmm":8683,"▁infier":8684,"▁Cel":8685,"ordin":8686,"b.":8687,"dable":8688,"uk":8689,"tud":8690,"▁alas":8691,"▁call":8692,"irch":8693,"▁Falta":8694,"key":8695,"▁olvido":8696,"▁two":8697,"ables":8698,"▁sorprende":8699,"▁GENTE":8700,"chool":8701,"▁Europe":8702,"body":8703,"▁mañana,":8704,"ason":8705,"▁firma":8706,"▁monóculo":8707,"bieron":8708,"▁Mos":8709,"tion.":8710,"▁fraude":8711,"▁Champions":8712,"▁Ál":8713,"▁tl":8714,"re,":8715,"▁vaina":8716,"▁demasia":8717,"▁matan":8718,"▁dejas":8719,"▁llegando":8720,"▁gym":8721,"▁acusa":8722,"▁atro":8723,"mbio":8724,"▁TR":8725,"▁ger":8726,"▁indigna":8727,"▁master":8728,"▁JAJAJAJAJ":8729,"▁Nosotros":8730,"▁Felipe":8731,"▁tatu":8732,"VEN":8733,"▁generar":8734,"▁dió":8735,"▁incomp":8736,"▁ghvi":8737,"▁semestre":8738,"▁emocional":8739,"▁transmi":8740,"íos":8741,"▁lindas":8742,"▁maravilla":8743,"¿¿":8744,"donos":8745,"▁VIDEO":8746,"▁tuviera":8747,"▁ESTÁ":8748,"▁acord":8749,"▁inep":8750,"enda":8751,"▁chat":8752,"cies":8753,"▁desemp":8754,"enzo":8755,"venido":8756,"▁55":8757,"▁orgullosa":8758,"ctima":8759,"Los":8760,"▁enseñar":8761,"ehyung":8762,"monos":8763,"ciles":8764,"▁thro":8765,"▁AMOR":8766,"▁parec":8767,"▁Rodríguez":8768,"dk":8769,"▁eras":8770,"oot":8771,"▁bolude":8772,"▁aho":8773,"▁conversación":8774,"▁(M":8775,"▁destro":8776,"▁¡Qué":8777,"ustri":8778,"▁programas":8779,"▁enviar":8780,"▁oportunidades":8781,"▁Asa":8782,"▁registra":8783,"▁Ministro":8784,"▁comentar":8785,"▁hot":8786,"viene":8787,"▁millón":8788,"▁Apro":8789,"▁sentimientos":8790,"▁uwu":8791,"▁gracias.":8792,"▁tranquilo":8793,"uy":8794,"▁33":8795,"bles.":8796,"▁8.":8797,"guas":8798,"▁you're":8799,"▁critica":8800,"▁Bet":8801,"bb":8802,"dados":8803,"▁doctor":8804,"▁mostrador":8805,"ja.":8806,"???.":8807,"▁paraguay":8808,"▁ame":8809,"▁novela":8810,"pa,":8811,"▁VAL":8812,"▁hear":8813,"▁publicado":8814,"▁CUANDO":8815,"▁198":8816,"ivar":8817,"▁Increíble":8818,"▁Harry":8819,"▁pasión":8820,"▁pico":8821,"tico.":8822,"▁militares":8823,"▁mexicanos":8824,"▁crecimiento":8825,"▁Recor":8826,"DU":8827,"▁Guaid":8828,"▁Tanto":8829,"ore":8830,"ARI":8831,"▁ór":8832,"▁nube":8833,"▁hard":8834,"yyy":8835,"▁domi":8836,"▁apoya":8837,"▁clientes":8838,"▁Ministerio":8839,"▁paciencia":8840,"▁cojones":8841,"▁Cho":8842,"▁story":8843,"▁breve":8844,"tumbre":8845,"▁manifes":8846,"▁sacri":8847,"▁industria":8848,"▁piernas":8849,"▁conejo":8850,"▁ilu":8851,"▁fli":8852,"irchner":8853,"▁VE":8854,"▁fantasma":8855,"rie":8856,"▁usan":8857,"▁bibl":8858,"▁SH":8859,"▁aerop":8860,"▁Tom":8861,"▁aguanto":8862,"▁lectura":8863,"culos":8864,"▁familia,":8865,"▁né":8866,"▁partes":8867,"▁Tri":8868,"▁ultra":8869,"▁OP":8870,"ino,":8871,"▁sobra":8872,"▁juez":8873,"▁(o":8874,"▁Justo":8875,"maron":8876,"minar":8877,"▁nefas":8878,"▁audiencia":8879,"▁manga":8880,"▁putas":8881,"▁bicicleta":8882,"▁mover":8883,"▁arena":8884,"▁Petro":8885,"▁Andal":8886,"▁hacerte":8887,"▁formación":8888,"▁ya,":8889,"▁relaciones":8890,"▁ella.":8891,"AME":8892,"▁LLOR":8893,"▁Vale":8894,"▁Ó":8895,"andal":8896,"vy":8897,"▁tigre":8898,"▁igual,":8899,"▁respetar":8900,"▁TIENE":8901,"▁oye":8902,"▁copas":8903,"cas,":8904,"▁Imag":8905,"▁Valle":8906,"MX":8907,"▁sentimiento":8908,"▁➡":8909,"▁aburri":8910,"ÑA":8911,"▁日":8912,"▁menores":8913,"▁cartel":8914,"▁económico":8915,"▁read":8916,"re.":8917,"▁consulta":8918,"guar":8919,"▁roba":8920,"▁armas":8921,"▁ideal":8922,"▁veremos":8923,"▁dato":8924,"▁sospe":8925,"▁números":8926,"exual":8927,"▁aliment":8928,"▁stra":8929,"▁confor":8930,"▁estaré":8931,"plica":8932,"iness":8933,"mburgues":8934,"time":8935,"ili":8936,"▁decirte":8937,"ÃO":8938,"▁EM":8939,"▁Consejo":8940,"▁ESP":8941,"ward":8942,"▁birra":8943,"▁humo":8944,"▁amaz":8945,"▁claramente":8946,"▁ilusión":8947,"▁plus":8948,"led":8949,"▁Necesita":8950,"▁tóx":8951,"▁estando":8952,"▁DÍA":8953,"▁tul":8954,"▁mi.":8955,"bras":8956,"▁ARMY":8957,"▁Retw":8958,"taste":8959,"▁2014":8960,"▁days":8961,"ército":8962,"▁absur":8963,"▁Demo":8964,"▁víctima":8965,"▁arreglar":8966,"▁Semana":8967,"▁Mur":8968,"▁DIC":8969,"▁centros":8970,"▁Hal":8971,"▁||":8972,"▁delante":8973,"estima":8974,"▁infierno":8975,"▁festival":8976,"▁Fir":8977,"▁ee":8978,"olazo":8979,"MAS":8980,"▁maldita":8981,"▁Goberna":8982,"ño,":8983,"▁yes":8984,"gaste":8985,"íz":8986,"▁ojala":8987,"▁caracter":8988,"▁Panamá":8989,"▁desn":8990,"▁Play":8991,"▁those":8992,"simo":8993,"▁wanna":8994,"1,":8995,"unas":8996,"▁falsa":8997,"▁letra":8998,"▁tas":8999,"sonaro":9000,"▁Iglesias":9001,"▁chiqui":9002,"▁jer":9003,"▁alimentos":9004,"▁alegra":9005,"read":9006,"▁servir":9007,"CHE":9008,"▁ques":9009,"▁doing":9010,"▁anci":9011,"▁legisla":9012,"▁invitamos":9013,"frica":9014,"▁punta":9015,"▁pases":9016,"▁respal":9017,"acio":9018,"▁ang":9019,"▁Cuán":9020,"▁Ala":9021,"▁eval":9022,"▁LIN":9023,"▁under":9024,"▁también,":9025,"▁Dig":9026,"▁droga":9027,"/20":9028,"▁japon":9029,"▁que?":9030,"▁triunfo":9031,"▁test":9032,"▁¡N":9033,"rillo":9034,"▁sabiendo":9035,"▁momento,":9036,"ficos":9037,"▁arroz":9038,"▁Estar":9039,"mía":9040,"▁champions":9041,"▁mato":9042,"▁nicaragua":9043,"▁enamorar":9044,"▁primar":9045,"▁jungkook":9046,"▁controlar":9047,"▁pisto":9048,"▁cie":9049,"▁judicial":9050,"tiles":9051,"▁venezolano":9052,"▁Cali":9053,"▁escrito":9054,"▁cohe":9055,"▁cura":9056,"▁España.":9057,"madre":9058,"partamento":9059,"▁amooo":9060,"viste":9061,"enn":9062,"▁a.":9063,"▁aclar":9064,"▁caminar":9065,"▁juan":9066,"▁Grupo":9067,"▁producto":9068,"fía":9069,"▁Please":9070,"▁reca":9071,"▁amiga,":9072,"▁convir":9073,"él":9074,"capacidad":9075,"mad":9076,"▁CHA":9077,"mart":9078,"▁Bolivia":9079,"▁regis":9080,"▁Andalu":9081,"reno":9082,"▁inversión":9083,"▁aguantar":9084,"hout":9085,"▁dist":9086,"OLA":9087,"▁FELIZ":9088,"ulos":9089,"▁FO":9090,"ñal":9091,"▁beneficio":9092,"imiento":9093,"▁everything":9094,"▁summer":9095,"▁preso":9096,"▁esto?":9097,"▁wit":9098,"▁actuar":9099,"▁pasen":9100,"titos":9101,"▁conocen":9102,"▁Ari":9103,"▁conferencia":9104,"▁locos":9105,"memo":9106,"▁gab":9107,"jsja":9108,"▁imple":9109,"ary":9110,"▁sevilla":9111,"▁nervios":9112,"▁avent":9113,"▁rol":9114,"▁asa":9115,"▁TODA":9116,"ROS":9117,"▁rechazo":9118,"▁¡Buen":9119,"▁क":9120,"▁¿no":9121,"▁frun":9122,"▁hipó":9123,"▁Dé":9124,"▁regalar":9125,"kaka":9126,"▁coming":9127,"▁Hoy,":9128,"▁são":9129,"▁cuaderno":9130,"▁Lla":9131,"▁Basta":9132,"á.":9133,"▁disfruta":9134,"▁contestar":9135,"ezan":9136,"DD":9137,"▁aña":9138,"▁provoca":9139,"laciones":9140,"camp":9141,"▁JUS":9142,"der,":9143,"yes":9144,"▁VOY":9145,"▁pollo":9146,"▁¿Se":9147,"▁EXO":9148,"▁ángel":9149,"▁00":9150,"tico,":9151,"▁Bil":9152,"▁maldito":9153,"▁retw":9154,"▁infer":9155,"▁trato":9156,"▁Venezuela.":9157,"▁aler":9158,"▁pér":9159,"▁vesti":9160,"uación":9161,"laga":9162,"▁Sep":9163,"▁conoces":9164,"▁bang":9165,"▁Diario":9166,"fre":9167,"▁presión":9168,"▁Veo":9169,"▁resolver":9170,"IÓN":9171,"▁suje":9172,"gara":9173,"▁trop":9174,"▁tipos":9175,"untamiento":9176,"▁Wow":9177,"▁Lon":9178,"▁fuese":9179,"▁Edu":9180,"▁pelu":9181,"▁argentino":9182,"▁leyes":9183,"rones":9184,"_19":9185,"jud":9186,"▁regresar":9187,"▁megá":9188,"▁persona.":9189,"▁plataforma":9190,"▁nuevamente":9191,"▁:v":9192,"desa":9193,"▁hecha":9194,"lara":9195,"tiva,":9196,"▁concurso":9197,"oyo":9198,"últi":9199,"▁tremenda":9200,"▁espectacular":9201,"▁retras":9202,"▁harta":9203,"▁ciclo":9204,"▁Queremos":9205,"ed.":9206,"▁espacios":9207,"▁respira":9208,"▁acha":9209,"pias":9210,"▁región":9211,"▁\"de":9212,"▁artistas":9213,"▁cortar":9214,"▁angus":9215,"▁falso":9216,"game":9217,"▁ani":9218,"derecha":9219,"▁megáfono":9220,"▁dream":9221,"▁obses":9222,"▁tara":9223,"▁netflix":9224,"▁semana,":9225,"▁Pd":9226,"C,":9227,"▁away":9228,"▁Martínez":9229,"▁ponerse":9230,"▁(no":9231,"nor":9232,"▁propó":9233,"▁HERMOS":9234,"▁Var":9235,"▁accidente":9236,"▁beber":9237,"nia":9238,"▁Gracias,":9239,"▁exactamente":9240,"jara":9241,"▁Españ":9242,"▁caminando":9243,"▁Deus":9244,"▁Ahhh":9245,"▁edificio":9246,"▁_":9247,"▁sim":9248,"▁negar":9249,"▁single":9250,"▁miro":9251,"▁morning":9252,"▁MIERDA":9253,"GUN":9254,"ibilidad":9255,"▁pasos":9256,"▁mandan":9257,"▁dela":9258,"▁miembros":9259,"▁puertas":9260,"▁podrán":9261,"CIAL":9262,"▁ceño":9263,"▁Indepen":9264,"▁intentando":9265,"▁quar":9266,"▁gastar":9267,"▁vivimos":9268,"▁hijue":9269,"▁vayas":9270,"▁cadena":9271,"cho.":9272,"▁together":9273,"▁toman":9274,"▁gobernador":9275,"▁familia.":9276,"▁Italia":9277,"▁Nicolás":9278,"▁sienten":9279,"▁Actual":9280,"▁miercoles":9281,"ION":9282,"▁socio":9283,"CES":9284,"celo":9285,"aa,":9286,"▁Amigo":9287,"▁Pra":9288,"▁Dice":9289,"▁apos":9290,"▁Tro":9291,"▁bienestar":9292,"▁refu":9293,"▁protesta":9294,"▁empat":9295,"▁eterno":9296,"▁Mag":9297,"▁quejar":9298,"▁sába":9299,"ORT":9300,"▁tos":9301,"▁ella,":9302,"▁concre":9303,"▁Jjaja.":9304,"▁presidencial":9305,"▁Central":9306,"▁escal":9307,"▁Enhorabuena":9308,"▁pensado":9309,"▁parecido":9310,"▁mexicano":9311,"▁World":9312,"iros":9313,"▁cuales":9314,"▁Lee":9315,"▁Tamp":9316,"▁México,":9317,"axa":9318,"ías.":9319,"▁mañana.":9320,"pado":9321,"▁enfo":9322,"▁china":9323,"▁habéis":9324,"▁aisla":9325,"▁competencia":9326,"▁venden":9327,"▁tex":9328,"▁acces":9329,"▁difundir":9330,"▁bit":9331,"▁manejo":9332,"▁Fab":9333,"▁LPM":9334,"▁THIS":9335,"▁AU":9336,"▁tendremos":9337,"▁iglesia":9338,"▁temb":9339,"▁cc":9340,"▁alegro":9341,"cos,":9342,"▁Tener":9343,"▁hamburgues":9344,"▁bill":9345,"ecé":9346,"▁gimnas":9347,"▁transmisión":9348,"▁Sería":9349,"▁frases":9350,"ARON":9351,"lon":9352,"▁-S":9353,"tendo":9354,"▁BB":9355,"bó":9356,"▁noch":9357,"▁gestion":9358,"▁primeras":9359,"▁Mex":9360,"▁9.":9361,"▁Sé":9362,"▁Let":9363,"▁afecta":9364,"morrow":9365,"▁Álvar":9366,"▁mí,":9367,"quiere":9368,"▁denunciar":9369,"▁sentí":9370,"▁ris":9371,"▁pá":9372,"▁diablo":9373,"▁ricos":9374,"▁entendí":9375,"ios.":9376,"▁FE":9377,"▁estrés":9378,"ívar":9379,"▁Institu":9380,"▁lástima":9381,"▁zur":9382,"▁ultimo":9383,"▁¿Cuál":9384,"▁libres":9385,"entemente":9386,"▁feria":9387,"▁mx":9388,"▁3,":9389,"sí":9390,"unya":9391,"▁Ojo":9392,"▁infantil":9393,"decer":9394,"ments":9395,"▁alrededor":9396,"▁parcial":9397,"▁tú,":9398,"▁soon":9399,"IF":9400,"▁once":9401,"ólogo":9402,"▁pur":9403,"gena":9404,"▁Wil":9405,"ritos":9406,"▁God":9407,"▁facebook":9408,"▁ensa":9409,"▁lindos":9410,"▁mons":9411,"▁ghvip":9412,"▁Bay":9413,"▁pud":9414,"▁cute":9415,"▁izquier":9416,"▁Venezuela,":9417,"to?":9418,"▁tocó":9419,"▁hero":9420,"▁inseguridad":9421,"▁empol":9422,"▁infra":9423,"!\"":9424,"▁me.":9425,"▁Haz":9426,"▁encuentran":9427,"▁acaso":9428,"▁cs":9429,"▁oferta":9430,"▁PLA":9431,"▁Ren":9432,"▁camion":9433,"▁anime":9434,"▁ed":9435,"ário":9436,"▁ahí,":9437,"uch":9438,"▁igual.":9439,"▁comparto":9440,"▁estupidez":9441,"dicional":9442,"▁noche,":9443,"▁vuestra":9444,"▁War":9445,"▁hospitales":9446,"jitos":9447,"ve.":9448,"▁dueño":9449,"▁:.":9450,"ierra":9451,"▁actos":9452,"▁Madrid.":9453,"▁Costa":9454,"▁tax":9455,"/o":9456,"dea":9457,"ERON":9458,"▁similar":9459,"▁Patria":9460,"▁cliente":9461,"com":9462,"▁colaboración":9463,"▁family":9464,"▁haha":9465,"tit":9466,"▁covid_19":9467,"teles":9468,"▁carita":9469,"lanes":9470,"ARA":9471,"cas.":9472,"▁colabora":9473,"▁Entra":9474,"ald":9475,"toy":9476,"temp":9477,"ángulo":9478,"▁vecino":9479,"▁EMP":9480,"GUE":9481,"▁León":9482,"▁muriendo":9483,"TRE":9484,"▁insis":9485,"▁04":9486,"▁vaso":9487,"camos":9488,"▁deser":9489,"▁nombres":9490,"▁Uni":9491,"▁Ramos":9492,"▁presupuesto":9493,"▁encuesta":9494,"▁formar":9495,"▁queriendo":9496,"▁llamo":9497,"▁matri":9498,"orio":9499,"▁propuestas":9500,"▁cans":9501,"▁empe":9502,"▁Rafael":9503,"▁prime":9504,"▁huellas":9505,"venil":9506,"▁Internet":9507,"jante":9508,"▁cumplen":9509,"▁momento.":9510,"ienta":9511,"▁oper":9512,"▁aviso":9513,"▁arrep":9514,"▁dir":9515,"▁confinamiento":9516,"▁juegan":9517,"▁Some":9518,"▁old":9519,"quía":9520,"▁cen":9521,"▁física":9522,"lique":9523,"▁Bos":9524,"▁seguramente":9525,"▁aplicar":9526,"▁ear":9527,"▁defiende":9528,"▁masco":9529,"▁Gusta":9530,"▁tempo":9531,"▁fracaso":9532,"▁mantiene":9533,"▁papás":9534,"▁enti":9535,"▁impac":9536,"roid":9537,"▁trabajan":9538,"▁OT":9539,"O,":9540,"temos":9541,"▁Algún":9542,"▁sonre":9543,"▁cnco":9544,"▁empu":9545,"real":9546,"▁cle":9547,"▁Dicen":9548,"mble":9549,"▁brazos":9550,"▁sumar":9551,"▁Polí":9552,"▁refier":9553,"view":9554,"▁mean":9555,"cres":9556,"posa":9557,"▁europa":9558,"▁japonés":9559,"75":9560,"▁continuar":9561,"▁(19":9562,"▁SOY":9563,"▁cobra":9564,"ctora":9565,"▁arrancar":9566,"▁Comisión":9567,"▁ído":9568,"▁pieza":9569,"ias,":9570,"▁instituciones":9571,"tible":9572,"▁compre":9573,"uestas":9574,"▁mana":9575,"▁evid":9576,"rón":9577,"ão,":9578,"▁dm":9579,"dada":9580,"▁HACE":9581,"▁llevó":9582,"▁ye":9583,"▁seme":9584,"▁bras":9585,"▁bloqueo":9586,"▁Af":9587,"tátil":9588,"▁México.":9589,"▁escenario":9590,"▁Bab":9591,"der.":9592,"▁andalu":9593,"▁cdmx":9594,"▁primo":9595,"▁figu":9596,"▁ces":9597,"▁nomina":9598,"▁porta":9599,"▁REAL":9600,"▁Partido":9601,"▁permiso":9602,"▁empresarios":9603,"▁MV":9604,"guiendo":9605,"▁pica":9606,"▁estru":9607,"?¿":9608,"▁inútil":9609,"▁rap":9610,"▁fundamental":9611,"lera":9612,"▁excusa":9613,"▁¿Ya":9614,"▁Noticias":9615,"▁quedarme":9616,"▁Angel":9617,"▁bala":9618,"▁asesino":9619,"mitas":9620,"▁gatos":9621,"▁Tranqui":9622,"▁vueltas":9623,"▁miren":9624,"pora":9625,"▁puedas":9626,"tly":9627,"▁gent":9628,"▁arrepen":9629,"▁caro":9630,"▁ningun":9631,"cés":9632,"▁macri":9633,"▁dynamite":9634,"▁gracias,":9635,"AS,":9636,"▁ritmo":9637,"▁decían":9638,"▁rema":9639,"▁mamar":9640,"▁tenis":9641,"▁importar":9642,"MIN":9643,"idade":9644,"▁avance":9645,"▁Llevo":9646,"▁LOVE":9647,"▁listen":9648,"uesto":9649,"fle":9650,"drán":9651,"▁elección":9652,"▁--":9653,"▁debut":9654,"▁Sr.":9655,"▁brutal":9656,"tancias":9657,"▁efecto":9658,"izan":9659,"cilla":9660,"▁logro":9661,"CL":9662,"▁correo":9663,"3,":9664,"▁en:":9665,"pping":9666,"▁asombrada":9667,"bando":9668,"▁rut":9669,"▁Inf":9670,"▁Dejen":9671,"▁Serv":9672,"FE":9673,"▁women":9674,"▁choice":9675,"▁humanidad":9676,"▁engan":9677,"▁chance":9678,"▁gradu":9679,"tim":9680,"▁mt":9681,"▁guardia":9682,"▁Habla":9683,"▁tuvieron":9684,"▁evolución":9685,"▁(que":9686,"▁compu":9687,"ame":9688,"us.":9689,"▁ridic":9690,"▁correcto":9691,"▁madrugada":9692,"▁AG":9693,"itat":9694,"▁oso":9695,"▁ofrece":9696,"▁cómpl":9697,"▁い":9698,"cau":9699,"segui":9700,"▁triángulo":9701,"REC":9702,"▁preguntan":9703,"▁mm":9704,"▁pasaba":9705,"▁todavia":9706,"▁vestido":9707,"▁galle":9708,"▁caen":9709,"▁urib":9710,"▁merca":9711,"▁costumbre":9712,"▁gr":9713,"side":9714,"▁Leon":9715,"▁Espera":9716,"ta?":9717,"yon":9718,"▁despre":9719,"identes":9720,"boy":9721,"cher":9722,"▁vergon":9723,"▁self":9724,"▁Jor":9725,"▁beneficios":9726,"▁Mundo":9727,"▁deportiva":9728,"▁dire":9729,"▁month":9730,"▁empollón":9731,"ın":9732,"▁MY":9733,"▁acabó":9734,"▁metros":9735,"▁sanitario":9736,"▁conserva":9737,"▁prevención":9738,"▁regla":9739,"cribir":9740,"▁fondos":9741,"▁OMG":9742,"▁epi":9743,"▁broma":9744,"▁aper":9745,"▁quiso":9746,"tty":9747,"▁hacer.":9748,"▁plane":9749,"▁kill":9750,"fortun":9751,"▁Corte":9752,"pio":9753,"▁España,":9754,"▁ahora.":9755,"▁Paul":9756,"cui":9757,"▁since":9758,"▁Encu":9759,"LL":9760,"▁acho":9761,"tugal":9762,"▁Spa":9763,"▁preocupada":9764,"▁Pop":9765,"▁\"Me":9766,"▁HACER":9767,"▁boludo":9768,"▁desaf":9769,"▁prove":9770,"dillas":9771,"hot":9772,"▁promes":9773,"▁health":9774,"▁carna":9775,"▁alqui":9776,"▁quise":9777,"▁Amigos":9778,"ention":9779,"▁Sábado":9780,"▁salieron":9781,"▁descanso":9782,"▁letras":9783,"▁alcanza":9784,"▁distra":9785,"▁COS":9786,"▁MON":9787,"De":9788,"▁pilo":9789,"tell":9790,"▁fuertes":9791,"▁inmun":9792,"ANG":9793,"▁gano":9794,"▁MUNDO":9795,"▁Literal":9796,"▁fueran":9797,"▁gasto":9798,"▁dí":9799,"▁razon":9800,"▁Guad":9801,"▁bendiga":9802,"▁Gracias.":9803,"ricul":9804,"▁quedaron":9805,"▁hit":9806,"▁enfren":9807,"▁Mam":9808,"▁perrito":9809,"▁FINAL":9810,"▁crítica":9811,"▁corazón.":9812,"▁fc":9813,"▁fit":9814,"▁lleve":9815,"reras":9816,"▁Why":9817,"▁aprovechar":9818,"▁ayudas":9819,"▁Jim":9820,"▁tuits":9821,"siva":9822,"mand":9823,"▁ganando":9824,"▁dame":9825,"▁MUCH":9826,"▁Constitución":9827,"▁amenaza":9828,"▁Quin":9829,"▁400":9830,"▁levanto":9831,"▁abuso":9832,"deras":9833,"▁Córdoba":9834,"▁¿O":9835,"tio":9836,"▁Peña":9837,"▁INTER":9838,"▁menos.":9839,"▁ciel":9840,"▁Nu":9841,"▁delicio":9842,"▁(F":9843,"▁which":9844,"NE":9845,"quel":9846,"▁anos":9847,"▁Municipal":9848,"▁vuestro":9849,"44":9850,"▁definitivamente":9851,"íritu":9852,"toso":9853,"▁algo.":9854,"▁líderes":9855,"▁curio":9856,"▁financi":9857,"▁latino":9858,"▁lado,":9859,"▁ranking":9860,"lá":9861,"oom":9862,"▁conex":9863,"▁EE.":9864,"▁Contin":9865,"▁boluda":9866,"▁puente":9867,"▁madre,":9868,"▁respir":9869,"▁borrar":9870,"sa.":9871,"▁Gan":9872,"dol":9873,"▁Aus":9874,"tern":9875,"▁Educación":9876,"▁DT":9877,"ST":9878,"▁Pensé":9879,"▁alarma":9880,"loween":9881,"males":9882,"▁Santos":9883,"ymar":9884,"▁Aaaa":9885,"▁sede":9886,"▁utilizar":9887,"▁coordina":9888,"▁salgan":9889,"▁¿V":9890,"mix":9891,"▁MES":9892,"▁salu":9893,"▁decidir":9894,"▁pueblos":9895,"▁Tig":9896,"▁cafe":9897,"us,":9898,"▁impon":9899,"▁roman":9900,"▁wow":9901,"final":9902,"▁mág":9903,"!?":9904,"▁Esas":9905,"▁llevamos":9906,"▁autoridad":9907,"undar":9908,"▁guardar":9909,"▁ONU":9910,"ISMO":9911,"▁Are":9912,"▁gobierno.":9913,"▁Alejandro":9914,"▁Dio":9915,"▁PON":9916,"▁Il":9917,"HAT":9918,"-S":9919,"▁aprendi":9920,"▁through":9921,"▁congres":9922,"tain":9923,"▁posted":9924,"▁mascarillas":9925,"▁Bru":9926,"▁inspira":9927,"je,":9928,"▁experi":9929,"ada,":9930,"▁oficina":9931,"▁Boy":9932,"▁Recuerda":9933,"▁Seguridad":9934,"▁Patr":9935,"▁destruir":9936,"zla":9937,"▁responsables":9938,"▁encantan":9939,"FF":9940,"▁Bi":9941,"▁gobierno,":9942,"▁lor":9943,"▁taller":9944,"▁naturaleza":9945,"▁Maria":9946,"▁mejora":9947,"quista":9948,"▁entrenador":9949,"▁Jornada":9950,"▁queja":9951,"▁apoyando":9952,"▁Your":9953,"▁asustada":9954,"▁exigir":9955,"hay":9956,"▁matando":9957,"▁MAT":9958,"▁lider":9959,"▁juventud":9960,"elas":9961,"▁falla":9962,"tismo":9963,"▁cham":9964,"▁aument":9965,"▁colectivo":9966,"▁quedas":9967,"▁Luna":9968,"tienen":9969,"▁uds":9970,"▁RI":9971,"▁excel":9972,"untos":9973,"▁Univers":9974,"▁milit":9975,"▁mc":9976,"▁lot":9977,"fici":9978,"ERN":9979,"vide":9980,"▁Not":9981,"JOS":9982,"pr":9983,"▁fuimos":9984,"▁alv":9985,"cro":9986,"▁getting":9987,"gem":9988,"icas,":9989,"▁PERS":9990,"▁llevas":9991,"▁resumen":9992,"icardo":9993,"ijo":9994,"▁find":9995,"direc":9996,"▁eslab":9997,"▁passa":9998,"ética":9999,"▁zonas":10000,"▁Bat":10001,"▁gráfica":10002,"▁PD":10003,"cadas":10004,"▁maravilloso":10005,"▁ajena":10006,"▁Far":10007,"▁partido.":10008,"metro":10009,"pongo":10010,"quín":10011,"▁Totalmente":10012,"▁Puedes":10013,"▁desen":10014,"▁¿por":10015,"▁quí":10016,"▁menos,":10017,"▁regular":10018,"▁change":10019,"▁Metro":10020,"▁autoestima":10021,"▁Llor":10022,"▁differ":10023,"▁santiago":10024,"ismos":10025,"traron":10026,"▁Ronal":10027,"▁¿De":10028,"▁escuch":10029,"MENTE":10030,"▁Calder":10031,"▁Exac":10032,"▁salí":10033,"▁fin,":10034,"▁Follow":10035,"▁jal":10036,"▁Mol":10037,"▁historia,":10038,"▁rid":10039,"▁feliz.":10040,"▁resu":10041,"▁podés":10042,"▁columna":10043,"48":10044,"▁vamo":10045,"▁ana":10046,"ulas":10047,"▁callar":10048,"▁olvides":10049,"▁unir":10050,"es?":10051,"▁tratamiento":10052,"▁stic":10053,"▁mande":10054,"▁villa":10055,"osos":10056,"ic.":10057,"▁enemigo":10058,"▁portada":10059,"▁moder":10060,"▁aguante":10061,"▁salvo":10062,"▁sirven":10063,"ural":10064,"▁estudios":10065,"▁Blo":10066,"▁doming":10067,"▁NOOO":10068,"▁Guaidó":10069,"▁diputado":10070,"▁Madrid,":10071,"▁str":10072,"▁chef":10073,"▁despierto":10074,"dian":10075,"▁Salu":10076,"▁yourself":10077,"▁firme":10078,"▁Ñ":10079,"▁inci":10080,"▁FM":10081,"▁CDMX":10082,"lético":10083,"▁cuentan":10084,"▁Andre":10085,"andra":10086,"▁Parque":10087,"35":10088,"ras,":10089,"▁maca":10090,"▁while":10091,"sima":10092,"▁i'":10093,"▁lives":10094,"iental":10095,"▁culpable":10096,"▁aprox":10097,"pá":10098,"▁IR":10099,"fit":10100,"▁ora":10101,"▁razón,":10102,"ita.":10103,"▁PAN":10104,"▁estreno":10105,"▁ayudan":10106,"CIONAL":10107,"▁paciente":10108,"▁kids":10109,"▁maneja":10110,"aría":10111,"▁entren":10112,"▁eslabón":10113,"grá":10114,"thers":10115,"▁Jack":10116,"▁jueces":10117,"▁vencer":10118,"▁whatsapp":10119,"▁Vie":10120,"▁león":10121,"Re":10122,"▁Jung":10123,"▁CC":10124,"▁Jamás":10125,"▁aquí,":10126,"▁Ante":10127,"▁fala":10128,"▁impro":10129,"▁fur":10130,"ES.":10131,"▁extrema":10132,"mili":10133,"▁trendy":10134,"▁QUER":10135,"▁escuelas":10136,"▁VAR":10137,"sidades":10138,"▁princesa":10139,"ónico":10140,"▁hubieran":10141,"▁propios":10142,"▁feliz,":10143,"/a":10144,"▁secreto":10145,"▁24/7":10146,"ORM":10147,"▁artic":10148,"▁alcanzar":10149,"▁で":10150,"▁interro":10151,"▁despierta":10152,"elle":10153,"▁amanecer":10154,"▁residen":10155,"▁Aqui":10156,"▁trabal":10157,"▁consumo":10158,"▁atacar":10159,"▁Fil":10160,"▁Mia":10161,"▁estra":10162,"▁sentar":10163,"▁Pueblo":10164,"▁escuchado":10165,"▁Louis":10166,"▁paral":10167,"▁cohete":10168,"▁llegaron":10169,"▁alu":10170,"▁impacto":10171,"wh":10172,"-20":10173,"▁PM":10174,"▁Ud":10175,"▁ᅠ":10176,"américa":10177,"▁sexy":10178,"▁mtvlaic":10179,"▁aprende":10180,"ESTA":10181,"▁Tres":10182,"▁artes":10183,"▁PRIM":10184,".00":10185,"▁GOO":10186,"guila":10187,"▁impe":10188,"▁S.":10189,"▁Cru":10190,"▁rabia":10191,"▁señores":10192,"reas":10193,"▁ml":10194,"▁Tienen":10195,"▁infancia":10196,"▁alien":10197,"▁silla":10198,"▁!!!.":10199,"▁48":10200,"65":10201,"▁excus":10202,"▁tech":10203,"ciado":10204,"▁esquina":10205,"▁sigues":10206,"▁Tiempo":10207,"▁indí":10208,"▁dijiste":10209,"▁URG":10210,"▁Bes":10211,"▁podcast":10212,"▁laburo":10213,"▁Francia":10214,"___":10215,"▁ate":10216,"▁financia":10217,"▁zor":10218,"47":10219,"▁Fun":10220,"▁haré":10221,"▁tulip":10222,"▁pelotudos":10223,"▁desperté":10224,"▁chau":10225,"ora,":10226,"▁PUEDE":10227,"▁believe":10228,"pois":10229,"▁empiezan":10230,"▁league":10231,"▁Ah,":10232,"jita":10233,"▁Sebas":10234,"▁Gir":10235,"▁papi":10236,"▁maf":10237,"▁lujo":10238,"▁jardín":10239,"YY":10240,"▁Viva":10241,"▁rui":10242,"▁Definitivamente":10243,"▁González":10244,"▁py":10245,"▁labios":10246,"▁line":10247,"▁histórico":10248,"abas":10249,"neces":10250,"ASE":10251,"▁cabron":10252,"▁eliminar":10253,"??.":10254,"▁revolución":10255,"viles":10256,"▁¡Feliz":10257,"zaron":10258,"▁Lunes":10259,"▁organización":10260,"grap":10261,"▁inv":10262,"▁ped":10263,"▁abrazos":10264,"▁Gas":10265,"▁ty":10266,"▁benefici":10267,"▁AÑOS":10268,"CRI":10269,"▁DEJA":10270,"▁32":10271,"▁Oscar":10272,"▁qe":10273,"iverpool":10274,"▁verdad?":10275,"tte":10276,"▁unión":10277,"▁aspec":10278,"crí":10279,"▁horas.":10280,"▁UP":10281,"tha":10282,"▁levantarme":10283,"▁\"me":10284,"▁previa":10285,"▁Lan":10286,"▁asal":10287,"sp":10288,"gla":10289,"▁chino":10290,"terra":10291,"▁group":10292,"▁HO":10293,"▁cigar":10294,"oool":10295,"▁Like":10296,"▁vue":10297,"▁repos":10298,"vada":10299,"▁existencia":10300,"▁hicimos":10301,"ani":10302,"hahahaha":10303,"citos":10304,"s!":10305,"TAD":10306,"-A":10307,"▁sto":10308,"migos":10309,"ota":10310,"▁vaquero":10311,"▁another":10312,"▁SOS":10313,"▁hacer,":10314,"▁itali":10315,"tias":10316,"itos.":10317,"▁Cuen":10318,"ione":10319,"TV":10320,"▁forever":10321,"▁tap":10322,"TH":10323,"▁League":10324,"▁wish":10325,"▁Reco":10326,"▁eco":10327,"▁sientes":10328,"▁tarde,":10329,"▁abuelo":10330,"▁Cataluña":10331,"▁figura":10332,",,,":10333,"▁confiar":10334,"guenza":10335,"▁\"W":10336,"▁Só":10337,"▁amigui":10338,"▁guitarra":10339,"sivo":10340,"▁Salvador":10341,"▁limpieza":10342,"▁HOR":10343,"▁]":10344,"▁faltar":10345,"▁llegada":10346,"teria":10347,"▁difici":10348,"▁mexican":10349,"▁fruncido":10350,"▁bff":10351,"▁ahí.":10352,"▁Gil":10353,"ence":10354,"mus":10355,"diar":10356,"▁Pien":10357,"▁santo":10358,"▁TAM":10359,"▁máxima":10360,"▁bui":10361,"▁Carmen":10362,"▁explicación":10363,"▁James":10364,"uestras":10365,"ada.":10366,"leep":10367,"▁candidatos":10368,"▁farma":10369,"▁merda":10370,"▁estad":10371,"▁consigo":10372,"UDA":10373,"tano":10374,"▁youtube":10375,"▁inclus":10376,"▁sensi":10377,"▁latest":10378,"▁podéis":10379,"▁youre":10380,"▁puestos":10381,"▁opciones":10382,"▁veces,":10383,"▁pego":10384,"▁NADIE":10385,"▁comunista":10386,"▁rein":10387,"▁levante":10388,"▁Bad":10389,"▁propósito":10390,"▁salario":10391,"▁playlist":10392,"▁hela":10393,"▁Prin":10394,"▁Cualquier":10395,"ínate":10396,"▁ciudadano":10397,"▁implica":10398,"▁mind":10399,"bon":10400,"▁empiezo":10401,"caso":10402,"▁Ufff":10403,"▁hur":10404,"▁separ":10405,"▁prox":10406,"▁hinchas":10407,"▁dará":10408,"▁\"in":10409,"une":10410,"▁VOL":10411,"ifi":10412,"bana":10413,"▁\"J":10414,"▁italia":10415,"dame":10416,"▁ready":10417,"yor":10418,"▁ine":10419,"entando":10420,"▁hipócri":10421,"▁tendrán":10422,"▁38":10423,"▁entreten":10424,"▁cover":10425,"ência":10426,"▁Tampoco":10427,"▁Civil":10428,"c,":10429,"URA":10430,"▁necesaria":10431,"▁Equi":10432,"▁investigar":10433,"TION":10434,"▁socor":10435,"▁Santo":10436,"▁Liverpool":10437,"▁prisión":10438,"▁bendiciones":10439,"▁around":10440,"▁tulipán":10441,"▁mien":10442,"▁City":10443,"▁Has":10444,"▁¡E":10445,"▁VOX":10446,"UELA":10447,"▁von":10448,"▁Cole":10449,"▁caras":10450,"antos":10451,"▁edu":10452,"▁entrenar":10453,"▁ia":10454,"GE":10455,"▁portátil":10456,"▁fing":10457,"www":10458,"▁Comer":10459,"zgo":10460,"mites":10461,"▁arries":10462,"▁revista":10463,"▁unido":10464,"▁volví":10465,"rarse":10466,"▁regala":10467,"í,":10468,"▁34":10469,"▁fic":10470,"ilar":10471,"▁ن":10472,"▁manejar":10473,"▁mg":10474,"turo":10475,"▁See":10476,"▁fora":10477,"▁ajus":10478,"▁TENGO":10479,"icky":10480,"▁Descu":10481,"▁empleados":10482,"▁garantizar":10483,"aca":10484,"▁estarán":10485,"▁preparado":10486,"▁tranquilidad":10487,"▁nosotros.":10488,"▁contribu":10489,"▁poe":10490,"▁Victoria":10491,"cos.":10492,"ib":10493,"▁estudiando":10494,"▁remember":10495,"▁DOS":10496,"...no":10497,"▁Vamo":10498,"▁pueblo.":10499,"▁salud,":10500,"▁quema":10501,"▁Today":10502,"te?":10503,"▁without":10504,"▁consejo":10505,"▁ciudades":10506,"▁Chan":10507,"▁bús":10508,"▁wtf":10509,"▁ph":10510,"presidente":10511,"▁concer":10512,"▁Obra":10513,"hyun":10514,"▁Rock":10515,"ayo":10516,"▁apretón":10517,"▁relig":10518,"▁coronavirus.":10519,"▁you,":10520,"▁imbécil":10521,"▁JUE":10522,"▁Claro,":10523,"quitos":10524,"▁torta":10525,"▁Domin":10526,"▁depri":10527,"ros,":10528,"▁cerrada":10529,"▁escla":10530,"▁Amazon":10531,"nos.":10532,"▁evidencia":10533,"▁amigos.":10534,"▁jode":10535,"▁defendiendo":10536,"fthe":10537,"▁abiertas":10538,"▁Our":10539,"▁madre.":10540,"▁tráfico":10541,"arial":10542,"▁final,":10543,"▁popul":10544,"▁sure":10545,"▁encantaría":10546,"▁comienzo":10547,"▁bac":10548,"cusión":10549,"ÍS":10550,"▁Come":10551,"▁against":10552,"ta:":10553,"▁190":10554,"▁(V":10555,"▁ak":10556,"ísticas":10557,"▁INS":10558,"▁ox":10559,"▁aconte":10560,"tat":10561,"▁debajo":10562,"▁^":10563,"▁coopera":10564,"l,":10565,"▁Contra":10566,"▁head":10567,"ditas":10568,"▁p.":10569,"chado":10570,"▁09":10571,"zadas":10572,"▁dieta":10573,"ctur":10574,"▁nunca.":10575,"▁75":10576,"▁intro":10577,"▁reir":10578,"LOS":10579,"DS":10580,"oo,":10581,"▁ganador":10582,"▁iPhone":10583,"▁gif":10584,"▁jaj":10585,"bitro":10586,"oya":10587,"▁tó":10588,"▁ambas":10589,"▁intención":10590,"▁final.":10591,"▁eventos":10592,"▁tirando":10593,"▁Stre":10594,"▁soñar":10595,"gt":10596,"▁OB":10597,"▁estáis":10598,"PON":10599,"▁preocup":10600,"▁enlace":10601,"▁avisa":10602,"▁Retweet":10603,"▁Quisiera":10604,"▁resuel":10605,"▁bil":10606,"▁modi":10607,"▁Gabriel":10608,"▁fechas":10609,"▁pasas":10610,"▁Now":10611,"▁cuenta.":10612,"dad,":10613,"▁oc":10614,"▁Latino":10615,"▁D.":10616,"▁mames":10617,"▁vos.":10618,"▁guys":10619,"▁Alemania":10620,"▁Azul":10621,"▁documental":10622,"▁MER":10623,"▁geno":10624,"▁bueno.":10625,"▁mueve":10626,"▁crimen":10627,"▁Vio":10628,"▁equipo.":10629,"uando":10630,"▁tio":10631,"▁cuantas":10632,"▁GOL":10633,"▁marcar":10634,"f.":10635,"▁pass":10636,"jón":10637,"clusión":10638,"tralia":10639,"▁ofrecer":10640,"▁2000":10641,"▁olvide":10642,"▁desapare":10643,"▁Rivera":10644,"▁Encima":10645,"▁BOL":10646,"▁argumento":10647,"▁asegura":10648,"▁break":10649,"▁asesin":10650,"▁PUEDO":10651,"▁UE":10652,"tyle":10653,"▁status":10654,"ván":10655,"▁ingles":10656,"▁cuchillo":10657,"▁fico":10658,"elici":10659,"▁salimos":10660,"▁argumentos":10661,"▁matter":10662,"fc":10663,"▁Cuanto":10664,"ionar":10665,"▁done":10666,"▁escor":10667,"CIO":10668,"▁sna":10669,"▁pea":10670,"▁privada":10671,"▁convo":10672,"▁CF":10673,"▁Clas":10674,"eld":10675,"▁Lucas":10676,"bles,":10677,"▁pastel":10678,"▁jes":10679,"▁aquí:":10680,"▁150":10681,"▁perfor":10682,"▁joa":10683,"▁municipal":10684,"▁caída":10685,"▁conocí":10686,"▁rumbo":10687,"▁start":10688,"▁nació":10689,"방탄":10690,"▁commun":10691,"▁Chávez":10692,"▁Lin":10693,"▁comis":10694,"▁guay":10695,"yeron":10696,"▁Gri":10697,"ña,":10698,"▁JUL":10699,"dedores":10700,"▁curr":10701,"▁¿Quieres":10702,"▁jugue":10703,"▁Glo":10704,"▁tempor":10705,"▁dormí":10706,"▁comparte":10707,"▁noche.":10708,"▁Hey":10709,"▁cocinar":10710,"▁yan":10711,"▁Jimin":10712,"▁pense":10713,"▁tern":10714,"▁limpiar":10715,"▁dal":10716,"▁Spotify":10717,"▁darse":10718,"))":10719,"lite":10720,"-P":10721,"CAN":10722,".\".":10723,"▁fica":10724,"▁caso,":10725,"'a":10726,"gica":10727,"▁Fui":10728,"▁REG":10729,"▁(2":10730,"▁traje":10731,"ribunal":10732,"LES":10733,"▁incendio":10734,"bé":10735,"▁exitos":10736,"▁HORA":10737,"▁renta":10738,"sss":10739,"▁dá":10740,"▁imaginan":10741,"▁novo":10742,"ils":10743,"▁carlos":10744,"▁solucion":10745,"ICOS":10746,"▁aquí.":10747,"▁aplicación":10748,"va,":10749,"▁solos":10750,"▁Roberto":10751,"rilla":10752,"viar":10753,"▁drogas":10754,"▁convierte":10755,"▁eterna":10756,"▁horas,":10757,"asi":10758,"▁wacho":10759,"tanos":10760,"▁chingo":10761,"▁sorte":10762,"el,":10763,"itos,":10764,"▁American":10765,"wor":10766,"▁osea":10767,"cómo":10768,"▁ruido":10769,"▁bañar":10770,"▁america":10771,"▁barbar":10772,"lis":10773,"▁Cuar":10774,"▁cagada":10775,"▁TL":10776,"▁quie":10777,"▁concepto":10778,"▁compañera":10779,"▁costo":10780,"▁cierra":10781,"ghts":10782,"▁Hora":10783,"▁bun":10784,"▁rei":10785,"▁kind":10786,"▁VENEZ":10787,"▁Castro":10788,"▁NUEVO":10789,"▁Cam":10790,"áles":10791,"▁conjunto":10792,"▁Fuerza":10793,"Le":10794,"▁compré":10795,"ícula":10796,"▁republ":10797,"▁EE.UU":10798,"▁vdd":10799,"▁yo:":10800,"▁Venezol":10801,"ficar":10802,"▁air":10803,"▁Disney":10804,"/h":10805,"chita":10806,"▁gritar":10807,"▁robaron":10808,"▁embargo":10809,"▁jarra":10810,"▁Programa":10811,"JER":10812,"iu":10813,"46":10814,"▁abogado":10815,"dém":10816,"▁Llu":10817,"ánd":10818,"▁seguido":10819,"▁mtvlafando":10820,"mann":10821,"▁Big":10822,"▁parlante":10823,"▁mutual":10824,"▁detalle":10825,"iones,":10826,"▁Cat":10827,"▁Gustavo":10828,"▁Sena":10829,"táculo":10830,"▁pelear":10831,"/2020":10832,"▁estuviera":10833,"▁demás.":10834,"gaz":10835,"▁podrás":10836,"38":10837,"▁Sue":10838,"▁-P":10839,"cieron":10840,"▁block":10841,"uevo":10842,"▁tempran":10843,"▁REP":10844,"▁subo":10845,"▁seamos":10846,"▁talk":10847,"▁contando":10848,"olas":10849,"▁season":10850,"▁hib":10851,"▁Sr":10852,"ties":10853,"ticipa":10854,"▁el.":10855,"▁shor":10856,"▁falar":10857,"▁Mayo":10858,"▁terminan":10859,"▁fb":10860,"andez":10861,"▁policia":10862,"titas":10863,"▁50%":10864,"ug":10865,"▁impunidad":10866,"▁cifras":10867,"▁seguirá":10868,"▁Cri":10869,"lores":10870,"▁Asamblea":10871,"cha,":10872,"▁indic":10873,"▁revolo":10874,"dad.":10875,"▁traicion":10876,"▁suda":10877,"bilidades":10878,"bén":10879,"▁corazón,":10880,"▁Banco":10881,"▁transfor":10882,"▁HAHAHA":10883,"▁terra":10884,"down":10885,"mante":10886,"▁tetas":10887,"▁pelotas":10888,"▁cau":10889,"eracruz":10890,"▁Dol":10891,"▁oí":10892,"uar":10893,"▁suici":10894,"ng":10895,"▁demonio":10896,"▁principales":10897,"▁meloco":10898,"▁próximos":10899,"▁Lima":10900,"▁Algunos":10901,"▁preocupar":10902,"▁OL":10903,"▁enserio":10904,"▁anterio":10905,"▁recibió":10906,"▁Puedo":10907,"▁metió":10908,"▁transforma":10909,"▁Enrique":10910,"▁arqui":10911,"▁sentirme":10912,"▁garant":10913,"▁HASTA":10914,"vias":10915,"▁motivos":10916,"▁reserva":10917,"▁child":10918,"▁físico":10919,"▁Every":10920,"Una":10921,"▁concier":10922,"▁iguales":10923,"▁hid":10924,"▁date":10925,"▁sinceramente":10926,"▁Fra":10927,"▁equipara":10928,"▁LG":10929,"▁dientes":10930,"▁plás":10931,"▁Abrazo":10932,"ALE":10933,"▁omg":10934,"▁thread":10935,"▁pagando":10936,"▁profesores":10937,"gencias":10938,"▁porno":10939,"▁valent":10940,"▁agarra":10941,"▁baila":10942,"▁VERDAD":10943,"tagrama":10944,"▁covid-19":10945,"▁verás":10946,"▁sectores":10947,"▁tomorrow":10948,"▁Andalucía":10949,"▁ech":10950,"▁Noche":10951,"▁MUCHO":10952,"éisbol":10953,"board":10954,"▁CARA":10955,"▁viajes":10956,"▁siete":10957,"▁identidad":10958,"je.":10959,"▁alguien,":10960,"▁challenge":10961,"tía":10962,"▁situaciones":10963,"▁despa":10964,"▁sof":10965,"NI":10966,"▁mtvlaicono":10967,"vó":10968,"▁ver.":10969,"▁subiendo":10970,"▁Wey":10971,"▁dormido":10972,"▁cy":10973,"/4":10974,"▁dime":10975,"▁maquilla":10976,"▁luchando":10977,"▁🗣":10978,"▁true":10979,"eren":10980,"▁dictador":10981,"▁coher":10982,"▁texto":10983,"▁olvidado":10984,"▁revoloteando":10985,"▁neur":10986,"▁justificar":10987,"▁hablen":10988,"▁usuarios":10989,"▁velocidad":10990,"▁pentagrama":10991,"▁argentinos":10992,"▁Paraguay":10993,"arios,":10994,"wo":10995,"mex":10996,"▁Ajaja":10997,"▁famoso":10998,"▁\"re":10999,"▁quemar":11000,"▁lava":11001,"ción!":11002,"▁Sun":11003,"▁Cristiano":11004,"▁FC":11005,"▁declaraciones":11006,"▁poes":11007,"▁xfa":11008,"▁jugó":11009,"▁Supre":11010,"▁Deci":11011,"▁dormir,":11012,"cena":11013,"muer":11014,"▁estabas":11015,"iten":11016,"▁QUIEN":11017,"▁pinches":11018,"▁-A":11019,"REAM":11020,"▁pistola":11021,"▁empecé":11022,"▁exá":11023,"▁practic":11024,"▁banca":11025,"▁cambiado":11026,"uli":11027,"▁tris":11028,"▁Ki":11029,"▁motor":11030,"▁comes":11031,"▁hibisco":11032,"▁combina":11033,"▁artif":11034,"▁fuente":11035,"▁Ricardo":11036,"▁Rusia":11037,"GI":11038,"ño.":11039,"▁verme":11040,"▁copi":11041,"adas":11042,"ter.":11043,"▁nothing":11044,"▁thats":11045,"óno":11046,"▁house":11047,"▁independencia":11048,"▁enamorado":11049,"▁ore":11050,"▁acre":11051,"▁Públ":11052,"▁Here":11053,"ístico":11054,"▁recomien":11055,"▁Sar":11056,"▁Cin":11057,"▁casti":11058,"antes.":11059,"▁vete":11060,"▁Gor":11061,"▁contamos":11062,"ífico":11063,"▁desear":11064,"▁bolivia":11065,"▁Moreno":11066,"▁York":11067,"▁already":11068,"▁Micha":11069,"alajara":11070,"▁city":11071,"▁alguém":11072,"▁festejar":11073,"▁traged":11074,"▁necesitaba":11075,"▁demais":11076,"hã":11077,"37":11078,"trui":11079,"▁ser,":11080,"▁latin":11081,"▁espejo":11082,"▁tava":11083,"▁revolucion":11084,"▁respues":11085,"▁deus":11086,"▁acomo":11087,"▁intervención":11088,"hacia":11089,"▁melocotón":11090,"▁metas":11091,"▁ventana":11092,"▁Trabajo":11093,"▁data":11094,"poche":11095,"▁POS":11096,"▁bonitas":11097,"▁gracioso":11098,"estru":11099,"▁Esp":11100,"CT":11101,"▁ratito":11102,"▁Plata":11103,"ciando":11104,"nos,":11105,"▁Presiden":11106,"▁pedi":11107,"▁hierba":11108,"▁decide":11109,"to...":11110,"▁escuche":11111,"▁enferma":11112,"▁Ayyy":11113,"▁SÍ":11114,"▁Pron":11115,"▁Rt":11116,"▁Valent":11117,"▁SOR":11118,"▁:c":11119,"▁cuello":11120,"hon":11121,"▁golp":11122,"▁SOM":11123,"iones.":11124,"▁función":11125,"▁tot":11126,"▁OS":11127,"df":11128,"소년":11129,"▁Who":11130,"▁ATEN":11131,"giendo":11132,"gera":11133,"▁More":11134,"▁\".":11135,"▁pollito":11136,"▁Live":11137,"▁Mmmm":11138,"▁ocho":11139,"▁Tel":11140,"▁anuncio":11141,"entas":11142,"▁Provin":11143,"ándote":11144,"▁logo":11145,"▁plante":11146,"▁pc":11147,"▁mujer,":11148,"▁perfectamente":11149,"▁cosa.":11150,"▁ende":11151,"▁1-":11152,"taro":11153,"▁OR":11154,"▁contexto":11155,"porque":11156,"▁ت":11157,"ISTAS":11158,"▁Israel":11159,"xel":11160,"▁plazo":11161,"▁daría":11162,"▁origen":11163,"grado":11164,"▁Franco":11165,"▁BR":11166,"MAN":11167,"BIER":11168,"antes,":11169,"publ":11170,"▁TOM":11171,"▁Rosa":11172,"arago":11173,"dom":11174,"▁Link":11175,"▁domicil":11176,"pa.":11177,"▁regu":11178,"▁Lamentable":11179,"cámara":11180,"▁convocatoria":11181,"gros":11182,"paz":11183,"▁poco,":11184,"ism":11185,"▁fos":11186,"▁desayuno":11187,"wards":11188,"yu":11189,"▁sinver":11190,"▁medicina":11191,"triz":11192,"▁Mic":11193,"▁Anoche":11194,"jas,":11195,"▁Rol":11196,"RUP":11197,"▁duerme":11198,"▁camión":11199,"▁cantante":11200,"▁Ps":11201,"▁gloria":11202,"▁Hernández":11203,"▁publicación":11204,"▁Bea":11205,"▁Vida":11206,";.":11207,"▁circun":11208,"▁sacó":11209,"▁pato":11210,"▁luis":11211,"▁ponerle":11212,"▁Cosas":11213,"tuvo":11214,"▁enfermo":11215,"zana":11216,"▁197":11217,"ÉS":11218,"▁mariposa":11219,"ència":11220,"▁school":11221,"▁Festival":11222,"oliber":11223,"▁barcelona":11224,"queda":11225,"▁ingreso":11226,"▁ک":11227,"OOK":11228,"▁ofer":11229,"▁lado.":11230,"▁viral":11231,"▁Bravo":11232,"▁recibido":11233,"▁imaginar":11234,"▁censura":11235,"▁descubrir":11236,"▁tq":11237,"▁Ayuntamiento":11238,"▁Cana":11239,"▁M.":11240,"▁dels":11241,"▁inmen":11242,"▁Necesitamos":11243,"▁desarrolla":11244,"▁Tweet":11245,"▁combatir":11246,"▁demues":11247,"▁bene":11248,"▁brasile":11249,"▁patrio":11250,"▁cruel":11251,"▁Ph":11252,"소년단":11253,"▁P.":11254,"▁aquello":11255,"▁se,":11256,"▁secu":11257,"isima":11258,"▁\"The":11259,"▁aprobar":11260,"▁extraordin":11261,"▁fich":11262,"▁wonder":11263,"▁Info":11264,"▁genio":11265,"▁Orgu":11266,"▁pueblo,":11267,"▁suyo":11268,"▁hagamos":11269,"▁Última":11270,"▁HOM":11271,"▁cargar":11272,"iend":11273,"▁pró":11274,"▁llenar":11275,"vió":11276,"▁u.":11277,"▁capaces":11278,"▁ciudadanía":11279,"▁acce":11280,"mit":11281,"IENTO":11282,"▁VOT":11283,"▁Góme":11284,"to!":11285,"▁Gi":11286,"▁valiente":11287,"▁Inte":11288,"▁soledad":11289,"▁TRABA":11290,"▁juntar":11291,"▁puebla":11292,"▁fines":11293,"▁Music":11294,"▁Cambi":11295,"eña":11296,"cribe":11297,"▁¡Que":11298,"tan.":11299,"ática":11300,"▁masac":11301,"4,":11302,"▁insopor":11303,"▁partido,":11304,"▁vais":11305,"▁urge":11306,"▁Díaz":11307,"BLO":11308,"▁hues":11309,"▁aquella":11310,"▁feminismo":11311,"▁boa":11312,"▁comercio":11313,"방탄소년단":11314,"▁harry":11315,"▁sínto":11316,"▁¡En":11317,"▁ser.":11318,"▁respeta":11319,"▁perio":11320,"▁caiga":11321,"ingü":11322,"▁decimos":11323,"▁faltó":11324,"ining":11325,"▁imaginas":11326,"▁DD":11327,"▁U.":11328,"▁meten":11329,"▁Oficial":11330,"la_":11331,"▁Ton":11332,"chito":11333,"▁Sel":11334,"▁amo,":11335,"▁busco":11336,"-)":11337,"▁ESE":11338,"▁Director":11339,"▁aeropuerto":11340,"▁Aprove":11341,"▁SEÑ":11342,"▁flu":11343,"▁Chu":11344,"▁devolver":11345,"▁cubre":11346,"▁mínima":11347,"vistas":11348,"pers":11349,"úcar":11350,"49":11351,"▁makes":11352,"▁messi":11353,"▁crédito":11354,"▁raza":11355,"▁jugada":11356,"▁digita":11357,"!,":11358,"▁1-0":11359,"▁putos":11360,"▁chinga":11361,"▁mã":11362,"▁agradece":11363,"▁TEM":11364,"aan":11365,"▁semb":11366,"▁Bolívar":11367,"ites":11368,"▁Em":11369,"▁Aso":11370,"▁Simple":11371,"▁name":11372,"ático":11373,"36":11374,"tones":11375,"▁mexicana":11376,"▁miserable":11377,"▁cerra":11378,"▁constitucional":11379,"▁Len":11380,"BR":11381,"tade":11382,"TAL":11383,"xx":11384,"▁deca":11385,"clu":11386,"▁quedamos":11387,"▁sencillo":11388,"▁supongo":11389,"▁locu":11390,"▁(en":11391,"▁propiedad":11392,"▁bitch":11393,"▁cosa,":11394,"▁acuerdan":11395,"_hacia":11396,"▁Much":11397,"▁gustaba":11398,"▁grado":11399,"▁Cele":11400,"verde":11401,"▁pasamos":11402,"▁archi":11403,"▁orgulloso":11404,"▁empezando":11405,"▁MD":11406,"▁huele":11407,"▁únicos":11408,"▁Libertad":11409,"▁asesinato":11410,"▁docente":11411,"▁Bl":11412,"ries":11413,"▁confes":11414,"▁delant":11415,"▁contemp":11416,"▁exterior":11417,"▁sienta":11418,"...!!!":11419,"TAN":11420,"icas.":11421,"▁ena":11422,"▁clín":11423,"▁discutir":11424,"damente":11425,"▁serio,":11426,"▁adecu":11427,"▁place":11428,"▁veas":11429,"▁nosotros,":11430,"▁ignorante":11431,"▁Kkkk":11432,"▁Hacer":11433,"▁Feder":11434,"MM":11435,"▁petro":11436,"▁hermosas":11437,"▁adoro":11438,"▁Tus":11439,"▁proud":11440,"rich":11441,"▁が":11442,"▁meus":11443,"▁morena":11444,"▁Caracas":11445,"▁を":11446,"▁DIF":11447,"comun":11448,"▁rebel":11449,"▁dead":11450,"▁encontrado":11451,"▁videocámara":11452,"▁sigui":11453,"▁must":11454,"▁agente":11455,"▁otro.":11456,"▁gros":11457,"▁mediante":11458,"▁últimamente":11459,"▁sand":11460,"calley":11461,"▁FUE":11462,"▁repente":11463,"▁(B":11464,"7,":11465,"▁ganamos":11466,"▁perspec":11467,"rieron":11468,"▁conmemo":11469,"▁Rio":11470,"▁Prefiero":11471,"▁socios":11472,"mmy":11473,"▁apel":11474,"ter,":11475,"▁enoja":11476,"▁food":11477,"▁pared":11478,"tez":11479,"▁gargan":11480,"▁pac":11481,"▁Edi":11482,"tan,":11483,"▁Tenía":11484,"▁salsa":11485,"▁divertido":11486,"▁votaron":11487,"▁no...":11488,"oor":11489,"▁Bir":11490,"▁adultos":11491,"▁antic":11492,"▁Río":11493,"▁Precio":11494,"▁Té":11495,"▁desaparecer":11496,"▁Organ":11497,"▁locales":11498,"▁ESPA":11499,"▁socorro":11500,"▁Michael":11501,"tal.":11502,"ologia":11503,"▁Dios.":11504,"lectual":11505,"▁descansar":11506,"▁Up":11507,"▁rompió":11508,"▁pay":11509,"▁mui":11510,"▁mulher":11511,"ológ":11512,"▁credi":11513,"▁caballo":11514,"▁comenzó":11515,"▁asesinos":11516,"g,":11517,"▁involu":11518,"▁Hen":11519,"ções":11520,"ERTE":11521,"▁Norte":11522,"▁calma":11523,"elcome":11524,"▁Hemos":11525,"▁pero,":11526,"▁wr":11527,"yente":11528,"▁levanta":11529,"▁Argent":11530,"istros":11531,"tula":11532,"ganme":11533,"▁mtvlaiconocalley":11534,"▁DIREC":11535,"▁razón.":11536,"▁depresión":11537,"▁gracias!":11538,"▁Poder":11539,"▁Uy":11540,"▁Octubre":11541,"tencias":11542,"▁\"Se":11543,"▁hala":11544,"▁plu":11545,"▁yall":11546,"▁subió":11547,"ÍAS":11548,"▁otor":11549,"▁Rico":11550,"▁There":11551,"▁Muer":11552,"▁With":11553,"▁tortu":11554,"talo":11555,"?\".":11556,"▁vigil":11557,"to..":11558,"CEL":11559,"abe":11560,"ivos":11561,"▁Atención":11562,"▁voces":11563,"▁Morena":11564,"▁mood":11565,"▁amazing":11566,"venidos":11567,"▁Pinche":11568,"pe,":11569,"ALA":11570,"▁podamos":11571,"bis":11572,"vé":11573,"▁ESA":11574,"▁aburrido":11575,"vales":11576,"▁vuelo":11577,"▁industri":11578,"brado":11579,"▁soft":11580,"ándolo":11581,"▁Bre":11582,"▁positivos":11583,"▁lágrimas":11584,"▁atle":11585,"▁uns":11586,"▁pandemia.":11587,"sey":11588,"▁Inten":11589,"vana":11590,"▁visión":11591,"▁semejante":11592,"▁biblio":11593,"▁abandona":11594,"▁nuevo,":11595,"▁Orte":11596,"polit":11597,"▁obviamente":11598,"▁Catalunya":11599,"▁soltar":11600,"▁consecu":11601,"▁\"Yo":11602,"ve,":11603,"▁Laura":11604,"▁sacaron":11605,"úan":11606,"EA":11607,"jena":11608,"▁Profes":11609,"▁domingos":11610,"▁récord":11611,"▁Historia":11612,"▁complicado":11613,"▁nada...":11614,"▁ideología":11615,"▁béisbol":11616,"JAJAJAJ":11617,"▁homo":11618,"n.":11619,"▁subs":11620,"▁fué":11621,"▁Amar":11622,"pica":11623,"▁Año":11624,"▁Hombre":11625,"▁paquete":11626,"▁entrenamiento":11627,"▁demanda":11628,"'ll":11629,"▁HAHAHAHAHA":11630,"fs":11631,"▁dialo":11632,"▁Arran":11633,"▁bebés":11634,"▁bancar":11635,"▁ÚLTI":11636,"▁pala":11637,"▁estafa":11638,"ladas":11639,"diste":11640,"▁feminista":11641,"▁aplau":11642,"duc":11643,"▁sonido":11644,"▁-C":11645,"▁metido":11646,"rantes":11647,"P,":11648,"▁Empres":11649,"▁guarda":11650,"▁triple":11651,"▁delitos":11652,"ímp":11653,"idi":11654,"▁CUMP":11655,"ábamos":11656,"gest":11657,"▁dejé":11658,"▁Nat":11659,"▁looks":11660,"▁plo":11661,"▁vehículo":11662,"▁Hac":11663,"terrey":11664,"▁cuarentena.":11665,"▁preparando":11666,"▁envia":11667,"▁Aires":11668,"▁ASÍ":11669,"▁lobo":11670,"▁pls":11671,"▁armar":11672,"quil":11673,"▁pasará":11674,"▁poco.":11675,"▁sentirse":11676,"▁suben":11677,"hal":11678,"joon":11679,"▁oscar":11680,"▁google":11681,"▁making":11682,"▁contagio":11683,"▁---":11684,"▁bien?":11685,"▁Vox":11686,"▁Comen":11687,"▁propagan":11688,"▁mandó":11689,"▁Respon":11690,"▁Air":11691,"▁dri":11692,"▁social.":11693,"▁thanks":11694,"▁merecemos":11695,"▁reino":11696,"▁Especial":11697,"as...":11698,"▁siste":11699,"▁cuenta,":11700,"dería":11701,"tand":11702,"▁chur":11703,"▁aparecer":11704,"iri":11705,"máticas":11706,"▁Mendo":11707,"tivar":11708,"▁Realmente":11709,"▁soul":11710,"usos":11711,"▁andas":11712,"▁estudiante":11713,"▁nova":11714,"▁America":11715,"▁Guerra":11716,"bir":11717,"▁pit":11718,"▁DECI":11719,"▁cicl":11720,"▁white":11721,"▁ي":11722,"▁AGU":11723,"ti,":11724,"▁\"o":11725,"gración":11726,"▁kilos":11727,"▁junta":11728,"emb":11729,"▁mí.":11730,"▁mafia":11731,"▁agricul":11732,"▁Maes":11733,"▁Neymar":11734,"▁compla":11735,"▁Jueves":11736,"▁obtener":11737,"▁faci":11738,"▁cana":11739,"▁invitar":11740,"▁requiere":11741,"▁Agui":11742,"▁ann":11743,"▁bis":11744,"iao":11745,"▁demon":11746,"▁soluciones":11747,"▁deportivo":11748,"▁ER":11749,"▁money":11750,"▁Fon":11751,"▁mens":11752,"9,":11753,"▁virtu":11754,"▁Interes":11755,"▁cortes":11756,"▁quejan":11757,"garon":11758,"▁secon":11759,"hotos":11760,"...a":11761,"▁digno":11762,"▁Vay":11763,"▁principios":11764,"ADAS":11765,"▁decirme":11766,"▁rostro":11767,"ion.":11768,"gracias":11769,"VES":11770,"hah":11771,"▁afirma":11772,"▁ARG":11773,"▁libertadores":11774,"▁cagando":11775,"▁(T":11776,"s:":11777,"▁Comunidad":11778,"▁gilipollas":11779,"▁reaccion":11780,"uty":11781,"▁listos":11782,"erra":11783,"▁Jose":11784,"▁pris":11785,"▁feeling":11786,"▁salud.":11787,"▁pierdo":11788,"▁tomado":11789,"éramos":11790,"▁bocadillo":11791,"▁cagan":11792,"te!":11793,"▁quiero,":11794,"▁tendré":11795,"▁VEZ":11796,"▁hair":11797,"▁Med":11798,"▁sepan":11799,"▁MAÑ":11800,"▁niñ":11801,"▁públicas":11802,"▁aprendí":11803,"▁salvador":11804,"▁Durante":11805,"▁produce":11806,"cking":11807,"▁clo":11808,"raron":11809,"▁apertura":11810,"mín":11811,"▁hrs":11812,"って":11813,"quillo":11814,"▁cacer":11815,"▁Dónde":11816,"xe":11817,"▁Medio":11818,"▁GEN":11819,"CEN":11820,"▁は":11821,"▁nuevo.":11822,"▁paté":11823,"▁piña":11824,"▁Atlético":11825,"▁comunicado":11826,"▁sucede":11827,"▁Puebla":11828,"▁precioso":11829,"▁grito":11830,"▁hecho,":11831,"▁Papa":11832,"▁equipo,":11833,"▁volviendo":11834,"▁tarde.":11835,"▁puesta":11836,"▁alla":11837,"▁protestas":11838,"iende":11839,"▁flechas":11840,"es..":11841,"▁piensas":11842,"▁Bue":11843,"▁disfrutando":11844,"▁retiro":11845,"▁república":11846,"▁cansan":11847,"jon":11848,"▁cuban":11849,"cidas":11850,"▁territorio":11851,"-B":11852,"eis":11853,"▁I've":11854,"▁amores":11855,"▁Mmm":11856,"▁días!":11857,"▁porfavor":11858,"▁Vin":11859,"▁audios":11860,"vinen":11861,"▁Youtube":11862,"▁crista":11863,"▁legen":11864,"▁categoría":11865,"live":11866,"▁pierden":11867,"▁indis":11868,"▁Calle":11869,"▁actually":11870,"▁beren":11871,"mao":11872,"▁Amén":11873,"▁actualidad":11874,"iori":11875,"▁pasado,":11876,"▁Apple":11877,"▁Rosario":11878,"▁sv":11879,"▁gota":11880,"▁especialmente":11881,"dl":11882,"▁Ran":11883,"mela":11884,"▁fijo":11885,"▁mix":11886,"▁tuy":11887,"AMA":11888,"▁PAT":11889,"ます":11890,"▁batal":11891,"tron":11892,"▁hoy?":11893,"▁porra":11894,"▁reducir":11895,"▁nice":11896,"hit":11897,"▁pereza":11898,"▁TODAS":11899,"▁¿Cuán":11900,"▁brazo":11901,"▁promedio":11902,"▁trying":11903,"▁otro,":11904,"▁llevando":11905,"▁enferme":11906,"▁asunto":11907,"man,":11908,"▁títulos":11909,"▁amo.":11910,"izó":11911,"▁salio":11912,"▁hea":11913,"▁caigo":11914,"▁destina":11915,"▁pot":11916,"▁dificil":11917,"▁inaugura":11918,"▁dudo":11919,"▁Kim":11920,"▁realidad.":11921,"bada":11922,"▁Impres":11923,"ta..":11924,"va.":11925,"win":11926,"man.":11927,"▁ask":11928,"▁teoría":11929,"▁entorno":11930,"ely":11931,"▁sentía":11932,"▁interrogación":11933,"▁Escuela":11934,"▁olviden":11935,"▁comunistas":11936,"▁►":11937,"▁!!.":11938,"▁SEN":11939,"liga":11940,"▁perdida":11941,"▁VIVO":11942,"▁descargar":11943,"_de_mano":11944,"▁37":11945,"▁expecta":11946,"▁tortura":11947,"t:":11948,"orable":11949,"▁detec":11950,"▁federal":11951,"▁creí":11952,"▁vibra":11953,"▁CONS":11954,"▁아":11955,"▁Guatemala":11956,"▁dueños":11957,"▁Quizás":11958,"▁Pq":11959,"▁BL":11960,"cris":11961,"tela":11962,"▁caos":11963,"▁mascul":11964,"▁y/o":11965,"▁\\":11966,"▁cabeza.":11967,"▁reales":11968,"▁Funda":11969,"peda":11970,"▁gallina":11971,"ta...":11972,"▁trabajador":11973,"▁Get":11974,"deros":11975,"casa":11976,"▁CONF":11977,"▁afición":11978,"▁Bolsonaro":11979,"▁fila":11980,"gadas":11981,"▁streaming":11982,"▁Tec":11983,"▁recuperación":11984,"▁hig":11985,"▁1er":11986,"▁class":11987,"dellín":11988,"▁empana":11989,"▁expertos":11990,"▁Off":11991,"▁Don't":11992,"▁incons":11993,"jame":11994,"▁más...":11995,"▁smi":11996,"▁comunicar":11997,"▁pudieron":11998,"▁sound":11999,"iación":12000,"▁wri":12001,"JAJAJAJAJA":12002,"▁¡O":12003,"▁estou":12004,"▁crean":12005,"▁Junior":12006,"▁peligros":12007,"▁diplo":12008,"▁sanidad":12009,"▁opinar":12010,"▁cancer":12011,"▁resistencia":12012,"▁Lab":12013,"▁ع":12014,"foro":12015,"▁estábamos":12016,"▁contigo.":12017,"BS":12018,"ras.":12019,"▁nct":12020,"▁sanitaria":12021,"▁amigo.":12022,"▁cuarentena,":12023,"▁roban":12024,"▁tradu":12025,"▁Comien":12026,"▁EP":12027,"▁Recién":12028,"▁circuns":12029,"▁).":12030,"▁Sp":12031,"riz":12032,"axaca":12033,"wl":12034,"TO.":12035,"▁tengamos":12036,"▁sentencia":12037,"▁pack":12038,"▁Dif":12039,"2016":12040,"▁bran":12041,"▁conviene":12042,"telo":12043,"▁quedando":12044,"▁Además,":12045,"▁deseos":12046,"▁así?":12047,"▁Congres":12048,"gos.":12049,"▁young":12050,"éndome":12051,"▁impresionante":12052,"▁plato":12053,"▁logró":12054,"▁scre":12055,"▁Invi":12056,"▁pelos":12057,"graphy":12058,"▁President":12059,"▁cansado":12060,"▁distintos":12061,"ED":12062,"vos.":12063,"▁barba":12064,"▁que...":12065,"▁campeonato":12066,"mail":12067,"▁United":12068,"▁discusión":12069,"▁colocar":12070,"▁sacado":12071,"entan":12072,"▁mimos":12073,"▁ps4":12074,"fen":12075,"▁supermer":12076,"▁meet":12077,"▁refuer":12078,"▁prevenir":12079,"▁vezes":12080,"▁Desarro":12081,"▁internacionales":12082,"▁administración":12083,"▁social,":12084,"pue":12085,"▁coma":12086,"▁Conf":12087,"▁cé":12088,"▁Bill":12089,"▁rara":12090,"tadora":12091,"▁gustas":12092,"▁es?":12093,"▁pena.":12094,"▁necesidades":12095,"to:":12096,"▁impar":12097,"▁gü":12098,"▁deu":12099,"▁revisar":12100,"▁habló":12101,"▁paz.":12102,"▁muñ":12103,"▁agua,":12104,"▁unica":12105,"▁asistencia":12106,"▁circo":12107,"▁reyes":12108,"arios.":12109,"jsjaja":12110,"▁core":12111,"kas":12112,"▁Pasa":12113,"▁depois":12114,"▁amamos":12115,"▁de...":12116,"▁terminado":12117,"▁unders":12118,"▁aux":12119,"▁plas":12120,"▁Aman":12121,"▁thin":12122,"▁Watch":12123,"▁Premi":12124,"lico":12125,"▁Monte":12126,"▁pab":12127,"▁sincer":12128,"▁miente":12129,"ENTES":12130,"ctr":12131,"III":12132,"▁65":12133,"▁académ":12134,"▁pendientes":12135,"▁ocurrió":12136,"▁Patri":12137,"▁DIA":12138,"▁GOT":12139,"▁grabar":12140,"▁rápida":12141,"▁parecía":12142,"▁\"se":12143,"ornadas":12144,"▁querían":12145,"▁horarios":12146,"▁Habrá":12147,"▁CASA":12148,"_la_":12149,"▁ministra":12150,"bón":12151,"▁EXP":12152,"▁mtvlaiconocalleypoche":12153,"▁urban":12154,"▁uno,":12155,"▁temperatura":12156,"▁colon":12157,"▁looking":12158,"▁personalidad":12159,"▁espíritu":12160,"▁jugado":12161,"▁Suerte":12162,"▁during":12163,"ibo":12164,"▁circu":12165,"CRE":12166,"▁harán":12167,"▁pese":12168,"Ma":12169,"▁Iba":12170,"▁Clar":12171,"▁toler":12172,"▁independent":12173,"▁cobran":12174,"chos,":12175,"iada":12176,"▁Biden":12177,"▁pretty":12178,"▁irá":12179,"mbres":12180,"nite":12181,"▁J.":12182,"doro":12183,"ORIA":12184,"▁Ray":12185,"IENDO":12186,"?!?!":12187,"6,":12188,"▁Digital":12189,"▁JAJAJAJAJAJ":12190,"▁Miami":12191,"▁llegará":12192,"▁cria":12193,"▁operación":12194,"▁reacción":12195,"▁apete":12196,"▁mano,":12197,"▁hayas":12198,"▁jin":12199,"▁claro.":12200,"▁10%":12201,"▁Sele":12202,"▁especiales":12203,"▁altos":12204,"xy":12205,"95":12206,"▁try":12207,"índice":12208,"▁Game":12209,"▁800":12210,"▁08":12211,"▁manzana":12212,"▁comunidades":12213,"▁Best":12214,"▁shi":12215,"marca":12216,"vencia":12217,"tou":12218,"▁gráfico":12219,"▁miran":12220,"▁Adri":12221,"▁ecua":12222,"▁WO":12223,"▁cabeza,":12224,"▁burla":12225,"▁ray":12226,"▁demás,":12227,"jaj":12228,"▁pale":12229,"▁efectos":12230,"▁cali":12231,"▁reda":12232,"▁mas,":12233,"IDOS":12234,"▁Termin":12235,"▁revi":12236,"VIS":12237,"FO":12238,"▁recibi":12239,"jeras":12240,"▁god":12241,"▁carác":12242,"ves,":12243,"▁escolar":12244,"BOL":12245,"▁Venga":12246,"vos,":12247,"▁switch":12248,"▁E.":12249,"▁acorde":12250,"▁\"Lo":12251,"tion,":12252,"▁diaria":12253,"▁inspi":12254,"▁moch":12255,"▁autén":12256,"uricio":12257,"▁01":12258,"▁venido":12259,"▁cambian":12260,"▁piola":12261,"olla":12262,"▁carnaval":12263,"tila":12264,"▁registro":12265,"▁namo":12266,"▁captura":12267,"ves.":12268,"ros.":12269,"▁añ":12270,"▁anything":12271,"▁rollo":12272,"▁grup":12273,"▁thou":12274,"▁day.":12275,"cha.":12276,"▁govern":12277,"▁By":12278,"▁avanzar":12279,"cepción":12280,"▁Sara":12281,"▁coco":12282,"▁tú.":12283,"▁caball":12284,"▁avec":12285,"selo":12286,"▁experiencias":12287,"▁bandera_":12288,"▁whole":12289,"▁venía":12290,"-5":12291,"▁vendo":12292,"▁departamento":12293,"▁organizar":12294,"▁propor":12295,"▁tomas":12296,"▁Comi":12297,"▁quizá":12298,"▁cancion":12299,"▁2013":12300,"ta!":12301,"▁naz":12302,"▁recomendaciones":12303,"cuando":12304,"▁agradezco":12305,"▁Gana":12306,"▁relevan":12307,"ats":12308,"▁dorso_de_mano":12309,"_con_índice":12310,"▁dorso_de_mano_con_índice":12311,"▁haciéndo":12312,"▁though":12313,"▁Eduardo":12314,"▁suya":12315,"▁Donald":12316,"▁Normal":12317,"▁Pod":12318,"▁tikto":12319,"▁consigue":12320,"▁atropel":12321,"▁🎙":12322,"▁fire":12323,"ísimos":12324,"▁amig":12325,"▁francia":12326,"vangel":12327,"▁Cari":12328,"▁pintarse":12329,"vieron":12330,"kemon":12331,"▁intera":12332,"▁\"Las":12333,"▁chabon":12334,"▁porquer":12335,"▁Piñera":12336,"▁NY":12337,"▁coisas":12338,"▁iniciar":12339,"▁empezamos":12340,"▁Debería":12341,"▁Alba":12342,"▁adiós":12343,"▁nace":12344,"▁observa":12345,"▁Estadio":12346,"▁habil":12347,"▁boda":12348,"▁ramo":12349,"▁tribu":12350,"▁Show":12351,"▁equiparacion":12352,"▁cara,":12353,"▁uno.":12354,"▁frecu":12355,"TIS":12356,"▁maestra":12357,"▁likes":12358,"▁nene":12359,"▁Lluvia":12360,"▁Dr":12361,"ule":12362,"pe.":12363,"▁sano":12364,"▁fallecidos":12365,"▁hj":12366,"▁comisión":12367,"▁VAN":12368,"▁diciéndo":12369,"ating":12370,"▁movilidad":12371,"▁compartimos":12372,"▁estúpida":12373,"▁persi":12374,"sado":12375,"titud":12376,"▁Suárez":12377,"▁mapa":12378,"▁Fri":12379,"▁débil":12380,"▁calle,":12381,"▁sono":12382,"▁decirlo":12383,"▁distintas":12384,"enó":12385,"undo":12386,"▁hermosos":12387,"▁yang":12388,"CAL":12389,"tl":12390,"▁【":12391,"▁tuvimos":12392,"▁ladrones":12393,"▁vuelvan":12394,"▁demostrado":12395,"▁deberías":12396,"mbar":12397,"▁polém":12398,"▁✔":12399,"▁&gt;&gt;":12400,"▁profunda":12401,"▁denuncias":12402,"▁rique":12403,"▁Miren":12404,"▁pague":12405,"▁artist":12406,"mes,":12407,"gas.":12408,"▁VOS":12409,"▁nba":12410,"▁ñ":12411,"▁descuento":12412,"▁nunca,":12413,"▁tanto.":12414,"▁socialismo":12415,"▁having":12416,"▁actuación":12417,"▁crema":12418,"▁News":12419,"▁Ji":12420,"▁autos":12421,"▁VUEL":12422,"'est":12423,"▁preparar":12424,"▁mareada":12425,"▁tok":12426,"▁inmi":12427,"mandante":12428,"▁lxs":12429,"▁carretera":12430,"▁Gala":12431,"▁600":12432,"▁altas":12433,"▁nacer":12434,"▁bienvenida":12435,"▁histor":12436,"▁eas":12437,"▁frí":12438,"▁Ori":12439,"▁primavera":12440,"▁algu":12441,"▁meto":12442,"▁opiniones":12443,"K.":12444,"onomía":12445,"▁rusia":12446,"▁1)":12447,"▁Jungkook":12448,"▁detener":12449,"▁Jajaj":12450,"▁llegué":12451,"▁llegamos":12452,"▁Parla":12453,"▁saquen":12454,"genas":12455,"▁verlos":12456,"▁tapar":12457,"▁organizado":12458,"▁until":12459,"▁Latina":12460,"▁ciertas":12461,"▁fernet":12462,"▁-&gt;":12463,"izados":12464,"▁dl":12465,"▁niveles":12466,"chos.":12467,"▁MAY":12468,"dur":12469,"▁empo":12470,"▁(de":12471,"▁Isab":12472,"▁thought":12473,"▁2018.":12474,"▁eva":12475,"▁asado":12476,"▁derrota":12477,"▁frontera":12478,"▁mire":12479,"uz":12480,"pid":12481,"▁\"To":12482,"▁light":12483,"s?":12484,"▁\"con":12485,"▁piba":12486,"▁Jal":12487,"▁creación":12488,"tta":12489,"▁disculpas":12490,"▁gustos":12491,"▁trán":12492,"▁bye":12493,"▁compañer":12494,"gela":12495,"▁aix":12496,"▁Bun":12497,"▁sleep":12498,"▁¡Mu":12499,"▁#방탄소년단":12500,"▁dismin":12501,"ently":12502,"▁convertido":12503,"▁\"que":12504,"▁dad":12505,"▁probablemente":12506,"▁día!":12507,"Qui":12508,"gias":12509,"▁FR":12510,"▁normalidad":12511,"▁Cra":12512,"eah":12513,"▁román":12514,"▁Pl":12515,"▁Unos":12516,"▁homi":12517,"▁Mul":12518,"▁chaval":12519,"▁report":12520,"▁maestros":12521,"onde":12522,"▁that's":12523,"▁pacto":12524,"▁ponemos":12525,"▁4,":12526,"▁guy":12527,"iendas":12528,"▁macho":12529,"ña.":12530,"▁camisa":12531,"▁antes,":12532,"▁audi":12533,"▁0,":12534,"▁POD":12535,"▁recomp":12536,"▁nacional.":12537,"ap":12538,"ona,":12539,"▁libera":12540,"lina":12541,"uñas":12542,"eth":12543,"▁defienden":12544,"mill":12545,"▁misión":12546,"▁stand":12547,"▁realizó":12548,"▁pasé":12549,"▁casualidad":12550,"▁nacionales":12551,"▁sindica":12552,"▁reba":12553,"▁aumentar":12554,"▁Oro":12555,"▁berenjena":12556,"▁myself":12557,"▁enough":12558,"▁presidencia":12559,"▁Nuevos":12560,"▁bajón":12561,"▁policial":12562,"▁psicol":12563,"▁verguenza":12564,"▁neoliber":12565,"▁caes":12566,"▁barra":12567,"plan":12568,"abra":12569,"/12":12570,"▁juzgar":12571,"▁favorite":12572,"▁politi":12573,"▁tag":12574,"▁precisamente":12575,"▁maravillosa":12576,"▁estación":12577,"▁delincuente":12578,"bren":12579,"▁otros.":12580,"IDO":12581,"▁discip":12582,"▁escribo":12583,"▁ustedes,":12584,"▁sangu":12585,"▁acuerdo,":12586,"clo":12587,"▁Cristo":12588,"▁0.0":12589,"▁terapia":12590,"▁ternura":12591,"▁peor,":12592,"▁Vivo":12593,"▁book":12594,"▁leal":12595,"▁country":12596,"▁novios":12597,"POR":12598,"▁PRESID":12599,"▁creyendo":12600,"▁Fre":12601,"▁Resul":12602,"army":12603,"LY":12604,"into":12605,"▁assis":12606,"diz":12607,"▁todos!":12608,"▁max":12609,"pink":12610,"▁fotograf":12611,"▁DOM":12612,"▁muuu":12613,"▁Abril":12614,"▁exci":12615,"▁Jon":12616,"▁palos":12617,"▁chupar":12618,"▁Padre":12619,"▁tonta":12620,"▁¡Ya":12621,"▁referencia":12622,"▁propone":12623,"▁cientos":12624,"▁icon":12625,"▁aislamiento":12626,"▁institucional":12627,"▁mone":12628,"▁11.":12629,"R.":12630,"▁mig":12631,"▁Prote":12632,"▁eles":12633,"▁flaco":12634,"▁cross":12635,"39":12636,"cencia":12637,"▁vivido":12638,"▁adorno":12639,"▁corri":12640,"▁institución":12641,"▁Llega":12642,"▁continúa":12643,"▁diré":12644,"▁Pueden":12645,"imal":12646,"blan":12647,"ILLA":12648,"icula":12649,"▁AMI":12650,"▁enamora":12651,"arle":12652,"▁licencia":12653,"vimos":12654,"▁meses,":12655,"▁mas.":12656,"▁Lindo":12657,"▁GUS":12658,"empla":12659,"▁estudia":12660,"▁llamas":12661,"▁Cir":12662,"phone":12663,"▁dans":12664,"▁emociones":12665,"▁stal":12666,"iosos":12667,"▁2)":12668,"bt":12669,"ize":12670,"▁regalos":12671,"▁tinha":12672,"ão.":12673,"▁peor.":12674,"▁mentiroso":12675,"▁chic":12676,"més":12677,"▁▶":12678,"▁FAR":12679,"BAR":12680,"▁camara":12681,"ANOS":12682,"tivos,":12683,"▁elab":12684,"▁ayude":12685,"▁acar":12686,"▁Unión":12687,"▁dile":12688,"mericana":12689,"▁ataques":12690,"▁vox":12691,"▁raya":12692,"▁gusta,":12693,"▁cargos":12694,"▁condena":12695,"▁save":12696,"▁vem":12697,"ez,":12698,"▁pista":12699,"▁división":12700,"ibil":12701,"▁such":12702,"▁triunf":12703,"▁i'm":12704,"itarias":12705,"mpe":12706,"maras":12707,"jiji":12708,"▁ingresos":12709,"uniden":12710,"▁Mora":12711,"▁também":12712,"▁lógica":12713,"▁llevado":12714,"▁sensible":12715,"▁lanzamiento":12716,"▁limpia":12717,"puestos":12718,"▁dog":12719,"▁King":12720,"▁labora":12721,"▁sonreír":12722,"▁vimos":12723,"▁ça":12724,"▁colombianos":12725,"▁하":12726,"▁dormir.":12727,"▁Auto":12728,"grada":12729,"HY":12730,"▁Nuestros":12731,"▁ida":12732,"loy":12733,"▁gris":12734,"▁Puta":12735,"▁ambul":12736,"▁¿N":12737,"▁Argentina.":12738,"▁fritas":12739,"▁Period":12740,"▁femenino":12741,"▁Raúl":12742,"▁defec":12743,"▁Clara":12744,"nar":12745,"hibi":12746,"▁¿Alguien":12747,"▁joaquin":12748,"▁HIST":12749,"ecas":12750,"milla":12751,"riba":12752,"rez,":12753,"▁girls":12754,"▁gata":12755,"tivos.":12756,"▁says":12757,"▁Ind":12758,"▁Presenta":12759,"▁vs.":12760,"▁ف":12761,"▁diste":12762,"▁tae":12763,"how":12764,"▁intenta":12765,"▁clan":12766,"▁realizado":12767,"▁cour":12768,"▁Trabaja":12769,"▁norma":12770,"▁both":12771,"▁mori":12772,"▁Yo,":12773,"▁table":12774,"chin":12775,"rile":12776,"▁consumi":12777,"carra":12778,"▁travel":12779,"▁coraje":12780,"▁reser":12781,"▁usur":12782,"▁inex":12783,"▁Alcalde":12784,"▁Cultura":12785,"ánico":12786,"▁avanza":12787,"▁embargo,":12788,"▁okay":12789,"▁conmigo,":12790,"IGH":12791,"▁TT":12792,"mería":12793,"▁deportes":12794,"▁poder.":12795,"▁sm":12796,"▁Si.":12797,"▁pezuñas":12798,"▁Palacio":12799,"hen":12800,"INE":12801,"▁comprarme":12802,"▁SUPER":12803,"▁Estudi":12804,"66":12805,"▁Alta":12806,"▁ejemplo,":12807,"dicación":12808,"▁refiero":12809,"▁medicamentos":12810,"tena":12811,"▁amistades":12812,"▁secundar":12813,"bria":12814,"his":12815,"▁Canal":12816,"▁Agrade":12817,"▁word":12818,"▁más!":12819,"▁incu":12820,"cipe":12821,"cc":12822,"▁perdieron":12823,"▁Viz":12824,"▁Olimp":12825,"▁Castillo":12826,"cimientos":12827,"▁monstru":12828,"▁tamaño":12829,"▁acompañar":12830,"▁Joaquín":12831,"▁Dal":12832,"▁estão":12833,"ge.":12834,"ieran":12835,"▁\"te":12836,"▁pensamientos":12837,"▁hueco":12838,"denas":12839,"▁Junta":12840,"▁portero":12841,"▁manija":12842,"▁panamá":12843,"▁water":12844,"_la_derecha":12845,"vido":12846,"▁vivienda":12847,"▁olvidó":12848,"doni":12849,"▁pérdida":12850,"GRA":12851,"▁Segunda":12852,"▁bolsillo":12853,"▁incapa":12854,"▁azúcar":12855,"▁parlament":12856,"▁pedí":12857,"▁anillo":12858,"▁escuché":12859,"▁colombiano":12860,"TM":12861,"▁pedimos":12862,"▁comenta":12863,"▁adqui":12864,"▁terroristas":12865,"uit":12866,"▁DDHH":12867,"▁Gracias!":12868,"▁prácticas":12869,"▁dinero,":12870,"▁explos":12871,"▁ENTRE":12872,"▁intensa":12873,"▁arm":12874,"▁tormenta":12875,"gió":12876,"▁paz,":12877,"nya":12878,"▁Español":12879,"▁ERES":12880,"▁pandemia,":12881,"▁campeones":12882,"▁medias":12883,"▁left":12884,"▁ratas":12885,"SJ":12886,"▁PUEBLO":12887,"▁(con":12888,"▁docentes":12889,"chera":12890,"した":12891,"▁DU":12892,"▁exposición":12893,"ware":12894,"▁gel":12895,"es...":12896,"▁chill":12897,"ello":12898,"▁Alto":12899,"▁ball":12900,"▁Mayor":12901,"▁exige":12902,"8,":12903,"▁CÓ":12904,"▁miser":12905,"▁lasti":12906,"▁HAR":12907,"▁Bang":12908,"íso":12909,"AMENTE":12910,"▁lesbi":12911,"▁enfermedades":12912,"▁Marcelo":12913,"▁factura":12914,"▁Stor":12915,"CIOS":12916,"▁aven":12917,"▁negocia":12918,"reta":12919,"▁exclusiva":12920,"▁URGENTE":12921,"▁acoso":12922,"▁enfermos":12923,"▁99":12924,"▁inclui":12925,"bly":12926,"▁yoongi":12927,"▁junior":12928,"▁amis":12929,"▁arranca":12930,"▁Investi":12931,"▁\"si":12932,"▁serás":12933,"▁rutina":12934,"▁dirigentes":12935,"▁anunció":12936,"trito":12937,"tizar":12938,"▁Art":12939,"▁saldrá":12940,"▁asocia":12941,"▁molt":12942,"▁jamas":12943,"▁ment":12944,"▁acuerdo.":12945,"▁ejército":12946,"▁parejas":12947,"▁brindar":12948,"meno":12949,"▁intelectual":12950,"bierto":12951,"▁rompiendo":12952,"▁wrong":12953,"▁gras":12954,"▁grados":12955,"▁Tin":12956,"▁ill":12957,"▁Android":12958,"▁→":12959,"▁Bomb":12960,"▁2-":12961,"▁gobernar":12962,"GEN":12963,"▁lateral":12964,"▁código":12965,"▁Cine":12966,"▁sufrimiento":12967,"▁cuadro":12968,"rd":12969,"▁explico":12970,"dré":12971,"▁analizar":12972,"▁PN":12973,"menos":12974,"▁12.":12975,"▁enseña":12976,"uena":12977,"▁ach":12978,"▁discapacidad":12979,"▁restric":12980,"guna":12981,"▁ayer,":12982,"▁2020,":12983,"ICIAL":12984,"jes,":12985,"▁digna":12986,"▁Popular":12987,"yecto":12988,"▁rega":12989,"43":12990,"▁embaja":12991,"▁detenido":12992,"▁cuántos":12993,"▁hr":12994,"▁mujeres,":12995,"▁debió":12996,"▁humilde":12997,"▁Neta":12998,"▁dep":12999,"▁justifica":13000,"▁mediocre":13001,"▁destin":13002,"zos,":13003,"▁Comple":13004,"세븐":13005,"▁Guardia":13006,"▁Podría":13007,"vistar":13008,"sung":13009,"▁expor":13010,"▁jugamos":13011,"▁lac":13012,"▁Viendo":13013,"▁herramientas":13014,"▁darles":13015,"▁Hermoso":13016,"...pero":13017,"▁MAÑANA":13018,"minis":13019,"▁sigueme":13020,"▁retra":13021,"tica,":13022,"▁sales":13023,"▁version":13024,"77":13025,"▁desigual":13026,"idar":13027,"▁taehyung":13028,"ès":13029,"▁teor":13030,"▁dark":13031,"▁clubes":13032,"gador":13033,"▁س":13034,"utri":13035,"▁regional":13036,"▁:(((":13037,"▁male":13038,"▁Glor":13039,"▁fus":13040,"▁ahorrar":13041,"▁chang":13042,"▁invitación":13043,"▁Premio":13044,"▁cursos":13045,"▁parada":13046,"▁Cuál":13047,"▁especie":13048,"▁huelga":13049,"▁tonter":13050,"▁loco,":13051,"▁estúpido":13052,"▁cuarta":13053,"▁CORRUP":13054,"linson":13055,"▁Frente":13056,"▁vil":13057,"▁RT.":13058,"▁SM":13059,"▁trajo":13060,"▁boletos":13061,"▁seré":13062,"dense":13063,"▁conexión":13064,"▁emilio":13065,"▁aparecen":13066,"▁aporte":13067,"bús":13068,"riam":13069,"tren":13070,"▁ESPER":13071,"oney":13072,"KAKA":13073,"▁gigante":13074,"▁vacío":13075,"▁exámenes":13076,"ecil":13077,"cker":13078,"▁times":13079,"ksks":13080,"▁pareció":13081,"iores":13082,"▁Chil":13083,"▁Adi":13084,"▁ACAB":13085,"▁pilas":13086,"▁sev":13087,"ition":13088,"▁Traba":13089,"▁contras":13090,"▁facu":13091,"▁desarrollar":13092,"▁miseria":13093,"▁inmo":13094,"jas.":13095,"▁peña":13096,"▁Hermosa":13097,"▁Vá":13098,"▁política,":13099,"▁43":13100,"fortunada":13101,"▁milagro":13102,"▁jurí":13103,"cam":13104,"▁tacos":13105,"▁sense":13106,"gí":13107,"óstico":13108,"▁Econom":13109,"▁barco":13110,"olución":13111,"▁próximas":13112,"▁ako":13113,"▁cobarde":13114,"dula":13115,"▁grande.":13116,"▁Lorenzo":13117,"mito":13118,"▁reconoce":13119,"hop":13120,"inte":13121,"▁tomó":13122,"▁vincu":13123,"...?":13124,"▁Iglesia":13125,"▁COMUN":13126,"▁flow":13127,"TIV":13128,"▁R.":13129,"▁Nie":13130,"▁queridos":13131,"▁valora":13132,"▁cuen":13133,"▁baje":13134,"▁B.":13135,"▁fem":13136,"▁design":13137,"▁jogo":13138,"tián":13139,"▁Win":13140,"▁presentó":13141,"▁mueren":13142,"▁movie":13143,"▁decision":13144,"▁acel":13145,"▁Martes":13146,"▁consol":13147,"▁Derecho":13148,"▁nación":13149,"mira":13150,"▁MILL":13151,"gy":13152,"▁Corre":13153,"▁paseo":13154,"Se":13155,"esión":13156,"▁parado":13157,"▁seen":13158,"▁vendiendo":13159,"▁política.":13160,"▁però":13161,"no,":13162,"▁enjoy":13163,"pación":13164,"▁wea":13165,"▁indirec":13166,"▁TANTO":13167,"izon":13168,"QUÍ":13169,"▁estuvieron":13170,"▁envío":13171,"años":13172,"HAH":13173,"▁Sant":13174,"▁patrimonio":13175,"To":13176,"▁lenguaje":13177,"enio":13178,"▁espn":13179,"çar":13180,"▁CAP":13181,"▁meses.":13182,"▁¿Dónde":13183,"▁creciendo":13184,"▁2010":13185,"▁agro":13186,"▁OC":13187,"▁técnica":13188,"▁XXI":13189,"▁antigu":13190,"▁reen":13191,"▁Chin":13192,"▁revela":13193,"vina":13194,"lying":13195,"▁tratan":13196,"▁apoyan":13197,"▁hamburguesa":13198,"aar":13199,"▁manipula":13200,"▁sufriendo":13201,"▁Anti":13202,"▁fana":13203,"▁unfollowers":13204,"as..":13205,"▁whats":13206,"▁Sch":13207,"▁solar":13208,"▁SEM":13209,"▁mierdas":13210,"▁sufre":13211,"▁Virgen":13212,"▁ciudad.":13213,"▁regresa":13214,"▁comeback":13215,"ington":13216,"▁Toma":13217,"▁Vice":13218,"▁entendido":13219,"▁different":13220,"▁chama":13221,"อง":13222,"▁bancos":13223,"▁chavista":13224,"▁patro":13225,"▁colegios":13226,"▁ERA":13227,"▁flaca":13228,"▁fabr":13229,"▁encier":13230,"elos":13231,"▁Jer":13232,"▁favoritos":13233,"▁Linda":13234,"▁Í":13235,"▁alba":13236,"▁suba":13237,"▁contigo,":13238,"▁Ill":13239,"unk":13240,"ABLE":13241,"▁ESTU":13242,"▁md":13243,"▁dibujo":13244,"▁inaugu":13245,"▁retweet":13246,"▁\"Un":13247,"▁publico":13248,"clas":13249,"▁linea":13250,"kar":13251,"▁Sac":13252,"▁llevaba":13253,"▁cumpliendo":13254,"pada":13255,"▁pí":13256,"▁llueve":13257,"▁NECESITO":13258,"Por":13259,"▁Yes":13260,"▁satisfac":13261,"▁homos":13262,"▁falsos":13263,"▁(O":13264,"▁mtvlafandomar":13265,"▁ku":13266,"no.":13267,"▁me,":13268,"▁juvenil":13269,"udio":13270,"▁insoportable":13271,"▁tomen":13272,"daba":13273,"tica.":13274,"▁twitch":13275,"▁espectáculo":13276,"▁perjud":13277,"▁forget":13278,"▁águila":13279,"lización":13280,"▁FAN":13281,"▁jsjsjs":13282,"▁Op":13283,"▁Entrevista":13284,"▁conflicto":13285,"▁Abs":13286,"▁consci":13287,"hoy":13288,"▁muerta":13289,"▁miedo,":13290,"ES,":13291,"▁Supongo":13292,"▁pero...":13293,"▁fútbol.":13294,"▁ROM":13295,"▁animo":13296,"enciales":13297,"▁tragedia":13298,"▁duel":13299,"▁move":13300,"▁virgen":13301,"▁Gobernador":13302,"▁y...":13303,"▁caído":13304,"ILE":13305,"/19":13306,"▁negros":13307,"▁blue":13308,"▁confia":13309,"▁wil":13310,"▁pañ":13311,"JJAA":13312,"▁beco":13313,"▁Die":13314,"▁terminé":13315,"▁39":13316,"▁Emilio":13317,"▁Human":13318,"▁hipocres":13319,"onga":13320,"▁each":13321,"▁persegui":13322,"B.":13323,"▁necesitar":13324,"▁Sale":13325,"▁gla":13326,"'S":13327,"▁lanzar":13328,"▁supre":13329,"▁donar":13330,"▁í":13331,"▁cup":13332,"▁¡Te":13333,"▁posibles":13334,"VIR":13335,"enme":13336,"ass":13337,"▁pasta":13338,"▁impo":13339,"▁filoso":13340,"▁Evo":13341,"▁secuestra":13342,"minado":13343,"N.":13344,"▁saying":13345,"tam":13346,"▁mujer.":13347,"▁inocente":13348,"▁egoís":13349,"ween":13350,"GAS":13351,"jua":13352,"▁Iván":13353,"▁confirmar":13354,"▁levanté":13355,"ICE":13356,"▁acumula":13357,"▁descor":13358,"▁fama":13359,"dentes":13360,"ladoli":13361,"▁Ep":13362,"ution":13363,"▁Villar":13364,"▁tremen":13365,"▁Nicaragua":13366,"▁habitantes":13367,"▁solucionar":13368,"tors":13369,"▁opinion":13370,"▁Elec":13371,"▁ESCU":13372,"▁paisa":13373,"▁Morales":13374,"▁president":13375,"▁enamor":13376,"▁comí":13377,"▁mtvhot":13378,"▁¡L":13379,"▁presidenta":13380,"got":13381,"▁distinto":13382,"▁FELICI":13383,"ona.":13384,"▁Respe":13385,"▁andaba":13386,"▁asumir":13387,"▁contesta":13388,"▁equili":13389,"o!":13390,"▁recicla":13391,"▁Esperemos":13392,"▁llegas":13393,"▁pcas":13394,"▁dd":13395,"▁incomo":13396,"▁mtvlains":13397,"▁continua":13398,"▁George":13399,"▁Nam":13400,"▁muera":13401,"▁almuer":13402,"▁explique":13403,"▁wee":13404,"▁cause":13405,"▁CONTRA":13406,"▁important":13407,"▁pasado.":13408,"mócra":13409,"▁valencia":13410,"▁combus":13411,"▁toco":13412,"▁STREAM":13413,"▁hueva":13414,"nie":13415,"▁comprando":13416,"▁barbara":13417,"▁FL":13418,"▁Tay":13419,"cié":13420,"▁Inicia":13421,"xd":13422,"▁comunismo":13423,"▁#이":13424,"▁llave":13425,"▁soporto":13426,"▁apuesta":13427,"zcan":13428,"▁cambie":13429,"▁reempla":13430,"▁rell":13431,"▁nossa":13432,"trá":13433,"▁2012":13434,"▁inva":13435,"▁¿cómo":13436,"▁barato":13437,"▁ina":13438,"▁OMS":13439,"▁priori":13440,"▁grande,":13441,"▁(0":13442,"▁-¿":13443,"▁confi":13444,"▁Discul":13445,"▁aja":13446,"▁Congra":13447,"fobia":13448,"cierto":13449,"tados.":13450,"▁(D":13451,"pso":13452,"...es":13453,"▁matrimonio":13454,"ELA":13455,"▁almo":13456,"▁carn":13457,"▁socialista":13458,"pear":13459,"▁Triste":13460,"▁fría":13461,"ín.":13462,"88":13463,"▁Rich":13464,"aller":13465,"▁transpor":13466,"▁condición":13467,"▁DAN":13468,"TF":13469,"▁Nad":13470,"▁MUJER":13471,"itud":13472,"▁vine":13473,"▁Voto":13474,"zos.":13475,"▁habitación":13476,"estructura":13477,"▁falsas":13478,"▁mãe":13479,"▁Colombia.":13480,"▁arrepiento":13481,"▁Nin":13482,"ti.":13483,"▁comprado":13484,"▁aristemo":13485,"▁rapido":13486,"▁2019,":13487,"▁semá":13488,"▁barde":13489,"▁\"Con":13490,"tal,":13491,"▁PARTI":13492,"▁propias":13493,"cones":13494,"Te":13495,"▁Ánimo":13496,"▁Calderón":13497,"I.":13498,"▁I'll":13499,"▁oficiales":13500,"▁quite":13501,"▁mtvlafandomaristemo":13502,"▁falando":13503,"▁Dici":13504,"▁digo,":13505,"▁Amiga":13506,"▁NUES":13507,"▁til":13508,"▁\"en":13509,"▁volvemos":13510,"▁cm":13511,"ee,":13512,"▁tramp":13513,"▁difusión":13514,"5,":13515,"▁carácter":13516,"▁mtvhottest":13517,"mona":13518,"▁apareció":13519,"▁visitas":13520,"▁nam":13521,"▁potencial":13522,"▁Ando":13523,"wing":13524,"▁Rac":13525,"▁compos":13526,"▁Abo":13527,"▁tendencias":13528,"▁extrañaba":13529,"▁pira":13530,"▁éxitos":13531,"▁used":13532,"▁reproducción":13533,"▁sr":13534,"▁Yan":13535,"▁Descan":13536,"▁requis":13537,"▁lenta":13538,"▁120":13539,"▁interca":13540,"▁ft":13541,"▁disponibles":13542,"rás":13543,"▁perver":13544,"▁bolu":13545,"▁asistir":13546,"AH":13547,"▁EE.UU.":13548,"▁contento":13549,"▁Encon":13550,"▁hacían":13551,"▁merezco":13552,"▁tonight":13553,"▁GOOOL":13554,"eño":13555,"/as":13556,"▁jud":13557,"▁VENEZUELA":13558,"▁robado":13559,"▁mtvlaparejaar":13560,"▁cenar":13561,"▁diferencias":13562,"▁claqueta":13563,"▁cruzar":13564,"sando":13565,"▁trib":13566,"▁inneces":13567,"▁aprendiza":13568,"▁pací":13569,"▁pierna":13570,"▁Selección":13571,"AK":13572,"▁ROS":13573,"▁subi":13574,"▁máquina":13575,"kw":13576,"▁Instituto":13577,"▁halloween":13578,"▁sorprender":13579,"▁estadouniden":13580,"▁vehículos":13581,"▁CER":13582,"▁ह":13583,"▁maria":13584,"▁recuerden":13585,"▁panza":13586,"anos.":13587,"alho":13588,"▁SP":13589,"ject":13590,"▁ARGENT":13591,"▁HU":13592,"▁maric":13593,"dam":13594,"▁antes.":13595,"gones":13596,"▁XX":13597,"▁Iz":13598,"▁escribió":13599,"▁tareas":13600,"▁seleccion":13601,"▁yu":13602,"▁importan":13603,"▁numero":13604,"▁fifa":13605,"ivi":13606,"▁límite":13607,"mentales":13608,"▁valorar":13609,"▁activo":13610,"▁Tour":13611,"▁prometo":13612,"▁odiar":13613,"▁empiece":13614,"te...":13615,"69":13616,"ticamente":13617,"▁chido":13618,"centa":13619,"hion":13620,"kd":13621,"▁cambió":13622,"▁Perfec":13623,"glaterra":13624,"▁ALGO":13625,"▁promoción":13626,"▁noctur":13627,"▁Aaa":13628,"▁u.u":13629,"▁narra":13630,"▁psi":13631,"▁Reyes":13632,"▁Información":13633,"▁impuesto":13634,"▁Gómez":13635,"▁̄":13636,"▁borde":13637,"▁yet":13638,"▁Lpm":13639,"▁veter":13640,"mago":13641,"▁pierdan":13642,"▁cance":13643,"ribles":13644,"IP":13645,"erá":13646,"▁declaración":13647,"▁escuchas":13648,"▁faltaba":13649,"▁dormida":13650,"▁5,":13651,"▁\"De":13652,"▁diná":13653,"po,":13654,"timas":13655,"▁estupe":13656,"▁posicion":13657,"COR":13658,"glo":13659,"▁invertir":13660,"que,":13661,"▁anyone":13662,"▁ocasión":13663,"▁Dame":13664,"▁reciben":13665,"hí":13666,"▁Medellín":13667,"。.":13668,"▁Desarrollo":13669,"▁calle.":13670,"laron":13671,"▁receta":13672,"▁decidido":13673,"▁QUIER":13674,"wood":13675,"▁Fiscalía":13676,"▁ESTAR":13677,"▁racismo":13678,"cion.":13679,"trucción":13680,"▁👁":13681,"▁duela":13682,"kis":13683,"▁Sco":13684,"▁¡Buenos":13685,"▁barras":13686,"pando":13687,"▁insomn":13688,"▁DONDE":13689,"▁Tremendo":13690,"▁novedades":13691,"▁quitan":13692,"▁Well":13693,"▁dete":13694,"▁anteriores":13695,"▁zapatos":13696,"▁es...":13697,"'ve":13698,"▁subsi":13699,"el.":13700,"▁hablaba":13701,"▁protocolo":13702,"llermo":13703,"▁aficion":13704,"▁tall":13705,"▁simula":13706,"▁constitución":13707,"▁intensidad":13708,"▁BUS":13709,"▁mezcla":13710,"▁atar":13711,"lo?":13712,"▁escudo":13713,"▁BASTA":13714,"▁perpe":13715,"▁Feria":13716,"normal":13717,"▁sea.":13718,"▁NOT":13719,"▁watching":13720,"▁JS":13721,"▁cober":13722,"▁misterio":13723,"uidad":13724,"▁wall":13725,"ned":13726,"garse":13727,"rre":13728,"▁pierda":13729,"piro":13730,"▁PAL":13731,"▁URL,":13732,"▁certe":13733,"▁reclamar":13734,"▁yaaa":13735,"▁lang":13736,"▁¿Me":13737,"zen":13738,"▁Tierra":13739,"liar":13740,"▁niños,":13741,"▁microbio":13742,"▁plantilla":13743,"▁veces.":13744,"▁bonitos":13745,"▁Time":13746,"▁gring":13747,"TA.":13748,"▁(si":13749,"▁Familia":13750,"▁Fac":13751,"▁desma":13752,"▁Oigan":13753,"▁1:":13754,"▁ganaron":13755,"▁electri":13756,"▁volar":13757,"▁pretende":13758,"▁you!":13759,"▁gastos":13760,"▁manifestación":13761,"▁(L":13762,"▁jefa":13763,"tificación":13764,"▁petró":13765,"▁Mich":13766,"icante":13767,"▁mame":13768,"▁acci":13769,"anía":13770,"icada":13771,"▁miedo.":13772,"▁protocol":13773,"s..":13774,"▁JULI":13775,"▁municipios":13776,"▁teníamos":13777,"cano":13778,"▁Claudia":13779,"▁boludeces":13780,"▁búsqueda":13781,"▁\"per":13782,"▁Empez":13783,"trate":13784,"▁preciso":13785,"่า":13786,"didad":13787,"▁novel":13788,"▁sc":13789,"▁angusti":13790,"▁presta":13791,"▁patio":13792,"▁logrado":13793,"▁gue":13794,"▁ibas":13795,"EROS":13796,"ners":13797,"▁Mujeres":13798,"▁sanciones":13799,"▁embarazada":13800,"▁extin":13801,"▁entendi":13802,"▁Tru":13803,"▁bring":13804,"bloque":13805,"▁útil":13806,"tander":13807,"▁Humedad":13808,"unch":13809,"aba":13810,"▁Jan":13811,"▁idiotas":13812,"▁saludar":13813,"ITE":13814,"▁Mauricio":13815,"▁pasear":13816,"▁tabla":13817,"minos":13818,"▁CUL":13819,"▁mujeres.":13820,"às":13821,"inado":13822,"▁traen":13823,"▁sn":13824,"▁Atle":13825,"▁didnt":13826,"▁Sigan":13827,"chor":13828,"▁Viento":13829,"▁fox":13830,"sores":13831,"▁conseguido":13832,"▁peligroso":13833,"▁Poco":13834,"▁distribu":13835,"set":13836,"trans":13837,"HD":13838,"CAS":13839,"▁ventas":13840,"▁conquis":13841,"llate":13842,"▁king":13843,"▁miembro":13844,"▁capítulos":13845,"▁ilusion":13846,"▁special":13847,"▁tia":13848,"ity.":13849,"▁tenías":13850,"quera":13851,"▁primaria":13852,"fonos":13853,"▁iré":13854,"▁utiliza":13855,"▁barri":13856,"▁mentiros":13857,"▁troll":13858,"...que":13859,"▁revel":13860,"sive":13861,"▁entran":13862,"▁exagera":13863,"▁sobran":13864,"ónimo":13865,"▁empatía":13866,"▁escritor":13867,"▁supl":13868,"▁jour":13869,"▁ALL":13870,"▁cierta":13871,"GN":13872,"▁share":13873,"▁apellido":13874,"▁smart":13875,"▁vcs":13876,"▁aguanta":13877,"▁Ata":13878,"▁regga":13879,"ILO":13880,"▁hombre,":13881,"▁reporte":13882,"▁ambiental":13883,"▁HABL":13884,"▁deberia":13885,"hite":13886,"▁evolu":13887,"▁GA":13888,"▁monte":13889,"bios":13890,"▁Dí":13891,"▁Navar":13892,"COM":13893,"▁recortable":13894,"uts":13895,"▁weather":13896,"entimiento":13897,"▁aburrida":13898,"5%":13899,"▁Lol":13900,"▁FF":13901,"▁ov":13902,"ciano":13903,"▁deri":13904,"▁terrorismo":13905,"▁sepas":13906,"▁propaganda":13907,"TICIA":13908,"▁bot":13909,"bito":13910,"▁chiquito":13911,"▁bn":13912,"▁Derechos":13913,"▁golea":13914,"$.":13915,"▁voca":13916,"▁CAMPE":13917,"▁reverencia":13918,"▁working":13919,"▁lugar.":13920,"▁(E":13921,"▁Segura":13922,"▁Check":13923,"▁transi":13924,"▁Justin":13925,"▁Saludos.":13926,"turi":13927,"ge,":13928,"▁automática":13929,"▁Rodrigo":13930,"▁cara.":13931,"▁politica":13932,"▁mtvbr":13933,"▁temporadas":13934,"▁barrios":13935,"▁bc":13936,"▁hora,":13937,"▁selec":13938,"▁Av.":13939,"ี่":13940,"almente":13941,"▁Tho":13942,"▁francés":13943,"▁dulces":13944,"▁id":13945,"▁polvo":13946,"▁Demas":13947,"▁Capital":13948,"▁als":13949,"▁Tá":13950,"▁chara":13951,"▁Non":13952,"▁Team":13953,"▁sobrevivir":13954,"▁tasa":13955,"▁retirar":13956,"▁prácticamente":13957,"ñarol":13958,"▁Toy":13959,"▁héroes":13960,"▁2-0":13961,"▁fútbol,":13962,"▁inventar":13963,"▁pelis":13964,"▁pelicula":13965,"▁paran":13966,"▁vien":13967,"▁state":13968,"▁Participa":13969,"▁perdona":13970,"▁presidente.":13971,"▁increible":13972,"ote":13973,"▁gasol":13974,"mido":13975,"▁decis":13976,"▁Consulta":13977,"dig":13978,"▁Ejecu":13979,"▁manip":13980,"▁Herrera":13981,"▁encantó":13982,"▁aprovecha":13983,"▁fija":13984,"▁activos":13985,"▁creado":13986,"▁wn":13987,"▁pensiones":13988,"▁respirar":13989,"▁Der":13990,"▁bende":13991,"▁deliver":13992,"ija":13993,"▁limón":13994,"▁mario":13995,"▁emprendimiento":13996,"ation":13997,"▁extrañ":13998,"▁futuro.":13999,"zas,":14000,"▁jugo":14001,"ience":14002,"▁Bayern":14003,"▁arquite":14004,"▁intimi":14005,"▁io":14006,"▁point":14007,"iebre":14008,"/11":14009,"▁whis":14010,"▁Ases":14011,"▁representantes":14012,"▁firmar":14013,"▁carreras":14014,"▁mató":14015,"▁abandono":14016,"▁Ortega":14017,"▁va,":14018,"▁fight":14019,"▁obri":14020,"▁canto":14021,"▁didn't":14022,"▁Fútbol":14023,"cturas":14024,"tidas":14025,"▁materias":14026,"▁ful":14027,"▁Acomp":14028,"▁engañar":14029,"▁marcas":14030,"chester":14031,"▁copo":14032,"▁Daily":14033,"▁poder,":14034,"▁Có":14035,"ñada":14036,"hue":14037,"▁nave":14038,"▁cry":14039,"▁som":14040,"▁transformación":14041,"▁contratos":14042,"▁USTE":14043,"...)":14044,"▁llame":14045,"▁causas":14046,"▁estemos":14047,"▁cartas":14048,"▁aval":14049,"78":14050,"▁pai":14051,"▁mandarina":14052,"▁desor":14053,"▁Rui":14054,"▁elegido":14055,"ly.":14056,"▁dama":14057,"▁felicitaciones":14058,"▁concur":14059,"▁biz":14060,"▁Romero":14061,"vándose":14062,"▁arres":14063,"▁instante":14064,"at.":14065,"▁entrando":14066,"ents":14067,"▁FUCK":14068,"▁pilla":14069,"met":14070,"▁verdes":14071,"▁Torres":14072,"▁¿y":14073,"▁radical":14074,"▁cató":14075,"▁sueldos":14076,"▁consciente":14077,"▁ASI":14078,"ara,":14079,"▁Já":14080,"▁decirles":14081,"▁suy":14082,"▁Ron":14083,"▁origin":14084,"fornia":14085,"ta\"":14086,"▁conmigo.":14087,"▁caracas":14088,"▁estupideces":14089,"remo":14090,"▁bicho":14091,"▁líneas":14092,"▁celebración":14093,"py":14094,"▁repri":14095,"▁empezaron":14096,"▁econo":14097,"▁gritos":14098,"▁Colombia,":14099,"bineros":14100,"▁profundo":14101,"▁geo":14102,"anos,":14103,"RLO":14104,"▁gp":14105,"▁Goool":14106,"gano":14107,"▁hiper":14108,"▁Alber":14109,"▁fasti":14110,"TIN":14111,"▁creía":14112,"NN":14113,"ECE":14114,"▁literatura":14115,"▁Cámara":14116,"áticos":14117,"▁coach":14118,"▁camina":14119,"ekhyun":14120,"▁siguiendo":14121,"▁ascenso":14122,"▁ODIO":14123,"▁formal":14124,"▁-M":14125,"▁votando":14126,"os..":14127,"▁paguen":14128,"mance":14129,"▁mv":14130,"ELE":14131,"inete":14132,":15":14133,"erio":14134,"▁tron":14135,"▁honduras":14136,"▁Colegio":14137,"▁custo":14138,"▁sis":14139,"video":14140,"▁cachor":14141,"▁combate":14142,"▁precau":14143,"▁DAR":14144,"▁(G":14145,"▁dispu":14146,"▁pájar":14147,"▁salón":14148,"▁Aun":14149,"▁¿cu":14150,"▁nintendo":14151,"cripciones":14152,"▁real.":14153,"ífica":14154,"▁compartiendo":14155,"▁Mala":14156,"▁bay":14157,"▁desse":14158,"facta":14159,"Co":14160,"▁Corea":14161,"▁llevaron":14162,"▁job":14163,"▁foro":14164,"▁problema.":14165,"▁autóno":14166,"▁Meu":14167,"▁\"pro":14168,"-6":14169,"▁Mús":14170,"▁Temperatura":14171,"▁finalmente":14172,"▁enojar":14173,"▁crece":14174,"▁(s":14175,"▁dinero.":14176,"▁reprodu":14177,"▁reivin":14178,"▁juegue":14179,"▁incluye":14180,"▁despedir":14181,"DAN":14182,"▁taxi":14183,"▁Dime":14184,"tagena":14185,"▁jajas":14186,"▁serp":14187,"▁it,":14188,"▁recordamos":14189,"▁\"Que":14190,"▁palmera":14191,"▁pasa,":14192,"etero":14193,"gidos":14194,"▁hablado":14195,"/5":14196,"ette":14197,"▁detes":14198,"▁metan":14199,"medio":14200,"▁descorchada":14201,"▁(3":14202,"▁vous":14203,"▁Simp":14204,"▁shar":14205,"▁spi":14206,"▁plantel":14207,"▁Tim":14208,"▁documento":14209,"▁tontos":14210,"ic,":14211,"▁Mana":14212,"▁oídos":14213,"▁maneras":14214,"▁benefi":14215,"jé":14216,"▁potencia":14217,"ors":14218,"▁¡Vamos":14219,"more":14220,"▁Alfon":14221,"▁4T":14222,"▁árbitro":14223,"▁traigo":14224,"▁gobierna":14225,"▁dia,":14226,"▁44":14227,"▁vida...":14228,"D,":14229,"▁prom":14230,"▁ecuator":14231,"chill":14232,"▁ademas":14233,"▁decreto":14234,"▁montaña":14235,"▁duran":14236,"AL.":14237,"▁ode":14238,"▁mora":14239,"▁trasla":14240,"DIA":14241,"▁dos,":14242,"▁minas":14243,"▁mogol":14244,"▁vengas":14245,"▁Marcos":14246,"▁Pes":14247,"▁Independiente":14248,"▁Simón":14249,"▁muchachos":14250,"▁ARE":14251,"▁es:":14252,"▁invis":14253,"▁convirtió":14254,"or,":14255,"▁sam":14256,"▁alternativa":14257,"▁Twitter.":14258,"▁postura":14259,"ín,":14260,"▁UC":14261,"▁leyenda":14262,"▁secretario":14263,"▁Administra":14264,"▁Recuerdo":14265,"ológico":14266,"▁suces":14267,"▁hacerlo.":14268,"▁siguientes":14269,"▁DESDE":14270,"▁lora":14271,"▁LIVE":14272,"...!":14273,"▁き":14274,"▁más?":14275,"▁Cés":14276,"pata":14277,"▁aveces":14278,"-se":14279,"▁pag":14280,"▁''":14281,"core":14282,"▁reflexión":14283,"▁actores":14284,"▁quiero.":14285,"▁influencer":14286,"──":14287,"▁presidente,":14288,"tial":14289,"cion,":14290,"lida":14291,"inge":14292,"UNG":14293,"oo.":14294,"▁liv":14295,"▁rueda":14296,"▁vocês":14297,"▁ini":14298,"▁GRANDE":14299,"▁favoritas":14300,"▁Esco":14301,"▁afron":14302,"▁lp":14303,"▁frances":14304,"▁riendo":14305,"▁Joe":14306,"▁needs":14307,"▁kk":14308,"▁atta":14309,"grafo":14310,"▁fiz":14311,"▁Mí":14312,"▁ilustra":14313,"▁vontade":14314,"▁quito":14315,"▁Parte":14316,"guera":14317,"!...":14318,"▁criterio":14319,"▁random":14320,"brio":14321,"▁Impos":14322,"nis":14323,"▁otgala":14324,"▁FAM":14325,"▁equipa":14326,"▁acordé":14327,"pidos":14328,"▁Portugal":14329,"inea":14330,"▁golazo":14331,"▁Nose":14332,"▁cache":14333,"▁HUM":14334,"▁Libertadores":14335,"▁aliení":14336,"▁imbecil":14337,"▁deberíamos":14338,"▁histórica":14339,"▁cifra":14340,"▁votantes":14341,"▁entró":14342,"▁barbi":14343,"▁antici":14344,"▁sencilla":14345,"▁(por":14346,"ERTA":14347,"▁luck":14348,"▁alejar":14349,"▁bobo":14350,"▁MOM":14351,"▁Paso":14352,"mbro":14353,"▁note":14354,"mico":14355,"้า":14356,"es!":14357,"▁Disfruta":14358,"▁volunt":14359,"▁guía":14360,"▁vecin":14361,"▁detenidos":14362,"▁Republ":14363,"▁seguros":14364,"bili":14365,"▁Bale":14366,"▁aventura":14367,"▁kirchner":14368,"▁verdaderos":14369,"▁ARISTE":14370,"▁JAJ":14371,"▁Diciembre":14372,"▁convencer":14373,"▁patas":14374,"▁asigna":14375,"▁quedaba":14376,"▁identifica":14377,"▁match":14378,"do?":14379,"▁mir":14380,"▁reglas":14381,"▁nada..":14382,"▁luz,":14383,"ligencia":14384,"formas":14385,"▁procesos":14386,"▁OK":14387,"▁blackpink":14388,"▁III":14389,"▁covid19.":14390,"▁chistes":14391,"▁ly":14392,"aa.":14393,"▁Conta":14394,"▁PERSON":14395,"▁Colombi":14396,"▁cuadra":14397,"▁Alon":14398,"▁late":14399,"▁Puro":14400,"▁escapar":14401,"▁tóxica":14402,"▁Descar":14403,"▁rd":14404,"▁engañ":14405,"▁send":14406,"▁47":14407,"▁doesn't":14408,"dy.":14409,"▁happ":14410,"▁suele":14411,"▁carcel":14412,"▁alianza":14413,"kal":14414,"▁leon":14415,"▁FIFA":14416,"▁aa":14417,"▁Dani":14418,"▁Stu":14419,"▁abuelos":14420,"▁repi":14421,"▁hermano,":14422,"landia":14423,"▁DEF":14424,"▁americano":14425,"▁Recuerden":14426,"▁pongas":14427,"bete":14428,"▁representante":14429,"▁Argentina,":14430,"ieber":14431,"▁realidad,":14432,"▁iron":14433,"▁son.":14434,"▁fet":14435,"▁el,":14436,"▁learn":14437,"▁46":14438,"▁Menti":14439,"▁arbi":14440,"▁Há":14441,"▁queréis":14442,"▁Bolivar":14443,"▁Baby":14444,"o...":14445,"▁organizaciones":14446,"▁juntos.":14447,"anted":14448,"▁06":14449,"▁esperas":14450,"▁tocado":14451,"▁kara":14452,"った":14453,"Rec":14454,"antas":14455,"quad":14456,"▁lugar,":14457,"▁cayendo":14458,"▁literally":14459,"miro":14460,"▁Vidal":14461,"▁objetivos":14462,"dria":14463,"▁bolsas":14464,"▁Cambio":14465,"▁Mari":14466,"▁damn":14467,"▁zombi":14468,"▁eeuu":14469,"▁erra":14470,"▁bondoni":14471,"▁carpe":14472,"but":14473,"▁official":14474,"▁llover":14475,"▁destrucción":14476,"▁acercar":14477,"▁define":14478,"HE":14479,"▁laburar":14480,"▁SEA":14481,"▁castigo":14482,"▁colonia":14483,"WN":14484,"▁Japón":14485,"▁canales":14486,"▁Ramón":14487,"▁sali":14488,"▁tigres":14489,"▁Entiendo":14490,"▁tela":14491,"▁Pay":14492,"militar":14493,"arla":14494,"▁few":14495,"▁porte":14496,"2019.":14497,"▁BAN":14498,"to\"":14499,"▁vestir":14500,"▁VÍ":14501,"▁críticas":14502,"VAR":14503,"▁Pren":14504,"▁normas":14505,"▁¡Felici":14506,"▁Frank":14507,"habilita":14508,"▁decidió":14509,"you":14510,"▁sanitarios":14511,"itores":14512,"lo!":14513,"▁Joder":14514,"▁califica":14515,"▁Xq":14516,"▁Fecha":14517,"▁llorar,":14518,"ety":14519,"▁Estima":14520,"▁exist":14521,"▁Pregunta":14522,"▁42":14523,"▁vida..":14524,"▁sigamos":14525,"▁aguas":14526,"▁사":14527,"▁Técn":14528,"icientes":14529,"panish":14530,"▁ARISTEMO":14531,"▁aula":14532,"tol":14533,"▁Imagina":14534,"▁passar":14535,"▁lleguen":14536,"kit":14537,"cio,":14538,"▁Visita":14539,"▁risas":14540,"bby":14541,"FL":14542,"▁pegue":14543,"▁valle":14544,"meras":14545,"▁games":14546,"▁Fed":14547,"▁profesora":14548,"▁actual.":14549,"▁desac":14550,"▁dispara":14551,"▁darnos":14552,"énez":14553,"▁main":14554,"▁asesor":14555,"o?":14556,"▁ventaja":14557,"eu":14558,"▁ronda":14559,"▁queden":14560,"yer":14561,"▁Leg":14562,"▁garganta":14563,"▁malo,":14564,"▁tox":14565,"vación":14566,"▁quiénes":14567,"▁elementos":14568,"os...":14569,"▁campa":14570,"▁octa":14571,"dete":14572,"ught":14573,"▁compromis":14574,"▁talent":14575,"▁ponte":14576,"love":14577,"TIR":14578,"▁invitados":14579,"▁Favor":14580,"talgia":14581,"▁curiosidad":14582,"▁PES":14583,"▁perre":14584,"▁agua.":14585,"zu":14586,"mie":14587,"▁mtvlaparejaaristemo":14588,"yun":14589,"tation":14590,"▁hil":14591,"▁fantás":14592,":)":14593,"aragoza":14594,"▁herramienta":14595,"randa":14596,"▁HAB":14597,"▁estupefacta":14598,"▁Tes":14599,"▁PAÍS":14600,"▁kilo":14601,"ootball":14602,"▁Cora":14603,"▁consen":14604,"▁talking":14605,"S,":14606,"▁otros,":14607,"chet":14608,"▁gila":14609,"ulado":14610,"ten,":14611,"tures":14612,"▁incómo":14613,"▁Uber":14614,"iela":14615,"▁agr":14616,"▁muchacho":14617,"▁repas":14618,"-s":14619,"RIA":14620,"▁Memo":14621,"CUL":14622,"▁És":14623,"▁stories":14624,"▁enemigos":14625,"▁Exper":14626,"▁falto":14627,"▁aprendido":14628,"▁Tex":14629,"▁heridos":14630,"▁Tribunal":14631,
[...]
