{
    "version": "1.0",
    "truncation": null,
    "padding": null,
    "added_tokens": [
        {
            "id": 0,
            "special": true,
            "content": "<s>",
            "single_word": false,
            "lstrip": false,
            "rstrip": false,
            "normalized": false
        },
        {
            "id": 1,
            "special": true,
            "content": "<pad>",
            "single_word": false,
            "lstrip": false,
            "rstrip": false,
            "normalized": false
        },
        {
            "id": 2,
            "special": true,
            "content": "</s>",
            "single_word": false,
            "lstrip": false,
            "rstrip": false,
            "normalized": false
        },
        {
            "id": 3,
            "special": true,
            "content": "<unk>",
            "single_word": false,
            "lstrip": false,
            "rstrip": false,
            "normalized": false
        },
        {
            "id": 4,
            "special": true,
            "content": "<mask>",
            "single_word": false,
            "lstrip": false,
            "rstrip": false,
            "normalized": false
        },
        {
            "id": 5,
            "special": false,
            "content": "@usuario",
            "single_word": false,
            "lstrip": false,
            "rstrip": false,
            "normalized": false
        },
        {
            "id": 6,
            "special": false,
            "content": "url",
            "single_word": false,
            "lstrip": false,
            "rstrip": false,
            "normalized": false
        },
        {
            "id": 7,
            "special": false,
            "content": "hashtag",
            "single_word": false,
            "lstrip": false,
            "rstrip": false,
            "normalized": false
        },
        {
            "id": 8,
            "special": false,
            "content": "emoji",
            "single_word": false,
            "lstrip": false,
            "rstrip": false,
            "normalized": false
        }
    ],
    "normalizer": {
        "type": "Sequence",
        "normalizers": [
            {
                "type": "NFKC"
            },
            {
                "type": "BertNormalizer",
                "clean_text": true,
                "handle_chinese_chars": true,
                "strip_accents": false,
                "lowercase": false
            }
        ]
    },
    "pre_tokenizer": {
        "type": "Metaspace",
        "replacement": "▁",
        "add_prefix_space": true
    },
    "post_processor": {
        "type": "RobertaProcessing",
        "sep": [
            "</s>",
            2
        ],
        "cls": [
            "<s>",
            0
        ],
        "trim_offsets": true,
        "add_prefix_space": true
    },
    "decoder": {
        "type": "Metaspace",
        "replacement": "▁",
        "add_prefix_space": true
    },
    "model": {
        "type": "BPE",
        "dropout": null,
        "unk_token": null,
        "continuing_subword_prefix": null,
        "end_of_word_suffix": null,
        "fuse_unk": false,
        "vocab": {
            "0": 24,
            "1": 25,
            "2": 26,
            "3": 27,
            "4": 28,
            "5": 29,
            "6": 30,
            "7": 31,
            "8": 32,
            "9": 33,
            "10": 2132,
            "11": 3313,
            "12": 3183,
            "13": 4594,
            "14": 4191,
            "15": 3404,
            "16": 3851,
            "17": 3541,
            "18": 2497,
            "19": 1053,
            "20": 921,
            "21": 3033,
            "22": 5680,
            "23": 6367,
            "24": 5453,
            "25": 5483,
            "26": 7348,
            "27": 7492,
            "28": 7371,
            "29": 8020,
            "30": 2165,
            "31": 15605,
            "32": 17364,
            "33": 8446,
            "34": 16940,
            "35": 10180,
            "36": 11433,
            "37": 11665,
            "38": 10787,
            "39": 12552,
            "40": 4423,
            "41": 16319,
            "42": 16465,
            "43": 12856,
            "44": 9606,
            "45": 7005,
            "46": 10535,
            "47": 10144,
            "48": 10181,
            "49": 11956,
            "50": 3557,
            "54": 29008,
            "55": 14219,
            "56": 18815,
            "57": 17558,
            "58": 16409,
            "59": 26397,
            "60": 6120,
            "64": 24725,
            "65": 10227,
            "66": 13280,
            "67": 16728,
            "68": 15577,
            "69": 14055,
            "70": 7112,
            "73": 27949,
            "74": 26619,
            "75": 9444,
            "76": 21989,
            "77": 10896,
            "78": 14488,
            "79": 18982,
            "80": 6536,
            "82": 25774,
            "83": 27672,
            "84": 23968,
            "85": 21080,
            "86": 22489,
            "87": 25821,
            "88": 13275,
            "89": 23982,
            "90": 7015,
            "92": 22373,
            "93": 27373,
            "94": 27444,
            "95": 11658,
            "96": 22486,
            "97": 16833,
            "98": 15265,
            "99": 5946,
            "100": 6789,
            "127": 24382,
            "200": 8583,
            "300": 16460,
            "400": 20941,
            "500": 8372,
            "600": 23330,
            "700": 27280,
            "800": 21764,
            "1000": 17948,
            "2014": 21248,
            "2015": 14964,
            "2016": 12055,
            "2017": 8341,
            "2018": 4545,
            "2019": 3041,
            "2020": 2807,
            "2021": 17600,
            "<s>": 0,
            "<pad>": 1,
            "</s>": 2,
            "<unk>": 3,
            "<mask>": 4,
            "@usuario": 5,
            "url": 6,
            "hashtag": 7,
            "emoji": 8,
            "!": 9,
            "\"": 10,
            "#": 11,
            "$": 12,
            "%": 13,
            "&": 14,
            "'": 15,
            "(": 16,
            ")": 17,
            "*": 18,
            "+": 19,
            ",": 20,
            "-": 21,
            ".": 22,
            "/": 23,
            ":": 34,
            ";": 35,
            "=": 36,
            "?": 37,
            "@": 38,
            "A": 39,
            "B": 40,
            "C": 41,
            "D": 42,
            "E": 43,
            "F": 44,
            "G": 45,
            "H": 46,
            "I": 47,
            "J": 48,
            "K": 49,
            "L": 50,
            "M": 51,
            "N": 52,
            "O": 53,
            "P": 54,
            "Q": 55,
            "R": 56,
            "S": 57,
            "T": 58,
            "U": 59,
            "V": 60,
            "W": 61,
            "X": 62,
            "Y": 63,
            "Z": 64,
            "[": 65,
            "\\": 66,
            "]": 67,
            "^": 68,
            "_": 69,
            "`": 70,
            "a": 71,
            "b": 72,
            "c": 73,
            "d": 74,
            "e": 75,
            "f": 76,
            "g": 77,
            "h": 78,
            "i": 79,
            "j": 80,
            "k": 81,
            "l": 82,
            "m": 83,
            "n": 84,
            "o": 85,
            "p": 86,
            "q": 87,
            "r": 88,
            "s": 89,
            "t": 90,
            "u": 91,
            "v": 92,
            "w": 93,
            "x": 94,
            "y": 95,
            "z": 96,
            "|": 97,
            "¡": 98,
            "¿": 99,
            "Á": 100,
            "Ã": 101,
            "Ç": 102,
            "É": 103,
            "Í": 104,
            "Ñ": 105,
            "Ó": 106,
            "Ú": 107,
            "Ü": 108,
            "à": 109,
            "á": 110,
            "â": 111,
            "ã": 112,
            "ä": 113,
            "ç": 114,
            "è": 115,
            "é": 116,
            "ê": 117,
            "ì": 118,
            "í": 119,
            "ï": 120,
            "ñ": 121,
            "ò": 122,
            "ó": 123,
            "ô": 124,
            "õ": 125,
            "ö": 126,
            "ù": 127,
            "ú": 128,
            "ü": 129,
            "ğ": 130,
            "ı": 131,
            "ł": 132,
            "ş": 133,
            "ɪ": 134,
            "ɴ": 135,
            "ʀ": 136,
            "ʟ": 137,
            "̄": 138,
            "̶": 139,
            "α": 140,
            "ι": 141,
            "а": 142,
            "в": 143,
            "д": 144,
            "е": 145,
            "и": 146,
            "к": 147,
            "л": 148,
            "м": 149,
            "н": 150,
            "о": 151,
            "п": 152,
            "р": 153,
            "с": 154,
            "т": 155,
            "у": 156,
            "я": 157,
            "،": 158,
            "أ": 159,
            "ب": 160,
            "ة": 161,
            "ت": 162,
            "ج": 163,
            "ح": 164,
            "خ": 165,
            "د": 166,
            "ر": 167,
            "ز": 168,
            "س": 169,
            "ش": 170,
            "ص": 171,
            "ط": 172,
            "ع": 173,
            "ف": 174,
            "ق": 175,
            "ك": 176,
            "ل": 177,
            "م": 178,
            "ن": 179,
            "ه": 180,
            "و": 181,
            "ى": 182,
            "ي": 183,
            "َ": 184,
            "ک": 185,
            "ں": 186,
            "ہ": 187,
            "ی": 188,
            "ے": 189,
            "ं": 190,
            "क": 191,
            "त": 192,
            "द": 193,
            "न": 194,
            "प": 195,
            "म": 196,
            "य": 197,
            "र": 198,
            "ल": 199,
            "स": 200,
            "ह": 201,
            "ा": 202,
            "ि": 203,
            "ी": 204,
            "े": 205,
            "ो": 206,
            "्": 207,
            "க": 208,
            "த": 209,
            "ி": 210,
            "ு": 211,
            "்": 212,
            "ก": 213,
            "ข": 214,
            "ค": 215,
            "ง": 216,
            "จ": 217,
            "ช": 218,
            "ด": 219,
            "ต": 220,
            "ท": 221,
            "น": 222,
            "บ": 223,
            "ป": 224,
            "พ": 225,
            "ม": 226,
            "ย": 227,
            "ร": 228,
            "ล": 229,
            "ว": 230,
            "ส": 231,
            "ห": 232,
            "อ": 233,
            "ะ": 234,
            "ั": 235,
            "า": 236,
            "ิ": 237,
            "ี": 238,
            "ื": 239,
            "ุ": 240,
            "ู": 241,
            "เ": 242,
            "แ": 243,
            "ใ": 244,
            "ไ": 245,
            "็": 246,
            "่": 247,
            "้": 248,
            "ᄏ": 249,
            "ᅠ": 250,
            "ᅲ": 251,
            "ᥱ": 252,
            "ᴀ": 253,
            "ᴇ": 254,
            "ᴏ": 255,
            "ᴛ": 256,
            "⃣": 257,
            "→": 258,
            "─": 259,
            "━": 260,
            "┃": 261,
            "┓": 262,
            "═": 263,
            "▁": 264,
            "█": 265,
            "▶": 266,
            "►": 267,
            "★": 268,
            "☆": 269,
            "♪": 270,
            "♫": 271,
            "✔": 272,
            "❣": 273,
            "➡": 274,
            "⠀": 275,
            "⬇": 276,
            "、": 277,
            "。": 278,
            "「": 279,
            "」": 280,
            "【": 281,
            "】": 282,
            "あ": 283,
            "い": 284,
            "う": 285,
            "お": 286,
            "か": 287,
            "が": 288,
            "き": 289,
            "く": 290,
            "け": 291,
            "こ": 292,
            "ご": 293,
            "さ": 294,
            "し": 295,
            "す": 296,
            "た": 297,
            "だ": 298,
            "ち": 299,
            "っ": 300,
            "て": 301,
            "で": 302,
            "と": 303,
            "な": 304,
            "に": 305,
            "の": 306,
            "は": 307,
            "ま": 308,
            "み": 309,
            "め": 310,
            "も": 311,
            "ゃ": 312,
            "よ": 313,
            "ら": 314,
            "り": 315,
            "る": 316,
            "れ": 317,
            "を": 318,
            "ん": 319,
            "ア": 320,
            "イ": 321,
            "カ": 322,
            "キ": 323,
            "ク": 324,
            "シ": 325,
            "ジ": 326,
            "ス": 327,
            "タ": 328,
            "ッ": 329,
            "ト": 330,
            "ド": 331,
            "フ": 332,
            "ラ": 333,
            "リ": 334,
            "ル": 335,
            "レ": 336,
            "ロ": 337,
            "ン": 338,
            "・": 339,
            "人": 340,
            "日": 341,
            "生": 342,
            "가": 343,
            "게": 344,
            "고": 345,
            "기": 346,
            "김": 347,
            "나": 348,
            "년": 349,
            "는": 350,
            "니": 351,
            "다": 352,
            "단": 353,
            "대": 354,
            "도": 355,
            "드": 356,
            "들": 357,
            "라": 358,
            "랑": 359,
            "로": 360,
            "리": 361,
            "마": 362,
            "무": 363,
            "민": 364,
            "방": 365,
            "보": 366,
            "븐": 367,
            "사": 368,
            "생": 369,
            "서": 370,
            "세": 371,
            "소": 372,
            "수": 373,
            "스": 374,
            "시": 375,
            "아": 376,
            "어": 377,
            "에": 378,
            "엑": 379,
            "여": 380,
            "오": 381,
            "요": 382,
            "우": 383,
            "원": 384,
            "은": 385,
            "을": 386,
            "의": 387,
            "이": 388,
            "인": 389,
            "일": 390,
            "자": 391,
            "정": 392,
            "제": 393,
            "주": 394,
            "즈": 395,
            "지": 396,
            "진": 397,
            "탄": 398,
            "트": 399,
            "하": 400,
            "한": 401,
            "해": 402,
            "현": 403,
            "호": 404,
            "🎙": 405,
            "🏟": 406,
            "👁": 407,
            "🗣": 408,
            "▁e": 409,
            "ar": 410,
            "▁d": 411,
            "▁c": 412,
            "mo": 413,
            "io": 414,
            "▁de": 415,
            "▁p": 416,
            "▁l": 417,
            "as": 418,
            "er": 419,
            "en": 420,
            "▁a": 421,
            "us": 422,
            "▁s": 423,
            "ji": 424,
            "▁emo": 425,
            "▁emoji": 426,
            "an": 427,
            "▁m": 428,
            "ario": 429,
            "os": 430,
            "usu": 431,
            "usuario": 432,
            "▁@usuario": 433,
            "ue": 434,
            "or": 435,
            "on": 436,
            "ta": 437,
            "▁t": 438,
            "▁h": 439,
            "es": 440,
            "do": 441,
            "▁q": 442,
            "▁n": 443,
            "▁U": 444,
            "▁es": 445,
            "▁que": 446,
            "in": 447,
            "RL": 448,
            "▁la": 449,
            "▁URL": 450,
            "re": 451,
            "▁y": 452,
            "un": 453,
            "al": 454,
            "▁v": 455,
            "▁en": 456,
            "ci": 457,
            "te": 458,
            "ara": 459,
            "is": 460,
            "da": 461,
            "▁f": 462,
            "▁has": 463,
            "▁con": 464,
            "tag": 465,
            "ra": 466,
            "htag": 467,
            "▁hashtag": 468,
            "▁el": 469,
            "▁b": 470,
            "to": 471,
            "ic": 472,
            "..": 473,
            "ien": 474,
            "▁un": 475,
            "▁no": 476,
            "ro": 477,
            "ón": 478,
            "▁se": 479,
            "▁me": 480,
            "ol": 481,
            "▁g": 482,
            "▁E": 483,
            "▁cara": 484,
            "▁o": 485,
            "ando": 486,
            "le": 487,
            "▁C": 488,
            "▁A": 489,
            "▁M": 490,
            "ti": 491,
            "▁S": 492,
            "▁ha": 493,
            "la": 494,
            "mp": 495,
            "▁P": 496,
            "de": 497,
            "ch": 498,
            "▁por": 499,
            "▁L": 500,
            "▁co": 501,
            "el": 502,
            "ri": 503,
            "▁re": 504,
            "▁al": 505,
            "ja": 506,
            "ui": 507,
            "▁los": 508,
            "▁lo": 509,
            "▁to": 510,
            "▁per": 511,
            "mos": 512,
            "▁T": 513,
            "▁.": 514,
            "ora": 515,
            "▁D": 516,
            "▁r": 517,
            "ia": 518,
            "▁N": 519,
            "ma": 520,
            "go": 521,
            "▁in": 522,
            "▁si": 523,
            "ía": 524,
            "▁para": 525,
            "▁mi": 526,
            "▁i": 527,
            "lo": 528,
            "ca": 529,
            "dos": 530,
            "ción": 531,
            "▁cu": 532,
            "ion": 533,
            "▁del": 534,
            "ente": 535,
            "▁est": 536,
            "▁te": 537,
            "ba": 538,
            "▁su": 539,
            "▁ca": 540,
            "di": 541,
            "▁las": 542,
            "ec": 543,
            "vi": 544,
            "ás": 545,
            "...": 546,
            "iendo": 547,
            "era": 548,
            "▁man": 549,
            "mb": 550,
            "▁una": 551,
            "dad": 552,
            "▁son": 553,
            "mi": 554,
            "▁B": 555,
            "▁Y": 556,
            "ga": 557,
            "res": 558,
            "!!": 559,
            "cu": 560,
            "▁H": 561,
            "me": 562,
            "ent": 563,
            "ero": 564,
            "▁j": 565,
            "▁le": 566,
            "co": 567,
            "gu": 568,
            "▁mu": 569,
            "▁des": 570,
            "oy": 571,
            "cia": 572,
            "JA": 573,
            "▁Es": 574,
            "▁R": 575,
            "tr": 576,
            "▁Q": 577,
            "▁cora": 578,
            "▁ll": 579,
            "▁I": 580,
            "▁\"": 581,
            "▁coraz": 582,
            "▁di": 583,
            "▁ma": 584,
            "que": 585,
            "ica": 586,
            "▁V": 587,
            "▁1": 588,
            "ce": 589,
            "it": 590,
            "▁vi": 591,
            "▁an": 592,
            "▁G": 593,
            "ab": 594,
            "▁F": 595,
            "jo": 596,
            "▁w": 597,
            "▁th": 598,
            "il": 599,
            "tu": 600,
            "▁llor": 601,
            "isa": 602,
            "za": 603,
            "▁J": 604,
            "▁más": 605,
            "▁mo": 606,
            "▁pa": 607,
            "▁2": 608,
            "ul": 609,
            "▁ten": 610,
            "ran": 611,
            "ter": 612,
            "tra": 613,
            "▁pi": 614,
            "▁corazón": 615,
            "uer": 616,
            "▁pro": 617,
            "ues": 618,
            "▁llorando": 619,
            "▁ver": 620,
            "tos": 621,
            "▁como": 622,
            "cion": 623,
            "ing": 624,
            "▁ser": 625,
            "▁risa": 626,
            "▁ch": 627,
            "pa": 628,
            "▁yo": 629,
            "▁so": 630,
            "JAJA": 631,
            "▁No": 632,
            "▁esta": 633,
            "▁sonr": 634,
            "jos": 635,
            "tes": 636,
            "▁pero": 637,
            "lar": 638,
            "tas": 639,
            "tar": 640,
            "▁ap": 641,
            "va": 642,
            "▁ex": 643,
            "▁na": 644,
            "ir": 645,
            "▁par": 646,
            "▁po": 647,
            "ico": 648,
            "▁as": 649,
            "▁O": 650,
            "ur": 651,
            "ono": 652,
            "ve": 653,
            "ana": 654,
            "das": 655,
            "én": 656,
            "▁ar": 657,
            "jaja": 658,
            "án": 659,
            "uen": 660,
            "son": 661,
            "dio": 662,
            "▁El": 663,
            "ez": 664,
            "▁qui": 665,
            "▁sonriendo": 666,
            "se": 667,
            "vo": 668,
            "▁ya": 669,
            "▁ojos": 670,
            "ina": 671,
            "▁La": 672,
            "tor": 673,
            "▁pas": 674,
            "▁ta": 675,
            "▁fa": 676,
            "▁va": 677,
            "▁tu": 678,
            "cer": 679,
            "ten": 680,
            "ué": 681,
            "dor": 682,
            "cha": 683,
            "qui": 684,
            "men": 685,
            "▁pue": 686,
            "▁person": 687,
            "ver": 688,
            "tro": 689,
            "der": 690,
            "sa": 691,
            "emp": 692,
            "▁sal": 693,
            "▁the": 694,
            "so": 695,
            "▁ti": 696,
            "▁tra": 697,
            "▁ni": 698,
            "▁todo": 699,
            "mente": 700,
            "li": 701,
            "lan": 702,
            "▁sol": 703,
            "▁(": 704,
            "gar": 705,
            "ble": 706,
            "ud": 707,
            "▁pe": 708,
            "▁piel": 709,
            "▁mano": 710,
            "▁tien": 711,
            "no": 712,
            "ño": 713,
            "▁tono": 714,
            "cho": 715,
            "▁ro": 716,
            "iz": 717,
            "▁Que": 718,
            "▁Me": 719,
            "per": 720,
            "si": 721,
            "▁-": 722,
            "▁pre": 723,
            "▁hab": 724,
            "▁mis": 725,
            "▁¿": 726,
            "▁res": 727,
            "▁ac": 728,
            "▁tan": 729,
            "▁ab": 730,
            "▁li": 731,
            "ios": 732,
            "ha": 733,
            "laro": 734,
            "▁sin": 735,
            "ru": 736,
            "▁comp": 737,
            "▁cas": 738,
            "▁nos": 739,
            "▁Si": 740,
            "ER": 741,
            "tan": 742,
            "ier": 743,
            "bre": 744,
            "▁esto": 745,
            "po": 746,
            "cias": 747,
            "pe": 748,
            "na": 749,
            "▁da": 750,
            "ice": 751,
            "OS": 752,
            "▁En": 753,
            "▁claro": 754,
            "!!!": 755,
            "00": 756,
            "▁manos": 757,
            "idad": 758,
            "les": 759,
            "ales": 760,
            "??": 761,
            "▁ah": 762,
            "▁este": 763,
            "las": 764,
            "EN": 765,
            "den": 766,
            "jor": 767,
            "▁hay": 768,
            "min": 769,
            "et": 770,
            "▁k": 771,
            "man": 772,
            "▁pen": 773,
            "des": 774,
            "ños": 775,
            "▁jaja": 776,
            "▁cre": 777,
            "▁com": 778,
            "je": 779,
            "▁can": 780,
            "▁cuando": 781,
            "▁sab": 782,
            "ita": 783,
            "oo": 784,
            "▁está": 785,
            "los": 786,
            "▁buen": 787,
            "▁lle": 788,
            "▁he": 789,
            "ay": 790,
            "▁men": 791,
            "be": 792,
            "▁mejor": 793,
            "▁Se": 794,
            "ones": 795,
            "mas": 796,
            "▁pu": 797,
            "▁todos": 798,
            "eces": 799,
            "ici": 800,
            "mar": 801,
            "du": 802,
            "ras": 803,
            "▁mal": 804,
            "▁persona": 805,
            "▁porque": 806,
            "▁3": 807,
            "▁bien": 808,
            "ín": 809,
            "▁cor": 810,
            "▁fuer": 811,
            "ciones": 812,
            "▁of": 813,
            "▁ra": 814,
            "tre": 815,
            "AN": 816,
            "▁for": 817,
            "ES": 818,
            "▁¡": 819,
            "and": 820,
            "▁día": 821,
            "▁mas": 822,
            "olvi": 823,
            "▁hacer": 824,
            "▁dis": 825,
            "ac": 826,
            "AR": 827,
            "▁sus": 828,
            "▁mar": 829,
            "gun": 830,
            "▁ho": 831,
            "▁do": 832,
            "▁cos": 833,
            "▁medio": 834,
            "at": 835,
            "▁W": 836,
            "▁eso": 837,
            "▁imp": 838,
            "ún": 839,
            "ren": 840,
            "▁ne": 841,
            "▁rev": 842,
            "▁bo": 843,
            "ut": 844,
            "ista": 845,
            "▁Yo": 846,
            "ña": 847,
            "ber": 848,
            "AS": 849,
            "▁Co": 850,
            "iento": 851,
            "ión": 852,
            "▁u": 853,
            "gan": 854,
            "OR": 855,
            "ho": 856,
            "▁ven": 857,
            "▁De": 858,
            "▁DE": 859,
            "ías": 860,
            "▁fr": 861,
            "mbi": 862,
            "▁fue": 863,
            "emos": 864,
            "empre": 865,
            "▁20": 866,
            "▁vida": 867,
            "ces": 868,
            "▁car": 869,
            "▁nada": 870,
            "▁dor": 871,
            "ON": 872,
            "racias": 873,
            "▁amo": 874,
            "▁tiene": 875,
            "▁qu": 876,
            "ito": 877,
            "tal": 878,
            "ado": 879,
            "ed": 880,
            "▁pres": 881,
            "vor": 882,
            "gui": 883,
            "▁gente": 884,
            "o,": 885,
            "qu": 886,
            "▁and": 887,
            "▁ba": 888,
            "▁cal": 889,
            "▁be": 890,
            "▁ami": 891,
            "▁pri": 892,
            "▁hace": 893,
            "▁gran": 894,
            "▁fin": 895,
            "▁les": 896,
            "▁vo": 897,
            "▁muy": 898,
            "▁ju": 899,
            "és": 900,
            "dose": 901,
            "▁Con": 902,
            "che": 903,
            "▁nues": 904,
            "▁emp": 905,
            "▁Por": 906,
            "▁go": 907,
            "ven": 908,
            "▁qué": 909,
            "▁favor": 910,
            "▁Al": 911,
            "ts": 912,
            "▁pr": 913,
            "ere": 914,
            "UE": 915,
            "▁gan": 916,
            "▁on": 917,
            "gra": 918,
            "▁or": 919,
            "▁col": 920,
            "▁fel": 922,
            "uel": 923,
            "id": 924,
            "▁hoy": 925,
            "▁us": 926,
            "for": 927,
            "iste": 928,
            "▁fuerte": 929,
            "▁:": 930,
            "ena": 931,
            "ís": 932,
            "endo": 933,
            "ona": 934,
            "por": 935,
            "▁hacia": 936,
            "▁así": 937,
            "tros": 938,
            "▁solo": 939,
            "▁ter": 940,
            "ad": 941,
            "▁Lo": 942,
            "car": 943,
            "zo": 944,
            "▁In": 945,
            "ig": 946,
            "▁,": 947,
            "▁fal": 948,
            "▁lu": 949,
            "bajo": 950,
            "▁gus": 951,
            "mer": 952,
            "▁fo": 953,
            "▁siempre": 954,
            "eo": 955,
            "enta": 956,
            "▁pol": 957,
            "▁4": 958,
            "▁is": 959,
            "▁deci": 960,
            "▁dos": 961,
            "éndose": 962,
            "▁nue": 963,
            "ada": 964,
            "▁pon": 965,
            "van": 966,
            "jer": 967,
            "▁quiero": 968,
            "he": 969,
            "▁años": 970,
            "▁tengo": 971,
            "▁sobre": 972,
            "ros": 973,
            "encia": 974,
            "JAJAJAJA": 975,
            "ido": 976,
            "▁5": 977,
            "bo": 978,
            "olviéndose": 979,
            "▁revolviéndose": 980,
            "jar": 981,
            "con": 982,
            "▁estar": 983,
            "▁mun": 984,
            "▁estoy": 985,
            "▁Jjaja": 986,
            "▁K": 987,
            "▁band": 988,
            "▁x": 989,
            "▁ir": 990,
            "rar": 991,
            "▁vez": 992,
            "dar": 993,
            "▁you": 994,
            "▁Un": 995,
            "▁bandera": 996,
            "▁é": 997,
            "mbre": 998,
            "pon": 999,
            "AL": 1000,
            "▁her": 1001,
            "tic": 1002,
            "ll": 1003,
            "▁hi": 1004,
            "unca": 1005,
            "▁To": 1006,
            "▁ahora": 1007,
            "ie": 1008,
            "▁voy": 1009,
            "tiva": 1010,
            "▁Ya": 1011,
            "▁cer": 1012,
            "▁bes": 1013,
            "▁Re": 1014,
            "tir": 1015,
            "fer": 1016,
            "▁don": 1017,
            "ante": 1018,
            "▁ES": 1019,
            "dr": 1020,
            "aa": 1021,
            "▁algo": 1022,
            "AD": 1023,
            "▁mucho": 1024,
            "cial": 1025,
            "▁fu": 1026,
            "can": 1027,
            "ke": 1028,
            "▁apla": 1029,
            "par": 1030,
            "tras": 1031,
            "CI": 1032,
            "gue": 1033,
            "▁hasta": 1034,
            "ino": 1035,
            "if": 1036,
            "am": 1037,
            "gos": 1038,
            "▁puede": 1039,
            "olo": 1040,
            "mbién": 1041,
            "guien": 1042,
            "▁Los": 1043,
            "▁@usuario.": 1044,
            "▁esp": 1045,
            "▁Te": 1046,
            "▁pel": 1047,
            "▁casa": 1048,
            "▁Cu": 1049,
            "▁quer": 1050,
            "IN": 1051,
            "bl": 1052,
            "▁inter": 1054,
            "ola": 1055,
            "▁real": 1056,
            "▁hu": 1057,
            "erda": 1058,
            "▁aplaud": 1059,
            "▁ay": 1060,
            "ment": 1061,
            "▁entre": 1062,
            "▁aplaudiendo": 1063,
            "▁Mi": 1064,
            "tado": 1065,
            "lla": 1066,
            "o.": 1067,
            "as,": 1068,
            "ck": 1069,
            "▁esc": 1070,
            "▁sa": 1071,
            "ida": 1072,
            "▁pos": 1073,
            "ciendo": 1074,
            "ly": 1075,
            "miento": 1076,
            "th": 1077,
            "▁pla": 1078,
            "cio": 1079,
            "▁ese": 1080,
            "▁au": 1081,
            "dice": 1082,
            "es,": 1083,
            "▁feliz": 1084,
            "▁fle": 1085,
            "cep": 1086,
            "mento": 1087,
            "TA": 1088,
            "▁neces": 1089,
            "\".": 1090,
            "▁parti": 1091,
            "▁desp": 1092,
            "▁ín": 1093,
            "▁exp": 1094,
            "ee": 1095,
            "▁sen": 1096,
            "nos": 1097,
            "bier": 1098,
            "▁dere": 1099,
            "▁también": 1100,
            "tando": 1101,
            "ece": 1102,
            "▁NO": 1103,
            "▁An": 1104,
            "▁du": 1105,
            "▁conf": 1106,
            "▁tener": 1107,
            "▁tiemp": 1108,
            "▁índice": 1109,
            "▁desde": 1110,
            "▁toda": 1111,
            "▁min": 1112,
            "▁Ma": 1113,
            "▁fe": 1114,
            "▁menos": 1115,
            "▁días": 1116,
            "▁esa": 1117,
            "▁dorso": 1118,
            "▁soy": 1119,
            "▁os": 1120,
            "▁cosas": 1121,
            "gas": 1122,
            "▁nunca": 1123,
            "▁Pero": 1124,
            "cen": 1125,
            "▁dar": 1126,
            "▁señ": 1127,
            "▁quien": 1128,
            "▁vol": 1129,
            "▁sea": 1130,
            "bol": 1131,
            "▁verdad": 1132,
            "ale": 1133,
            "rado": 1134,
            "▁much": 1135,
            "▁ve": 1136,
            "▁ob": 1137,
            "es.": 1138,
            "toria": 1139,
            "▁Ch": 1140,
            "▁corazones": 1141,
            "▁era": 1142,
            "die": 1143,
            "ismo": 1144,
            "ientes": 1145,
            "ão": 1146,
            "▁ga": 1147,
            "▁cons": 1148,
            "ano": 1149,
            "TE": 1150,
            "▁reg": 1151,
            "tica": 1152,
            "▁contra": 1153,
            "?.": 1154,
            "▁Mar": 1155,
            "gual": 1156,
            "mana": 1157,
            "▁mundo": 1158,
            "▁his": 1159,
            "ómo": 1160,
            "▁ins": 1161,
            "os,": 1162,
            "ío": 1163,
            "gua": 1164,
            "ya": 1165,
            "▁lin": 1166,
            "▁segui": 1167,
            "▁decir": 1168,
            "▁mujer": 1169,
            "ala": 1170,
            "▁estu": 1171,
            "▁op": 1172,
            "uela": 1173,
            "▁dic": 1174,
            "▁QUE": 1175,
            "▁están": 1176,
            "▁LA": 1177,
            "▁ce": 1178,
            "zando": 1179,
            "cas": 1180,
            "▁ent": 1181,
            "ge": 1182,
            "▁Le": 1183,
            "ñana": 1184,
            "▁Buen": 1185,
            "vir": 1186,
            "▁vis": 1187,
            "ris": 1188,
            "dores": 1189,
            "▁hor": 1190,
            "bi": 1191,
            "dre": 1192,
            "cional": 1193,
            "to,": 1194,
            "▁Hoy": 1195,
            "tin": 1196,
            "▁amor": 1197,
            "▁6": 1198,
            "iza": 1199,
            "▁10": 1200,
            "quí": 1201,
            "tion": 1202,
            "aron": 1203,
            "▁mismo": 1204,
            "▁país": 1205,
            "eron": 1206,
            "▁mes": 1207,
            "br": 1208,
            "▁jun": 1209,
            "▁alguien": 1210,
            "???": 1211,
            "▁jo": 1212,
            "▁ci": 1213,
            "IS": 1214,
            "pi": 1215,
            "▁frente": 1216,
            "▁ad": 1217,
            "istas": 1218,
            "deo": 1219,
            "!.": 1220,
            "os.": 1221,
            "▁personas": 1222,
            "▁tar": 1223,
            "▁impor": 1224,
            "▁blan": 1225,
            "▁tr": 1226,
            "▁ganas": 1227,
            "TO": 1228,
            "▁equi": 1229,
            "▁lla": 1230,
            "▁sí": 1231,
            "▁rojo": 1232,
            "DO": 1233,
            "▁uno": 1234,
            "▁donde": 1235,
            "lti": 1236,
            "▁cada": 1237,
            "▁año": 1238,
            "ves": 1239,
            "▁...": 1240,
            "▁rec": 1241,
            "▁Gracias": 1242,
            "▁jue": 1243,
            "ine": 1244,
            "▁aca": 1245,
            "▁Ca": 1246,
            "rec": 1247,
            "tura": 1248,
            "▁gracias": 1249,
            "▁escu": 1250,
            "▁Ah": 1251,
            "▁#": 1252,
            "do,": 1253,
            "do.": 1254,
            "dia": 1255,
            "▁levan": 1256,
            "ima": 1257,
            "▁7": 1258,
            "gen": 1259,
            "t;": 1260,
            "culo": 1261,
            "dic": 1262,
            "▁jus": 1263,
            "▁san": 1264,
            "s.": 1265,
            "to.": 1266,
            "fec": 1267,
            "▁fi": 1268,
            "xico": 1269,
            "▁EN": 1270,
            "via": 1271,
            "▁ri": 1272,
            "bierno": 1273,
            "ias": 1274,
            "tivo": 1275,
            "RE": 1276,
            "pas": 1277,
            "▁8": 1278,
            "var": 1279,
            "▁lan": 1280,
            "▁we": 1281,
            "▁cono": 1282,
            "▁gu": 1283,
            "▁Esta": 1284,
            "mil": 1285,
            "▁han": 1286,
            "▁traba": 1287,
            "▁cuenta": 1288,
            "▁pasa": 1289,
            "▁ja": 1290,
            "AM": 1291,
            "ués": 1292,
            "▁haciendo": 1293,
            "más": 1294,
            "▁tran": 1295,
            "▁tw": 1296,
            "lu": 1297,
            "▁nadie": 1298,
            "▁San": 1299,
            "▁puedo": 1300,
            "▁rep": 1301,
            "▁tienen": 1302,
            "▁abajo": 1303,
            "▁igual": 1304,
            "▁beso": 1305,
            "▁tiempo": 1306,
            "▁tanto": 1307,
            "▁cump": 1308,
            "▁eu": 1309,
            "▁gra": 1310,
            "▁Mu": 1311,
            "ted": 1312,
            "▁Ar": 1313,
            "▁van": 1314,
            "cuer": 1315,
            "cal": 1316,
            "▁pes": 1317,
            "▁dia": 1318,
            "▁EL": 1319,
            "tó": 1320,
            "gent": 1321,
            "ern": 1322,
            "gn": 1323,
            "▁gen": 1324,
            "▁it": 1325,
            "▁Esto": 1326,
            "▁Des": 1327,
            "▁quier": 1328,
            "▁otro": 1329,
            "iente": 1330,
            "ían": 1331,
            "▁bus": 1332,
            "pen": 1333,
            "má": 1334,
            "▁dice": 1335,
            "▁mus": 1336,
            "▁pens": 1337,
            "▁def": 1338,
            "▁Na": 1339,
            "▁As": 1340,
            "▁at": 1341,
            "▁otra": 1342,
            "▁super": 1343,
            "▁vos": 1344,
            "ID": 1345,
            "vos": 1346,
            "RA": 1347,
            "mir": 1348,
            "▁cual": 1349,
            "▁9": 1350,
            "▁vuel": 1351,
            "▁pal": 1352,
            "arios": 1353,
            "▁val": 1354,
            "▁Ha": 1355,
            "im": 1356,
            "▁boca": 1357,
            "forma": 1358,
            "▁mierda": 1359,
            "tada": 1360,
            "ea": 1361,
            "ír": 1362,
            "▁mañana": 1363,
            "ril": 1364,
            "▁sonrientes": 1365,
            "▁may": 1366,
            "as.": 1367,
            "▁grande": 1368,
            "cel": 1369,
            "▁pensa": 1370,
            "cil": 1371,
            "▁segu": 1372,
            "dan": 1373,
            "▁bar": 1374,
            "ban": 1375,
            "▁mon": 1376,
            "▁plan": 1377,
            "ores": 1378,
            "▁&": 1379,
            "'s": 1380,
            "HA": 1381,
            "▁derecha": 1382,
            "tico": 1383,
            "▁semana": 1384,
            "▁poco": 1385,
            "▁arri": 1386,
            "▁algun": 1387,
            "▁ú": 1388,
            "▁pan": 1389,
            "OL": 1390,
            "▁mil": 1391,
            "cre": 1392,
            "▁gusta": 1393,
            "▁cul": 1394,
            "una": 1395,
            "▁mer": 1396,
            "▁Ten": 1397,
            "▁URL.": 1398,
            "▁final": 1399,
            "IC": 1400,
            "▁nuevo": 1401,
            "▁vamos": 1402,
            "iones": 1403,
            "▁Las": 1404,
            "vio": 1405,
            "▁Como": 1406,
            "ith": 1407,
            "icio": 1408,
            "▁blanco": 1409,
            "▁Pa": 1410,
            "um": 1411,
            "rib": 1412,
            "zar": 1413,
            ").": 1414,
            "▁todas": 1415,
            "▁bas": 1416,
            "▁sac": 1417,
            "entes": 1418,
            "OM": 1419,
            ":.": 1420,
            "▁poder": 1421,
            "▁mie": 1422,
            "▁Para": 1423,
            "iene": 1424,
            "▁sé": 1425,
            "ria": 1426,
            "imo": 1427,
            "▁veces": 1428,
            "oración": 1429,
            "▁prim": 1430,
            "▁esper": 1431,
            "▁abra": 1432,
            "udad": 1433,
            "▁az": 1434,
            "▁bol": 1435,
            "ér": 1436,
            "▁Ro": 1437,
            "▁den": 1438,
            "idente": 1439,
            "▁antes": 1440,
            "char": 1441,
            "icos": 1442,
            "ile": 1443,
            "tante": 1444,
            "▁momento": 1445,
            "pues": 1446,
            "▁0": 1447,
            "ill": 1448,
            "▁nuestro": 1449,
            "▁últi": 1450,
            "▁después": 1451,
            "mis": 1452,
            "esta": 1453,
            "▁ún": 1454,
            "gh": 1455,
            "uda": 1456,
            "▁that": 1457,
            "▁Cuando": 1458,
            "▁pues": 1459,
            "vis": 1460,
            "▁parte": 1461,
            "vel": 1462,
            "▁polí": 1463,
            "iver": 1464,
            "▁inf": 1465,
            "▁reci": 1466,
            "▁foto": 1467,
            "▁temp": 1468,
            "pp": 1469,
            "▁my": 1470,
            "len": 1471,
            "▁JAJAJAJA": 1472,
            "▁bal": 1473,
            "▁So": 1474,
            "▁camp": 1475,
            "▁SE": 1476,
            "rá": 1477,
            "▁arriba": 1478,
            "ible": 1479,
            "▁trabajo": 1480,
            "▁sue": 1481,
            "▁bueno": 1482,
            "fa": 1483,
            "▁aquí": 1484,
            "▁pregun": 1485,
            "▁tus": 1486,
            "▁creo": 1487,
            "▁|": 1488,
            "▁ban": 1489,
            "▁this": 1490,
            "▁cele": 1491,
            "▁Qui": 1492,
            "erte": 1493,
            "▁espa": 1494,
            "fe": 1495,
            "▁Car": 1496,
            "ne": 1497,
            "ezuela": 1498,
            "....": 1499,
            "ta,": 1500,
            "vid": 1501,
            "▁extra": 1502,
            "▁pun": 1503,
            "▁ME": 1504,
            "gres": 1505,
            "▁gol": 1506,
            "icar": 1507,
            "lor": 1508,
            "▁Dios": 1509,
            "▁fun": 1510,
            "▁vía": 1511,
            "amp": 1512,
            "ólo": 1513,
            "▁?": 1514,
            "▁cómo": 1515,
            "▁dej": 1516,
            "ridad": 1517,
            "ta.": 1518,
            "▁estos": 1519,
            "▁201": 1520,
            "▁with": 1521,
            "▁eres": 1522,
            "▁noche": 1523,
            "ff": 1524,
            "▁lanzando": 1525,
            "▁The": 1526,
            "cl": 1527,
            "ip": 1528,
            "▁Ven": 1529,
            "lante": 1530,
            "úbl": 1531,
            "▁gui": 1532,
            "tad": 1533,
            "ular": 1534,
            "vas": 1535,
            "▁Una": 1536,
            "bar": 1537,
            "s,": 1538,
            "▁Su": 1539,
            "▁Po": 1540,
            "▁azul": 1541,
            "▁music": 1542,
            "titu": 1543,
            "▁oración": 1544,
            "tv": 1545,
            "▁quiere": 1546,
            "trar": 1547,
            "▁señal": 1548,
            "▁apro": 1549,
            "▁cabe": 1550,
            "▁fuego": 1551,
            "▁falta": 1552,
            "▁queda": 1553,
            "OO": 1554,
            "ian": 1555,
            "▁@usuario,": 1556,
            "▁gobierno": 1557,
            "icación": 1558,
            "ton": 1559,
            "gt;": 1560,
            "▁apoy": 1561,
            "▁19": 1562,
            "▁parece": 1563,
            "▁!": 1564,
            "a,": 1565,
            "▁mí": 1566,
            "llo": 1567,
            "▁all": 1568,
            "▁via": 1569,
            "▁dormir": 1570,
            "tual": 1571,
            "▁flecha": 1572,
            "tbol": 1573,
            "▁dejar": 1574,
            "gún": 1575,
            "ctor": 1576,
            "▁tú": 1577,
            "ionado": 1578,
            "blo": 1579,
            "dir": 1580,
            "▁seguir": 1581,
            "útbol": 1582,
            "▁ellos": 1583,
            "ib": 1584,
            "▁proble": 1585,
            "▁Sal": 1586,
            "cur": 1587,
            "▁ojo": 1588,
            "▁hora": 1589,
            "▁vio": 1590,
            "gro": 1591,
            "▁sub": 1592,
            "TI": 1593,
            "▁RT": 1594,
            "js": 1595,
            "mia": 1596,
            "▁respon": 1597,
            "ral": 1598,
            "▁Per": 1599,
            "▁vas": 1600,
            "▁salir": 1601,
            "▁Qué": 1602,
            "▁UN": 1603,
            "▁af": 1604,
            "▁Par": 1605,
            "▁ima": 1606,
            "low": 1607,
            "▁cuar": 1608,
            "▁..": 1609,
            "▁estamos": 1610,
            "▁ahí": 1611,
            "▁sos": 1612,
            "▁hermos": 1613,
            "éxico": 1614,
            "pos": 1615,
            "▁video": 1616,
            "mes": 1617,
            "▁Ex": 1618,
            "▁dan": 1619,
            "▁termin": 1620,
            "cción": 1621,
            "amos": 1622,
            "▁bon": 1623,
            "mon": 1624,
            "▁miedo": 1625,
            "▁somos": 1626,
            "▁clas": 1627,
            "da,": 1628,
            "▁Fel": 1629,
            "tif": 1630,
            "▁CON": 1631,
            "▁cír": 1632,
            "▁debe": 1633,
            "itter": 1634,
            "one": 1635,
            "▁pelo": 1636,
            "▁Este": 1637,
            "UN": 1638,
            "▁Hay": 1639,
            "▁nuestra": 1640,
            "mbia": 1641,
            "▁historia": 1642,
            "▁círculo": 1643,
            "▁fútbol": 1644,
            "▁z": 1645,
            "osa": 1646,
            "▁marca": 1647,
            "jas": 1648,
            "use": 1649,
            "bra": 1650,
            "▁estas": 1651,
            "anos": 1652,
            "alo": 1653,
            "▁homb": 1654,
            "▁comun": 1655,
            "rid": 1656,
            "▁unos": 1657,
            "▁Ay": 1658,
            "▁X": 1659,
            "ds": 1660,
            "▁buena": 1661,
            "▁flex": 1662,
            "milia": 1663,
            "▁am": 1664,
            "▁ella": 1665,
            "gentina": 1666,
            "▁estaba": 1667,
            "▁olvi": 1668,
            "000": 1669,
            "EL": 1670,
            "▁amigos": 1671,
            "▁prof": 1672,
            "▁mtv": 1673,
            "eando": 1674,
            "ñando": 1675,
            "cos": 1676,
            "▁ide": 1677,
            "▁ciudad": 1678,
            "▁nueva": 1679,
            "▁Z": 1680,
            "itar": 1681,
            "▁cap": 1682,
            "tón": 1683,
            "▁wh": 1684,
            "▁har": 1685,
            "▁Go": 1686,
            "▁cuer": 1687,
            "tido": 1688,
            "▁bí": 1689,
            "▁cabeza": 1690,
            "▁gri": 1691,
            "▁hecho": 1692,
            "▁AM": 1693,
            "▁estre": 1694,
            "pera": 1695,
            "chas": 1696,
            "▁mill": 1697,
            "▁frío": 1698,
            "ceps": 1699,
            "▁salud": 1700,
            "▁bíceps": 1701,
            "▁cr": 1702,
            "▁Ja": 1703,
            "▁sudor": 1704,
            "cuerdo": 1705,
            "mina": 1706,
            "▁equipo": 1707,
            "lea": 1708,
            "▁flexionado": 1709,
            "▁comer": 1710,
            "▁madre": 1711,
            "otros": 1712,
            "▁fuera": 1713,
            "▁hablar": 1714,
            "da.": 1715,
            "entro": 1716,
            "▁pin": 1717,
            "▁primer": 1718,
            "▁hacen": 1719,
            "mal": 1720,
            "▁pasar": 1721,
            "RO": 1722,
            "ús": 1723,
            "▁cha": 1724,
            "uta": 1725,
            "▁fan": 1726,
            "▁dijo": 1727,
            "ger": 1728,
            "dido": 1729,
            "▁sabe": 1730,
            "AA": 1731,
            "▁peor": 1732,
            "rr": 1733,
            "▁forma": 1734,
            "▁Pro": 1735,
            "uego": 1736,
            "ár": 1737,
            "▁deja": 1738,
            "▁trans": 1739,
            "▁tal": 1740,
            "▁chis": 1741,
            "▁saber": 1742,
            "quier": 1743,
            "▁sor": 1744,
            "▁poner": 1745,
            "▁será": 1746,
            "▁TO": 1747,
            "rir": 1748,
            "▁pensativa": 1749,
            "añ": 1750,
            "▁are": 1751,
            "vil": 1752,
            "▁Ju": 1753,
            "▁tor": 1754,
            "ua": 1755,
            "tadas": 1756,
            "unque": 1757,
            "val": 1758,
            "ka": 1759,
            "ks": 1760,
            "▁pul": 1761,
            "▁amar": 1762,
            "▁amigo": 1763,
            "▁Así": 1764,
            "elo": 1765,
            "▁desa": 1766,
            "▁juga": 1767,
            "▁din": 1768,
            "▁familia": 1769,
            "ientras": 1770,
            "eja": 1771,
            "ura": 1772,
            "antes": 1773,
            "▁Th": 1774,
            "▁Lu": 1775,
            "▁corona": 1776,
            "ción.": 1777,
            "▁él": 1778,
            "ual": 1779,
            "▁[": 1780,
            "▁morado": 1781,
            "IL": 1782,
            "gi": 1783,
            "ticia": 1784,
            "▁direc": 1785,
            "izo": 1786,
            "y.": 1787,
            "▁cier": 1788,
            "itos": 1789,
            "▁comi": 1790,
            "eral": 1791,
            "▁social": 1792,
            "▁ale": 1793,
            "▁len": 1794,
            "bación": 1795,
            "▁15": 1796,
            "▁*": 1797,
            "▁tenemos": 1798,
            "▁'": 1799,
            "dades": 1800,
            "▁lib": 1801,
            "ior": 1802,
            "▁veo": 1803,
            "▁lugar": 1804,
            "▁segun": 1805,
            "tá": 1806,
            "▁dif": 1807,
            "\",": 1808,
            "ich": 1809,
            "▁ag": 1810,
            "▁Bar": 1811,
            "▁cri": 1812,
            "tedes": 1813,
            "hat": 1814,
            "▁encan": 1815,
            "yo": 1816,
            "▁medi": 1817,
            "▁siento": 1818,
            "▁/": 1819,
            "a.": 1820,
            "ital": 1821,
            "mor": 1822,
            "▁ade": 1823,
            "▁compar": 1824,
            "▁Di": 1825,
            "port": 1826,
            "▁Estoy": 1827,
            "▁Ahora": 1828,
            "▁by": 1829,
            "demos": 1830,
            "▁elec": 1831,
            "icas": 1832,
            "illo": 1833,
            "▁HA": 1834,
            "▁enten": 1835,
            "▁Mad": 1836,
            "▁guiñando": 1837,
            "llas": 1838,
            "▁esos": 1839,
            "▁partido": 1840,
            "tru": 1841,
            "ss": 1842,
            "▁ning": 1843,
            "▁informa": 1844,
            "chos": 1845,
            "bas": 1846,
            "▁triste": 1847,
            "▁invi": 1848,
            "▁nor": 1849,
            "eta": 1850,
            "▁bab": 1851,
            "▁pra": 1852,
            "op": 1853,
            "▁:(": 1854,
            "illa": 1855,
            "▁pueden": 1856,
            "▁ví": 1857,
            "▁bril": 1858,
            "ilidad": 1859,
            "ción,": 1860,
            "▁não": 1861,
            "ira": 1862,
            "▁mayor": 1863,
            "▁¿Q": 1864,
            "▁deber": 1865,
            "▁puta": 1866,
            "entar": 1867,
            "▁primera": 1868,
            "rup": 1869,
            "▁12": 1870,
            "▁your": 1871,
            "▁volver": 1872,
            "idos": 1873,
            "ord": 1874,
            "guen": 1875,
            "▁hombre": 1876,
            "▁pien": 1877,
            "ula": 1878,
            "▁deb": 1879,
            "ers": 1880,
            "eet": 1881,
            "▁tro": 1882,
            "all": 1883,
            "ísi": 1884,
            "lica": 1885,
            "▁públ": 1886,
            "▁horas": 1887,
            "ty": 1888,
            "▁perd": 1889,
            "mm": 1890,
            "▁otros": 1891,
            "▁auto": 1892,
            "sión": 1893,
            "amp;": 1894,
            "▁ali": 1895,
            "jal": 1896,
            "▁Espa": 1897,
            "▁!!!": 1898,
            "▁cl": 1899,
            "ting": 1900,
            "tima": 1901,
            "fi": 1902,
            "▁presidente": 1903,
            "tua": 1904,
            "RI": 1905,
            "▁Cor": 1906,
            "▁AL": 1907,
            "▁RE": 1908,
            "▁hizo": 1909,
            "eros": 1910,
            "▁IN": 1911,
            "lando": 1912,
            "▁+": 1913,
            "▁pap": 1914,
            "▁Ta": 1915,
            "▁Ser": 1916,
            "▁Ni": 1917,
            "▁notas": 1918,
            "▁podr": 1919,
            "▁pueblo": 1920,
            "▁sólo": 1921,
            "▁LO": 1922,
            "▁ben": 1923,
            "para": 1924,
            "bado": 1925,
            "▁POR": 1926,
            "▁fotos": 1927,
            "▁haber": 1928,
            "t.": 1929,
            "▁tarde": 1930,
            "▁respe": 1931,
            "▁amiga": 1932,
            "virus": 1933,
            "▁vic": 1934,
            "▁gana": 1935,
            "▁encon": 1936,
            "ear": 1937,
            "▁tipo": 1938,
            "▁llega": 1939,
            "▁produ": 1940,
            "mien": 1941,
            "▁llama": 1942,
            "▁Tw": 1943,
            "haha": 1944,
            "▁rela": 1945,
            "▁defen": 1946,
            "ial": 1947,
            "▁sigue": 1948,
            "▁cosa": 1949,
            "▁sido": 1950,
            "▁muer": 1951,
            "óx": 1952,
            "▁mos": 1953,
            "brando": 1954,
            "▁asi": 1955,
            "▁Pues": 1956,
            "&gt;": 1957,
            "▁tienes": 1958,
            "gando": 1959,
            "entena": 1960,
            "cía": 1961,
            "cri": 1962,
            "cis": 1963,
            "te.": 1964,
            "▁cambi": 1965,
            "▁DI": 1966,
            "▁viene": 1967,
            "▁Cre": 1968,
            "US": 1969,
            "▁\"E": 1970,
            "▁Bo": 1971,
            "ándo": 1972,
            "cido": 1973,
            "▁lindo": 1974,
            "▁Ra": 1975,
            "duca": 1976,
            "▁digo": 1977,
            "sab": 1978,
            "uso": 1979,
            "▁SI": 1980,
            "▁chispas": 1981,
            "ook": 1982,
            "▁je": 1983,
            "▁lengua": 1984,
            "EM": 1985,
            "▁espe": 1986,
            "▁11": 1987,
            "pro": 1988,
            "▁loco": 1989,
            "▁cui": 1990,
            "ÓN": 1991,
            "fas": 1992,
            "mentos": 1993,
            "▁llegar": 1994,
            "▁profes": 1995,
            "▁muchos": 1996,
            "fru": 1997,
            "▁estado": 1998,
            "eno": 1999,
            "▁br": 2000,
            "▁tomar": 2001,
            "dió": 2002,
            "dica": 2003,
            "y,": 2004,
            "ció": 2005,
            "▁apar": 2006,
            "ii": 2007,
            "▁raz": 2008,
            "▁difer": 2009,
            "migo": 2010,
            "▁apren": 2011,
            "ant": 2012,
            "▁prop": 2013,
            "ícu": 2014,
            "▁dicen": 2015,
            "▁ele": 2016,
            "▁PAR": 2017,
            "▁habla": 2018,
            "te,": 2019,
            "comp": 2020,
            "▁había": 2021,
            "éis": 2022,
            "▁Fa": 2023,
            "▁nar": 2024,
            "▁bel": 2025,
            "ye": 2026,
            "▁publ": 2027,
            "▁Ne": 2028,
            "▁balón": 2029,
            "▁único": 2030,
            "▁sh": 2031,
            "▁pulgar": 2032,
            "▁sho": 2033,
            "dos.": 2034,
            "cip": 2035,
            "▁brillante": 2036,
            "cul": 2037,
            "▁cur": 2038,
            "▁MI": 2039,
            "ió": 2040,
            "▁ante": 2041,
            "▁ustedes": 2042,
            "tina": 2043,
            "▁dinero": 2044,
            "▁imag": 2045,
            "LE": 2046,
            "▁sueño": 2047,
            "▁celebrando": 2048,
            "▁minu": 2049,
            "eti": 2050,
            "izar": 2051,
            "▁aten": 2052,
            "vía": 2053,
            "▁Pres": 2054,
            "▁espera": 2055,
            "▁dios": 2056,
            "UI": 2057,
            "ollow": 2058,
            "fo": 2059,
            "tri": 2060,
            "▁Cas": 2061,
            "JAJAJA": 2062,
            "ys": 2063,
            "imada": 2064,
            "▁gas": 2065,
            "▁Qu": 2066,
            "▁like": 2067,
            "til": 2068,
            "▁casi": 2069,
            "▁cualquier": 2070,
            "▁Tengo": 2071,
            "esti": 2072,
            "▁suf": 2073,
            "olu": 2074,
            "kk": 2075,
            "rante": 2076,
            "▁visto": 2077,
            "jalá": 2078,
            "▁2020": 2079,
            "▁cru": 2080,
            "▁$": 2081,
            "pero": 2082,
            "CH": 2083,
            "▁palab": 2084,
            "ál": 2085,
            "▁muchas": 2086,
            "té": 2087,
            "col": 2088,
            "king": 2089,
            "cie": 2090,
            "▁empres": 2091,
            "hh": 2092,
            "▁aún": 2093,
            "▁estudi": 2094,
            "▁pasado": 2095,
            "▁cuarentena": 2096,
            "mingo": 2097,
            "▁Eso": 2098,
            "▁paso": 2099,
            "▁luego": 2100,
            "▁Pre": 2101,
            "▁desan": 2102,
            "yec": 2103,
            "▁tras": 2104,
            "uro": 2105,
            "▁interes": 2106,
            "▁18": 2107,
            "▁gru": 2108,
            "menta": 2109,
            "▁camb": 2110,
            "▁nosotros": 2111,
            "▁España": 2112,
            "▁Quiero": 2113,
            "cog": 2114,
            "lo.": 2115,
            "ches": 2116,
            "itas": 2117,
            "▁mad": 2118,
            "▁amb": 2119,
            "▁He": 2120,
            "▁ley": 2121,
            "▁che": 2122,
            "gía": 2123,
            "▁quieren": 2124,
            "▁musicales": 2125,
            "tis": 2126,
            "▁ej": 2127,
            "tamente": 2128,
            "▁progra": 2129,
            "▁Jo": 2130,
            "▁Pe": 2131,
            "vin": 2133,
            "▁oscu": 2134,
            "dida": 2135,
            "▁Man": 2136,
            "rados": 2137,
            "▁dol": 2138,
            "▁not": 2139,
            "▁levantadas": 2140,
            "▁estás": 2141,
            "▁love": 2142,
            "▁Venezuela": 2143,
            "▁ur": 2144,
            "▁jugar": 2145,
            "▁desanimada": 2146,
            "aria": 2147,
            "▁mientras": 2148,
            "▁&amp;": 2149,
            "ell": 2150,
            "mara": 2151,
            "▁Do": 2152,
            "LO": 2153,
            "anto": 2154,
            "pm": 2155,
            "▁liber": 2156,
            "▁sex": 2157,
            "▁comple": 2158,
            "ini": 2159,
            "DE": 2160,
            "DI": 2161,
            "▁quedar": 2162,
            "▁encu": 2163,
            "ciales": 2164,
            "fil": 2166,
            "LA": 2167,
            "▁lab": 2168,
            "▁hue": 2169,
            "▁LOS": 2170,
            "▁come": 2171,
            "▁Tu": 2172,
            "▁acuerdo": 2173,
            "▁em": 2174,
            "▁was": 2175,
            "tel": 2176,
            "▁vir": 2177,
            "▁have": 2178,
            "DA": 2179,
            "▁Nos": 2180,
            "▁colo": 2181,
            "vidad": 2182,
            "lo,": 2183,
            "▁México": 2184,
            "▁TE": 2185,
            "▁100": 2186,
            "▁wor": 2187,
            "▁Li": 2188,
            "onces": 2189,
            "▁beb": 2190,
            "▁ol": 2191,
            "▁Todo": 2192,
            "▁mucha": 2193,
            "mano": 2194,
            "▁pensar": 2195,
            "ry": 2196,
            "▁aunque": 2197,
            "▁tema": 2198,
            "▁esas": 2199,
            "rom": 2200,
            "'t": 2201,
            "▁empez": 2202,
            "▁tenía": 2203,
            "▁covid": 2204,
            "est": 2205,
            "cn": 2206,
            "ase": 2207,
            "gó": 2208,
            "▁COM": 2209,
            "▁millones": 2210,
            "▁um": 2211,
            "▁Val": 2212,
            "jes": 2213,
            "▁pod": 2214,
            "ood": 2215,
            "dez": 2216,
            "▁coronavirus": 2217,
            "▁\"L": 2218,
            "▁hici": 2219,
            "▁nuestros": 2220,
            "wn": 2221,
            "▁camin": 2222,
            "▁agua": 2223,
            "▁Son": 2224,
            "tencia": 2225,
            "gado": 2226,
            "bles": 2227,
            "▁mejores": 2228,
            "▁verde": 2229,
            "▁recor": 2230,
            "▁Porque": 2231,
            "inos": 2232,
            "▁corrup": 2233,
            "▁mé": 2234,
            "▁próx": 2235,
            "No": 2236,
            "vent": 2237,
            "▁alto": 2238,
            "cogida": 2239,
            "▁problema": 2240,
            "▁Madrid": 2241,
            "▁romp": 2242,
            "▁caso": 2243,
            "pec": 2244,
            "▁misma": 2245,
            "gre": 2246,
            "▁lado": 2247,
            "▁iz": 2248,
            "dos,": 2249,
            "lub": 2250,
            "yas": 2251,
            "▁30": 2252,
            "dial": 2253,
            "cios": 2254,
            "▁felici": 2255,
            "AB": 2256,
            "▁polic": 2257,
            "▁but": 2258,
            "▁serv": 2259,
            "▁hombros": 2260,
            "▁abo": 2261,
            "ñas": 2262,
            "▁calle": 2263,
            "▁inten": 2264,
            "▁tri": 2265,
            "▁disfru": 2266,
            "ix": 2267,
            "▁Da": 2268,
            "▁manera": 2269,
            "▁sale": 2270,
            "▁mujeres": 2271,
            "asta": 2272,
            "▁negro": 2273,
            "▁Vi": 2274,
            "▁ayud": 2275,
            "▁one": 2276,
            "zas": 2277,
            "▁cho": 2278,
            "▁ref": 2279,
            "cado": 2280,
            "ght": 2281,
            "▁sino": 2282,
            "ard": 2283,
            "▁mono": 2284,
            "▁prin": 2285,
            "▁cá": 2286,
            "gia": 2287,
            "▁viern": 2288,
            "▁mor": 2289,
            "iden": 2290,
            "▁compañ": 2291,
            "ar,": 2292,
            "ERO": 2293,
            "▁¿C": 2294,
            "diendo": 2295,
            "▁Ho": 2296,
            "ocu": 2297,
            "▁hago": 2298,
            "icial": 2299,
            "▁vivir": 2300,
            "day": 2301,
            "▁blo": 2302,
            "▁comida": 2303,
            "don": 2304,
            "HAHA": 2305,
            "▁iba": 2306,
            "rada": 2307,
            "ulta": 2308,
            "ung": 2309,
            "▁Twitter": 2310,
            "▁bro": 2311,
            "tos,": 2312,
            "igh": 2313,
            "unidad": 2314,
            "gal": 2315,
            "usa": 2316,
            "bla": 2317,
            "▁necesita": 2318,
            "▁fir": 2319,
            "tamos": 2320,
            "ick": 2321,
            "▁encogida": 2322,
            "ite": 2323,
            "▁ayer": 2324,
            "▁unas": 2325,
            "▁et": 2326,
            "▁agu": 2327,
            "ar.": 2328,
            "▁entr": 2329,
            "cor": 2330,
            "▁Mo": 2331,
            "▁bor": 2332,
            "▁odio": 2333,
            "▁tele": 2334,
            "A.": 2335,
            "▁Hola": 2336,
            "▁due": 2337,
            "▁Sin": 2338,
            "▁peque": 2339,
            "tiendo": 2340,
            "▁You": 2341,
            "▁mamá": 2342,
            "▁vie": 2343,
            "▁puedes": 2344,
            "ens": 2345,
            "▁opin": 2346,
            "tivos": 2347,
            "gio": 2348,
            "gü": 2349,
            "demia": 2350,
            "▁cel": 2351,
            "▁up": 2352,
            "▁Siempre": 2353,
            "▁quién": 2354,
            "unes": 2355,
            "▁nivel": 2356,
            "▁sig": 2357,
            "st": 2358,
            "tur": 2359,
            "▁oscuro": 2360,
            "▁importante": 2361,
            "zos": 2362,
            "amo": 2363,
            "ional": 2364,
            "▁agra": 2365,
            "▁tapa": 2366,
            "iod": 2367,
            "bal": 2368,
            "cima": 2369,
            "▁escuchar": 2370,
            "▁2019": 2371,
            "▁!!": 2372,
            "▁conse": 2373,
            "ición": 2374,
            "▁comprar": 2375,
            "iado": 2376,
            "URL": 2377,
            "▁ama": 2378,
            "▁victoria": 2379,
            "uu": 2380,
            "▁seguro": 2381,
            "▁lleva": 2382,
            "▁ases": 2383,
            ":00": 2384,
            "ticos": 2385,
            "tos.": 2386,
            "▁inte": 2387,
            "▁just": 2388,
            "▁enf": 2389,
            "▁from": 2390,
            "e.": 2391,
            "pres": 2392,
            "▁vale": 2393,
            "▁ren": 2394,
            "oco": 2395,
            "▁lar": 2396,
            "▁tui": 2397,
            "▁pier": 2398,
            "▁CU": 2399,
            "▁reco": 2400,
            "▁out": 2401,
            "▁nota": 2402,
            "▁grandes": 2403,
            "m.": 2404,
            "cono": 2405,
            "▁gato": 2406,
            "▁sentir": 2407,
            "▁sabes": 2408,
            "▁tres": 2409,
            "iencia": 2410,
            "▁consi": 2411,
            "▁Gu": 2412,
            "uld": 2413,
            "▁14": 2414,
            "dado": 2415,
            "e,": 2416,
            "▁Mon": 2417,
            "▁fami": 2418,
            "▁realidad": 2419,
            "▁total": 2420,
            "▁capa": 2421,
            "▁educa": 2422,
            "diante": 2423,
            "▁bail": 2424,
            "▁Mor": 2425,
            "▁chin": 2426,
            "▁proyec": 2427,
            "▁babeando": 2428,
            "dí": 2429,
            "▁Sa": 2430,
            "▁dur": 2431,
            "▁gafas": 2432,
            "tigo": 2433,
            "▁tweet": 2434,
            "ong": 2435,
            "▁Rec": 2436,
            "▁meses": 2437,
            "▁mensa": 2438,
            "IEN": 2439,
            "▁espero": 2440,
            "dy": 2441,
            "▁mtvla": 2442,
            "▁perfil": 2443,
            "▁actual": 2444,
            "▁enfer": 2445,
            "▁siendo": 2446,
            "▁Solo": 2447,
            "ko": 2448,
            "gel": 2449,
            "GO": 2450,
            "▁24": 2451,
            "▁Ins": 2452,
            "▁recu": 2453,
            "cidad": 2454,
            "▁preocu": 2455,
            "IA": 2456,
            "her": 2457,
            "▁art": 2458,
            "▁confeti": 2459,
            "ciente": 2460,
            "▁viernes": 2461,
            "▁aprobación": 2462,
            "leaños": 2463,
            "▁entiendo": 2464,
            "lado": 2465,
            "cra": 2466,
            "▁hijo": 2467,
            "▁entra": 2468,
            "▁trabaja": 2469,
            "ps": 2470,
            "▁funcion": 2471,
            "▁juego": 2472,
            "▁ru": 2473,
            "mple": 2474,
            "tia": 2475,
            "▁new": 2476,
            "▁Más": 2477,
            "▁prem": 2478,
            "▁conmigo": 2479,
            "▁algún": 2480,
            "▁CO": 2481,
            "ría": 2482,
            "ies": 2483,
            "▁lit": 2484,
            "▁domingo": 2485,
            "fono": 2486,
            "ecer": 2487,
            "▁ganar": 2488,
            "▁programa": 2489,
            "▁pende": 2490,
            "inas": 2491,
            "▁cris": 2492,
            "▁exper": 2493,
            "▁tur": 2494,
            "▁Creo": 2495,
            "▁radiante": 2496,
            "▁nombre": 2498,
            "▁Can": 2499,
            "▁cla": 2500,
            "▁Neces": 2501,
            "▁pl": 2502,
            "▁Gran": 2503,
            "aña": 2504,
            "uestra": 2505,
            "ese": 2506,
            "▁Vamos": 2507,
            "▁dio": 2508,
            "▁roto": 2509,
            "ñar": 2510,
            "▁cambio": 2511,
            "▁recib": 2512,
            "▁mús": 2513,
            "rea": 2514,
            "▁información": 2515,
            "sos": 2516,
            "▁viendo": 2517,
            "▁pone": 2518,
            "▁fiesta": 2519,
            "▁niños": 2520,
            "▁gar": 2521,
            "uncia": 2522,
            "▁acá": 2523,
            "▁some": 2524,
            "quierda": 2525,
            "▁sería": 2526,
            "▁perfec": 2527,
            "▁escri": 2528,
            "▁señor": 2529,
            "▁aque": 2530,
            "▁grupo": 2531,
            "▁13": 2532,
            "has": 2533,
            "▁int": 2534,
            "▁argentina": 2535,
            "▁paz": 2536,
            "▁ago": 2537,
            "▁demás": 2538,
            "taron": 2539,
            "▁exis": 2540,
            "▁top": 2541,
            "qué": 2542,
            "▁importa": 2543,
            "▁demas": 2544,
            "▁estrellas": 2545,
            "AT": 2546,
            "▁Soy": 2547,
            "ican": 2548,
            "▁futu": 2549,
            "▁cumpleaños": 2550,
            "▁prote": 2551,
            "▁política": 2552,
            "▁il": 2553,
            "▁tempora": 2554,
            "▁Feliz": 2555,
            "▁haga": 2556,
            "vés": 2557,
            "ang": 2558,
            "mero": 2559,
            "▁more": 2560,
            "▁pq": 2561,
            "▁repres": 2562,
            "▁saben": 2563,
            "lt;": 2564,
            "▁usted": 2565,
            "▁Don": 2566,
            "▁ayuda": 2567,
            "▁leer": 2568,
            "▁trabajar": 2569,
            "▁cues": 2570,
            "▁razón": 2571,
            "▁entonces": 2572,
            "▁MU": 2573,
            "▁policía": 2574,
            "ificación": 2575,
            "cimiento": 2576,
            "▁Dis": 2577,
            "▁llorar": 2578,
            "▁ever": 2579,
            "▁situa": 2580,
            "▁abrazando": 2581,
            "atro": 2582,
            "▁durante": 2583,
            "▁serio": 2584,
            "▁Nunca": 2585,
            "güen": 2586,
            "▁tendr": 2587,
            "▁gritando": 2588,
            "taría": 2589,
            "ex": 2590,
            "▁nacional": 2591,
            "ire": 2592,
            "▁emb": 2593,
            "▁16": 2594,
            "▁suerte": 2595,
            "▁expres": 2596,
            "▁sola": 2597,
            "▁We": 2598,
            "ms": 2599,
            "▁és": 2600,
            "mando": 2601,
            "▁extraño": 2602,
            "▁organ": 2603,
            "▁ton": 2604,
            "IT": 2605,
            "▁wa": 2606,
            "dora": 2607,
            "▁cerrados": 2608,
            "▁17": 2609,
            "▁arre": 2610,
            "▁especial": 2611,
            "tagra": 2612,
            "▁hos": 2613,
            "▁hijos": 2614,
            "▁necesito": 2615,
            "EE": 2616,
            "icia": 2617,
            "▁conver": 2618,
            "▁pron": 2619,
            "▁sacar": 2620,
            "pre": 2621,
            "udo": 2622,
            "▁Colo": 2623,
            "▁mira": 2624,
            "▁SU": 2625,
            "▁play": 2626,
            "▁Cal": 2627,
            "▁human": 2628,
            "▁sá": 2629,
            "iso": 2630,
            "▁Ac": 2631,
            "vesti": 2632,
            "▁amarillo": 2633,
            "inal": 2634,
            "▁Buenos": 2635,
            "▁menti": 2636,
            "d.": 2637,
            "▁viol": 2638,
            "▁encanta": 2639,
            "▁desper": 2640,
            "▁escrib": 2641,
            "▁period": 2642,
            "▁normal": 2643,
            "▁vaya": 2644,
            "▁izquierda": 2645,
            "▁tamp": 2646,
            "ifica": 2647,
            "▁Ba": 2648,
            "udos": 2649,
            "CA": 2650,
            "quiera": 2651,
            "jada": 2652,
            "▁tir": 2653,
            "ki": 2654,
            "ró": 2655,
            "▁pelícu": 2656,
            "ticas": 2657,
            "▁Todos": 2658,
            "▁través": 2659,
            "gada": 2660,
            "ça": 2661,
            "▁Cha": 2662,
            "▁creer": 2663,
            "▁:)": 2664,
            "▁bts": 2665,
            "ónde": 2666,
            "▁fil": 2667,
            "▁encima": 2668,
            "ñón": 2669,
            "▁símb": 2670,
            "▁DEL": 2671,
            "▁no,": 2672,
            "ity": 2673,
            "▁haya": 2674,
            "▁will": 2675,
            "ADO": 2676,
            "▁ata": 2677,
            "ENTE": 2678,
            "pu": 2679,
            "rump": 2680,
            "▁pagar": 2681,
            "▁what": 2682,
            "▁I'": 2683,
            "▁É": 2684,
            "▁Ver": 2685,
            "▁AN": 2686,
            "▁perder": 2687,
            "▁Pol": 2688,
            "ioridad": 2689,
            "ust": 2690,
            "▁permi": 2691,
            "EC": 2692,
            "ador": 2693,
            "▁personal": 2694,
            "▁hubi": 2695,
            "ila": 2696,
            "▁Min": 2697,
            "▁coment": 2698,
            "dó": 2699,
            "▁contro": 2700,
            "mó": 2701,
            "ág": 2702,
            "▁famili": 2703,
            "usión": 2704,
            "▁Fran": 2705,
            "óm": 2706,
            "▁gor": 2707,
            "▁españ": 2708,
            "▁dec": 2709,
            "▁Ale": 2710,
            "▁ges": 2711,
            "▁incre": 2712,
            "▁perro": 2713,
            "▁venezuela": 2714,
            "▁wo": 2715,
            "▁fá": 2716,
            "pan": 2717,
            "▁Tra": 2718,
            "▁Muy": 2719,
            "▁serie": 2720,
            "▁demo": 2721,
            "▁Res": 2722,
            "▁sur": 2723,
            "dito": 2724,
            "ia,": 2725,
            "▁Or": 2726,
            "▁música": 2727,
            "▁1.": 2728,
            "▁llevar": 2729,
            "now": 2730,
            "▁pobre": 2731,
            "ror": 2732,
            "▁otras": 2733,
            "OY": 2734,
            "▁buenos": 2735,
            "▁Inter": 2736,
            "▁ejemp": 2737,
            "▁partici": 2738,
            "▁mala": 2739,
            "tación": 2740,
            "▁Gobierno": 2741,
            "▁fra": 2742,
            "▁vivo": 2743,
            "▁abier": 2744,
            "▁pena": 2745,
            "▁canción": 2746,
            "▁precio": 2747,
            "▁puer": 2748,
            "▁club": 2749,
            "cito": 2750,
            "▁tenga": 2751,
            "▁tampoco": 2752,
            "▁punto": 2753,
            "▁\"S": 2754,
            "IO": 2755,
            "dera": 2756,
            "▁ves": 2757,
            "▁EST": 2758,
            "mun": 2759,
            "pido": 2760,
            "-19": 2761,
            "dal": 2762,
            "oso": 2763,
            "embre": 2764,
            "ivers": 2765,
            "MA": 2766,
            "▁200": 2767,
            "cla": 2768,
            "▁chu": 2769,
            "▁VI": 2770,
            "▁they": 2771,
            "▁oport": 2772,
            "▁gua": 2773,
            "▁guar": 2774,
            "▁expl": 2775,
            "▁contin": 2776,
            "óg": 2777,
            "▁edi": 2778,
            "▁PARA": 2779,
            "ancia": 2780,
            "icios": 2781,
            "▁sigo": 2782,
            "▁Pri": 2783,
            "ENT": 2784,
            "eras": 2785,
            "güenza": 2786,
            "▁difí": 2787,
            "▁dé": 2788,
            "▁primero": 2789,
            "▁alguna": 2790,
            "▁evi": 2791,
            "▁mara": 2792,
            "▁dicho": 2793,
            "▁tre": 2794,
            "▁cañón": 2795,
            "▁cabre": 2796,
            "▁idea": 2797,
            "▁podemos": 2798,
            "▁responsab": 2799,
            "▁cámara": 2800,
            "ticias": 2801,
            "trás": 2802,
            "▁Cómo": 2803,
            "▁uma": 2804,
            "▁Juan": 2805,
            "▁get": 2806,
            "ANDO": 2808,
            "▁Aca": 2809,
            "▁tranqui": 2810,
            "▁cuernos": 2811,
            "▁botón": 2812,
            "▁Á": 2813,
            "RES": 2814,
            "ísimo": 2815,
            "▁pandemia": 2816,
            "▁conta": 2817,
            "▁Aquí": 2818,
            "▁now": 2819,
            "▁prue": 2820,
            "▁sele": 2821,
            "puesta": 2822,
            "▁orgu": 2823,
            "▁Hab": 2824,
            "▁nu": 2825,
            "JS": 2826,
            "ciar": 2827,
            "▁contigo": 2828,
            "▁Pue": 2829,
            "arro": 2830,
            "cando": 2831,
            "rera": 2832,
            "pren": 2833,
            "▁depor": 2834,
            "istra": 2835,
            "▁meu": 2836,
            "ack": 2837,
            "▁culpa": 2838,
            "▁apoyo": 2839,
            "TS": 2840,
            "▁25": 2841,
            "▁todavía": 2842,
            "▁Desde": 2843,
            "▁incl": 2844,
            "▁¿Qué": 2845,
            "are": 2846,
            "▁bur": 2847,
            "ok": 2848,
            "▁compro": 2849,
            "▁linda": 2850,
            "▁plata": 2851,
            "ink": 2852,
            "▁flor": 2853,
            "▁peop": 2854,
            "▁bb": 2855,
            "▁mais": 2856,
            "miendo": 2857,
            "▁Fe": 2858,
            "ctu": 2859,
            "dios": 2860,
            ".000": 2861,
            "vista": 2862,
            "▁Men": 2863,
            "▁anti": 2864,
            "▁sir": 2865,
            "▁log": 2866,
            "del": 2867,
            "▁conocer": 2868,
            "▁bu": 2869,
            "ítu": 2870,
            "z,": 2871,
            "▁último": 2872,
            "ist": 2873,
            "▁21": 2874,
            "▁junto": 2875,
            "▁anda": 2876,
            "▁pelotu": 2877,
            "▁ps": 2878,
            "▁fueron": 2879,
            "▁pasó": 2880,
            "llos": 2881,
            "▁YO": 2882,
            "▁dije": 2883,
            "▁payas": 2884,
            "▁people": 2885,
            "▁orden": 2886,
            "▁minutos": 2887,
            "▁libre": 2888,
            "ron": 2889,
            "▁Argentina": 2890,
            "),": 2891,
            "▁toma": 2892,
            "ld": 2893,
            "▁glo": 2894,
            "ct": 2895,
            "und": 2896,
            "jando": 2897,
            "▁¿P": 2898,
            "VID": 2899,
            "erra": 2900,
            "▁vs": 2901,
            "▁princip": 2902,
            "ins": 2903,
            "▁Ojalá": 2904,
            "▁movi": 2905,
            "rible": 2906,
            "MO": 2907,
            "▁cabreada": 2908,
            "la,": 2909,
            "CIÓN": 2910,
            "▁ano": 2911,
            "▁puño": 2912,
            "ía,": 2913,
            "ess": 2914,
            "▁investi": 2915,
            "ia.": 2916,
            "imos": 2917,
            "▁about": 2918,
            "▁entender": 2919,
            "▁quienes": 2920,
            "riendo": 2921,
            "icip": 2922,
            "hi": 2923,
            "sidad": 2924,
            "▁clase": 2925,
            "mientos": 2926,
            "▁lunes": 2927,
            "▁palabras": 2928,
            "tera": 2929,
            "▁nego": 2930,
            "▁acomp": 2931,
            "▁enamo": 2932,
            "▁follow": 2933,
            "▁xd": 2934,
            "▁presenta": 2935,
            "ór": 2936,
            "▁buenas": 2937,
            "ind": 2938,
            "tancia": 2939,
            "▁inde": 2940,
            "▁cole": 2941,
            "▁Pla": 2942,
            "▁Hu": 2943,
            "▁debería": 2944,
            "▁quieres": 2945,
            "▁fui": 2946,
            "quer": 2947,
            "▁senti": 2948,
            "▁única": 2949,
            "▁futuro": 2950,
            "aro": 2951,
            "▁abs": 2952,
            "▁Nue": 2953,
            "idades": 2954,
            "ADA": 2955,
            "ans": 2956,
            "gencia": 2957,
            "pez": 2958,
            "mba": 2959,
            "way": 2960,
            "▁acti": 2961,
            "▁Lle": 2962,
            "io,": 2963,
            "▁tamb": 2964,
            "▁pren": 2965,
            "▁pedir": 2966,
            "▁Mis": 2967,
            "▁última": 2968,
            "▁Jos": 2969,
            "▁50": 2970,
            "érica": 2971,
            "▁Pas": 2972,
            "▁lpm": 2973,
            "▁ign": 2974,
            "▁mundial": 2975,
            "jan": 2976,
            "▁justicia": 2977,
            "ef": 2978,
            "duro": 2979,
            "ther": 2980,
            "Es": 2981,
            "▁AR": 2982,
            "aaa": 2983,
            "▁Hace": 2984,
            "▁sabor": 2985,
            "t,": 2986,
            "▁infor": 2987,
            "▁Mun": 2988,
            "▁cuerpo": 2989,
            "arias": 2990,
            "▁TH": 2991,
            "▁novio": 2992,
            "hy": 2993,
            "▁sta": 2994,
            "▁hablando": 2995,
            "▁regres": 2996,
            "▁regal": 2997,
            "ización": 2998,
            "▁Nacional": 2999,
            "ezol": 3000,
            "▁sacando": 3001,
            "la.": 3002,
            "ser": 3003,
            "▁cine": 3004,
            "▁chi": 3005,
            "▁interna": 3006,
            "▁day": 3007,
            "▁calor": 3008,
            "▁mue": 3009,
            "istema": 3010,
            "▁posible": 3011,
            "mbo": 3012,
            "dencia": 3013,
            "▁dentro": 3014,
            "chando": 3015,
            "guay": 3016,
            "▁\"C": 3017,
            "▁autor": 3018,
            "▁fácil": 3019,
            "UL": 3020,
            "▁cansa": 3021,
            "▁pesso": 3022,
            "▁Ci": 3023,
            "▁mic": 3024,
            "▁recono": 3025,
            "▁cab": 3026,
            "▁Necesito": 3027,
            "▁verificación": 3028,
            "▁conci": 3029,
            "▁algunos": 3030,
            "das.": 3031,
            "uir": 3032,
            "▁dig": 3034,
            "io.": 3035,
            "▁pase": 3036,
            "▁Bueno": 3037,
            "tener": 3038,
            "▁Col": 3039,
            "▁querer": 3040,
            "arse": 3042,
            "▁á": 3043,
            "▁entien": 3044,
            "ienen": 3045,
            "ING": 3046,
            "▁etc": 3047,
            "▁LE": 3048,
            "▁guer": 3049,
            "ra.": 3050,
            "▁vídeo": 3051,
            "▁Mañana": 3052,
            "▁derecho": 3053,
            "m,": 3054,
            "das,": 3055,
            "book": 3056,
            "voca": 3057,
            "my": 3058,
            "bro": 3059,
            "▁libro": 3060,
            "VE": 3061,
            "▁Vo": 3062,
            "▁indi": 3063,
            "▁Colombia": 3064,
            "▁cent": 3065,
            "▁know": 3066,
            "▁abrazo": 3067,
            "ía.": 3068,
            "▁nú": 3069,
            "i,": 3070,
            "▁bonito": 3071,
            "&gt;&gt;": 3072,
            "▁difícil": 3073,
            "greso": 3074,
            "ppy": 3075,
            "▁estrella": 3076,
            "▁CH": 3077,
            "▁sean": 3078,
            "tt": 3079,
            "▁Les": 3080,
            "cto": 3081,
            "▁existe": 3082,
            "▁haces": 3083,
            "▁confir": 3084,
            "▁media": 3085,
            "celente": 3086,
            "CO": 3087,
            "▁dejo": 3088,
            "▁alta": 3089,
            "▁Hasta": 3090,
            "▁time": 3091,
            "net": 3092,
            "▁Estado": 3093,
            "▁no?": 3094,
            "fica": 3095,
            "MP": 3096,
            "▁anim": 3097,
            "ish": 3098,
            "cir": 3099,
            "▁cambiar": 3100,
            "▁ense": 3101,
            "▁temporada": 3102,
            "▁seguridad": 3103,
            "ques": 3104,
            "▁morir": 3105,
            "▁luz": 3106,
            "▁radio": 3107,
            "▁lí": 3108,
            "▁diga": 3109,
            "ra,": 3110,
            "▁oportunidad": 3111,
            "▁esperando": 3112,
            "▁lis": 3113,
            "vera": 3114,
            "CION": 3115,
            "▁pare": 3116,
            "▁dolor": 3117,
            "ecen": 3118,
            "▁MA": 3119,
            "▁hermosa": 3120,
            "dico": 3121,
            "▁servicio": 3122,
            "ieron": 3123,
            "mena": 3124,
            "▁bra": 3125,
            "▁campe": 3126,
            "▁Sí": 3127,
            "yy": 3128,
            "▁PA": 3129,
            "gente": 3130,
            "▁Comp": 3131,
            "▁show": 3132,
            "eramente": 3133,
            "▁premios": 3134,
            "▁rico": 3135,
            "▁gro": 3136,
            "▁envi": 3137,
            "▁diciendo": 3138,
            "▁US": 3139,
            "▁buscar": 3140,
            "▁gi": 3141,
            "▁twitter": 3142,
            "▁hemos": 3143,
            "▁juntos": 3144,
            "▁@usuario:": 3145,
            "rasil": 3146,
            "▁llamar": 3147,
            "▁rá": 3148,
            "▁22": 3149,
            "▁casos": 3150,
            "▁Mal": 3151,
            "anza": 3152,
            "▁Os": 3153,
            "▁JAJAJA": 3154,
            "au": 3155,
            "▁usar": 3156,
            "▁eh": 3157,
            "▁acaba": 3158,
            "▁encontrar": 3159,
            "UR": 3160,
            "isión": 3161,
            "sion": 3162,
            "arme": 3163,
            "ooo": 3164,
            "▁vec": 3165,
            "▁sign": 3166,
            "▁EX": 3167,
            "▁vergüenza": 3168,
            "ceso": 3169,
            "quito": 3170,
            "▁ul": 3171,
            "▁pedo": 3172,
            "fico": 3173,
            "▁moles": 3174,
            "▁das": 3175,
            "▁agrade": 3176,
            "▁Cada": 3177,
            "▁dias": 3178,
            "▁Her": 3179,
            "íble": 3180,
            "▁Sab": 3181,
            "isi": 3182,
            "ices": 3184,
            "▁gira": 3185,
            "▁muerte": 3186,
            "▁acep": 3187,
            "▁voz": 3188,
            "▁libertad": 3189,
            "▁&lt;": 3190,
            "rando": 3191,
            "▁Mes": 3192,
            "▁cuent": 3193,
            "go,": 3194,
            "dita": 3195,
            "▁kkk": 3196,
            "▁deses": 3197,
            "▁tel": 3198,
            "▁priva": 3199,
            "▁Ese": 3200,
            "bu": 3201,
            "ep": 3202,
            "▁encuent": 3203,
            "gles": 3204,
            "▁hermoso": 3205,
            "▁got": 3206,
            "▁cir": 3207,
            "▁trata": 3208,
            "▁der": 3209,
            "ados": 3210,
            "▁nada,": 3211,
            "IR": 3212,
            "▁contes": 3213,
            "▁dando": 3214,
            "▁\"A": 3215,
            "▁alma": 3216,
            "▁Be": 3217,
            "▁español": 3218,
            "▁hice": 3219,
            "▁vida.": 3220,
            "▁if": 3221,
            "▁chile": 3222,
            "deos": 3223,
            "▁crisis": 3224,
            "▁problemas": 3225,
            "▁bien,": 3226,
            "▁redes": 3227,
            "▁2.": 3228,
            "▁Bol": 3229,
            "▁toca": 3230,
            "thing": 3231,
            "▁cerve": 3232,
            "tas,": 3233,
            "▁podría": 3234,
            "▁payaso": 3235,
            "▁superioridad": 3236,
            "▁bir": 3237,
            "▁nada.": 3238,
            "▁solu": 3239,
            "tero": 3240,
            "tagram": 3241,
            "▁exa": 3242,
            "▁ignor": 3243,
            "▁lista": 3244,
            "▁mater": 3245,
            "BA": 3246,
            "ác": 3247,
            "▁cumple": 3248,
            "rió": 3249,
            "quen": 3250,
            "▁chan": 3251,
            "▁sábado": 3252,
            "▁estan": 3253,
            "▁bloque": 3254,
            "▁Real": 3255,
            "sas": 3256,
            "▁For": 3257,
            "este": 3258,
            "▁só": 3259,
            "▁revés": 3260,
            "▁deba": 3261,
            "▁cien": 3262,
            "cebook": 3263,
            "GA": 3264,
            "▁agar": 3265,
            "terio": 3266,
            "▁Cris": 3267,
            "ento": 3268,
            "▁fon": 3269,
            "▁asco": 3270,
            "▁méxico": 3271,
            "▁Am": 3272,
            "▁valor": 3273,
            "▁bajo": 3274,
            "▁PER": 3275,
            "▁copa": 3276,
            "jsjs": 3277,
            "pital": 3278,
            "tral": 3279,
            "ção": 3280,
            "▁.@usuario": 3281,
            "▁ningún": 3282,
            "▁nuestras": 3283,
            "r.": 3284,
            "▁LAS": 3285,
            "▁fuerza": 3286,
            "▁cama": 3287,
            "úper": 3288,
            "▁obli": 3289,
            "▁than": 3290,
            "▁explo": 3291,
            "▁Día": 3292,
            "▁\"T": 3293,
            "cin": 3294,
            "tantes": 3295,
            "▁doy": 3296,
            "ém": 3297,
            "▁hombres": 3298,
            "▁av": 3299,
            "▁ado": 3300,
            "▁Cons": 3301,
            "torios": 3302,
            "▁err": 3303,
            "▁simple": 3304,
            "orn": 3305,
            "▁público": 3306,
            "▁Mas": 3307,
            "em": 3308,
            "gamos": 3309,
            "▁AS": 3310,
            "▁covid19": 3311,
            "▁eno": 3312,
            "▁queremos": 3314,
            "▁realmente": 3315,
            "▁\"M": 3316,
            "▁creciente": 3317,
            "orna": 3318,
            "▁afec": 3319,
            "rio": 3320,
            "▁má": 3321,
            "▁pensando": 3322,
            "UU": 3323,
            "▁quería": 3324,
            "▁\"El": 3325,
            "conóm": 3326,
            "art": 3327,
            "date": 3328,
            "iro": 3329,
            "ciedad": 3330,
            "▁sentido": 3331,
            "tas.": 3332,
            "▁abur": 3333,
            "▁ayudar": 3334,
            "▁españa": 3335,
            "▁dónde": 3336,
            "▁violencia": 3337,
            "▁23": 3338,
            "▁Quien": 3339,
            "▁descu": 3340,
            "▁PU": 3341,
            "▁papá": 3342,
            "rate": 3343,
            "▁vuelta": 3344,
            "▁Muchas": 3345,
            "▁every": 3346,
            "▁aj": 3347,
            "visión": 3348,
            "conom": 3349,
            "▁fran": 3350,
            "sar": 3351,
            "▁our": 3352,
            "!!!.": 3353,
            "▁contag": 3354,
            "▁jugador": 3355,
            "▁mensaje": 3356,
            "▁tanta": 3357,
            "TR": 3358,
            "▁pop": 3359,
            "▁Del": 3360,
            "▁when": 3361,
            "brar": 3362,
            "tran": 3363,
            "▁sistema": 3364,
            "▁Dan": 3365,
            "▁demasiado": 3366,
            "▁xq": 3367,
            "▁limp": 3368,
            "table": 3369,
            "▁Presidente": 3370,
            "▁2018": 3371,
            "gl": 3372,
            "▁mandar": 3373,
            "rez": 3374,
            "ude": 3375,
            "▁Ben": 3376,
            "pol": 3377,
            "ner": 3378,
            "▁comen": 3379,
            "▁;": 3380,
            "▁mex": 3381,
            "tino": 3382,
            "▁vaca": 3383,
            "ído": 3384,
            "istro": 3385,
            "torio": 3386,
            "▁//": 3387,
            "▁ou": 3388,
            "▁voto": 3389,
            "▁Euro": 3390,
            "▁lucha": 3391,
            "▁Ter": 3392,
            "cina": 3393,
            "▁verga": 3394,
            "▁busca": 3395,
            "▁puntos": 3396,
            "▁situación": 3397,
            "▁desapro": 3398,
            "▁Felici": 3399,
            "▁JA": 3400,
            "ORA": 3401,
            "▁Chile": 3402,
            "▁bailando": 3403,
            "▁hicieron": 3405,
            "▁ocur": 3406,
            "gación": 3407,
            "▁sent": 3408,
            "▁who": 3409,
            "▁dra": 3410,
            "▁avan": 3411,
            "taciones": 3412,
            "PA": 3413,
            "▁Espero": 3414,
            "▁acos": 3415,
            "ft": 3416,
            "▁fas": 3417,
            "ull": 3418,
            "▁padre": 3419,
            "ales.": 3420,
            "aya": 3421,
            "▁venezol": 3422,
            "▁empezar": 3423,
            "▁hon": 3424,
            "▁¿S": 3425,
            "▁Trump": 3426,
            "▁\"P": 3427,
            "tados": 3428,
            "▁gal": 3429,
            "tidad": 3430,
            "aste": 3431,
            "▁euro": 3432,
            "▁ji": 3433,
            "▁posi": 3434,
            "▁&gt;": 3435,
            "▁elecciones": 3436,
            "▁además": 3437,
            "uno": 3438,
            "eza": 3439,
            "▁year": 3440,
            "ales,": 3441,
            "ieza": 3442,
            "▁luna": 3443,
            "▁agotada": 3444,
            "tarme": 3445,
            "▁más.": 3446,
            "▁fre": 3447,
            "enas": 3448,
            "up": 3449,
            "tió": 3450,
            "▁siguen": 3451,
            "▁desarro": 3452,
            "▁40": 3453,
            "dres": 3454,
            "▁mó": 3455,
            "▁pregunta": 3456,
            "▁decep": 3457,
            "-0": 3458,
            "▁I'm": 3459,
            "▁DES": 3460,
            "san": 3461,
            "tili": 3462,
            "▁cuad": 3463,
            "▁sociales": 3464,
            "▁terminar": 3465,
            "itan": 3466,
            "tador": 3467,
            "▁segundo": 3468,
            "▁vac": 3469,
            "ología": 3470,
            "ón,": 3471,
            "▁see": 3472,
            "▁vino": 3473,
            "ning": 3474,
            "▁Esa": 3475,
            "▁cin": 3476,
            "able": 3477,
            "▁gesto": 3478,
            "▁suel": 3479,
            "torias": 3480,
            "ju": 3481,
            "▁duele": 3482,
            "▁respeto": 3483,
            "▁xD": 3484,
            "mente,": 3485,
            ".\"": 3486,
            "edad": 3487,
            "▁Alguien": 3488,
            "ré": 3489,
            "▁económ": 3490,
            "coles": 3491,
            "tí": 3492,
            "gran": 3493,
            "▁bla": 3494,
            "▁hermano": 3495,
            "▁Is": 3496,
            "tural": 3497,
            "▁té": 3498,
            "▁culo": 3499,
            "▁acer": 3500,
            "al.": 3501,
            "mite": 3502,
            "diente": 3503,
            "▁saboreando": 3504,
            "▁niño": 3505,
            "gir": 3506,
            "▁Jun": 3507,
            "iva": 3508,
            ":30": 3509,
            "▁desaprobación": 3510,
            "▁herman": 3511,
            "dente": 3512,
            "▁darle": 3513,
            "▁YA": 3514,
            "O.": 3515,
            "▁segunda": 3516,
            "▁diver": 3517,
            "▁noticias": 3518,
            "▁esperar": 3519,
            "▁resulta": 3520,
            "▁sector": 3521,
            "▁dispon": 3522,
            "zan": 3523,
            "▁za": 3524,
            "▁seman": 3525,
            "▁atención": 3526,
            "▁mama": 3527,
            "▁bola": 3528,
            "gura": 3529,
            "▁gober": 3530,
            "▁cierto": 3531,
            "▁quiera": 3532,
            "▁even": 3533,
            "▁llu": 3534,
            "▁Igual": 3535,
            "▁fut": 3536,
            "damos": 3537,
            "▁pasando": 3538,
            "▁reun": 3539,
            "hora": 3540,
            "▁\"La": 3542,
            "▁esté": 3543,
            "▁virus": 3544,
            "hu": 3545,
            "▁QUI": 3546,
            "tle": 3547,
            "▁Us": 3548,
            "incu": 3549,
            "▁momentos": 3550,
            "end": 3551,
            "▁termina": 3552,
            "▁vida,": 3553,
            "me,": 3554,
            "ses": 3555,
            "▁súper": 3556,
            "mera": 3558,
            "hor": 3559,
            "▁jul": 3560,
            "▁cli": 3561,
            "▁Gen": 3562,
            "DOS": 3563,
            "▁Luis": 3564,
            "▁meter": 3565,
            "▁candida": 3566,
            "▁próximo": 3567,
            "▁crea": 3568,
            "▁tem": 3569,
            "▁aqui": 3570,
            "▁liga": 3571,
            "▁votar": 3572,
            "▁alcan": 3573,
            "▁amigas": 3574,
            "tivas": 3575,
            "uito": 3576,
            "▁impos": 3577,
            "▁cerca": 3578,
            "eck": 3579,
            "▁sonro": 3580,
            "▁genera": 3581,
            "▁UNA": 3582,
            "OT": 3583,
            "ugh": 3584,
            "▁pis": 3585,
            "▁Carlos": 3586,
            "▁promo": 3587,
            "▁signo": 3588,
            "▁cerveza": 3589,
            "CE": 3590,
            "▁acor": 3591,
            "▁entrar": 3592,
            "▁vuelve": 3593,
            "CU": 3594,
            "▁enter": 3595,
            "▁tapados": 3596,
            "▁dado": 3597,
            "▁jueves": 3598,
            "▁partidos": 3599,
            "▁luces": 3600,
            "graf": 3601,
            "▁how": 3602,
            "▁deben": 3603,
            "▁pienso": 3604,
            "▁gir": 3605,
            "▁faz": 3606,
            "▁Está": 3607,
            "▁viv": 3608,
            "▁símbolo": 3609,
            "▁rato": 3610,
            "▁Gar": 3611,
            "ecu": 3612,
            "gon": 3613,
            "▁malo": 3614,
            "▁stre": 3615,
            "▁ener": 3616,
            "ero,": 3617,
            "yan": 3618,
            "▁cuatro": 3619,
            "▁si,": 3620,
            "ares": 3621,
            "▁seu": 3622,
            "celona": 3623,
            "▁hambre": 3624,
            "▁puesto": 3625,
            "dis": 3626,
            "teo": 3627,
            "ÍA": 3628,
            "▁diri": 3629,
            "▁fer": 3630,
            "mber": 3631,
            "ket": 3632,
            "dura": 3633,
            "▁mascar": 3634,
            "▁CA": 3635,
            "▁pueda": 3636,
            "▁hubiera": 3637,
            "▁idio": 3638,
            "dieron": 3639,
            "▁Du": 3640,
            "▁desespera": 3641,
            "▁ok": 3642,
            "▁tren": 3643,
            "▁acabo": 3644,
            "▁Bien": 3645,
            "▁star": 3646,
            "▁onda": 3647,
            "ach": 3648,
            "villa": 3649,
            "▁hagan": 3650,
            "▁Desp": 3651,
            "▁ejemplo": 3652,
            "\"..": 3653,
            "▁Estamos": 3654,
            "▁contar": 3655,
            "▁proyecto": 3656,
            "▁campaña": 3657,
            "▁fis": 3658,
            "mación": 3659,
            "▁martes": 3660,
            "▁Ab": 3661,
            "▁canal": 3662,
            "▁general": 3663,
            "▁Emp": 3664,
            "éndo": 3665,
            "feo": 3666,
            "▁aman": 3667,
            "tarse": 3668,
            "▁conten": 3669,
            "▁This": 3670,
            "▁preocupa": 3671,
            "▁univer": 3672,
            "▁JAJAJAJAJA": 3673,
            "▁camino": 3674,
            "▁silen": 3675,
            "top": 3676,
            "ete": 3677,
            "▁Voy": 3678,
            "tán": 3679,
            "▁Fern": 3680,
            "▁allá": 3681,
            "▁nie": 3682,
            "ste": 3683,
            "▁sonrojada": 3684,
            "ica,": 3685,
            "▁sociedad": 3686,
            "umen": 3687,
            "▁noches": 3688,
            "▁bebé": 3689,
            "▁viola": 3690,
            "▁consegui": 3691,
            "▁seas": 3692,
            "▁obje": 3693,
            "▁centro": 3694,
            "▁Ga": 3695,
            "PE": 3696,
            "nn": 3697,
            "gor": 3698,
            "VO": 3699,
            "bil": 3700,
            "có": 3701,
            "▁ahor": 3702,
            "▁)": 3703,
            "TER": 3704,
            "▁mando": 3705,
            "QUE": 3706,
            "▁¿Y": 3707,
            "▁Sol": 3708,
            "▁matar": 3709,
            "▁efec": 3710,
            "▁ré": 3711,
            "▁durmiendo": 3712,
            "▁Jaja": 3713,
            "icado": 3714,
            "cracia": 3715,
            "cida": 3716,
            "▁imagen": 3717,
            "▁good": 3718,
            "IM": 3719,
            "▁fla": 3720,
            "▁Ti": 3721,
            "▁Nada": 3722,
            "▁say": 3723,
            "▁película": 3724,
            "▁manda": 3725,
            "▁tenes": 3726,
            "▁quedo": 3727,
            "▁Ad": 3728,
            "▁produc": 3729,
            "▁venir": 3730,
            "▁vive": 3731,
            "▁prepara": 3732,
            "▁Pu": 3733,
            "ero.": 3734,
            "ric": 3735,
            "▁Jul": 3736,
            "▁sup": 3737,
            "al,": 3738,
            "fé": 3739,
            "▁Mira": 3740,
            "▁demos": 3741,
            "▁merece": 3742,
            "▁Au": 3743,
            "ight": 3744,
            "▁corre": 3745,
            "gues": 3746,
            "itch": 3747,
            "▁Quer": 3748,
            "▁econom": 3749,
            "berto": 3750,
            "▁hija": 3751,
            "ler": 3752,
            "lidad": 3753,
            "▁sabemos": 3754,
            "▁papel": 3755,
            "lin": 3756,
            "▁ninguna": 3757,
            "▁gusto": 3758,
            "!!.": 3759,
            "ÁS": 3760,
            "rano": 3761,
            "ions": 3762,
            "▁ár": 3763,
            "co,": 3764,
            "▁COVID": 3765,
            "▁beca": 3766,
            "uestro": 3767,
            "▁trofeo": 3768,
            "▁todo,": 3769,
            "bes": 3770,
            "▁bi": 3771,
            "▁bastante": 3772,
            "miaw": 3773,
            "▁vieja": 3774,
            "▁cerrado": 3775,
            "▁Mer": 3776,
            "▁dro": 3777,
            "▁FA": 3778,
            "rito": 3779,
            "▁sep": 3780,
            "▁rápido": 3781,
            "▁best": 3782,
            "▁color": 3783,
            "▁ESTA": 3784,
            "▁derechos": 3785,
            "▁protes": 3786,
            "▁Fo": 3787,
            "rin": 3788,
            "menda": 3789,
            "▁back": 3790,
            "▁pessoas": 3791,
            "▁novia": 3792,
            "rer": 3793,
            "icion": 3794,
            "▁Fal": 3795,
            "su": 3796,
            "▁off": 3797,
            "▁tuvi": 3798,
            "chez": 3799,
            "chi": 3800,
            "▁según": 3801,
            "GU": 3802,
            "CIA": 3803,
            "▁Señ": 3804,
            "▁sorpren": 3805,
            "volu": 3806,
            "andom": 3807,
            "▁joven": 3808,
            "▁opinión": 3809,
            "áis": 3810,
            "▁PS": 3811,
            "bia": 3812,
            "▁municip": 3813,
            "▁tit": 3814,
            "▁labor": 3815,
            "▁VER": 3816,
            "ph": 3817,
            "▁partir": 3818,
            "curso": 3819,
            "▁eran": 3820,
            "▁ros": 3821,
            "▁oficial": 3822,
            "▁viejo": 3823,
            "▁celular": 3824,
            "▁far": 3825,
            "▁any": 3826,
            "▁número": 3827,
            "zada": 3828,
            "▁pronto": 3829,
            "▁avis": 3830,
            "lease": 3831,
            "▁bien.": 3832,
            "▁clases": 3833,
            "me.": 3834,
            "ga,": 3835,
            "▁nuevos": 3836,
            "El": 3837,
            "RAN": 3838,
            "bli": 3839,
            "▁estudiar": 3840,
            "▁pequeño": 3841,
            "▁char": 3842,
            "▁Pi": 3843,
            "▁resul": 3844,
            "▁terror": 3845,
            "ker": 3846,
            "▁esti": 3847,
            "diciones": 3848,
            "eek": 3849,
            "▁salva": 3850,
            "▁Eu": 3852,
            "▁felicidad": 3853,
            "cheta": 3854,
            "▁subir": 3855,
            "▁Tan": 3856,
            "▁Jus": 3857,
            "▁Camp": 3858,
            "▁hermana": 3859,
            "▁José": 3860,
            "▁no.": 3861,
            "▁uso": 3862,
            "▁recuer": 3863,
            "▁noticia": 3864,
            "cuador": 3865,
            "▁descan": 3866,
            "ni": 3867,
            "▁detal": 3868,
            "▁Mac": 3869,
            "cle": 3870,
            "▁duda": 3871,
            "▁musical": 3872,
            "lix": 3873,
            "E.": 3874,
            "▁May": 3875,
            "▁mente": 3876,
            "▁impres": 3877,
            "▁¿A": 3878,
            "▁minha": 3879,
            "▁llen": 3880,
            "▁compartir": 3881,
            "▁sec": 3882,
            "xs": 3883,
            "respon": 3884,
            "▁alivio": 3885,
            "▁It": 3886,
            "▁regalo": 3887,
            "▁desapar": 3888,
            "▁Fu": 3889,
            "ica.": 3890,
            "ille": 3891,
            "▁foi": 3892,
            "▁significa": 3893,
            "line": 3894,
            "▁telé": 3895,
            "ca,": 3896,
            "an,": 3897,
            "OOO": 3898,
            "ón.": 3899,
            "▁pat": 3900,
            "fuer": 3901,
            "▁Maduro": 3902,
            "ey": 3903,
            "▁Facebook": 3904,
            "▁opos": 3905,
            "▁???": 3906,
            "▁TODO": 3907,
            "▁tenido": 3908,
            "▁team": 3909,
            "cê": 3910,
            "▁ropa": 3911,
            "ítulo": 3912,
            "JO": 3913,
            "▁local": 3914,
            "puesto": 3915,
            "bum": 3916,
            "▁Después": 3917,
            "▁cumpl": 3918,
            "▁cree": 3919,
            "iciente": 3920,
            "▁atrás": 3921,
            "2.": 3922,
            "▁aleg": 3923,
            "▁móvil": 3924,
            "▁fras": 3925,
            "ving": 3926,
            "go.": 3927,
            "▁resto": 3928,
            "▁mtvmiaw": 3929,
            "▁Tor": 3930,
            "▁ase": 3931,
            "▁lig": 3932,
            "dd": 3933,
            "▁adver": 3934,
            "ma,": 3935,
            "▁need": 3936,
            "AMOS": 3937,
            "▁pele": 3938,
            "▁TU": 3939,
            "icana": 3940,
            "▁gre": 3941,
            "▁=": 3942,
            "▁aw": 3943,
            "▁jamás": 3944,
            "▁insta": 3945,
            "pla": 3946,
            "▁vacaciones": 3947,
            "▁live": 3948,
            "▁carrera": 3949,
            "▁medidas": 3950,
            "▁espec": 3951,
            "izado": 3952,
            "de,": 3953,
            "▁decepcion": 3954,
            "bamos": 3955,
            "▁literal": 3956,
            "▁levantada": 3957,
            "▁vemos": 3958,
            "▁web": 3959,
            "porte": 3960,
            "bres": 3961,
            "▁Imp": 3962,
            "▁LI": 3963,
            "▁here": 3964,
            "▁tambien": 3965,
            "unt": 3966,
            "▁rosa": 3967,
            "▁Messi": 3968,
            "▁chincheta": 3969,
            "▁mín": 3970,
            "▁AC": 3971,
            "▁ka": 3972,
            "▁edad": 3973,
            "▁Gua": 3974,
            "▁(@usuario": 3975,
            "▁Toda": 3976,
            "▁años,": 3977,
            "▁increíble": 3978,
            "▁aire": 3979,
            "▁SO": 3980,
            "▁puto": 3981,
            "ctubre": 3982,
            "zco": 3983,
            "▁globo": 3984,
            "▁indepen": 3985,
            "▁pongo": 3986,
            "▁giratorios": 3987,
            "▁correc": 3988,
            "nes": 3989,
            "▁medios": 3990,
            "mpl": 3991,
            "▁institu": 3992,
            "3.": 3993,
            "▁jugadores": 3994,
            "▁profesional": 3995,
            "▁SER": 3996,
            "iel": 3997,
            "▁vai": 3998,
            "▁golpe": 3999,
            "▁todo.": 4000,
            "▁niña": 4001,
            "sh": 4002,
            "▁colombia": 4003,
            "BI": 4004,
            "▁dó": 4005,
            "ará": 4006,
            "quis": 4007,
            "▁cari": 4008,
            "ky": 4009,
            "rí": 4010,
            "▁manif": 4011,
            "uras": 4012,
            "▁cont": 4013,
            "▁apa": 4014,
            "▁And": 4015,
            "▁respuesta": 4016,
            "▁Ob": 4017,
            "▁ON": 4018,
            "▁creen": 4019,
            "▁señora": 4020,
            "▁más,": 4021,
            "▁BTS": 4022,
            "▁QU": 4023,
            "▁hel": 4024,
            "▁ESTO": 4025,
            "ornada": 4026,
            "▁orto": 4027,
            "▁cuanto": 4028,
            "▁paci": 4029,
            "bió": 4030,
            "arte": 4031,
            "cent": 4032,
            "▁lín": 4033,
            "yendo": 4034,
            "▁futbol": 4035,
            "ICA": 4036,
            "▁ل": 4037,
            "▁AH": 4038,
            "ally": 4039,
            "▁Entre": 4040,
            "▁Santa": 4041,
            "▁exig": 4042,
            "▁educación": 4043,
            "ustra": 4044,
            "▁New": 4045,
            "▁Ú": 4046,
            "▁Mil": 4047,
            "de.": 4048,
            "▁arran": 4049,
            "icol": 4050,
            "EZ": 4051,
            "▁Je": 4052,
            "▁eso,": 4053,
            "▁apor": 4054,
            "ós": 4055,
            "▁mayoría": 4056,
            "▁emple": 4057,
            "UT": 4058,
            "▁aut": 4059,
            "▁Che": 4060,
            "▁repro": 4061,
            "▁ahre": 4062,
            "▁red": 4063,
            "▁calidad": 4064,
            "inda": 4065,
            "II": 4066,
            "▁cere": 4067,
            "?!": 4068,
            "▁vomi": 4069,
            "▁ponen": 4070,
            "▁lejos": 4071,
            "▁its": 4072,
            "ings": 4073,
            "▁PRO": 4074,
            "▁disfrutar": 4075,
            "como": 4076,
            "lash": 4077,
            "▁tecn": 4078,
            "i.": 4079,
            "▁ejer": 4080,
            "▁conven": 4081,
            "▁dedo": 4082,
            "▁mismos": 4083,
            "▁abor": 4084,
            "▁utili": 4085,
            "▁político": 4086,
            "▁their": 4087,
            "▁Ade": 4088,
            "En": 4089,
            "▁olvidar": 4090,
            "cola": 4091,
            "▁Claro": 4092,
            "▁datos": 4093,
            "▁tierra": 4094,
            "▁distin": 4095,
            "cti": 4096,
            "▁3.": 4097,
            "▁éx": 4098,
            "día": 4099,
            "▁AMO": 4100,
            "▁kca": 4101,
            "▁prome": 4102,
            "▁ojalá": 4103,
            "za,": 4104,
            "▁ep": 4105,
            "tito": 4106,
            "▁salió": 4107,
            "an.": 4108,
            "▁¡¡": 4109,
            "pira": 4110,
            "misión": 4111,
            "ferencia": 4112,
            "▁Pal": 4113,
            "▁blanca": 4114,
            "▁(?": 4115,
            "▁atra": 4116,
            "▁Segu": 4117,
            "erto": 4118,
            "▁imagin": 4119,
            "terna": 4120,
            "ándose": 4121,
            "▁viaje": 4122,
            "▁militar": 4123,
            "▁teléfono": 4124,
            "▁libros": 4125,
            "▁feo": 4126,
            "d,": 4127,
            "ANT": 4128,
            "▁Than": 4129,
            "▁Eres": 4130,
            "▁Ros": 4131,
            "erta": 4132,
            "▁También": 4133,
            "mental": 4134,
            "▁reac": 4135,
            "▁26": 4136,
            "atch": 4137,
            "IG": 4138,
            "VA": 4139,
            "▁PO": 4140,
            "▁Amo": 4141,
            "▁pareja": 4142,
            "▁juega": 4143,
            ",,": 4144,
            "▁opera": 4145,
            "▁defender": 4146,
            "▁dejen": 4147,
            "▁vivi": 4148,
            "▁ofre": 4149,
            "zado": 4150,
            "eres": 4151,
            "▁escucha": 4152,
            "anja": 4153,
            "▁femin": 4154,
            "▁mane": 4155,
            "▁want": 4156,
            "▁l'": 4157,
            "▁dólar": 4158,
            "▁pais": 4159,
            "▁canciones": 4160,
            "▁because": 4161,
            "▁cuba": 4162,
            "▁lluvia": 4163,
            "▁¡A": 4164,
            "▁28": 4165,
            "▁bomb": 4166,
            "JAJAJ": 4167,
            "▁recuerdo": 4168,
            "▁jugando": 4169,
            "h,": 4170,
            "▁denun": 4171,
            "ópez": 4172,
            "▁aga": 4173,
            "▁My": 4174,
            "unto": 4175,
            "▁apre": 4176,
            "▁COMO": 4177,
            "▁unidos": 4178,
            "▁CAR": 4179,
            "rido": 4180,
            "▁secre": 4181,
            "orge": 4182,
            "hib": 4183,
            "▁baja": 4184,
            "VER": 4185,
            "▁feel": 4186,
            "▁siguien": 4187,
            "▁mirar": 4188,
            "▁llev": 4189,
            "gna": 4190,
            "AAA": 4192,
            "▁GRA": 4193,
            "itario": 4194,
            "buen": 4195,
            "▁Im": 4196,
            "▁On": 4197,
            "▁cambia": 4198,
            "▁habrá": 4199,
            "▁evitar": 4200,
            "▁mate": 4201,
            "▁humor": 4202,
            "▁Nor": 4203,
            "▁orig": 4204,
            "get": 4205,
            ",.": 4206,
            "▁aprender": 4207,
            "▁colec": 4208,
            "▁fuck": 4209,
            "ma.": 4210,
            "▁varios": 4211,
            "▁duer": 4212,
            "▁políticos": 4213,
            "▁anun": 4214,
            "▁PUE": 4215,
            "▁hin": 4216,
            "▁acuer": 4217,
            "▁pelig": 4218,
            "▁Mejor": 4219,
            "▁alcal": 4220,
            "EO": 4221,
            "bilidad": 4222,
            "sito": 4223,
            "▁Ayer": 4224,
            "▁expresión": 4225,
            "▁llevo": 4226,
            "ico,": 4227,
            "▁respec": 4228,
            "ICI": 4229,
            "tiembre": 4230,
            "▁27": 4231,
            "▁llegó": 4232,
            "mente.": 4233,
            "▁¿Por": 4234,
            "MOS": 4235,
            "kes": 4236,
            "▁Ped": 4237,
            "▁gustaría": 4238,
            "▁cra": 4239,
            "taje": 4240,
            "▁ido": 4241,
            "▁esca": 4242,
            "mado": 4243,
            "▁Pab": 4244,
            "gle": 4245,
            "▁aprove": 4246,
            "▁án": 4247,
            "icha": 4248,
            "▁justo": 4249,
            "▁café": 4250,
            "▁comien": 4251,
            "▁dev": 4252,
            "miso": 4253,
            "▁benef": 4254,
            "IZ": 4255,
            "tín": 4256,
            "ME": 4257,
            "▁hacerlo": 4258,
            "▁cae": 4259,
            "jen": 4260,
            "▁solid": 4261,
            "▁admi": 4262,
            "▁aso": 4263,
            "▁dese": 4264,
            "flix": 4265,
            "▁impues": 4266,
            "▁constru": 4267,
            "▁esfuer": 4268,
            "▁sabía": 4269,
            "▁inver": 4270,
            "▁silencio": 4271,
            "▁dieron": 4272,
            "1.": 4273,
            "▁refle": 4274,
            "▁adelante": 4275,
            "▁inteli": 4276,
            "▁bet": 4277,
            "▁empi": 4278,
            "▁isso": 4279,
            "z.": 4280,
            "ducir": 4281,
            "óven": 4282,
            "▁años.": 4283,
            "▁capital": 4284,
            "▁encuentro": 4285,
            "mu": 4286,
            "fiero": 4287,
            "sen": 4288,
            "nt": 4289,
            "▁\"D": 4290,
            "ny": 4291,
            "▁No,": 4292,
            "▁Va": 4293,
            "▁Jes": 4294,
            "▁chil": 4295,
            "INA": 4296,
            "ku": 4297,
            "//": 4298,
            "▁llegue": 4299,
            "▁Cara": 4300,
            "IST": 4301,
            "▁mueca": 4302,
            "▁bru": 4303,
            "jeje": 4304,
            "▁fecha": 4305,
            "▁zona": 4306,
            "SS": 4307,
            "▁deje": 4308,
            "▁tuit": 4309,
            "iar": 4310,
            "▁aguan": 4311,
            "▁&lt;3": 4312,
            "etflix": 4313,
            "unta": 4314,
            "▁tantas": 4315,
            "dé": 4316,
            "▁delincu": 4317,
            "▁TEN": 4318,
            "▁maes": 4319,
            "lación": 4320,
            "▁diferencia": 4321,
            "▁Nadie": 4322,
            "▁algunas": 4323,
            "▁did": 4324,
            "▁prepar": 4325,
            "▁Ap": 4326,
            "▁siente": 4327,
            "▁VID": 4328,
            "ding": 4329,
            "▁colab": 4330,
            "▁cansada": 4331,
            "▁palabra": 4332,
            "dando": 4333,
            "▁empresa": 4334,
            "▁ries": 4335,
            "tores": 4336,
            "▁despe": 4337,
            "▁escribir": 4338,
            "za.": 4339,
            "▁esperamos": 4340,
            "mexico": 4341,
            "▁aband": 4342,
            "▁acu": 4343,
            "▁happy": 4344,
            "▁caer": 4345,
            "ise": 4346,
            "▁tiempos": 4347,
            "▁Cos": 4348,
            "▁marcha": 4349,
            "▁lec": 4350,
            "▁depen": 4351,
            "ista,": 4352,
            "mán": 4353,
            "▁doble": 4354,
            "int": 4355,
            "▁saca": 4356,
            "▁tengan": 4357,
            "▁López": 4358,
            "till": 4359,
            "co.": 4360,
            "cara": 4361,
            "▁memo": 4362,
            "icano": 4363,
            "▁rob": 4364,
            "▁¿T": 4365,
            "▁quedan": 4366,
            "ro,": 4367,
            "turas": 4368,
            "puta": 4369,
            "▁cruz": 4370,
            "▁vc": 4371,
            "▁chicos": 4372,
            "▁sw": 4373,
            "unda": 4374,
            "▁entrevista": 4375,
            "encias": 4376,
            "▁hilo": 4377,
            "▁At": 4378,
            "sel": 4379,
            "▁pide": 4380,
            "▁aun": 4381,
            "▁estudio": 4382,
            "terior": 4383,
            "▁ocu": 4384,
            "▁inc": 4385,
            "▁ligeramente": 4386,
            "ure": 4387,
            "▁internacional": 4388,
            "trando": 4389,
            "ca.": 4390,
            "▁preven": 4391,
            "ole": 4392,
            "▁repe": 4393,
            "▁bonita": 4394,
            "▁enfada": 4395,
            "▁stream": 4396,
            "▁escuela": 4397,
            "5.": 4398,
            "▁Covid": 4399,
            "▁dont": 4400,
            "▁así,": 4401,
            "▁verano": 4402,
            "ley": 4403,
            "▁fantas": 4404,
            "uelo": 4405,
            "▁banda": 4406,
            "▁ansi": 4407,
            "▁empresas": 4408,
            "ina,": 4409,
            "onas": 4410,
            "▁make": 4411,
            "▁madrid": 4412,
            "▁been": 4413,
            "▁excla": 4414,
            "tale": 4415,
            "▁presiden": 4416,
            "▁mental": 4417,
            "▁imposible": 4418,
            "cidos": 4419,
            "talla": 4420,
            "▁cuan": 4421,
            "▁seria": 4422,
            "ezo": 4424,
            "SE": 4425,
            "ANA": 4426,
            "▁control": 4427,
            "PO": 4428,
            "▁ke": 4429,
            "les.": 4430,
            "ga.": 4431,
            "▁llena": 4432,
            "▁cuán": 4433,
            "▁\"No": 4434,
            "inho": 4435,
            "▁Har": 4436,
            "▁tuvo": 4437,
            "ello": 4438,
            "▁naranja": 4439,
            "▁mel": 4440,
            "▁padres": 4441,
            "▁THE": 4442,
            "▁maravil": 4443,
            "▁experiencia": 4444,
            "▁celebra": 4445,
            "▁ala": 4446,
            "▁técn": 4447,
            "▁compra": 4448,
            "▁over": 4449,
            "▁trabajando": 4450,
            "▁recordar": 4451,
            "▁hacemos": 4452,
            "▁rey": 4453,
            "tiv": 4454,
            "ters": 4455,
            "imin": 4456,
            "gados": 4457,
            "▁only": 4458,
            "▁pus": 4459,
            "▁país.": 4460,
            "▁siquiera": 4461,
            "▁Ami": 4462,
            "pita": 4463,
            "hats": 4464,
            "▁tec": 4465,
            "▁você": 4466,
            "▁gustan": 4467,
            "▁Barcelona": 4468,
            "▁Buenas": 4469,
            "PER": 4470,
            "ércoles": 4471,
            "fr": 4472,
            "▁digan": 4473,
            "ibilidad": 4474,
            "▁Gra": 4475,
            "chan": 4476,
            "ista.": 4477,
            "▁basura": 4478,
            "tilla": 4479,
            "lec": 4480,
            "▁enga": 4481,
            "▁error": 4482,
            "▁crí": 4483,
            "ime": 4484,
            "TRA": 4485,
            "▁arro": 4486,
            "ículo": 4487,
            "▁líder": 4488,
            "▁pensé": 4489,
            "uerto": 4490,
            "zz": 4491,
            "▁falle": 4492,
            "▁juro": 4493,
            "▁horrible": 4494,
            "▁Ciudad": 4495,
            "eran": 4496,
            "les,": 4497,
            "▁bron": 4498,
            "▁rt": 4499,
            "▁critic": 4500,
            "7.": 4501,
            "▁exclamación": 4502,
            "▁\"H": 4503,
            "ICO": 4504,
            "▁relación": 4505,
            "▁SAL": 4506,
            "▁cultura": 4507,
            "▁TODOS": 4508,
            "anti": 4509,
            "▁Wh": 4510,
            "▁obra": 4511,
            "ls": 4512,
            "ose": 4513,
            "▁puso": 4514,
            "▁peda": 4515,
            "▁sí,": 4516,
            "▁países": 4517,
            "ico.": 4518,
            "ulo": 4519,
            "olver": 4520,
            "▁she": 4521,
            "▁recur": 4522,
            "▁explica": 4523,
            "bel": 4524,
            "tions": 4525,
            "▁mascarilla": 4526,
            "tivamente": 4527,
            "▁leg": 4528,
            "queo": 4529,
            "▁sirve": 4530,
            "/0": 4531,
            "AY": 4532,
            "ribu": 4533,
            "▁anal": 4534,
            "▁chor": 4535,
            "▁dejan": 4536,
            "▁desesperada": 4537,
            "▁inicia": 4538,
            "▁semanas": 4539,
            "indo": 4540,
            "▁iden": 4541,
            "▁emocion": 4542,
            "▁im": 4543,
            "mos.": 4544,
            "▁Ban": 4546,
            "▁necesario": 4547,
            "▁pasan": 4548,
            "▁pana": 4549,
            "▁despier": 4550,
            "▁caliente": 4551,
            "▁d'": 4552,
            "▁tuve": 4553,
            "▁democracia": 4554,
            "ví": 4555,
            "▁comunidad": 4556,
            "▁perdón": 4557,
            "▁Mientras": 4558,
            "▁JAJAJAJAJAJAJAJA": 4559,
            "▁Saludos": 4560,
            "▁orgullo": 4561,
            "gus": 4562,
            "▁conoce": 4563,
            "▁tá": 4564,
            "ública": 4565,
            "▁ran": 4566,
            "▁disponible": 4567,
            "▁mitad": 4568,
            "CIAS": 4569,
            "▁Instagram": 4570,
            "▁Aunque": 4571,
            "▁mío": 4572,
            "▁descar": 4573,
            "▁gratis": 4574,
            "▁agre": 4575,
            "▁ud": 4576,
            "KK": 4577,
            "ming": 4578,
            "▁colisión": 4579,
            "mos,": 4580,
            "▁boy": 4581,
            "ak": 4582,
            "eee": 4583,
            "ze": 4584,
            "▁fís": 4585,
            "▁quedó": 4586,
            "▁salen": 4587,
            "▁him": 4588,
            "▁suspen": 4589,
            "wer": 4590,
            "▁guerra": 4591,
            "▁participa": 4592,
            "▁recibir": 4593,
            "▁prensa": 4595,
            "▁jóven": 4596,
            "▁ellas": 4597,
            "▁suce": 4598,
            "nas": 4599,
            "▁MAR": 4600,
            "▁intent": 4601,
            "▁tí": 4602,
            "▁día,": 4603,
            "▁Ce": 4604,
            "▁really": 4605,
            "▁AP": 4606,
            "▁hojas": 4607,
            "zó": 4608,
            "ánchez": 4609,
            "▁would": 4610,
            "▁DIOS": 4611,
            "▁directo": 4612,
            "▁largo": 4613,
            "zados": 4614,
            "ienes": 4615,
            "▁contr": 4616,
            "we": 4617,
            ":(": 4618,
            "isla": 4619,
            "inha": 4620,
            "ianza": 4621,
            "▁hoy,": 4622,
            "▁frien": 4623,
            "▁Super": 4624,
            "▁poquito": 4625,
            "La": 4626,
            "▁Def": 4627,
            "by": 4628,
            "DAD": 4629,
            "▁90": 4630,
            "iantina": 4631,
            "▁loca": 4632,
            "▁tv": 4633,
            "▁sien": 4634,
            "▁dale": 4635,
            "▁buscando": 4636,
            "▁andar": 4637,
            "▁mode": 4638,
            "ñan": 4639,
            "▁deseo": 4640,
            "▁máx": 4641,
            "▁hablan": 4642,
            "▁Ve": 4643,
            "▁asesina": 4644,
            "▁life": 4645,
            "dp": 4646,
            "▁er": 4647,
            "▁ner": 4648,
            "▁temprano": 4649,
            "▁bueno,": 4650,
            "▁paro": 4651,
            "▁convi": 4652,
            "follow": 4653,
            "▁Si,": 4654,
            "▁historias": 4655,
            "▁pesar": 4656,
            "▁them": 4657,
            "▁app": 4658,
            "▁Ru": 4659,
            "▁venta": 4660,
            "▁internet": 4661,
            "_de": 4662,
            "▁again": 4663,
            "▁publicar": 4664,
            "cien": 4665,
            "tró": 4666,
            "cionar": 4667,
            "▁Direc": 4668,
            "voz": 4669,
            "lic": 4670,
            "jeron": 4671,
            "▁encar": 4672,
            "▁fri": 4673,
            "▁muertos": 4674,
            "ET": 4675,
            "monio": 4676,
            "jul": 4677,
            "▁pobla": 4678,
            "▁dormi": 4679,
            "isis": 4680,
            "▁pág": 4681,
            "▁grogui": 4682,
            "▁cuesta": 4683,
            "▁repor": 4684,
            "▁conversa": 4685,
            "▁presente": 4686,
            "▁¿Cómo": 4687,
            "▁MAS": 4688,
            "▁Tran": 4689,
            "onz": 4690,
            "-2": 4691,
            "▁Bel": 4692,
            "▁excelente": 4693,
            "▁Cab": 4694,
            "▁puse": 4695,
            "tea": 4696,
            "▁nomb": 4697,
            "▁Pos": 4698,
            "▁visita": 4699,
            "ble.": 4700,
            "▁reti": 4701,
            "▁Uno": 4702,
            "▁¿Cu": 4703,
            "dición": 4704,
            "▁chica": 4705,
            "mentar": 4706,
            "▁Bueno,": 4707,
            "tes,": 4708,
            "▁Pat": 4709,
            "▁insul": 4710,
            "▁legal": 4711,
            "▁defini": 4712,
            "tear": 4713,
            "▁finde": 4714,
            "▁Hi": 4715,
            "tór": 4716,
            "▁cuidar": 4717,
            "_de_": 4718,
            "rue": 4719,
            "▁lea": 4720,
            "▁entrena": 4721,
            "▁PR": 4722,
            "▁world": 4723,
            "▁kcamexico": 4724,
            "tifica": 4725,
            "tonces": 4726,
            "▁debate": 4727,
            "▁way": 4728,
            "▁jar": 4729,
            "pal": 4730,
            "▁PERO": 4731,
            "▁mundo.": 4732,
            "▁ahi": 4733,
            "▁nas": 4734,
            "KS": 4735,
            "▁últimos": 4736,
            "▁tb": 4737,
            "▁acabar": 4738,
            "▁sit": 4739,
            "▁Gal": 4740,
            "QU": 4741,
            "▁videos": 4742,
            "éc": 4743,
            "▁week": 4744,
            "▁pic": 4745,
            "tem": 4746,
            "gg": 4747,
            "▁participar": 4748,
            "▁extre": 4749,
            "NO": 4750,
            "▁80": 4751,
            "▁Rep": 4752,
            "▁Segui": 4753,
            "loj": 4754,
            "▁pruebas": 4755,
            "▁Polic": 4756,
            "▁PP": 4757,
            "jala": 4758,
            "4.": 4759,
            "▁cualquiera": 4760,
            "▁defensa": 4761,
            "▁dise": 4762,
            "▁bre": 4763,
            "▁estuvo": 4764,
            "▁corriendo": 4765,
            "▁miles": 4766,
            "▁Sec": 4767,
            "▁concha": 4768,
            "crip": 4769,
            "hol": 4770,
            "▁empieza": 4771,
            "▁árbol": 4772,
            "▁nuevas": 4773,
            "▁línea": 4774,
            "pia": 4775,
            "▁diferente": 4776,
            "▁có": 4777,
            "▁don't": 4778,
            "medad": 4779,
            "ture": 4780,
            "▁já": 4781,
            "▁navidad": 4782,
            "▁fav": 4783,
            "uido": 4784,
            "▁pendejo": 4785,
            "'re": 4786,
            "▁recha": 4787,
            "▁seguidores": 4788,
            "▁ses": 4789,
            "lito": 4790,
            "▁docu": 4791,
            "icamente": 4792,
            "▁fl": 4793,
            "▁nomas": 4794,
            "▁amena": 4795,
            "ciones.": 4796,
            "cí": 4797,
            "▁aus": 4798,
            "▁Fer": 4799,
            "▁representa": 4800,
            "iga": 4801,
            "▁cagar": 4802,
            "▁Europa": 4803,
            "▁querido": 4804,
            "▁causa": 4805,
            "▁enfadada": 4806,
            "▁PAS": 4807,
            "▁flash": 4808,
            "▁consu": 4809,
            "▁recla": 4810,
            "▁orgullos": 4811,
            "▁What": 4812,
            "▁cam": 4813,
            "▁win": 4814,
            "▁think": 4815,
            "clara": 4816,
            "▁Sánchez": 4817,
            "▁¡F": 4818,
            "▁colegio": 4819,
            "▁espacio": 4820,
            "▁post": 4821,
            "▁ind": 4822,
            "TU": 4823,
            "▁latiendo": 4824,
            "isiera": 4825,
            "▁¡S": 4826,
            "ensa": 4827,
            "sal": 4828,
            "ily": 4829,
            "▁sueños": 4830,
            "ministra": 4831,
            "▁black": 4832,
            "ramos": 4833,
            "▁daño": 4834,
            "▁acompañ": 4835,
            "dimos": 4836,
            "▁estuvi": 4837,
            "h.": 4838,
            "tiago": 4839,
            "▁Brasil": 4840,
            "ro.": 4841,
            "ide": 4842,
            "▁gil": 4843,
            "▁supon": 4844,
            "taria": 4845,
            "cus": 4846,
            "ller": 4847,
            "▁decía": 4848,
            "▁argent": 4849,
            "▁¿Qui": 4850,
            "▁volvi": 4851,
            "▁sonrisa": 4852,
            "▁Mig": 4853,
            "▁día.": 4854,
            "▁eso.": 4855,
            "▁cabr": 4856,
            "▁cala": 4857,
            "▁temas": 4858,
            "▁cuentas": 4859,
            "-1": 4860,
            "ba,": 4861,
            "▁pido": 4862,
            "▁vienen": 4863,
            "▁arte": 4864,
            "▁arreg": 4865,
            "roso": 4866,
            "IE": 4867,
            "▁camis": 4868,
            "▁corrupción": 4869,
            "▁joder": 4870,
            "▁Pablo": 4871,
            "▁tengas": 4872,
            "▁Bus": 4873,
            "▁vomitando": 4874,
            "ws": 4875,
            "▁casa,": 4876,
            "▁non": 4877,
            "▁check": 4878,
            "ciones,": 4879,
            "▁dicta": 4880,
            "mática": 4881,
            "▁Reg": 4882,
            "▁lograr": 4883,
            "▁stor": 4884,
            "▁cola": 4885,
            "▁dejó": 4886,
            "▁bici": 4887,
            "entos": 4888,
            "▁obvio": 4889,
            "▁esse": 4890,
            "__": 4891,
            "▁televisión": 4892,
            "ying": 4893,
            "▁??": 4894,
            "▁necesidad": 4895,
            "▁there": 4896,
            "didos": 4897,
            "▁argu": 4898,
            "▁abril": 4899,
            "▁\"@usuario": 4900,
            "BRE": 4901,
            "ina.": 4902,
            "▁COVID-19": 4903,
            "▁amer": 4904,
            "ERA": 4905,
            "▁ansiedad": 4906,
            "▁bajar": 4907,
            "xa": 4908,
            "▁Estu": 4909,
            "▁somb": 4910,
            "▁próxima": 4911,
            "▁SOL": 4912,
            "▁América": 4913,
            "chu": 4914,
            "▁presu": 4915,
            "▁vou": 4916,
            "▁asus": 4917,
            "ruz": 4918,
            "IDAD": 4919,
            "▁prác": 4920,
            "▁EE": 4921,
            "▁Tú": 4922,
            "gimen": 4923,
            "▁cielo": 4924,
            "siones": 4925,
            "▁comentarios": 4926,
            "▁Pon": 4927,
            "▁refer": 4928,
            "arn": 4929,
            "▁caus": 4930,
            "ways": 4931,
            "▁advertencia": 4932,
            "▁cumplir": 4933,
            "puestas": 4934,
            "cular": 4935,
            "▁piensa": 4936,
            "gué": 4937,
            "▁que,": 4938,
            "▁Ri": 4939,
            "▁dul": 4940,
            "▁palo": 4941,
            "▁dices": 4942,
            "▁Tal": 4943,
            "▁octubre": 4944,
            "timos": 4945,
            "mate": 4946,
            "▁mía": 4947,
            "▁emer": 4948,
            "▁à": 4949,
            "cera": 4950,
            "▁salga": 4951,
            "BL": 4952,
            "▁Recuer": 4953,
            "▁Fue": 4954,
            "cita": 4955,
            "truir": 4956,
            "▁casa.": 4957,
            "▁60": 4958,
            "talia": 4959,
            "▁Bu": 4960,
            "▁VEN": 4961,
            "▁podes": 4962,
            "▁TV": 4963,
            "olos": 4964,
            "▁huevo": 4965,
            "▁usa": 4966,
            "▁estren": 4967,
            "ense": 4968,
            "▁fondo": 4969,
            "▁first": 4970,
            "▁hospital": 4971,
            "▁29": 4972,
            "ines": 4973,
            "▁curso": 4974,
            "▁María": 4975,
            "remos": 4976,
            "ñe": 4977,
            "▁épo": 4978,
            "▁amista": 4979,
            "ww": 4980,
            "mel": 4981,
            "hoto": 4982,
            "▁muito": 4983,
            "▁conseguir": 4984,
            "▁inicio": 4985,
            "▁100%": 4986,
            "teros": 4987,
            "fra": 4988,
            "lada": 4989,
            "han": 4990,
            "▁distancia": 4991,
            "▁contrario": 4992,
            "ctura": 4993,
            "▁responsabilidad": 4994,
            "▁patr": 4995,
            "cons": 4996,
            "▁funda": 4997,
            "AC": 4998,
            "mita": 4999,
            "▁diario": 5000,
            "▁ingres": 5001,
            "▁declara": 5002,
            "▁capaz": 5003,
            "▁ko": 5004,
            "pes": 5005,
            "▁genial": 5006,
            "wa": 5007,
            "▁éxito": 5008,
            "▁paja": 5009,
            "▁\"a": 5010,
            "▁despues": 5011,
            "▁crimin": 5012,
            "xt": 5013,
            "▁Salud": 5014,
            "cate": 5015,
            "▁sangre": 5016,
            "▁tapada": 5017,
            "UM": 5018,
            "HH": 5019,
            "▁escuchando": 5020,
            "▁arco": 5021,
            "▁sexual": 5022,
            "ical": 5023,
            "▁recuper": 5024,
            "rero": 5025,
            "▁deten": 5026,
            "cionales": 5027,
            "▁mantener": 5028,
            "ou": 5029,
            "▁dem": 5030,
            "▁masa": 5031,
            "▁solici": 5032,
            "▁Vic": 5033,
            "tes.": 5034,
            "▁últimas": 5035,
            "▁quede": 5036,
            "▁ber": 5037,
            "▁cargo": 5038,
            "▁never": 5039,
            "dilla": 5040,
            "▁info": 5041,
            "▁estaban": 5042,
            "▁nove": 5043,
            "timo": 5044,
            "▁modo": 5045,
            "▁provin": 5046,
            "▁PRE": 5047,
            "▁Vos": 5048,
            "▁ná": 5049,
            "vez": 5050,
            "fff": 5051,
            "▁llego": 5052,
            "▁cic": 5053,
            "▁Cono": 5054,
            "▁estaría": 5055,
            "rán": 5056,
            "erva": 5057,
            "ández": 5058,
            "▁servicios": 5059,
            "uros": 5060,
            "▁tenia": 5061,
            "▁Estos": 5062,
            "▁Además": 5063,
            "▁podía": 5064,
            "▁suficiente": 5065,
            "▁fans": 5066,
            "▁alco": 5067,
            "▁CAM": 5068,
            "▁septiembre": 5069,
            "▁constitu": 5070,
            "▁vista": 5071,
            "juliantina": 5072,
            "▁chocola": 5073,
            "▁Entonces": 5074,
            "▁gener": 5075,
            "aban": 5076,
            "▁besando": 5077,
            "estión": 5078,
            "▁segura": 5079,
            "▁after": 5080,
            "taba": 5081,
            "▁denuncia": 5082,
            "▁into": 5083,
            "▁playa": 5084,
            "▁4.": 5085,
            "ari": 5086,
            "▁adop": 5087,
            "▁Gre": 5088,
            "▁unfollow": 5089,
            "món": 5090,
            "▁VO": 5091,
            "EST": 5092,
            "▁tiro": 5093,
            "tw": 5094,
            "▁siguiente": 5095,
            "ismo.": 5096,
            "ards": 5097,
            "▁Sus": 5098,
            "▁HOY": 5099,
            "▁actu": 5100,
            "▁proba": 5101,
            "dri": 5102,
            "▁acab": 5103,
            "▁caca": 5104,
            "mé": 5105,
            "▁MÁS": 5106,
            "▁Bra": 5107,
            "▁jaja.": 5108,
            "▁AMLO": 5109,
            "▁Ima": 5110,
            "▁viva": 5111,
            "▁COR": 5112,
            "▁proceso": 5113,
            "▁equipos": 5114,
            "▁abrir": 5115,
            "▁Pin": 5116,
            "6.": 5117,
            "▁stan": 5118,
            "ded": 5119,
            "▁sensa": 5120,
            "clus": 5121,
            "is,": 5122,
            "▁propio": 5123,
            "▁game": 5124,
            "▁caga": 5125,
            "▁decepcionada": 5126,
            "p:": 5127,
            "▁present": 5128,
            "▁PE": 5129,
            "▁jóvenes": 5130,
            "▁dudas": 5131,
            "uesta": 5132,
            "▁mayo": 5133,
            "icara": 5134,
            "RU": 5135,
            "▁prohib": 5136,
            "▁NA": 5137,
            "JJA": 5138,
            "▁altavoz": 5139,
            "k.": 5140,
            "igo": 5141,
            "▁jornada": 5142,
            "▁lleno": 5143,
            "matic": 5144,
            "▁Tiene": 5145,
            "▁oro": 5146,
            "kook": 5147,
            "▁destru": 5148,
            "▁cantidad": 5149,
            "▁disco": 5150,
            "▁brind": 5151,
            "▁escon": 5152,
            "▁decisión": 5153,
            "lé": 5154,
            "▁too": 5155,
            "cura": 5156,
            "▁Señor": 5157,
            "▁tirar": 5158,
            "iego": 5159,
            "▁extraña": 5160,
            "▁polit": 5161,
            "▁miércoles": 5162,
            "bio": 5163,
            "A,": 5164,
            "▁todos.": 5165,
            "▁apoyar": 5166,
            "dena": 5167,
            "▁huel": 5168,
            "▁preten": 5169,
            "icó": 5170,
            "ismo,": 5171,
            "▁¡M": 5172,
            "▁maravillos": 5173,
            "▁dign": 5174,
            "▁feste": 5175,
            "iana": 5176,
            "mula": 5177,
            "▁fracas": 5178,
            "▁Martín": 5179,
            "▁economía": 5180,
            "▁goles": 5181,
            "▁Pedro": 5182,
            "▁spo": 5183,
            "▁moral": 5184,
            "▁esperanza": 5185,
            "▁pidiendo": 5186,
            "▁abierta": 5187,
            "▁mínimo": 5188,
            "▁carajo": 5189,
            "▁Of": 5190,
            "eco": 5191,
            "▁fiscal": 5192,
            "KA": 5193,
            "hs": 5194,
            "so,": 5195,
            "▁mier": 5196,
            "▁leche": 5197,
            "▁bos": 5198,
            "ísima": 5199,
            "▁look": 5200,
            "▁Somos": 5201,
            "▁\"@usuario:": 5202,
            "▁mal,": 5203,
            "▁trabajadores": 5204,
            "▁tocar": 5205,
            "ney": 5206,
            "▁NI": 5207,
            "▁estorn": 5208,
            "fu": 5209,
            "▁organiza": 5210,
            "▁sui": 5211,
            "mn": 5212,
            "▁siga": 5213,
            "▁Sh": 5214,
            "▁AB": 5215,
            "on,": 5216,
            "▁EEUU": 5217,
            "▁\"Es": 5218,
            "▁jajaj": 5219,
            "▁enfr": 5220,
            "▁dibu": 5221,
            "▁dedos": 5222,
            "Que": 5223,
            "pó": 5224,
            "▁sel": 5225,
            "test": 5226,
            "tter": 5227,
            "▁tantos": 5228,
            "▁gén": 5229,
            "orar": 5230,
            "▁popular": 5231,
            "▁incluso": 5232,
            "▁Escu": 5233,
            "▁frustra": 5234,
            "▁desarrollo": 5235,
            "idad.": 5236,
            "▁dura": 5237,
            "▁triun": 5238,
            "zo,": 5239,
            "▁vin": 5240,
            "▁mtvlaf": 5241,
            "▁puerta": 5242,
            "ivo": 5243,
            "tiene": 5244,
            "gular": 5245,
            "▁Gol": 5246,
            "udando": 5247,
            "erno": 5248,
            "▁penal": 5249,
            "ciembre": 5250,
            "▁estados": 5251,
            "on.": 5252,
            "▁Miguel": 5253,
            "▁mul": 5254,
            "▁base": 5255,
            "cente": 5256,
            "▁neu": 5257,
            "dón": 5258,
            "▁médica": 5259,
            "▁pública": 5260,
            "mada": 5261,
            "▁MAN": 5262,
            "▁varias": 5263,
            "illas": 5264,
            "▁Otro": 5265,
            "gosto": 5266,
            "▁vote": 5267,
            "yó": 5268,
            "▁Otra": 5269,
            "▁muchísimo": 5270,
            "pir": 5271,
            "▁equivo": 5272,
            "▁PRI": 5273,
            "DER": 5274,
            "▁clara": 5275,
            "isco": 5276,
            "PM": 5277,
            "ush": 5278,
            "▁defien": 5279,
            "▁basta": 5280,
            "▁asis": 5281,
            "▁¿D": 5282,
            "▁condu": 5283,
            "k,": 5284,
            "▁muero": 5285,
            "▁vent": 5286,
            "▁explicar": 5287,
            "▁bio": 5288,
            "media": 5289,
            "capa": 5290,
            "▁venga": 5291,
            "pl": 5292,
            "▁imb": 5293,
            "▁baj": 5294,
            "9.": 5295,
            "▁¡C": 5296,
            "▁días,": 5297,
            "▁marzo": 5298,
            "▁Cla": 5299,
            "▁LL": 5300,
            "▁gobier": 5301,
            "▁Macri": 5302,
            "▁hal": 5303,
            "en,": 5304,
            "▁vender": 5305,
            "▁prueba": 5306,
            "▁diciembre": 5307,
            "▁big": 5308,
            "oluta": 5309,
            "ce.": 5310,
            "▁cerrar": 5311,
            "▁SON": 5312,
            "▁apl": 5313,
            "▁Parece": 5314,
            "ditos": 5315,
            "▁animal": 5316,
            "tui": 5317,
            "▁conozco": 5318,
            "▁cuento": 5319,
            "gs": 5320,
            "▁hablo": 5321,
            "EMOS": 5322,
            "ful": 5323,
            "▁home": 5324,
            "ple": 5325,
            "VI": 5326,
            "▁reír": 5327,
            "▁tes": 5328,
            "▁BU": 5329,
            "n't": 5330,
            "▁realiz": 5331,
            "mentable": 5332,
            "▁ador": 5333,
            "▁enor": 5334,
            "▁paga": 5335,
            "▁mata": 5336,
            "▁Ahí": 5337,
            "▁¡G": 5338,
            "jus": 5339,
            "▁TAN": 5340,
            "dicos": 5341,
            "▁conte": 5342,
            "mx": 5343,
            "icanos": 5344,
            "▁estará": 5345,
            "▁barrio": 5346,
            "▁verte": 5347,
            "▁proces": 5348,
            "▁esto,": 5349,
            "▁seguimos": 5350,
            "segu": 5351,
            "▁essa": 5352,
            "useas": 5353,
            "▁termine": 5354,
            "▁dijeron": 5355,
            "▁Com": 5356,
            "▁GO": 5357,
            "▁bille": 5358,
            "TEN": 5359,
            "▁brindando": 5360,
            "▁narco": 5361,
            "?\"": 5362,
            "▁actitu": 5363,
            "▁gh": 5364,
            "▁If": 5365,
            "oogle": 5366,
            "▁bri": 5367,
            "▁echar": 5368,
            "ign": 5369,
            "▁calles": 5370,
            "▁manten": 5371,
            "▁recién": 5372,
            "▁resop": 5373,
            "TOS": 5374,
            "▁Rey": 5375,
            "▁els": 5376,
            "▁Jue": 5377,
            "▁propia": 5378,
            "se.": 5379,
            "▁Acabo": 5380,
            "▁clar": 5381,
            "▁resoplando": 5382,
            "▁online": 5383,
            "cy": 5384,
            "hhh": 5385,
            "▁derro": 5386,
            "▁siesta": 5387,
            "▁raro": 5388,
            "en.": 5389,
            "▁símbolos": 5390,
            "fan": 5391,
            "dedor": 5392,
            "▁preci": 5393,
            "row": 5394,
            "▁lol": 5395,
            "▁compren": 5396,
            "▁still": 5397,
            "▁mediana": 5398,
            "arma": 5399,
            "▁MAD": 5400,
            "itaria": 5401,
            "ería": 5402,
            "▁Final": 5403,
            "ders": 5404,
            "ardo": 5405,
            "ene": 5406,
            "▁bebida": 5407,
            "▁cerebro": 5408,
            "▁espal": 5409,
            "era,": 5410,
            "▁uni": 5411,
            "is.": 5412,
            "▁porfa": 5413,
            "▁salida": 5414,
            "iversario": 5415,
            "▁resultado": 5416,
            "lez": 5417,
            "▁incen": 5418,
            "▁náuseas": 5419,
            "▁Mir": 5420,
            "▁bbmas": 5421,
            "▁ofen": 5422,
            "▁apenas": 5423,
            "ENA": 5424,
            "xi": 5425,
            "▁visit": 5426,
            "bran": 5427,
            "icular": 5428,
            "▁Será": 5429,
            "▁publi": 5430,
            "D.": 5431,
            "orado": 5432,
            "▁mercado": 5433,
            "▁totalmente": 5434,
            "rida": 5435,
            "▁mach": 5436,
            "▁desta": 5437,
            "▁familias": 5438,
            "vidades": 5439,
            "▁piz": 5440,
            "▁won": 5441,
            "▁negocio": 5442,
            "pida": 5443,
            "▁digital": 5444,
            "CK": 5445,
            "▁coche": 5446,
            "fir": 5447,
            "▁Ana": 5448,
            "▁pinche": 5449,
            "▁romper": 5450,
            "vic": 5451,
            "▁concierto": 5452,
            "ORES": 5454,
            "▁70": 5455,
            "▁régimen": 5456,
            "▁Án": 5457,
            "▁Jam": 5458,
            "tillo": 5459,
            "▁memoria": 5460,
            "mo,": 5461,
            "▁bomba": 5462,
            "▁pobres": 5463,
            "keting": 5464,
            "inar": 5465,
            "olina": 5466,
            "▁mundo,": 5467,
            "▁CAS": 5468,
            "ITO": 5469,
            "▁robo": 5470,
            "▁colombi": 5471,
            "mpa": 5472,
            "▁entrada": 5473,
            "▁Felicidades": 5474,
            "▁comentario": 5475,
            "▁gay": 5476,
            "▁ejerci": 5477,
            "▁campo": 5478,
            "tida": 5479,
            "endario": 5480,
            "▁pago": 5481,
            "▁toque": 5482,
            "▁ene": 5484,
            "▁repar": 5485,
            "▁saludando": 5486,
            "▁novi": 5487,
            "▁duro": 5488,
            "▁mete": 5489,
            "▁puro": 5490,
            "▁riesgo": 5491,
            "trado": 5492,
            "▁vayan": 5493,
            "tres": 5494,
            "▁hola": 5495,
            "▁recuerda": 5496,
            "▁stop": 5497,
            "▁ganó": 5498,
            "▁represent": 5499,
            "▁cancha": 5500,
            "▁titular": 5501,
            "▁bote": 5502,
            "▁elector": 5503,
            "▁reloj": 5504,
            "▁Excelente": 5505,
            "▁Nueva": 5506,
            "▁RES": 5507,
            "*.": 5508,
            "▁hacía": 5509,
            "idad,": 5510,
            "▁explotando": 5511,
            "▁allí": 5512,
            "▁mesa": 5513,
            "▁Algun": 5514,
            "▁esfuerzo": 5515,
            "▁aur": 5516,
            "vios": 5517,
            "▁TI": 5518,
            "▁así.": 5519,
            "▁perdido": 5520,
            "urs": 5521,
            "▁pil": 5522,
            "▁2017": 5523,
            "gentes": 5524,
            "▁ras": 5525,
            "▁clás": 5526,
            "▁Esper": 5527,
            "▁bás": 5528,
            "istas,": 5529,
            "viada": 5530,
            "▁mentira": 5531,
            "▁cariño": 5532,
            "pri": 5533,
            "ribe": 5534,
            "▁\"I": 5535,
            "▁ando": 5536,
            "EMP": 5537,
            "▁Bor": 5538,
            "▁muestra": 5539,
            "iti": 5540,
            "jue": 5541,
            "▁enc": 5542,
            "▁opción": 5543,
            "tumb": 5544,
            "▁abuela": 5545,
            "itor": 5546,
            "▁teclas": 5547,
            "▁Liber": 5548,
            "▁Interna": 5549,
            "cian": 5550,
            "▁embar": 5551,
            "▁quin": 5552,
            "viendo": 5553,
            "▁deberían": 5554,
            "▁Dos": 5555,
            "▁Donde": 5556,
            "FA": 5557,
            "▁ching": 5558,
            "▁diferentes": 5559,
            "▁desay": 5560,
            "▁micró": 5561,
            "▁MAL": 5562,
            "mendo": 5563,
            "genes": 5564,
            "▁were": 5565,
            "▁entrega": 5566,
            "▁grave": 5567,
            "▁\"no": 5568,
            "▁goberna": 5569,
            "▁¡P": 5570,
            "brero": 5571,
            "esa": 5572,
            "cada": 5573,
            "▁Ama": 5574,
            "dremos": 5575,
            "▁tarta": 5576,
            "▁realizar": 5577,
            "▁responder": 5578,
            "so.": 5579,
            "▁brasil": 5580,
            "▁crees": 5581,
            "▁vecinos": 5582,
            "▁histór": 5583,
            "▁anto": 5584,
            "tás": 5585,
            "▁IS": 5586,
            "ciona": 5587,
            "▁Anton": 5588,
            "▁js": 5589,
            "▁right": 5590,
            "▁simplemente": 5591,
            "▁Era": 5592,
            "▁yo,": 5593,
            "▁CD": 5594,
            "▁placer": 5595,
            "▁pie": 5596,
            "▁verdad,": 5597,
            "▁Cer": 5598,
            "▁racis": 5599,
            "mio": 5600,
            "tagon": 5601,
            "▁bella": 5602,
            "zás": 5603,
            "▁wan": 5604,
            "▁serán": 5605,
            "▁interesante": 5606,
            "▁Mus": 5607,
            "▁descon": 5608,
            "▁Sos": 5609,
            "▁Sólo": 5610,
            "kin": 5611,
            "rita": 5612,
            "▁empren": 5613,
            "▁mostrando": 5614,
            "▁ot": 5615,
            "▁famos": 5616,
            "▁pegar": 5617,
            "QUI": 5618,
            "drá": 5619,
            "▁banco": 5620,
            "▁\"N": 5621,
            "mg": 5622,
            "tales": 5623,
            "ilo": 5624,
            "▁Extra": 5625,
            "▁eta": 5626,
            "quina": 5627,
            "▁asegu": 5628,
            "jd": 5629,
            "Tu": 5630,
            "xto": 5631,
            "▁pied": 5632,
            "dría": 5633,
            "▁Gonz": 5634,
            "▁Hol": 5635,
            "▁alum": 5636,
            "▁estudiantes": 5637,
            "▁@usuario!": 5638,
            "▁Amer": 5639,
            "▁ile": 5640,
            "▁bl": 5641,
            "ILL": 5642,
            "ela": 5643,
            "▁neg": 5644,
            "▁sha": 5645,
            "▁pesos": 5646,
            "▁parar": 5647,
            "▁chico": 5648,
            "▁cuándo": 5649,
            "los.": 5650,
            "▁tudo": 5651,
            "mo.": 5652,
            "▁discul": 5653,
            "▁vuelvo": 5654,
            "todo": 5655,
            "▁ai": 5656,
            "▁var": 5657,
            "▁General": 5658,
            "▁pudo": 5659,
            "▁objetivo": 5660,
            "fon": 5661,
            "▁Sor": 5662,
            "▁Nuevo": 5663,
            "gin": 5664,
            "▁Av": 5665,
            "quita": 5666,
            "▁heart": 5667,
            "▁spe": 5668,
            "▁Estas": 5669,
            "ráqueo": 5670,
            "▁calendario": 5671,
            "elli": 5672,
            "▁fres": 5673,
            "▁alre": 5674,
            "bor": 5675,
            "▁estrate": 5676,
            "8.": 5677,
            "BER": 5678,
            "▁saludos": 5679,
            "eratura": 5681,
            "▁Catal": 5682,
            "▁Asi": 5683,
            "▁finan": 5684,
            "▁amor,": 5685,
            "▁papa": 5686,
            "▁votos": 5687,
            "▁acciones": 5688,
            "▁MIS": 5689,
            "▁sua": 5690,
            "▁cár": 5691,
            "p.": 5692,
            "ionales": 5693,
            "▁interesa": 5694,
            "▁humil": 5695,
            "▁ela": 5696,
            "▁esto.": 5697,
            "▁entiende": 5698,
            "▁vidas": 5699,
            "▁belle": 5700,
            "tive": 5701,
            "▁domin": 5702,
            "HAHAHAHA": 5703,
            "u.": 5704,
            "▁debemos": 5705,
            "▁ass": 5706,
            "▁HER": 5707,
            "▁parecer": 5708,
            "ady": 5709,
            "▁julio": 5710,
            "▁precios": 5711,
            "▁pocos": 5712,
            "▁cn": 5713,
            "▁¡V": 5714,
            "▁;)": 5715,
            "▁frase": 5716,
            "▁desas": 5717,
            "▁Cul": 5718,
            "▁OF": 5719,
            "▁Bon": 5720,
            "▁huevos": 5721,
            "icaragua": 5722,
            "uma": 5723,
            "▁Hos": 5724,
            "▁Copa": 5725,
            "▁país,": 5726,
            "ttp:": 5727,
            "▁cuarto": 5728,
            "era.": 5729,
            "▁RO": 5730,
            "vie": 5731,
            "tora": 5732,
            "▁mexico": 5733,
            "▁micrófono": 5734,
            "▁Gab": 5735,
            "▁mejorar": 5736,
            "▁Mara": 5737,
            "▁ciudadanos": 5738,
            "%.": 5739,
            "▁selector": 5740,
            "ivia": 5741,
            "mmm": 5742,
            "úa": 5743,
            "▁hahaha": 5744,
            "▁existen": 5745,
            "los,": 5746,
            "▁llegan": 5747,
            "▁nem": 5748,
            "fes": 5749,
            "ttp://": 5750,
            "▁sorpres": 5751,
            "ZA": 5752,
            "▁deman": 5753,
            "▁going": 5754,
            "vier": 5755,
            "▁pega": 5756,
            "ba.": 5757,
            "▁Unidos": 5758,
            "▁TRA": 5759,
            "▁quieras": 5760,
            "▁GRACIAS": 5761,
            "tividad": 5762,
            "▁FIN": 5763,
            "▁estornudando": 5764,
            "▁juegos": 5765,
            "▁madru": 5766,
            "▁Centro": 5767,
            "buena": 5768,
            "▁fron": 5769,
            "▁Cent": 5770,
            "▁crack": 5771,
            "▁pija": 5772,
            "dro": 5773,
            "▁Jorge": 5774,
            "▁aliviada": 5775,
            "▁mio": 5776,
            "▁honor": 5777,
            "▁resultados": 5778,
            "▁torn": 5779,
            "▁viento": 5780,
            "▁felices": 5781,
            "▁versión": 5782,
            "▁NOS": 5783,
            "▁terráqueo": 5784,
            "▁anoche": 5785,
            "▁rece": 5786,
            "▁chiste": 5787,
            "▁tomando": 5788,
            "▁Fuer": 5789,
            "▁ino": 5790,
            "quilla": 5791,
            "▁compañeros": 5792,
            "ana,": 5793,
            "▁comba": 5794,
            "▁personaje": 5795,
            "▁teniendo": 5796,
            "▁had": 5797,
            "acto": 5798,
            "▁being": 5799,
            "▁pudi": 5800,
            "▁revolu": 5801,
            "eas": 5802,
            "▁saque": 5803,
            "grafía": 5804,
            "▁salvar": 5805,
            "▁alcohol": 5806,
            "▁juz": 5807,
            "matically": 5808,
            "SI": 5809,
            "▁continu": 5810,
            "▁gos": 5811,
            "▁siempre.": 5812,
            "CHO": 5813,
            "▁es,": 5814,
            "zon": 5815,
            "▁llevan": 5816,
            "▁Ur": 5817,
            "▁Az": 5818,
            "▁Plan": 5819,
            "▁enca": 5820,
            "▁baño": 5821,
            "▁always": 5822,
            "▁checked": 5823,
            "▁menor": 5824,
            "▁energía": 5825,
            "▁His": 5826,
            "▁FU": 5827,
            "▁verlo": 5828,
            "▁mag": 5829,
            "▁estadio": 5830,
            "estival": 5831,
            "▁viven": 5832,
            "▁cocina": 5833,
            "▁cumpli": 5834,
            "▁avi": 5835,
            "▁gotas": 5836,
            "fans": 5837,
            "▁ideas": 5838,
            "▁episo": 5839,
            "▁FAV": 5840,
            "▁automatically": 5841,
            "▁XD": 5842,
            "▁SIN": 5843,
            "▁Wo": 5844,
            "▁imagino": 5845,
            "▁1,": 5846,
            "lle": 5847,
            "▁Sí,": 5848,
            "tería": 5849,
            "S.": 5850,
            "▁Pens": 5851,
            "▁Netflix": 5852,
            "▁bolsa": 5853,
            "▁recursos": 5854,
            "tré": 5855,
            "▁compe": 5856,
            "▁FEL": 5857,
            "▁perfecto": 5858,
            "▁31": 5859,
            "▁twit": 5860,
            "▁Corona": 5861,
            "jero": 5862,
            "tto": 5863,
            "▁reto": 5864,
            "▁queria": 5865,
            "od": 5866,
            "▁cate": 5867,
            "▁Pan": 5868,
            "▁pendeja": 5869,
            "ncia": 5870,
            "▁multi": 5871,
            "logo": 5872,
            "ALL": 5873,
            "quin": 5874,
            "▁it's": 5875,
            "▁besos": 5876,
            "▁odi": 5877,
            "▁común": 5878,
            "glés": 5879,
            "▁(?)": 5880,
            "▁zapa": 5881,
            "▁stu": 5882,
            "▁NE": 5883,
            "▁¡B": 5884,
            "pin": 5885,
            "ben": 5886,
            "▁km": 5887,
            "▁preguntas": 5888,
            "▁cuál": 5889,
            "▁All": 5890,
            "--": 5891,
            "▁hogar": 5892,
            "▁listo": 5893,
            "▁supera": 5894,
            "▁celebrar": 5895,
            "▁please": 5896,
            "▁EU": 5897,
            "▁obliga": 5898,
            "▁muerto": 5899,
            "▁obras": 5900,
            "álisis": 5901,
            "▁Perú": 5902,
            ".0": 5903,
            "▁years": 5904,
            "▁neta": 5905,
            "mas,": 5906,
            "▁joda": 5907,
            "hn": 5908,
            "▁comb": 5909,
            "ce,": 5910,
            "▁free": 5911,
            "▁fru": 5912,
            "▁necesitan": 5913,
            "▁http://": 5914,
            "ADOS": 5915,
            "▁Ley": 5916,
            "▁medal": 5917,
            "ducción": 5918,
            "▁Van": 5919,
            "▁crear": 5920,
            "▁películas": 5921,
            "igan": 5922,
            "▁robar": 5923,
            "dor,": 5924,
            "▁afu": 5925,
            "▁perros": 5926,
            "▁patria": 5927,
            "▁encuentra": 5928,
            "▁arma": 5929,
            "▁down": 5930,
            "▁rock": 5931,
            "u,": 5932,
            "▁why": 5933,
            "▁hubo": 5934,
            "bit": 5935,
            "▁página": 5936,
            "le.": 5937,
            "▁redon": 5938,
            "▁miss": 5939,
            "▁vuelva": 5940,
            "▁Total": 5941,
            "▁Igles": 5942,
            "eliz": 5943,
            "ÁN": 5944,
            "▁confianza": 5945,
            "tario": 5947,
            "▁work": 5948,
            "▁Fin": 5949,
            "▁today": 5950,
            "▁primeros": 5951,
            "idas": 5952,
            "▁alegría": 5953,
            "▁TIEN": 5954,
            "▁grupos": 5955,
            "ing.": 5956,
            "▁DO": 5957,
            "▁\"B": 5958,
            "▁Cual": 5959,
            "▁Flor": 5960,
            "ana.": 5961,
            "▁River": 5962,
            "pareja": 5963,
            "▁completo": 5964,
            "▁Sen": 5965,
            "▁hol": 5966,
            "▁hagas": 5967,
            "▁tiempo.": 5968,
            "▁Deja": 5969,
            "ibles": 5970,
            "▁elegir": 5971,
            "▁veh": 5972,
            "dor.": 5973,
            "ecuen": 5974,
            "▁gestión": 5975,
            "▁inclu": 5976,
            "▁Guar": 5977,
            "▁detrás": 5978,
            "▁hacerme": 5979,
            "▁complica": 5980,
            "▁Congreso": 5981,
            "▁sat": 5982,
            "▁tin": 5983,
            "▁cita": 5984,
            "▁grá": 5985,
            "▁capacidad": 5986,
            "enar": 5987,
            "DES": 5988,
            "leta": 5989,
            "▁tira": 5990,
            "▁vul": 5991,
            "land": 5992,
            "▁pinta": 5993,
            "▁ó": 5994,
            "se,": 5995,
            "▁ladr": 5996,
            "ché": 5997,
            "▁JAJAJAJAJAJA": 5998,
            "▁CL": 5999,
            "▁Esc": 6000,
            "▁Constitu": 6001,
            "▁trá": 6002,
            "▁Mundial": 6003,
            "▁exo": 6004,
            "▁borra": 6005,
            "ble,": 6006,
            "▁watch": 6007,
            "▁tiempo,": 6008,
            "▁bara": 6009,
            "▁Estados": 6010,
            "dela": 6011,
            "▁م": 6012,
            "▁montón": 6013,
            "▁caí": 6014,
            "▁medic": 6015,
            "▁VA": 6016,
            "▁empa": 6017,
            "▁champ": 6018,
            "▁sing": 6019,
            "bin": 6020,
            "▁does": 6021,
            "▁sem": 6022,
            "▁artículo": 6023,
            "▁should": 6024,
            "▁favorito": 6025,
            "▁recupera": 6026,
            "▁sigan": 6027,
            "▁periodista": 6028,
            "▁tol": 6029,
            "▁puedan": 6030,
            "▁Univer": 6031,
            "▁intentar": 6032,
            "▁Domingo": 6033,
            "▁suena": 6034,
            "le,": 6035,
            "▁estilo": 6036,
            "▁cárcel": 6037,
            "▁inici": 6038,
            "▁tru": 6039,
            "▁bailar": 6040,
            "self": 6041,
            "▁AY": 6042,
            "▁rin": 6043,
            "▁baby": 6044,
            "▁ESTE": 6045,
            "▁could": 6046,
            "thday": 6047,
            "gracia": 6048,
            "▁prima": 6049,
            "▁wey": 6050,
            "▁Bla": 6051,
            "▁CAN": 6052,
            "▁interés": 6053,
            "▁pude": 6054,
            "ando.": 6055,
            "▁junio": 6056,
            "▁bronca": 6057,
            "▁agora": 6058,
            "yna": 6059,
            "▁Tenemos": 6060,
            "iler": 6061,
            "▁publica": 6062,
            "▁eter": 6063,
            "▁ecuador": 6064,
            "▁campeón": 6065,
            "▁followed": 6066,
            "▁tratar": 6067,
            "tique": 6068,
            "▁acompaña": 6069,
            "▁haz": 6070,
            "▁micro": 6071,
            "▁ciudadan": 6072,
            "▁estupi": 6073,
            "tec": 6074,
            "▁época": 6075,
            "▁recomenda": 6076,
            "ustria": 6077,
            "▁500": 6078,
            "▁propon": 6079,
            "▁favor,": 6080,
            "▁ara": 6081,
            "▁administra": 6082,
            "▁selección": 6083,
            "▁agen": 6084,
            "tus": 6085,
            "▁mismo.": 6086,
            "▁Ka": 6087,
            "tadores": 6088,
            "▁sala": 6089,
            "dent": 6090,
            "JAJAJAJAJAJAJAJA": 6091,
            "ars": 6092,
            "rs": 6093,
            "▁ST": 6094,
            "olog": 6095,
            "ork": 6096,
            "▁Sigue": 6097,
            "▁\"Y": 6098,
            "▁absoluta": 6099,
            "▁Ella": 6100,
            "ife": 6101,
            "▁vea": 6102,
            "▁mal.": 6103,
            "▁Ara": 6104,
            "▁(@usuario)": 6105,
            "dientes": 6106,
            "bri": 6107,
            "▁Sil": 6108,
            "▁hoy.": 6109,
            "▁importantes": 6110,
            "▁ti,": 6111,
            "▁quando": 6112,
            "ts.": 6113,
            "mí": 6114,
            "▁ocas": 6115,
            "▁pura": 6116,
            "▁OM": 6117,
            "cán": 6118,
            "▁Alberto": 6119,
            "▁fazer": 6121,
            "udas": 6122,
            "▁resta": 6123,
            "▁llamado": 6124,
            "▁tendrá": 6125,
            "quero": 6126,
            "lento": 6127,
            "▁Fi": 6128,
            "meros": 6129,
            "luen": 6130,
            "fia": 6131,
            "▁sera": 6132,
            "▁acon": 6133,
            "▁ig": 6134,
            "▁acco": 6135,
            "▁Dale": 6136,
            "▁Nuestro": 6137,
            "eria": 6138,
            "▁cantar": 6139,
            "▁quem": 6140,
            "CHA": 6141,
            "▁mtvlapareja": 6142,
            "▁Vol": 6143,
            "▁¡T": 6144,
            "▁sou": 6145,
            "isas": 6146,
            "▁días.": 6147,
            "teando": 6148,
            "fin": 6149,
            "▁Vaya": 6150,
            "CER": 6151,
            "▁Yo:": 6152,
            "jado": 6153,
            "▁pregunto": 6154,
            "▁europe": 6155,
            "tian": 6156,
            "▁Acá": 6157,
            "▁hdp": 6158,
            "▁mia": 6159,
            "▁Algo": 6160,
            "▁Tre": 6161,
            "▁flo": 6162,
            "▁periodistas": 6163,
            "▁tour": 6164,
            "istemo": 6165,
            "▁DA": 6166,
            "▁gobern": 6167,
            "▁link": 6168,
            "▁estú": 6169,
            "▁YOU": 6170,
            "sor": 6171,
            "▁clave": 6172,
            "SA": 6173,
            "Qué": 6174,
            "venida": 6175,
            "▁Menos": 6176,
            "ço": 6177,
            "▁tuyo": 6178,
            "▁adul": 6179,
            "icos,": 6180,
            "▁cd": 6181,
            "▁Thank": 6182,
            "mpre": 6183,
            "▁levantar": 6184,
            "▁Villa": 6185,
            "▁Odio": 6186,
            "aram": 6187,
            "▁nega": 6188,
            "▁chicas": 6189,
            "▁mensajes": 6190,
            "▁China": 6191,
            "▁sopor": 6192,
            "▁hones": 6193,
            "▁solidar": 6194,
            "▁reli": 6195,
            "▁Hermos": 6196,
            "▁irme": 6197,
            "jo,": 6198,
            "ándome": 6199,
            "back": 6200,
            "eep": 6201,
            "▁army": 6202,
            "▁rica": 6203,
            "▁Deber": 6204,
            "▁consecuen": 6205,
            "ges": 6206,
            "▁mirando": 6207,
            "▁metro": 6208,
            "eci": 6209,
            "▁mentiras": 6210,
            "mica": 6211,
            "aso": 6212,
            "ioso": 6213,
            "▁todos,": 6214,
            "▁preciosa": 6215,
            "▁difun": 6216,
            "▁minuto": 6217,
            "▁há": 6218,
            "▁verdadero": 6219,
            "▁confirma": 6220,
            "bs": 6221,
            "▁quedate": 6222,
            "▁población": 6223,
            "▁Ol": 6224,
            "▁hiciste": 6225,
            "dere": 6226,
            "▁IMP": 6227,
            "▁aparece": 6228,
            "ónica": 6229,
            "▁prefer": 6230,
            "▁cami": 6231,
            "▁Antes": 6232,
            "▁tenés": 6233,
            "▁shit": 6234,
            "guez": 6235,
            "▁terrible": 6236,
            "▁emergencia": 6237,
            "▁5.": 6238,
            "▁digas": 6239,
            "jun": 6240,
            "▁ál": 6241,
            "▁Gente": 6242,
            "▁YouTu": 6243,
            "▁@usuario..": 6244,
            "▁last": 6245,
            "▁Pen": 6246,
            "▁dele": 6247,
            "▁gustó": 6248,
            "órdo": 6249,
            "▁imagina": 6250,
            "▁discu": 6251,
            "▁estén": 6252,
            "▁take": 6253,
            "▁arru": 6254,
            "mágenes": 6255,
            "▁other": 6256,
            "fort": 6257,
            "eso": 6258,
            "▁fol": 6259,
            "▁correr": 6260,
            "mático": 6261,
            "▁llegado": 6262,
            "éro": 6263,
            "▁confun": 6264,
            "▁justif": 6265,
            "▁malas": 6266,
            "▁dedica": 6267,
            "gido": 6268,
            "▁cinco": 6269,
            "HO": 6270,
            "▁Dia": 6271,
            "▁cero": 6272,
            "ando,": 6273,
            "▁realiza": 6274,
            "▁viste": 6275,
            "ándole": 6276,
            "▁médico": 6277,
            "▁Abra": 6278,
            "▁negra": 6279,
            "▁auricular": 6280,
            "▁HI": 6281,
            "▁condiciones": 6282,
            "▁Cl": 6283,
            "&lt;": 6284,
            "▁aaa": 6285,
            "▁carne": 6286,
            "chen": 6287,
            "ident": 6288,
            "ipol": 6289,
            "volución": 6290,
            "gios": 6291,
            "éctr": 6292,
            "íris": 6293,
            "▁ello": 6294,
            "▁Francis": 6295,
            "▁MEN": 6296,
            "▁urgente": 6297,
            "▁ocul": 6298,
            "gotá": 6299,
            "▁siempre,": 6300,
            "ons": 6301,
            "ANTE": 6302,
            "▁tendría": 6303,
            "▁natural": 6304,
            "▁tecnología": 6305,
            "▁elimin": 6306,
            "▁Ste": 6307,
            "▁Just": 6308,
            "▁piso": 6309,
            "▁humano": 6310,
            "tate": 6311,
            "een": 6312,
            "▁perdon": 6313,
            "▁aniversario": 6314,
            "tici": 6315,
            "▁NADA": 6316,
            "▁Pana": 6317,
            "▁vide": 6318,
            "▁hospita": 6319,
            "▁ministro": 6320,
            "alu": 6321,
            "▁ascen": 6322,
            "▁natur": 6323,
            "▁visual": 6324,
            "▁pelotudo": 6325,
            "ALES": 6326,
            "▁reflex": 6327,
            "▁same": 6328,
            "▁plen": 6329,
            "▁correspon": 6330,
            "▁compromiso": 6331,
            "▁porq": 6332,
            "inci": 6333,
            "▁ti.": 6334,
            "▁ao": 6335,
            "tita": 6336,
            "▁Están": 6337,
            "▁oposición": 6338,
            "▁http://URL": 6339,
            "▁camiseta": 6340,
            "▁concep": 6341,
            "▁gracia": 6342,
            "▁arcoíris": 6343,
            "▁venezolanos": 6344,
            "▁Social": 6345,
            "▁etc.": 6346,
            "▁impuestos": 6347,
            "▁comiendo": 6348,
            "rena": 6349,
            "].": 6350,
            "ONA": 6351,
            "ISTA": 6352,
            "▁One": 6353,
            "▁AD": 6354,
            "▁Whats": 6355,
            "▁gente,": 6356,
            "onal": 6357,
            "▁suma": 6358,
            "centes": 6359,
            "▁favorita": 6360,
            "▁said": 6361,
            "▁evento": 6362,
            "▁posibilidad": 6363,
            "▁preguntar": 6364,
            "▁Media": 6365,
            "let": 6366,
            "ella": 6368,
            "▁hac": 6369,
            "▁part": 6370,
            "crá": 6371,
            "OE": 6372,
            "▁funciona": 6373,
            "▁investiga": 6374,
            "▁exac": 6375,
            "icen": 6376,
            "&amp;": 6377,
            "anas": 6378,
            "▁amlo": 6379,
            "▁cuida": 6380,
            "▁acerca": 6381,
            "▁Tur": 6382,
            "▁recibiendo": 6383,
            "▁Cap": 6384,
            "▁jefe": 6385,
            "▁piensan": 6386,
            "ane": 6387,
            "gala": 6388,
            "▁acto": 6389,
            "▁saco": 6390,
            "▁mejor.": 6391,
            "nova": 6392,
            "ito,": 6393,
            "▁(C": 6394,
            "▁neutral": 6395,
            "▁mol": 6396,
            "tube": 6397,
            "▁clima": 6398,
            "▁:D": 6399,
            "▁Vis": 6400,
            "▁detalles": 6401,
            "▁actividades": 6402,
            "▁Vir": 6403,
            "▁afir": 6404,
            "▁Acaba": 6405,
            "▁corte": 6406,
            "▁ofic": 6407,
            "mas.": 6408,
            "ÑO": 6409,
            "▁YouTube": 6410,
            "▁repetir": 6411,
            "ógico": 6412,
            "zo.": 6413,
            "▁fortale": 6414,
            "▁necesitamos": 6415,
            "BLE": 6416,
            "▁pierde": 6417,
            "▁event": 6418,
            "otras": 6419,
            "▁impul": 6420,
            "▁escol": 6421,
            "▁Conse": 6422,
            "▁presentar": 6423,
            "▁Vía": 6424,
            "▁Rus": 6425,
            "▁vícti": 6426,
            "asa": 6427,
            "dimiento": 6428,
            "▁simp": 6429,
            "▁deporte": 6430,
            "▁García": 6431,
            "▁bad": 6432,
            "▁decirle": 6433,
            "▁cua": 6434,
            "▁guste": 6435,
            "▁atre": 6436,
            "▁altura": 6437,
            "▁tarje": 6438,
            "horabuena": 6439,
            "▁comunicación": 6440,
            "torial": 6441,
            "res,": 6442,
            "▁positivo": 6443,
            "▁tío": 6444,
            "▁oc": 6445,
            "▁full": 6446,
            "▁modelo": 6447,
            "▁better": 6448,
            "▁reunión": 6449,
            "▁coño": 6450,
            "▁lanza": 6451,
            "▁motivo": 6452,
            "▁sempre": 6453,
            "▁Club": 6454,
            "▁respecto": 6455,
            "▁plaza": 6456,
            "ueva": 6457,
            "fac": 6458,
            "▁hable": 6459,
            "▁Oye": 6460,
            "▁infec": 6461,
            "▁escucho": 6462,
            "NA": 6463,
            "▁moment": 6464,
            "▁cán": 6465,
            "\":": 6466,
            "é,": 6467,
            "App": 6468,
            "\"...": 6469,
            "▁vosotros": 6470,
            "▁Cá": 6471,
            "MI": 6472,
            "▁voltaje": 6473,
            "▁Dar": 6474,
            "▁photo": 6475,
            "?,": 6476,
            "▁Za": 6477,
            "▁molesta": 6478,
            "udia": 6479,
            "▁most": 6480,
            "C.": 6481,
            "▁Bal": 6482,
            "▁gon": 6483,
            "▁garanti": 6484,
            "▁tweets": 6485,
            "▁univers": 6486,
            "tch": 6487,
            "imina": 6488,
            "▁empleo": 6489,
            "baja": 6490,
            "▁quitar": 6491,
            "ik": 6492,
            "▁queres": 6493,
            "▁ciencia": 6494,
            "▁aud": 6495,
            "▁pode": 6496,
            "▁bebe": 6497,
            "▁pros": 6498,
            "parta": 6499,
            "cter": 6500,
            "red": 6501,
            "▁jeje": 6502,
            "▁cré": 6503,
            "▁logra": 6504,
            "P.": 6505,
            "andro": 6506,
            "cidente": 6507,
            "▁Covid-19": 6508,
            "▁conec": 6509,
            "rique": 6510,
            "JE": 6511,
            "▁\"V": 6512,
            "lón": 6513,
            "▁manip": 6514,
            "▁ESTOY": 6515,
            ",000": 6516,
            "▁2021": 6517,
            "ux": 6518,
            "▁loo": 6519,
            "teca": 6520,
            "▁principal": 6521,
            "jeros": 6522,
            "ante.": 6523,
            "▁Municip": 6524,
            "▁¡H": 6525,
            "▁anterior": 6526,
            "▁quisiera": 6527,
            "▁mostrar": 6528,
            "▁ada": 6529,
            "▁cocin": 6530,
            "▁gustado": 6531,
            "▁examen": 6532,
            "▁ge": 6533,
            "▁salgo": 6534,
            "lip": 6535,
            "Un": 6537,
            "▁pierdas": 6538,
            "▁CR": 6539,
            "▁agosto": 6540,
            "▁abus": 6541,
            "▁discurso": 6542,
            "▁mina": 6543,
            "▁¿Es": 6544,
            "▁Ber": 6545,
            "▁pio": 6546,
            "▁pé": 6547,
            "▁leo": 6548,
            "▁Bro": 6549,
            "ÑOS": 6550,
            "▁Luego": 6551,
            "▁acostumb": 6552,
            "▁piden": 6553,
            "M.": 6554,
            "▁empezó": 6555,
            "▁considera": 6556,
            "▁chav": 6557,
            "▁verdad.": 6558,
            "gol": 6559,
            "▁estable": 6560,
            "▁inglés": 6561,
            "ONES": 6562,
            "ctores": 6563,
            "ets": 6564,
            "er.": 6565,
            "**": 6566,
            "tm": 6567,
            "▁dona": 6568,
            "▁central": 6569,
            "▁reme": 6570,
            "▁mismo,": 6571,
            "quia": 6572,
            "▁sexo": 6573,
            "▁35": 6574,
            "▁Wa": 6575,
            "▁volun": 6576,
            "▁capítulo": 6577,
            "▁hincha": 6578,
            "▁premio": 6579,
            "▁Tar": 6580,
            "▁cuidado": 6581,
            "arlo": 6582,
            "&gt;&gt;&gt;&gt;": 6583,
            "▁faltan": 6584,
            "▁Lor": 6585,
            "amiento": 6586,
            "▁éste": 6587,
            "▁particip": 6588,
            "▁humanos": 6589,
            "▁rombo": 6590,
            "▁PRES": 6591,
            "▁cambios": 6592,
            "▁perman": 6593,
            "▁virtual": 6594,
            "tidos": 6595,
            "▁BE": 6596,
            "▁Ke": 6597,
            "estar": 6598,
            "lab": 6599,
            "▁actividad": 6600,
            "formación": 6601,
            "▁viajar": 6602,
            "isterio": 6603,
            "▁fascis": 6604,
            "▁desastre": 6605,
            "tali": 6606,
            "hab": 6607,
            "▁series": 6608,
            "ógica": 6609,
            "▁mayores": 6610,
            "mania": 6611,
            "▁Comun": 6612,
            "▁conden": 6613,
            "▁LU": 6614,
            "ns": 6615,
            "▁help": 6616,
            "▁record": 6617,
            "▁Imag": 6618,
            "▁ataque": 6619,
            "▁peso": 6620,
            "▁edición": 6621,
            "▁coj": 6622,
            "▁encer": 6623,
            "▁álbum": 6624,
            "▁une": 6625,
            "▁miemb": 6626,
            "▁protagon": 6627,
            "▁nin": 6628,
            "cón": 6629,
            "▁medalla": 6630,
            "BE": 6631,
            "estas": 6632,
            "▁Podemos": 6633,
            "▁tré": 6634,
            "▁permitir": 6635,
            "▁culp": 6636,
            "▁Internacional": 6637,
            "▁の": 6638,
            "tieron": 6639,
            "▁injus": 6640,
            "▁Nicol": 6641,
            "▁perió": 6642,
            "▁enero": 6643,
            "▁(y": 6644,
            "dra": 6645,
            "▁desgracia": 6646,
            "▁hará": 6647,
            "▁Den": 6648,
            "ENDO": 6649,
            "▁solución": 6650,
            "▁extran": 6651,
            "▁GRAN": 6652,
            "▁Manuel": 6653,
            "▁PI": 6654,
            "▁trébol": 6655,
            "▁Temp": 6656,
            "er,": 6657,
            "▁anuncia": 6658,
            "▁mareo": 6659,
            "▁mucho,": 6660,
            "▁diá": 6661,
            "▁debes": 6662,
            "ECES": 6663,
            "rés": 6664,
            "▁Alex": 6665,
            "etas": 6666,
            "/10": 6667,
            "▁importancia": 6668,
            "▁agres": 6669,
            "▁give": 6670,
            "▁aplica": 6671,
            "▁tarea": 6672,
            "▁PUTA": 6673,
            "óme": 6674,
            "GAR": 6675,
            "uuu": 6676,
            "ever": 6677,
            "▁sil": 6678,
            "▁Lit": 6679,
            "▁entera": 6680,
            "▁director": 6681,
            "▁Diego": 6682,
            "mestre": 6683,
            "▁Pobre": 6684,
            "▁dejado": 6685,
            "yos": 6686,
            "lados": 6687,
            "▁Dip": 6688,
            "▁mates": 6689,
            "▁uru": 6690,
            "ive": 6691,
            "tional": 6692,
            "▁acción": 6693,
            "▁!.": 6694,
            "▁env": 6695,
            "ym": 6696,
            "▁FOR": 6697,
            "tará": 6698,
            "▁AAA": 6699,
            "▁Cur": 6700,
            "▁frustración": 6701,
            "▁animales": 6702,
            "▁terri": 6703,
            "▁RA": 6704,
            "▁responsable": 6705,
            "▁SAB": 6706,
            "▁Ali": 6707,
            "▁cantando": 6708,
            "ipe": 6709,
            "dade": 6710,
            "▁ub": 6711,
            "▁cruzados": 6712,
            "▁COL": 6713,
            "didas": 6714,
            "▁Happy": 6715,
            "▁patri": 6716,
            "▁let": 6717,
            "▁HAY": 6718,
            "▁chocolate": 6719,
            "▁pers": 6720,
            "▁Bas": 6721,
            "▁brin": 6722,
            "vile": 6723,
            "▁Seguro": 6724,
            "▁joy": 6725,
            "▁Pé": 6726,
            "▁quieran": 6727,
            "▁Rafa": 6728,
            "▁Chi": 6729,
            "istas.": 6730,
            "uis": 6731,
            "▁Dere": 6732,
            "ath": 6733,
            "▁instagram": 6734,
            "DAS": 6735,
            "▁end": 6736,
            "▁abue": 6737,
            "vaila": 6738,
            "▁Jesús": 6739,
            "joy": 6740,
            "gá": 6741,
            "▁trabajos": 6742,
            "▁horario": 6743,
            "ó,": 6744,
            "▁JU": 6745,
            "▁Ecuador": 6746,
            "▁meta": 6747,
            "▁confusión": 6748,
            "▁cuestion": 6749,
            "▁Antonio": 6750,
            "▁hipo": 6751,
            "anda": 6752,
            "▁costa": 6753,
            "ficio": 6754,
            "its": 6755,
            "bos": 6756,
            "▁Guer": 6757,
            "▁belleza": 6758,
            "▁Liga": 6759,
            "▁sube": 6760,
            "▁reno": 6761,
            "▁lá": 6762,
            "▁2016": 6763,
            "▁perten": 6764,
            "▁poniendo": 6765,
            "▁dedic": 6766,
            "▁tardes": 6767,
            "mino": 6768,
            "▁cosas,": 6769,
            "▁ambos": 6770,
            "ics": 6771,
            "▁santa": 6772,
            "▁mierda.": 6773,
            "▁afuera": 6774,
            "cing": 6775,
            "ASTA": 6776,
            "vidu": 6777,
            "ejo": 6778,
            "dero": 6779,
            "▁olvida": 6780,
            "▁Love": 6781,
            "...\"": 6782,
            "sible": 6783,
            "tiful": 6784,
            "▁David": 6785,
            "GR": 6786,
            "logía": 6787,
            "▁QUIERO": 6788,
            "▁But": 6790,
            "▁pibe": 6791,
            "▁made": 6792,
            "ITA": 6793,
            "▁cobrar": 6794,
            "CIONES": 6795,
            "▁Sur": 6796,
            "▁debo": 6797,
            "tión": 6798,
            "▁mostra": 6799,
            "▁Ustedes": 6800,
            "▁vengan": 6801,
            "▁Santiago": 6802,
            "▁diría": 6803,
            "▁QUÉ": 6804,
            "▁interven": 6805,
            "▁audio": 6806,
            "▁provincia": 6807,
            "▁Fis": 6808,
            "▁nooo": 6809,
            "▁universidad": 6810,
            "▁felicidades": 6811,
            "cero": 6812,
            "▁Educa": 6813,
            "▁Mel": 6814,
            "▁limi": 6815,
            "▁Ag": 6816,
            "x.": 6817,
            "▁fase": 6818,
            "▁progres": 6819,
            "▁MEJ": 6820,
            "▁Boca": 6821,
            "berna": 6822,
            "▁redonda": 6823,
            "▁45": 6824,
            "▁How": 6825,
            "▁noviembre": 6826,
            "▁ambiente": 6827,
            "▁ilus": 6828,
            "iados": 6829,
            "JD": 6830,
            "▁plena": 6831,
            "▁these": 6832,
            "▁compara": 6833,
            "RG": 6834,
            "▁femen": 6835,
            "▁(P": 6836,
            "▁familiar": 6837,
            "▁dólares": 6838,
            "▁carga": 6839,
            "▁visitar": 6840,
            "▁interior": 6841,
            "ZO": 6842,
            "▁excep": 6843,
            "▁pizza": 6844,
            "▁cerezo": 6845,
            "gón": 6846,
            "▁embara": 6847,
            "▁consider": 6848,
            "▁got7": 6849,
            "T.": 6850,
            "▁ejercicio": 6851,
            "▁habría": 6852,
            "▁و": 6853,
            "▁quis": 6854,
            "▁esco": 6855,
            "▁ocupa": 6856,
            "JSJS": 6857,
            "▁GU": 6858,
            "▁fea": 6859,
            "▁Alcal": 6860,
            "▁febrero": 6861,
            "▁night": 6862,
            "ling": 6863,
            "g.": 6864,
            "▁torneo": 6865,
            "guém": 6866,
            "▁Champ": 6867,
            "▁Siii": 6868,
            "▁JO": 6869,
            "▁facul": 6870,
            "▁Sha": 6871,
            "iano": 6872,
            "▁Ai": 6873,
            "▁Chris": 6874,
            "▁original": 6875,
            "vailable": 6876,
            "▁productos": 6877,
            "▁Sho": 6878,
            "enario": 6879,
            "▁rele": 6880,
            "▁Star": 6881,
            "res.": 6882,
            "ring": 6883,
            "etw": 6884,
            "▁mez": 6885,
            "▁abierto": 6886,
            "▁porqué": 6887,
            "▁hablas": 6888,
            "ística": 6889,
            "pel": 6890,
            "▁....": 6891,
            "▁convoca": 6892,
            "cua": 6893,
            "▁¡No": 6894,
            "▁sobr": 6895,
            "▁acordar": 6896,
            "'.": 6897,
            "sed": 6898,
            "▁¿Quién": 6899,
            "▁dictadura": 6900,
            "responsab": 6901,
            "iciones": 6902,
            "▁lugares": 6903,
            "▁:'": 6904,
            "ah": 6905,
            "c.": 6906,
            "▁dipu": 6907,
            "▁flores": 6908,
            "▁protección": 6909,
            "▁Oli": 6910,
            "▁Estaba": 6911,
            "▁WhatsApp": 6912,
            "▁calavera": 6913,
            "forme": 6914,
            "▁uruguay": 6915,
            "▁enorme": 6916,
            "▁volumen": 6917,
            "▁ef": 6918,
            "tf": 6919,
            "▁traer": 6920,
            "sea": 6921,
            "▁fandom": 6922,
            "ISTE": 6923,
            "▁niñas": 6924,
            "▁carta": 6925,
            "▁pela": 6926,
            "▁proyectos": 6927,
            "▁(S": 6928,
            "▁termino": 6929,
            "PAR": 6930,
            "▁BA": 6931,
            "▁completa": 6932,
            "▁aborto": 6933,
            "▁candidato": 6934,
            "▁MOR": 6935,
            "▁INF": 6936,
            "ína": 6937,
            "▁GAN": 6938,
            "din": 6939,
            "▁consul": 6940,
            "nal": 6941,
            "▁Mucho": 6942,
            "▁div": 6943,
            "▁vacuna": 6944,
            "▁account": 6945,
            "dores,": 6946,
            "▁sp": 6947,
            "▁Aún": 6948,
            "mmer": 6949,
            "ciéndo": 6950,
            "▁¿No": 6951,
            "▁principio": 6952,
            "▁prefiero": 6953,
            "zación": 6954,
            "▁ron": 6955,
            "▁sepa": 6956,
            "▁presentación": 6957,
            "hos": 6958,
            "doras": 6959,
            "▁carre": 6960,
            "▁mi,": 6961,
            "▁trae": 6962,
            "▁repu": 6963,
            "▁marketing": 6964,
            "▁gente.": 6965,
            "▁perdió": 6966,
            "▁enfermedad": 6967,
            "rias": 6968,
            "▁mesmo": 6969,
            "▁ganado": 6970,
            "▁merecen": 6971,
            "encia.": 6972,
            "▁artis": 6973,
            "▁desin": 6974,
            "▁cif": 6975,
            "▁cago": 6976,
            "ente,": 6977,
            "▁Não": 6978,
            "ló": 6979,
            "▁mucho.": 6980,
            "▁hoje": 6981,
            "duras": 6982,
            "▁aquellos": 6983,
            "▁C.": 6984,
            "sin": 6985,
            "▁saludo": 6986,
            "▁NUN": 6987,
            "▁eléctr": 6988,
            "▁glor": 6989,
            "tillas": 6990,
            "hone": 6991,
            "oncesto": 6992,
            "▁Fernández": 6993,
            "▁agradecer": 6994,
            "▁descono": 6995,
            "▁Kar": 6996,
            "/2": 6997,
            "▁igles": 6998,
            "seguridad": 6999,
            "UEL": 7000,
            "▁hoja": 7001,
            "lie": 7002,
            "dicial": 7003,
            "▁dema": 7004,
            "▁querés": 7006,
            "DIO": 7007,
            "▁NUE": 7008,
            "▁poca": 7009,
            "▁pies": 7010,
            "▁cabal": 7011,
            "▁Daniel": 7012,
            "▁cach": 7013,
            "▁jarras": 7014,
            "▁JAJAJAJAJAJAJA": 7016,
            "▁very": 7017,
            "crib": 7018,
            "▁quita": 7019,
            "▁moto": 7020,
            "▁PL": 7021,
            "▁Secre": 7022,
            "TES": 7023,
            "▁género": 7024,
            "iedad": 7025,
            "oro": 7026,
            "▁habit": 7027,
            "▁reproducir": 7028,
            "▁cáncer": 7029,
            "ente.": 7030,
            "▁Oh": 7031,
            "▁TA": 7032,
            "▁máximo": 7033,
            "▁\"R": 7034,
            "dona": 7035,
            "tti": 7036,
            "PU": 7037,
            "▁tuya": 7038,
            "DEN": 7039,
            "▁leí": 7040,
            "▁profesor": 7041,
            "▁pequeña": 7042,
            "ado,": 7043,
            "▁cientí": 7044,
            "▁hayan": 7045,
            "▁coger": 7046,
            "▁bendi": 7047,
            "▁spa": 7048,
            "▁profe": 7049,
            "cados": 7050,
            "drí": 7051,
            "▁elig": 7052,
            "cales": 7053,
            "▁concent": 7054,
            "▁Según": 7055,
            "▁investigación": 7056,
            "▁movimiento": 7057,
            "▁llaman": 7058,
            "har": 7059,
            "▁mur": 7060,
            "▁Cruz": 7061,
            "▁sar": 7062,
            "▁roja": 7063,
            "▁imágenes": 7064,
            "ezco": 7065,
            "vemos": 7066,
            "▁superar": 7067,
            "▁fren": 7068,
            "▁motiva": 7069,
            "▁mami": 7070,
            "▁obser": 7071,
            "menes": 7072,
            "encia,": 7073,
            "-3": 7074,
            "amer": 7075,
            "▁masaje": 7076,
            "▁privile": 7077,
            "▁Casa": 7078,
            "▁girl": 7079,
            "▁mierda,": 7080,
            "▁práctica": 7081,
            "▁Coronavirus": 7082,
            "▁Mario": 7083,
            "▁run": 7084,
            "onia": 7085,
            "ree": 7086,
            "cun": 7087,
            "▁energ": 7088,
            "▁sk": 7089,
            "▁psic": 7090,
            "▁CRE": 7091,
            "▁Nooo": 7092,
            "bur": 7093,
            "▁cancel": 7094,
            "▁Lis": 7095,
            "tar.": 7096,
            "▁rue": 7097,
            "brir": 7098,
            "▁vende": 7099,
            "▁asu": 7100,
            "▁little": 7101,
            "OS.": 7102,
            "▁extrañar": 7103,
            "▁empeza": 7104,
            "ced": 7105,
            "▁carro": 7106,
            "sta": 7107,
            "▁billete": 7108,
            "▁informe": 7109,
            "▁también.": 7110,
            "▁hubiese": 7111,
            "▁parque": 7113,
            "less": 7114,
            "▁ic": 7115,
            "▁elimina": 7116,
            "jj": 7117,
            "▁KKK": 7118,
            "▁autoridades": 7119,
            "KE": 7120,
            "▁cant": 7121,
            "▁AHORA": 7122,
            "ast": 7123,
            "▁trabajo,": 7124,
            "EMPRE": 7125,
            "▁volvió": 7126,
            "▁¡Y": 7127,
            "▁inú": 7128,
            "▁MUN": 7129,
            "▁salido": 7130,
            "▁coca": 7131,
            "▁isla": 7132,
            "▁Uribe": 7133,
            "nd": 7134,
            "▁hablamos": 7135,
            "▁Incre": 7136,
            "▁ingen": 7137,
            "á,": 7138,
            "▁Blan": 7139,
            "íamos": 7140,
            "▁helado": 7141,
            "▁Cui": 7142,
            "tify": 7143,
            "riel": 7144,
            "▁estrategia": 7145,
            "jin": 7146,
            "▁Bogotá": 7147,
            "▁1000": 7148,
            "▁calla": 7149,
            "-C": 7150,
            "ino.": 7151,
            "tric": 7152,
            "▁médicos": 7153,
            "tz": 7154,
            "PI": 7155,
            "▁¿Que": 7156,
            "▁Ej": 7157,
            "▁Mujer": 7158,
            "▁tristeza": 7159,
            "▁talento": 7160,
            "▁qual": 7161,
            "▁Quién": 7162,
            "▁medida": 7163,
            "▁título": 7164,
            "▁bul": 7165,
            "▁Person": 7166,
            "▁HE": 7167,
            "iona": 7168,
            "▁segundos": 7169,
            "▁tod": 7170,
            "tar,": 7171,
            "▁individu": 7172,
            "▁pantal": 7173,
            "▁profun": 7174,
            "▁BO": 7175,
            "▁Wor": 7176,
            "▁FI": 7177,
            "▁Salva": 7178,
            "▁300": 7179,
            "▁indica": 7180,
            "▁inso": 7181,
            "▁Gui": 7182,
            "▁esperan": 7183,
            "▁influen": 7184,
            "▁coun": 7185,
            "▁App": 7186,
            "▁estuve": 7187,
            "ítulos": 7188,
            "▁Hahaha": 7189,
            "▁sueldo": 7190,
            "▁SAN": 7191,
            "▁(A": 7192,
            "▁pelota": 7193,
            "▁Madre": 7194,
            "▁Grande": 7195,
            "fic": 7196,
            "▁Sta": 7197,
            "▁Julio": 7198,
            "▁vez,": 7199,
            "RAS": 7200,
            "▁cierto,": 7201,
            "torno": 7202,
            "▁alcalde": 7203,
            "▁ponerme": 7204,
            "▁assi": 7205,
            "▁Ger": 7206,
            "TAR": 7207,
            "▁yo.": 7208,
            "allen": 7209,
            "▁@usuario's": 7210,
            "▁Mat": 7211,
            "▁imper": 7212,
            "▁muere": 7213,
            "▁viviendo": 7214,
            "ball": 7215,
            "▁dejaron": 7216,
            "▁ponga": 7217,
            "▁integ": 7218,
            "▁actitud": 7219,
            "▁euros": 7220,
            "▁Puerto": 7221,
            "▁WE": 7222,
            "▁deix": 7223,
            "▁transporte": 7224,
            "▁bue": 7225,
            "▁separa": 7226,
            "ordina": 7227,
            "oría": 7228,
            "mbra": 7229,
            "▁hand": 7230,
            "▁\"F": 7231,
            "▁tercera": 7232,
            "▁tercer": 7233,
            "▁destino": 7234,
            "▁espalda": 7235,
            "é.": 7236,
            "bert": 7237,
            "▁categor": 7238,
            "ante,": 7239,
            "ado.": 7240,
            "▁probar": 7241,
            "igna": 7242,
            "uelas": 7243,
            "fier": 7244,
            "▁querida": 7245,
            "▁SA": 7246,
            "▁planes": 7247,
            "▁bem": 7248,
            "▁(a": 7249,
            "ged": 7250,
            "ó.": 7251,
            "oli": 7252,
            "▁corto": 7253,
            "▁material": 7254,
            "▁proteger": 7255,
            "menaje": 7256,
            "gas,": 7257,
            "▁dre": 7258,
            "▁entregar": 7259,
            "▁Hor": 7260,
            "▁sea,": 7261,
            "▁Últi": 7262,
            "eración": 7263,
            "▁adelan": 7264,
            "▁Learn": 7265,
            "▁ver,": 7266,
            "▁diputa": 7267,
            "▁Google": 7268,
            "▁vota": 7269,
            "llar": 7270,
            "▁Lea": 7271,
            "▁Sá": 7272,
            "▁well": 7273,
            "▁cuel": 7274,
            "▁Fr": 7275,
            "ñado": 7276,
            "▁2015": 7277,
            "▁supuesto": 7278,
            "▁entero": 7279,
            "pul": 7280,
            "▁Unas": 7281,
            "▁invito": 7282,
            "▁kid": 7283,
            "▁depres": 7284,
            "▁sober": 7285,
            "the": 7286,
            "erac": 7287,
            "▁equivoca": 7288,
            "▁beau": 7289,
            "▁(URL": 7290,
            "tory": 7291,
            "▁renun": 7292,
            "▁Buena": 7293,
            "xo": 7294,
            "▁dignidad": 7295,
            "tacular": 7296,
            "▁great": 7297,
            "MY": 7298,
            "▁ficha": 7299,
            "uestros": 7300,
            "▁MO": 7301,
            "▁SIEMPRE": 7302,
            "▁resis": 7303,
            "▁misera": 7304,
            "▁zo": 7305,
            "▁No.": 7306,
            "▁reina": 7307,
            "▁pecho": 7308,
            "udes": 7309,
            "▁víctimas": 7310,
            "▁pesa": 7311,
            "▁then": 7312,
            "▁ultima": 7313,
            "melo": 7314,
            "iosa": 7315,
            "▁periódico": 7316,
            "▁revis": 7317,
            "▁JAJAJ": 7318,
            "▁Amor": 7319,
            "▁irre": 7320,
            "▁aquel": 7321,
            "▁lun": 7322,
            "▁Francisco": 7323,
            "▁literalmente": 7324,
            "digo": 7325,
            "▁leyendo": 7326,
            "▁juicio": 7327,
            "▁yendo": 7328,
            "▁planeta": 7329,
            "ANO": 7330,
            "zón": 7331,
            "▁etapa": 7332,
            "▁rode": 7333,
            "cs": 7334,
            "▁wait": 7335,
            "mblea": 7336,
            "▁PSOE": 7337,
            "▁thank": 7338,
            "▁awards": 7339,
            "▁Rodrí": 7340,
            "cemos": 7341,
            "▁Er": 7342,
            "▁Agu": 7343,
            "▁abandon": 7344,
[...]
