{"version":"1.0","truncation":null,"padding":null,"added_tokens":[{"id":0,"special":true,"content":"<s>","single_word":false,"lstrip":false,"rstrip":false,"normalized":false},{"id":1,"special":true,"content":"<pad>","single_word":false,"lstrip":false,"rstrip":false,"normalized":false},{"id":2,"special":true,"content":"</s>","single_word":false,"lstrip":false,"rstrip":false,"normalized":false},{"id":3,"special":true,"content":"<unk>","single_word":false,"lstrip":false,"rstrip":false,"normalized":false},{"id":4,"special":true,"content":"<mask>","single_word":false,"lstrip":false,"rstrip":false,"normalized":false},{"id":5,"special":true,"content":"@usuario","single_word":false,"lstrip":false,"rstrip":false,"normalized":false},{"id":6,"special":true,"content":"url","single_word":false,"lstrip":false,"rstrip":false,"normalized":false},{"id":7,"special":true,"content":"hashtag","single_word":false,"lstrip":false,"rstrip":false,"normalized":false},{"id":8,"special":true,"content":"emoji","single_word":false,"lstrip":false,"rstrip":false,"normalized":false}],"normalizer":{"type":"Sequence","normalizers":[{"type":"NFKC"},{"type":"BertNormalizer","clean_text":true,"handle_chinese_chars":true,"strip_accents":false,"lowercase":false}]},"pre_tokenizer":{"type":"Metaspace","replacement":"▁","add_prefix_space":true},"post_processor":{"type":"RobertaProcessing","sep":["</s>",2],"cls":["<s>",0],"trim_offsets":true,"add_prefix_space":true},"decoder":{"type":"Metaspace","replacement":"▁","add_prefix_space":true},"model":{"type":"BPE","dropout":null,"unk_token":null,"continuing_subword_prefix":null,"end_of_word_suffix":null,"fuse_unk":false,"vocab":{"<s>":0,"<pad>":1,"</s>":2,"<unk>":3,"<mask>":4,"@usuario":5,"url":6,"hashtag":7,"emoji":8,"!":9,"\"":10,"#":11,"$":12,"%":13,"&":14,"'":15,"(":16,")":17,"*":18,"+":19,",":20,"-":21,".":22,"/":23,"0":24,"1":25,"2":26,"3":27,"4":28,"5":29,"6":30,"7":31,"8":32,"9":33,":":34,";":35,"=":36,"?":37,"@":38,"A":39,"B":40,"C":41,"D":42,"E":43,"F":44,"G":45,"H":46,"I":47,"J":48,"K":49,"L":50,"M":51,"N":52,"O":53,"P":54,"Q":55,"R":56,"S":57,"T":58,"U":59,"V":60,"W":61,"X":62,"Y":63,"Z":64,"[":65,"\\":66,"]":67,"^":68,"_":69,"`":70,"a":71,"b":72,"c":73,"d":74,"e":75,"f":76,"g":77,"h":78,"i":79,"j":80,"k":81,"l":82,"m":83,"n":84,"o":85,"p":86,"q":87,"r":88,"s":89,"t":90,"u":91,"v":92,"w":93,"x":94,"y":95,"z":96,"|":97,"¡":98,"¿":99,"Á":100,"Ã":101,"Ç":102,"É":103,"Í":104,"Ñ":105,"Ó":106,"Ú":107,"Ü":108,"à":109,"á":110,"â":111,"ã":112,"ä":113,"ç":114,"è":115,"é":116,"ê":117,"ì":118,"í":119,"ï":120,"ñ":121,"ò":122,"ó":123,"ô":124,"õ":125,"ö":126,"ù":127,"ú":128,"ü":129,"ğ":130,"ı":131,"ł":132,"ş":133,"ɪ":134,"ɴ":135,"ʀ":136,"ʟ":137,"̄":138,"̶":139,"α":140,"ι":141,"а":142,"в":143,"д":144,"е":145,"и":146,"к":147,"л":148,"м":149,"н":150,"о":151,"п":152,"р":153,"с":154,"т":155,"у":156,"я":157,"،":158,"أ":159,"ب":160,"ة":161,"ت":162,"ج":163,"ح":164,"خ":165,"د":166,"ر":167,"ز":168,"س":169,"ش":170,"ص":171,"ط":172,"ع":173,"ف":174,"ق":175,"ك":176,"ل":177,"م":178,"ن":179,"ه":180,"و":181,"ى":182,"ي":183,"َ":184,"ک":185,"ں":186,"ہ":187,"ی":188,"ے":189,"ं":190,"क":191,"त":192,"द":193,"न":194,"प":195,"म":196,"य":197,"र":198,"ल":199,"स":200,"ह":201,"ा":202,"ि":203,"ी":204,"े":205,"ो":206,"्":207,"க":208,"த":209,"ி":210,"ு":211,"்":212,"ก":213,"ข":214,"ค":215,"ง":216,"จ":217,"ช":218,"ด":219,"ต":220,"ท":221,"น":222,"บ":223,"ป":224,"พ":225,"ม":226,"ย":227,"ร":228,"ล":229,"ว":230,"ส":231,"ห":232,"อ":233,"ะ":234,"ั":235,"า":236,"ิ":237,"ี":238,"ื":239,"ุ":240,"ู":241,"เ":242,"แ":243,"ใ":244,"ไ":245,"็":246,"่":247,"้":248,"ᄏ":249,"ᅠ":250,"ᅲ":251,"ᥱ":252,"ᴀ":253,"ᴇ":254,"ᴏ":255,"ᴛ":256,"⃣":257,"→":258,"─":259,"━":260,"┃":261,"┓":262,"═":263,"▁":264,"█":265,"▶":266,"►":267,"★":268,"☆":269,"♪":270,"♫":271,"✔":272,"❣":273,"➡":274,"⠀":275,"⬇":276,"、":277,"。":278,"「":279,"」":280,"【":281,"】":282,"あ":283,"い":284,"う":285,"お":286,"か":287,"が":288,"き":289,"く":290,"け":291,"こ":292,"ご":293,"さ":294,"し":295,"す":296,"た":297,"だ":298,"ち":299,"っ":300,"て":301,"で":302,"と":303,"な":304,"に":305,"の":306,"は":307,"ま":308,"み":309,"め":310,"も":311,"ゃ":312,"よ":313,"ら":314,"り":315,"る":316,"れ":317,"を":318,"ん":319,"ア":320,"イ":321,"カ":322,"キ":323,"ク":324,"シ":325,"ジ":326,"ス":327,"タ":328,"ッ":329,"ト":330,"ド":331,"フ":332,"ラ":333,"リ":334,"ル":335,"レ":336,"ロ":337,"ン":338,"・":339,"人":340,"日":341,"生":342,"가":343,"게":344,"고":345,"기":346,"김":347,"나":348,"년":349,"는":350,"니":351,"다":352,"단":353,"대":354,"도":355,"드":356,"들":357,"라":358,"랑":359,"로":360,"리":361,"마":362,"무":363,"민":364,"방":365,"보":366,"븐":367,"사":368,"생":369,"서":370,"세":371,"소":372,"수":373,"스":374,"시":375,"아":376,"어":377,"에":378,"엑":379,"여":380,"오":381,"요":382,"우":383,"원":384,"은":385,"을":386,"의":387,"이":388,"인":389,"일":390,"자":391,"정":392,"제":393,"주":394,"즈":395,"지":396,"진":397,"탄":398,"트":399,"하":400,"한":401,"해":402,"현":403,"호":404,"🎙":405,"🏟":406,"👁":407,"🗣":408,"▁e":409,"ar":410,"▁d":411,"▁c":412,"mo":413,"io":414,"▁de":415,"▁p":416,"▁l":417,"as":418,"er":419,"en":420,"▁a":421,"us":422,"▁s":423,"ji":424,"▁emo":425,"▁emoji":426,"an":427,"▁m":428,"ario":429,"os":430,"usu":431,"usuario":432,"▁@usuario":433,"ue":434,"or":435,"on":436,"ta":437,"▁t":438,"▁h":439,"es":440,"do":441,"▁q":442,"▁n":443,"▁U":444,"▁es":445,"▁que":446,"in":447,"RL":448,"▁la":449,"▁URL":450,"re":451,"▁y":452,"un":453,"al":454,"▁v":455,"▁en":456,"ci":457,"te":458,"ara":459,"is":460,"da":461,"▁f":462,"▁has":463,"▁con":464,"tag":465,"ra":466,"htag":467,"▁hashtag":468,"▁el":469,"▁b":470,"to":471,"ic":472,"..":473,"ien":474,"▁un":475,"▁no":476,"ro":477,"ón":478,"▁se":479,"▁me":480,"ol":481,"▁g":482,"▁E":483,"▁cara":484,"▁o":485,"ando":486,"le":487,"▁C":488,"▁A":489,"▁M":490,"ti":491,"▁S":492,"▁ha":493,"la":494,"mp":495,"▁P":496,"de":497,"ch":498,"▁por":499,"▁L":500,"▁co":501,"el":502,"ri":503,"▁re":504,"▁al":505,"ja":506,"ui":507,"▁los":508,"▁lo":509,"▁to":510,"▁per":511,"mos":512,"▁T":513,"▁.":514,"ora":515,"▁D":516,"▁r":517,"ia":518,"▁N":519,"ma":520,"go":521,"▁in":522,"▁si":523,"ía":524,"▁para":525,"▁mi":526,"▁i":527,"lo":528,"ca":529,"dos":530,"ción":531,"▁cu":532,"ion":533,"▁del":534,"ente":535,"▁est":536,"▁te":537,"ba":538,"▁su":539,"▁ca":540,"di":541,"▁las":542,"ec":543,"vi":544,"ás":545,"...":546,"iendo":547,"era":548,"▁man":549,"mb":550,"▁una":551,"dad":552,"▁son":553,"mi":554,"▁B":555,"▁Y":556,"ga":557,"res":558,"!!":559,"cu":560,"▁H":561,"me":562,"ent":563,"ero":564,"▁j":565,"▁le":566,"co":567,"gu":568,"▁mu":569,"▁des":570,"oy":571,"cia":572,"JA":573,"▁Es":574,"▁R":575,"tr":576,"▁Q":577,"▁cora":578,"▁ll":579,"▁I":580,"▁\"":581,"▁coraz":582,"▁di":583,"▁ma":584,"que":585,"ica":586,"▁V":587,"▁1":588,"ce":589,"it":590,"▁vi":591,"▁an":592,"▁G":593,"ab":594,"▁F":595,"jo":596,"▁w":597,"▁th":598,"il":599,"tu":600,"▁llor":601,"isa":602,"za":603,"▁J":604,"▁más":605,"▁mo":606,"▁pa":607,"▁2":608,"ul":609,"▁ten":610,"ran":611,"ter":612,"tra":613,"▁pi":614,"▁corazón":615,"uer":616,"▁pro":617,"ues":618,"▁llorando":619,"▁ver":620,"tos":621,"▁como":622,"cion":623,"ing":624,"▁ser":625,"▁risa":626,"▁ch":627,"pa":628,"▁yo":629,"▁so":630,"JAJA":631,"▁No":632,"▁esta":633,"▁sonr":634,"jos":635,"tes":636,"▁pero":637,"lar":638,"tas":639,"tar":640,"▁ap":641,"va":642,"▁ex":643,"▁na":644,"ir":645,"▁par":646,"▁po":647,"ico":648,"▁as":649,"▁O":650,"ur":651,"ono":652,"ve":653,"ana":654,"das":655,"én":656,"▁ar":657,"jaja":658,"án":659,"uen":660,"son":661,"dio":662,"▁El":663,"ez":664,"▁qui":665,"▁sonriendo":666,"se":667,"vo":668,"▁ya":669,"▁ojos":670,"ina":671,"▁La":672,"tor":673,"▁pas":674,"▁ta":675,"▁fa":676,"▁va":677,"▁tu":678,"cer":679,"ten":680,"ué":681,"dor":682,"cha":683,"qui":684,"men":685,"▁pue":686,"▁person":687,"ver":688,"tro":689,"der":690,"sa":691,"emp":692,"▁sal":693,"▁the":694,"so":695,"▁ti":696,"▁tra":697,"▁ni":698,"▁todo":699,"mente":700,"li":701,"lan":702,"▁sol":703,"▁(":704,"gar":705,"ble":706,"ud":707,"▁pe":708,"▁piel":709,"▁mano":710,"▁tien":711,"no":712,"ño":713,"▁tono":714,"cho":715,"▁ro":716,"iz":717,"▁Que":718,"▁Me":719,"per":720,"si":721,"▁-":722,"▁pre":723,"▁hab":724,"▁mis":725,"▁¿":726,"▁res":727,"▁ac":728,"▁tan":729,"▁ab":730,"▁li":731,"ios":732,"ha":733,"laro":734,"▁sin":735,"ru":736,"▁comp":737,"▁cas":738,"▁nos":739,"▁Si":740,"ER":741,"tan":742,"ier":743,"bre":744,"▁esto":745,"po":746,"cias":747,"pe":748,"na":749,"▁da":750,"ice":751,"OS":752,"▁En":753,"▁claro":754,"!!!":755,"00":756,"▁manos":757,"idad":758,"les":759,"ales":760,"??":761,"▁ah":762,"▁este":763,"las":764,"EN":765,"den":766,"jor":767,"▁hay":768,"min":769,"et":770,"▁k":771,"man":772,"▁pen":773,"des":774,"ños":775,"▁jaja":776,"▁cre":777,"▁com":778,"je":779,"▁can":780,"▁cuando":781,"▁sab":782,"ita":783,"oo":784,"▁está":785,"los":786,"▁buen":787,"▁lle":788,"▁he":789,"ay":790,"▁men":791,"be":792,"▁mejor":793,"▁Se":794,"ones":795,"mas":796,"▁pu":797,"▁todos":798,"eces":799,"ici":800,"mar":801,"du":802,"ras":803,"▁mal":804,"▁persona":805,"▁porque":806,"▁3":807,"▁bien":808,"ín":809,"▁cor":810,"▁fuer":811,"ciones":812,"▁of":813,"▁ra":814,"tre":815,"AN":816,"▁for":817,"ES":818,"▁¡":819,"and":820,"▁día":821,"▁mas":822,"olvi":823,"▁hacer":824,"▁dis":825,"ac":826,"AR":827,"▁sus":828,"▁mar":829,"gun":830,"▁ho":831,"▁do":832,"▁cos":833,"▁medio":834,"at":835,"▁W":836,"▁eso":837,"▁imp":838,"ún":839,"ren":840,"▁ne":841,"▁rev":842,"▁bo":843,"ut":844,"ista":845,"▁Yo":846,"ña":847,"ber":848,"AS":849,"▁Co":850,"iento":851,"ión":852,"▁u":853,"gan":854,"OR":855,"ho":856,"▁ven":857,"▁De":858,"▁DE":859,"ías":860,"▁fr":861,"mbi":862,"▁fue":863,"emos":864,"empre":865,"▁20":866,"▁vida":867,"ces":868,"▁car":869,"▁nada":870,"▁dor":871,"ON":872,"racias":873,"▁amo":874,"▁tiene":875,"▁qu":876,"ito":877,"tal":878,"ado":879,"ed":880,"▁pres":881,"vor":882,"gui":883,"▁gente":884,"o,":885,"qu":886,"▁and":887,"▁ba":888,"▁cal":889,"▁be":890,"▁ami":891,"▁pri":892,"▁hace":893,"▁gran":894,"▁fin":895,"▁les":896,"▁vo":897,"▁muy":898,"▁ju":899,"és":900,"dose":901,"▁Con":902,"che":903,"▁nues":904,"▁emp":905,"▁Por":906,"▁go":907,"ven":908,"▁qué":909,"▁favor":910,"▁Al":911,"ts":912,"▁pr":913,"ere":914,"UE":915,"▁gan":916,"▁on":917,"gra":918,"▁or":919,"▁col":920,"20":921,"▁fel":922,"uel":923,"id":924,"▁hoy":925,"▁us":926,"for":927,"iste":928,"▁fuerte":929,"▁:":930,"ena":931,"ís":932,"endo":933,"ona":934,"por":935,"▁hacia":936,"▁así":937,"tros":938,"▁solo":939,"▁ter":940,"ad":941,"▁Lo":942,"car":943,"zo":944,"▁In":945,"ig":946,"▁,":947,"▁fal":948,"▁lu":949,"bajo":950,"▁gus":951,"mer":952,"▁fo":953,"▁siempre":954,"eo":955,"enta":956,"▁pol":957,"▁4":958,"▁is":959,"▁deci":960,"▁dos":961,"éndose":962,"▁nue":963,"ada":964,"▁pon":965,"van":966,"jer":967,"▁quiero":968,"he":969,"▁años":970,"▁tengo":971,"▁sobre":972,"ros":973,"encia":974,"JAJAJAJA":975,"ido":976,"▁5":977,"bo":978,"olviéndose":979,"▁revolviéndose":980,"jar":981,"con":982,"▁estar":983,"▁mun":984,"▁estoy":985,"▁Jjaja":986,"▁K":987,"▁band":988,"▁x":989,"▁ir":990,"rar":991,"▁vez":992,"dar":993,"▁you":994,"▁Un":995,"▁bandera":996,"▁é":997,"mbre":998,"pon":999,"AL":1000,"▁her":1001,"tic":1002,"ll":1003,"▁hi":1004,"unca":1005,"▁To":1006,"▁ahora":1007,"ie":1008,"▁voy":1009,"tiva":1010,"▁Ya":1011,"▁cer":1012,"▁bes":1013,"▁Re":1014,"tir":1015,"fer":1016,"▁don":1017,"ante":1018,"▁ES":1019,"dr":1020,"aa":1021,"▁algo":1022,"AD":1023,"▁mucho":1024,"cial":1025,"▁fu":1026,"can":1027,"ke":1028,"▁apla":1029,"par":1030,"tras":1031,"CI":1032,"gue":1033,"▁hasta":1034,"ino":1035,"if":1036,"am":1037,"gos":1038,"▁puede":1039,"olo":1040,"mbién":1041,"guien":1042,"▁Los":1043,"▁@usuario.":1044,"▁esp":1045,"▁Te":1046,"▁pel":1047,"▁casa":1048,"▁Cu":1049,"▁quer":1050,"IN":1051,"bl":1052,"19":1053,"▁inter":1054,"ola":1055,"▁real":1056,"▁hu":1057,"erda":1058,"▁aplaud":1059,"▁ay":1060,"ment":1061,"▁entre":1062,"▁aplaudiendo":1063,"▁Mi":1064,"tado":1065,"lla":1066,"o.":1067,"as,":1068,"ck":1069,"▁esc":1070,"▁sa":1071,"ida":1072,"▁pos":1073,"ciendo":1074,"ly":1075,"miento":1076,"th":1077,"▁pla":1078,"cio":1079,"▁ese":1080,"▁au":1081,"dice":1082,"es,":1083,"▁feliz":1084,"▁fle":1085,"cep":1086,"mento":1087,"TA":1088,"▁neces":1089,"\".":1090,"▁parti":1091,"▁desp":1092,"▁ín":1093,"▁exp":1094,"ee":1095,"▁sen":1096,"nos":1097,"bier":1098,"▁dere":1099,"▁también":1100,"tando":1101,"ece":1102,"▁NO":1103,"▁An":1104,"▁du":1105,"▁conf":1106,"▁tener":1107,"▁tiemp":1108,"▁índice":1109,"▁desde":1110,"▁toda":1111,"▁min":1112,"▁Ma":1113,"▁fe":1114,"▁menos":1115,"▁días":1116,"▁esa":1117,"▁dorso":1118,"▁soy":1119,"▁os":1120,"▁cosas":1121,"gas":1122,"▁nunca":1123,"▁Pero":1124,"cen":1125,"▁dar":1126,"▁señ":1127,"▁quien":1128,"▁vol":1129,"▁sea":1130,"bol":1131,"▁verdad":1132,"ale":1133,"rado":1134,"▁much":1135,"▁ve":1136,"▁ob":1137,"es.":1138,"toria":1139,"▁Ch":1140,"▁corazones":1141,"▁era":1142,"die":1143,"ismo":1144,"ientes":1145,"ão":1146,"▁ga":1147,"▁cons":1148,"ano":1149,"TE":1150,"▁reg":1151,"tica":1152,"▁contra":1153,"?.":1154,"▁Mar":1155,"gual":1156,"mana":1157,"▁mundo":1158,"▁his":1159,"ómo":1160,"▁ins":1161,"os,":1162,"ío":1163,"gua":1164,"ya":1165,"▁lin":1166,"▁segui":1167,"▁decir":1168,"▁mujer":1169,"ala":1170,"▁estu":1171,"▁op":1172,"uela":1173,"▁dic":1174,"▁QUE":1175,"▁están":1176,"▁LA":1177,"▁ce":1178,"zando":1179,"cas":1180,"▁ent":1181,"ge":1182,"▁Le":1183,"ñana":1184,"▁Buen":1185,"vir":1186,"▁vis":1187,"ris":1188,"dores":1189,"▁hor":1190,"bi":1191,"dre":1192,"cional":1193,"to,":1194,"▁Hoy":1195,"tin":1196,"▁amor":1197,"▁6":1198,"iza":1199,"▁10":1200,"quí":1201,"tion":1202,"aron":1203,"▁mismo":1204,"▁país":1205,"eron":1206,"▁mes":1207,"br":1208,"▁jun":1209,"▁alguien":1210,"???":1211,"▁jo":1212,"▁ci":1213,"IS":1214,"pi":1215,"▁frente":1216,"▁ad":1217,"istas":1218,"deo":1219,"!.":1220,"os.":1221,"▁personas":1222,"▁tar":1223,"▁impor":1224,"▁blan":1225,"▁tr":1226,"▁ganas":1227,"TO":1228,"▁equi":1229,"▁lla":1230,"▁sí":1231,"▁rojo":1232,"DO":1233,"▁uno":1234,"▁donde":1235,"lti":1236,"▁cada":1237,"▁año":1238,"ves":1239,"▁...":1240,"▁rec":1241,"▁Gracias":1242,"▁jue":1243,"ine":1244,"▁aca":1245,"▁Ca":1246,"rec":1247,"tura":1248,"▁gracias":1249,"▁escu":1250,"▁Ah":1251,"▁#":1252,"do,":1253,"do.":1254,"dia":1255,"▁levan":1256,"ima":1257,"▁7":1258,"gen":1259,"t;":1260,"culo":1261,"dic":1262,"▁jus":1263,"▁san":1264,"s.":1265,"to.":1266,"fec":1267,"▁fi":1268,"xico":1269,"▁EN":1270,"via":1271,"▁ri":1272,"bierno":1273,"ias":1274,"tivo":1275,"RE":1276,"pas":1277,"▁8":1278,"var":1279,"▁lan":1280,"▁we":1281,"▁cono":1282,"▁gu":1283,"▁Esta":1284,"mil":1285,"▁han":1286,"▁traba":1287,"▁cuenta":1288,"▁pasa":1289,"▁ja":1290,"AM":1291,"ués":1292,"▁haciendo":1293,"más":1294,"▁tran":1295,"▁tw":1296,"lu":1297,"▁nadie":1298,"▁San":1299,"▁puedo":1300,"▁rep":1301,"▁tienen":1302,"▁abajo":1303,"▁igual":1304,"▁beso":1305,"▁tiempo":1306,"▁tanto":1307,"▁cump":1308,"▁eu":1309,"▁gra":1310,"▁Mu":1311,"ted":1312,"▁Ar":1313,"▁van":1314,"cuer":1315,"cal":1316,"▁pes":1317,"▁dia":1318,"▁EL":1319,"tó":1320,"gent":1321,"ern":1322,"gn":1323,"▁gen":1324,"▁it":1325,"▁Esto":1326,"▁Des":1327,"▁quier":1328,"▁otro":1329,"iente":1330,"ían":1331,"▁bus":1332,"pen":1333,"má":1334,"▁dice":1335,"▁mus":1336,"▁pens":1337,"▁def":1338,"▁Na":1339,"▁As":1340,"▁at":1341,"▁otra":1342,"▁super":1343,"▁vos":1344,"ID":1345,"vos":1346,"RA":1347,"mir":1348,"▁cual":1349,"▁9":1350,"▁vuel":1351,"▁pal":1352,"arios":1353,"▁val":1354,"▁Ha":1355,"im":1356,"▁boca":1357,"forma":1358,"▁mierda":1359,"tada":1360,"ea":1361,"ír":1362,"▁mañana":1363,"ril":1364,"▁sonrientes":1365,"▁may":1366,"as.":1367,"▁grande":1368,"cel":1369,"▁pensa":1370,"cil":1371,"▁segu":1372,"dan":1373,"▁bar":1374,"ban":1375,"▁mon":1376,"▁plan":1377,"ores":1378,"▁&":1379,"'s":1380,"HA":1381,"▁derecha":1382,"tico":1383,"▁semana":1384,"▁poco":1385,"▁arri":1386,"▁algun":1387,"▁ú":1388,"▁pan":1389,"OL":1390,"▁mil":1391,"cre":1392,"▁gusta":1393,"▁cul":1394,"una":1395,"▁mer":1396,"▁Ten":1397,"▁URL.":1398,"▁final":1399,"IC":1400,"▁nuevo":1401,"▁vamos":1402,"iones":1403,"▁Las":1404,"vio":1405,"▁Como":1406,"ith":1407,"icio":1408,"▁blanco":1409,"▁Pa":1410,"um":1411,"rib":1412,"zar":1413,").":1414,"▁todas":1415,"▁bas":1416,"▁sac":1417,"entes":1418,"OM":1419,":.":1420,"▁poder":1421,"▁mie":1422,"▁Para":1423,"iene":1424,"▁sé":1425,"ria":1426,"imo":1427,"▁veces":1428,"oración":1429,"▁prim":1430,"▁esper":1431,"▁abra":1432,"udad":1433,"▁az":1434,"▁bol":1435,"ér":1436,"▁Ro":1437,"▁den":1438,"idente":1439,"▁antes":1440,"char":1441,"icos":1442,"ile":1443,"tante":1444,"▁momento":1445,"pues":1446,"▁0":1447,"ill":1448,"▁nuestro":1449,"▁últi":1450,"▁después":1451,"mis":1452,"esta":1453,"▁ún":1454,"gh":1455,"uda":1456,"▁that":1457,"▁Cuando":1458,"▁pues":1459,"vis":1460,"▁parte":1461,"vel":1462,"▁polí":1463,"iver":1464,"▁inf":1465,"▁reci":1466,"▁foto":1467,"▁temp":1468,"pp":1469,"▁my":1470,"len":1471,"▁JAJAJAJA":1472,"▁bal":1473,"▁So":1474,"▁camp":1475,"▁SE":1476,"rá":1477,"▁arriba":1478,"ible":1479,"▁trabajo":1480,"▁sue":1481,"▁bueno":1482,"fa":1483,"▁aquí":1484,"▁pregun":1485,"▁tus":1486,"▁creo":1487,"▁|":1488,"▁ban":1489,"▁this":1490,"▁cele":1491,"▁Qui":1492,"erte":1493,"▁espa":1494,"fe":1495,"▁Car":1496,"ne":1497,"ezuela":1498,"....":1499,"ta,":1500,"vid":1501,"▁extra":1502,"▁pun":1503,"▁ME":1504,"gres":1505,"▁gol":1506,"icar":1507,"lor":1508,"▁Dios":1509,"▁fun":1510,"▁vía":1511,"amp":1512,"ólo":1513,"▁?":1514,"▁cómo":1515,"▁dej":1516,"ridad":1517,"ta.":1518,"▁estos":1519,"▁201":1520,"▁with":1521,"▁eres":1522,"▁noche":1523,"ff":1524,"▁lanzando":1525,"▁The":1526,"cl":1527,"ip":1528,"▁Ven":1529,"lante":1530,"úbl":1531,"▁gui":1532,"tad":1533,"ular":1534,"vas":1535,"▁Una":1536,"bar":1537,"s,":1538,"▁Su":1539,"▁Po":1540,"▁azul":1541,"▁music":1542,"titu":1543,"▁oración":1544,"tv":1545,"▁quiere":1546,"trar":1547,"▁señal":1548,"▁apro":1549,"▁cabe":1550,"▁fuego":1551,"▁falta":1552,"▁queda":1553,"OO":1554,"ian":1555,"▁@usuario,":1556,"▁gobierno":1557,"icación":1558,"ton":1559,"gt;":1560,"▁apoy":1561,"▁19":1562,"▁parece":1563,"▁!":1564,"a,":1565,"▁mí":1566,"llo":1567,"▁all":1568,"▁via":1569,"▁dormir":1570,"tual":1571,"▁flecha":1572,"tbol":1573,"▁dejar":1574,"gún":1575,"ctor":1576,"▁tú":1577,"ionado":1578,"blo":1579,"dir":1580,"▁seguir":1581,"útbol":1582,"▁ellos":1583,"ib":1584,"▁proble":1585,"▁Sal":1586,"cur":1587,"▁ojo":1588,"▁hora":1589,"▁vio":1590,"gro":1591,"▁sub":1592,"TI":1593,"▁RT":1594,"js":1595,"mia":1596,"▁respon":1597,"ral":1598,"▁Per":1599,"▁vas":1600,"▁salir":1601,"▁Qué":1602,"▁UN":1603,"▁af":1604,"▁Par":1605,"▁ima":1606,"low":1607,"▁cuar":1608,"▁..":1609,"▁estamos":1610,"▁ahí":1611,"▁sos":1612,"▁hermos":1613,"éxico":1614,"pos":1615,"▁video":1616,"mes":1617,"▁Ex":1618,"▁dan":1619,"▁termin":1620,"cción":1621,"amos":1622,"▁bon":1623,"mon":1624,"▁miedo":1625,"▁somos":1626,"▁clas":1627,"da,":1628,"▁Fel":1629,"tif":1630,"▁CON":1631,"▁cír":1632,"▁debe":1633,"itter":1634,"one":1635,"▁pelo":1636,"▁Este":1637,"UN":1638,"▁Hay":1639,"▁nuestra":1640,"mbia":1641,"▁historia":1642,"▁círculo":1643,"▁fútbol":1644,"▁z":1645,"osa":1646,"▁marca":1647,"jas":1648,"use":1649,"bra":1650,"▁estas":1651,"anos":1652,"alo":1653,"▁homb":1654,"▁comun":1655,"rid":1656,"▁unos":1657,"▁Ay":1658,"▁X":1659,"ds":1660,"▁buena":1661,"▁flex":1662,"milia":1663,"▁am":1664,"▁ella":1665,"gentina":1666,"▁estaba":1667,"▁olvi":1668,"000":1669,"EL":1670,"▁amigos":1671,"▁prof":1672,"▁mtv":1673,"eando":1674,"ñando":1675,"cos":1676,"▁ide":1677,"▁ciudad":1678,"▁nueva":1679,"▁Z":1680,"itar":1681,"▁cap":1682,"tón":1683,"▁wh":1684,"▁har":1685,"▁Go":1686,"▁cuer":1687,"tido":1688,"▁bí":1689,"▁cabeza":1690,"▁gri":1691,"▁hecho":1692,"▁AM":1693,"▁estre":1694,"pera":1695,"chas":1696,"▁mill":1697,"▁frío":1698,"ceps":1699,"▁salud":1700,"▁bíceps":1701,"▁cr":1702,"▁Ja":1703,"▁sudor":1704,"cuerdo":1705,"mina":1706,"▁equipo":1707,"lea":1708,"▁flexionado":1709,"▁comer":1710,"▁madre":1711,"otros":1712,"▁fuera":1713,"▁hablar":1714,"da.":1715,"entro":1716,"▁pin":1717,"▁primer":1718,"▁hacen":1719,"mal":1720,"▁pasar":1721,"RO":1722,"ús":1723,"▁cha":1724,"uta":1725,"▁fan":1726,"▁dijo":1727,"ger":1728,"dido":1729,"▁sabe":1730,"AA":1731,"▁peor":1732,"rr":1733,"▁forma":1734,"▁Pro":1735,"uego":1736,"ár":1737,"▁deja":1738,"▁trans":1739,"▁tal":1740,"▁chis":1741,"▁saber":1742,"quier":1743,"▁sor":1744,"▁poner":1745,"▁será":1746,"▁TO":1747,"rir":1748,"▁pensativa":1749,"añ":1750,"▁are":1751,"vil":1752,"▁Ju":1753,"▁tor":1754,"ua":1755,"tadas":1756,"unque":1757,"val":1758,"ka":1759,"ks":1760,"▁pul":1761,"▁amar":1762,"▁amigo":1763,"▁Así":1764,"elo":1765,"▁desa":1766,"▁juga":1767,"▁din":1768,"▁familia":1769,"ientras":1770,"eja":1771,"ura":1772,"antes":1773,"▁Th":1774,"▁Lu":1775,"▁corona":1776,"ción.":1777,"▁él":1778,"ual":1779,"▁[":1780,"▁morado":1781,"IL":1782,"gi":1783,"ticia":1784,"▁direc":1785,"izo":1786,"y.":1787,"▁cier":1788,"itos":1789,"▁comi":1790,"eral":1791,"▁social":1792,"▁ale":1793,"▁len":1794,"bación":1795,"▁15":1796,"▁*":1797,"▁tenemos":1798,"▁'":1799,"dades":1800,"▁lib":1801,"ior":1802,"▁veo":1803,"▁lugar":1804,"▁segun":1805,"tá":1806,"▁dif":1807,"\",":1808,"ich":1809,"▁ag":1810,"▁Bar":1811,"▁cri":1812,"tedes":1813,"hat":1814,"▁encan":1815,"yo":1816,"▁medi":1817,"▁siento":1818,"▁/":1819,"a.":1820,"ital":1821,"mor":1822,"▁ade":1823,"▁compar":1824,"▁Di":1825,"port":1826,"▁Estoy":1827,"▁Ahora":1828,"▁by":1829,"demos":1830,"▁elec":1831,"icas":1832,"illo":1833,"▁HA":1834,"▁enten":1835,"▁Mad":1836,"▁guiñando":1837,"llas":1838,"▁esos":1839,"▁partido":1840,"tru":1841,"ss":1842,"▁ning":1843,"▁informa":1844,"chos":1845,"bas":1846,"▁triste":1847,"▁invi":1848,"▁nor":1849,"eta":1850,"▁bab":1851,"▁pra":1852,"op":1853,"▁:(":1854,"illa":1855,"▁pueden":1856,"▁ví":1857,"▁bril":1858,"ilidad":1859,"ción,":1860,"▁não":1861,"ira":1862,"▁mayor":1863,"▁¿Q":1864,"▁deber":1865,"▁puta":1866,"entar":1867,"▁primera":1868,"rup":1869,"▁12":1870,"▁your":1871,"▁volver":1872,"idos":1873,"ord":1874,"guen":1875,"▁hombre":1876,"▁pien":1877,"ula":1878,"▁deb":1879,"ers":1880,"eet":1881,"▁tro":1882,"all":1883,"ísi":1884,"lica":1885,"▁públ":1886,"▁horas":1887,"ty":1888,"▁perd":1889,"mm":1890,"▁otros":1891,"▁auto":1892,"sión":1893,"amp;":1894,"▁ali":1895,"jal":1896,"▁Espa":1897,"▁!!!":1898,"▁cl":1899,"ting":1900,"tima":1901,"fi":1902,"▁presidente":1903,"tua":1904,"RI":1905,"▁Cor":1906,"▁AL":1907,"▁RE":1908,"▁hizo":1909,"eros":1910,"▁IN":1911,"lando":1912,"▁+":1913,"▁pap":1914,"▁Ta":1915,"▁Ser":1916,"▁Ni":1917,"▁notas":1918,"▁podr":1919,"▁pueblo":1920,"▁sólo":1921,"▁LO":1922,"▁ben":1923,"para":1924,"bado":1925,"▁POR":1926,"▁fotos":1927,"▁haber":1928,"t.":1929,"▁tarde":1930,"▁respe":1931,"▁amiga":1932,"virus":1933,"▁vic":1934,"▁gana":1935,"▁encon":1936,"ear":1937,"▁tipo":1938,"▁llega":1939,"▁produ":1940,"mien":1941,"▁llama":1942,"▁Tw":1943,"haha":1944,"▁rela":1945,"▁defen":1946,"ial":1947,"▁sigue":1948,"▁cosa":1949,"▁sido":1950,"▁muer":1951,"óx":1952,"▁mos":1953,"brando":1954,"▁asi":1955,"▁Pues":1956,"&gt;":1957,"▁tienes":1958,"gando":1959,"entena":1960,"cía":1961,"cri":1962,"cis":1963,"te.":1964,"▁cambi":1965,"▁DI":1966,"▁viene":1967,"▁Cre":1968,"US":1969,"▁\"E":1970,"▁Bo":1971,"ándo":1972,"cido":1973,"▁lindo":1974,"▁Ra":1975,"duca":1976,"▁digo":1977,"sab":1978,"uso":1979,"▁SI":1980,"▁chispas":1981,"ook":1982,"▁je":1983,"▁lengua":1984,"EM":1985,"▁espe":1986,"▁11":1987,"pro":1988,"▁loco":1989,"▁cui":1990,"ÓN":1991,"fas":1992,"mentos":1993,"▁llegar":1994,"▁profes":1995,"▁muchos":1996,"fru":1997,"▁estado":1998,"eno":1999,"▁br":2000,"▁tomar":2001,"dió":2002,"dica":2003,"y,":2004,"ció":2005,"▁apar":2006,"ii":2007,"▁raz":2008,"▁difer":2009,"migo":2010,"▁apren":2011,"ant":2012,"▁prop":2013,"ícu":2014,"▁dicen":2015,"▁ele":2016,"▁PAR":2017,"▁habla":2018,"te,":2019,"comp":2020,"▁había":2021,"éis":2022,"▁Fa":2023,"▁nar":2024,"▁bel":2025,"ye":2026,"▁publ":2027,"▁Ne":2028,"▁balón":2029,"▁único":2030,"▁sh":2031,"▁pulgar":2032,"▁sho":2033,"dos.":2034,"cip":2035,"▁brillante":2036,"cul":2037,"▁cur":2038,"▁MI":2039,"ió":2040,"▁ante":2041,"▁ustedes":2042,"tina":2043,"▁dinero":2044,"▁imag":2045,"LE":2046,"▁sueño":2047,"▁celebrando":2048,"▁minu":2049,"eti":2050,"izar":2051,"▁aten":2052,"vía":2053,"▁Pres":2054,"▁espera":2055,"▁dios":2056,"UI":2057,"ollow":2058,"fo":2059,"tri":2060,"▁Cas":2061,"JAJAJA":2062,"ys":2063,"imada":2064,"▁gas":2065,"▁Qu":2066,"▁like":2067,"til":2068,"▁casi":2069,"▁cualquier":2070,"▁Tengo":2071,"esti":2072,"▁suf":2073,"olu":2074,"kk":2075,"rante":2076,"▁visto":2077,"jalá":2078,"▁2020":2079,"▁cru":2080,"▁$":2081,"pero":2082,"CH":2083,"▁palab":2084,"ál":2085,"▁muchas":2086,"té":2087,"col":2088,"king":2089,"cie":2090,"▁empres":2091,"hh":2092,"▁aún":2093,"▁estudi":2094,"▁pasado":2095,"▁cuarentena":2096,"mingo":2097,"▁Eso":2098,"▁paso":2099,"▁luego":2100,"▁Pre":2101,"▁desan":2102,"yec":2103,"▁tras":2104,"uro":2105,"▁interes":2106,"▁18":2107,"▁gru":2108,"menta":2109,"▁camb":2110,"▁nosotros":2111,"▁España":2112,"▁Quiero":2113,"cog":2114,"lo.":2115,"ches":2116,"itas":2117,"▁mad":2118,"▁amb":2119,"▁He":2120,"▁ley":2121,"▁che":2122,"gía":2123,"▁quieren":2124,"▁musicales":2125,"tis":2126,"▁ej":2127,"tamente":2128,"▁progra":2129,"▁Jo":2130,"▁Pe":2131,"10":2132,"vin":2133,"▁oscu":2134,"dida":2135,"▁Man":2136,"rados":2137,"▁dol":2138,"▁not":2139,"▁levantadas":2140,"▁estás":2141,"▁love":2142,"▁Venezuela":2143,"▁ur":2144,"▁jugar":2145,"▁desanimada":2146,"aria":2147,"▁mientras":2148,"▁&amp;":2149,"ell":2150,"mara":2151,"▁Do":2152,"LO":2153,"anto":2154,"pm":2155,"▁liber":2156,"▁sex":2157,"▁comple":2158,"ini":2159,"DE":2160,"DI":2161,"▁quedar":2162,"▁encu":2163,"ciales":2164,"30":2165,"fil":2166,"LA":2167,"▁lab":2168,"▁hue":2169,"▁LOS":2170,"▁come":2171,"▁Tu":2172,"▁acuerdo":2173,"▁em":2174,"▁was":2175,"tel":2176,"▁vir":2177,"▁have":2178,"DA":2179,"▁Nos":2180,"▁colo":2181,"vidad":2182,"lo,":2183,"▁México":2184,"▁TE":2185,"▁100":2186,"▁wor":2187,"▁Li":2188,"onces":2189,"▁beb":2190,"▁ol":2191,"▁Todo":2192,"▁mucha":2193,"mano":2194,"▁pensar":2195,"ry":2196,"▁aunque":2197,"▁tema":2198,"▁esas":2199,"rom":2200,"'t":2201,"▁empez":2202,"▁tenía":2203,"▁covid":2204,"est":2205,"cn":2206,"ase":2207,"gó":2208,"▁COM":2209,"▁millones":2210,"▁um":2211,"▁Val":2212,"jes":2213,"▁pod":2214,"ood":2215,"dez":2216,"▁coronavirus":2217,"▁\"L":2218,"▁hici":2219,"▁nuestros":2220,"wn":2221,"▁camin":2222,"▁agua":2223,"▁Son":2224,"tencia":2225,"gado":2226,"bles":2227,"▁mejores":2228,"▁verde":2229,"▁recor":2230,"▁Porque":2231,"inos":2232,"▁corrup":2233,"▁mé":2234,"▁próx":2235,"No":2236,"vent":2237,"▁alto":2238,"cogida":2239,"▁problema":2240,"▁Madrid":2241,"▁romp":2242,"▁caso":2243,"pec":2244,"▁misma":2245,"gre":2246,"▁lado":2247,"▁iz":2248,"dos,":2249,"lub":2250,"yas":2251,"▁30":2252,"dial":2253,"cios":2254,"▁felici":2255,"AB":2256,"▁polic":2257,"▁but":2258,"▁serv":2259,"▁hombros":2260,"▁abo":2261,"ñas":2262,"▁calle":2263,"▁inten":2264,"▁tri":2265,"▁disfru":2266,"ix":2267,"▁Da":2268,"▁manera":2269,"▁sale":2270,"▁mujeres":2271,"asta":2272,"▁negro":2273,"▁Vi":2274,"▁ayud":2275,"▁one":2276,"zas":2277,"▁cho":2278,"▁ref":2279,"cado":2280,"ght":2281,"▁sino":2282,"ard":2283,"▁mono":2284,"▁prin":2285,"▁cá":2286,"gia":2287,"▁viern":2288,"▁mor":2289,"iden":2290,"▁compañ":2291,"ar,":2292,"ERO":2293,"▁¿C":2294,"diendo":2295,"▁Ho":2296,"ocu":2297,"▁hago":2298,"icial":2299,"▁vivir":2300,"day":2301,"▁blo":2302,"▁comida":2303,"don":2304,"HAHA":2305,"▁iba":2306,"rada":2307,"ulta":2308,"ung":2309,"▁Twitter":2310,"▁bro":2311,"tos,":2312,"igh":2313,"unidad":2314,"gal":2315,"usa":2316,"bla":2317,"▁necesita":2318,"▁fir":2319,"tamos":2320,"ick":2321,"▁encogida":2322,"ite":2323,"▁ayer":2324,"▁unas":2325,"▁et":2326,"▁agu":2327,"ar.":2328,"▁entr":2329,"cor":2330,"▁Mo":2331,"▁bor":2332,"▁odio":2333,"▁tele":2334,"A.":2335,"▁Hola":2336,"▁due":2337,"▁Sin":2338,"▁peque":2339,"tiendo":2340,"▁You":2341,"▁mamá":2342,"▁vie":2343,"▁puedes":2344,"ens":2345,"▁opin":2346,"tivos":2347,"gio":2348,"gü":2349,"demia":2350,"▁cel":2351,"▁up":2352,"▁Siempre":2353,"▁quién":2354,"unes":2355,"▁nivel":2356,"▁sig":2357,"st":2358,"tur":2359,"▁oscuro":2360,"▁importante":2361,"zos":2362,"amo":2363,"ional":2364,"▁agra":2365,"▁tapa":2366,"iod":2367,"bal":2368,"cima":2369,"▁escuchar":2370,"▁2019":2371,"▁!!":2372,"▁conse":2373,"ición":2374,"▁comprar":2375,"iado":2376,"URL":2377,"▁ama":2378,"▁victoria":2379,"uu":2380,"▁seguro":2381,"▁lleva":2382,"▁ases":2383,":00":2384,"ticos":2385,"tos.":2386,"▁inte":2387,"▁just":2388,"▁enf":2389,"▁from":2390,"e.":2391,"pres":2392,"▁vale":2393,"▁ren":2394,"oco":2395,"▁lar":2396,"▁tui":2397,"▁pier":2398,"▁CU":2399,"▁reco":2400,"▁out":2401,"▁nota":2402,"▁grandes":2403,"m.":2404,"cono":2405,"▁gato":2406,"▁sentir":2407,"▁sabes":2408,"▁tres":2409,"iencia":2410,"▁consi":2411,"▁Gu":2412,"uld":2413,"▁14":2414,"dado":2415,"e,":2416,"▁Mon":2417,"▁fami":2418,"▁realidad":2419,"▁total":2420,"▁capa":2421,"▁educa":2422,"diante":2423,"▁bail":2424,"▁Mor":2425,"▁chin":2426,"▁proyec":2427,"▁babeando":2428,"dí":2429,"▁Sa":2430,"▁dur":2431,"▁gafas":2432,"tigo":2433,"▁tweet":2434,"ong":2435,"▁Rec":2436,"▁meses":2437,"▁mensa":2438,"IEN":2439,"▁espero":2440,"dy":2441,"▁mtvla":2442,"▁perfil":2443,"▁actual":2444,"▁enfer":2445,"▁siendo":2446,"▁Solo":2447,"ko":2448,"gel":2449,"GO":2450,"▁24":2451,"▁Ins":2452,"▁recu":2453,"cidad":2454,"▁preocu":2455,"IA":2456,"her":2457,"▁art":2458,"▁confeti":2459,"ciente":2460,"▁viernes":2461,"▁aprobación":2462,"leaños":2463,"▁entiendo":2464,"lado":2465,"cra":2466,"▁hijo":2467,"▁entra":2468,"▁trabaja":2469,"ps":2470,"▁funcion":2471,"▁juego":2472,"▁ru":2473,"mple":2474,"tia":2475,"▁new":2476,"▁Más":2477,"▁prem":2478,"▁conmigo":2479,"▁algún":2480,"▁CO":2481,"ría":2482,"ies":2483,"▁lit":2484,"▁domingo":2485,"fono":2486,"ecer":2487,"▁ganar":2488,"▁programa":2489,"▁pende":2490,"inas":2491,"▁cris":2492,"▁exper":2493,"▁tur":2494,"▁Creo":2495,"▁radiante":2496,"18":2497,"▁nombre":2498,"▁Can":2499,"▁cla":2500,"▁Neces":2501,"▁pl":2502,"▁Gran":2503,"aña":2504,"uestra":2505,"ese":2506,"▁Vamos":2507,"▁dio":2508,"▁roto":2509,"ñar":2510,"▁cambio":2511,"▁recib":2512,"▁mús":2513,"rea":2514,"▁información":2515,"sos":2516,"▁viendo":2517,"▁pone":2518,"▁fiesta":2519,"▁niños":2520,"▁gar":2521,"uncia":2522,"▁acá":2523,"▁some":2524,"quierda":2525,"▁sería":2526,"▁perfec":2527,"▁escri":2528,"▁señor":2529,"▁aque":2530,"▁grupo":2531,"▁13":2532,"has":2533,"▁int":2534,"▁argentina":2535,"▁paz":2536,"▁ago":2537,"▁demás":2538,"taron":2539,"▁exis":2540,"▁top":2541,"qué":2542,"▁importa":2543,"▁demas":2544,"▁estrellas":2545,"AT":2546,"▁Soy":2547,"ican":2548,"▁futu":2549,"▁cumpleaños":2550,"▁prote":2551,"▁política":2552,"▁il":2553,"▁tempora":2554,"▁Feliz":2555,"▁haga":2556,"vés":2557,"ang":2558,"mero":2559,"▁more":2560,"▁pq":2561,"▁repres":2562,"▁saben":2563,"lt;":2564,"▁usted":2565,"▁Don":2566,"▁ayuda":2567,"▁leer":2568,"▁trabajar":2569,"▁cues":2570,"▁razón":2571,"▁entonces":2572,"▁MU":2573,"▁policía":2574,"ificación":2575,"cimiento":2576,"▁Dis":2577,"▁llorar":2578,"▁ever":2579,"▁situa":2580,"▁abrazando":2581,"atro":2582,"▁durante":2583,"▁serio":2584,"▁Nunca":2585,"güen":2586,"▁tendr":2587,"▁gritando":2588,"taría":2589,"ex":2590,"▁nacional":2591,"ire":2592,"▁emb":2593,"▁16":2594,"▁suerte":2595,"▁expres":2596,"▁sola":2597,"▁We":2598,"ms":2599,"▁és":2600,"mando":2601,"▁extraño":2602,"▁organ":2603,"▁ton":2604,"IT":2605,"▁wa":2606,"dora":2607,"▁cerrados":2608,"▁17":2609,"▁arre":2610,"▁especial":2611,"tagra":2612,"▁hos":2613,"▁hijos":2614,"▁necesito":2615,"EE":2616,"icia":2617,"▁conver":2618,"▁pron":2619,"▁sacar":2620,"pre":2621,"udo":2622,"▁Colo":2623,"▁mira":2624,"▁SU":2625,"▁play":2626,"▁Cal":2627,"▁human":2628,"▁sá":2629,"iso":2630,"▁Ac":2631,"vesti":2632,"▁amarillo":2633,"inal":2634,"▁Buenos":2635,"▁menti":2636,"d.":2637,"▁viol":2638,"▁encanta":2639,"▁desper":2640,"▁escrib":2641,"▁period":2642,"▁normal":2643,"▁vaya":2644,"▁izquierda":2645,"▁tamp":2646,"ifica":2647,"▁Ba":2648,"udos":2649,"CA":2650,"quiera":2651,"jada":2652,"▁tir":2653,"ki":2654,"ró":2655,"▁pelícu":2656,"ticas":2657,"▁Todos":2658,"▁través":2659,"gada":2660,"ça":2661,"▁Cha":2662,"▁creer":2663,"▁:)":2664,"▁bts":2665,"ónde":2666,"▁fil":2667,"▁encima":2668,"ñón":2669,"▁símb":2670,"▁DEL":2671,"▁no,":2672,"ity":2673,"▁haya":2674,"▁will":2675,"ADO":2676,"▁ata":2677,"ENTE":2678,"pu":2679,"rump":2680,"▁pagar":2681,"▁what":2682,"▁I'":2683,"▁É":2684,"▁Ver":2685,"▁AN":2686,"▁perder":2687,"▁Pol":2688,"ioridad":2689,"ust":2690,"▁permi":2691,"EC":2692,"ador":2693,"▁personal":2694,"▁hubi":2695,"ila":2696,"▁Min":2697,"▁coment":2698,"dó":2699,"▁contro":2700,"mó":2701,"ág":2702,"▁famili":2703,"usión":2704,"▁Fran":2705,"óm":2706,"▁gor":2707,"▁españ":2708,"▁dec":2709,"▁Ale":2710,"▁ges":2711,"▁incre":2712,"▁perro":2713,"▁venezuela":2714,"▁wo":2715,"▁fá":2716,"pan":2717,"▁Tra":2718,"▁Muy":2719,"▁serie":2720,"▁demo":2721,"▁Res":2722,"▁sur":2723,"dito":2724,"ia,":2725,"▁Or":2726,"▁música":2727,"▁1.":2728,"▁llevar":2729,"now":2730,"▁pobre":2731,"ror":2732,"▁otras":2733,"OY":2734,"▁buenos":2735,"▁Inter":2736,"▁ejemp":2737,"▁partici":2738,"▁mala":2739,"tación":2740,"▁Gobierno":2741,"▁fra":2742,"▁vivo":2743,"▁abier":2744,"▁pena":2745,"▁canción":2746,"▁precio":2747,"▁puer":2748,"▁club":2749,"cito":2750,"▁tenga":2751,"▁tampoco":2752,"▁punto":2753,"▁\"S":2754,"IO":2755,"dera":2756,"▁ves":2757,"▁EST":2758,"mun":2759,"pido":2760,"-19":2761,"dal":2762,"oso":2763,"embre":2764,"ivers":2765,"MA":2766,"▁200":2767,"cla":2768,"▁chu":2769,"▁VI":2770,"▁they":2771,"▁oport":2772,"▁gua":2773,"▁guar":2774,"▁expl":2775,"▁contin":2776,"óg":2777,"▁edi":2778,"▁PARA":2779,"ancia":2780,"icios":2781,"▁sigo":2782,"▁Pri":2783,"ENT":2784,"eras":2785,"güenza":2786,"▁difí":2787,"▁dé":2788,"▁primero":2789,"▁alguna":2790,"▁evi":2791,"▁mara":2792,"▁dicho":2793,"▁tre":2794,"▁cañón":2795,"▁cabre":2796,"▁idea":2797,"▁podemos":2798,"▁responsab":2799,"▁cámara":2800,"ticias":2801,"trás":2802,"▁Cómo":2803,"▁uma":2804,"▁Juan":2805,"▁get":2806,"2020":2807,"ANDO":2808,"▁Aca":2809,"▁tranqui":2810,"▁cuernos":2811,"▁botón":2812,"▁Á":2813,"RES":2814,"ísimo":2815,"▁pandemia":2816,"▁conta":2817,"▁Aquí":2818,"▁now":2819,"▁prue":2820,"▁sele":2821,"puesta":2822,"▁orgu":2823,"▁Hab":2824,"▁nu":2825,"JS":2826,"ciar":2827,"▁contigo":2828,"▁Pue":2829,"arro":2830,"cando":2831,"rera":2832,"pren":2833,"▁depor":2834,"istra":2835,"▁meu":2836,"ack":2837,"▁culpa":2838,"▁apoyo":2839,"TS":2840,"▁25":2841,"▁todavía":2842,"▁Desde":2843,"▁incl":2844,"▁¿Qué":2845,"are":2846,"▁bur":2847,"ok":2848,"▁compro":2849,"▁linda":2850,"▁plata":2851,"ink":2852,"▁flor":2853,"▁peop":2854,"▁bb":2855,"▁mais":2856,"miendo":2857,"▁Fe":2858,"ctu":2859,"dios":2860,".000":2861,"vista":2862,"▁Men":2863,"▁anti":2864,"▁sir":2865,"▁log":2866,"del":2867,"▁conocer":2868,"▁bu":2869,"ítu":2870,"z,":2871,"▁último":2872,"ist":2873,"▁21":2874,"▁junto":2875,"▁anda":2876,"▁pelotu":2877,"▁ps":2878,"▁fueron":2879,"▁pasó":2880,"llos":2881,"▁YO":2882,"▁dije":2883,"▁payas":2884,"▁people":2885,"▁orden":2886,"▁minutos":2887,"▁libre":2888,"ron":2889,"▁Argentina":2890,"),":2891,"▁toma":2892,"ld":2893,"▁glo":2894,"ct":2895,"und":2896,"jando":2897,"▁¿P":2898,"VID":2899,"erra":2900,"▁vs":2901,"▁princip":2902,"ins":2903,"▁Ojalá":2904,"▁movi":2905,"rible":2906,"MO":2907,"▁cabreada":2908,"la,":2909,"CIÓN":2910,"▁ano":2911,"▁puño":2912,"ía,":2913,"ess":2914,"▁investi":2915,"ia.":2916,"imos":2917,"▁about":2918,"▁entender":2919,"▁quienes":2920,"riendo":2921,"icip":2922,"hi":2923,"sidad":2924,"▁clase":2925,"mientos":2926,"▁lunes":2927,"▁palabras":2928,"tera":2929,"▁nego":2930,"▁acomp":2931,"▁enamo":2932,"▁follow":2933,"▁xd":2934,"▁presenta":2935,"ór":2936,"▁buenas":2937,"ind":2938,"tancia":2939,"▁inde":2940,"▁cole":2941,"▁Pla":2942,"▁Hu":2943,"▁debería":2944,"▁quieres":2945,"▁fui":2946,"quer":2947,"▁senti":2948,"▁única":2949,"▁futuro":2950,"aro":2951,"▁abs":2952,"▁Nue":2953,"idades":2954,"ADA":2955,"ans":2956,"gencia":2957,"pez":2958,"mba":2959,"way":2960,"▁acti":2961,"▁Lle":2962,"io,":2963,"▁tamb":2964,"▁pren":2965,"▁pedir":2966,"▁Mis":2967,"▁última":2968,"▁Jos":2969,"▁50":2970,"érica":2971,"▁Pas":2972,"▁lpm":2973,"▁ign":2974,"▁mundial":2975,"jan":2976,"▁justicia":2977,"ef":2978,"duro":2979,"ther":2980,"Es":2981,"▁AR":2982,"aaa":2983,"▁Hace":2984,"▁sabor":2985,"t,":2986,"▁infor":2987,"▁Mun":2988,"▁cuerpo":2989,"arias":2990,"▁TH":2991,"▁novio":2992,"hy":2993,"▁sta":2994,"▁hablando":2995,"▁regres":2996,"▁regal":2997,"ización":2998,"▁Nacional":2999,"ezol":3000,"▁sacando":3001,"la.":3002,"ser":3003,"▁cine":3004,"▁chi":3005,"▁interna":3006,"▁day":3007,"▁calor":3008,"▁mue":3009,"istema":3010,"▁posible":3011,"mbo":3012,"dencia":3013,"▁dentro":3014,"chando":3015,"guay":3016,"▁\"C":3017,"▁autor":3018,"▁fácil":3019,"UL":3020,"▁cansa":3021,"▁pesso":3022,"▁Ci":3023,"▁mic":3024,"▁recono":3025,"▁cab":3026,"▁Necesito":3027,"▁verificación":3028,"▁conci":3029,"▁algunos":3030,"das.":3031,"uir":3032,"21":3033,"▁dig":3034,"io.":3035,"▁pase":3036,"▁Bueno":3037,"tener":3038,"▁Col":3039,"▁querer":3040,"2019":3041,"arse":3042,"▁á":3043,"▁entien":3044,"ienen":3045,"ING":3046,"▁etc":3047,"▁LE":3048,"▁guer":3049,"ra.":3050,"▁vídeo":3051,"▁Mañana":3052,"▁derecho":3053,"m,":3054,"das,":3055,"book":3056,"voca":3057,"my":3058,"bro":3059,"▁libro":3060,"VE":3061,"▁Vo":3062,"▁indi":3063,"▁Colombia":3064,"▁cent":3065,"▁know":3066,"▁abrazo":3067,"ía.":3068,"▁nú":3069,"i,":3070,"▁bonito":3071,"&gt;&gt;":3072,"▁difícil":3073,"greso":3074,"ppy":3075,"▁estrella":3076,"▁CH":3077,"▁sean":3078,"tt":3079,"▁Les":3080,"cto":3081,"▁existe":3082,"▁haces":3083,"▁confir":3084,"▁media":3085,"celente":3086,"CO":3087,"▁dejo":3088,"▁alta":3089,"▁Hasta":3090,"▁time":3091,"net":3092,"▁Estado":3093,"▁no?":3094,"fica":3095,"MP":3096,"▁anim":3097,"ish":3098,"cir":3099,"▁cambiar":3100,"▁ense":3101,"▁temporada":3102,"▁seguridad":3103,"ques":3104,"▁morir":3105,"▁luz":3106,"▁radio":3107,"▁lí":3108,"▁diga":3109,"ra,":3110,"▁oportunidad":3111,"▁esperando":3112,"▁lis":3113,"vera":3114,"CION":3115,"▁pare":3116,"▁dolor":3117,"ecen":3118,"▁MA":3119,"▁hermosa":3120,"dico":3121,"▁servicio":3122,"ieron":3123,"mena":3124,"▁bra":3125,"▁campe":3126,"▁Sí":3127,"yy":3128,"▁PA":3129,"gente":3130,"▁Comp":3131,"▁show":3132,"eramente":3133,"▁premios":3134,"▁rico":3135,"▁gro":3136,"▁envi":3137,"▁diciendo":3138,"▁US":3139,"▁buscar":3140,"▁gi":3141,"▁twitter":3142,"▁hemos":3143,"▁juntos":3144,"▁@usuario:":3145,"rasil":3146,"▁llamar":3147,"▁rá":3148,"▁22":3149,"▁casos":3150,"▁Mal":3151,"anza":3152,"▁Os":3153,"▁JAJAJA":3154,"au":3155,"▁usar":3156,"▁eh":3157,"▁acaba":3158,"▁encontrar":3159,"UR":3160,"isión":3161,"sion":3162,"arme":3163,"ooo":3164,"▁vec":3165,"▁sign":3166,"▁EX":3167,"▁vergüenza":3168,"ceso":3169,"quito":3170,"▁ul":3171,"▁pedo":3172,"fico":3173,"▁moles":3174,"▁das":3175,"▁agrade":3176,"▁Cada":3177,"▁dias":3178,"▁Her":3179,"íble":3180,"▁Sab":3181,"isi":3182,"12":3183,"ices":3184,"▁gira":3185,"▁muerte":3186,"▁acep":3187,"▁voz":3188,"▁libertad":3189,"▁&lt;":3190,"rando":3191,"▁Mes":3192,"▁cuent":3193,"go,":3194,"dita":3195,"▁kkk":3196,"▁deses":3197,"▁tel":3198,"▁priva":3199,"▁Ese":3200,"bu":3201,"ep":3202,"▁encuent":3203,"gles":3204,"▁hermoso":3205,"▁got":3206,"▁cir":3207,"▁trata":3208,"▁der":3209,"ados":3210,"▁nada,":3211,"IR":3212,"▁contes":3213,"▁dando":3214,"▁\"A":3215,"▁alma":3216,"▁Be":3217,"▁español":3218,"▁hice":3219,"▁vida.":3220,"▁if":3221,"▁chile":3222,"deos":3223,"▁crisis":3224,"▁problemas":3225,"▁bien,":3226,"▁redes":3227,"▁2.":3228,"▁Bol":3229,"▁toca":3230,"thing":3231,"▁cerve":3232,"tas,":3233,"▁podría":3234,"▁payaso":3235,"▁superioridad":3236,"▁bir":3237,"▁nada.":3238,"▁solu":3239,"tero":3240,"tagram":3241,"▁exa":3242,"▁ignor":3243,"▁lista":3244,"▁mater":3245,"BA":3246,"ác":3247,"▁cumple":3248,"rió":3249,"quen":3250,"▁chan":3251,"▁sábado":3252,"▁estan":3253,"▁bloque":3254,"▁Real":3255,"sas":3256,"▁For":3257,"este":3258,"▁só":3259,"▁revés":3260,"▁deba":3261,"▁cien":3262,"cebook":3263,"GA":3264,"▁agar":3265,"terio":3266,"▁Cris":3267,"ento":3268,"▁fon":3269,"▁asco":3270,"▁méxico":3271,"▁Am":3272,"▁valor":3273,"▁bajo":3274,"▁PER":3275,"▁copa":3276,"jsjs":3277,"pital":3278,"tral":3279,"ção":3280,"▁.@usuario":3281,"▁ningún":3282,"▁nuestras":3283,"r.":3284,"▁LAS":3285,"▁fuerza":3286,"▁cama":3287,"úper":3288,"▁obli":3289,"▁than":3290,"▁explo":3291,"▁Día":3292,"▁\"T":3293,"cin":3294,"tantes":3295,"▁doy":3296,"ém":3297,"▁hombres":3298,"▁av":3299,"▁ado":3300,"▁Cons":3301,"torios":3302,"▁err":3303,"▁simple":3304,"orn":3305,"▁público":3306,"▁Mas":3307,"em":3308,"gamos":3309,"▁AS":3310,"▁covid19":3311,"▁eno":3312,"11":3313,"▁queremos":3314,"▁realmente":3315,"▁\"M":3316,"▁creciente":3317,"orna":3318,"▁afec":3319,"rio":3320,"▁má":3321,"▁pensando":3322,"UU":3323,"▁quería":3324,"▁\"El":3325,"conóm":3326,"art":3327,"date":3328,"iro":3329,"ciedad":3330,"▁sentido":3331,"tas.":3332,"▁abur":3333,"▁ayudar":3334,"▁españa":3335,"▁dónde":3336,"▁violencia":3337,"▁23":3338,"▁Quien":3339,"▁descu":3340,"▁PU":3341,"▁papá":3342,"rate":3343,"▁vuelta":3344,"▁Muchas":3345,"▁every":3346,"▁aj":3347,"visión":3348,"conom":3349,"▁fran":3350,"sar":3351,"▁our":3352,"!!!.":3353,"▁contag":3354,"▁jugador":3355,"▁mensaje":3356,"▁tanta":3357,"TR":3358,"▁pop":3359,"▁Del":3360,"▁when":3361,"brar":3362,"tran":3363,"▁sistema":3364,"▁Dan":3365,"▁demasiado":3366,"▁xq":3367,"▁limp":3368,"table":3369,"▁Presidente":3370,"▁2018":3371,"gl":3372,"▁mandar":3373,"rez":3374,"ude":3375,"▁Ben":3376,"pol":3377,"ner":3378,"▁comen":3379,"▁;":3380,"▁mex":3381,"tino":3382,"▁vaca":3383,"ído":3384,"istro":3385,"torio":3386,"▁//":3387,"▁ou":3388,"▁voto":3389,"▁Euro":3390,"▁lucha":3391,"▁Ter":3392,"cina":3393,"▁verga":3394,"▁busca":3395,"▁puntos":3396,"▁situación":3397,"▁desapro":3398,"▁Felici":3399,"▁JA":3400,"ORA":3401,"▁Chile":3402,"▁bailando":3403,"15":3404,"▁hicieron":3405,"▁ocur":3406,"gación":3407,"▁sent":3408,"▁who":3409,"▁dra":3410,"▁avan":3411,"taciones":3412,"PA":3413,"▁Espero":3414,"▁acos":3415,"ft":3416,"▁fas":3417,"ull":3418,"▁padre":3419,"ales.":3420,"aya":3421,"▁venezol":3422,"▁empezar":3423,"▁hon":3424,"▁¿S":3425,"▁Trump":3426,"▁\"P":3427,"tados":3428,"▁gal":3429,"tidad":3430,"aste":3431,"▁euro":3432,"▁ji":3433,"▁posi":3434,"▁&gt;":3435,"▁elecciones":3436,"▁además":3437,"uno":3438,"eza":3439,"▁year":3440,"ales,":3441,"ieza":3442,"▁luna":3443,"▁agotada":3444,"tarme":3445,"▁más.":3446,"▁fre":3447,"enas":3448,"up":3449,"tió":3450,"▁siguen":3451,"▁desarro":3452,"▁40":3453,"dres":3454,"▁mó":3455,"▁pregunta":3456,"▁decep":3457,"-0":3458,"▁I'm":3459,"▁DES":3460,"san":3461,"tili":3462,"▁cuad":3463,"▁sociales":3464,"▁terminar":3465,"itan":3466,"tador":3467,"▁segundo":3468,"▁vac":3469,"ología":3470,"ón,":3471,"▁see":3472,"▁vino":3473,"ning":3474,"▁Esa":3475,"▁cin":3476,"able":3477,"▁gesto":3478,"▁suel":3479,"torias":3480,"ju":3481,"▁duele":3482,"▁respeto":3483,"▁xD":3484,"mente,":3485,".\"":3486,"edad":3487,"▁Alguien":3488,"ré":3489,"▁económ":3490,"coles":3491,"tí":3492,"gran":3493,"▁bla":3494,"▁hermano":3495,"▁Is":3496,"tural":3497,"▁té":3498,"▁culo":3499,"▁acer":3500,"al.":3501,"mite":3502,"diente":3503,"▁saboreando":3504,"▁niño":3505,"gir":3506,"▁Jun":3507,"iva":3508,":30":3509,"▁desaprobación":3510,"▁herman":3511,"dente":3512,"▁darle":3513,"▁YA":3514,"O.":3515,"▁segunda":3516,"▁diver":3517,"▁noticias":3518,"▁esperar":3519,"▁resulta":3520,"▁sector":3521,"▁dispon":3522,"zan":3523,"▁za":3524,"▁seman":3525,"▁atención":3526,"▁mama":3527,"▁bola":3528,"gura":3529,"▁gober":3530,"▁cierto":3531,"▁quiera":3532,"▁even":3533,"▁llu":3534,"▁Igual":3535,"▁fut":3536,"damos":3537,"▁pasando":3538,"▁reun":3539,"hora":3540,"17":3541,"▁\"La":3542,"▁esté":3543,"▁virus":3544,"hu":3545,"▁QUI":3546,"tle":3547,"▁Us":3548,"incu":3549,"▁momentos":3550,"end":3551,"▁termina":3552,"▁vida,":3553,"me,":3554,"ses":3555,"▁súper":3556,"50":3557,"mera":3558,"hor":3559,"▁jul":3560,"▁cli":3561,"▁Gen":3562,"DOS":3563,"▁Luis":3564,"▁meter":3565,"▁candida":3566,"▁próximo":3567,"▁crea":3568,"▁tem":3569,"▁aqui":3570,"▁liga":3571,"▁votar":3572,"▁alcan":3573,"▁amigas":3574,"tivas":3575,"uito":3576,"▁impos":3577,"▁cerca":3578,"eck":3579,"▁sonro":3580,"▁genera":3581,"▁UNA":3582,"OT":3583,"ugh":3584,"▁pis":3585,"▁Carlos":3586,"▁promo":3587,"▁signo":3588,"▁cerveza":3589,"CE":3590,"▁acor":3591,"▁entrar":3592,"▁vuelve":3593,"CU":3594,"▁enter":3595,"▁tapados":3596,"▁dado":3597,"▁jueves":3598,"▁partidos":3599,"▁luces":3600,"graf":3601,"▁how":3602,"▁deben":3603,"▁pienso":3604,"▁gir":3605,"▁faz":3606,"▁Está":3607,"▁viv":3608,"▁símbolo":3609,"▁rato":3610,"▁Gar":3611,"ecu":3612,"gon":3613,"▁malo":3614,"▁stre":3615,"▁ener":3616,"ero,":3617,"yan":3618,"▁cuatro":3619,"▁si,":3620,"ares":3621,"▁seu":3622,"celona":3623,"▁hambre":3624,"▁puesto":3625,"dis":3626,"teo":3627,"ÍA":3628,"▁diri":3629,"▁fer":3630,"mber":3631,"ket":3632,"dura":3633,"▁mascar":3634,"▁CA":3635,"▁pueda":3636,"▁hubiera":3637,"▁idio":3638,"dieron":3639,"▁Du":3640,"▁desespera":3641,"▁ok":3642,"▁tren":3643,"▁acabo":3644,"▁Bien":3645,"▁star":3646,"▁onda":3647,"ach":3648,"villa":3649,"▁hagan":3650,"▁Desp":3651,"▁ejemplo":3652,"\"..":3653,"▁Estamos":3654,"▁contar":3655,"▁proyecto":3656,"▁campaña":3657,"▁fis":3658,"mación":3659,"▁martes":3660,"▁Ab":3661,"▁canal":3662,"▁general":3663,"▁Emp":3664,"éndo":3665,"feo":3666,"▁aman":3667,"tarse":3668,"▁conten":3669,"▁This":3670,"▁preocupa":3671,"▁univer":3672,"▁JAJAJAJAJA":3673,"▁camino":3674,"▁silen":3675,"top":3676,"ete":3677,"▁Voy":3678,"tán":3679,"▁Fern":3680,"▁allá":3681,"▁nie":3682,"ste":3683,"▁sonrojada":3684,"ica,":3685,"▁sociedad":3686,"umen":3687,"▁noches":3688,"▁bebé":3689,"▁viola":3690,"▁consegui":3691,"▁seas":3692,"▁obje":3693,"▁centro":3694,"▁Ga":3695,"PE":3696,"nn":3697,"gor":3698,"VO":3699,"bil":3700,"có":3701,"▁ahor":3702,"▁)":3703,"TER":3704,"▁mando":3705,"QUE":3706,"▁¿Y":3707,"▁Sol":3708,"▁matar":3709,"▁efec":3710,"▁ré":3711,"▁durmiendo":3712,"▁Jaja":3713,"icado":3714,"cracia":3715,"cida":3716,"▁imagen":3717,"▁good":3718,"IM":3719,"▁fla":3720,"▁Ti":3721,"▁Nada":3722,"▁say":3723,"▁película":3724,"▁manda":3725,"▁tenes":3726,"▁quedo":3727,"▁Ad":3728,"▁produc":3729,"▁venir":3730,"▁vive":3731,"▁prepara":3732,"▁Pu":3733,"ero.":3734,"ric":3735,"▁Jul":3736,"▁sup":3737,"al,":3738,"fé":3739,"▁Mira":3740,"▁demos":3741,"▁merece":3742,"▁Au":3743,"ight":3744,"▁corre":3745,"gues":3746,"itch":3747,"▁Quer":3748,"▁econom":3749,"berto":3750,"▁hija":3751,"ler":3752,"lidad":3753,"▁sabemos":3754,"▁papel":3755,"lin":3756,"▁ninguna":3757,"▁gusto":3758,"!!.":3759,"ÁS":3760,"rano":3761,"ions":3762,"▁ár":3763,"co,":3764,"▁COVID":3765,"▁beca":3766,"uestro":3767,"▁trofeo":3768,"▁todo,":3769,"bes":3770,"▁bi":3771,"▁bastante":3772,"miaw":3773,"▁vieja":3774,"▁cerrado":3775,"▁Mer":3776,"▁dro":3777,"▁FA":3778,"rito":3779,"▁sep":3780,"▁rápido":3781,"▁best":3782,"▁color":3783,"▁ESTA":3784,"▁derechos":3785,"▁protes":3786,"▁Fo":3787,"rin":3788,"menda":3789,"▁back":3790,"▁pessoas":3791,"▁novia":3792,"rer":3793,"icion":3794,"▁Fal":3795,"su":3796,"▁off":3797,"▁tuvi":3798,"chez":3799,"chi":3800,"▁según":3801,"GU":3802,"CIA":3803,"▁Señ":3804,"▁sorpren":3805,"volu":3806,"andom":3807,"▁joven":3808,"▁opinión":3809,"áis":3810,"▁PS":3811,"bia":3812,"▁municip":3813,"▁tit":3814,"▁labor":3815,"▁VER":3816,"ph":3817,"▁partir":3818,"curso":3819,"▁eran":3820,"▁ros":3821,"▁oficial":3822,"▁viejo":3823,"▁celular":3824,"▁far":3825,"▁any":3826,"▁número":3827,"zada":3828,"▁pronto":3829,"▁avis":3830,"lease":3831,"▁bien.":3832,"▁clases":3833,"me.":3834,"ga,":3835,"▁nuevos":3836,"El":3837,"RAN":3838,"bli":3839,"▁estudiar":3840,"▁pequeño":3841,"▁char":3842,"▁Pi":3843,"▁resul":3844,"▁terror":3845,"ker":3846,"▁esti":3847,"diciones":3848,"eek":3849,"▁salva":3850,"16":3851,"▁Eu":3852,"▁felicidad":3853,"cheta":3854,"▁subir":3855,"▁Tan":3856,"▁Jus":3857,"▁Camp":3858,"▁hermana":3859,"▁José":3860,"▁no.":3861,"▁uso":3862,"▁recuer":3863,"▁noticia":3864,"cuador":3865,"▁descan":3866,"ni":3867,"▁detal":3868,"▁Mac":3869,"cle":3870,"▁duda":3871,"▁musical":3872,"lix":3873,"E.":3874,"▁May":3875,"▁mente":3876,"▁impres":3877,"▁¿A":3878,"▁minha":3879,"▁llen":3880,"▁compartir":3881,"▁sec":3882,"xs":3883,"respon":3884,"▁alivio":3885,"▁It":3886,"▁regalo":3887,"▁desapar":3888,"▁Fu":3889,"ica.":3890,"ille":3891,"▁foi":3892,"▁significa":3893,"line":3894,"▁telé":3895,"ca,":3896,"an,":3897,"OOO":3898,"ón.":3899,"▁pat":3900,"fuer":3901,"▁Maduro":3902,"ey":3903,"▁Facebook":3904,"▁opos":3905,"▁???":3906,"▁TODO":3907,"▁tenido":3908,"▁team":3909,"cê":3910,"▁ropa":3911,"ítulo":3912,"JO":3913,"▁local":3914,"puesto":3915,"bum":3916,"▁Después":3917,"▁cumpl":3918,"▁cree":3919,"iciente":3920,"▁atrás":3921,"2.":3922,"▁aleg":3923,"▁móvil":3924,"▁fras":3925,"ving":3926,"go.":3927,"▁resto":3928,"▁mtvmiaw":3929,"▁Tor":3930,"▁ase":3931,"▁lig":3932,"dd":3933,"▁adver":3934,"ma,":3935,"▁need":3936,"AMOS":3937,"▁pele":3938,"▁TU":3939,"icana":3940,"▁gre":3941,"▁=":3942,"▁aw":3943,"▁jamás":3944,"▁insta":3945,"pla":3946,"▁vacaciones":3947,"▁live":3948,"▁carrera":3949,"▁medidas":3950,"▁espec":3951,"izado":3952,"de,":3953,"▁decepcion":3954,"bamos":3955,"▁literal":3956,"▁levantada":3957,"▁vemos":3958,"▁web":3959,"porte":3960,"bres":3961,"▁Imp":3962,"▁LI":3963,"▁here":3964,"▁tambien":3965,"unt":3966,"▁rosa":3967,"▁Messi":3968,"▁chincheta":3969,"▁mín":3970,"▁AC":3971,"▁ka":3972,"▁edad":3973,"▁Gua":3974,"▁(@usuario":3975,"▁Toda":3976,"▁años,":3977,"▁increíble":3978,"▁aire":3979,"▁SO":3980,"▁puto":3981,"ctubre":3982,"zco":3983,"▁globo":3984,"▁indepen":3985,"▁pongo":3986,"▁giratorios":3987,"▁correc":3988,"nes":3989,"▁medios":3990,"mpl":3991,"▁institu":3992,"3.":3993,"▁jugadores":3994,"▁profesional":3995,"▁SER":3996,"iel":3997,"▁vai":3998,"▁golpe":3999,"▁todo.":4000,"▁niña":4001,"sh":4002,"▁colombia":4003,"BI":4004,"▁dó":4005,"ará":4006,"quis":4007,"▁cari":4008,"ky":4009,"rí":4010,"▁manif":4011,"uras":4012,"▁cont":4013,"▁apa":4014,"▁And":4015,"▁respuesta":4016,"▁Ob":4017,"▁ON":4018,"▁creen":4019,"▁señora":4020,"▁más,":4021,"▁BTS":4022,"▁QU":4023,"▁hel":4024,"▁ESTO":4025,"ornada":4026,"▁orto":4027,"▁cuanto":4028,"▁paci":4029,"bió":4030,"arte":4031,"cent":4032,"▁lín":4033,"yendo":4034,"▁futbol":4035,"ICA":4036,"▁ل":4037,"▁AH":4038,"ally":4039,"▁Entre":4040,"▁Santa":4041,"▁exig":4042,"▁educación":4043,"ustra":4044,"▁New":4045,"▁Ú":4046,"▁Mil":4047,"de.":4048,"▁arran":4049,"icol":4050,"EZ":4051,"▁Je":4052,"▁eso,":4053,"▁apor":4054,"ós":4055,"▁mayoría":4056,"▁emple":4057,"UT":4058,"▁aut":4059,"▁Che":4060,"▁repro":4061,"▁ahre":4062,"▁red":4063,"▁calidad":4064,"inda":4065,"II":4066,"▁cere":4067,"?!":4068,"▁vomi":4069,"▁ponen":4070,"▁lejos":4071,"▁its":4072,"ings":4073,"▁PRO":4074,"▁disfrutar":4075,"como":4076,"lash":4077,"▁tecn":4078,"i.":4079,"▁ejer":4080,"▁conven":4081,"▁dedo":4082,"▁mismos":4083,"▁abor":4084,"▁utili":4085,"▁político":4086,"▁their":4087,"▁Ade":4088,"En":4089,"▁olvidar":4090,"cola":4091,"▁Claro":4092,"▁datos":4093,"▁tierra":4094,"▁distin":4095,"cti":4096,"▁3.":4097,"▁éx":4098,"día":4099,"▁AMO":4100,"▁kca":4101,"▁prome":4102,"▁ojalá":4103,"za,":4104,"▁ep":4105,"tito":4106,"▁salió":4107,"an.":4108,"▁¡¡":4109,"pira":4110,"misión":4111,"ferencia":4112,"▁Pal":4113,"▁blanca":4114,"▁(?":4115,"▁atra":4116,"▁Segu":4117,"erto":4118,"▁imagin":4119,"terna":4120,"ándose":4121,"▁viaje":4122,"▁militar":4123,"▁teléfono":4124,"▁libros":4125,"▁feo":4126,"d,":4127,"ANT":4128,"▁Than":4129,"▁Eres":4130,"▁Ros":4131,"erta":4132,"▁También":4133,"mental":4134,"▁reac":4135,"▁26":4136,"atch":4137,"IG":4138,"VA":4139,"▁PO":4140,"▁Amo":4141,"▁pareja":4142,"▁juega":4143,",,":4144,"▁opera":4145,"▁defender":4146,"▁dejen":4147,"▁vivi":4148,"▁ofre":4149,"zado":4150,"eres":4151,"▁escucha":4152,"anja":4153,"▁femin":4154,"▁mane":4155,"▁want":4156,"▁l'":4157,"▁dólar":4158,"▁pais":4159,"▁canciones":4160,"▁because":4161,"▁cuba":4162,"▁lluvia":4163,"▁¡A":4164,"▁28":4165,"▁bomb":4166,"JAJAJ":4167,"▁recuerdo":4168,"▁jugando":4169,"h,":4170,"▁denun":4171,"ópez":4172,"▁aga":4173,"▁My":4174,"unto":4175,"▁apre":4176,"▁COMO":4177,"▁unidos":4178,"▁CAR":4179,"rido":4180,"▁secre":4181,"orge":4182,"hib":4183,"▁baja":4184,"VER":4185,"▁feel":4186,"▁siguien":4187,"▁mirar":4188,"▁llev":4189,"gna":4190,"14":4191,"AAA":4192,"▁GRA":4193,"itario":4194,"buen":4195,"▁Im":4196,"▁On":4197,"▁cambia":4198,"▁habrá":4199,"▁evitar":4200,"▁mate":4201,"▁humor":4202,"▁Nor":4203,"▁orig":4204,"get":4205,",.":4206,"▁aprender":4207,"▁colec":4208,"▁fuck":4209,"ma.":4210,"▁varios":4211,"▁duer":4212,"▁políticos":4213,"▁anun":4214,"▁PUE":4215,"▁hin":4216,"▁acuer":4217,"▁pelig":4218,"▁Mejor":4219,"▁alcal":4220,"EO":4221,"bilidad":4222,"sito":4223,"▁Ayer":4224,"▁expresión":4225,"▁llevo":4226,"ico,":4227,"▁respec":4228,"ICI":4229,"tiembre":4230,"▁27":4231,"▁llegó":4232,"mente.":4233,"▁¿Por":4234,"MOS":4235,"kes":4236,"▁Ped":4237,"▁gustaría":4238,"▁cra":4239,"taje":4240,"▁ido":4241,"▁esca":4242,"mado":4243,"▁Pab":4244,"gle":4245,"▁aprove":4246,"▁án":4247,"icha":4248,"▁justo":4249,"▁café":4250,"▁comien":4251,"▁dev":4252,"miso":4253,"▁benef":4254,"IZ":4255,"tín":4256,"ME":4257,"▁hacerlo":4258,"▁cae":4259,"jen":4260,"▁solid":4261,"▁admi":4262,"▁aso":4263,"▁dese":4264,"flix":4265,"▁impues":4266,"▁constru":4267,"▁esfuer":4268,"▁sabía":4269,"▁inver":4270,"▁silencio":4271,"▁dieron":4272,"1.":4273,"▁refle":4274,"▁adelante":4275,"▁inteli":4276,"▁bet":4277,"▁empi":4278,"▁isso":4279,"z.":4280,"ducir":4281,"óven":4282,"▁años.":4283,"▁capital":4284,"▁encuentro":4285,"mu":4286,"fiero":4287,"sen":4288,"nt":4289,"▁\"D":4290,"ny":4291,"▁No,":4292,"▁Va":4293,"▁Jes":4294,"▁chil":4295,"INA":4296,"ku":4297,"//":4298,"▁llegue":4299,"▁Cara":4300,"IST":4301,"▁mueca":4302,"▁bru":4303,"jeje":4304,"▁fecha":4305,"▁zona":4306,"SS":4307,"▁deje":4308,"▁tuit":4309,"iar":4310,"▁aguan":4311,"▁&lt;3":4312,"etflix":4313,"unta":4314,"▁tantas":4315,"dé":4316,"▁delincu":4317,"▁TEN":4318,"▁maes":4319,"lación":4320,"▁diferencia":4321,"▁Nadie":4322,"▁algunas":4323,"▁did":4324,"▁prepar":4325,"▁Ap":4326,"▁siente":4327,"▁VID":4328,"ding":4329,"▁colab":4330,"▁cansada":4331,"▁palabra":4332,"dando":4333,"▁empresa":4334,"▁ries":4335,"tores":4336,"▁despe":4337,"▁escribir":4338,"za.":4339,"▁esperamos":4340,"mexico":4341,"▁aband":4342,"▁acu":4343,"▁happy":4344,"▁caer":4345,"ise":4346,"▁tiempos":4347,"▁Cos":4348,"▁marcha":4349,"▁lec":4350,"▁depen":4351,"ista,":4352,"mán":4353,"▁doble":4354,"int":4355,"▁saca":4356,"▁tengan":4357,"▁López":4358,"till":4359,"co.":4360,"cara":4361,"▁memo":4362,"icano":4363,"▁rob":4364,"▁¿T":4365,"▁quedan":4366,"ro,":4367,"turas":4368,"puta":4369,"▁cruz":4370,"▁vc":4371,"▁chicos":4372,"▁sw":4373,"unda":4374,"▁entrevista":4375,"encias":4376,"▁hilo":4377,"▁At":4378,"sel":4379,"▁pide":4380,"▁aun":4381,"▁estudio":4382,"terior":4383,"▁ocu":4384,"▁inc":4385,"▁ligeramente":4386,"ure":4387,"▁internacional":4388,"trando":4389,"ca.":4390,"▁preven":4391,"ole":4392,"▁repe":4393,"▁bonita":4394,"▁enfada":4395,"▁stream":4396,"▁escuela":4397,"5.":4398,"▁Covid":4399,"▁dont":4400,"▁así,":4401,"▁verano":4402,"ley":4403,"▁fantas":4404,"uelo":4405,"▁banda":4406,"▁ansi":4407,"▁empresas":4408,"ina,":4409,"onas":4410,"▁make":4411,"▁madrid":4412,"▁been":4413,"▁excla":4414,"tale":4415,"▁presiden":4416,"▁mental":4417,"▁imposible":4418,"cidos":4419,"talla":4420,"▁cuan":4421,"▁seria":4422,"40":4423,"ezo":4424,"SE":4425,"ANA":4426,"▁control":4427,"PO":4428,"▁ke":4429,"les.":4430,"ga.":4431,"▁llena":4432,"▁cuán":4433,"▁\"No":4434,"inho":4435,"▁Har":4436,"▁tuvo":4437,"ello":4438,"▁naranja":4439,"▁mel":4440,"▁padres":4441,"▁THE":4442,"▁maravil":4443,"▁experiencia":4444,"▁celebra":4445,"▁ala":4446,"▁técn":4447,"▁compra":4448,"▁over":4449,"▁trabajando":4450,"▁recordar":4451,"▁hacemos":4452,"▁rey":4453,"tiv":4454,"ters":4455,"imin":4456,"gados":4457,"▁only":4458,"▁pus":4459,"▁país.":4460,"▁siquiera":4461,"▁Ami":4462,"pita":4463,"hats":4464,"▁tec":4465,"▁você":4466,"▁gustan":4467,"▁Barcelona":4468,"▁Buenas":4469,"PER":4470,"ércoles":4471,"fr":4472,"▁digan":4473,"ibilidad":4474,"▁Gra":4475,"chan":4476,"ista.":4477,"▁basura":4478,"tilla":4479,"lec":4480,"▁enga":4481,"▁error":4482,"▁crí":4483,"ime":4484,"TRA":4485,"▁arro":4486,"ículo":4487,"▁líder":4488,"▁pensé":4489,"uerto":4490,"zz":4491,"▁falle":4492,"▁juro":4493,"▁horrible":4494,"▁Ciudad":4495,"eran":4496,"les,":4497,"▁bron":4498,"▁rt":4499,"▁critic":4500,"7.":4501,"▁exclamación":4502,"▁\"H":4503,"ICO":4504,"▁relación":4505,"▁SAL":4506,"▁cultura":4507,"▁TODOS":4508,"anti":4509,"▁Wh":4510,"▁obra":4511,"ls":4512,"ose":4513,"▁puso":4514,"▁peda":4515,"▁sí,":4516,"▁países":4517,"ico.":4518,"ulo":4519,"olver":4520,"▁she":4521,"▁recur":4522,"▁explica":4523,"bel":4524,"tions":4525,"▁mascarilla":4526,"tivamente":4527,"▁leg":4528,"queo":4529,"▁sirve":4530,"/0":4531,"AY":4532,"ribu":4533,"▁anal":4534,"▁chor":4535,"▁dejan":4536,"▁desesperada":4537,"▁inicia":4538,"▁semanas":4539,"indo":4540,"▁iden":4541,"▁emocion":4542,"▁im":4543,"mos.":4544,"2018":4545,"▁Ban":4546,"▁necesario":4547,"▁pasan":4548,"▁pana":4549,"▁despier":4550,"▁caliente":4551,"▁d'":4552,"▁tuve":4553,"▁democracia":4554,"ví":4555,"▁comunidad":4556,"▁perdón":4557,"▁Mientras":4558,"▁JAJAJAJAJAJAJAJA":4559,"▁Saludos":4560,"▁orgullo":4561,"gus":4562,"▁conoce":4563,"▁tá":4564,"ública":4565,"▁ran":4566,"▁disponible":4567,"▁mitad":4568,"CIAS":4569,"▁Instagram":4570,"▁Aunque":4571,"▁mío":4572,"▁descar":4573,"▁gratis":4574,"▁agre":4575,"▁ud":4576,"KK":4577,"ming":4578,"▁colisión":4579,"mos,":4580,"▁boy":4581,"ak":4582,"eee":4583,"ze":4584,"▁fís":4585,"▁quedó":4586,"▁salen":4587,"▁him":4588,"▁suspen":4589,"wer":4590,"▁guerra":4591,"▁participa":4592,"▁recibir":4593,"13":4594,"▁prensa":4595,"▁jóven":4596,"▁ellas":4597,"▁suce":4598,"nas":4599,"▁MAR":4600,"▁intent":4601,"▁tí":4602,"▁día,":4603,"▁Ce":4604,"▁really":4605,"▁AP":4606,"▁hojas":4607,"zó":4608,"ánchez":4609,"▁would":4610,"▁DIOS":4611,"▁directo":4612,"▁largo":4613,"zados":4614,"ienes":4615,"▁contr":4616,"we":4617,":(":4618,"isla":4619,"inha":4620,"ianza":4621,"▁hoy,":4622,"▁frien":4623,"▁Super":4624,"▁poquito":4625,"La":4626,"▁Def":4627,"by":4628,"DAD":4629,"▁90":4630,"iantina":4631,"▁loca":4632,"▁tv":4633,"▁sien":4634,"▁dale":4635,"▁buscando":4636,"▁andar":4637,"▁mode":4638,"ñan":4639,"▁deseo":4640,"▁máx":4641,"▁hablan":4642,"▁Ve":4643,"▁asesina":4644,"▁life":4645,"dp":4646,"▁er":4647,"▁ner":4648,"▁temprano":4649,"▁bueno,":4650,"▁paro":4651,"▁convi":4652,"follow":4653,"▁Si,":4654,"▁historias":4655,"▁pesar":4656,"▁them":4657,"▁app":4658,"▁Ru":4659,"▁venta":4660,"▁internet":4661,"_de":4662,"▁again":4663,"▁publicar":4664,"cien":4665,"tró":4666,"cionar":4667,"▁Direc":4668,"voz":4669,"lic":4670,"jeron":4671,"▁encar":4672,"▁fri":4673,"▁muertos":4674,"ET":4675,"monio":4676,"jul":4677,"▁pobla":4678,"▁dormi":4679,"isis":4680,"▁pág":4681,"▁grogui":4682,"▁cuesta":4683,"▁repor":4684,"▁conversa":4685,"▁presente":4686,"▁¿Cómo":4687,"▁MAS":4688,"▁Tran":4689,"onz":4690,"-2":4691,"▁Bel":4692,"▁excelente":4693,"▁Cab":4694,"▁puse":4695,"tea":4696,"▁nomb":4697,"▁Pos":4698,"▁visita":4699,"ble.":4700,"▁reti":4701,"▁Uno":4702,"▁¿Cu":4703,"dición":4704,"▁chica":4705,"mentar":4706,"▁Bueno,":4707,"tes,":4708,"▁Pat":4709,"▁insul":4710,"▁legal":4711,"▁defini":4712,"tear":4713,"▁finde":4714,"▁Hi":4715,"tór":4716,"▁cuidar":4717,"_de_":4718,"rue":4719,"▁lea":4720,"▁entrena":4721,"▁PR":4722,"▁world":4723,"▁kcamexico":4724,"tifica":4725,"tonces":4726,"▁debate":4727,"▁way":4728,"▁jar":4729,"pal":4730,"▁PERO":4731,"▁mundo.":4732,"▁ahi":4733,"▁nas":4734,"KS":4735,"▁últimos":4736,"▁tb":4737,"▁acabar":4738,"▁sit":4739,"▁Gal":4740,"QU":4741,"▁videos":4742,"éc":4743,"▁week":4744,"▁pic":4745,"tem":4746,"gg":4747,"▁participar":4748,"▁extre":4749,"NO":4750,"▁80":4751,"▁Rep":4752,"▁Segui":4753,"loj":4754,"▁pruebas":4755,"▁Polic":4756,"▁PP":4757,"jala":4758,"4.":4759,"▁cualquiera":4760,"▁defensa":4761,"▁dise":4762,"▁bre":4763,"▁estuvo":4764,"▁corriendo":4765,"▁miles":4766,"▁Sec":4767,"▁concha":4768,"crip":4769,"hol":4770,"▁empieza":4771,"▁árbol":4772,"▁nuevas":4773,"▁línea":4774,"pia":4775,"▁diferente":4776,"▁có":4777,"▁don't":4778,"medad":4779,"ture":4780,"▁já":4781,"▁navidad":4782,"▁fav":4783,"uido":4784,"▁pendejo":4785,"'re":4786,"▁recha":4787,"▁seguidores":4788,"▁ses":4789,"lito":4790,"▁docu":4791,"icamente":4792,"▁fl":4793,"▁nomas":4794,"▁amena":4795,"ciones.":4796,"cí":4797,"▁aus":4798,"▁Fer":4799,"▁representa":4800,"iga":4801,"▁cagar":4802,"▁Europa":4803,"▁querido":4804,"▁causa":4805,"▁enfadada":4806,"▁PAS":4807,"▁flash":4808,"▁consu":4809,"▁recla":4810,"▁orgullos":4811,"▁What":4812,"▁cam":4813,"▁win":4814,"▁think":4815,"clara":4816,"▁Sánchez":4817,"▁¡F":4818,"▁colegio":4819,"▁espacio":4820,"▁post":4821,"▁ind":4822,"TU":4823,"▁latiendo":4824,"isiera":4825,"▁¡S":4826,"ensa":4827,"sal":4828,"ily":4829,"▁sueños":4830,"ministra":4831,"▁black":4832,"ramos":4833,"▁daño":4834,"▁acompañ":4835,"dimos":4836,"▁estuvi":4837,"h.":4838,"tiago":4839,"▁Brasil":4840,"ro.":4841,"ide":4842,"▁gil":4843,"▁supon":4844,"taria":4845,"cus":4846,"ller":4847,"▁decía":4848,"▁argent":4849,"▁¿Qui":4850,"▁volvi":4851,"▁sonrisa":4852,"▁Mig":4853,"▁día.":4854,"▁eso.":4855,"▁cabr":4856,"▁cala":4857,"▁temas":4858,"▁cuentas":4859,"-1":4860,"ba,":4861,"▁pido":4862,"▁vienen":4863,"▁arte":4864,"▁arreg":4865,"roso":4866,"IE":4867,"▁camis":4868,"▁corrupción":4869,"▁joder":4870,"▁Pablo":4871,"▁tengas":4872,"▁Bus":4873,"▁vomitando":4874,"ws":4875,"▁casa,":4876,"▁non":4877,"▁check":4878,"ciones,":4879,"▁dicta":4880,"mática":4881,"▁Reg":4882,"▁lograr":4883,"▁stor":4884,"▁cola":4885,"▁dejó":4886,"▁bici":4887,"entos":4888,"▁obvio":4889,"▁esse":4890,"__":4891,"▁televisión":4892,"ying":4893,"▁??":4894,"▁necesidad":4895,"▁there":4896,"didos":4897,"▁argu":4898,"▁abril":4899,"▁\"@usuario":4900,"BRE":4901,"ina.":4902,"▁COVID-19":4903,"▁amer":4904,"ERA":4905,"▁ansiedad":4906,"▁bajar":4907,"xa":4908,"▁Estu":4909,"▁somb":4910,"▁próxima":4911,"▁SOL":4912,"▁América":4913,"chu":4914,"▁presu":4915,"▁vou":4916,"▁asus":4917,"ruz":4918,"IDAD":4919,"▁prác":4920,"▁EE":4921,"▁Tú":4922,"gimen":4923,"▁cielo":4924,"siones":4925,"▁comentarios":4926,"▁Pon":4927,"▁refer":4928,"arn":4929,"▁caus":4930,"ways":4931,"▁advertencia":4932,"▁cumplir":4933,"puestas":4934,"cular":4935,"▁piensa":4936,"gué":4937,"▁que,":4938,"▁Ri":4939,"▁dul":4940,"▁palo":4941,"▁dices":4942,"▁Tal":4943,"▁octubre":4944,"timos":4945,"mate":4946,"▁mía":4947,"▁emer":4948,"▁à":4949,"cera":4950,"▁salga":4951,"BL":4952,"▁Recuer":4953,"▁Fue":4954,"cita":4955,"truir":4956,"▁casa.":4957,"▁60":4958,"talia":4959,"▁Bu":4960,"▁VEN":4961,"▁podes":4962,"▁TV":4963,"olos":4964,"▁huevo":4965,"▁usa":4966,"▁estren":4967,"ense":4968,"▁fondo":4969,"▁first":4970,"▁hospital":4971,"▁29":4972,"ines":4973,"▁curso":4974,"▁María":4975,"remos":4976,"ñe":4977,"▁épo":4978,"▁amista":4979,"ww":4980,"mel":4981,"hoto":4982,"▁muito":4983,"▁conseguir":4984,"▁inicio":4985,"▁100%":4986,"teros":4987,"fra":4988,"lada":4989,"han":4990,"▁distancia":4991,"▁contrario":4992,"ctura":4993,"▁responsabilidad":4994,"▁patr":4995,"cons":4996,"▁funda":4997,"AC":4998,"mita":4999,"▁diario":5000,"▁ingres":5001,"▁declara":5002,"▁capaz":5003,"▁ko":5004,"pes":5005,"▁genial":5006,"wa":5007,"▁éxito":5008,"▁paja":5009,"▁\"a":5010,"▁despues":5011,"▁crimin":5012,"xt":5013,"▁Salud":5014,"cate":5015,"▁sangre":5016,"▁tapada":5017,"UM":5018,"HH":5019,"▁escuchando":5020,"▁arco":5021,"▁sexual":5022,"ical":5023,"▁recuper":5024,"rero":5025,"▁deten":5026,"cionales":5027,"▁mantener":5028,"ou":5029,"▁dem":5030,"▁masa":5031,"▁solici":5032,"▁Vic":5033,"tes.":5034,"▁últimas":5035,"▁quede":5036,"▁ber":5037,"▁cargo":5038,"▁never":5039,"dilla":5040,"▁info":5041,"▁estaban":5042,"▁nove":5043,"timo":5044,"▁modo":5045,"▁provin":5046,"▁PRE":5047,"▁Vos":5048,"▁ná":5049,"vez":5050,"fff":5051,"▁llego":5052,"▁cic":5053,"▁Cono":5054,"▁estaría":5055,"rán":5056,"erva":5057,"ández":5058,"▁servicios":5059,"uros":5060,"▁tenia":5061,"▁Estos":5062,"▁Además":5063,"▁podía":5064,"▁suficiente":5065,"▁fans":5066,"▁alco":5067,"▁CAM":5068,"▁septiembre":5069,"▁constitu":5070,"▁vista":5071,"juliantina":5072,"▁chocola":5073,"▁Entonces":5074,"▁gener":5075,"aban":5076,"▁besando":5077,"estión":5078,"▁segura":5079,"▁after":5080,"taba":5081,"▁denuncia":5082,"▁into":5083,"▁playa":5084,"▁4.":5085,"ari":5086,"▁adop":5087,"▁Gre":5088,"▁unfollow":5089,"món":5090,"▁VO":5091,"EST":5092,"▁tiro":5093,"tw":5094,"▁siguiente":5095,"ismo.":5096,"ards":5097,"▁Sus":5098,"▁HOY":5099,"▁actu":5100,"▁proba":5101,"dri":5102,"▁acab":5103,"▁caca":5104,"mé":5105,"▁MÁS":5106,"▁Bra":5107,"▁jaja.":5108,"▁AMLO":5109,"▁Ima":5110,"▁viva":5111,"▁COR":5112,"▁proceso":5113,"▁equipos":5114,"▁abrir":5115,"▁Pin":5116,"6.":5117,"▁stan":5118,"ded":5119,"▁sensa":5120,"clus":5121,"is,":5122,"▁propio":5123,"▁game":5124,"▁caga":5125,"▁decepcionada":5126,"p:":5127,"▁present":5128,"▁PE":5129,"▁jóvenes":5130,"▁dudas":5131,"uesta":5132,"▁mayo":5133,"icara":5134,"RU":5135,"▁prohib":5136,"▁NA":5137,"JJA":5138,"▁altavoz":5139,"k.":5140,"igo":5141,"▁jornada":5142,"▁lleno":5143,"matic":5144,"▁Tiene":5145,"▁oro":5146,"kook":5147,"▁destru":5148,"▁cantidad":5149,"▁disco":5150,"▁brind":5151,"▁escon":5152,"▁decisión":5153,"lé":5154,"▁too":5155,"cura":5156,"▁Señor":5157,"▁tirar":5158,"iego":5159,"▁extraña":5160,"▁polit":5161,"▁miércoles":5162,"bio":5163,"A,":5164,"▁todos.":5165,"▁apoyar":5166,"dena":5167,"▁huel":5168,"▁preten":5169,"icó":5170,"ismo,":5171,"▁¡M":5172,"▁maravillos":5173,"▁dign":5174,"▁feste":5175,"iana":5176,"mula":5177,"▁fracas":5178,"▁Martín":5179,"▁economía":5180,"▁goles":5181,"▁Pedro":5182,"▁spo":5183,"▁moral":5184,"▁esperanza":5185,"▁pidiendo":5186,"▁abierta":5187,"▁mínimo":5188,"▁carajo":5189,"▁Of":5190,"eco":5191,"▁fiscal":5192,"KA":5193,"hs":5194,"so,":5195,"▁mier":5196,"▁leche":5197,"▁bos":5198,"ísima":5199,"▁look":5200,"▁Somos":5201,"▁\"@usuario:":5202,"▁mal,":5203,"▁trabajadores":5204,"▁tocar":5205,"ney":5206,"▁NI":5207,"▁estorn":5208,"fu":5209,"▁organiza":5210,"▁sui":5211,"mn":5212,"▁siga":5213,"▁Sh":5214,"▁AB":5215,"on,":5216,"▁EEUU":5217,"▁\"Es":5218,"▁jajaj":5219,"▁enfr":5220,"▁dibu":5221,"▁dedos":5222,"Que":5223,"pó":5224,"▁sel":5225,"test":5226,"tter":5227,"▁tantos":5228,"▁gén":5229,"orar":5230,"▁popular":5231,"▁incluso":5232,"▁Escu":5233,"▁frustra":5234,"▁desarrollo":5235,"idad.":5236,"▁dura":5237,"▁triun":5238,"zo,":5239,"▁vin":5240,"▁mtvlaf":5241,"▁puerta":5242,"ivo":5243,"tiene":5244,"gular":5245,"▁Gol":5246,"udando":5247,"erno":5248,"▁penal":5249,"ciembre":5250,"▁estados":5251,"on.":5252,"▁Miguel":5253,"▁mul":5254,"▁base":5255,"cente":5256,"▁neu":5257,"dón":5258,"▁médica":5259,"▁pública":5260,"mada":5261,"▁MAN":5262,"▁varias":5263,"illas":5264,"▁Otro":5265,"gosto":5266,"▁vote":5267,"yó":5268,"▁Otra":5269,"▁muchísimo":5270,"pir":5271,"▁equivo":5272,"▁PRI":5273,"DER":5274,"▁clara":5275,"isco":5276,"PM":5277,"ush":5278,"▁defien":5279,"▁basta":5280,"▁asis":5281,"▁¿D":5282,"▁condu":5283,"k,":5284,"▁muero":5285,"▁vent":5286,"▁explicar":5287,"▁bio":5288,"media":5289,"capa":5290,"▁venga":5291,"pl":5292,"▁imb":5293,"▁baj":5294,"9.":5295,"▁¡C":5296,"▁días,":5297,"▁marzo":5298,"▁Cla":5299,"▁LL":5300,"▁gobier":5301,"▁Macri":5302,"▁hal":5303,"en,":5304,"▁vender":5305,"▁prueba":5306,"▁diciembre":5307,"▁big":5308,"oluta":5309,"ce.":5310,"▁cerrar":5311,"▁SON":5312,"▁apl":5313,"▁Parece":5314,"ditos":5315,"▁animal":5316,"tui":5317,"▁conozco":5318,"▁cuento":5319,"gs":5320,"▁hablo":5321,"EMOS":5322,"ful":5323,"▁home":5324,"ple":5325,"VI":5326,"▁reír":5327,"▁tes":5328,"▁BU":5329,"n't":5330,"▁realiz":5331,"mentable":5332,"▁ador":5333,"▁enor":5334,"▁paga":5335,"▁mata":5336,"▁Ahí":5337,"▁¡G":5338,"jus":5339,"▁TAN":5340,"dicos":5341,"▁conte":5342,"mx":5343,"icanos":5344,"▁estará":5345,"▁barrio":5346,"▁verte":5347,"▁proces":5348,"▁esto,":5349,"▁seguimos":5350,"segu":5351,"▁essa":5352,"useas":5353,"▁termine":5354,"▁dijeron":5355,"▁Com":5356,"▁GO":5357,"▁bille":5358,"TEN":5359,"▁brindando":5360,"▁narco":5361,"?\"":5362,"▁actitu":5363,"▁gh":5364,"▁If":5365,"oogle":5366,"▁bri":5367,"▁echar":5368,"ign":5369,"▁calles":5370,"▁manten":5371,"▁recién":5372,"▁resop":5373,"TOS":5374,"▁Rey":5375,"▁els":5376,"▁Jue":5377,"▁propia":5378,"se.":5379,"▁Acabo":5380,"▁clar":5381,"▁resoplando":5382,"▁online":5383,"cy":5384,"hhh":5385,"▁derro":5386,"▁siesta":5387,"▁raro":5388,"en.":5389,"▁símbolos":5390,"fan":5391,"dedor":5392,"▁preci":5393,"row":5394,"▁lol":5395,"▁compren":5396,"▁still":5397,"▁mediana":5398,"arma":5399,"▁MAD":5400,"itaria":5401,"ería":5402,"▁Final":5403,"ders":5404,"ardo":5405,"ene":5406,"▁bebida":5407,"▁cerebro":5408,"▁espal":5409,"era,":5410,"▁uni":5411,"is.":5412,"▁porfa":5413,"▁salida":5414,"iversario":5415,"▁resultado":5416,"lez":5417,"▁incen":5418,"▁náuseas":5419,"▁Mir":5420,"▁bbmas":5421,"▁ofen":5422,"▁apenas":5423,"ENA":5424,"xi":5425,"▁visit":5426,"bran":5427,"icular":5428,"▁Será":5429,"▁publi":5430,"D.":5431,"orado":5432,"▁mercado":5433,"▁totalmente":5434,"rida":5435,"▁mach":5436,"▁desta":5437,"▁familias":5438,"vidades":5439,"▁piz":5440,"▁won":5441,"▁negocio":5442,"pida":5443,"▁digital":5444,"CK":5445,"▁coche":5446,"fir":5447,"▁Ana":5448,"▁pinche":5449,"▁romper":5450,"vic":5451,"▁concierto":5452,"24":5453,"ORES":5454,"▁70":5455,"▁régimen":5456,"▁Án":5457,"▁Jam":5458,"tillo":5459,"▁memoria":5460,"mo,":5461,"▁bomba":5462,"▁pobres":5463,"keting":5464,"inar":5465,"olina":5466,"▁mundo,":5467,"▁CAS":5468,"ITO":5469,"▁robo":5470,"▁colombi":5471,"mpa":5472,"▁entrada":5473,"▁Felicidades":5474,"▁comentario":5475,"▁gay":5476,"▁ejerci":5477,"▁campo":5478,"tida":5479,"endario":5480,"▁pago":5481,"▁toque":5482,"25":5483,"▁ene":5484,"▁repar":5485,"▁saludando":5486,"▁novi":5487,"▁duro":5488,"▁mete":5489,"▁puro":5490,"▁riesgo":5491,"trado":5492,"▁vayan":5493,"tres":5494,"▁hola":5495,"▁recuerda":5496,"▁stop":5497,"▁ganó":5498,"▁represent":5499,"▁cancha":5500,"▁titular":5501,"▁bote":5502,"▁elector":5503,"▁reloj":5504,"▁Excelente":5505,"▁Nueva":5506,"▁RES":5507,"*.":5508,"▁hacía":5509,"idad,":5510,"▁explotando":5511,"▁allí":5512,"▁mesa":5513,"▁Algun":5514,"▁esfuerzo":5515,"▁aur":5516,"vios":5517,"▁TI":5518,"▁así.":5519,"▁perdido":5520,"urs":5521,"▁pil":5522,"▁2017":5523,"gentes":5524,"▁ras":5525,"▁clás":5526,"▁Esper":5527,"▁bás":5528,"istas,":5529,"viada":5530,"▁mentira":5531,"▁cariño":5532,"pri":5533,"ribe":5534,"▁\"I":5535,"▁ando":5536,"EMP":5537,"▁Bor":5538,"▁muestra":5539,"iti":5540,"jue":5541,"▁enc":5542,"▁opción":5543,"tumb":5544,"▁abuela":5545,"itor":5546,"▁teclas":5547,"▁Liber":5548,"▁Interna":5549,"cian":5550,"▁embar":5551,"▁quin":5552,"viendo":5553,"▁deberían":5554,"▁Dos":5555,"▁Donde":5556,"FA":5557,"▁ching":5558,"▁diferentes":5559,"▁desay":5560,"▁micró":5561,"▁MAL":5562,"mendo":5563,"genes":5564,"▁were":5565,"▁entrega":5566,"▁grave":5567,"▁\"no":5568,"▁goberna":5569,"▁¡P":5570,"brero":5571,"esa":5572,"cada":5573,"▁Ama":5574,"dremos":5575,"▁tarta":5576,"▁realizar":5577,"▁responder":5578,"so.":5579,"▁brasil":5580,"▁crees":5581,"▁vecinos":5582,"▁histór":5583,"▁anto":5584,"tás":5585,"▁IS":5586,"ciona":5587,"▁Anton":5588,"▁js":5589,"▁right":5590,"▁simplemente":5591,"▁Era":5592,"▁yo,":5593,"▁CD":5594,"▁placer":5595,"▁pie":5596,"▁verdad,":5597,"▁Cer":5598,"▁racis":5599,"mio":5600,"tagon":5601,"▁bella":5602,"zás":5603,"▁wan":5604,"▁serán":5605,"▁interesante":5606,"▁Mus":5607,"▁descon":5608,"▁Sos":5609,"▁Sólo":5610,"kin":5611,"rita":5612,"▁empren":5613,"▁mostrando":5614,"▁ot":5615,"▁famos":5616,"▁pegar":5617,"QUI":5618,"drá":5619,"▁banco":5620,"▁\"N":5621,"mg":5622,"tales":5623,"ilo":5624,"▁Extra":5625,"▁eta":5626,"quina":5627,"▁asegu":5628,"jd":5629,"Tu":5630,"xto":5631,"▁pied":5632,"dría":5633,"▁Gonz":5634,"▁Hol":5635,"▁alum":5636,"▁estudiantes":5637,"▁@usuario!":5638,"▁Amer":5639,"▁ile":5640,"▁bl":5641,"ILL":5642,"ela":5643,"▁neg":5644,"▁sha":5645,"▁pesos":5646,"▁parar":5647,"▁chico":5648,"▁cuándo":5649,"los.":5650,"▁tudo":5651,"mo.":5652,"▁discul":5653,"▁vuelvo":5654,"todo":5655,"▁ai":5656,"▁var":5657,"▁General":5658,"▁pudo":5659,"▁objetivo":5660,"fon":5661,"▁Sor":5662,"▁Nuevo":5663,"gin":5664,"▁Av":5665,"quita":5666,"▁heart":5667,"▁spe":5668,"▁Estas":5669,"ráqueo":5670,"▁calendario":5671,"elli":5672,"▁fres":5673,"▁alre":5674,"bor":5675,"▁estrate":5676,"8.":5677,"BER":5678,"▁saludos":5679,"22":5680,"eratura":5681,"▁Catal":5682,"▁Asi":5683,"▁finan":5684,"▁amor,":5685,"▁papa":5686,"▁votos":5687,"▁acciones":5688,"▁MIS":5689,"▁sua":5690,"▁cár":5691,"p.":5692,"ionales":5693,"▁interesa":5694,"▁humil":5695,"▁ela":5696,"▁esto.":5697,"▁entiende":5698,"▁vidas":5699,"▁belle":5700,"tive":5701,"▁domin":5702,"HAHAHAHA":5703,"u.":5704,"▁debemos":5705,"▁ass":5706,"▁HER":5707,"▁parecer":5708,"ady":5709,"▁julio":5710,"▁precios":5711,"▁pocos":5712,"▁cn":5713,"▁¡V":5714,"▁;)":5715,"▁frase":5716,"▁desas":5717,"▁Cul":5718,"▁OF":5719,"▁Bon":5720,"▁huevos":5721,"icaragua":5722,"uma":5723,"▁Hos":5724,"▁Copa":5725,"▁país,":5726,"ttp:":5727,"▁cuarto":5728,"era.":5729,"▁RO":5730,"vie":5731,"tora":5732,"▁mexico":5733,"▁micrófono":5734,"▁Gab":5735,"▁mejorar":5736,"▁Mara":5737,"▁ciudadanos":5738,"%.":5739,"▁selector":5740,"ivia":5741,"mmm":5742,"úa":5743,"▁hahaha":5744,"▁existen":5745,"los,":5746,"▁llegan":5747,"▁nem":5748,"fes":5749,"ttp://":5750,"▁sorpres":5751,"ZA":5752,"▁deman":5753,"▁going":5754,"vier":5755,"▁pega":5756,"ba.":5757,"▁Unidos":5758,"▁TRA":5759,"▁quieras":5760,"▁GRACIAS":5761,"tividad":5762,"▁FIN":5763,"▁estornudando":5764,"▁juegos":5765,"▁madru":5766,"▁Centro":5767,"buena":5768,"▁fron":5769,"▁Cent":5770,"▁crack":5771,"▁pija":5772,"dro":5773,"▁Jorge":5774,"▁aliviada":5775,"▁mio":5776,"▁honor":5777,"▁resultados":5778,"▁torn":5779,"▁viento":5780,"▁felices":5781,"▁versión":5782,"▁NOS":5783,"▁terráqueo":5784,"▁anoche":5785,"▁rece":5786,"▁chiste":5787,"▁tomando":5788,"▁Fuer":5789,"▁ino":5790,"quilla":5791,"▁compañeros":5792,"ana,":5793,"▁comba":5794,"▁personaje":5795,"▁teniendo":5796,"▁had":5797,"acto":5798,"▁being":5799,"▁pudi":5800,"▁revolu":5801,"eas":5802,"▁saque":5803,"grafía":5804,"▁salvar":5805,"▁alcohol":5806,"▁juz":5807,"matically":5808,"SI":5809,"▁continu":5810,"▁gos":5811,"▁siempre.":5812,"CHO":5813,"▁es,":5814,"zon":5815,"▁llevan":5816,"▁Ur":5817,"▁Az":5818,"▁Plan":5819,"▁enca":5820,"▁baño":5821,"▁always":5822,"▁checked":5823,"▁menor":5824,"▁energía":5825,"▁His":5826,"▁FU":5827,"▁verlo":5828,"▁mag":5829,"▁estadio":5830,"estival":5831,"▁viven":5832,"▁cocina":5833,"▁cumpli":5834,"▁avi":5835,"▁gotas":5836,"fans":5837,"▁ideas":5838,"▁episo":5839,"▁FAV":5840,"▁automatically":5841,"▁XD":5842,"▁SIN":5843,"▁Wo":5844,"▁imagino":5845,"▁1,":5846,"lle":5847,"▁Sí,":5848,"tería":5849,"S.":5850,"▁Pens":5851,"▁Netflix":5852,"▁bolsa":5853,"▁recursos":5854,"tré":5855,"▁compe":5856,"▁FEL":5857,"▁perfecto":5858,"▁31":5859,"▁twit":5860,"▁Corona":5861,"jero":5862,"tto":5863,"▁reto":5864,"▁queria":5865,"od":5866,"▁cate":5867,"▁Pan":5868,"▁pendeja":5869,"ncia":5870,"▁multi":5871,"logo":5872,"ALL":5873,"quin":5874,"▁it's":5875,"▁besos":5876,"▁odi":5877,"▁común":5878,"glés":5879,"▁(?)":5880,"▁zapa":5881,"▁stu":5882,"▁NE":5883,"▁¡B":5884,"pin":5885,"ben":5886,"▁km":5887,"▁preguntas":5888,"▁cuál":5889,"▁All":5890,"--":5891,"▁hogar":5892,"▁listo":5893,"▁supera":5894,"▁celebrar":5895,"▁please":5896,"▁EU":5897,"▁obliga":5898,"▁muerto":5899,"▁obras":5900,"álisis":5901,"▁Perú":5902,".0":5903,"▁years":5904,"▁neta":5905,"mas,":5906,"▁joda":5907,"hn":5908,"▁comb":5909,"ce,":5910,"▁free":5911,"▁fru":5912,"▁necesitan":5913,"▁http://":5914,"ADOS":5915,"▁Ley":5916,"▁medal":5917,"ducción":5918,"▁Van":5919,"▁crear":5920,"▁películas":5921,"igan":5922,"▁robar":5923,"dor,":5924,"▁afu":5925,"▁perros":5926,"▁patria":5927,"▁encuentra":5928,"▁arma":5929,"▁down":5930,"▁rock":5931,"u,":5932,"▁why":5933,"▁hubo":5934,"bit":5935,"▁página":5936,"le.":5937,"▁redon":5938,"▁miss":5939,"▁vuelva":5940,"▁Total":5941,"▁Igles":5942,"eliz":5943,"ÁN":5944,"▁confianza":5945,"99":5946,"tario":5947,"▁work":5948,"▁Fin":5949,"▁today":5950,"▁primeros":5951,"idas":5952,"▁alegría":5953,"▁TIEN":5954,"▁grupos":5955,"ing.":5956,"▁DO":5957,"▁\"B":5958,"▁Cual":5959,"▁Flor":5960,"ana.":5961,"▁River":5962,"pareja":5963,"▁completo":5964,"▁Sen":5965,"▁hol":5966,"▁hagas":5967,"▁tiempo.":5968,"▁Deja":5969,"ibles":5970,"▁elegir":5971,"▁veh":5972,"dor.":5973,"ecuen":5974,"▁gestión":5975,"▁inclu":5976,"▁Guar":5977,"▁detrás":5978,"▁hacerme":5979,"▁complica":5980,"▁Congreso":5981,"▁sat":5982,"▁tin":5983,"▁cita":5984,"▁grá":5985,"▁capacidad":5986,"enar":5987,"DES":5988,"leta":5989,"▁tira":5990,"▁vul":5991,"land":5992,"▁pinta":5993,"▁ó":5994,"se,":5995,"▁ladr":5996,"ché":5997,"▁JAJAJAJAJAJA":5998,"▁CL":5999,"▁Esc":6000,"▁Constitu":6001,"▁trá":6002,"▁Mundial":6003,"▁exo":6004,"▁borra":6005,"ble,":6006,"▁watch":6007,"▁tiempo,":6008,"▁bara":6009,"▁Estados":6010,"dela":6011,"▁م":6012,"▁montón":6013,"▁caí":6014,"▁medic":6015,"▁VA":6016,"▁empa":6017,"▁champ":6018,"▁sing":6019,"bin":6020,"▁does":6021,"▁sem":6022,"▁artículo":6023,"▁should":6024,"▁favorito":6025,"▁recupera":6026,"▁sigan":6027,"▁periodista":6028,"▁tol":6029,"▁puedan":6030,"▁Univer":6031,"▁intentar":6032,"▁Domingo":6033,"▁suena":6034,"le,":6035,"▁estilo":6036,"▁cárcel":6037,"▁inici":6038,"▁tru":6039,"▁bailar":6040,"self":6041,"▁AY":6042,"▁rin":6043,"▁baby":6044,"▁ESTE":6045,"▁could":6046,"thday":6047,"gracia":6048,"▁prima":6049,"▁wey":6050,"▁Bla":6051,"▁CAN":6052,"▁interés":6053,"▁pude":6054,"ando.":6055,"▁junio":6056,"▁bronca":6057,"▁agora":6058,"yna":6059,"▁Tenemos":6060,"iler":6061,"▁publica":6062,"▁eter":6063,"▁ecuador":6064,"▁campeón":6065,"▁followed":6066,"▁tratar":6067,"tique":6068,"▁acompaña":6069,"▁haz":6070,"▁micro":6071,"▁ciudadan":6072,"▁estupi":6073,"tec":6074,"▁época":6075,"▁recomenda":6076,"ustria":6077,"▁500":6078,"▁propon":6079,"▁favor,":6080,"▁ara":6081,"▁administra":6082,"▁selección":6083,"▁agen":6084,"tus":6085,"▁mismo.":6086,"▁Ka":6087,"tadores":6088,"▁sala":6089,"dent":6090,"JAJAJAJAJAJAJAJA":6091,"ars":6092,"rs":6093,"▁ST":6094,"olog":6095,"ork":6096,"▁Sigue":6097,"▁\"Y":6098,"▁absoluta":6099,"▁Ella":6100,"ife":6101,"▁vea":6102,"▁mal.":6103,"▁Ara":6104,"▁(@usuario)":6105,"dientes":6106,"bri":6107,"▁Sil":6108,"▁hoy.":6109,"▁importantes":6110,"▁ti,":6111,"▁quando":6112,"ts.":6113,"mí":6114,"▁ocas":6115,"▁pura":6116,"▁OM":6117,"cán":6118,"▁Alberto":6119,"60":6120,"▁fazer":6121,"udas":6122,"▁resta":6123,"▁llamado":6124,"▁tendrá":6125,"quero":6126,"lento":6127,"▁Fi":6128,"meros":6129,"luen":6130,"fia":6131,"▁sera":6132,"▁acon":6133,"▁ig":6134,"▁acco":6135,"▁Dale":6136,"▁Nuestro":6137,"eria":6138,"▁cantar":6139,"▁quem":6140,"CHA":6141,"▁mtvlapareja":6142,"▁Vol":6143,"▁¡T":6144,"▁sou":6145,"isas":6146,"▁días.":6147,"teando":6148,"fin":6149,"▁Vaya":6150,"CER":6151,"▁Yo:":6152,"jado":6153,"▁pregunto":6154,"▁europe":6155,"tian":6156,"▁Acá":6157,"▁hdp":6158,"▁mia":6159,"▁Algo":6160,"▁Tre":6161,"▁flo":6162,"▁periodistas":6163,"▁tour":6164,"istemo":6165,"▁DA":6166,"▁gobern":6167,"▁link":6168,"▁estú":6169,"▁YOU":6170,"sor":6171,"▁clave":6172,"SA":6173,"Qué":6174,"venida":6175,"▁Menos":6176,"ço":6177,"▁tuyo":6178,"▁adul":6179,"icos,":6180,"▁cd":6181,"▁Thank":6182,"mpre":6183,"▁levantar":6184,"▁Villa":6185,"▁Odio":6186,"aram":6187,"▁nega":6188,"▁chicas":6189,"▁mensajes":6190,"▁China":6191,"▁sopor":6192,"▁hones":6193,"▁solidar":6194,"▁reli":6195,"▁Hermos":6196,"▁irme":6197,"jo,":6198,"ándome":6199,"back":6200,"eep":6201,"▁army":6202,"▁rica":6203,"▁Deber":6204,"▁consecuen":6205,"ges":6206,"▁mirando":6207,"▁metro":6208,"eci":6209,"▁mentiras":6210,"mica":6211,"aso":6212,"ioso":6213,"▁todos,":6214,"▁preciosa":6215,"▁difun":6216,"▁minuto":6217,"▁há":6218,"▁verdadero":6219,"▁confirma":6220,"bs":6221,"▁quedate":6222,"▁población":6223,"▁Ol":6224,"▁hiciste":6225,"dere":6226,"▁IMP":6227,"▁aparece":6228,"ónica":6229,"▁prefer":6230,"▁cami":6231,"▁Antes":6232,"▁tenés":6233,"▁shit":6234,"guez":6235,"▁terrible":6236,"▁emergencia":6237,"▁5.":6238,"▁digas":6239,"jun":6240,"▁ál":6241,"▁Gente":6242,"▁YouTu":6243,"▁@usuario..":6244,"▁last":6245,"▁Pen":6246,"▁dele":6247,"▁gustó":6248,"órdo":6249,"▁imagina":6250,"▁discu":6251,"▁estén":6252,"▁take":6253,"▁arru":6254,"mágenes":6255,"▁other":6256,"fort":6257,"eso":6258,"▁fol":6259,"▁correr":6260,"mático":6261,"▁llegado":6262,"éro":6263,"▁confun":6264,"▁justif":6265,"▁malas":6266,"▁dedica":6267,"gido":6268,"▁cinco":6269,"HO":6270,"▁Dia":6271,"▁cero":6272,"ando,":6273,"▁realiza":6274,"▁viste":6275,"ándole":6276,"▁médico":6277,"▁Abra":6278,"▁negra":6279,"▁auricular":6280,"▁HI":6281,"▁condiciones":6282,"▁Cl":6283,"&lt;":6284,"▁aaa":6285,"▁carne":6286,"chen":6287,"ident":6288,"ipol":6289,"volución":6290,"gios":6291,"éctr":6292,"íris":6293,"▁ello":6294,"▁Francis":6295,"▁MEN":6296,"▁urgente":6297,"▁ocul":6298,"gotá":6299,"▁siempre,":6300,"ons":6301,"ANTE":6302,"▁tendría":6303,"▁natural":6304,"▁tecnología":6305,"▁elimin":6306,"▁Ste":6307,"▁Just":6308,"▁piso":6309,"▁humano":6310,"tate":6311,"een":6312,"▁perdon":6313,"▁aniversario":6314,"tici":6315,"▁NADA":6316,"▁Pana":6317,"▁vide":6318,"▁hospita":6319,"▁ministro":6320,"alu":6321,"▁ascen":6322,"▁natur":6323,"▁visual":6324,"▁pelotudo":6325,"ALES":6326,"▁reflex":6327,"▁same":6328,"▁plen":6329,"▁correspon":6330,"▁compromiso":6331,"▁porq":6332,"inci":6333,"▁ti.":6334,"▁ao":6335,"tita":6336,"▁Están":6337,"▁oposición":6338,"▁http://URL":6339,"▁camiseta":6340,"▁concep":6341,"▁gracia":6342,"▁arcoíris":6343,"▁venezolanos":6344,"▁Social":6345,"▁etc.":6346,"▁impuestos":6347,"▁comiendo":6348,"rena":6349,"].":6350,"ONA":6351,"ISTA":6352,"▁One":6353,"▁AD":6354,"▁Whats":6355,"▁gente,":6356,"onal":6357,"▁suma":6358,"centes":6359,"▁favorita":6360,"▁said":6361,"▁evento":6362,"▁posibilidad":6363,"▁preguntar":6364,"▁Media":6365,"let":6366,"23":6367,"ella":6368,"▁hac":6369,"▁part":6370,"crá":6371,"OE":6372,"▁funciona":6373,"▁investiga":6374,"▁exac":6375,"icen":6376,"&amp;":6377,"anas":6378,"▁amlo":6379,"▁cuida":6380,"▁acerca":6381,"▁Tur":6382,"▁recibiendo":6383,"▁Cap":6384,"▁jefe":6385,"▁piensan":6386,"ane":6387,"gala":6388,"▁acto":6389,"▁saco":6390,"▁mejor.":6391,"nova":6392,"ito,":6393,"▁(C":6394,"▁neutral":6395,"▁mol":6396,"tube":6397,"▁clima":6398,"▁:D":6399,"▁Vis":6400,"▁detalles":6401,"▁actividades":6402,"▁Vir":6403,"▁afir":6404,"▁Acaba":6405,"▁corte":6406,"▁ofic":6407,"mas.":6408,"ÑO":6409,"▁YouTube":6410,"▁repetir":6411,"ógico":6412,"zo.":6413,"▁fortale":6414,"▁necesitamos":6415,"BLE":6416,"▁pierde":6417,"▁event":6418,"otras":6419,"▁impul":6420,"▁escol":6421,"▁Conse":6422,"▁presentar":6423,"▁Vía":6424,"▁Rus":6425,"▁vícti":6426,"asa":6427,"dimiento":6428,"▁simp":6429,"▁deporte":6430,"▁García":6431,"▁bad":6432,"▁decirle":6433,"▁cua":6434,"▁guste":6435,"▁atre":6436,"▁altura":6437,"▁tarje":6438,"horabuena":6439,"▁comunicación":6440,"torial":6441,"res,":6442,"▁positivo":6443,"▁tío":6444,"▁oc":6445,"▁full":6446,"▁modelo":6447,"▁better":6448,"▁reunión":6449,"▁coño":6450,"▁lanza":6451,"▁motivo":6452,"▁sempre":6453,"▁Club":6454,"▁respecto":6455,"▁plaza":6456,"ueva":6457,"fac":6458,"▁hable":6459,"▁Oye":6460,"▁infec":6461,"▁escucho":6462,"NA":6463,"▁moment":6464,"▁cán":6465,"\":":6466,"é,":6467,"App":6468,"\"...":6469,"▁vosotros":6470,"▁Cá":6471,"MI":6472,"▁voltaje":6473,"▁Dar":6474,"▁photo":6475,"?,":6476,"▁Za":6477,"▁molesta":6478,"udia":6479,"▁most":6480,"C.":6481,"▁Bal":6482,"▁gon":6483,"▁garanti":6484,"▁tweets":6485,"▁univers":6486,"tch":6487,"imina":6488,"▁empleo":6489,"baja":6490,"▁quitar":6491,"ik":6492,"▁queres":6493,"▁ciencia":6494,"▁aud":6495,"▁pode":6496,"▁bebe":6497,"▁pros":6498,"parta":6499,"cter":6500,"red":6501,"▁jeje":6502,"▁cré":6503,"▁logra":6504,"P.":6505,"andro":6506,"cidente":6507,"▁Covid-19":6508,"▁conec":6509,"rique":6510,"JE":6511,"▁\"V":6512,"lón":6513,"▁manip":6514,"▁ESTOY":6515,",000":6516,"▁2021":6517,"ux":6518,"▁loo":6519,"teca":6520,"▁principal":6521,"jeros":6522,"ante.":6523,"▁Municip":6524,"▁¡H":6525,"▁anterior":6526,"▁quisiera":6527,"▁mostrar":6528,"▁ada":6529,"▁cocin":6530,"▁gustado":6531,"▁examen":6532,"▁ge":6533,"▁salgo":6534,"lip":6535,"80":6536,"Un":6537,"▁pierdas":6538,"▁CR":6539,"▁agosto":6540,"▁abus":6541,"▁discurso":6542,"▁mina":6543,"▁¿Es":6544,"▁Ber":6545,"▁pio":6546,"▁pé":6547,"▁leo":6548,"▁Bro":6549,"ÑOS":6550,"▁Luego":6551,"▁acostumb":6552,"▁piden":6553,"M.":6554,"▁empezó":6555,"▁considera":6556,"▁chav":6557,"▁verdad.":6558,"gol":6559,"▁estable":6560,"▁inglés":6561,"ONES":6562,"ctores":6563,"ets":6564,"er.":6565,"**":6566,"tm":6567,"▁dona":6568,"▁central":6569,"▁reme":6570,"▁mismo,":6571,"quia":6572,"▁sexo":6573,"▁35":6574,"▁Wa":6575,"▁volun":6576,"▁capítulo":6577,"▁hincha":6578,"▁premio":6579,"▁Tar":6580,"▁cuidado":6581,"arlo":6582,"&gt;&gt;&gt;&gt;":6583,"▁faltan":6584,"▁Lor":6585,"amiento":6586,"▁éste":6587,"▁particip":6588,"▁humanos":6589,"▁rombo":6590,"▁PRES":6591,"▁cambios":6592,"▁perman":6593,"▁virtual":6594,"tidos":6595,"▁BE":6596,"▁Ke":6597,"estar":6598,"lab":6599,"▁actividad":6600,"formación":6601,"▁viajar":6602,"isterio":6603,"▁fascis":6604,"▁desastre":6605,"tali":6606,"hab":6607,"▁series":6608,"ógica":6609,"▁mayores":6610,"mania":6611,"▁Comun":6612,"▁conden":6613,"▁LU":6614,"ns":6615,"▁help":6616,"▁record":6617,"▁Imag":6618,"▁ataque":6619,"▁peso":6620,"▁edición":6621,"▁coj":6622,"▁encer":6623,"▁álbum":6624,"▁une":6625,"▁miemb":6626,"▁protagon":6627,"▁nin":6628,"cón":6629,"▁medalla":6630,"BE":6631,"estas":6632,"▁Podemos":6633,"▁tré":6634,"▁permitir":6635,"▁culp":6636,"▁Internacional":6637,"▁の":6638,"tieron":6639,"▁injus":6640,"▁Nicol":6641,"▁perió":6642,"▁enero":6643,"▁(y":6644,"dra":6645,"▁desgracia":6646,"▁hará":6647,"▁Den":6648,"ENDO":6649,"▁solución":6650,"▁extran":6651,"▁GRAN":6652,"▁Manuel":6653,"▁PI":6654,"▁trébol":6655,"▁Temp":6656,"er,":6657,"▁anuncia":6658,"▁mareo":6659,"▁mucho,":6660,"▁diá":6661,"▁debes":6662,"ECES":6663,"rés":6664,"▁Alex":6665,"etas":6666,"/10":6667,"▁importancia":6668,"▁agres":6669,"▁give":6670,"▁aplica":6671,"▁tarea":6672,"▁PUTA":6673,"óme":6674,"GAR":6675,"uuu":6676,"ever":6677,"▁sil":6678,"▁Lit":6679,"▁entera":6680,"▁director":6681,"▁Diego":6682,"mestre":6683,"▁Pobre":6684,"▁dejado":6685,"yos":6686,"lados":6687,"▁Dip":6688,"▁mates":6689,"▁uru":6690,"ive":6691,"tional":6692,"▁acción":6693,"▁!.":6694,"▁env":6695,"ym":6696,"▁FOR":6697,"tará":6698,"▁AAA":6699,"▁Cur":6700,"▁frustración":6701,"▁animales":6702,"▁terri":6703,"▁RA":6704,"▁responsable":6705,"▁SAB":6706,"▁Ali":6707,"▁cantando":6708,"ipe":6709,"dade":6710,"▁ub":6711,"▁cruzados":6712,"▁COL":6713,"didas":6714,"▁Happy":6715,"▁patri":6716,"▁let":6717,"▁HAY":6718,"▁chocolate":6719,"▁pers":6720,"▁Bas":6721,"▁brin":6722,"vile":6723,"▁Seguro":6724,"▁joy":6725,"▁Pé":6726,"▁quieran":6727,"▁Rafa":6728,"▁Chi":6729,"istas.":6730,"uis":6731,"▁Dere":6732,"ath":6733,"▁instagram":6734,"DAS":6735,"▁end":6736,"▁abue":6737,"vaila":6738,"▁Jesús":6739,"joy":6740,"gá":6741,"▁trabajos":6742,"▁horario":6743,"ó,":6744,"▁JU":6745,"▁Ecuador":6746,"▁meta":6747,"▁confusión":6748,"▁cuestion":6749,"▁Antonio":6750,"▁hipo":6751,"anda":6752,"▁costa":6753,"ficio":6754,"its":6755,"bos":6756,"▁Guer":6757,"▁belleza":6758,"▁Liga":6759,"▁sube":6760,"▁reno":6761,"▁lá":6762,"▁2016":6763,"▁perten":6764,"▁poniendo":6765,"▁dedic":6766,"▁tardes":6767,"mino":6768,"▁cosas,":6769,"▁ambos":6770,"ics":6771,"▁santa":6772,"▁mierda.":6773,"▁afuera":6774,"cing":6775,"ASTA":6776,"vidu":6777,"ejo":6778,"dero":6779,"▁olvida":6780,"▁Love":6781,"...\"":6782,"sible":6783,"tiful":6784,"▁David":6785,"GR":6786,"logía":6787,"▁QUIERO":6788,"100":6789,"▁But":6790,"▁pibe":6791,"▁made":6792,"ITA":6793,"▁cobrar":6794,"CIONES":6795,"▁Sur":6796,"▁debo":6797,"tión":6798,"▁mostra":6799,"▁Ustedes":6800,"▁vengan":6801,"▁Santiago":6802,"▁diría":6803,"▁QUÉ":6804,"▁interven":6805,"▁audio":6806,"▁provincia":6807,"▁Fis":6808,"▁nooo":6809,"▁universidad":6810,"▁felicidades":6811,"cero":6812,"▁Educa":6813,"▁Mel":6814,"▁limi":6815,"▁Ag":6816,"x.":6817,"▁fase":6818,"▁progres":6819,"▁MEJ":6820,"▁Boca":6821,"berna":6822,"▁redonda":6823,"▁45":6824,"▁How":6825,"▁noviembre":6826,"▁ambiente":6827,"▁ilus":6828,"iados":6829,"JD":6830,"▁plena":6831,"▁these":6832,"▁compara":6833,"RG":6834,"▁femen":6835,"▁(P":6836,"▁familiar":6837,"▁dólares":6838,"▁carga":6839,"▁visitar":6840,"▁interior":6841,"ZO":6842,"▁excep":6843,"▁pizza":6844,"▁cerezo":6845,"gón":6846,"▁embara":6847,"▁consider":6848,"▁got7":6849,"T.":6850,"▁ejercicio":6851,"▁habría":6852,"▁و":6853,"▁quis":6854,"▁esco":6855,"▁ocupa":6856,"JSJS":6857,"▁GU":6858,"▁fea":6859,"▁Alcal":6860,"▁febrero":6861,"▁night":6862,"ling":6863,"g.":6864,"▁torneo":6865,"guém":6866,"▁Champ":6867,"▁Siii":6868,"▁JO":6869,"▁facul":6870,"▁Sha":6871,"iano":6872,"▁Ai":6873,"▁Chris":6874,"▁original":6875,"vailable":6876,"▁productos":6877,"▁Sho":6878,"enario":6879,"▁rele":6880,"▁Star":6881,"res.":6882,"ring":6883,"etw":6884,"▁mez":6885,"▁abierto":6886,"▁porqué":6887,"▁hablas":6888,"ística":6889,"pel":6890,"▁....":6891,"▁convoca":6892,"cua":6893,"▁¡No":6894,"▁sobr":6895,"▁acordar":6896,"'.":6897,"sed":6898,"▁¿Quién":6899,"▁dictadura":6900,"responsab":6901,"iciones":6902,"▁lugares":6903,"▁:'":6904,"ah":6905,"c.":6906,"▁dipu":6907,"▁flores":6908,"▁protección":6909,"▁Oli":6910,"▁Estaba":6911,"▁WhatsApp":6912,"▁calavera":6913,"forme":6914,"▁uruguay":6915,"▁enorme":6916,"▁volumen":6917,"▁ef":6918,"tf":6919,"▁traer":6920,"sea":6921,"▁fandom":6922,"ISTE":6923,"▁niñas":6924,"▁carta":6925,"▁pela":6926,"▁proyectos":6927,"▁(S":6928,"▁termino":6929,"PAR":6930,"▁BA":6931,"▁completa":6932,"▁aborto":6933,"▁candidato":6934,"▁MOR":6935,"▁INF":6936,"ína":6937,"▁GAN":6938,"din":6939,"▁consul":6940,"nal":6941,"▁Mucho":6942,"▁div":6943,"▁vacuna":6944,"▁account":6945,"dores,":6946,"▁sp":6947,"▁Aún":6948,"mmer":6949,"ciéndo":6950,"▁¿No":6951,"▁principio":6952,"▁prefiero":6953,"zación":6954,"▁ron":6955,"▁sepa":6956,"▁presentación":6957,"hos":6958,"doras":6959,"▁carre":6960,"▁mi,":6961,"▁trae":6962,"▁repu":6963,"▁marketing":6964,"▁gente.":6965,"▁perdió":6966,"▁enfermedad":6967,"rias":6968,"▁mesmo":6969,"▁ganado":6970,"▁merecen":6971,"encia.":6972,"▁artis":6973,"▁desin":6974,"▁cif":6975,"▁cago":6976,"ente,":6977,"▁Não":6978,"ló":6979,"▁mucho.":6980,"▁hoje":6981,"duras":6982,"▁aquellos":6983,"▁C.":6984,"sin":6985,"▁saludo":6986,"▁NUN":6987,"▁eléctr":6988,"▁glor":6989,"tillas":6990,"hone":6991,"oncesto":6992,"▁Fernández":6993,"▁agradecer":6994,"▁descono":6995,"▁Kar":6996,"/2":6997,"▁igles":6998,"seguridad":6999,"UEL":7000,"▁hoja":7001,"lie":7002,"dicial":7003,"▁dema":7004,"45":7005,"▁querés":7006,"DIO":7007,"▁NUE":7008,"▁poca":7009,"▁pies":7010,"▁cabal":7011,"▁Daniel":7012,"▁cach":7013,"▁jarras":7014,"90":7015,"▁JAJAJAJAJAJAJA":7016,"▁very":7017,"crib":7018,"▁quita":7019,"▁moto":7020,"▁PL":7021,"▁Secre":7022,"TES":7023,"▁género":7024,"iedad":7025,"oro":7026,"▁habit":7027,"▁reproducir":7028,"▁cáncer":7029,"ente.":7030,"▁Oh":7031,"▁TA":7032,"▁máximo":7033,"▁\"R":7034,"dona":7035,"tti":7036,"PU":7037,"▁tuya":7038,"DEN":7039,"▁leí":7040,"▁profesor":7041,"▁pequeña":7042,"ado,":7043,"▁cientí":7044,"▁hayan":7045,"▁coger":7046,"▁bendi":7047,"▁spa":7048,"▁profe":7049,"cados":7050,"drí":7051,"▁elig":7052,"cales":7053,"▁concent":7054,"▁Según":7055,"▁investigación":7056,"▁movimiento":7057,"▁llaman":7058,"har":7059,"▁mur":7060,"▁Cruz":7061,"▁sar":7062,"▁roja":7063,"▁imágenes":7064,"ezco":7065,"vemos":7066,"▁superar":7067,"▁fren":7068,"▁motiva":7069,"▁mami":7070,"▁obser":7071,"menes":7072,"encia,":7073,"-3":7074,"amer":7075,"▁masaje":7076,"▁privile":7077,"▁Casa":7078,"▁girl":7079,"▁mierda,":7080,"▁práctica":7081,"▁Coronavirus":7082,"▁Mario":7083,"▁run":7084,"onia":7085,"ree":7086,"cun":7087,"▁energ":7088,"▁sk":7089,"▁psic":7090,"▁CRE":7091,"▁Nooo":7092,"bur":7093,"▁cancel":7094,"▁Lis":7095,"tar.":7096,"▁rue":7097,"brir":7098,"▁vende":7099,"▁asu":7100,"▁little":7101,"OS.":7102,"▁extrañar":7103,"▁empeza":7104,"ced":7105,"▁carro":7106,"sta":7107,"▁billete":7108,"▁informe":7109,"▁también.":7110,"▁hubiese":7111,"70":7112,"▁parque":7113,"less":7114,"▁ic":7115,"▁elimina":7116,"jj":7117,"▁KKK":7118,"▁autoridades":7119,"KE":7120,"▁cant":7121,"▁AHORA":7122,"ast":7123,"▁trabajo,":7124,"EMPRE":7125,"▁volvió":7126,"▁¡Y":7127,"▁inú":7128,"▁MUN":7129,"▁salido":7130,"▁coca":7131,"▁isla":7132,"▁Uribe":7133,"nd":7134,"▁hablamos":7135,"▁Incre":7136,"▁ingen":7137,"á,":7138,"▁Blan":7139,"íamos":7140,"▁helado":7141,"▁Cui":7142,"tify":7143,"riel":7144,"▁estrategia":7145,"jin":7146,"▁Bogotá":7147,"▁1000":7148,"▁calla":7149,"-C":7150,"ino.":7151,"tric":7152,"▁médicos":7153,"tz":7154,"PI":7155,"▁¿Que":7156,"▁Ej":7157,"▁Mujer":7158,"▁tristeza":7159,"▁talento":7160,"▁qual":7161,"▁Quién":7162,"▁medida":7163,"▁título":7164,"▁bul":7165,"▁Person":7166,"▁HE":7167,"iona":7168,"▁segundos":7169,"▁tod":7170,"tar,":7171,"▁individu":7172,"▁pantal":7173,"▁profun":7174,"▁BO":7175,"▁Wor":7176,"▁FI":7177,"▁Salva":7178,"▁300":7179,"▁indica":7180,"▁inso":7181,"▁Gui":7182,"▁esperan":7183,"▁influen":7184,"▁coun":7185,"▁App":7186,"▁estuve":7187,"ítulos":7188,"▁Hahaha":7189,"▁sueldo":7190,"▁SAN":7191,"▁(A":7192,"▁pelota":7193,"▁Madre":7194,"▁Grande":7195,"fic":7196,"▁Sta":7197,"▁Julio":7198,"▁vez,":7199,"RAS":7200,"▁cierto,":7201,"torno":7202,"▁alcalde":7203,"▁ponerme":7204,"▁assi":7205,"▁Ger":7206,"TAR":7207,"▁yo.":7208,"allen":7209,"▁@usuario's":7210,"▁Mat":7211,"▁imper":7212,"▁muere":7213,"▁viviendo":7214,"ball":7215,"▁dejaron":7216,"▁ponga":7217,"▁integ":7218,"▁actitud":7219,"▁euros":7220,"▁Puerto":7221,"▁WE":7222,"▁deix":7223,"▁transporte":7224,"▁bue":7225,"▁separa":7226,"ordina":7227,"oría":7228,"mbra":7229,"▁hand":7230,"▁\"F":7231,"▁tercera":7232,"▁tercer":7233,"▁destino":7234,"▁espalda":7235,"é.":7236,"bert":7237,"▁categor":7238,"ante,":7239,"ado.":7240,"▁probar":7241,"igna":7242,"uelas":7243,"fier":7244,"▁querida":7245,"▁SA":7246,"▁planes":7247,"▁bem":7248,"▁(a":7249,"ged":7250,"ó.":7251,"oli":7252,"▁corto":7253,"▁material":7254,"▁proteger":7255,"menaje":7256,"gas,":7257,"▁dre":7258,"▁entregar":7259,"▁Hor":7260,"▁sea,":7261,"▁Últi":7262,"eración":7263,"▁adelan":7264,"▁Learn":7265,"▁ver,":7266,"▁diputa":7267,"▁Google":7268,"▁vota":7269,"llar":7270,"▁Lea":7271,"▁Sá":7272,"▁well":7273,"▁cuel":7274,"▁Fr":7275,"ñado":7276,"▁2015":7277,"▁supuesto":7278,"▁entero":7279,"pul":7280,"▁Unas":7281,"▁invito":7282,"▁kid":7283,"▁depres":7284,"▁sober":7285,"the":7286,"erac":7287,"▁equivoca":7288,"▁beau":7289,"▁(URL":7290,"tory":7291,"▁renun":7292,"▁Buena":7293,"xo":7294,"▁dignidad":7295,"tacular":7296,"▁great":7297,"MY":7298,"▁ficha":7299,"uestros":7300,"▁MO":7301,"▁SIEMPRE":7302,"▁resis":7303,"▁misera":7304,"▁zo":7305,"▁No.":7306,"▁reina":7307,"▁pecho":7308,"udes":7309,"▁víctimas":7310,"▁pesa":7311,"▁then":7312,"▁ultima":7313,"melo":7314,"iosa":7315,"▁periódico":7316,"▁revis":7317,"▁JAJAJ":7318,"▁Amor":7319,"▁irre":7320,"▁aquel":7321,"▁lun":7322,"▁Francisco":7323,"▁literalmente":7324,"digo":7325,"▁leyendo":7326,"▁juicio":7327,"▁yendo":7328,"▁planeta":7329,"ANO":7330,"zón":7331,"▁etapa":7332,"▁rode":7333,"cs":7334,"▁wait":7335,"mblea":7336,"▁PSOE":7337,"▁thank":7338,"▁awards":7339,"▁Rodrí":7340,"cemos":7341,"▁Er":7342,"▁Agu":7343,"▁abandon":7344,"▁BUEN":7345,"▁vengo":7346,"▁prohibido":7347,"26":7348,"▁hubier":7349,"▁Red":7350,"▁Justicia":7351,"▁uñas":7352,"▁merec":7353,"▁more.":7354,"ración":7355,"▁pones":7356,"▁ánimo":7357,"▁año,":7358,"orada":7359,"▁análisis":7360,"▁song":7361,"kkk":7362,"onato":7363,"▁contenido":7364,"usta":7365,"▁ego":7366,"▁fuiste":7367,"zamos":7368,"▁exclus":7369,"▁Primera":7370,"28":7371,"▁ninguno":7372,"▁hun":7373,"▁open":7374,"▁estres":7375,"yen":7376,"vida":7377,"▁war":7378,"▁puerto":7379,":3":7380,"▁llo":7381,"erop":7382,"▁acabe":7383,"▁chupa":7384,"▁FAVOR":7385,"ross":7386,"vado":7387,"ehy":7388,"▁cerdo":7389,"▁pez":7390,"▁NUNCA":7391,"▁ace":7392,"▁producción":7393,"ek":7394,"▁República":7395,"▁políticas":7396,"▁piern":7397,"▁Mexico":7398,"ienda":7399,"ynamite":7400,"▁nadie,":7401,"▁jaja,":7402,"▁senta":7403,"▁CN":7404,"\"?":7405,"▁JAJAJAJ":7406,"▁¿Te":7407,"ppen":7408,"▁ahorita":7409,"▁It's":7410,"▁aceptar":7411,"ito.":7412,"▁ya.":7413,"úl":7414,"▁responde":7415,"▁nomás":7416,"▁Han":7417,"▁tenían":7418,"cia,":7419,"▁es.":7420,"minación":7421,"▁That":7422,"▁podido":7423,"▁¿Sab":7424,"▁Spo":7425,"▁ellos.":7426,"▁inau":7427,"Me":7428,"▁permite":7429,"▁exc":7430,"▁baloncesto":7431,"lace":7432,"▁IG":7433,"▁kil":7434,"▁cuestión":7435,"icho":7436,"▁infin":7437,"▁renuncia":7438,"▁6.":7439,"ículos":7440,"▁Segun":7441,"TAS":7442,"▁cuánto":7443,"▁capit":7444,"jate":7445,"▁birthday":7446,"▁hier":7447,"▁sei":7448,"▁cuantos":7449,"▁moda":7450,"▁ب":7451,"BO":7452,"▁prac":7453,"▁hy":7454,"jito":7455,"▁brea":7456,"▁MIN":7457,"▁regreso":7458,"enti":7459,"isimo":7460,"▁compañero":7461,"om":7462,"▁año.":7463,"▁necesitas":7464,"▁Esos":7465,"▁casas":7466,"dillo":7467,"▁also":7468,"gulo":7469,"▁Char":7470,"▁Uru":7471,"▁mejor,":7472,"blos":7473,"pop":7474,"wu":7475,"▁pocas":7476,"▁ans":7477,"▁¿H":7478,"▁Seguimos":7479,"kan":7480,"▁amistad":7481,"▁sad":7482,"▁jung":7483,"▁nieve":7484,"▁Fernando":7485,"▁millon":7486,"derno":7487,"▁Aten":7488,"ión.":7489,"uña":7490,"▁encontra":7491,"27":7492,"▁quedado":7493,"▁peru":7494,"▁lamentable":7495,"▁ceja":7496,"mbur":7497,"▁Trans":7498,"ked":7499,"▁murió":7500,"▁princes":7501,"▁They":7502,"▁BIEN":7503,"▁pensamiento":7504,"▁andan":7505,"▁ilegal":7506,"▁SUS":7507,"▁conoci":7508,"▁aro":7509,"▁Dr.":7510,"▁lic":7511,"ones,":7512,"▁sitio":7513,"lita":7514,"▁Casi":7515,"▁congreso":7516,"@URL":7517,"▁interpre":7518,"▁corruptos":7519,"▁tremendo":7520,"▁Compar":7521,"▁usuario":7522,"▁Perdón":7523,"▁teatro":7524,"/7":7525,"▁anima":7526,"▁precisa":7527,"ribun":7528,"▁rus":7529,"▁Video":7530,"▁dulce":7531,"▁Cuba":7532,"ENTA":7533,"zca":7534,"▁pasada":7535,"▁até":7536,"▁reforma":7537,"▁vean":7538,"▁global":7539,")..":7540,"▁conce":7541,"▁Campe":7542,"vol":7543,"▁amor.":7544,"▁decisiones":7545,"SO":7546,"oos":7547,"▁Good":7548,"▁Ano":7549,"▁favor.":7550,"-.":7551,"fore":7552,"▁fern":7553,"▁nadie.":7554,"▁criminal":7555,"▁Barça":7556,"grantes":7557,"▁playing":7558,"cks":7559,"▁Day":7560,"▁monta":7561,"▁cierre":7562,"ERDA":7563,"▁profesionales":7564,"▁cro":7565,"▁compañía":7566,"ástima":7567,"▁inteligente":7568,"cia.":7569,"mul":7570,"CON":7571,"cidio":7572,"▁Tienes":7573,"▁aparte":7574,"▁AF":7575,"▁Dor":7576,"▁fab":7577,"▁Universidad":7578,"ñera":7579,"▁valen":7580,"▁materia":7581,"▁algo,":7582,"▁propa":7583,"▁amp":7584,"▁saliendo":7585,"▁bicicle":7586,"▁pacientes":7587,"▁locura":7588,"▁alterna":7589,"▁tenho":7590,"▁hermanos":7591,"▁devuel":7592,"▁canta":7593,"sapp":7594,"▁malos":7595,"▁Todavía":7596,"rael":7597,"▁selec":7598,"▁\"la":7599,"▁Tele":7600,"▁funcionarios":7601,"▁memes":7602,"▁Córdo":7603,"▁Vier":7604,"▁envidia":7605,"▁Ok":7606,"▁BAR":7607,"enos":7608,"▁⠀":7609,"cord":7610,"▁diz":7611,"▁ainda":7612,"▁solamente":7613,"yn":7614,"alth":7615,"▁sencil":7616,"▁artista":7617,"ones.":7618,"▁Sobre":7619,"▁iban":7620,"leo":7621,"▁llora":7622,"▁contac":7623,"ts,":7624,"▁entradas":7625,"▁ste":7626,"▁demostrar":7627,"▁DM":7628,"grama":7629,"▁She":7630,"▁2020.":7631,"▁cuch":7632,"▁amigo,":7633,"▁rompe":7634,"▁manifesta":7635,"▁resca":7636,"▁nosotras":7637,"hua":7638,"▁estés":7639,"▁lados":7640,"ja,":7641,"▁Reci":7642,"▁unico":7643,"▁provo":7644,"▁civil":7645,"▁rar":7646,"▁incon":7647,"jec":7648,"▁abre":7649,"▁JAJA":7650,"▁irresponsab":7651,"▁Andr":7652,"▁A.":7653,"▁hechos":7654,"▁rí":7655,"▁juntas":7656,"▁baile":7657,"iciales":7658,"▁tell":7659,"▁LLE":7660,"uri":7661,"▁PEL":7662,"▁Sala":7663,"▁deuda":7664,"timi":7665,"▁confina":7666,"▁amigos,":7667,"▁pongan":7668,"▁dejes":7669,"▁cop":7670,"▁siii":7671,"▁next":7672,"▁construcción":7673,"▁absolutamente":7674,"▁propuesta":7675,"▁tomo":7676,"ance":7677,"▁rata":7678,"ENTO":7679,"▁enamorada":7680,"▁sé,":7681,"cast":7682,"▁¡D":7683,"▁recuerdos":7684,"colo":7685,"tant":7686,"ticular":7687,"▁Mucha":7688,"▁\"el":7689,"▁\"Si":7690,"▁cosas.":7691,"▁quero":7692,"Lo":7693,"▁Hern":7694,"ub":7695,"▁cobar":7696,"▁MUY":7697,"▁expon":7698,"▁si.":7699,"▁AND":7700,"▁emi":7701,"▁culia":7702,"▁nariz":7703,":0":7704,"▁news":7705,"ieve":7706,"udar":7707,"▁thing":7708,"cé":7709,"empo":7710,"▁semi":7711,"▁Ele":7712,"▁contacto":7713,"iss":7714,"▁peron":7715,"▁hp":7716,"ciación":7717,"▁Cristina":7718,"▁Radio":7719,"▁pensaba":7720,"▁dejamos":7721,"▁siglo":7722,"▁sobrevi":7723,"▁habían":7724,"▁gordo":7725,"▁ESO":7726,"▁Extraño":7727,"try":7728,"icul":7729,"▁diji":7730,"▁nao":7731,"▁comienza":7732,"▁pleno":7733,"uto":7734,"▁melhor":7735,"▁Dra":7736,"ilita":7737,"▁friends":7738,"▁perdi":7739,"▁tho":7740,"▁iniciativa":7741,"ERE":7742,"des,":7743,"rosa":7744,"▁coisa":7745,"▁Alej":7746,"med":7747,"depen":7748,"▁36":7749,"▁catal":7750,"▁HD":7751,"tivo.":7752,"ali":7753,"▁haría":7754,"▁CAB":7755,"▁escribe":7756,"▁gala":7757,"▁ola":7758,"quete":7759,"▁sena":7760,"▁7.":7761,"▁angel":7762,"▁where":7763,"▁adoles":7764,"▁barr":7765,"▁NAD":7766,"▁fiel":7767,"▁Black":7768,"▁Fiscal":7769,"▁casual":7770,"▁formas":7771,"▁something":7772,"▁ple":7773,"▁VAMOS":7774,"▁fake":7775,"▁pagan":7776,"▁Thanks":7777,"▁probable":7778,"urar":7779,"▁album":7780,"▁escribiendo":7781,"▁care":7782,"▁proto":7783,"▁\"es":7784,"iche":7785,"▁Pregun":7786,"▁sombrero":7787,"▁Feder":7788,"▁Uruguay":7789,"todos":7790,"▁Siento":7791,"▁deter":7792,"▁Sevilla":7793,"▁viejos":7794,"PP":7795,"▁colores":7796,"▁gane":7797,"ister":7798,"ei":7799,"▁familiares":7800,"ión,":7801,"▁cata":7802,"▁coinci":7803,"▁act":7804,"▁intento":7805,"▁pedido":7806,"omo":7807,"▁apo":7808,"▁MEJOR":7809,"jo.":7810,"▁fuerzas":7811,"▁echa":7812,"▁Nuestra":7813,"▁Puede":7814,"▁Amigos":7815,"▁avión":7816,"▁marido":7817,"▁Él":7818,"▁toy":7819,"▁Ed":7820,"iii":7821,"las.":7822,"▁Ir":7823,"▁perra":7824,"▁invita":7825,"▁sabia":7826,"▁nen":7827,"▁tenéis":7828,"▁depende":7829,"▁pendejos":7830,"▁util":7831,"▁alumnos":7832,"▁acceso":7833,"▁?.":7834,"dores.":7835,"▁gasolina":7836,"▁ocurre":7837,"▁presencia":7838,"▁norte":7839,"▁peligro":7840,"▁lazo":7841,"▁arras":7842,"▁ganan":7843,"▁defin":7844,"ÉN":7845,"▁encontré":7846,"▁perdiendo":7847,"▁maltra":7848,"▁buscan":7849,"viamente":7850,"reo":7851,"▁igu":7852,"▁consecuencias":7853,"▁Hola,":7854,"▁high":7855,"▁acus":7856,"▁pedazo":7857,"▁negocios":7858,"▁hope":7859,"▁AT":7860,"REN":7861,"▁divi":7862,"▁pudiera":7863,"▁luchar":7864,"▁lopez":7865,"▁ejecu":7866,"▁asomb":7867,"▁sí.":7868,"▁presos":7869,"eció":7870,"2,":7871,"▁boo":7872,"▁necesit":7873,"▁lloro":7874,"▁sabado":7875,"zá":7876,"ías,":7877,"▁usu":7878,"án,":7879,"▁mismas":7880,"▁tratando":7881,"▁CAL":7882,"iencias":7883,"▁jard":7884,"▁PORQUE":7885,"▁españoles":7886,"▁Ram":7887,"▁ridí":7888,"▁instru":7889,"as?":7890,"▁testi":7891,"anta":7892,"In":7893,"▁refor":7894,"▁habita":7895,"▁:3":7896,"▁ridículo":7897,"▁Disfru":7898,"▁river":7899,"vs":7900,"tely":7901,"imp":7902,"jó":7903,"ueve":7904,"▁invierno":7905,"▁perdí":7906,"▁Plaza":7907,"GUI":7908,"▁II":7909,"▁¡Es":7910,"▁usando":7911,"▁Bri":7912,"▁ignorancia":7913,"uth":7914,"▁corta":7915,"▁económica":7916,"▁etique":7917,"GAN":7918,"▁cabo":7919,"▁disfra":7920,"XI":7921,"▁John":7922,"▁despertar":7923,"▁disponible!":7924,"ario.":7925,"▁alguno":7926,"▁idiota":7927,"▁enseñ":7928,"▁insu":7929,"▁meme":7930,"▁이":7931,"icos.":7932,"▁it.":7933,"▁gratui":7934,"ventud":7935,"▁participación":7936,"▁party":7937,"▁Agra":7938,"▁support":7939,"▁Mé":7940,"▁pasaron":7941,"▁fiestas":7942,"UD":7943,"idal":7944,"▁sois":7945,"queta":7946,"▁errores":7947,"):":7948,"▁electoral":7949,"▁pata":7950,"▁pa'":7951,"▁crecer":7952,"▁daba":7953,"▁oh":7954,"▁Navidad":7955,"dicion":7956,"con_":7957,"ceramente":7958,"▁finales":7959,"▁peores":7960,"▁País":7961,"▁cool":7962,"▁happen":7963,"▁When":7964,"▁chab":7965,"▁quizás":7966,"▁declar":7967,"▁herra":7968,"▁conciencia":7969,"▁bole":7970,"▁enfrentar":7971,"▁Pad":7972,"▁Sw":7973,"▁asquer":7974,"▁habia":7975,"▁199":7976,"▁américa":7977,"▁fues":7978,"▁tik":7979,"▁gilipol":7980,"▁agenda":7981,"▁desea":7982,"▁beautiful":7983,"▁TER":7984,"imnas":7985,"▁2,":7986,"ezas":7987,"ija":7988,"asol":7989,"▁Amb":7990,"▁seres":7991,"▁Sub":7992,"▁things":7993,"▁verla":7994,"▁peli":7995,"▁guapo":7996,"▁innova":7997,"▁use":7998,"▁hacerse":7999,"▁CI":8000,"▁sensación":8001,"▁vice":8002,"▁mac":8003,"▁Ángel":8004,"▁atras":8005,"▁publicidad":8006,"▁consejos":8007,"▁SOLO":8008,"▁cayó":8009,"▁someone":8010,"▁Usted":8011,"▁adic":8012,"▁adentro":8013,"▁¡El":8014,"▁contagios":8015,"▁obs":8016,"▁homenaje":8017,"▁larga":8018,"▁queso":8019,"29":8020,"▁Apren":8021,"cá":8022,"▁proce":8023,"▁pendiente":8024,"▁clásico":8025,"▁ahora,":8026,"▁y,":8027,"▁personajes":8028,"▁lastima":8029,"▁Gru":8030,"zi":8031,"ness":8032,"▁keep":8033,"▁planta":8034,"▁corazon":8035,"nera":8036,"usto":8037,"ham":8038,"eda":8039,"any":8040,"▁hotel":8041,"▁set":8042,"▁Sam":8043,"duc":8044,"▁tranquila":8045,"▁laboral":8046,"iam":8047,"▁imbé":8048,"▁parecen":8049,"▁medica":8050,"▁escena":8051,"▁cena":8052,"▁botella":8053,"izando":8054,"▁igualdad":8055,"▁Debe":8056,"▁reconocer":8057,"▁DON":8058,"▁decís":8059,"▁recuperar":8060,"milio":8061,"▁posta":8062,"▁odia":8063,"▁él.":8064,"dem":8065,"▁olor":8066,"▁pusieron":8067,"▁guitar":8068,"▁Nar":8069,"▁héro":8070,"▁Mc":8071,"▁dispos":8072,"▁facil":8073,"▁adi":8074,"▁musica":8075,"▁NU":8076,"▁vídeos":8077,"▁maestro":8078,"▁Dec":8079,"ather":8080,"▁crush":8081,"▁Primer":8082,"▁inmedia":8083,"gers":8084,"▁ms":8085,"▁abrazar":8086,"▁Javier":8087,"trol":8088,"▁herramien":8089,"OS,":8090,"▁exten":8091,":5":8092,"▁TW":8093,"▁tiran":8094,"▁democrá":8095,"▁¿qué":8096,"▁Todas":8097,"▁inven":8098,"▁públicos":8099,"aas":8100,"▁apun":8101,"▁nena":8102,"▁posición":8103,"▁decre":8104,"▁delincuentes":8105,"▁Hon":8106,"▁trump":8107,"▁vos,":8108,"▁bom":8109,"ique":8110,"antil":8111,"JAJ":8112,"▁cuadrado":8113,"ongi":8114,"ifa":8115,"▁tanto,":8116,"ADOR":8117,"▁Jjaja,":8118,"▁fucking":8119,"▁vá":8120,"▁independiente":8121,"▁perú":8122,"▁sufrir":8123,"▁pour":8124,"▁periodismo":8125,"pico":8126,"▁española":8127,"▁convertir":8128,"uestras":8129,"▁piedra":8130,"ped":8131,"▁verdadera":8132,"als":8133,"▁Via":8134,"dá":8135,"ificar":8136,"jera":8137,"vamos":8138,"▁diálogo":8139,"▁duermo":8140,"▁tía":8141,"cho,":8142,"itarios":8143,"▁qué?":8144,"abo":8145,"▁wal":8146,"▁impresion":8147,"vers":8148,"▁#1":8149,"▁can't":8150,"▁ampl":8151,"teras":8152,"AJ":8153,"▁@usuario?":8154,"▁partida":8155,"bara":8156,"jsj":8157,"▁muertes":8158,"▁sosten":8159,"▁USA":8160,"uerte":8161,"▁esposa":8162,"tivo,":8163,"▁many":8164,"▁existir":8165,"▁darme":8166,"▁constante":8167,"▁solidaridad":8168,"▁servi":8169,"of":8170,"▁%":8171,"▁-.":8172,"▁mere":8173,"▁fumar":8174,"-M":8175,"gether":8176,"▁dr":8177,"▁Cami":8178,"▁rival":8179,"▁mtvlafandom":8180,"▁IT":8181,"▁esque":8182,"▁mirada":8183,"▁supues":8184,"▁emplea":8185,"ele":8186,"▁compras":8187,"▁vez.":8188,"▁aprue":8189,"▁2019.":8190,"tiz":8191,"▁entienden":8192,"▁magia":8193,"tiano":8194,"▁mañan":8195,"▁Depor":8196,"▁cabello":8197,"▁tão":8198,"▁identif":8199,"▁tmb":8200,"▁nose":8201,"▁VIDA":8202,"▁prioridad":8203,"▁vel":8204,"INO":8205,"▁later":8206,"▁Its":8207,"▁trai":8208,"▁hs":8209,"▁Vas":8210,"▁\"En":8211,"KD":8212,"encial":8213,"▁recon":8214,"▁(+":8215,"▁Foto":8216,"▁recomiendo":8217,"▁pobreza":8218,"sa,":8219,"▁\"s":8220,"▁naturale":8221,"▁hacerle":8222,"▁Ko":8223,"▁Lar":8224,"▁invent":8225,"▁vuelto":8226,"AS.":8227,"▁cens":8228,"▁rendir":8229,"km":8230,"▁friend":8231,"▁orien":8232,"▁Paz":8233,"▁llamada":8234,"EEE":8235,"▁\"¿":8236,"▁PEN":8237,"▁desayun":8238,"▁\"G":8239,"tame":8240,"▁gall":8241,"▁restau":8242,"las,":8243,"▁aumento":8244,"izada":8245,"▁tatua":8246,"▁dirección":8247,"▁rit":8248,"▁inteligencia":8249,"▁dejando":8250,"▁informar":8251,"▁pelea":8252,"▁IM":8253,"▁ki":8254,"▁caja":8255,"▁URL\"":8256,"▁Gonzá":8257,"▁tendencia":8258,"pool":8259,"▁actua":8260,"ágri":8261,"▁batalla":8262,"▁face":8263,"▁Ge":8264,"▁ellos,":8265,"▁Sabes":8266,"▁aver":8267,"▁pantalla":8268,"▁debido":8269,"▁expul":8270,"▁NECES":8271,"▁clos":8272,"▁Conoce":8273,"ientos":8274,"vision":8275,"l.":8276,"▁Hugo":8277,"CT":8278,"▁trabajo.":8279,"▁\"Los":8280,"▁mtvlaparejajuliantina":8281,"▁Tras":8282,"▁saluda":8283,"▁coo":8284,"▁rever":8285,"▁Wal":8286,"temala":8287,"▁sesión":8288,"in,":8289,"▁eso?":8290,"AND":8291,"▁Br":8292,"▁atender":8293,"▁assim":8294,"▁dispar":8295,"▁Ever":8296,"▁mentir":8297,"▁Joa":8298,"▁compa":8299,"▁sorry":8300,"▁charla":8301,"▁respuestas":8302,"x,":8303,"▁esperaba":8304,"▁¡¡¡":8305,"▁mtvlafandomjuliantina":8306,"▁fort":8307,"▁guapa":8308,"in.":8309,"▁lon":8310,"lia":8311,"▁tienda":8312,"▁descen":8313,"▁Leo":8314,"ões":8315,"_con_":8316,"▁Chá":8317,"gr":8318,"▁kar":8319,"entes.":8320,"tado.":8321,"▁madres":8322,"▁irse":8323,"▁sorteo":8324,"¡¡":8325,"▁personas,":8326,"PS":8327,"rey":8328,"▁turismo":8329,"▁Cr":8330,"LTI":8331,"▁podrá":8332,"▁lidera":8333,"loud":8334,"gil":8335,"reola":8336,"▁claro,":8337,"ken":8338,"illos":8339,"vela":8340,"2017":8341,"▁jur":8342,"▁vuelven":8343,"allenge":8344,"list":8345,"▁quedé":8346,"ano,":8347,"ritu":8348,"▁ordenador":8349,"▁privado":8350,"▁mencion":8351,"▁die":8352,"▁recomen":8353,"▁facultad":8354,"▁:/":8355,"▁comenzar":8356,"▁Felicitaciones":8357,"imas":8358,"arnos":8359,"p,":8360,"▁Bern":8361,"▁rea":8362,"▁met":8363,"ENCIA":8364,"▁temporar":8365,"ost":8366,"▁stay":8367,"▁MAM":8368,"▁satis":8369,"▁rio":8370,"_a":8371,"500":8372,"▁put":8373,"▁own":8374,"ísimas":8375,"ash":8376,"▁quédate":8377,"▁Will":8378,"▁activa":8379,"▁supone":8380,"▁comprome":8381,"▁comunica":8382,"▁sacan":8383,"▁transpar":8384,"uca":8385,"deces":8386,"▁tonto":8387,"▁ng":8388,"▁peti":8389,"▁episodio":8390,"▁lavar":8391,"▁:((":8392,"▁Defini":8393,"▁し":8394,"▁Ojala":8395,"pón":8396,"▁cultural":8397,"▁alzada":8398,"▁amas":8399,"IDA":8400,"▁nes":8401,"▁nal":8402,"▁hate":8403,"▁unidad":8404,"▁podrían":8405,"serio":8406,"▁estaremos":8407,"▁quedarse":8408,"ñé":8409,"dell":8410,"LI":8411,"▁mereces":8412,"▁Má":8413,"come":8414,"▁melo":8415,"▁Martin":8416,"▁Viernes":8417,"tage":8418,"ony":8419,"far":8420,"▁municipio":8421,"▁sana":8422,"▁MADRE":8423,"▁leído":8424,"▁Policía":8425,"▁darte":8426,"▁gonna":8427,"▁gam":8428,"▁discri":8429,"▁papas":8430,"▁sorpresa":8431,"▁everyone":8432,"▁mega":8433,"▁jimin":8434,"▁ficar":8435,"cela":8436,"▁monó":8437,"▁Duque":8438,"talidad":8439,"▁Dios,":8440,"▁pequeños":8441,"▁sufri":8442,"▁ruta":8443,"▁mim":8444,"log":8445,"33":8446,"▁sín":8447,"tamiento":8448,"▁ésta":8449,"▁valores":8450,"▁semana.":8451,"▁diez":8452,"▁expec":8453,"▁Rodri":8454,"▁you.":8455,"▁JUN":8456,"▁Confir":8457,"gri":8458,"▁violates":8459,"▁Fla":8460,"▁gustar":8461,"▁turno":8462,"▁mila":8463,"▁gracio":8464,"▁horror":8465,"▁particular":8466,"▁estima":8467,"▁superior":8468,"▁Fan":8469,"▁demuestra":8470,"▁parla":8471,"▁construir":8472,"des.":8473,"▁ec":8474,"▁pibes":8475,"ezca":8476,"▁(1":8477,"▁més":8478,"▁generación":8479,"▁frio":8480,"▁box":8481,"uco":8482,"dencias":8483,"gante":8484,"▁magn":8485,"dible":8486,"▁55":8487,"▁damos":8488,"▁razones":8489,"▁10.":8490,"▁historia.":8491,"▁Pr":8492,"▁aureola":8493,"▁polític":8494,"▁competi":8495,"quez":8496,"▁¿E":8497,"▁delito":8498,"▁lágri":8499,"plo":8500,"▁power":8501,"▁ens":8502,"...y":8503,"▁Cel":8504,"entes,":8505,"▁unfollowed":8506,"dezco":8507,"▁Ví":8508,"▁long":8509,"dias":8510,"▁marco":8511,"▁intereses":8512,"▁agarrar":8513,"▁humana":8514,"ivar":8515,"▁master":8516,"▁contrato":8517,"▁feder":8518,"pecial":8519,"▁LES":8520,"▁perfecta":8521,"jora":8522,"▁pelotuda":8523,"▁adap":8524,"▁(M":8525,"uales":8526,"CAR":8527,"▁veía":8528,"▁bello":8529,"▁Pérez":8530,"chada":8531,"▁electr":8532,"▁tl":8533,"▁tô":8534,"▁absolu":8535,"▁poten":8536,"▁premi":8537,"▁Apar":8538,"▁actor":8539,"▁drama":8540,"▁terminó":8541,"▁before":8542,"ñez":8543,"HS":8544,"▁nervio":8545,"v.":8546,"▁temporarily":8547,"▁cercan":8548,"tara":8549,"▁tera":8550,"▁FAL":8551,"▁tier":8552,"▁Tr":8553,"▁diseño":8554,"▁velo":8555,"bano":8556,"▁Mill":8557,"visa":8558,"▁Vuel":8559,"▁jubi":8560,"▁Andrés":8561,"key":8562,"',":8563,"ved":8564,"ario,":8565,"▁incor":8566,"▁sun":8567,"▁bat":8568,"▁unavailable":8569,"▁mini":8570,"▁completamente":8571,"ita,":8572,"ate":8573,"cula":8574,"▁¡Gracias":8575,"▁vieron":8576,"▁publicado":8577,"milar":8578,"▁entro":8579,"-4":8580,"▁Bur":8581,"ano.":8582,"200":8583,"zy":8584,"▁blog":8585,"nor":8586,"▁recibe":8587,"▁gobiernos":8588,"▁gorda":8589,"ios,":8590,"▁POL":8591,"icando":8592,"▁jejeje":8593,"▁criticar":8594,"▁policías":8595,"▁reconocimiento":8596,"▁suelo":8597,"▁num":8598,"▁Primero":8599,"vando":8600,"kers":8601,"▁expos":8602,"box":8603,"tiva.":8604,"ing,":8605,"▁conflic":8606,"án.":8607,"eada":8608,"▁tarjeta":8609,"▁Policy.":8610,"cripción":8611,"▁Pel":8612,"▁Obvio":8613,"▁relacion":8614,"▁Sigo":8615,"illar":8616,"▁Ellos":8617,"▁emoción":8618,"lano":8619,"▁capaci":8620,"▁prefier":8621,"▁abri":8622,"▁0.":8623,"▁alar":8624,"ordin":8625,"▁compor":8626,"igual":8627,"▁redu":8628,"RR":8629,"▁río":8630,"tud":8631,"▁acaban":8632,"▁bolas":8633,"?...":8634,"▁bols":8635,"▁Muchos":8636,"▁personas.":8637,"▁¿En":8638,"▁echo":8639,"▁él,":8640,"diós":8641,"/3":8642,"▁pm":8643,"dical":8644,"cies":8645,"▁COMP":8646,"▁conocido":8647,"▁girasol":8648,"▁two":8649,"▁remo":8650,"▁Anda":8651,"▁tér":8652,"▁pidió":8653,"▁retro":8654,"cier":8655,"play":8656,"▁chat":8657,"▁tome":8658,"ehyung":8659,"iales":8660,"▁pessoa":8661,"▁conocimiento":8662,"▁paraguay":8663,"fal":8664,"▁voluntad":8665,"▁MIL":8666,"▁JAJAJAJAJ":8667,"▁Top":8668,"▁infier":8669,"▁decir,":8670,"¿¿":8671,"▁seis":8672,"▁vulnera":8673,"▁directamente":8674,"▁GENTE":8675,"▁に":8676,"▁persona,":8677,"enda":8678,"▁comercial":8679,"mentación":8680,"▁tatu":8681,"▁colum":8682,"▁maduro":8683,"▁atro":8684,"▁Cier":8685,"▁Hospital":8686,"▁olvido":8687,"▁thro":8688,"ARIO":8689,"árez":8690,"▁firma":8691,"▁despertador":8692,"tion.":8693,"▁Ning":8694,"▁sorprende":8695,"▁TR":8696,"▁aí":8697,"(?":8698,"EP":8699,"ason":8700,"manos":8701,"▁monóculo":8702,"▁DIS":8703,"▁¿Al":8704,"▁dejas":8705,"body":8706,"▁alerta":8707,"▁Sergio":8708,"▁mtvlafandomjuliantinafans":8709,"bieron":8710,"▁demasia":8711,"▁Falta":8712,"tado,":8713,"▁Asa":8714,"▁tama":8715,"▁Valencia":8716,"▁área":8717,"dados":8718,"▁\"O":8719,"ables":8720,"▁orgullosa":8721,"uy":8722,"▁PC":8723,"▁8.":8724,"▁cartel":8725,"▁acord":8726,"▁llegando":8727,"▁iP":8728,"▁semestre":8729,"▁lee":8730,"▁Estás":8731,"▁hot":8732,"▁call":8733,"▁mmm":8734,"▁formación":8735,"monos":8736,"wh":8737,"▁matan":8738,"▁lindas":8739,"▁Ál":8740,"▁ESTÁ":8741,"dable":8742,"chool":8743,"▁tuviera":8744,"▁you're":8745,"▁enseñar":8746,"▁||":8747,"▁AMOR":8748,"▁indigna":8749,"▁emocional":8750,"▁corrupto":8751,"▁sentimientos":8752,"▁Felipe":8753,"▁maravilla":8754,"irch":8755,"re,":8756,"▁comentar":8757,"▁inep":8758,"íos":8759,"donos":8760,"▁enviar":8761,"▁incomp":8762,"▁pag":8763,"ctima":8764,"▁ghvi":8765,"ore":8766,"oot":8767,"▁registra":8768,"▁dió":8769,"▁técnico":8770,"▁Europe":8771,"▁alas":8772,"▁Nosotros":8773,"▁ger":8774,"Los":8775,"▁mañana,":8776,"▁universo":8777,"▁VIDEO":8778,"▁diputados":8779,"▁vaina":8780,"▁generar":8781,"guas":8782,"▁nube":8783,"▁uwu":8784,"▁mostrador":8785,"▁acusa":8786,"▁¡Qué":8787,"▁desemp":8788,"ciles":8789,"▁eras":8790,"▁programas":8791,"DU":8792,"▁fraude":8793,"▁hard":8794,"▁destro":8795,"VEN":8796,"▁transmi":8797,"kd":8798,"▁VAL":8799,"junto":8800,"▁aho":8801,"▁parec":8802,"▁bolude":8803,"▁mexicanos":8804,"▁consulta":8805,"▁conversación":8806,"▁Tri":8807,"▁breve":8808,"▁EXO":8809,"▁hear":8810,"▁militares":8811,"▁tul":8812,"▁CUANDO":8813,"▁ame":8814,"▁tranquilo":8815,"▁Apro":8816,"▁domi":8817,"viene":8818,"ustri":8819,"▁millón":8820,"▁Cho":8821,"ports":8822,"venido":8823,"▁gym":8824,"???.":8825,"pris":8826,"▁Champions":8827,"▁industria":8828,"▁gracias.":8829,"mbio":8830,"ARI":8831,"▁ARMY":8832,"▁oportunidades":8833,"yyy":8834,"▁arena":8835,"▁ór":8836,"pa,":8837,"▁33":8838,"uk":8839,"tico.":8840,"▁DÍA":8841,"▁Recor":8842,"cas,":8843,"▁doctor":8844,"▁piernas":8845,"▁afecta":8846,"▁198":8847,"▁paciencia":8848,"▁familia,":8849,"▁è":8850,"▁lectura":8851,"▁pico":8852,"▁bibl":8853,"▁manifes":8854,"▁Increíble":8855,"▁ultra":8856,"iness":8857,"▁Ministerio":8858,"▁Ministro":8859,"ÑA":8860,"▁Rodríguez":8861,"▁ella.":8862,"▁critica":8863,"▁legisla":8864,"▁TIENE":8865,"b.":8866,"unas":8867,"▁ilu":8868,"tumbre":8869,"▁VE":8870,"▁Retw":8871,"▁DIC":8872,"bus":8873,"minar":8874,"▁Tanto":8875,"▁aguanto":8876,"▁LLOR":8877,"▁pasión":8878,"▁humo":8879,"▁sacri":8880,"▁cojones":8881,"▁Guaid":8882,"▁➡":8883,"▁mover":8884,"▁sobra":8885,"▁ang":8886,"▁novela":8887,"▁Justo":8888,"POR":8889,"AME":8890,"▁partes":8891,"▁nefas":8892,"▁hacerte":8893,"▁Consejo":8894,"▁days":8895,"mburgues":8896,"▁apoya":8897,"▁aerop":8898,"▁Please":8899,"time":8900,"▁relaciones":8901,"▁oye":8902,"maron":8903,"culos":8904,"▁birra":8905,"▁aburri":8906,"▁igual,":8907,"▁né":8908,"▁Harry":8909,"▁usan":8910,"▁Vale":8911,"▁Ó":8912,"▁SH":8913,"ino,":8914,"▁Necesita":8915,"▁sentimiento":8916,"guar":8917,"▁LIN":8918,"▁fantasma":8919,"une":8920,"re.":8921,"▁impunidad":8922,"▁económico":8923,"1,":8924,"▁ya,":8925,"▁aliment":8926,"irchner":8927,"▁Goberna":8928,"▁festival":8929,"▁Play":8930,"▁respetar":8931,"▁roba":8932,"exual":8933,"▁manipula":8934,"▁veremos":8935,"▁menores":8936,"▁Petro":8937,"▁decirte":8938,"▁Valle":8939,"▁Grupo":8940,"▁alegra":8941,"ward":8942,"▁mi.":8943,"▁story":8944,"▁those":8945,"▁Panamá":8946,"▁putas":8947,"▁read":8948,"▁tigre":8949,"▁confor":8950,"led":8951,"rie":8952,"▁maldita":8953,"▁infierno":8954,"▁estaré":8955,"andal":8956,"▁tóx":8957,"uch":8958,"plica":8959,"taste":8960,"▁claramente":8961,"partamento":8962,"ército":8963,"▁armas":8964,"▁Mur":8965,"▁letra":8966,"▁estando":8967,"▁arreglar":8968,"MX":8969,"▁ideal":8970,"▁juez":8971,"▁Fir":8972,"▁víctima":8973,"▁Cali":8974,"▁ee":8975,"▁jer":8976,"▁dato":8977,"▁Bet":8978,"▁wanna":8979,"▁ojala":8980,"▁yes":8981,"▁Andal":8982,"▁(o":8983,"▁centros":8984,"▁Demo":8985,"▁fli":8986,"▁crecimiento":8987,"▁escrito":8988,"▁delante":8989,"▁conferencia":8990,"▁conejo":8991,"▁servir":8992,"▁respal":8993,"gaste":8994,"▁sospe":8995,"▁invitamos":8996,"▁Hal":8997,"ja.":8998,"▁arroz":8999,"capacidad":9000,"frica":9001,"▁doing":9002,"▁EM":9003,"▁inversión":9004,"ño,":9005,"▁Semana":9006,"enzo":9007,"▁números":9008,"▁absur":9009,"acio":9010,"▁ilusión":9011,"▁bicicleta":9012,"▁2014":9013,"▁plus":9014,"▁aco":9015,"▁clientes":9016,"ángulo":9017,"▁amaz":9018,"▁manga":9019,"▁stra":9020,"▁pisto":9021,"mart":9022,"▁asa":9023,"él":9024,"▁Tom":9025,"▁Dig":9026,"▁mato":9027,"▁wit":9028,"▁test":9029,"▁falsa":9030,"▁jungkook":9031,"▁cura":9032,"▁tas":9033,"▁caracter":9034,"▁droga":9035,"olazo":9036,"▁Bolivia":9037,"▁amooo":9038,"▁momento,":9039,"estima":9040,"▁amiga,":9041,"▁¡Buen":9042,"▁Iglesias":9043,"ÃO":9044,"MAS":9045,"▁chiqui":9046,"▁también,":9047,"OLA":9048,"simo":9049,"fía":9050,"▁sabiendo":9051,"▁together":9052,"▁disfruta":9053,"▁que?":9054,"▁Estar":9055,"▁punta":9056,"▁caminar":9057,"▁CHA":9058,"tiles":9059,"▁copas":9060,"▁bit":9061,"▁Cuán":9062,"▁rol":9063,"madre":9064,"sonaro":9065,"hout":9066,"▁pases":9067,"▁alimentos":9068,"▁Actual":9069,"▁regis":9070,"▁desn":9071,"▁cie":9072,"viste":9073,"▁¡N":9074,"íz":9075,"vy":9076,"▁日":9077,"▁aña":9078,"▁controlar":9079,"uestran":9080,"▁ques":9081,"▁primar":9082,"memo":9083,"▁Lon":9084,"▁España.":9085,"▁gab":9086,"▁reca":9087,"▁Sep":9088,"▁champions":9089,"▁everything":9090,"▁anci":9091,"▁cc":9092,"▁judicial":9093,"▁dist":9094,"mad":9095,"▁aguantar":9096,"▁convir":9097,"▁under":9098,"á.":9099,"▁hipó":9100,"▁beneficio":9101,"▁actuar":9102,"▁bang":9103,"▁enamorar":9104,"▁audiencia":9105,"reno":9106,"bras":9107,"▁aclar":9108,"desa":9109,"yes":9110,"▁japon":9111,"▁concurso":9112,"▁coming":9113,"▁pasen":9114,"▁venezolano":9115,"▁¿no":9116,"▁conocen":9117,"▁cohe":9118,"▁Bil":9119,"rillo":9120,"▁frun":9121,"▁triunfo":9122,"▁juan":9123,"▁eval":9124,"read":9125,"▁imple":9126,"▁aler":9127,"▁¿Se":9128,"laciones":9129,"▁nervios":9130,"IÓN":9131,"▁locos":9132,"▁esto?":9133,"▁preso":9134,"titos":9135,"▁producto":9136,"imiento":9137,"▁FELIZ":9138,"▁Diario":9139,"bb":9140,"▁VOY":9141,"▁trato":9142,"▁regalar":9143,"ulos":9144,"ficos":9145,"▁TODA":9146,"▁pollo":9147,"▁megá":9148,"jsja":9149,"▁maldito":9150,"▁Venezuela.":9151,"kaka":9152,"▁contestar":9153,"▁provoca":9154,"▁leyes":9155,"ezan":9156,"▁Hoy,":9157,"ienta":9158,"▁conoces":9159,"lara":9160,"▁fuese":9161,"▁hijue":9162,"▁vesti":9163,"▁JUS":9164,"▁rechazo":9165,"▁obses":9166,"▁Ala":9167,"uación":9168,"ñal":9169,"_19":9170,"▁Andalu":9171,"▁accidente":9172,"ary":9173,"▁megáfono":9174,"▁espacios":9175,"game":9176,"/20":9177,"mía":9178,"▁HERMOS":9179,"▁Basta":9180,"▁oferta":9181,"▁a.":9182,"▁Veo":9183,"▁cadena":9184,"▁nuevamente":9185,"▁Apoy":9186,"▁mari":9187,"CES":9188,"der,":9189,"▁semana,":9190,"▁suje":9191,"▁persona.":9192,"▁avent":9193,"▁FO":9194,"tico,":9195,"▁resolver":9196,"▁Lib":9197,"▁Dé":9198,"▁plataforma":9199,"▁regresar":9200,"▁Ari":9201,"▁bienestar":9202,"fre":9203,"▁retras":9204,"▁04":9205,"▁tremenda":9206,"▁cortar":9207,"▁harta":9208,"▁triángulo":9209,"DD":9210,"tit":9211,"▁Wow":9212,"us,":9213,"▁Edu":9214,"▁mx":9215,"▁presión":9216,"▁Martínez":9217,"▁artistas":9218,"▁pér":9219,"ívar":9220,"▁9.":9221,"▁netflix":9222,"▁tipos":9223,"▁cuaderno":9224,"▁miembros":9225,"CIAL":9226,"▁región":9227,"▁Lla":9228,"▁ángel":9229,"▁angus":9230,"▁00":9231,"axa":9232,"vern":9233,"ed.":9234,"▁miercoles":9235,"▁tara":9236,"▁hecha":9237,"pias":9238,"▁_":9239,"▁away":9240,"tiva,":9241,"▁ceño":9242,"▁espectacular":9243,"▁beber":9244,"GUN":9245,"▁são":9246,"untamiento":9247,"jud":9248,"▁\"de":9249,"ION":9250,"aa,":9251,"▁Mex":9252,"▁ear":9253,"cho.":9254,"▁LPM":9255,"nia":9256,"▁Gracias,":9257,"▁dream":9258,"▁mandan":9259,"▁china":9260,"▁MIERDA":9261,"▁Mag":9262,"▁propó":9263,"▁respira":9264,"▁exactamente":9265,"▁ciclo":9266,"▁familia.":9267,"▁Jjaja.":9268,"▁zur":9269,"▁sába":9270,"▁podrán":9271,"com":9272,"▁argentino":9273,"▁Dice":9274,"morrow":9275,"▁infer":9276,"▁FE":9277,"rones":9278,"▁Var":9279,"▁falso":9280,"▁protesta":9281,"▁morning":9282,"▁Ahhh":9283,"▁:v":9284,"▁nicaragua":9285,"▁gastar":9286,"enn":9287,"camp":9288,"▁feria":9289,"laga":9290,"▁negar":9291,"▁noch":9292,"▁ponerse":9293,"▁(no":9294,"celo":9295,"▁mañana.":9296,"▁edificio":9297,"bles.":9298,"▁frases":9299,"▁Españ":9300,"▁Patria":9301,"▁toman":9302,"▁venden":9303,"▁vivimos":9304,"▁refu":9305,"▁mexicano":9306,"▁vayas":9307,"▁intentando":9308,"▁ella,":9309,"▁Enhorabuena":9310,"▁hamburgues":9311,"▁Pra":9312,"▁puertas":9313,"▁Fab":9314,"▁3,":9315,"▁Pd":9316,"▁summer":9317,"▁caminando":9318,"dicional":9319,"▁aisla":9320,"▁sienten":9321,"roid":9322,"▁gobernador":9323,"▁Indepen":9324,"▁cuales":9325,"us.":9326,"▁Tener":9327,"▁socio":9328,"▁miro":9329,"ías.":9330,"▁Tamp":9331,"lido":9332,"▁Nicolás":9333,"ARON":9334,"▁empat":9335,"▁single":9336,"▁parecido":9337,"▁quejar":9338,"▁apos":9339,"tendo":9340,"últi":9341,"decer":9342,"▁manejo":9343,"▁trop":9344,"cos,":9345,"▁enfo":9346,"▁escal":9347,"▁Amigo":9348,"▁sim":9349,"▁masco":9350,"▁World":9351,"▁facebook":9352,"▁pasos":9353,"▁PLA":9354,"lon":9355,"ritos":9356,"▁prevención":9357,"▁quar":9358,"▁eterno":9359,"▁sentí":9360,"▁retw":9361,"▁BB":9362,"▁diablo":9363,"▁pá":9364,"pado":9365,"▁soon":9366,"▁Institu":9367,"▁tax":9368,"jara":9369,"▁competencia":9370,"▁concre":9371,"▁sevilla":9372,"▁parcial":9373,"▁pensado":9374,"▁Let":9375,"▁primeras":9376,"▁¿Cuál":9377,"▁alrededor":9378,"▁México,":9379,"▁cnco":9380,"▁ultimo":9381,"▁acces":9382,"▁Haz":9383,"▁Italia":9384,"▁temb":9385,"▁Sé":9386,"▁tex":9387,"▁Lee":9388,"▁Álvar":9389,"▁alegro":9390,"▁infantil":9391,"▁entendí":9392,"▁transmisión":9393,"▁bill":9394,"▁pelu":9395,"▁denunciar":9396,"▁colaboración":9397,"▁tendremos":9398,"ecé":9399,"▁izquier":9400,"▁cute":9401,"▁OT":9402,"▁presidencial":9403,"unya":9404,"▁Costa":9405,"▁Sería":9406,"▁infra":9407,"▁Central":9408,"▁ricos":9409,"▁-S":9410,"▁ris":9411,"C,":9412,"▁Wil":9413,"▁estrés":9414,"FE":9415,"derecha":9416,"ments":9417,"▁comparto":9418,"quiere":9419,"▁gimnas":9420,"▁lindos":9421,"▁Tro":9422,"▁habéis":9423,"▁THIS":9424,"▁mí,":9425,"▁tú,":9426,"▁AU":9427,"▁tos":9428,"ios.":9429,"ve.":9430,"▁ranking":9431,"▁me.":9432,"ólogo":9433,"entemente":9434,"▁difundir":9435,"sí":9436,"▁tocó":9437,"▁inseguridad":9438,"▁pud":9439,"gena":9440,"▁encuentran":9441,"/o":9442,"toy":9443,"75":9444,"▁ghvip":9445,"▁noche,":9446,"▁acaso":9447,"▁gestion":9448,"▁estupidez":9449,"dea":9450,"▁mons":9451,"▁libres":9452,"▁colabora":9453,"▁carita":9454,"!\"":9455,"CHE":9456,"▁pur":9457,"▁covid_19":9458,"▁God":9459,"to?":9460,"ERON":9461,"▁Queremos":9462,"▁Bos":9463,"▁War":9464,"▁camion":9465,"jitos":9466,"▁haha":9467,"▁dela":9468,"▁Ojo":9469,"iros":9470,"▁vaso":9471,"▁lástima":9472,"▁igual.":9473,"▁León":9474,"ARA":9475,"▁Gusta":9476,"▁Entra":9477,"▁dueño":9478,"ota":9479,"▁Ren":9480,"▁Venezuela,":9481,"▁rap":9482,"▁vuestra":9483,"▁(19":9484,"▁momento.":9485,"▁encuesta":9486,"▁muriendo":9487,"▁iglesia":9488,"▁Some":9489,"▁similar":9490,"▁ed":9491,"▁tenis":9492,"▁old":9493,"ili":9494,"▁deser":9495,"▁matri":9496,"▁hero":9497,"▁family":9498,"▁actos":9499,"▁vecino":9500,"▁Bay":9501,"cas.":9502,"▁hospitales":9503,"▁ensa":9504,"▁avance":9505,"▁queriendo":9506,"▁ahí,":9507,"▁propuestas":9508,"▁MV":9509,"▁Bab":9510,"▁Uni":9511,"GUE":9512,"▁HACER":9513,"▁Comisión":9514,"ST":9515,"▁defiende":9516,"camos":9517,"▁presupuesto":9518,"uestas":9519,"▁Rafael":9520,"▁Madrid.":9521,"ald":9522,"▁ani":9523,"▁aplicar":9524,"▁Af":9525,"▁bloqueo":9526,"▁arrep":9527,"O,":9528,"▁empe":9529,"lique":9530,"▁enti":9531,"▁llamo":9532,"▁mantiene":9533,"▁cdmx":9534,"rón":9535,"▁cle":9536,"▁efecto":9537,"▁nombres":9538,"▁física":9539,"▁México.":9540,"▁sonre":9541,"▁dir":9542,"▁cs":9543,"bó":9544,"▁papás":9545,"▁insis":9546,"▁llevó":9547,"▁formar":9548,"▁ye":9549,"teles":9550,"jante":9551,"temos":9552,"▁nomina":9553,"▁prime":9554,"▁cans":9555,"lanes":9556,"▁escenario":9557,"▁oper":9558,"▁seguramente":9559,"▁LOVE":9560,"▁instituciones":9561,"▁brazos":9562,"▁europa":9563,"▁cen":9564,"temp":9565,"▁self":9566,"▁Serv":9567,"▁compre":9568,"▁cliente":9569,"▁acha":9570,"▁mean":9571,"▁EMP":9572,"▁empol":9573,"AS,":9574,"▁Internet":9575,"▁sumar":9576,"▁Noticias":9577,"▁dm":9578,"▁rema":9579,"▁evolución":9580,"▁tempo":9581,"▁Partido":9582,"▁plane":9583,"▁confinamiento":9584,"▁HACE":9585,"▁arrancar":9586,"ctora":9587,"▁quedarme":9588,"tible":9589,"▁once":9590,"▁logro":9591,"▁Ramos":9592,"▁cobra":9593,"guiendo":9594,"cres":9595,"▁pieza":9596,"lera":9597,"▁ído":9598,"view":9599,"▁aviso":9600,"▁juegan":9601,"▁SOY":9602,"¿?":9603,"▁asesino":9604,"▁Algún":9605,"44":9606,"▁estru":9607,"quía":9608,"▁mana":9609,"▁anime":9610,"tátil":9611,"▁impac":9612,"▁figu":9613,"▁cumplen":9614,"▁correo":9615,"▁¿Ya":9616,"▁fracaso":9617,"▁continuar":9618,"▁Angel":9619,"▁seme":9620,"▁dynamite":9621,"gara":9622,"▁trabajan":9623,"▁Pop":9624,"3,":9625,"▁Dicen":9626,"▁debut":9627,"orio":9628,"cilla":9629,"▁permiso":9630,"▁vueltas":9631,"▁gatos":9632,"▁podcast":9633,"▁primo":9634,"▁REAL":9635,"izan":9636,"▁refier":9637,"▁Polí":9638,"GE":9639,"cta":9640,"itat":9641,"▁fundamental":9642,"▁inútil":9643,"▁pica":9644,"▁galle":9645,"▁ayudas":9646,"real":9647,"venil":9648,"MIN":9649,"▁Habla":9650,"▁excusa":9651,"▁mt":9652,"▁gent":9653,"der.":9654,"▁bala":9655,"▁mm":9656,"▁Sr.":9657,"mitas":9658,"▁decían":9659,"▁porta":9660,"▁empu":9661,"▁Espera":9662,"▁evid":9663,"▁queja":9664,"▁delicio":9665,"▁importar":9666,"▁empresarios":9667,"uesto":9668,"bando":9669,"▁Gracias.":9670,"dada":9671,"yon":9672,"▁merca":9673,"ias,":9674,"▁madrugada":9675,"ame":9676,"side":9677,"ention":9678,"▁elección":9679,"▁gracias,":9680,"▁miren":9681,"idade":9682,"▁ritmo":9683,"▁japonés":9684,"▁rut":9685,"CL":9686,"▁Llevo":9687,"▁Tranqui":9688,"▁Sábado":9689,"▁Dejen":9690,"▁puedas":9691,"cés":9692,"▁arrepen":9693,"▁Inf":9694,"tal.":9695,"ın":9696,"▁--":9697,"▁chance":9698,"▁roman":9699,"drán":9700,"ão,":9701,"▁cómpl":9702,"▁listen":9703,"▁Spa":9704,"tty":9705,"▁ridic":9706,"▁huellas":9707,"▁vestido":9708,"▁financi":9709,"▁todavia":9710,"▁preguntan":9711,"▁tuvieron":9712,"TRE":9713,"migos":9714,"▁since":9715,"▁while":9716,"▁pasaba":9717,"▁MY":9718,"cher":9719,"▁guardia":9720,"IF":9721,"segui":9722,"cribir":9723,"▁despre":9724,"▁caen":9725,"▁marip":9726,"▁gradu":9727,"▁coordina":9728,"▁engan":9729,"tancias":9730,"▁posted":9731,"pto":9732,"▁caro":9733,"▁INTER":9734,"▁asombrada":9735,"▁ces":9736,"dillas":9737,"▁OMG":9738,"ricul":9739,"▁correcto":9740,"▁costumbre":9741,"▁ESP":9742,"▁\"Me":9743,"▁ofrece":9744,"▁choice":9745,"▁month":9746,"▁macri":9747,"▁Guad":9748,"fortun":9749,"ERN":9750,"▁mamar":9751,"▁Encu":9752,"▁(que":9753,"identes":9754,"ário":9755,"▁sede":9756,"▁vergon":9757,"▁preocupada":9758,"▁Municipal":9759,"▁distra":9760,"▁oso":9761,"▁beneficios":9762,"▁bras":9763,"▁conserva":9764,"▁bendiga":9765,"▁MON":9766,"tim":9767,"▁women":9768,"▁desaf":9769,"zla":9770,"▁hit":9771,"pora":9772,"▁responsables":9773,"▁quiso":9774,"▁aper":9775,"▁FINAL":9776,"hot":9777,"▁hacer.":9778,"▁MUCH":9779,"▁broma":9780,"▁letras":9781,"▁PD":9782,"▁Literal":9783,"▁boludo":9784,"▁kill":9785,"▁descanso":9786,"▁acabó":9787,"▁artic":9788,"▁COS":9789,"▁Leon":9790,"▁quise":9791,"mble":9792,"mand":9793,"mix":9794,"ORIA":9795,"▁salieron":9796,"▁España,":9797,"LL":9798,"▁ahora.":9799,"▁pilo":9800,"boy":9801,"▁humanidad":9802,"▁Corte":9803,"▁dame":9804,"▁urib":9805,"▁Jor":9806,"▁prove":9807,"▁fondos":9808,"▁metros":9809,"▁quedaron":9810,"tio":9811,"▁regla":9812,"▁Gan":9813,"▁definitivamente":9814,"▁Why":9815,"▁promes":9816,"▁dire":9817,"▁aprovechar":9818,"▁through":9819,"▁ciel":9820,"▁razon":9821,"▁sanitario":9822,"▁corazón.":9823,"cui":9824,"-S":9825,"▁puente":9826,"dol":9827,"▁acho":9828,"▁dí":9829,"▁AG":9830,"▁fuertes":9831,"▁Constitución":9832,"▁epi":9833,"▁boluda":9834,"▁menos.":9835,"▁Nu":9836,"▁lleve":9837,"▁fueran":9838,"deras":9839,"▁Recuerda":9840,"▁algo.":9841,"▁mc":9842,"vide":9843,"JOS":9844,"▁gr":9845,"▁Paul":9846,"▁Quin":9847,"▁decidir":9848,"▁levanto":9849,"▁400":9850,"▁gano":9851,"▁borrar":9852,"▁conex":9853,"▁MUNDO":9854,"oom":9855,"lex":9856,"▁Contin":9857,"▁amenaza":9858,"íritu":9859,"▁crítica":9860,"▁curio":9861,"undar":9862,"▁Your":9863,"▁Educación":9864,"es?":9865,"▁andalu":9866,"▁en:":9867,"▁abuso":9868,"▁Metro":9869,"▁lado,":9870,"▁¿O":9871,"▁Córdoba":9872,"▁empollón":9873,"▁Are":9874,"▁enfren":9875,"▁tuits":9876,"▁utilizar":9877,"males":9878,"▁juventud":9879,"▁Pensé":9880,"ISMO":9881,"sa.":9882,"▁Mam":9883,"▁gasto":9884,"▁respir":9885,"▁ن":9886,"▁Seguridad":9887,"▁salgan":9888,"▁alqui":9889,"▁PON":9890,"▁vuestro":9891,"siva":9892,"▁alcanza":9893,"▁madre,":9894,"▁naturaleza":9895,"loween":9896,"▁oficina":9897,"pping":9898,"▁which":9899,"toso":9900,"▁(F":9901,"tell":9902,"tern":9903,"HAT":9904,"▁chef":9905,"▁find":9906,"tly":9907,"▁aprendi":9908,"tugal":9909,"▁health":9910,"reras":9911,"▁Santos":9912,"▁Aaaa":9913,"▁guardar":9914,"▁EE.":9915,"ymar":9916,"▁getting":9917,"▁Jornada":9918,"▁carna":9919,"!?":9920,"▁ganando":9921,"▁autoridad":9922,"▁Il":9923,"▁yourself":9924,"▁い":9925,"lá":9926,"▁deportiva":9927,"▁salu":9928,"▁lider":9929,"▁¿V":9930,"▁llevamos":9931,"pio":9932,"▁Esas":9933,"▁34":9934,"▁mejora":9935,"▁Jim":9936,"▁Alejandro":9937,"▁gobierno.":9938,"▁alarma":9939,"▁MAT":9940,"▁destruir":9941,"▁mág":9942,"▁mascarillas":9943,"tiza":9944,"▁inspira":9945,"elas":9946,"cau":9947,"▁impon":9948,"icardo":9949,"ijo":9950,"▁anos":9951,"▁mtvlaic":9952,"▁experi":9953,"BR":9954,"/a":9955,"▁ONU":9956,"▁Tiempo":9957,"je,":9958,"▁congres":9959,"▁cafe":9960,"dian":9961,"▁Peña":9962,"▁PAN":9963,"▁resumen":9964,"▁asustada":9965,"▁Mundo":9966,"▁excel":9967,"▁líderes":9968,"▁exigir":9969,"▁uds":9970,"▁Luna":9971,"▁lot":9972,"▁Maria":9973,"TH":9974,"▁Dio":9975,"▁eslab":9976,"▁ningun":9977,"tienen":9978,"▁león":9979,"▁Aus":9980,"metro":9981,"▁quedas":9982,"▁pueblos":9983,"▁taller":9984,"final":9985,"▁apoyando":9986,"▁ajena":9987,"▁gráfica":9988,"ada,":9989,"▁matando":9990,"tain":9991,"▁zonas":9992,"▁Puedes":9993,"▁encantan":9994,"hay":9995,"▁movili":9996,"▁DT":9997,"ta?":9998,"▁Not":9999,"▁sexy":10000,"▁RI":10001,"tismo":10002,"ural":10003,"▁aument":10004,"▁Patr":10005,"▁vamo":10006,"▁ana":10007,"▁Calder":10008,"▁feliz.":10009,"▁falla":10010,"quel":10011,"▁Boy":10012,"▁latino":10013,"▁perrito":10014,"▁PERS":10015,"pongo":10016,"▁MES":10017,"icas,":10018,"▁colectivo":10019,"▁gobierno,":10020,"ismos":10021,"▁wow":10022,"▁Totalmente":10023,"▁Tig":10024,"▁stic":10025,"▁differ":10026,"De":10027,"▁cham":10028,"▁diputado":10029,"▁salí":10030,"▁HO":10031,"ética":10032,"▁Andre":10033,"▁milit":10034,"▁escuch":10035,"▁unir":10036,"▁i'":10037,"NE":10038,"▁IR":10039,"▁tratamiento":10040,"gem":10041,"▁¿De":10042,"▁llevas":10043,"▁partido.":10044,"▁PRIM":10045,"cadas":10046,"▁Bi":10047,"▁fin,":10048,"▁enemigo":10049,"▁doming":10050,"▁Llor":10051,"fici":10052,"▁Jung":10053,"▁fuimos":10054,"untos":10055,"▁fit":10056,"▁Bru":10057,"▁menos,":10058,"▁¿por":10059,"direc":10060,"▁km/":10061,"traron":10062,"aría":10063,"▁NOOO":10064,"▁क":10065,"▁mande":10066,"-20":10067,"▁Exac":10068,"▁olvides":10069,"mili":10070,"osos":10071,"▁resu":10072,"▁alv":10073,"▁apelli":10074,"▁estreno":10075,"▁princesa":10076,"▁entrenador":10077,"FF":10078,"▁Pueblo":10079,"▁change":10080,"▁firme":10081,"▁lor":10082,"▁desen":10083,"▁rid":10084,"▁HOR":10085,"▁regular":10086,"▁maravilloso":10087,"▁passa":10088,"▁Mol":10089,"▁portada":10090,"▁inci":10091,"▁Parque":10092,"▁Blo":10093,"▁despierto":10094,"▁autoestima":10095,"▁aguante":10096,"▁eslabón":10097,"▁historia,":10098,"▁Bat":10099,"▁Jack":10100,"▁sirven":10101,"▁villa":10102,"▁ayudan":10103,"▁Mia":10104,"▁Univers":10105,"ras,":10106,"quín":10107,"▁str":10108,"▁Cru":10109,"guila":10110,"▁tulip":10111,"▁secreto":10112,"▁callar":10113,"ulas":10114,"▁Vie":10115,"▁Ante":10116,"▁cuentan":10117,"ónico":10118,"▁maneja":10119,"teria":10120,"MENTE":10121,"▁Far":10122,"thers":10123,"▁consumo":10124,"▁Ronal":10125,"▁paral":10126,"▁estudios":10127,"▁paciente":10128,"▁FM":10129,"▁cabron":10130,"Re":10131,"▁salvo":10132,"ES.":10133,"▁moder":10134,"▁48":10135,"hyun":10136,"▁despierta":10137,"▁CDMX":10138,"ita.":10139,"▁aprox":10140,"andra":10141,"▁Jamás":10142,"sima":10143,"47":10144,"ic.":10145,"ASE":10146,"quista":10147,"▁culpable":10148,"▁entren":10149,"▁podés":10150,"▁Fil":10151,"▁PUEDE":10152,"▁feliz,":10153,"▁Sebas":10154,"▁¡Feliz":10155,"▁Guaidó":10156,"▁razón,":10157,"▁aquí,":10158,"▁columna":10159,"▁sigues":10160,"▁jueces":10161,"▁24/7":10162,"▁lives":10163,".00":10164,"▁Bes":10165,"ESTA":10166,"▁Ud":10167,"▁hubieran":10168,"pá":10169,"▁QUER":10170,"▁zor":10171,"CIONAL":10172,"ora,":10173,"▁PM":10174,"▁desperté":10175,"▁S.":10176,"s!":10177,"▁propios":10178,"▁impro":10179,"35":10180,"48":10181,"@usuario.":10182,"▁estra":10183,"▁Follow":10184,"fit":10185,"▁believe":10186,"▁Fun":10187,"▁Gir":10188,"▁atacar":10189,"▁horas.":10190,"▁escuchado":10191,"▁Salu":10192,"▁alu":10193,"▁llegaron":10194,"▁sentar":10195,"▁Lunes":10196,"▁Tienen":10197,"▁alcanzar":10198,"▁silla":10199,"▁vencer":10200,"▁González":10201,"▁infancia":10202,"▁rui":10203,"▁rabia":10204,"ani":10205,"elle":10206,"UELA":10207,"▁labios":10208,"▁fala":10209,"▁Madrid,":10210,"▁ph":10211,"▁jal":10212,"CRI":10213,"▁señores":10214,"▁league":10215,"▁line":10216,"▁fur":10217,"▁whatsapp":10218,"▁alien":10219,"▁trabal":10220,"▁fc":10221,"ciado":10222,"▁id":10223,"bon":10224,"▁Tres":10225,"▁organización":10226,"65":10227,"américa":10228,"▁sto":10229,"▁another":10230,"▁URG":10231,"reas":10232,"▁extrema":10233,"▁Deus":10234,"▁escuelas":10235,"▁residen":10236,"ORM":10237,"▁empiezan":10238,"▁Reco":10239,"▁DEJA":10240,"▁Ñ":10241,"sp":10242,"▁amanecer":10243,"▁dijiste":10244,"neces":10245,"tha":10246,"??.":10247,"▁pelotudos":10248,"▁interro":10249,"▁unión":10250,"▁Viva":10251,"▁impe":10252,"YY":10253,"▁kids":10254,"▁cohete":10255,"▁haré":10256,"▁vaquero":10257,"▁indí":10258,",,,":10259,"▁aprende":10260,"▁ped":10261,"▁Prin":10262,"▁Ah,":10263,"▁tap":10264,"▁tech":10265,"▁laburo":10266,"▁impacto":10267,"▁ml":10268,"ione":10269,"▁financia":10270,"▁Francia":10271,"▁levantarme":10272,"▁Definitivamente":10273,"▁GOO":10274,"▁benefici":10275,"▁ate":10276,"▁VAR":10277,"crí":10278,"▁papi":10279,"▁ty":10280,"▁faltar":10281,"TAD":10282,"▁asal":10283,"▁Oscar":10284,"sidades":10285,"▁Aqui":10286,"▁AÑOS":10287,"▁Salvador":10288,"▁chau":10289,"▁histórico":10290,"▁Carmen":10291,"pois":10292,"▁existencia":10293,"ence":10294,"▁jardín":10295,"▁excus":10296,"▁lujo":10297,"TION":10298,"▁inv":10299,"▁latest":10300,"jita":10301,"▁levante":10302,"zaron":10303,"▁Civil":10304,"▁Gas":10305,"vada":10306,"▁cigar":10307,"▁Lan":10308,"▁vue":10309,"▁ine":10310,"▁verdad?":10311,"▁group":10312,"▁aspec":10313,"▁abuelo":10314,"▁mg":10315,"▁amigui":10316,"terra":10317,"▁abrazos":10318,"lético":10319,"▁32":10320,"▁CC":10321,"▁TAM":10322,"▁\"me":10323,"itos.":10324,"▁eliminar":10325,"oool":10326,"▁sensi":10327,"▁sof":10328,"icky":10329,"▁tulipán":10330,"▁fruncido":10331,"▁previa":10332,"▁Now":10333,"citos":10334,"▁hur":10335,"▁youre":10336,"▁\"W":10337,"abas":10338,"▁SOS":10339,"▁hacer,":10340,"▁!!!.":10341,"▁wish":10342,"▁UP":10343,"▁ᅠ":10344,"▁Só":10345,"▁tarde,":10346,"▁revolución":10347,"▁Ufff":10348,"tano":10349,"▁¡E":10350,"▁confiar":10351,"leep":10352,"▁hipócri":10353,"tte":10354,"gos,":10355,"zadas":10356,"▁quí":10357,"▁chino":10358,"▁maf":10359,"▁inclus":10360,"▁youtube":10361,"▁empiezo":10362,"▁separ":10363,"ANG":10364,"guenza":10365,"▁mueve":10366,"▁hicimos":10367,"▁bendiciones":10368,"▁puestos":10369,"▁playlist":10370,"▁py":10371,"▁rein":10372,"▁portátil":10373,"▁sientes":10374,"▁ahí.":10375,"▁pego":10376,"▁Bad":10377,"sivo":10378,"▁comunista":10379,"▁Pien":10380,"viles":10381,"-A":10382,"▁Like":10383,"▁Gil":10384,"▁]":10385,"▁dará":10386,"▁tráfico":10387,"▁prox":10388,"ada.":10389,"▁around":10390,"▁hela":10391,"▁figura":10392,"▁explicación":10393,"▁OP":10394,"▁candidatos":10395,"▁itali":10396,"▁mexican":10397,"▁difici":10398,"▁veces,":10399,"▁Santo":10400,"UDA":10401,"tias":10402,"▁James":10403,"▁09":10404,"ánd":10405,"diar":10406,"...no":10407,"URA":10408,"▁38":10409,"▁consigo":10410,"▁esquina":10411,"▁mind":10412,"ínate":10413,"ta:":10414,"grap":10415,"▁estad":10416,"▁Louis":10417,"▁See":10418,"▁propósito":10419,"gla":10420,"mites":10421,"caso":10422,"▁ready":10423,"▁League":10424,"hahahaha":10425,"▁ciudadano":10426,"▁guitarra":10427,"poche":10428,"▁ora":10429,"▁limpieza":10430,"▁Cualquier":10431,"▁Latino":10432,"▁dal":10433,"▁Descu":10434,"iverpool":10435,"ilar":10436,"bana":10437,"ips":10438,"▁TENGO":10439,"▁mien":10440,"▁Tampoco":10441,"gt":10442,"▁Cuen":10443,"▁NADIE":10444,"▁apretón":10445,"▁opciones":10446,"▁implica":10447,"mus":10448,"▁cover":10449,"www":10450,"▁entrenar":10451,"방탄":10452,"▁Cataluña":10453,"▁\"in":10454,"▁Domin":10455,"▁bui":10456,"▁merda":10457,"▁VOL":10458,"▁Comunidad":10459,"▁tendrán":10460,"yor":10461,"▁pc":10462,"▁investigar":10463,"▁\"J":10464,"▁llegada":10465,"zgo":10466,"▁podéis":10467,"▁remember":10468,"▁revista":10469,"▁eventos":10470,"▁で":10471,"▁artes":10472,"▁santiago":10473,"▁manejar":10474,"▁Comer":10475,"▁necesaria":10476,"▁VENEZ":10477,"▁caras":10478,"▁Llu":10479,"▁forever":10480,"▁relig":10481,"▁regala":10482,"▁arries":10483,"rarse":10484,"▁Victoria":10485,"▁without":10486,"entando":10487,"▁máxima":10488,"▁qe":10489,"▁City":10490,"▁Castro":10491,"▁2000":10492,"▁volví":10493,"▁status":10494,"▁trendy":10495,"▁Stre":10496,"antos":10497,"▁coronavirus.":10498,"▁bolivia":10499,"▁sure":10500,"▁salario":10501,"▁ک":10502,"▁ia":10503,"tralia":10504,"ifi":10505,"presidente":10506,"dame":10507,"▁fing":10508,"▁wtf":10509,"▁Asamblea":10510,"▁salud,":10511,"▁ciudades":10512,"í,":10513,"▁nosotros.":10514,"▁estarán":10515,"▁pueblo.":10516,"▁contribu":10517,"▁garantizar":10518,"▁bac":10519,"▁torta":10520,"▁preparado":10521,"▁concer":10522,"▁estudiando":10523,"▁JUE":10524,"▁prisión":10525,"▁amigos.":10526,"▁socor":10527,"▁tranquilidad":10528,"▁asegura":10529,"▁cerrada":10530,"▁hinchas":10531,"▁asesin":10532,"▁empleados":10533,"tyle":10534,"46":10535,"▁santo":10536,"▁ambas":10537,"cos.":10538,"te?":10539,"▁enlace":10540,"▁comienzo":10541,"ctur":10542,"▁bús":10543,"turo":10544,"▁tó":10545,"ência":10546,"▁ت":10547,"▁escla":10548,"▁^":10549,"▁Vamo":10550,"aca":10551,"▁against":10552,"▁evidencia":10553,"▁latin":10554,"▁Chan":10555,"▁Cole":10556,"▁190":10557,"▁quema":10558,"pr":10559,"ÍS":10560,"▁head":10561,"CIO":10562,"ros,":10563,"▁madre.":10564,"▁farma":10565,"▁Equi":10566,"▁depri":10567,"▁entreten":10568,"▁unido":10569,"▁Mos":10570,"▁BOL":10571,"▁75":10572,"quitos":10573,"▁(V":10574,"▁Today":10575,"▁abiertas":10576,"▁GOL":10577,"▁DOS":10578,"▁INS":10579,"▁coopera":10580,"▁corr":10581,"▁Ray":10582,"▁Our":10583,"▁you,":10584,"▁consejo":10585,"oo,":10586,"▁¿Quieres":10587,"l,":10588,"▁popul":10589,"___":10590,"▁maca":10591,"▁pasas":10592,"▁edu":10593,"▁gif":10594,"▁yan":10595,"PON":10596,"▁guys":10597,"▁Liverpool":10598,"▁pass":10599,"▁nunca.":10600,"tat":10601,"ditas":10602,"▁Has":10603,"▁Precio":10604,"▁perfor":10605,"▁challenge":10606,"▁preocup":10607,"▁Spotify":10608,"▁fic":10609,"▁defendiendo":10610,"▁Invi":10611,"cusión":10612,"▁Rivera":10613,"▁final,":10614,"▁air":10615,"▁Retweet":10616,"nos.":10617,"▁encantaría":10618,"▁reir":10619,"▁guay":10620,"▁Obra":10621,"DS":10622,"▁aquí:":10623,"▁cuenta.":10624,"▁jode":10625,"▁jes":10626,"▁debajo":10627,"▁Cuar":10628,"▁Quisiera":10629,"grá":10630,"▁von":10631,"▁Clas":10632,"wor":10633,"▁D.":10634,"▁Jimin":10635,"dad,":10636,"tanos":10637,"el,":10638,"▁Hora":10639,"chado":10640,"▁aconte":10641,"▁VOX":10642,"▁camión":10643,"▁imbécil":10644,"▁break":10645,"▁NUEVO":10646,"▁brutal":10647,"▁intro":10648,"▁jaj":10649,"df":10650,"▁poe":10651,"▁Vio":10652,"▁Lima":10653,"▁eco":10654,"ísticas":10655,"ván":10656,"▁matter":10657,"▁intención":10658,"▁Rock":10659,"▁Claro,":10660,"▁Alemania":10661,"▁cuantas":10662,"▁tirando":10663,"▁dieta":10664,"))":10665,"▁sna":10666,"▁fechas":10667,"REC":10668,"clusión":10669,"▁soñar":10670,"▁avisa":10671,"▁Gabriel":10672,"▁Come":10673,"lis":10674,"▁bueno.":10675,"▁Chávez":10676,"▁mames":10677,"▁start":10678,"▁final.":10679,"▁tio":10680,"▁estáis":10681,"▁Hel":10682,"▁ajus":10683,"▁PUEDO":10684,"▁noche.":10685,"/2020":10686,"▁modi":10687,"▁ganador":10688,"▁vos.":10689,"bitro":10690,"ICOS":10691,"▁municipal":10692,"▁Contra":10693,"CAN":10694,"▁fora":10695,"▁tern":10696,"▁resuel":10697,"▁Amazon":10698,"ionar":10699,"elici":10700,"▁renta":10701,"▁olvide":10702,"▁desapare":10703,"LOS":10704,"▁traje":10705,"▁curr":10706,"▁ambien":10707,"▁argumento":10708,"▁Cam":10709,"▁darse":10710,"▁Lin":10711,"▁Ph":10712,"▁convo":10713,"▁pea":10714,"▁season":10715,"▁cocinar":10716,"▁italia":10717,"ña,":10718,"▁conocí":10719,"arial":10720,"▁Encima":10721,"▁caída":10722,"▁REG":10723,"lite":10724,"▁salimos":10725,"▁crimen":10726,"uando":10727,"▁detec":10728,"▁privada":10729,"▁dormí":10730,"▁ox":10731,"▁tempor":10732,"▁marcar":10733,"▁Cuanto":10734,"▁argumentos":10735,"gica":10736,"▁iPhone":10737,"▁escor":10738,"ghts":10739,"▁JUL":10740,"▁limpiar":10741,"▁geno":10742,"▁documental":10743,"▁commun":10744,"▁Gri":10745,"▁done":10746,"▁ingles":10747,"▁pastel":10748,"▁wacho":10749,"▁150":10750,"▁p.":10751,"▁jarra":10752,"▁comis":10753,"ticipa":10754,"▁fb":10755,"▁Programa":10756,"▁jugue":10757,"yeron":10758,"▁parlante":10759,"▁bañar":10760,"▁rumbo":10761,"▁fico":10762,"▁cuchillo":10763,"-P":10764,"▁novo":10765,"▁pense":10766,"▁ofrecer":10767,"▁equipo.":10768,"▁mtvlaicono":10769,"▁Rosa":10770,"▁Glo":10771,"▁Lucas":10772,"BS":10773,"▁sorte":10774,"▁solos":10775,"▁caso,":10776,"▁Fui":10777,"▁true":10778,".\".":10779,"▁osea":10780,"▁chingo":10781,"▁UE":10782,"▁imaginan":10783,"▁incendio":10784,"▁Azul":10785,"▁(2":10786,"38":10787,"dedores":10788,"sss":10789,"▁drogas":10790,"▁Sue":10791,"▁MER":10792,"titas":10793,"▁aplicación":10794,"▁tomorrow":10795,"'a":10796,"▁OR":10797,"▁HORA":10798,"viar":10799,"▁embargo":10800,"▁🗣":10801,"▁quie":10802,"▁Tier":10803,"▁nació":10804,"▁cerra":10805,"▁concepto":10806,"▁aquí.":10807,"▁convierte":10808,"▁conjunto":10809,"▁Hey":10810,"▁yo:":10811,"ribunal":10812,"▁TL":10813,"▁bil":10814,"ties":10815,"▁eterna":10816,"▁American":10817,"▁seguido":10818,"▁dá":10819,"ils":10820,"▁joa":10821,"TV":10822,"▁mutual":10823,"Le":10824,"▁compañera":10825,"▁vdd":10826,"▁Venezol":10827,"▁gritar":10828,"cómo":10829,"▁solucion":10830,"yu":10831,"▁demás.":10832,"▁barbar":10833,"va,":10834,"rilla":10835,"chita":10836,"▁bun":10837,"asi":10838,"táculo":10839,"LES":10840,"▁cagada":10841,"▁robaron":10842,"▁Disney":10843,"áles":10844,"▁cierra":10845,"▁fica":10846,"▁kind":10847,"cieron":10848,"▁costo":10849,"▁talk":10850,"▁Banco":10851,"▁Mayo":10852,"▁subo":10853,"▁tempran":10854,"down":10855,"▁pelear":10856,"▁estuviera":10857,"▁compré":10858,"gida":10859,"▁republ":10860,"jón":10861,"itos,":10862,"JER":10863,"eracruz":10864,"iu":10865,"▁hid":10866,"▁Bl":10867,"▁Big":10868,"vias":10869,"▁ruido":10870,"▁meloco":10871,"▁Gustavo":10872,"▁dictador":10873,"▁Paraguay":10874,"▁comparte":10875,"▁demonio":10876,"▁horas,":10877,"▁EE.UU":10878,"▁el.":10879,"▁Every":10880,"▁CF":10881,"iones,":10882,"▁Fuerza":10883,"arago":10884,"ng":10885,"▁traicion":10886,"lores":10887,"▁tetas":10888,"▁Roberto":10889,"▁detalle":10890,"ficar":10891,"mann":10892,"▁plás":10893,"▁cifras":10894,"▁anuncio":10895,"77":10896,"▁cambiado":10897,"▁abogado":10898,"cha,":10899,"▁bff":10900,"▁policia":10901,"▁terminan":10902,"board":10903,"▁seamos":10904,"bé":10905,"▁MUCHO":10906,"▁Cri":10907,"▁preocupar":10908,"▁corazón,":10909,"▁date":10910,"fthe":10911,"▁\".":10912,"ción!":10913,"▁argentinos":10914,"소년":10915,"▁podrás":10916,"▁banca":10917,"dad.":10918,"▁metió":10919,"▁Algunos":10920,"4,":10921,"▁house":10922,"TAN":10923,"▁revolucion":10924,"▁agarra":10925,"ícula":10926,"▁reserva":10927,"▁principales":10928,"▁próximos":10929,"óno":10930,"▁suici":10931,"▁shor":10932,"▁contamos":10933,"▁transfor":10934,"▁Sr":10935,"▁Cat":10936,"▁sentirme":10937,"▁rei":10938,"▁concier":10939,"▁dientes":10940,"▁poes":10941,"▁contando":10942,"▁Noche":10943,"▁america":10944,"▁enserio":10945,"▁Puedo":10946,"▁velocidad":10947,"cena":10948,"▁suda":10949,"▁VERDAD":10950,"▁Sena":10951,"▁LG":10952,"▁Gor":10953,"▁thats":10954,"▁50%":10955,"▁seguirá":10956,"▁garant":10957,"ter.":10958,"▁iguales":10959,"▁cau":10960,"▁pelotas":10961,"▁HASTA":10962,"wo":10963,"▁dime":10964,";.":10965,"▁anterio":10966,"▁Dol":10967,"▁CARA":10968,"▁motivos":10969,"▁omg":10970,"▁físico":10971,"▁verás":10972,"REAM":10973,"▁ocho":10974,"▁coher":10975,"uevo":10976,"gencias":10977,"▁falar":10978,"je.":10979,"ALE":10980,"▁Enrique":10981,"▁Israel":10982,"▁neur":10983,"c,":10984,"bén":10985,"▁pinches":10986,"▁dormido":10987,"▁siete":10988,"▁ver.":10989,"▁ech":10990,"▁subiendo":10991,"▁hablen":10992,"▁pollito":10993,"▁independencia":10994,"arios,":10995,"▁profesores":10996,"▁HAHAHA":10997,"gaz":10998,"tagrama":10999,"▁Fra":11000,"ño.":11001,"dém":11002,"▁pistola":11003,"▁recibió":11004,"▁OL":11005,"f.":11006,"▁sinceramente":11007,"▁block":11008,"andez":11009,"▁alguien,":11010,"olas":11011,"▁-P":11012,"ug":11013,"▁QUIEN":11014,"▁ore":11015,"vó":11016,"▁tris":11017,"▁pagando":11018,"RUP":11019,"▁child":11020,"eren":11021,"▁estabas":11022,"▁mtvlafando":11023,"entas":11024,"▁situaciones":11025,"▁despa":11026,"▁terra":11027,"▁usuarios":11028,"tía":11029,"▁sectores":11030,"▁transforma":11031,"▁covid-19":11032,"▁indic":11033,"▁baila":11034,"uar":11035,"estru":11036,"▁Link":11037,"▁practic":11038,"▁nothing":11039,"▁thread":11040,"▁quemar":11041,"▁\"re":11042,"▁Cristiano":11043,"▁luchando":11044,"▁olvidado":11045,"▁More":11046,"▁data":11047,"Una":11048,"▁already":11049,"▁dormir,":11050,"▁casti":11051,"▁pentagrama":11052,"▁Sun":11053,"▁Públ":11054,"▁famoso":11055,"▁Ricardo":11056,"▁enamorado":11057,"▁melocotón":11058,"iten":11059,"▁ingreso":11060,"muer":11061,"소년단":11062,"▁Festival":11063,"▁Info":11064,"▁copi":11065,"▁desear":11066,"▁lava":11067,"mante":11068,"▁motor":11069,"▁Deci":11070,"▁Rusia":11071,"▁declaraciones":11072,"▁justificar":11073,"▁luis":11074,"▁hib":11075,"▁valent":11076,"▁vete":11077,"▁Ajaja":11078,"▁arqui":11079,"BLO":11080,"▁Wey":11081,"GI":11082,"ístico":11083,"▁metas":11084,"▁intervención":11085,"antes.":11086,"▁Presiden":11087,"▁oí":11088,"▁:c":11089,"▁acre":11090,"▁exá":11091,"zana":11092,"▁Micha":11093,"▁comes":11094,"▁cantante":11095,"▁Moreno":11096,"▁acomo":11097,"▁POS":11098,"▁Supre":11099,"▁Who":11100,"▁fuente":11101,"ífico":11102,"▁logo":11103,"mex":11104,"▁gracioso":11105,"▁artif":11106,"▁verme":11107,"▁Bea":11108,"▁necesitaba":11109,"▁empecé":11110,"▁:.":11111,"▁Abrazo":11112,"▁combina":11113,"▁porno":11114,"▁medicina":11115,"▁ser,":11116,"▁festejar":11117,"NI":11118,"▁recomien":11119,"▁maquilla":11120,"▁espejo":11121,"▁Franco":11122,"▁Andalucía":11123,"▁Plata":11124,"▁identidad":11125,"hã":11126,"▁SÍ":11127,"▁SEÑ":11128,"▁domicil":11129,"▁Valent":11130,"▁BR":11131,"▁xfa":11132,"▁Cin":11133,"▁traged":11134,"방탄소년단":11135,"▁función":11136,"fc":11137,"calley":11138,"▁city":11139,"▁daría":11140,"▁Sar":11141,"▁respues":11142,"ites":11143,"MAN":11144,"▁decide":11145,"▁ventana":11146,"▁ak":11147,"▁Inte":11148,"trui":11149,"▁texto":11150,"▁Trabajo":11151,"▁tq":11152,"▁cuello":11153,"▁SOR":11154,"▁Here":11155,"▁ratito":11156,"▁viajes":11157,"▁enferma":11158,"to...":11159,"▁Mmmm":11160,"BIER":11161,"▁pedi":11162,"TROS":11163,"▁-A":11164,"ència":11165,"xel":11166,"▁respeta":11167,"▁mariposa":11168,"▁harry":11169,"▁flu":11170,"ciando":11171,"▁Ayyy":11172,"▁alguém":11173,"▁wonder":11174,"▁convocatoria":11175,"▁1-":11176,"gera":11177,"ándote":11178,"▁OS":11179,"▁tot":11180,"▁revolo":11181,"antes,":11182,"▁jugó":11183,"nos,":11184,"▁perfectamente":11185,"porque":11186,"▁Live":11187,"ISTAS":11188,"▁plante":11189,"▁TOM":11190,"▁cosa.":11191,"▁raza":11192,"▁regu":11193,"▁HOM":11194,"▁mtvlaiconocalley":11195,"▁aquello":11196,"▁combatir":11197,"▁dels":11198,"▁se,":11199,"tuvo":11200,"▁hagamos":11201,"▁plazo":11202,"▁extraordin":11203,"taro":11204,"▁descubrir":11205,"▁mujer,":11206,"jas,":11207,"▁tava":11208,"▁Bolívar":11209,"bles,":11210,"▁duerme":11211,"▁TRABA":11212,"▁deus":11213,"▁enfermo":11214,"iones.":11215,"▁Necesitamos":11216,"▁comercio":11217,"/4":11218,"▁urge":11219,"▁demais":11220,"▁sacó":11221,"▁bonitas":11222,"▁u.":11223,"▁lado.":11224,"▁ende":11225,"▁York":11226,"iend":11227,"▁Hernández":11228,"▁poco,":11229,"▁Ki":11230,"▁SOM":11231,"▁digita":11232,"▁ATEN":11233,"queda":11234,"OSO":11235,"▁locu":11236,"▁Music":11237,"▁Cana":11238,"ining":11239,"▁Esp":11240,"▁imaginar":11241,"▁ponerle":11242,"▁pato":11243,"▁Lamentable":11244,"▁Anoche":11245,"▁desayuno":11246,"!,":11247,"9,":11248,"cámara":11249,"▁cubre":11250,"▁Rio":11251,"triz":11252,"▁Director":11253,"▁gloria":11254,"ship":11255,"▁contexto":11256,"▁Rol":11257,"▁cruel":11258,"▁Rt":11259,"pers":11260,"▁school":11261,"ática":11262,"▁hibisco":11263,"▁makes":11264,"oliber":11265,"paz":11266,"▁recibido":11267,"▁masac":11268,"ries":11269,"▁escuche":11270,"adas":11271,"▁Díaz":11272,"▁messi":11273,"OOK":11274,"alajara":11275,"▁sinver":11276,"vió":11277,"▁imaginas":11278,"▁genio":11279,"▁boa":11280,"▁publicación":11281,"▁Última":11282,"▁ciudadanía":11283,"▁Atención":11284,"pa.":11285,"▁patrio":11286,"▁Ayuntamiento":11287,"▁inmen":11288,"▁viral":11289,"osas":11290,"▁meten":11291,"▁barcelona":11292,"isima":11293,"▁golp":11294,"▁Ps":11295,"gros":11296,"▁soledad":11297,"▁desarrolla":11298,"▁revoloteando":11299,"▁circun":11300,"▁Vida":11301,"▁levanta":11302,"dom":11303,"▁perio":11304,"▁partido,":11305,"▁ي":11306,"▁llenar":11307,"▁origen":11308,"▁sínto":11309,"▁P.":11310,"grado":11311,"▁ESE":11312,"▁suyo":11313,"▁valiente":11314,"▁amo,":11315,"▁aprobar":11316,"▁ser.":11317,"▁pueblo,":11318,"cribe":11319,"▁censura":11320,"▁ofer":11321,"▁clín":11322,"jena":11323,"▁Libertad":11324,"▁bene":11325,"▁agradece":11326,"▁mexicana":11327,"▁ع":11328,"▁Aso":11329,"▁hierba":11330,"▁juntar":11331,"▁Orgu":11332,"▁pró":11333,"tan.":11334,"▁capaces":11335,"▁Bravo":11336,"▁Góme":11337,"▁VOT":11338,"éisbol":11339,"ism":11340,"▁¡En":11341,"▁putos":11342,"▁cargar":11343,"▁Simple":11344,"▁Cosas":11345,"▁sand":11346,"▁hues":11347,"▁FUE":11348,"▁aquella":11349,"▁Pron":11350,"▁fines":11351,"▁asesinos":11352,"7,":11353,"▁insopor":11354,"▁carlos":11355,"▁acuerdan":11356,"▁caiga":11357,"▁Bir":11358,"▁¡Que":11359,"▁faltó":11360,"▁devolver":11361,"▁\"The":11362,"▁bitch":11363,"▁Edi":11364,"IENTO":11365,"ÉS":11366,"▁TEM":11367,"▁gustaba":11368,"▁Tweet":11369,"▁secu":11370,"úcar":11371,"▁busco":11372,"▁@usuario)":11373,"▁docente":11374,"▁cy":11375,"▁Provin":11376,"vistas":11377,"publ":11378,"▁feminismo":11379,"mit":11380,"aan":11381,"uli":11382,"▁vais":11383,"▁miserable":11384,"▁Len":11385,"▁aeropuerto":11386,"▁VIVO":11387,"▁acce":11388,"▁salsa":11389,"▁deca":11390,"clu":11391,"▁decimos":11392,"▁estafa":11393,"▁empezando":11394,"wards":11395,"TIR":11396,"xx":11397,"ático":11398,"▁name":11399,"TAL":11400,"▁huele":11401,"hacia":11402,"▁Chu":11403,"▁supongo":11404,"oni":11405,"▁conmemo":11406,"▁mã":11407,"▁adecu":11408,"▁ESPA":11409,"▁Guatemala":11410,"...!!!":11411,"▁U.":11412,"chito":11413,"▁proud":11414,"▁Aprove":11415,"▁constitucional":11416,"▁hermosas":11417,"vales":11418,"▁orgulloso":11419,"▁crédito":11420,"▁M.":11421,"▁Em":11422,"▁semb":11423,"rich":11424,"▁fich":11425,"▁últimamente":11426,"icas.":11427,"▁pasamos":11428,"▁sigui":11429,"▁quedamos":11430,"▁grado":11431,"▁Cele":11432,"36":11433,"▁vigil":11434,"▁exterior":11435,"ÍAS":11436,"▁must":11437,"▁chinga":11438,"▁salvador":11439,"oor":11440,"▁repente":11441,"▁(B":11442,"▁Hacer":11443,"▁caballo":11444,"▁sencillo":11445,"▁asesinato":11446,"ologia":11447,"▁únicos":11448,"▁DD":11449,"▁gargan":11450,"▁gros":11451,"▁sienta":11452,"▁mediante":11453,"▁cosa,":11454,"damente":11455,"▁adoro":11456,"▁divertido":11457,"eña":11458,"ter,":11459,"▁rebel":11460,"▁DIF":11461,"tan,":11462,"▁place":11463,"▁Hen":11464,"▁Up":11465,"mmy":11466,"▁contemp":11467,"▁dead":11468,"▁Prefiero":11469,"▁confes":11470,"▁nosotros,":11471,"ivos":11472,"▁veas":11473,"▁Especial":11474,"▁subió":11475,"▁Norte":11476,"▁Much":11477,"▁MD":11478,"▁petro":11479,"▁soft":11480,"yente":11481,"▁(en":11482,"▁descansar":11483,"▁ena":11484,"rieron":11485,"▁pared":11486,"▁ignorante":11487,"tones":11488,"▁Organ":11489,"▁Tenía":11490,"▁rompió":11491,"▁meus":11492,"▁Oficial":11493,"▁FC":11494,"▁ASÍ":11495,"▁Uy":11496,"▁Octubre":11497,"▁adultos":11498,"to!":11499,"▁brasile":11500,"▁encontrado":11501,"▁discutir":11502,"▁videocámara":11503,"▁Poder":11504,"▁serio,":11505,"la_":11506,"▁enoja":11507,"▁Michael":11508,"▁no...":11509,"▁jugada":11510,"MM":11511,"▁otro.":11512,"▁podamos":11513,"▁soul":11514,"▁depresión":11515,"▁archi":11516,"ológ":11517,"▁Cambi":11518,"CEL":11519,"sey":11520,"hah":11521,"vé":11522,"▁Dios.":11523,"verde":11524,"▁Río":11525,"▁yall":11526,"▁pac":11527,"▁There":11528,"▁pay":11529,"▁desaparecer":11530,"ganme":11531,"▁involu":11532,"▁With":11533,"▁Caracas":11534,"▁calma":11535,"▁propiedad":11536,"ERTE":11537,"▁Hemos":11538,"▁delant":11539,"oya":11540,"uz":11541,"▁antic":11542,"...a":11543,"vana":11544,"úan":11545,"es..":11546,"▁mood":11547,"ve,":11548,"▁credi":11549,"▁vehículo":11550,"▁I've":11551,"tez":11552,"▁homo":11553,"▁Morena":11554,"▁food":11555,"istros":11556,"▁lágrimas":11557,"▁pandemia.":11558,"tade":11559,"▁comenzó":11560,"▁Té":11561,"▁1-0":11562,"▁razón.":11563,"ándolo":11564,"▁voces":11565,"▁beren":11566,"▁Muer":11567,"'ll":11568,"▁aburrido":11569,"▁gracias!":11570,"-B":11571,"▁uns":11572,"eld":11573,"pe,":11574,"▁Orte":11575,"▁votaron":11576,"▁ESA":11577,"hal":11578,"lectual":11579,"▁domingos":11580,"▁agente":11581,"▁Pinche":11582,"▁abandona":11583,"P,":11584,"▁amazing":11585,"▁demanda":11586,"▁soltar":11587,"▁obviamente":11588,"▁tortu":11589,"joon":11590,"tula":11591,"to..":11592,"?\".":11593,"▁ganamos":11594,"▁socorro":11595,"▁socios":11596,"▁Catalunya":11597,"pica":11598,"▁nuevo,":11599,"▁feminista":11600,"▁pero,":11601,"▁mínima":11602,"▁sacaron":11603,"▁\"Se":11604,"▁Kkkk":11605,"▁paquete":11606,"▁Tus":11607,"▁complicado":11608,"▁looks":11609,"▁Maes":11610,"▁reino":11611,"▁making":11612,"▁Tel":11613,"ALA":11614,"▁mix":11615,"▁mulher":11616,"▁morena":11617,"JAJAJAJ":11618,"▁suben":11619,"elcome":11620,"▁CUMP":11621,"▁ÚLTI":11622,"▁propagan":11623,"▁Bre":11624,"▁consecu":11625,"▁perspec":11626,"▁récord":11627,"▁otor":11628,"▁Año":11629,"▁industri":11630,"▁jin":11631,"▁Amar":11632,"▁bancar":11633,"iación":11634,"▁locales":11635,"to:":11636,"▁Inten":11637,"g,":11638,"▁agricul":11639,"▁aplau":11640,"▁Laura":11641,"brado":11642,"▁tuy":11643,"▁Argent":11644,"▁metido":11645,"▁positivos":11646,"diste":11647,"▁pasará":11648,"ladas":11649,"▁Guerra":11650,"▁Agui":11651,"▁semejante":11652,"▁bebés":11653,"▁triple":11654,"tencias":11655,"▁cuban":11656,"▁Profes":11657,"95":11658,"▁vuelo":11659,"▁social.":11660,"▁AGU":11661,"▁biblio":11662,"idi":11663,"▁Arran":11664,"37":11665,"▁cuarentena.":11666,"▁subs":11667,"▁DECI":11668,"▁mui":11669,"▁wr":11670,"▁bien?":11671,"▁poco.":11672,"▁mandó":11673,"▁entrenamiento":11674,"▁nada...":11675,"▁dejé":11676,"▁descargar":11677,"▁►":11678,"▁preparando":11679,"▁contagio":11680,"▁Empres":11681,"▁plu":11682,"▁mtvlaiconocalleypoche":11683,"▁invitar":11684,"▁Hombre":11685,"▁pls":11686,"▁Hac":11687,"mín":11688,"▁Nat":11689,"▁[hashtag":11690,"▁compla":11691,"▁visión":11692,"▁sentirse":11693,"▁disfrutando":11694,"▁puebla":11695,"tand":11696,"▁Comen":11697,"venidos":11698,"▁America":11699,"ábamos":11700,"EA":11701,"▁MAÑ":11702,"▁Historia":11703,"▁hala":11704,"▁sonido":11705,"▁Realmente":11706,"dería":11707,"▁ann":11708,"▁dialo":11709,"▁armar":11710,"▁ideología":11711,"mao":11712,"gración":11713,"▁fué":11714,"▁ARG":11715,"▁google":11716,"▁Aires":11717,"▁rostro":11718,"▁andas":11719,"▁PAT":11720,"▁Mendo":11721,"▁\"Yo":11722,"▁envia":11723,"▁oscar":11724,"▁-C":11725,"▁pala":11726,"ion.":11727,"ADAS":11728,"▁faci":11729,"▁pit":11730,"▁bis":11731,"▁delitos":11732,"▁cicl":11733,"▁Durante":11734,"▁Interes":11735,"▁money":11736,"_hacia":11737,"▁alla":11738,"iri":11739,"▁Amén":11740,"ras.":11741,"▁chur":11742,"CEN":11743,"▁pab":11744,"▁cana":11745,"▁aparecer":11746,"▁república":11747,"▁referencia":11748,"▁Air":11749,"▁cagando":11750,"▁dri":11751,"▁SEN":11752,"▁cuenta,":11753,"ções":11754,"▁merecemos":11755,"▁mafia":11756,"máticas":11757,"▁afirma":11758,"▁pierdo":11759,"▁ESPER":11760,"rantes":11761,"▁decirme":11762,"VES":11763,"▁Vay":11764,"▁Mmm":11765,"▁siste":11766,"▁Vox":11767,"▁secon":11768,"▁Respon":11769,"-)":11770,"gest":11771,"▁ER":11772,"▁\"o":11773,"fs":11774,"ondo":11775,"▁listos":11776,"▁tendré":11777,"▁guarda":11778,"▁virtu":11779,"▁mí.":11780,"▁atle":11781,"▁públicas":11782,"▁salud.":11783,"▁quiero,":11784,"▁sv":11785,"▁niñ":11786,"▁estudiante":11787,"ingü":11788,"▁sepan":11789,"▁を":11790,"▁tomado":11791,"▁Rico":11792,"▁Canal":11793,"polit":11794,"▁actually":11795,"▁VEZ":11796,"▁principios":11797,"▁Ran":11798,"▁trying":11799,"▁nova":11800,"▁Bue":11801,"▁lobo":11802,"▁Jose":11803,"▁kilos":11804,"ti,":11805,"AMA":11806,"gracias":11807,"▁quejan":11808,"▁BL":11809,"▁nuevo.":11810,"▁digno":11811,"ote":11812,"▁requiere":11813,"▁Kim":11814,"ely":11815,"talo":11816,"▁volviendo":11817,"▁Sel":11818,"▁obtener":11819,"▁Tec":11820,"▁aprendí":11821,"▁apertura":11822,"▁cortes":11823,"tivar":11824,"▁Jueves":11825,"▁cacer":11826,"▁GEN":11827,"▁equipo,":11828,"marca":11829,"raron":11830,"ímp":11831,"cciones":11832,"▁precioso":11833,"▁reaccion":11834,"▁demon":11835,"▁tarde.":11836,"▁hecho,":11837,"foro":11838,"iao":11839,"▁audios":11840,"▁olviden":11841,"emb":11842,"▁sucede":11843,"▁Neymar":11844,"▁SUPER":11845,"▁enferme":11846,"▁white":11847,"▁plo":11848,"▁junta":11849,"▁feeling":11850,"vinen":11851,"hotos":11852,"▁piensas":11853,"▁caigo":11854,"▁porfavor":11855,"▁categoría":11856,"▁(T":11857,"s:":11858,"eis":11859,"PL":11860,"▁cagan":11861,"▁soluciones":11862,"cking":11863,"▁Funda":11864,"xe":11865,"▁CONF":11866,"▁Youtube":11867,"▁comunicado":11868,"▁thanks":11869,"▁Dónde":11870,"▁gilipollas":11871,"▁cansan":11872,"▁protestas":11873,"▁territorio":11874,"as...":11875,"▁---":11876,"▁Desarro":11877,"▁smi":11878,"▁Vin":11879,"▁mens":11880,"▁Sp":11881,"▁gota":11882,"▁nice":11883,"iende":11884,"axaca":11885,"▁grito":11886,"▁pierden":11887,"comun":11888,"▁deportivo":11889,"▁が":11890,"usos":11891,"▁pot":11892,"iori":11893,"mela":11894,"▁1er":11895,"▁brazo":11896,"▁pasado,":11897,"▁paté":11898,"▁Lluvia":11899,"cro":11900,"▁títulos":11901,"▁hoy?":11902,"▁hea":11903,"▁Escuela":11904,"▁retiro":11905,"▁puesta":11906,"▁prevenir":11907,"▁hrs":11908,"▁equipara":11909,"▁Get":11910,"▁Don't":11911,"▁promedio":11912,"▁¿Cuán":11913,"▁especialmente":11914,"▁legen":11915,"▁realidad.":11916,"abe":11917,"▁mascul":11918,"▁produce":11919,"▁indis":11920,"▁días!":11921,"▁pris":11922,"▁barba":11923,"▁HAHAHAHAHA":11924,"▁libertadores":11925,"▁y/o":11926,"izó":11927,"▁compu":11928,"▁아":11929,"▁batal":11930,"terrey":11931,"▁dudo":11932,"bir":11933,"garon":11934,"man,":11935,"▁entorno":11936,"▁sentía":11937,"gadas":11938,"orable":11939,"▁Rosario":11940,"quillo":11941,"▁Quizás":11942,"▁llevando":11943,"▁crista":11944,"▁amo.":11945,"TO.":11946,"dellín":11947,"▁reales":11948,"cidas":11949,"▁perdida":11950,"▁TODAS":11951,"▁otro,":11952,"▁Toy":11953,"▁empana":11954,"▁reducir":11955,"49":11956,"▁incons":11957,"▁circu":11958,"▁fila":11959,"uc":11960,"peda":11961,"▁creí":11962,"▁salio":11963,"▁porra":11964,"quil":11965,"▁dificil":11966,"▁Junior":11967,"▁asunto":11968,"▁recuperación":11969,"bis":11970,"▁\\":11971,"▁piña":11972,"▁¡O":11973,"▁amores":11974,"▁urban":11975,"▁pereza":11976,"vos.":11977,"▁scre":11978,"te!":11979,"▁clo":11980,"▁Puebla":11981,"rd":11982,"▁tortura":11983,"▁federal":11984,"▁bocadillo":11985,"▁WO":11986,"▁jugado":11987,"▁expertos":11988,"▁expecta":11989,"▁Off":11990,"uty":11991,"▁diplo":11992,"▁hig":11993,"▁contigo.":11994,"▁trabajador":11995,"▁dep":11996,"▁bran":11997,"bada":11998,"▁comunistas":11999,"▁unica":12000,"▁dueños":12001,"va.":12002,"▁cabeza.":12003,"jame":12004,"win":12005,"▁destina":12006,"▁&gt;&gt;":12007,"▁inaugura":12008,"▁hair":12009,"▁béisbol":12010,"xy":12011,"▁Comien":12012,"▁crean":12013,"▁artist":12014,"▁Recién":12015,"▁plato":12016,"▁thin":12017,"▁comunicar":12018,"▁asistencia":12019,"▁teoría":12020,"▁amamos":12021,"▁Viento":12022,"▁estábamos":12023,"▁ask":12024,"▁Impres":12025,"▁looking":12026,"▁horarios":12027,"▁meet":12028,"▁streaming":12029,"▁Pq":12030,"JAJAJAJAJA":12031,"▁opinar":12032,"▁estou":12033,"▁manzana":12034,"▁United":12035,"▁así?":12036,"▁Dif":12037,"FO":12038,"▁JAJAJAJAJAJ":12039,"▁Medio":12040,"▁toler":12041,"▁Alba":12042,"izados":12043,"éndome":12044,"▁reacción":12045,"wl":12046,"▁unders":12047,"▁cuarentena,":12048,"▁37":12049,"▁revi":12050,"▁mimos":12051,"▁Atlético":12052,"▁más...":12053,"-5":12054,"2016":12055,"▁Congres":12056,"▁Calle":12057,"▁Pasa":12058,"éramos":12059,"▁distintos":12060,"▁day.":12061,"▁impresionante":12062,"▁wri":12063,"jon":12064,"▁interrogación":12065,"▁sound":12066,"▁conviene":12067,"n.":12068,"▁deseos":12069,"▁Patri":12070,"▁CONS":12071,"▁tengamos":12072,"▁vibra":12073,"▁cansado":12074,"arios.":12075,"entan":12076,"▁rara":12077,"▁Lab":12078,"▁logró":12079,"▁caos":12080,"▁pelos":12081,"ibo":12082,"▁Nuevos":12083,"▁adorno":12084,"▁terminado":12085,"▁peligros":12086,"▁sacado":12087,"▁quedando":12088,"▁core":12089,"▁young":12090,"▁Además,":12091,"▁pena.":12092,"ibil":12093,"▁cancer":12094,"6,":12095,"▁Bolsonaro":12096,"▁Papa":12097,"graphy":12098,"ctr":12099,"▁roban":12100,"▁Aman":12101,"▁administración":12102,"▁circuns":12103,"live":12104,"▁Apple":12105,"▁fijo":12106,"▁social,":12107,"nite":12108,"▁resistencia":12109,"?!?!":12110,"liga":12111,"fen":12112,"▁paz.":12113,"gos.":12114,"▁IMPOR":12115,"tron":12116,"▁Miami":12117,"tela":12118,"tadora":12119,"▁flechas":12120,"▁try":12121,"▁Bill":12122,"bimos":12123,"▁de...":12124,"▁Med":12125,"▁65":12126,"▁Iba":12127,"▁).":12128,"▁sanitaria":12129,"▁ramo":12130,"▁pretty":12131,"man.":12132,"▁sincer":12133,"▁impar":12134,"▁Adri":12135,"▁Monte":12136,"▁que...":12137,"▁pale":12138,"▁altos":12139,"▁J.":12140,"III":12141,"ule":12142,"▁espíritu":12143,"▁discusión":12144,"▁necesidades":12145,"▁god":12146,"▁derrota":12147,"▁amigo.":12148,"▁gustas":12149,"▁pudieron":12150,"▁colon":12151,"▁cé":12152,"▁Conf":12153,"▁circo":12154,"▁rápida":12155,"▁supermer":12156,"▁es?":12157,"▁800":12158,"▁demás,":12159,"▁colocar":12160,"bón":12161,"▁gallina":12162,"▁sanidad":12163,"▁Digital":12164,"▁harán":12165,"▁during":12166,"▁internacionales":12167,"▁vezes":12168,"▁ocurrió":12169,"▁coma":12170,"telo":12171,"▁cancion":12172,"▁afición":12173,"lico":12174,"▁uno,":12175,"▁Watch":12176,"▁mano,":12177,"▁añ":12178,"▁class":12179,"▁ecua":12180,"kas":12181,"▁pintarse":12182,"▁plas":12183,"▁habló":12184,"▁reda":12185,"▁Game":12186,"▁aux":12187,"▁pese":12188,"▁ps4":12189,"▁operación":12190,"▁President":12191,"▁llegará":12192,"▁revisar":12193,"▁\"se":12194,"IENDO":12195,"▁thou":12196,"▁parecía":12197,"▁ف":12198,"▁muñ":12199,"riz":12200,"▁DIA":12201,"▁depois":12202,"▁agua,":12203,"▁anything":12204,"jaj":12205,"▁grabar":12206,"▁gü":12207,"▁sentencia":12208,"▁🎙":12209,"▁personalidad":12210,"▁berenjena":12211,"▁querían":12212,"chos,":12213,"▁pack":12214,"▁cabeza,":12215,"▁tok":12216,"▁fos":12217,"cha.":12218,"ves.":12219,"ます":12220,"▁Habrá":12221,"▁campeonato":12222,"t:":12223,"▁cobran":12224,"▁irá":12225,"▁miente":12226,"CRE":12227,"s?":12228,"mbres":12229,"▁burla":12230,"▁ministra":12231,"って":12232,"ap":12233,"▁tomas":12234,"▁197":12235,"▁chabon":12236,"▁Sele":12237,"▁trán":12238,"▁Termin":12239,"▁carác":12240,"▁cria":12241,"▁recomendaciones":12242,"▁refuer":12243,"_de_mano":12244,"▁fire":12245,"ta...":12246,"deros":12247,"olla":12248,"ornadas":12249,"ENTES":12250,"mail":12251,"tou":12252,"▁#방탄소년단":12253,"▁pendientes":12254,"▁は":12255,"▁registro":12256,"▁deu":12257,"undo":12258,"pue":12259,"iada":12260,"▁independent":12261,"▁E.":12262,"jeras":12263,"▁especiales":12264,"vos,":12265,"jsjaja":12266,"▁2018.":12267,"▁Premi":12268,"▁Mich":12269,"▁piola":12270,"▁departamento":12271,"▁experiencias":12272,"▁Best":12273,"▁mas,":12274,"▁hayas":12275,"▁apete":12276,"IDOS":12277,"▁CASA":12278,"▁01":12279,"▁Clar":12280,"▁cambian":12281,"▁claro.":12282,"▁agradezco":12283,"ves,":12284,"tion,":12285,"▁Comi":12286,"▁propor":12287,"▁iniciar":12288,"▁efectos":12289,"selo":12290,"▁captura":12291,"▁Suerte":12292,"▁Mic":12293,"▁though":12294,"vencia":12295,"▁acorde":12296,"▁grup":12297,"▁\"Lo":12298,"vieron":12299,"ED":12300,"ta..":12301,"▁whole":12302,"▁persi":12303,"VIS":12304,"▁académ":12305,"▁tikto":12306,"▁coco":12307,"▁س":12308,"▁Eduardo":12309,"▁08":12310,"▁bandera_":12311,"▁denuncias":12312,"tila":12313,"ros.":12314,"▁Gana":12315,"▁organizar":12316,"N.":12317,"▁intera":12318,"▁11.":12319,"▁empezamos":12320,"▁frecu":12321,"▁Biden":12322,"▁actualidad":12323,"▁Normal":12324,"▁switch":12325,"▁tú.":12326,"▁DOM":12327,"hit":12328,"▁naz":12329,"uricio":12330,"▁ray":12331,"▁Jungkook":12332,"▁haciéndo":12333,"ating":12334,"▁Venga":12335,"▁namo":12336,"▁venía":12337,"▁comisión":12338,"es...":12339,"▁nene":12340,"▁Show":12341,"▁Gala":12342,"eah":12343,"▁diciéndo":12344,"cepción":12345,"▁Fre":12346,"▁gráfico":12347,"▁comunidades":12348,"▁compartimos":12349,"▁EP":12350,"▁autén":12351,"▁Pod":12352,"gas.":12353,"ANOS":12354,"▁quizá":12355,"▁2013":12356,"▁amig":12357,"casa":12358,"▁10%":12359,"▁Debería":12360,"▁vendo":12361,"▁0,":12362,"▁rollo":12363,"▁✔":12364,"▁tuvimos":12365,"▁relevan":12366,"▁likes":12367,"▁fernet":12368,"▁lxs":12369,"▁maestra":12370,"doro":12371,"▁Piñera":12372,"hon":12373,"▁Miren":12374,"▁día!":12375,"▁eva":12376,"cuando":12377,"▁fallecidos":12378,"▁Cir":12379,"▁porquer":12380,"▁nace":12381,"tal,":12382,"mes,":12383,"kemon":12384,"▁venido":12385,"▁inmi":12386,"▁temperatura":12387,"▁débil":12388,"▁suya":12389,"▁FR":12390,"▁avanzar":12391,"▁until":12392,"▁enamora":12393,"titud":12394,"▁histor":12395,"▁carretera":12396,"▁mapa":12397,"▁adiós":12398,"▁thought":12399,"▁decirlo":12400,"▁llegamos":12401,"▁uno.":12402,"▁GOT":12403,"pe.":12404,"▁avec":12405,"▁preparar":12406,"▁miran":12407,"▁moch":12408,"▁mareada":12409,"▁profunda":12410,"▁consigue":12411,"▁autos":12412,"ísimos":12413,"dl":12414,"▁coisas":12415,"▁yang":12416,"▁Diputa":12417,"▁cara,":12418,"▁dad":12419,"▁sano":12420,"▁calle,":12421,"tl":12422,"▁vuelvan":12423,"▁movilidad":12424,"▁\"Las":12425,"▁discip":12426,"▁guy":12427,"▁having":12428,"▁VAN":12429,"▁disculpas":12430,"▁eas":12431,"army":12432,"▁panamá":12433,"▁deberías":12434,"▁vox":12435,"▁escolar":12436,"▁hermosos":12437,"▁News":12438,"▁román":12439,"▁demostrado":12440,"▁boda":12441,"▁caball":12442,"uniden":12443,"▁distintas":12444,"BOL":12445,"K.":12446,"▁ladrones":12447,"▁estúpida":12448,"▁meto":12449,"_la_":12450,"▁enough":12451,"sado":12452,"▁Cristo":12453,"▁verlos":12454,"▁tapar":12455,"▁dismin":12456,"▁Donald":12457,"mbar":12458,"ats":12459,"▁Sara":12460,"▁#세":12461,"▁realizó":12462,"mandante":12463,"enó":12464,"▁MAY":12465,"▁nacer":12466,"▁that's":12467,"▁compañer":12468,"▁pague":12469,"▁sleep":12470,"▁altas":12471,"▁Fri":12472,"▁frí":12473,"▁tanto.":12474,"▁actuación":12475,"▁ciertas":12476,"▁VUEL":12477,"CAL":12478,"▁Latina":12479,"▁nunca,":12480,"▁hj":12481,"▁!!.":12482,"▁condena":12483,"▁Estadio":12484,"▁1)":12485,"▁maestros":12486,"▁probablemente":12487,"▁assis":12488,"▁organizado":12489,"▁nct":12490,"▁asado":12491,"▁pista":12492,"▁creación":12493,"▁empo":12494,"▁primavera":12495,"▁carnaval":12496,"▁diaria":12497,"▁ingresos":12498,"▁bye":12499,"Ma":12500,"▁Suárez":12501,"▁llegué":12502,"▁leal":12503,"▁Puta":12504,"▁0.0":12505,"▁light":12506,"▁inspi":12507,"▁detener":12508,"▁Ji":12509,"▁4,":12510,"▁homi":12511,"índice":12512,"▁Dr":12513,"▁mire":12514,"ona,":12515,"▁algu":12516,"▁rusia":12517,"▁Jajaj":12518,"▁rique":12519,"▁Jal":12520,"▁Humedad":12521,"▁Raúl":12522,"▁opiniones":12523,"▁francia":12524,"▁-&gt;":12525,"▁Unos":12526,"▁audi":12527,"▁dl":12528,"▁psicol":12529,"genas":12530,"onde":12531,"IDO":12532,"▁ustedes,":12533,"▁(de":12534,"▁Bun":12535,"▁polém":12536,"▁GUS":12537,"▁stand":12538,"▁\"que":12539,"'est":12540,"▁report":12541,"Qui":12542,"mill":12543,"▁camisa":12544,"▁By":12545,"▁600":12546,"▁Viz":12547,"▁convertido":12548,"▁saquen":12549,"▁gustos":12550,"▁piba":12551,"39":12552,"dur":12553,"▁NY":12554,"gias":12555,"▁\"con":12556,"▁PRESID":12557,"▁tonta":12558,"▁recomp":12559,"▁Parla":12560,"▁bienvenida":12561,"▁libera":12562,"▁\"To":12563,"phone":12564,"▁myself":12565,"▁casualidad":12566,"HY":12567,"▁nacionales":12568,"▁Tin":12569,"▁antes,":12570,"▁defienden":12571,"▁frontera":12572,"▁sono":12573,"icula":12574,"▁socialismo":12575,"▁Abril":12576,"carra":12577,"▁nacional.":12578,"tta":12579,"▁observa":12580,"▁clan":12581,"▁pacto":12582,"▁Prote":12583,"▁Isab":12584,"▁ternura":12585,"▁mig":12586,"▁Ori":12587,"▁normalidad":12588,"pid":12589,"▁¿N":12590,"▁aix":12591,"▁Mul":12592,"▁ponemos":12593,"▁ñ":12594,"ently":12595,"timas":12596,"▁hr":12597,"▁macho":12598,"lina":12599,"▁presidencia":12600,"▁Nuestros":12601,"▁pasé":12602,"▁todos!":12603,"TIS":12604,"▁crema":12605,"BAR":12606,"▁reba":12607,"▁AMI":12608,"ña.":12609,"▁neoliber":12610,"▁PUEBLO":12611,"▁favorite":12612,"▁juzgar":12613,"▁institucional":12614,"▁exci":12615,"▁verguenza":12616,"▁cali":12617,"▁caes":12618,"hen":12619,"chos.":12620,"▁Alcalde":12621,"▁bajón":12622,"▁manija":12623,"▁dorso_de_mano":12624,"_con_índice":12625,"▁dorso_de_mano_con_índice":12626,"▁aumentar":12627,"▁estación":12628,"▁max":12629,"▁limpia":12630,"▁POD":12631,"▁Padre":12632,"▁institución":12633,"▁chaval":12634,"▁aislamiento":12635,"▁i'm":12636,"▁reyes":12637,"bren":12638,"▁elab":12639,"▁corri":12640,"▁Cari":12641,"▁barra":12642,"▁icon":12643,"▁policial":12644,"▁ambul":12645,"▁escribo":12646,"▁lanzamiento":12647,"▁acar":12648,"▁sangu":12649,"▁otros.":12650,"▁muuu":12651,"▁HAR":12652,"▁flow":12653,"▁country":12654,"plan":12655,"▁travel":12656,"▁cientos":12657,"▁niveles":12658,"▁Lindo":12659,"▁Gi":12660,"arle":12661,"▁Unión":12662,"▁politi":12663,"▁sensible":12664,"▁novios":12665,"▁gata":12666,"▁mas.":12667,"▁acuerdo,":12668,"▁creyendo":12669,"▁mone":12670,"▁colombianos":12671,"gela":12672,"clo":12673,"▁licencia":12674,"tivos,":12675,"▁vivido":12676,"▁maravillosa":12677,"▁Llega":12678,"▁palos":12679,"▁Í":12680,"▁regalos":12681,"▁delincuente":12682,"▁deportes":12683,"▁peor,":12684,"▁diré":12685,"▁water":12686,"empla":12687,"▁¡Mu":12688,"▁Temperatura":12689,"iendas":12690,"diz":12691,"▁precisamente":12692,"▁Pueden":12693,"ez,":12694,"reta":12695,"▁estudia":12696,"▁Mayor":12697,"▁sonreír":12698,"cencia":12699,"▁2)":12700,"▁flaco":12701,"vimos":12702,"▁mentiroso":12703,"▁dormir.":12704,"▁says":12705,"▁arm":12706,"▁Pl":12707,"▁Dal":12708,"ecas":12709,"▁Agrade":12710,"▁cargos":12711,"▁tag":12712,"▁both":12713,"oney":12714,"▁descuento":12715,"▁dans":12716,"▁하":12717,"▁continúa":12718,"▁gusta,":12719,"▁stal":12720,"▁raya":12721,"▁Auto":12722,"▁gris":12723,"▁¡Ya":12724,"▁dile":12725,"▁FAR":12726,"▁comenta":12727,"▁99":12728,"onomía":12729,"abra":12730,"trito":12731,"tena":12732,"▁terapia":12733,"▁okay":12734,"▁gel":12735,"▁unfollowers":12736,"▁intenta":12737,"▁King":12738,"tivos.":12739,"ware":12740,"▁CORRUP":12741,"▁Presenta":12742,"▁Cra":12743,"▁llamas":12744,"▁tinha":12745,"▁ataques":12746,"utri":12747,"▁such":12748,"▁peor.":12749,"▁camara":12750,"▁triunf":12751,"ão.":12752,"eth":12753,"▁chupar":12754,"▁save":12755,"▁sindica":12756,"▁table":12757,"TM":12758,"▁Vivo":12759,"/12":12760,"▁realizado":12761,"▁ça":12762,"iosos":12763,"grada":12764,"IGH":12765,"▁meses,":12766,"▁amistades":12767,"ILLA":12768,"▁HIST":12769,"▁propone":12770,"▁Trabaja":12771,"▁vimos":12772,"▁left":12773,"▁Oro":12774,"▁lógica":12775,"▁llevado":12776,"▁Clara":12777,"vangel":12778,"GRA":12779,"▁mori":12780,"▁12.":12781,"▁misión":12782,"▁nba":12783,"▁Ind":12784,"▁vem":12785,"nya":12786,"milla":12787,"▁OB":12788,"▁defec":12789,"itarias":12790,"més":12791,"▁word":12792,"▁▶":12793,"loy":12794,"rez,":12795,"▁comprarme":12796,"▁Alta":12797,"▁labora":12798,"▁ratas":12799,"▁diste":12800,"puestos":12801,"▁secundar":12802,"▁aven":12803,"▁39":12804,"mericana":12805,"▁DIREC":12806,"▁cross":12807,"maras":12808,"▁Period":12809,"▁eles":12810,"-6":12811,"▁escuchas":12812,"▁ayude":12813,"▁discapacidad":12814,"▁acompañar":12815,"▁Sale":12816,"▁coraje":12817,"▁conmigo,":12818,"▁embargo,":12819,"▁división":12820,"hoy":12821,"▁Si.":12822,"riba":12823,"nar":12824,"▁cour":12825,"▁fritas":12826,"▁book":12827,"▁Cultura":12828,"imal":12829,"▁¿Alguien":12830,"▁olvidó":12831,"▁sm":12832,"▁FL":12833,"uñas":12834,"ize":12835,"▁emociones":12836,"▁colombiano":12837,"▁enfermedades":12838,"▁femenino":12839,"▁Junta":12840,"▁Yo,":12841,"▁poder.":12842,"dicación":12843,"▁vivienda":12844,"▁norma":12845,"▁\"te":12846,"▁fotograf":12847,"blan":12848,"▁estão":12849,"▁yoongi":12850,"▁Segunda":12851,"▁escuché":12852,"▁bolsillo":12853,"▁más!":12854,"ánico":12855,"43":12856,"his":12857,"▁pensamientos":12858,"chin":12859,"▁azúcar":12860,"▁Bang":12861,"▁Argentina.":12862,"8,":12863,"▁wil":12864,"▁intensa":12865,"▁paz,":12866,"▁Comple":12867,"▁cordo":12868,"▁Mora":12869,"mpe":12870,"ge.":12871,"▁hueco":12872,"▁ERES":12873,"▁refiero":12874,"▁pedí":12875,"▁ENTRE":12876,"cimientos":12877,"bly":12878,"vido":12879,"▁pedimos":12880,"▁avanza":12881,"▁reser":12882,"▁usur":12883,"▁também":12884,"▁tamaño":12885,"▁Premio":12886,"▁Alto":12887,"kw":12888,"meno":12889,"▁inmun":12890,"▁(con":12891,"ieran":12892,"hibi":12893,"▁Popular":12894,"▁incu":12895,"▁medias":12896,"▁joaquin":12897,"▁dinero,":12898,"▁movie":12899,"▁medicamentos":12900,"'S":12901,"▁acoso":12902,"▁adqui":12903,"▁perdieron":12904,"▁ejemplo,":12905,"▁ida":12906,"▁rompiendo":12907,"▁DU":12908,"▁inex":12909,"▁exclusiva":12910,"▁URGENTE":12911,"▁MAÑANA":12912,"▁Cine":12913,"▁PN":12914,"...pero":12915,"kar":12916,"íso":12917,"▁incapa":12918,"▁RT.":12919,"▁Español":12920,"▁Guardia":12921,"AMENTE":12922,"gió":12923,"cipe":12924,"▁Palacio":12925,"sung":12926,"▁acuerdo.":12927,"▁recicla":12928,"▁Stor":12929,"▁consumi":12930,"denas":12931,"...?":12932,"▁jamas":12933,"bierto":12934,"▁dog":12935,"▁MILL":12936,"dula":12937,"jiji":12938,"▁tribu":12939,"SJ":12940,"▁rutina":12941,"TOR":12942,"▁anillo":12943,"▁brindar":12944,"▁explos":12945,"▁vs.":12946,"menos":12947,"▁Proyec":12948,"▁destin":12949,"▁pandemia,":12950,"▁ill":12951,"▁ball":12952,"▁jurí":12953,"▁enseña":12954,"▁molt":12955,"▁rega":12956,"▁exige":12957,"gy":12958,"▁Jon":12959,"▁serás":12960,"ta!":12961,"▁wrong":12962,"▁Art":12963,"▁Joaquín":12964,"▁restric":12965,"▁govern":12966,"▁chill":12967,"chera":12968,"▁Estudi":12969,"▁arranca":12970,"▁asocia":12971,"▁sufrimiento":12972,"▁huelga":12973,"▁gobernar":12974,"▁\"si":12975,"▁portero":12976,"▁Neta":12977,"bt":12978,"GEN":12979,"▁taehyung":12980,"▁Android":12981,"▁parlament":12982,"▁sales":12983,"▁exposición":12984,"▁Podría":12985,"▁tormenta":12986,"▁continua":12987,"▁saldrá":12988,"▁Bomb":12989,"hop":12990,"▁girls":12991,"vina":12992,"▁detenido":12993,"▁humilde":12994,"▁campeones":12995,"▁ejército":12996,"▁tradu":12997,"▁Gracias!":12998,"▁mujeres,":12999,"▁pérdida":13000,"▁loco,":13001,"doni":13002,"guna":13003,"▁amis":13004,"▁2020,":13005,"▁claqueta":13006,"▁junior":13007,"dré":13008,"tizar":13009,"into":13010,"▁monstru":13011,"▁docentes":13012,"INE":13013,"olución":13014,"▁Virgen":13015,"▁parejas":13016,"した":13017,"▁regional":13018,"▁gras":13019,"▁vacío":13020,"▁inclui":13021,"minis":13022,"▁ayer,":13023,"▁anunció":13024,"▁43":13025,"▁CÓ":13026,"▁solar":13027,"▁Hermoso":13028,"▁intelectual":13029,"▁miser":13030,"tana":13031,"▁enfermos":13032,"▁SEM":13033,"▁explico":13034,"▁invitación":13035,"▁negocia":13036,"▁darles":13037,"R.":13038,"▁me,":13039,"▁prácticas":13040,"▁lesbi":13041,"jes,":13042,"▁whats":13043,"▁Olimp":13044,"▁analizar":13045,"▁código":13046,"uit":13047,"▁DDHH":13048,"▁ahorrar":13049,"▁inmo":13050,"tica,":13051,"▁cuántos":13052,"cker":13053,"▁estúpido":13054,"▁Investi":13055,"▁cobarde":13056,"▁Hermosa":13057,"▁justifica":13058,"▁cuarta":13059,"▁terroristas":13060,"KAKA":13061,"▁(O":13062,"▁tonter":13063,"▁cuadro":13064,"▁version":13065,"▁factura":13066,"▁:(((":13067,"enio":13068,"▁Frente":13069,"▁Vice":13070,"zos,":13071,"▁wea":13072,"▁chang":13073,"ICIAL":13074,"▁reen":13075,"▁peña":13076,"giendo":13077,"▁Vá":13078,"▁especie":13079,"▁conexión":13080,"▁desarrollar":13081,"▁jugamos":13082,"▁debió":13083,"▁Win":13084,"▁tacos":13085,"▁seré":13086,"▁trajo":13087,"uena":13088,"▁lac":13089,"ès":13090,"▁pilas":13091,"ition":13092,"▁tae":13093,"▁sigueme":13094,"▁ment":13095,"▁Marcelo":13096,"es!":13097,"▁Adi":13098,"rile":13099,"▁barco":13100,"▁digna":13101,"inte":13102,"vistar":13103,"▁águila":13104,"▁retra":13105,"▁lateral":13106,"▁times":13107,"▁linea":13108,"QUÍ":13109,"▁ciudad.":13110,"TIV":13111,"dense":13112,"▁pezuñas":13113,"▁parada":13114,"▁reconoce":13115,"▁Jer":13116,"▁hamburguesa":13117,"▁embaja":13118,"▁Martes":13119,"▁dirigentes":13120,"elos":13121,"▁aporte":13122,"▁Viendo":13123,"ksks":13124,"▁¿Dónde":13125,"ecil":13126,"▁VENEZUELA":13127,"▁dark":13128,"▁Iglesia":13129,"▁seen":13130,"▁→":13131,"▁desigual":13132,"▁Cuál":13133,"idar":13134,"fortunada":13135,"Se":13136,"▁mediocre":13137,"tren":13138,"▁male":13139,"▁Traba":13140,"▁exámenes":13141,"▁aparecen":13142,"▁agro":13143,"esión":13144,"▁Glor":13145,"▁pareció":13146,"▁md":13147,"▁política,":13148,"▁teor":13149,"▁XXI":13150,"▁R.":13151,"Por":13152,"▁cursos":13153,"▁Castillo":13154,"onga":13155,"cion.":13156,"▁dibujo":13157,"▁expor":13158,"▁ACAB":13159,"▁TT":13160,"▁baje":13161,"clas":13162,"▁fus":13163,"▁Voto":13164,"▁VOS":13165,"▁contras":13166,"▁decision":13167,"▁sufriendo":13168,"▁Derecho":13169,"▁envío":13170,"▁sense":13171,"▁lenguaje":13172,"▁B.":13173,"▁gigante":13174,"▁acel":13175,"▁ach":13176,"▁indirec":13177,"▁falsos":13178,"▁Gobernador":13179,"jas.":13180,"▁flaca":13181,"pación":13182,"▁chavista":13183,"▁tomó":13184,"▁consol":13185,"años":13186,"▁OC":13187,"▁fama":13188,"▁parado":13189,"▁enjoy":13190,"▁patrimonio":13191,"▁vincu":13192,"▁different":13193,"▁tod@usuario":13194,"▁facu":13195,"iores":13196,"▁patro":13197,"▁presentó":13198,"B.":13199,"tián":13200,"To":13201,"▁bancos":13202,"mería":13203,"▁próximas":13204,"▁design":13205,"▁colegios":13206,"▁jsjsjs":13207,"▁weather":13208,"▁Chin":13209,"▁move":13210,"▁Ill":13211,"▁grados":13212,"▁miseria":13213,"▁meses.":13214,"▁Evo":13215,"▁vil":13216,"▁valora":13217,"▁fem":13218,"trá":13219,"▁【":13220,"tam":13221,"▁Corre":13222,"▁milagro":13223,"▁ERA":13224,"▁ROM":13225,"▁mueren":13226,"mito":13227,"▁Sac":13228,"▁Nie":13229,"▁muerta":13230,"_la_derecha":13231,"▁conflicto":13232,"▁estuvieron":13233,"▁mierdas":13234,"▁política.":13235,"▁sc":13236,"▁sn":13237,"▁cup":13238,"aar":13239,"▁COMUN":13240,"▁paseo":13241,"▁favoritos":13242,"▁blue":13243,"gador":13244,"▁TANTO":13245,"▁inm":13246,"▁chama":13247,"▁vendiendo":13248,"çar":13249,"▁però":13250,"▁clubes":13251,"▁fabr":13252,"▁herramientas":13253,"pink":13254,"...es":13255,"▁técnica":13256,"▁comeback":13257,"ión:":13258,"▁regresa":13259,"▁lanzar":13260,"▁llevaba":13261,"▁Rich":13262,"▁espectáculo":13263,"▁Abs":13264,"▁ku":13265,"▁semá":13266,"▁tomen":13267,"▁2-":13268,"daba":13269,"▁tratan":13270,"dentes":13271,"▁Sch":13272,"▁CAP":13273,"▁Anti":13274,"88":13275,"▁Linda":13276,"▁queridos":13277,"▁SM":13278,"▁boletos":13279,"66":13280,"▁Chil":13281,"lying":13282,"▁espn":13283,"óstico":13284,"ABLE":13285,"▁miedo,":13286,"jua":13287,"▁estadouniden":13288,"▁alba":13289,"o!":13290,"▁nación":13291,"▁Colombia.":13292,"▁revela":13293,"▁NECESITO":13294,"▁forget":13295,"ILE":13296,"▁apoyan":13297,"cam":13298,"▁satisfac":13299,"▁cuen":13300,"▁mtvlafandomar":13301,"▁Iván":13302,"ulado":13303,"▁grande.":13304,"▁terminé":13305,"▁sufre":13306,"▁cause":13307,"▁consci":13308,"▁sev":13309,"▁llueve":13310,"JJAA":13311,"▁FELICI":13312,"VIR":13313,"▁2010":13314,"▁DAN":13315,"▁reproducción":13316,"▁Nin":13317,"▁fana":13318,"▁Human":13319,"▁ina":13320,"▁Toma":13321,"▁entendido":13322,"▁president":13323,"▁saying":13324,"▁ESCU":13325,"▁Econom":13326,"▁contigo,":13327,"▁antigu":13328,"▁secuestra":13329,"nie":13330,"▁perjud":13331,"enme":13332,"▁habitantes":13333,"▁aja":13334,"ES,":13335,"▁Supongo":13336,"▁insoportable":13337,"▁negros":13338,"▁impo":13339,"▁\"Un":13340,"▁hipocres":13341,"▁beco":13342,"pada":13343,"▁Entrevista":13344,"▁y...":13345,"▁caído":13346,"▁gla":13347,"▁cumpliendo":13348,"▁mujer.":13349,"▁Nam":13350,"Te":13351,"▁comí":13352,"▁duel":13353,"▁confia":13354,"HAH":13355,"▁suba":13356,"▁jogo":13357,"▁emilio":13358,"vili":13359,"▁persegui":13360,"▁ako":13361,"bria":13362,"▁llegas":13363,"▁í":13364,"5,":13365,"▁I'll":13366,"ona.":13367,"▁Morales":13368,"▁inocente":13369,"▁necesitar":13370,"▁each":13371,"ington":13372,"estructura":13373,"▁inaugu":13374,"▁pero...":13375,"▁tragedia":13376,"▁pasta":13377,"▁Lorenzo":13378,"▁juvenil":13379,"▁filoso":13380,"▁animo":13381,"▁Inicia":13382,"▁¡Te":13383,"▁cambie":13384,"ween":13385,"▁contesta":13386,"▁creciendo":13387,"▁confirmar":13388,"tica.":13389,"enciales":13390,"▁tremen":13391,"▁transpor":13392,"as..":13393,"▁trib":13394,"▁important":13395,"▁levanté":13396,"▁Elec":13397,"▁CONTRA":13398,"▁soporto":13399,"▁opinion":13400,"▁pañ":13401,"▁rell":13402,"mona":13403,"▁ESTU":13404,"▁andaba":13405,"▁egoís":13406,"▁yu":13407,"▁¡Buenos":13408,"▁inva":13409,"▁virgen":13410,"mira":13411,"▁homos":13412,"▁¡L":13413,"▁carn":13414,"▁solucionar":13415,"▁explique":13416,"▁paisa":13417,"▁donar":13418,"▁supre":13419,"ICE":13420,"el.":13421,"▁incomo":13422,"▁almuer":13423,"▁pasado.":13424,"▁Información":13425,"▁muera":13426,"▁fútbol.":13427,"▁FAN":13428,"▁mtvhot":13429,"▁Op":13430,"ee,":13431,"▁receta":13432,"▁invertir":13433,"ass":13434,"▁comprando":13435,"xd":13436,"▁toco":13437,"▁posibles":13438,"▁Nad":13439,"▁habilidad":13440,"how":13441,"I.":13442,"▁presidenta":13443,"minado":13444,"▁hueva":13445,"▁asumir":13446,"▁enamor":13447,"TF":13448,"zcan":13449,"▁MUJER":13450,"▁Die":13451,"▁Discul":13452,"▁Amiga":13453,"▁reempla":13454,"▁Nicaragua":13455,"▁Ep":13456,"▁publico":13457,"▁distinto":13458,"▁matrimonio":13459,"cierto":13460,"bús":13461,"▁George":13462,"▁Calderón":13463,"▁ARGENT":13464,"▁Esperemos":13465,"▁priori":13466,"▁recuerden":13467,"▁barato":13468,"▁2012":13469,"▁Iz":13470,"▁colap":13471,"linson":13472,"▁equili":13473,"▁valencia":13474,"▁fría":13475,"GAS":13476,"▁lenta":13477,"▁Respe":13478,"▁jud":13479,"wing":13480,"▁combus":13481,"▁2019,":13482,"▁apuesta":13483,"▁CER":13484,"▁pcas":13485,"udio":13486,"▁til":13487,"▁Emilio":13488,"got":13489,"wood":13490,"mócra":13491,"s..":13492,"▁ft":13493,"▁arrepiento":13494,"▁Yan":13495,"▁comunismo":13496,"ution":13497,"▁interca":13498,"▁Tay":13499,"▁confi":13500,"▁maria":13501,"▁promoción":13502,"▁5,":13503,"AH":13504,"▁vine":13505,"▁retweet":13506,"▁¿cómo":13507,"▁acumula":13508,"▁veter":13509,"▁wall":13510,"▁almo":13511,"▁HU":13512,"zos.":13513,"itud":13514,"icante":13515,"AK":13516,"▁Familia":13517,"▁tonight":13518,"alho":13519,"▁aprendiza":13520,"▁mtvlafandomaristemo":13521,"▁̄":13522,"▁quite":13523,"▁habitación":13524,"▁rapido":13525,"▁-¿":13526,"▁nossa":13527,"▁gp":13528,"▁Triste":13529,"▁falsas":13530,"▁OMS":13531,"▁NUES":13532,"▁descor":13533,"glo":13534,"▁acci":13535,"▁regga":13536,"▁nam":13537,"▁oficiales":13538,"▁NOT":13539,"▁120":13540,"▁Dici":13541,"▁comprado":13542,"▁apareció":13543,"▁digo,":13544,"▁Congra":13545,"▁barde":13546,"▁prometo":13547,"▁extrañaba":13548,"▁Ánimo":13549,"▁\"en":13550,"ti.":13551,"▁used":13552,"unk":13553,"▁robado":13554,"▁mãe":13555,"▁Desarrollo":13556,"▁cenar":13557,"▁asistir":13558,"arla":13559,"▁perver":13560,"que,":13561,"/19":13562,"▁propias":13563,"▁noctur":13564,"▁lasti":13565,"▁importan":13566,"▁#이":13567,"▁(0":13568,"▁municipios":13569,"▁enemigos":13570,"riam":13571,"▁Ada":13572,"▁grande,":13573,"▁mtvhottest":13574,"▁difusión":13575,"▁panza":13576,"▁STREAM":13577,"▁pierna":13578,"▁cance":13579,"▁carácter":13580,"▁mtvlaparejaar":13581,"▁inneces":13582,"▁merezco":13583,"▁escudo":13584,"▁vehículos":13585,"▁escribió":13586,"▁precau":13587,"▁cm":13588,"'ve":13589,"▁socialista":13590,"▁chido":13591,"▁requis":13592,"▁Ando":13593,"▁potencial":13594,"▁hacían":13595,"▁sis":13596,"▁u.u":13597,"▁bolu":13598,"▁anyone":13599,"▁Abo":13600,":15":13601,"mentales":13602,"▁ALL":13603,"▁tramp":13604,"aller":13605,"▁tareas":13606,"▁cruzar":13607,"▁Selección":13608,"▁Instituto":13609,"▁numero":13610,"piro":13611,"▁volvemos":13612,"ladoli":13613,"CAS":13614,"▁falando":13615,"▁estupe":13616,"▁(D":13617,"/as":13618,"▁Encon":13619,"▁faltaba":13620,"▁Perfec":13621,"eño":13622,"▁contento":13623,"rás":13624,"▁dormida":13625,"▁ALGO":13626,"▁halloween":13627,"▁pací":13628,"▁Descan":13629,"▁wee":13630,"▁(L":13631,"▁EE.UU.":13632,"erá":13633,"▁Gómez":13634,"izon":13635,"▁diná":13636,"▁Medellín":13637,"▁condición":13638,"▁éxitos":13639,"▁diferencias":13640,"▁subsi":13641,"▁Villar":13642,"▁yet":13643,"▁antes.":13644,"sando":13645,"▁zapatos":13646,"▁limón":13647,"▁\"Con":13648,"laron":13649,"po,":13650,"▁JS":13651,"ject":13652,"ayo":13653,"es:":13654,"ekhyun":13655,"centa":13656,"▁mezcla":13657,"ELA":13658,"▁Aaa":13659,"gones":13660,"inado":13661,"anos.":13662,"cié":13663,"▁Dame":13664,"▁empiece":13665,"▁reporte":13666,"▁máquina":13667,"▁límite":13668,"▁atar":13669,"HD":13670,"▁pira":13671,"▁sorprender":13672,"ribles":13673,"▁psi":13674,"...que":13675,"▁Well":13676,"▁GOOOL":13677,"▁DONDE":13678,"fobia":13679,"▁narra":13680,"▁equiparacion":13681,"...!":13682,"mago":13683,"▁reciben":13684,"COR":13685,"ticamente":13686,"▁calle.":13687,"▁borde":13688,"rre":13689,"trans":13690,"hí":13691,"pando":13692,"▁ESTAR":13693,"▁XX":13694,"TA.":13695,"▁duela":13696,"▁PAL":13697,"▁Fiscalía":13698,"uidad":13699,"▁manifestación":13700,"ned":13701,"▁impuesto":13702,"▁Tremendo":13703,"▁Feria":13704,"tificación":13705,"▁\"De":13706,"▁protocol":13707,"aba":13708,"▁BASTA":13709,"▁quitan":13710,"▁declaración":13711,"▁maric":13712,"▁otgala":13713,"▁conquis":13714,"▁pierdan":13715,"normal":13716,"▁Lpm":13717,"▁king":13718,"▁niños,":13719,"▁visitas":13720,"didad":13721,"▁Tour":13722,"▁desma":13723,"▁miedo.":13724,"▁hablaba":13725,"▁sea.":13726,"pear":13727,"▁yaaa":13728,"▁cambió":13729,"▁JULI":13730,"▁watching":13731,"▁QUIER":13732,"▁pí":13733,"tander":13734,"▁Ases":13735,"▁didnt":13736,"▁veces.":13737,"▁Claudia":13738,"COM":13739,"ivi":13740,"▁bc":13741,"garse":13742,"▁shar":13743,"▁fifa":13744,"▁sr":13745,"OSA":13746,"▁Tierra":13747,"▁volar":13748,"▁Navar":13749,"▁llave":13750,"▁activo":13751,"▁Poco":13752,"▁presta":13753,"▁BUS":13754,"▁Rac":13755,"▁mame":13756,"no.":13757,"$.":13758,"llate":13759,"▁perpe":13760,"trucción":13761,"▁reclamar":13762,"▁intensidad":13763,"▁certe":13764,"ara,":13765,"▁Sco":13766,"unch":13767,"▁simula":13768,"▁racismo":13769,"cones":13770,"▁anteriores":13771,"▁Tru":13772,"▁Oigan":13773,"▁protocolo":13774,"bloque":13775,"▁aburrida":13776,"▁Capital":13777,"▁angusti":13778,"▁smart":13779,"▁decidido":13780,"▁miembro":13781,"llermo":13782,"▁seleccion":13783,"quera":13784,"▁(si":13785,"glaterra":13786,"▁gastos":13787,"▁idiotas":13788,"▁Jan":13789,"▁dd":13790,"▁traen":13791,"▁ibas":13792,"uts":13793,"▁Der":13794,"▁bonitos":13795,"▁HABL":13796,"▁pierda":13797,"▁búsqueda":13798,"▁cry":13799,"▁aficion":13800,"▁increible":13801,"▁boludeces":13802,"▁logrado":13803,"▁gring":13804,"▁Cámara":13805,"▁pretende":13806,"▁peligroso":13807,"▁sd":13808,"▁embarazada":13809,"▁transi":13810,"▁¿Me":13811,"▁share":13812,"▁propaganda":13813,"▁bring":13814,"▁\"per":13815,"▁tall":13816,"cc":13817,"anía":13818,"▁Fac":13819,"▁Mauricio":13820,"▁CUL":13821,"▁es...":13822,"▁you!":13823,"▁special":13824,"▁constitución":13825,"liar":13826,"sive":13827,"▁Empez":13828,"▁iré":13829,"fonos":13830,"zen":13831,"▁insomn":13832,"▁capítulos":13833,"▁preciso":13834,"eme":13835,"▁patio":13836,"▁barras":13837,"▁Reyes":13838,"▁conseguido":13839,"te...":13840,"TIN":13841,"chor":13842,"▁Team":13843,"▁aristemo":13844,"▁trailer":13845,"icada":13846,"▁compos":13847,"▁Consulta":13848,"▁pasear":13849,"kis":13850,"▁Ton":13851,"▁ganaron":13852,"dig":13853,"▁USTE":13854,"▁valorar":13855,"▁ocasión":13856,"▁ov":13857,"▁Lol":13858,"▁Time":13859,"ity.":13860,"ILO":13861,"▁útil":13862,"▁teníamos":13863,"▁odiar":13864,"▁primaria":13865,"▁entendi":13866,"▁mujeres.":13867,"▁ilusion":13868,"▁distribu":13869,"▁tendencias":13870,"▁twitch":13871,"▁evolu":13872,"▁mv":13873,"▁revel":13874,"・・":13875,"▁petró":13876,"zas,":13877,"▁empatía":13878,"bertura":13879,"5%":13880,"insta":13881,"▁Yes":13882,"▁jefa":13883,"▁aguanta":13884,"TIDO":13885,"ation":13886,"▁cierta":13887,"▁tia":13888,"▁hombre,":13889,"▁deberia":13890,"▁Sigan":13891,"▁Dí":13892,"▁tabla":13893,"set":13894,"omp":13895,"▁gue":13896,"▁tenías":13897,"IP":13898,"▁recortable":13899,"almente":13900,"sores":13901,"▁exagera":13902,"▁sobran":13903,"▁representantes":13904,"▁vcs":13905,"▁sanciones":13906,"▁electri":13907,"▁vien":13908,"。.":13909,"▁entran":13910,"▁actual.":13911,"gano":13912,"lo?":13913,"▁Tho":13914,"▁autóno":13915,"▁working":13916,"entimiento":13917,"▁sepas":13918,"▁didn't":13919,"▁misterio":13920,"▁novedades":13921,"▁plantilla":13922,"▁extin":13923,"ITE":13924,"mido":13925,"▁Resulta":13926,"ge,":13927,"▁chiquito":13928,"hion":13929,"▁extrañ":13930,"▁troll":13931,"▁cara.":13932,"ónimo":13933,"▁CAMPE":13934,"▁deri":13935,"▁lugar.":13936,"tagena":13937,"▁wn":13938,"iebre":13939,"▁hora,":13940,"▁llame":13941,"▁Derechos":13942,"▁creado":13943,"▁Ortega":13944,"▁point":13945,"▁chara":13946,"▁novel":13947,"▁Segura":13948,"▁microbio":13949,"no,":13950,"▁cartas":13951,"▁👁":13952,"▁fox":13953,"aragoza":13954,"▁jos":13955,"▁posicion":13956,"▁mentiros":13957,"▁perdona":13958,"more":13959,"▁Atle":13960,"▁intimi":13961,"▁FF":13962,"▁copo":13963,"▁Torres":13964,"mbien":13965,"▁Ejecu":13966,"▁transformación":13967,"▁pelicula":13968,"cripciones":13969,"TICIA":13970,"▁escritor":13971,"▁voca":13972,"▁mora":13973,"▁Bolivar":13974,"▁sobrevivir":13975,"▁aprovecha":13976,"mance":13977,"▁hiper":13978,"▁sam":13979,"▁pai":13980,"▁temporadas":13981,"▁als":13982,"▁exitos":13983,"▁honduras":13984,"▁apellido":13985,"▁lang":13986,"▁encantó":13987,"▁Califor":13988,"bito":13989,"▁jour":13990,"▁Av.":13991,"▁Participa":13992,"▁origin":13993,"▁Ata":13994,"▁talent":13995,"ELE":13996,"▁ful":13997,"▁paran":13998,"▁Romero":13999,"gí":14000,"▁chic":14001,"▁politica":14002,"▁fasti":14003,"▁felicitaciones":14004,"▁ventas":14005,"▁automática":14006,"▁Demas":14007,"▁pájar":14008,"hun":14009,"at.":14010,"trate":14011,"▁respirar":14012,"▁prácticamente":14013,"▁ASI":14014,"▁retirar":14015,"▁celebración":14016,"▁ode":14017,"ñada":14018,"▁inventar":14019,"▁polvo":14020,"▁state":14021,"▁econo":14022,"▁consciente":14023,"▁match":14024,"▁barri":14025,"...)":14026,"▁DAR":14027,"▁Já":14028,"▁dama":14029,"▁biz":14030,"▁bicho":14031,"▁supl":14032,"▁whis":14033,"▁ر":14034,"▁1:":14035,"▁estemos":14036,"▁desor":14037,"▁n1":14038,"bineros":14039,"ECE":14040,"▁barrios":14041,"▁oportun":14042,"inete":14043,"▁radical":14044,"▁saludar":14045,"G.":14046,"ñarol":14047,"▁causas":14048,"ín.":14049,"▁materias":14050,"▁Herrera":14051,"cturas":14052,"▁mató":14053,"os..":14054,"69":14055,"▁verdes":14056,"▁terrorismo":14057,"▁it,":14058,"▁monte":14059,"▁profundo":14060,"▁firmar":14061,"▁GA":14062,"▁jugo":14063,"▁palmera":14064,"▁HUM":14065,"cion,":14066,"▁Acomp":14067,"▁gritos":14068,"▁io":14069,"▁conmigo.":14070,"▁futuro.":14071,"▁concur":14072,"▁coach":14073,"▁dulces":14074,"▁votando":14075,"/11":14076,"▁francés":14077,"▁pelis":14078,"▁fija":14079,"▁arres":14080,"▁real.":14081,"▁elegido":14082,"ience":14083,"tidas":14084,"▁emprendimiento":14085,"▁entrando":14086,"▁encier":14087,"▁Rodrigo":14088,"cano":14089,"▁decis":14090,"▁marcas":14091,"▁ARE":14092,"DAN":14093,"▁Saludos.":14094,"hue":14095,"▁bn":14096,"▁FUCK":14097,"▁dance":14098,"▁suy":14099,"ly.":14100,"▁reverencia":14101,"NN":14102,"▁literatura":14103,"▁canto":14104,"▁ecuator":14105,"▁sueldos":14106,"▁empezaron":14107,"▁decirles":14108,"▁Justin":14109,"▁aval":14110,"▁Colombia,":14111,"▁estupideces":14112,"▁cachor":14113,"▁vous":14114,"ciano":14115,"▁poder,":14116,"▁Corea":14117,"▁engañar":14118,"▁pilla":14119,"▁ODIO":14120,"▁siguiendo":14121,"▁spi":14122,"▁camina":14123,"▁Goool":14124,"anos,":14125,"ífica":14126,"▁presidente.":14127,"▁atta":14128,"erio":14129,"▁carreras":14130,"facta":14131,"▁enojar":14132,"▁criminales":14133,"▁contratos":14134,"▁#세븐":14135,"áticos":14136,"▁47":14137,"▁Paso":14138,"──":14139,"hip":14140,"▁REP":14141,"video":14142,"▁compartiendo":14143,"▁bende":14144,"▁golea":14145,"às":14146,"▁metan":14147,"▁va,":14148,"▁cató":14149,"lida":14150,"mbro":14151,"▁44":14152,"▁Aun":14153,"▁fútbol,":14154,"▁creía":14155,"▁MX":14156,"▁detes":14157,"▁4T":14158,"▁Meu":14159,"▁repri":14160,"▁2-0":14161,"bete":14162,"▁hablado":14163,"▁llevaron":14164,"▁Daily":14165,"▁Simón":14166,"▁\"pro":14167,"▁combate":14168,"▁GRANDE":14169,"core":14170,"▁som":14171,"▁Bayern":14172,"▁colonia":14173,"▁barbara":14174,"▁fight":14175,"▁despedir":14176,"▁dos,":14177,"GN":14178,"▁Dime":14179,"medio":14180,"▁Torre":14181,"gidos":14182,"▁Marcos":14183,"▁nave":14184,"▁(s":14185,"▁DESDE":14186,"RLO":14187,"▁trasla":14188,"▁\"Que":14189,"▁ademas":14190,"DIA":14191,"▁benefi":14192,"▁Tá":14193,"▁jajas":14194,"▁dia,":14195,"▁líneas":14196,"▁Rui":14197,"▁ASES":14198,"▁pasa,":14199,"ners":14200,"▁¿y":14201,"ERTA":14202,"▁Fútbol":14203,"▁héroes":14204,"▁documento":14205,"▁¿cu":14206,"▁quito":14207,"▁tontos":14208,"▁desse":14209,"▁Check":14210,"▁hacerlo.":14211,"▁needs":14212,"▁mario":14213,"ic,":14214,"▁paguen":14215,"▁incluye":14216,"▁vengas":14217,"▁pensiones":14218,"55":14219,"▁Dipu":14220,"▁custo":14221,"▁VÍ":14222,"▁duran":14223,"▁obri":14224,"▁minas":14225,"pata":14226,"▁mogol":14227,"▁MOM":14228,"▁Non":14229,"▁problema.":14230,"▁tasa":14231,"inge":14232,"▁potencia":14233,"▁gasol":14234,"bios":14235,"▁Mujeres":14236,"▁alternativa":14237,"▁salón":14238,"▁geo":14239,"▁deliver":14240,"▁abandono":14241,"or,":14242,"▁Baby":14243,"▁foro":14244,"▁''":14245,"▁bay":14246,"▁Pública":14247,"▁instante":14248,"▁Alon":14249,"▁job":14250,"▁prom":14251,"▁BAN":14252,"▁volunt":14253,"▁quiero.":14254,"chill":14255,"▁barbi":14256,"▁Administra":14257,"you":14258,"▁favoritas":14259,"▁juegue":14260,"oo.":14261,"▁reivin":14262,"▁Có":14263,"jé":14264,"▁42":14265,"▁secretario":14266,"▁Alfon":14267,"▁(3":14268,"▁activos":14269,"▁ini":14270,"▁más?":14271,"▁dinero.":14272,"▁aveces":14273,"▁Colegio":14274,"▁postura":14275,"▁vida...":14276,"▁lora":14277,"ológico":14278,"ín,":14279,"▁tron":14280,"▁finalmente":14281,"▁maneras":14282,"chester":14283,"▁Mús":14284,"▁riendo":14285,"▁-M":14286,"▁recordamos":14287,"▁nintendo":14288,"AL.":14289,"▁사":14290,"D,":14291,"▁es:":14292,"▁serp":14293,"etero":14294,"▁liv":14295,"▁LIVE":14296,"▁Stu":14297,"▁decreto":14298,"▁(E":14299,"▁cache":14300,"▁aguas":14301,"-se":14302,"▁formal":14303,"▁Twitter.":14304,"▁acordé":14305,"▁Ramón":14306,"อง":14307,"▁Mala":14308,"▁identifica":14309,"▁suces":14310,"▁FAM":14311,"▁lp":14312,"▁invis":14313,"▁Recuerdo":14314,"▁late":14315,"▁Impos":14316,"▁luck":14317,"▁46":14318,"▁Colombi":14319,"▁km/h":14320,"▁¡Vamos":14321,"▁happ":14322,"militar":14323,"brio":14324,"▁presidente,":14325,"▁antici":14326,"▁crece":14327,"▁erra":14328,"▁traigo":14329,"▁Simp":14330,"▁montaña":14331,"▁Cés":14332,"▁detenidos":14333,"▁rd":14334,"▁convirtió":14335,"▁siguientes":14336,"▁rueda":14337,"▁Mana":14338,"BIERNO":14339,"▁cuadra":14340,"▁random":14341,"▁sencilla":14342,"▁ascenso":14343,"▁influencer":14344,"▁Tim":14345,"▁leyenda":14346,"▁actores":14347,"aa.":14348,"▁canales":14349,"▁afron":14350,"ette":14351,"tial":14352,"▁alejar":14353,"▁hijueputa":14354,"▁frances":14355,"▁mandarina":14356,"▁Nose":14357,"▁doesn't":14358,"▁Disfruta":14359,"grafo":14360,"▁ly":14361,"▁bobo":14362,"minos":14363,"pidos":14364,"▁muchachos":14365,"▁verdaderos":14366,"▁bt":14367,"bili":14368,"▁imbecil":14369,"▁aliení":14370,"▁Recuerden":14371,"▁descorchada":14372,"miro":14373,"▁Alber":14374,"▁Pren":14375,"▁entró":14376,"noun":14377,"ta\"":14378,"▁votantes":14379,"tors":14380,"▁chistes":14381,"ents":14382,"▁deberíamos":14383,"▁quedaba":14384,"▁06":14385,"LY":14386,"▁Menti":14387,"kal":14388,"▁Pes":14389,"▁Informa":14390,"Rec":14391,"▁eeuu":14392,"▁Mí":14393,"to\"":14394,"▁Parte":14395,"▁árbitro":14396,"▁taxi":14397,"CR":14398,"▁tóxica":14399,"VAR":14400,"▁sali":14401,"formas":14402,"▁criterio":14403,"▁Diciembre":14404,"▁Estima":14405,"▁OK":14406,"▁Favor":14407,"▁Portugal":14408,"▁asigna":14409,"▁vontade":14410,"▁nada..":14411,"▁elementos":14412,"▁vocês":14413,"ligencia":14414,"▁bolsas":14415,"▁learn":14416,"▁Ulti":14417,"▁literally":14418,"ught":14419,"▁hermano,":14420,"▁procesos":14421,"▁histórica":14422,"▁Conta":14423,"▁golazo":14424,"▁Argentina,":14425,"▁Republ":14426,"ieber":14427,"cr":14428,"▁send":14429,"▁vecin":14430,"▁alianza":14431,"▁patas":14432,"▁Bale":14433,"▁Yoongi":14434,"/5":14435,"▁acercar":14436,"▁gobierna":14437,"▁engañ":14438,"▁pp":14439,"o?":14440,"▁repi":14441,"▁kirchner":14442,"▁CE":14443,"▁equipa":14444,"▁\"f":14445,"▁plantel":14446,"▁oídos":14447,"▁cifra":14448,"▁luz,":14449,"▁ilustra":14450,"o...":14451,"▁escapar":14452,"nis":14453,"▁carcel":14454,"▁asesor":14455,"▁note":14456,"▁tierno":14457,"▁reglas":14458,"▁ciudadana":14459,"▁PERSON":14460,"▁abuelos":14461,"dria":14462,"antas":14463,"▁fiz":14464,"▁Independiente":14465,"▁esperas":14466,"▁(por":14467,"▁fet":14468,"▁future":14469,"▁vida..":14470,"▁cayendo":14471,"▁suele":14472,"chet":14473,"tation":14474,"▁few":14475,"▁cacas":14476,"▁logros":14477,"▁tomate":14478,"▁representante":14479,"vote":14480,"ándalo":14481,"▁III":14482,"▁pongas":14483,"▁profesora":14484,"anted":14485,"▁normas":14486,"▁Joder":14487,"78":14488,"▁zombi":14489,"▁llorar,":14490,"▁Humedad:":14491,"▁son.":14492,"▁Hy":14493,"▁coti":14494,"eok":14495,"▁american":14496,"▁realidad,":14497,"▁convencer":14498,"▁HAB":14499,"▁el,":14500,"▁lugar,":14501,"▁SP":14502,"habilita":14503,"▁objetivos":14504,"▁iss":14505,"▁tocado":14506,"guera":14507,"▁Japón":14508,"▁hes":14509,"▁garganta":14510,"▁Septiembre":14511,"▁squ":14512,"▁guía":14513,"▁aa":14514,"▁BEL":14515,"▁destrucción":14516,"▁Dani":14517,"▁JAJ":14518,"▁llover":14519,"▁exist":14520,"▁Joe":14521,"2019.":14522,"▁talking":14523,"▁damn":14524,"▁SEA":14525,"▁castigo":14526,"▁torre":14527,"▁vestir":14528,"py":14529,"▁decidió":14530,"vándose":14531,"▁Federal":14532,"▁disposición":14533,"▁URL,":14534,"▁lento":14535,"▁tela":14536,"do?":14537,"▁mir":14538,"▁seguros":14539,"▁13.":14540,"▁Pregunta":14541,"▁muchacho":14542,"▁organizaciones":14543,"▁quiénes":14544,"▁Imagina":14545,"▁FIFA":14546,"▁aprendido":14547,"▁carpe":14548,"iles":14549,"▁iron":14550,"▁áfrica":14551,"talgia":14552,"▁queden":14553,"▁lleguen":14554,"▁molestar":14555,"lay":14556,"▁Libertadores":14557,"▁críticas":14558,"▁aventura":14559,"cio,":14560,"▁laburar":14561,"WN":14562,"▁rug":14563,"▁hil":14564,"▁kk":14565,"mbe":14566,"▁culti":14567,"▁risas":14568,"▁Aut":14569,"▁dispara":14570,"ootball":14571,"▁Leg":14572,"RIA":14573,"▁covid19.":14574,"▁gila":14575,"landia":14576,"▁voice":14577,"▁Técn":14578,"▁tox":14579,"▁perre":14580,"!...":14581,"▁pegue":14582,"▁piro":14583,"ccion":14584,"▁define":14585,"zu":14586,"▁Sistema":14587,"▁hijas":14588,"▁estupefacta":14589,"▁DEF":14590,"▁aula":14591,"▁sigamos":14592,"but":14593,"▁¡Felici":14594,"itores":14595,"▁Uber":14596,"▁main":14597,"▁heridos":14598,"▁Escucha":14599,"▁ship":14600,"madas":14601,"▁califica":14602,"▁ventaja":14603,"icientes":14604,"os...":14605,"▁admira":14606,"▁desac":14607,"▁yg":14608,"▁herramienta":14609,"▁Rica":14610,"▁Entiendo":14611,"▁darnos":14612,"▁Xq":14613,"▁agua.":14614,"▁porte":14615,
[...]
