{"version":"1.0","truncation":null,"padding":null,"added_tokens":[{"id":0,"special":true,"content":"[MASK]","single_word":false,"lstrip":false,"rstrip":false,"normalized":false},{"id":1,"special":true,"content":"[PAD]","single_word":false,"lstrip":false,"rstrip":false,"normalized":false},{"id":3,"special":true,"content":"[UNK]","single_word":false,"lstrip":false,"rstrip":false,"normalized":false},{"id":4,"special":true,"content":"[CLS]","single_word":false,"lstrip":false,"rstrip":false,"normalized":false},{"id":5,"special":true,"content":"[SEP]","single_word":false,"lstrip":false,"rstrip":false,"normalized":false},{"id":31002,"special":false,"content":"@usuario","single_word":false,"lstrip":false,"rstrip":false,"normalized":true},{"id":31003,"special":false,"content":"url","single_word":false,"lstrip":false,"rstrip":false,"normalized":true},{"id":31004,"special":false,"content":"hashtag","single_word":false,"lstrip":false,"rstrip":false,"normalized":true},{"id":31005,"special":false,"content":"emoji","single_word":false,"lstrip":false,"rstrip":false,"normalized":true}],"normalizer":{"type":"BertNormalizer","clean_text":true,"handle_chinese_chars":true,"strip_accents":false,"lowercase":false},"pre_tokenizer":{"type":"BertPreTokenizer"},"post_processor":{"type":"TemplateProcessing","single":[{"SpecialToken":{"id":"[CLS]","type_id":0}},{"Sequence":{"id":"A","type_id":0}},{"SpecialToken":{"id":"[SEP]","type_id":0}}],"pair":[{"SpecialToken":{"id":"[CLS]","type_id":0}},{"Sequence":{"id":"A","type_id":0}},{"SpecialToken":{"id":"[SEP]","type_id":0}},{"Sequence":{"id":"B","type_id":1}},{"SpecialToken":{"id":"[SEP]","type_id":1}}],"special_tokens":{"[CLS]":{"id":"[CLS]","ids":[4],"tokens":["[CLS]"]},"[SEP]":{"id":"[SEP]","ids":[5],"tokens":["[SEP]"]}}},"decoder":{"type":"WordPiece","prefix":"##","cleanup":true},"model":{"type":"WordPiece","unk_token":"[UNK]","continuing_subword_prefix":"##","max_input_chars_per_word":100,"vocab":{"[MASK]":0,"[PAD]":1,"[EOS]":2,"[UNK]":3,"[CLS]":4,"[SEP]":5,"[unused0]":6,"[unused1]":7,"[unused2]":8,"[unused3]":9,"[unused4]":10,"[unused5]":11,"[unused6]":12,"[unused7]":13,"[unused8]":14,"[unused9]":15,"[unused10]":16,"[unused11]":17,"[unused12]":18,"[unused13]":19,"[unused14]":20,"[unused15]":21,"[unused16]":22,"[unused17]":23,"[unused18]":24,"[unused19]":25,"[unused20]":26,"[unused21]":27,"[unused22]":28,"[unused23]":29,"[unused24]":30,"[unused25]":31,"[unused26]":32,"[unused27]":33,"[unused28]":34,"[unused29]":35,"[unused30]":36,"[unused31]":37,"[unused32]":38,"[unused33]":39,"[unused34]":40,"[unused35]":41,"[unused36]":42,"[unused37]":43,"[unused38]":44,"[unused39]":45,"[unused40]":46,"[unused41]":47,"[unused42]":48,"[unused43]":49,"[unused44]":50,"[unused45]":51,"[unused46]":52,"[unused47]":53,"[unused48]":54,"[unused49]":55,"[unused50]":56,"[unused51]":57,"[unused52]":58,"[unused53]":59,"[unused54]":60,"[unused55]":61,"[unused56]":62,"[unused57]":63,"[unused58]":64,"[unused59]":65,"[unused60]":66,"[unused61]":67,"[unused62]":68,"[unused63]":69,"[unused64]":70,"[unused65]":71,"[unused66]":72,"[unused67]":73,"[unused68]":74,"[unused69]":75,"[unused70]":76,"[unused71]":77,"[unused72]":78,"[unused73]":79,"[unused74]":80,"[unused75]":81,"[unused76]":82,"[unused77]":83,"[unused78]":84,"[unused79]":85,"[unused80]":86,"[unused81]":87,"[unused82]":88,"[unused83]":89,"[unused84]":90,"[unused85]":91,"[unused86]":92,"[unused87]":93,"[unused88]":94,"[unused89]":95,"[unused90]":96,"[unused91]":97,"[unused92]":98,"[unused93]":99,"[unused94]":100,"[unused95]":101,"[unused96]":102,"[unused97]":103,"[unused98]":104,"[unused99]":105,"[unused100]":106,"[unused101]":107,"[unused102]":108,"[unused103]":109,"[unused104]":110,"[unused105]":111,"[unused106]":112,"[unused107]":113,"[unused108]":114,"[unused109]":115,"[unused110]":116,"[unused111]":117,"[unused112]":118,"[unused113]":119,"[unused114]":120,"[unused115]":121,"[unused116]":122,"[unused117]":123,"[unused118]":124,"[unused119]":125,"[unused120]":126,"[unused121]":127,"[unused122]":128,"[unused123]":129,"[unused124]":130,"[unused125]":131,"[unused126]":132,"[unused127]":133,"[unused128]":134,"[unused129]":135,"[unused130]":136,"[unused131]":137,"[unused132]":138,"[unused133]":139,"[unused134]":140,"[unused135]":141,"[unused136]":142,"[unused137]":143,"[unused138]":144,"[unused139]":145,"[unused140]":146,"[unused141]":147,"[unused142]":148,"[unused143]":149,"[unused144]":150,"[unused145]":151,"[unused146]":152,"[unused147]":153,"[unused148]":154,"[unused149]":155,"[unused150]":156,"[unused151]":157,"[unused152]":158,"[unused153]":159,"[unused154]":160,"[unused155]":161,"[unused156]":162,"[unused157]":163,"[unused158]":164,"[unused159]":165,"[unused160]":166,"[unused161]":167,"[unused162]":168,"[unused163]":169,"[unused164]":170,"[unused165]":171,"[unused166]":172,"[unused167]":173,"[unused168]":174,"[unused169]":175,"[unused170]":176,"[unused171]":177,"[unused172]":178,"[unused173]":179,"[unused174]":180,"[unused175]":181,"[unused176]":182,"[unused177]":183,"[unused178]":184,"[unused179]":185,"[unused180]":186,"[unused181]":187,"[unused182]":188,"[unused183]":189,"[unused184]":190,"[unused185]":191,"[unused186]":192,"[unused187]":193,"[unused188]":194,"[unused189]":195,"[unused190]":196,"[unused191]":197,"[unused192]":198,"[unused193]":199,"[unused194]":200,"[unused195]":201,"[unused196]":202,"[unused197]":203,"[unused198]":204,"[unused199]":205,"[unused200]":206,"[unused201]":207,"[unused202]":208,"[unused203]":209,"[unused204]":210,"[unused205]":211,"[unused206]":212,"[unused207]":213,"[unused208]":214,"[unused209]":215,"[unused210]":216,"[unused211]":217,"[unused212]":218,"[unused213]":219,"[unused214]":220,"[unused215]":221,"[unused216]":222,"[unused217]":223,"[unused218]":224,"[unused219]":225,"[unused220]":226,"[unused221]":227,"[unused222]":228,"[unused223]":229,"[unused224]":230,"[unused225]":231,"[unused226]":232,"[unused227]":233,"[unused228]":234,"[unused229]":235,"[unused230]":236,"[unused231]":237,"[unused232]":238,"[unused233]":239,"[unused234]":240,"[unused235]":241,"[unused236]":242,"[unused237]":243,"[unused238]":244,"[unused239]":245,"[unused240]":246,"[unused241]":247,"[unused242]":248,"[unused243]":249,"[unused244]":250,"[unused245]":251,"[unused246]":252,"[unused247]":253,"[unused248]":254,"[unused249]":255,"[unused250]":256,"[unused251]":257,"[unused252]":258,"[unused253]":259,"[unused254]":260,"[unused255]":261,"[unused256]":262,"[unused257]":263,"[unused258]":264,"[unused259]":265,"[unused260]":266,"[unused261]":267,"[unused262]":268,"[unused263]":269,"[unused264]":270,"[unused265]":271,"[unused266]":272,"[unused267]":273,"[unused268]":274,"[unused269]":275,"[unused270]":276,"[unused271]":277,"[unused272]":278,"[unused273]":279,"[unused274]":280,"[unused275]":281,"[unused276]":282,"[unused277]":283,"[unused278]":284,"[unused279]":285,"[unused280]":286,"[unused281]":287,"[unused282]":288,"[unused283]":289,"[unused284]":290,"[unused285]":291,"[unused286]":292,"[unused287]":293,"[unused288]":294,"[unused289]":295,"[unused290]":296,"[unused291]":297,"[unused292]":298,"[unused293]":299,"[unused294]":300,"[unused295]":301,"[unused296]":302,"[unused297]":303,"[unused298]":304,"[unused299]":305,"[unused300]":306,"[unused301]":307,"[unused302]":308,"[unused303]":309,"[unused304]":310,"[unused305]":311,"[unused306]":312,"[unused307]":313,"[unused308]":314,"[unused309]":315,"[unused310]":316,"[unused311]":317,"[unused312]":318,"[unused313]":319,"[unused314]":320,"[unused315]":321,"[unused316]":322,"[unused317]":323,"[unused318]":324,"[unused319]":325,"[unused320]":326,"[unused321]":327,"[unused322]":328,"[unused323]":329,"[unused324]":330,"[unused325]":331,"[unused326]":332,"[unused327]":333,"[unused328]":334,"[unused329]":335,"[unused330]":336,"[unused331]":337,"[unused332]":338,"[unused333]":339,"[unused334]":340,"[unused335]":341,"[unused336]":342,"[unused337]":343,"[unused338]":344,"[unused339]":345,"[unused340]":346,"[unused341]":347,"[unused342]":348,"[unused343]":349,"[unused344]":350,"[unused345]":351,"[unused346]":352,"[unused347]":353,"[unused348]":354,"[unused349]":355,"[unused350]":356,"[unused351]":357,"[unused352]":358,"[unused353]":359,"[unused354]":360,"[unused355]":361,"[unused356]":362,"[unused357]":363,"[unused358]":364,"[unused359]":365,"[unused360]":366,"[unused361]":367,"[unused362]":368,"[unused363]":369,"[unused364]":370,"[unused365]":371,"[unused366]":372,"[unused367]":373,"[unused368]":374,"[unused369]":375,"[unused370]":376,"[unused371]":377,"[unused372]":378,"[unused373]":379,"[unused374]":380,"[unused375]":381,"[unused376]":382,"[unused377]":383,"[unused378]":384,"[unused379]":385,"[unused380]":386,"[unused381]":387,"[unused382]":388,"[unused383]":389,"[unused384]":390,"[unused385]":391,"[unused386]":392,"[unused387]":393,"[unused388]":394,"[unused389]":395,"[unused390]":396,"[unused391]":397,"[unused392]":398,"[unused393]":399,"[unused394]":400,"[unused395]":401,"[unused396]":402,"[unused397]":403,"[unused398]":404,"[unused399]":405,"[unused400]":406,"[unused401]":407,"[unused402]":408,"[unused403]":409,"[unused404]":410,"[unused405]":411,"[unused406]":412,"[unused407]":413,"[unused408]":414,"[unused409]":415,"[unused410]":416,"[unused411]":417,"[unused412]":418,"[unused413]":419,"[unused414]":420,"[unused415]":421,"[unused416]":422,"[unused417]":423,"[unused418]":424,"[unused419]":425,"[unused420]":426,"[unused421]":427,"[unused422]":428,"[unused423]":429,"[unused424]":430,"[unused425]":431,"[unused426]":432,"[unused427]":433,"[unused428]":434,"[unused429]":435,"[unused430]":436,"[unused431]":437,"[unused432]":438,"[unused433]":439,"[unused434]":440,"[unused435]":441,"[unused436]":442,"[unused437]":443,"[unused438]":444,"[unused439]":445,"[unused440]":446,"[unused441]":447,"[unused442]":448,"[unused443]":449,"[unused444]":450,"[unused445]":451,"[unused446]":452,"[unused447]":453,"[unused448]":454,"[unused449]":455,"[unused450]":456,"[unused451]":457,"[unused452]":458,"[unused453]":459,"[unused454]":460,"[unused455]":461,"[unused456]":462,"[unused457]":463,"[unused458]":464,"[unused459]":465,"[unused460]":466,"[unused461]":467,"[unused462]":468,"[unused463]":469,"[unused464]":470,"[unused465]":471,"[unused466]":472,"[unused467]":473,"[unused468]":474,"[unused469]":475,"[unused470]":476,"[unused471]":477,"[unused472]":478,"[unused473]":479,"[unused474]":480,"[unused475]":481,"[unused476]":482,"[unused477]":483,"[unused478]":484,"[unused479]":485,"[unused480]":486,"[unused481]":487,"[unused482]":488,"[unused483]":489,"[unused484]":490,"[unused485]":491,"[unused486]":492,"[unused487]":493,"[unused488]":494,"[unused489]":495,"[unused490]":496,"[unused491]":497,"[unused492]":498,"[unused493]":499,"[unused494]":500,"[unused495]":501,"[unused496]":502,"[unused497]":503,"[unused498]":504,"[unused499]":505,"[unused500]":506,"[unused501]":507,"[unused502]":508,"[unused503]":509,"[unused504]":510,"[unused505]":511,"[unused506]":512,"[unused507]":513,"[unused508]":514,"[unused509]":515,"[unused510]":516,"[unused511]":517,"[unused512]":518,"[unused513]":519,"[unused514]":520,"[unused515]":521,"[unused516]":522,"[unused517]":523,"[unused518]":524,"[unused519]":525,"[unused520]":526,"[unused521]":527,"[unused522]":528,"[unused523]":529,"[unused524]":530,"[unused525]":531,"[unused526]":532,"[unused527]":533,"[unused528]":534,"[unused529]":535,"[unused530]":536,"[unused531]":537,"[unused532]":538,"[unused533]":539,"[unused534]":540,"[unused535]":541,"[unused536]":542,"[unused537]":543,"[unused538]":544,"[unused539]":545,"[unused540]":546,"[unused541]":547,"[unused542]":548,"[unused543]":549,"[unused544]":550,"[unused545]":551,"[unused546]":552,"[unused547]":553,"[unused548]":554,"[unused549]":555,"[unused550]":556,"[unused551]":557,"[unused552]":558,"[unused553]":559,"[unused554]":560,"[unused555]":561,"[unused556]":562,"[unused557]":563,"[unused558]":564,"[unused559]":565,"[unused560]":566,"[unused561]":567,"[unused562]":568,"[unused563]":569,"[unused564]":570,"[unused565]":571,"[unused566]":572,"[unused567]":573,"[unused568]":574,"[unused569]":575,"[unused570]":576,"[unused571]":577,"[unused572]":578,"[unused573]":579,"[unused574]":580,"[unused575]":581,"[unused576]":582,"[unused577]":583,"[unused578]":584,"[unused579]":585,"[unused580]":586,"[unused581]":587,"[unused582]":588,"[unused583]":589,"[unused584]":590,"[unused585]":591,"[unused586]":592,"[unused587]":593,"[unused588]":594,"[unused589]":595,"[unused590]":596,"[unused591]":597,"[unused592]":598,"[unused593]":599,"[unused594]":600,"[unused595]":601,"[unused596]":602,"[unused597]":603,"[unused598]":604,"[unused599]":605,"[unused600]":606,"[unused601]":607,"[unused602]":608,"[unused603]":609,"[unused604]":610,"[unused605]":611,"[unused606]":612,"[unused607]":613,"[unused608]":614,"[unused609]":615,"[unused610]":616,"[unused611]":617,"[unused612]":618,"[unused613]":619,"[unused614]":620,"[unused615]":621,"[unused616]":622,"[unused617]":623,"[unused618]":624,"[unused619]":625,"[unused620]":626,"[unused621]":627,"[unused622]":628,"[unused623]":629,"[unused624]":630,"[unused625]":631,"[unused626]":632,"[unused627]":633,"[unused628]":634,"[unused629]":635,"[unused630]":636,"[unused631]":637,"[unused632]":638,"[unused633]":639,"[unused634]":640,"[unused635]":641,"[unused636]":642,"[unused637]":643,"[unused638]":644,"[unused639]":645,"[unused640]":646,"[unused641]":647,"[unused642]":648,"[unused643]":649,"[unused644]":650,"[unused645]":651,"[unused646]":652,"[unused647]":653,"[unused648]":654,"[unused649]":655,"[unused650]":656,"[unused651]":657,"[unused652]":658,"[unused653]":659,"[unused654]":660,"[unused655]":661,"[unused656]":662,"[unused657]":663,"[unused658]":664,"[unused659]":665,"[unused660]":666,"[unused661]":667,"[unused662]":668,"[unused663]":669,"[unused664]":670,"[unused665]":671,"[unused666]":672,"[unused667]":673,"[unused668]":674,"[unused669]":675,"[unused670]":676,"[unused671]":677,"[unused672]":678,"[unused673]":679,"[unused674]":680,"[unused675]":681,"[unused676]":682,"[unused677]":683,"[unused678]":684,"[unused679]":685,"[unused680]":686,"[unused681]":687,"[unused682]":688,"[unused683]":689,"[unused684]":690,"[unused685]":691,"[unused686]":692,"[unused687]":693,"[unused688]":694,"[unused689]":695,"[unused690]":696,"[unused691]":697,"[unused692]":698,"[unused693]":699,"[unused694]":700,"[unused695]":701,"[unused696]":702,"[unused697]":703,"[unused698]":704,"[unused699]":705,"[unused700]":706,"[unused701]":707,"[unused702]":708,"[unused703]":709,"[unused704]":710,"[unused705]":711,"[unused706]":712,"[unused707]":713,"[unused708]":714,"[unused709]":715,"[unused710]":716,"[unused711]":717,"[unused712]":718,"[unused713]":719,"[unused714]":720,"[unused715]":721,"[unused716]":722,"[unused717]":723,"[unused718]":724,"[unused719]":725,"[unused720]":726,"[unused721]":727,"[unused722]":728,"[unused723]":729,"[unused724]":730,"[unused725]":731,"[unused726]":732,"[unused727]":733,"[unused728]":734,"[unused729]":735,"[unused730]":736,"[unused731]":737,"[unused732]":738,"[unused733]":739,"[unused734]":740,"[unused735]":741,"[unused736]":742,"[unused737]":743,"[unused738]":744,"[unused739]":745,"[unused740]":746,"[unused741]":747,"[unused742]":748,"[unused743]":749,"[unused744]":750,"[unused745]":751,"[unused746]":752,"[unused747]":753,"[unused748]":754,"[unused749]":755,"[unused750]":756,"[unused751]":757,"[unused752]":758,"[unused753]":759,"[unused754]":760,"[unused755]":761,"[unused756]":762,"[unused757]":763,"[unused758]":764,"[unused759]":765,"[unused760]":766,"[unused761]":767,"[unused762]":768,"[unused763]":769,"[unused764]":770,"[unused765]":771,"[unused766]":772,"[unused767]":773,"[unused768]":774,"[unused769]":775,"[unused770]":776,"[unused771]":777,"[unused772]":778,"[unused773]":779,"[unused774]":780,"[unused775]":781,"[unused776]":782,"[unused777]":783,"[unused778]":784,"[unused779]":785,"[unused780]":786,"[unused781]":787,"[unused782]":788,"[unused783]":789,"[unused784]":790,"[unused785]":791,"[unused786]":792,"[unused787]":793,"[unused788]":794,"[unused789]":795,"[unused790]":796,"[unused791]":797,"[unused792]":798,"[unused793]":799,"[unused794]":800,"[unused795]":801,"[unused796]":802,"[unused797]":803,"[unused798]":804,"[unused799]":805,"[unused800]":806,"[unused801]":807,"[unused802]":808,"[unused803]":809,"[unused804]":810,"[unused805]":811,"[unused806]":812,"[unused807]":813,"[unused808]":814,"[unused809]":815,"[unused810]":816,"[unused811]":817,"[unused812]":818,"[unused813]":819,"[unused814]":820,"[unused815]":821,"[unused816]":822,"[unused817]":823,"[unused818]":824,"[unused819]":825,"[unused820]":826,"[unused821]":827,"[unused822]":828,"[unused823]":829,"[unused824]":830,"[unused825]":831,"[unused826]":832,"[unused827]":833,"[unused828]":834,"[unused829]":835,"[unused830]":836,"[unused831]":837,"[unused832]":838,"[unused833]":839,"[unused834]":840,"[unused835]":841,"[unused836]":842,"[unused837]":843,"[unused838]":844,"[unused839]":845,"[unused840]":846,"[unused841]":847,"[unused842]":848,"[unused843]":849,"[unused844]":850,"[unused845]":851,"[unused846]":852,"[unused847]":853,"[unused848]":854,"[unused849]":855,"[unused850]":856,"[unused851]":857,"[unused852]":858,"[unused853]":859,"[unused854]":860,"[unused855]":861,"[unused856]":862,"[unused857]":863,"[unused858]":864,"[unused859]":865,"[unused860]":866,"[unused861]":867,"[unused862]":868,"[unused863]":869,"[unused864]":870,"[unused865]":871,"[unused866]":872,"[unused867]":873,"[unused868]":874,"[unused869]":875,"[unused870]":876,"[unused871]":877,"[unused872]":878,"[unused873]":879,"[unused874]":880,"[unused875]":881,"[unused876]":882,"[unused877]":883,"[unused878]":884,"[unused879]":885,"[unused880]":886,"[unused881]":887,"[unused882]":888,"[unused883]":889,"[unused884]":890,"[unused885]":891,"[unused886]":892,"[unused887]":893,"[unused888]":894,"[unused889]":895,"[unused890]":896,"[unused891]":897,"[unused892]":898,"[unused893]":899,"[unused894]":900,"[unused895]":901,"[unused896]":902,"[unused897]":903,"[unused898]":904,"[unused899]":905,"[unused900]":906,"[unused901]":907,"[unused902]":908,"[unused903]":909,"[unused904]":910,"[unused905]":911,"[unused906]":912,"[unused907]":913,"[unused908]":914,"[unused909]":915,"[unused910]":916,"[unused911]":917,"[unused912]":918,"[unused913]":919,"[unused914]":920,"[unused915]":921,"[unused916]":922,"[unused917]":923,"[unused918]":924,"[unused919]":925,"[unused920]":926,"[unused921]":927,"[unused922]":928,"[unused923]":929,"[unused924]":930,"[unused925]":931,"[unused926]":932,"[unused927]":933,"[unused928]":934,"[unused929]":935,"[unused930]":936,"[unused931]":937,"[unused932]":938,"[unused933]":939,"[unused934]":940,"##|":941,"|":942,"##}":943,"}":944,"##{":945,"{":946,"##_":947,"_":948,"##+":949,"+":950,"##*":951,"*":952,"##&":953,"&":954,"##$":955,"$":956,"##]":957,"]":958,"##[":959,"[":960,"##=":961,"=":962,"##>":963,">":964,"##<":965,"<":966,"##@":967,"@":968,"##\\":969,"\\":970,"##/":971,"/":972,"##%":973,"%":974,"##;":975,";":976,"##7":977,"7":978,"##w":979,"ñ":980,"##k":981,"k":982,"##Z":983,"Z":984,"##X":985,"X":986,"##W":987,"##Ñ":988,"Ñ":989,"##K":990,"K":991,"##J":992,"J":993,"##Ú":994,"Ú":995,"##Ó":996,"Ó":997,"##Í":998,"Í":999,"##É":1000,"É":1001,"##Á":1002,"Á":1003,"w":1004,"W":1005,"##de":1006,"e":1007,"de":1008,".":1009,"l":1010,"##os":1011,"p":1012,"a":1013,"##en":1014,"##er":1015,"c":1016,",":1017,"##ar":1018,"##es":1019,"s":1020,"##as":1021,"##on":1022,"##ci":1023,"##or":1024,"##ue":1025,"##an":1026,"m":1027,"##ad":1028,"##st":1029,"la":1030,"t":1031,"##re":1032,"q":1033,"##un":1034,"##al":1035,"en":1036,"##in":1037,"que":1038,"##ent":1039,"el":1040,"##ón":1041,"y":1042,"n":1043,"E":1044,"h":1045,"##di":1046,"##do":1047,"##ra":1048,"un":1049,"##ro":1050,"con":1051,"##ti":1052,"##om":1053,"##aci":1054,"##am":1055,"v":1056,"S":1057,"es":1058,"C":1059,"f":1060,"est":1061,"se":1062,"##ic":1063,"?":1064,"los":1065,"##te":1066,"¿":1067,"P":1068,"##ab":1069,"A":1070,"##to":1071,"del":1072,"re":1073,"o":1074,"in":1075,"##ri":1076,"##le":1077,"L":1078,"su":1079,"par":1080,"##ado":1081,"##res":1082,"N":1083,"no":1084,"##ui":1085,"##ación":1086,"##ec":1087,"##lo":1088,"las":1089,"D":1090,"al":1091,"b":1092,"##da":1093,"1":1094,"##ta":1095,"por":1096,"M":1097,"com":1098,"##ente":1099,"di":1100,"##ol":1101,"##is":1102,"##ía":1103,"##em":1104,"T":1105,"##cu":1106,"g":1107,"una":1108,"##dad":1109,"para":1110,"pro":1111,"si":1112,"##ones":1113,"lo":1114,"2":1115,"d":1116,"\"":1117,"##ien":1118,"##ción":1119,"##ero":1120,"##la":1121,"##li":1122,"##go":1123,"##ch":1124,"No":1125,"##tu":1126,"!":1127,"##vi":1128,"me":1129,"##ter":1130,"ha":1131,"cu":1132,"##bi":1133,"##ás":1134,")":1135,"B":1136,"##im":1137,"##ada":1138,"¡":1139,"##tr":1140,"##ué":1141,"##ento":1142,"##si":1143,"##ari":1144,"##bre":1145,"Est":1146,"(":1147,"H":1148,"-":1149,"##se":1150,"##ran":1151,"R":1152,"mi":1153,"##ce":1154,"##mi":1155,"##ando":1156,"mu":1157,"##tos":1158,"##ales":1159,"##cia":1160,"so":1161,"El":1162,"des":1163,"Q":1164,"##ist":1165,"to":1166,"G":1167,"##ados":1168,"##ca":1169,"per":1170,"V":1171,"##pe":1172,"##tiv":1173,"ex":1174,"Y":1175,"##án":1176,"Es":1177,"##orm":1178,"##jo":1179,"##co":1180,":":1181,"I":1182,"##gu":1183,"como":1184,"U":1185,"##mo":1186,"En":1187,"##era":1188,"##ues":1189,"##00":1190,"##ir":1191,"##dos":1192,"##tor":1193,"##po":1194,"F":1195,"ac":1196,"##den":1197,"La":1198,"##ici":1199,"ser":1200,"##ica":1201,"##it":1202,"##el":1203,"##des":1204,"##tes":1205,"O":1206,"##ión":1207,"po":1208,"##tra":1209,"##ali":1210,"tra":1211,"##us":1212,"##ba":1213,"##amos":1214,"res":1215,"más":1216,"an":1217,"j":1218,"##lar":1219,"##tar":1220,"pue":1221,"##én":1222,"##ten":1223,"##que":1224,"##du":1225,"##por":1226,"##per":1227,"##io":1228,"hab":1229,"##aciones":1230,"ten":1231,"le":1232,"##ru":1233,"##das":1234,"vi":1235,"##uer":1236,"ar":1237,"##tro":1238,"##ma":1239,"te":1240,"ma":1241,"19":1242,"ap":1243,"3":1244,"pre":1245,"Un":1246,"##qui":1247,"ti":1248,"Con":1249,"pa":1250,"Com":1251,"##cer":1252,"##oy":1253,"##ora":1254,"##ia":1255,"##mp":1256,"##ul":1257,"##me":1258,"qui":1259,"as":1260,"De":1261,"##man":1262,"##ces":1263,"Se":1264,"im":1265,"está":1266,"##ras":1267,"##amente":1268,"sobre":1269,"##pa":1270,"##ust":1271,"200":1272,"##ver":1273,"##ico":1274,"##ambi":1275,"##mente":1276,"##ante":1277,"Por":1278,"##gun":1279,"##za":1280,"Qué":1281,"##uen":1282,"##il":1283,"##ur":1284,"ca":1285,"##los":1286,"sus":1287,"##ga":1288,"##min":1289,"##onal":1290,"pres":1291,"ver":1292,"##qu":1293,"tu":1294,"##der":1295,"qué":1296,"##tre":1297,"##ara":1298,"##tas":1299,"##gui":1300,"##vo":1301,"##emos":1302,"cas":1303,"ob":1304,"##mos":1305,"##gar":1306,"##bl":1307,"##con":1308,"inter":1309,"##lam":1310,"bien":1311,"ve":1312,"##ores":1313,"##entes":1314,"##ún":1315,"i":1316,"pr":1317,"##ble":1318,"##adas":1319,"##aba":1320,"or":1321,"tien":1322,"##je":1323,"##encia":1324,"##eces":1325,"##fic":1326,"comp":1327,"Re":1328,"inf":1329,"##ber":1330,"##ie":1331,"##ciones":1332,"añ":1333,"man":1334,"##lan":1335,"Sí":1336,"pri":1337,"4":1338,"Si":1339,"##cias":1340,"fue":1341,"dis":1342,"pas":1343,"medi":1344,"co":1345,"##quí":1346,"cre":1347,"##ami":1348,"##able":1349,"##dr":1350,"##tros":1351,"##ac":1352,"5":1353,"mis":1354,"pero":1355,"##dades":1356,"##ech":1357,"##cho":1358,"esta":1359,"##endo":1360,"##ario":1361,"##gan":1362,"r":1363,"##par":1364,"este":1365,"##pon":1366,"##fer":1367,"In":1368,"Me":1369,"##pi":1370,"##ías":1371,"##las":1372,"##les":1373,"##fici":1374,"##ven":1375,"##iz":1376,"fin":1377,"Lo":1378,"##br":1379,"ci":1380,"traba":1381,"ni":1382,"##cción":1383,"lle":1384,"##ens":1385,"##ve":1386,"##isión":1387,"##ícu":1388,"##ambién":1389,"é":1390,"entre":1391,"##gi":1392,"Di":1393,"##pos":1394,"mo":1395,"##gra":1396,"todo":1397,"au":1398,"deci":1399,"eso":1400,"aquí":1401,"##ina":1402,"Al":1403,"son":1404,"##tal":1405,"##va":1406,"pe":1407,"pers":1408,"hacer":1409,"##ís":1410,"sab":1411,"Los":1412,"##ino":1413,"##uro":1414,"##entos":1415,"##mas":1416,"form":1417,"##cial":1418,"##tado":1419,"##no":1420,"cor":1421,"##cl":1422,"hay":1423,"##esti":1424,"##pues":1425,"##cion":1426,"parti":1427,"##ay":1428,"##port":1429,"##enta":1430,"tan":1431,"##lic":1432,"20":1433,"car":1434,"sal":1435,"##tivo":1436,"lu":1437,"ah":1438,"##zar":1439,"6":1440,"##idad":1441,"neces":1442,"ab":1443,"inform":1444,"nos":1445,"##ener":1446,"también":1447,"Pero":1448,"Qui":1449,"has":1450,"Mi":1451,"prim":1452,"ter":1453,"pos":1454,"##ton":1455,"muy":1456,"##gr":1457,"##jer":1458,"##ido":1459,"##miento":1460,"##emp":1461,"##ja":1462,"##cuer":1463,"cos":1464,"9":1465,"deb":1466,"yo":1467,"esto":1468,"##ona":1469,"##cio":1470,"dos":1471,"##tícu":1472,"##dar":1473,"##sión":1474,"pol":1475,"##tiva":1476,"sin":1477,"##ño":1478,"nue":1479,"vez":1480,"##ana":1481,"##ío":1482,"li":1483,"Te":1484,"##ador":1485,"cuando":1486,"mar":1487,"Cu":1488,"esc":1489,"##pec":1490,"##ombre":1491,"##ín":1492,"##ed":1493,"##ólo":1494,"todos":1495,"emp":1496,"am":1497,"do":1498,"puede":1499,"8":1500,"##cip":1501,"##car":1502,"años":1503,"0":1504,"sol":1505,"así":1506,"As":1507,"Su":1508,"##rec":1509,"##almente":1510,"##fec":1511,"tiene":1512,"algo":1513,"##és":1514,"##pres":1515,"Le":1516,"##cha":1517,"##cas":1518,"##ren":1519,"##duc":1520,"##ómo":1521,"199":1522,"gran":1523,"pu":1524,"du":1525,"ya":1526,"ch":1527,"mej":1528,"hu":1529,"##acional":1530,"##teri":1531,"##na":1532,"##tículo":1533,"contra":1534,"ad":1535,"nues":1536,"##oci":1537,"era":1538,"##ían":1539,"reg":1540,"men":1541,"##llo":1542,"##antes":1543,"tiem":1544,"fun":1545,"##av":1546,"mun":1547,"em":1548,"##yu":1549,"ba":1550,"##arios":1551,"Buen":1552,"u":1553,"cam":1554,"##gos":1555,"Ch":1556,"##tica":1557,"##zo":1558,"##can":1559,"país":1560,"Par":1561,"##tura":1562,"hi":1563,"##rib":1564,"parte":1565,"##bier":1566,"##icos":1567,"##arro":1568,"##cos":1569,"cons":1570,"llam":1571,"##ará":1572,"##ola":1573,"ra":1574,"Comisión":1575,"##tin":1576,"tiempo":1577,"##gn":1578,"Uni":1579,"fu":1580,"##iden":1581,"may":1582,"##sti":1583,"Yo":1584,"##alidad":1585,"##amiento":1586,"##ución":1587,"ju":1588,"conf":1589,"##cios":1590,"##aliz":1591,"##ña":1592,"Ar":1593,"buen":1594,"##cuerdo":1595,"##icas":1596,"hasta":1597,"espe":1598,"Ten":1599,"han":1600,"señ":1601,"tran":1602,"##ere":1603,"ayu":1604,"To":1605,"##tras":1606,"ro":1607,"##unto":1608,"dere":1609,"##gen":1610,"él":1611,"##rante":1612,"Las":1613,"##aria":1614,"##chos":1615,"##racias":1616,"201":1617,"Euro":1618,"##ér":1619,"can":1620,"consi":1621,"An":1622,"##uel":1623,"incl":1624,"##ste":1625,"##aron":1626,"mejor":1627,"ir":1628,"##ista":1629,"##ano":1630,"decir":1631,"##cur":1632,"##ll":1633,"##gún":1634,"##úbl":1635,"Estados":1636,"##eron":1637,"##echo":1638,"##eneral":1639,"podr":1640,"bas":1641,"trabajo":1642,"estu":1643,"fuer":1644,"ven":1645,"Des":1646,"##che":1647,"segu":1648,"ahora":1649,"##so":1650,"##um":1651,"algun":1652,"cual":1653,"comun":1654,"##avor":1655,"##jos":1656,"##lti":1657,"##onas":1658,"##uy":1659,"##sejo":1660,"sé":1661,"##adre":1662,"##ués":1663,"ne":1664,"##tivos":1665,"don":1666,"posi":1667,"desde":1668,"import":1669,"##ema":1670,"nada":1671,"ese":1672,"favor":1673,"##acion":1674,"lugar":1675,"##cep":1676,"##jar":1677,"mal":1678,"vol":1679,"##stitu":1680,"10":1681,"desarro":1682,"##tonces":1683,"##embre":1684,"Pro":1685,"##tur":1686,"plan":1687,"vida":1688,"us":1689,"están":1690,"miem":1691,"Mar":1692,"prin":1693,"Consejo":1694,"cap":1695,"desp":1696,"cab":1697,"mismo":1698,"##at":1699,"Está":1700,"##adores":1701,"##bros":1702,"trans":1703,"estable":1704,"tom":1705,"Ah":1706,"aplic":1707,"acuerdo":1708,"##ili":1709,"##et":1710,"##cen":1711,"estar":1712,"polí":1713,"her":1714,"cer":1715,"Vamos":1716,"ref":1717,"á":1718,"##nos":1719,"##ños":1720,"da":1721,"haci":1722,"##gas":1723,"##rá":1724,"equi":1725,"día":1726,"ust":1727,"den":1728,"mujer":1729,"año":1730,"18":1731,"##arse":1732,"servi":1733,"he":1734,"artículo":1735,"esp":1736,"sólo":1737,"progra":1738,"##iones":1739,"##lamento":1740,"00":1741,"fi":1742,"##sta":1743,"ú":1744,"uno":1745,"##ena":1746,"Bueno":1747,"donde":1748,"ella":1749,"ej":1750,"##yec":1751,"##dio":1752,"casa":1753,"##eros":1754,"##tación":1755,"##tó":1756,"##bar":1757,"##cre":1758,"otros":1759,"llev":1760,"rel":1761,"antes":1762,"deber":1763,"estoy":1764,"organ":1765,"apar":1766,"##más":1767,"va":1768,"puedo":1769,"##oso":1770,"encon":1771,"##ctor":1772,"Ya":1773,"##ónde":1774,"##stru":1775,"##ece":1776,"##tivi":1777,"Sr":1778,"##eres":1779,"sigui":1780,"cada":1781,"##fica":1782,"##udad":1783,"##unca":1784,"forma":1785,"##uego":1786,"durante":1787,"estaba":1788,"mucho":1789,"sido":1790,"Eso":1791,"esa":1792,"San":1793,"sí":1794,"mayor":1795,"hace":1796,"12":1797,"##ale":1798,"CE":1799,"##iendo":1800,"Dios":1801,"hecho":1802,"dist":1803,"pla":1804,"##liz":1805,"##ito":1806,"reci":1807,"tú":1808,"##empre":1809,"##ene":1810,"##dido":1811,"So":1812,"gust":1813,"estado":1814,"sist":1815,"Europe":1816,"porque":1817,"##óm":1818,"##ge":1819,"##bo":1820,"Cre":1821,"ami":1822,"sent":1823,"había":1824,"pi":1825,"rec":1826,"##ridad":1827,"actu":1828,"últi":1829,"Para":1830,"cambi":1831,"##pañ":1832,"##tir":1833,"proble":1834,"sea":1835,"verdad":1836,"##ment":1837,"##ing":1838,"##amili":1839,"Gracias":1840,"##ord":1841,"##minist":1842,"super":1843,"estás":1844,"cent":1845,"prop":1846,"tengo":1847,"mon":1848,"##idades":1849,"##mpli":1850,"min":1851,"##ame":1852,"##cul":1853,"efec":1854,"present":1855,"Cómo":1856,"mí":1857,"personas":1858,"##trar":1859,"15":1860,"otra":1861,"princip":1862,"mundo":1863,"##tados":1864,"inv":1865,"obje":1866,"##obier":1867,"##ración":1868,"toda":1869,"##dió":1870,"##vel":1871,"Que":1872,"Pue":1873,"##he":1874,"indi":1875,"##lla":1876,"tanto":1877,"produc":1878,"##arias":1879,"Po":1880,"human":1881,"##pen":1882,"tar":1883,"sub":1884,"Ha":1885,"##tamente":1886,"##tivas":1887,"después":1888,"##sa":1889,"caso":1890,"col":1891,"##ancia":1892,"Ma":1893,"Hola":1894,"Pa":1895,"países":1896,"intern":1897,"##ismo":1898,"##tico":1899,"hombre":1900,"mom":1901,"autor":1902,"ciudad":1903,"apro":1904,"pon":1905,"Ca":1906,"muer":1907,"##gua":1908,"##fes":1909,"famili":1910,"Tien":1911,"quer":1912,"na":1913,"##quier":1914,"11":1915,"ade":1916,"##ig":1917,"##erv":1918,"uti":1919,"Reg":1920,"##puesto":1921,"mer":1922,"miembros":1923,"información":1924,"otro":1925,"exp":1926,"desarrollo":1927,"proyec":1928,"##ár":1929,"Bien":1930,"##xim":1931,"tipo":1932,"cal":1933,"##úm":1934,"##yo":1935,"##anci":1936,"quiero":1937,"##cado":1938,"empres":1939,"##tad":1940,"tres":1941,"solo":1942,"menos":1943,"mes":1944,"usted":1945,"##éc":1946,"asi":1947,"##aban":1948,"Esta":1949,"dest":1950,"def":1951,"nombre":1952,"todas":1953,"##omb":1954,"##ine":1955,"##gue":1956,"##tan":1957,"poco":1958,"tal":1959,"pens":1960,"##ros":1961,"nuevo":1962,"encu":1963,"debe":1964,"Una":1965,"Tra":1966,"ri":1967,"##ud":1968,"activi":1969,"tener":1970,"cuenta":1971,"##rupo":1972,"Así":1973,"cosas":1974,"fe":1975,"direc":1976,"Per":1977,"rela":1978,"##mon":1979,"of":1980,"##cri":1981,"DE":1982,"##gación":1983,"situ":1984,"señor":1985,"Pres":1986,"haber":1987,"cri":1988,"momento":1989,"públ":1990,"##ida":1991,"pes":1992,"##ceso":1993,"##idente":1994,"##gía":1995,"##aría":1996,"##sos":1997,"##untos":1998,"##van":1999,"pues":2000,"##ficación":2001,"resul":2002,"##dia":2003,"trabaj":2004,"##gado":2005,"econ":2006,"hor":2007,"##vis":2008,"##zón":2009,"##mento":2010,"##ác":2011,"organiz":2012,"##bro":2013,"segun":2014,"##olución":2015,"pueden":2016,"##obierno":2017,"ellos":2018,"gra":2019,"soy":2020,"##cup":2021,"##zas":2022,"cul":2023,"##guien":2024,"##ita":2025,"##tam":2026,"les":2027,"##be":2028,"pregun":2029,"z":2030,"Co":2031,"siempre":2032,"##ferencia":2033,"##ea":2034,"##pu":2035,"norm":2036,"cono":2037,"##ór":2038,"##aré":2039,"Estoy":2040,"ún":2041,"##anos":2042,"proce":2043,"tem":2044,"días":2045,"repres":2046,"prote":2047,"Sab":2048,"Ahora":2049,"contin":2050,"especi":2051,"##uso":2052,"siento":2053,"esper":2054,"Oh":2055,"##versi":2056,"##duci":2057,"comple":2058,"apo":2059,"##ticas":2060,"198":2061,"##uc":2062,"financi":2063,"16":2064,"dec":2065,"encuent":2066,"respec":2067,"##acionales":2068,"##ger":2069,"##ala":2070,"primer":2071,"Este":2072,"comer":2073,"otras":2074,"núm":2075,"primera":2076,"##lares":2077,"cómo":2078,"##lor":2079,"ado":2080,"Car":2081,"ofici":2082,"13":2083,"##fr":2084,"fal":2085,"##eci":2086,"##th":2087,"General":2088,"all":2089,"He":2090,"##abili":2091,"##dera":2092,"nin":2093,"hist":2094,"##val":2095,"##ich":2096,"##ición":2097,"Esto":2098,"contro":2099,"##tud":2100,"30":2101,"##ex":2102,"Ro":2103,"Señ":2104,"san":2105,"##vos":2106,"##íst":2107,"##aran":2108,"noche":2109,"val":2110,"estos":2111,"dici":2112,"voy":2113,"gente":2114,"Estado":2115,"sistema":2116,"peque":2117,"##gres":2118,"exist":2119,"derechos":2120,"respon":2121,"##dado":2122,"fr":2123,"##rar":2124,"hablar":2125,"tienes":2126,"Naciones":2127,"##lio":2128,"##unidad":2129,"14":2130,"tras":2131,"noso":2132,"Hay":2133,"##ál":2134,"Ex":2135,"##ne":2136,"##chas":2137,"op":2138,"permi":2139,"##lu":2140,"quien":2141,"##ré":2142,"Unidas":2143,"Como":2144,"din":2145,"##cel":2146,"##ior":2147,"especial":2148,"eres":2149,"perío":2150,"##ité":2151,"bus":2152,"nivel":2153,"##ya":2154,"conoci":2155,"Cuando":2156,"cier":2157,"##bili":2158,"##len":2159,"medidas":2160,"##isto":2161,"enti":2162,"##estión":2163,"nosotros":2164,"##ús":2165,"dar":2166,"Cor":2167,"##form":2168,"Sin":2169,"estas":2170,"fuera":2171,"loc":2172,"Am":2173,"##and":2174,"Fran":2175,"dej":2176,"##cil":2177,"Inter":2178,"tienen":2179,"dijo":2180,"medio":2181,"ce":2182,"##ES":2183,"adop":2184,"nunca":2185,"##ducción":2186,"segui":2187,"##puesta":2188,"pasa":2189,"Tengo":2190,"##rad":2191,"##demos":2192,"Reglamento":2193,"##vas":2194,"##ye":2195,"Entonces":2196,"general":2197,"##tener":2198,"derecho":2199,"##termin":2200,"##porte":2201,"##adie":2202,"inte":2203,"##ctu":2204,"##ables":2205,"##oria":2206,"##ios":2207,"##fo":2208,"programa":2209,"padre":2210,"herman":2211,"##gni":2212,"##lig":2213,"##all":2214,"##ier":2215,"cont":2216,"bo":2217,"será":2218,"gan":2219,"##entras":2220,"ahí":2221,"ban":2222,"vo":2223,"elec":2224,"administ":2225,"##peración":2226,"##cular":2227,"##tri":2228,"vamos":2229,"##dor":2230,"condi":2231,"##blic":2232,"manera":2233,"##unque":2234,"presente":2235,"estableci":2236,"pal":2237,"##ensa":2238,"vuel":2239,"alguien":2240,"recon":2241,"ide":2242,"##ion":2243,"funcion":2244,"##tores":2245,"##tido":2246,"##uir":2247,"período":2248,"ale":2249,"investi":2250,"gu":2251,"Ser":2252,"Sólo":2253,"##ice":2254,"entonces":2255,"leg":2256,"##icia":2257,"particip":2258,"cualquier":2259,"ins":2260,"Comité":2261,"int":2262,"orden":2263,"seguridad":2264,"difer":2265,"entr":2266,"anti":2267,"familia":2268,"##torio":2269,"##vención":2270,"Tu":2271,"número":2272,"000":2273,"persona":2274,"creo":2275,"pobl":2276,"##CI":2277,"informe":2278,"profes":2279,"##eras":2280,"##fe":2281,"cara":2282,"aplicación":2283,"determin":2284,"sabes":2285,"preo":2286,"servicios":2287,"##izo":2288,"escri":2289,"imp":2290,"mill":2291,"importante":2292,"##anza":2293,"nuestro":2294,"##ormi":2295,"dentro":2296,"recur":2297,"realiz":2298,"##bles":2299,"##men":2300,"compe":2301,"##ial":2302,"económ":2303,"##visión":2304,"##ombres":2305,"##ciales":2306,"punto":2307,"##dan":2308,"embar":2309,"termin":2310,"mé":2311,"dinero":2312,"poder":2313,"##siones":2314,"##atro":2315,"##laro":2316,"Estás":2317,"total":2318,"##tención":2319,"hijo":2320,"podría":2321,"##abor":2322,"represent":2323,"reun":2324,"lar":2325,"Esp":2326,"exper":2327,"##ecre":2328,"25":2329,"niños":2330,"puedes":2331,"##hi":2332,"hacia":2333,"solici":2334,"##ez":2335,"##jas":2336,"igu":2337,"##fi":2338,"tenemos":2339,"##ard":2340,"política":2341,"Sal":2342,"Señor":2343,"extra":2344,"tenía":2345,"Artículo":2346,"##ves":2347,"ses":2348,"##ible":2349,"##bido":2350,"fueron":2351,"##respon":2352,"ayuda":2353,"just":2354,"Tú":2355,"Mu":2356,"interes":2357,"Creo":2358,"af":2359,"actividades":2360,"novi":2361,"escu":2362,"Quién":2363,"##tando":2364,"bajo":2365,"estudi":2366,"nuestra":2367,"quieres":2368,"##íamos":2369,"##ticos":2370,"seman":2371,"##uros":2372,"emple":2373,"abri":2374,"bar":2375,"##glo":2376,"mor":2377,"sector":2378,"ante":2379,"##ER":2380,"Ad":2381,"dispos":2382,"edi":2383,"Ade":2384,"##écn":2385,"Ba":2386,"personal":2387,"##vir":2388,"##ital":2389,"clas":2390,"haciendo":2391,"cin":2392,"##gor":2393,"##ándo":2394,"proyecto":2395,"CO":2396,"veces":2397,"signi":2398,"uni":2399,"ayudar":2400,"public":2401,"##ase":2402,"##terior":2403,"##ban":2404,"vis":2405,"necesit":2406,"ag":2407,"lim":2408,"mujeres":2409,"euro":2410,"##ral":2411,"##bri":2412,"Unión":2413,"correspon":2414,"embargo":2415,"jun":2416,"Li":2417,"##vil":2418,"Or":2419,"Europea":2420,"internacional":2421,"gener":2422,"##ñana":2423,"##óg":2424,"docu":2425,"dicho":2426,"DO":2427,"##mientos":2428,"dice":2429,"##rado":2430,"##ental":2431,"vas":2432,"##vía":2433,"utiliz":2434,"siguiente":2435,"posible":2436,"mas":2437,"unos":2438,"millones":2439,"respecto":2440,"sa":2441,"##tario":2442,"ases":2443,"grupo":2444,"relación":2445,"Bar":2446,"má":2447,"Soy":2448,"##alizar":2449,"##echa":2450,"diciembre":2451,"for":2452,"quiere":2453,"##osa":2454,"previ":2455,"hoy":2456,"##iciones":2457,"Quiero":2458,"gas":2459,"##ápi":2460,"quién":2461,"##uerra":2462,"##dida":2463,"cele":2464,"##uela":2465,"##inas":2466,"cosa":2467,"##irm":2468,"##OS":2469,"##ques":2470,"##ono":2471,"hizo":2472,"Fue":2473,"ejemp":2474,"luego":2475,"##bas":2476,"##abilidad":2477,"algunos":2478,"continu":2479,"Dónde":2480,"##oma":2481,"##stas":2482,"final":2483,"##bor":2484,"ley":2485,"saber":2486,"parece":2487,"##EN":2488,"madre":2489,"##ual":2490,"##bol":2491,"problema":2492,"##imi":2493,"ho":2494,"##istas":2495,"dejar":2496,"También":2497,"##mis":2498,"Rec":2499,"tendr":2500,"##alo":2501,"##ización":2502,"Presidente":2503,"situación":2504,"pod":2505,"##ública":2506,"##iste":2507,"control":2508,"##dir":2509,"garan":2510,"dese":2511,"inici":2512,"##pá":2513,"##ciden":2514,"21":2515,"##mentos":2516,"##bajo":2517,"##xto":2518,"be":2519,"equipo":2520,"datos":2521,"particular":2522,"##son":2523,"ele":2524,"##eo":2525,"obs":2526,"estamos":2527,"mientras":2528,"horas":2529,"conti":2530,"##edad":2531,"##ura":2532,"##erda":2533,"22":2534,"Ven":2535,"bueno":2536,"agua":2537,"habl":2538,"##ódi":2539,"##vin":2540,"puer":2541,"##zos":2542,"##tific":2543,"allí":2544,"24":2545,"##señ":2546,"##pti":2547,"##segui":2548,"##inación":2549,"Segu":2550,"tarde":2551,"dif":2552,"##tera":2553,"declar":2554,"##ama":2555,"##ítu":2556,"amigo":2557,"nego":2558,"##tis":2559,"##lante":2560,"##ria":2561,"##ill":2562,"liber":2563,"##bilidad":2564,"natur":2565,"##paña":2566,"hombres":2567,"##fico":2568,"espec":2569,"misma":2570,"impor":2571,"Rep":2572,"productos":2573,"sue":2574,"problemas":2575,"Todo":2576,"gracias":2577,"modi":2578,"diri":2579,"##vers":2580,"igual":2581,"caus":2582,"Pre":2583,"Cas":2584,"##tante":2585,"capaci":2586,"respons":2587,"##AR":2588,"pueb":2589,"Direc":2590,"mañana":2591,"compro":2592,"Hab":2593,"técn":2594,"##dial":2595,"nacional":2596,"terri":2597,"resolución":2598,"##encias":2599,"razón":2600,"procedi":2601,"exam":2602,"ru":2603,"encontrar":2604,"minu":2605,"base":2606,"const":2607,"arre":2608,"inst":2609,"##dose":2610,"acer":2611,"Man":2612,"Pe":2613,"humanos":2614,"Mira":2615,"ori":2616,"población":2617,"palab":2618,"##arán":2619,"tus":2620,"##cional":2621,"##arlo":2622,"##ría":2623,"Mo":2624,"dónde":2625,"Nos":2626,"condiciones":2627,"##lec":2628,"dispon":2629,"##diente":2630,"Dis":2631,"eran":2632,"Res":2633,"##tada":2634,"nadie":2635,"desa":2636,"comunic":2637,"Porque":2638,"##vés":2639,"regi":2640,"##guna":2641,"Mon":2642,"coo":2643,"llegar":2644,"##imo":2645,"aque":2646,"alcan":2647,"Unidos":2648,"volver":2649,"institu":2650,"esos":2651,"##ris":2652,"historia":2653,"Has":2654,"apartado":2655,"##logía":2656,"##zó":2657,"Ni":2658,"Bo":2659,"habit":2660,"##gó":2661,"##jes":2662,"aún":2663,"##orte":2664,"##litar":2665,"Tienes":2666,"buena":2667,"##AS":2668,"##ha":2669,"ampli":2670,"aprob":2671,"Sabes":2672,"social":2673,"##dust":2674,"##rección":2675,"##ror":2676,"##icía":2677,"viol":2678,"##amá":2679,"##ám":2680,"##pios":2681,"2006":2682,"lado":2683,"Gobierno":2684,"##gre":2685,"seguro":2686,"##bir":2687,"tor":2688,"incluy":2689,"defin":2690,"cuan":2691,"31":2692,"República":2693,"pasado":2694,"prepar":2695,"mediante":2696,"haya":2697,"##ry":2698,"Ella":2699,"2005":2700,"meses":2701,"##til":2702,"Intern":2703,"prác":2704,"23":2705,"##erra":2706,"Secre":2707,"cabe":2708,"hora":2709,"##pel":2710,"Du":2711,"##pre":2712,"agr":2713,"proceso":2714,"som":2715,"##acio":2716,"Muy":2717,"través":2718,"cir":2719,"muchos":2720,"siendo":2721,"##ecer":2722,"distin":2723,"empe":2724,"podemos":2725,"##cal":2726,"##und":2727,"Na":2728,"##ficiente":2729,"hici":2730,"apoyo":2731,"Fe":2732,"oport":2733,"encontr":2734,"##quiera":2735,"jo":2736,"sabe":2737,"prue":2738,"##icip":2739,"segundo":2740,"oper":2741,"Cent":2742,"mercado":2743,"nueva":2744,"##íc":2745,"Son":2746,"##entas":2747,"deben":2748,"##tamento":2749,"##ut":2750,"rápi":2751,"acab":2752,"ren":2753,"##zado":2754,"##echos":2755,"ejemplo":2756,"idea":2757,"Neces":2758,"Eres":2759,"ello":2760,"##pas":2761,"preocup":2762,"##arme":2763,"2000":2764,"enfer":2765,"julio":2766,"##dencia":2767,"##migo":2768,"ejec":2769,"visto":2770,"cumpli":2771,"evi":2772,"recom":2773,"2004":2774,"tri":2775,"Do":2776,"##olu":2777,"significa":2778,"Además":2779,"##mple":2780,"cuatro":2781,"##cto":2782,"inclui":2783,"empresa":2784,"zona":2785,"Ve":2786,"asist":2787,"junio":2788,"##tel":2789,"Min":2790,"hacerlo":2791,"pel":2792,"##end":2793,"presu":2794,"Ale":2795,"inde":2796,"##sto":2797,"consider":2798,"##idos":2799,"Is":2800,"##inar":2801,"##versidad":2802,"aunque":2803,"26":2804,"Aquí":2805,"según":2806,"amor":2807,"auto":2808,"Comunidad":2809,"Ac":2810,"##iado":2811,"II":2812,"Mun":2813,"Da":2814,"regres":2815,"gusta":2816,"compañ":2817,"sos":2818,"cuer":2819,"matar":2820,"os":2821,"recursos":2822,"is":2823,"##AD":2824,"sino":2825,"Ley":2826,"##ional":2827,"mater":2828,"logr":2829,"uso":2830,"expres":2831,"##valu":2832,"##onto":2833,"Nunca":2834,"##segu":2835,"lí":2836,"##ric":2837,"afec":2838,"ata":2839,"##AN":2840,"##ñas":2841,"##lación":2842,"##tamiento":2843,"pie":2844,"acep":2845,"##pro":2846,"siguientes":2847,"Nue":2848,"esf":2849,"Ofici":2850,"Ne":2851,"##rió":2852,"fran":2853,"sac":2854,"##esta":2855,"Gu":2856,"ambi":2857,"encuentra":2858,"alguna":2859,"valor":2860,"paz":2861,"demas":2862,"lín":2863,"##ológ":2864,"euros":2865,"##exo":2866,"bene":2867,"##té":2868,"##ribun":2869,"ur":2870,"##cor":2871,"##ho":2872,"programas":2873,"##cimiento":2874,"muerte":2875,"materi":2876,"sen":2877,"via":2878,"##bern":2879,"sex":2880,"partes":2881,"promo":2882,"##bra":2883,"último":2884,"instru":2885,"envi":2886,"guerra":2887,"protección":2888,"ol":2889,"##rando":2890,"pár":2891,"##ítulo":2892,"2003":2893,"2001":2894,"mío":2895,"Lu":2896,"##CE":2897,"Der":2898,"esas":2899,"##tidad":2900,"regist":2901,"sur":2902,"Tiene":2903,"atra":2904,"conven":2905,"Todos":2906,"ocur":2907,"fo":2908,"CEE":2909,"Hu":2910,"gen":2911,"conmigo":2912,"2002":2913,"cui":2914,"fon":2915,"50":2916,"Europa":2917,"Solo":2918,"##alización":2919,"europe":2920,"espos":2921,"Pol":2922,"##ern":2923,"##ias":2924,"Mal":2925,"plazo":2926,"##erte":2927,"pen":2928,"28":2929,"partir":2930,"##ag":2931,"dó":2932,"quedar":2933,"acu":2934,"administra":2935,"observ":2936,"fund":2937,"##ducación":2938,"comen":2939,"cli":2940,"largo":2941,"##eta":2942,"algunas":2943,"compar":2944,"##ducir":2945,"pien":2946,"ór":2947,"noviembre":2948,"encar":2949,"enero":2950,"Tenemos":2951,"invi":2952,"contrib":2953,"investigación":2954,"debería":2955,"único":2956,"cambio":2957,"##tivamente":2958,"ejer":2959,"##toria":2960,"nacionales":2961,"policía":2962,"constitu":2963,"##tió":2964,"cerca":2965,"gobierno":2966,"##id":2967,"Parlamento":2968,"##dico":2969,"##rate":2970,"##gro":2971,"hemos":2972,"soci":2973,"##éj":2974,"Pri":2975,"intent":2976,"##dí":2977,"29":2978,"##clu":2979,"Europeo":2980,"servicio":2981,"##oh":2982,"tec":2983,"camino":2984,"##ell":2985,"##emas":2986,"indust":2987,"##iencia":2988,"dije":2989,"Cam":2990,"##llos":2991,"Can":2992,"##aya":2993,"decisión":2994,"común":2995,"qu":2996,"##fa":2997,"ofre":2998,"frente":2999,"importa":3000,"manten":3001,"##imiento":3002,"empresas":3003,"##inos":3004,"2008":3005,"##ctubre":3006,"##bos":3007,"marzo":3008,"cinco":3009,"##tio":3010,"constru":3011,"##ares":3012,"trata":3013,"##tá":3014,"cierto":3015,"jur":3016,"legis":3017,"##ts":3018,"mayo":3019,"##entales":3020,"##unci":3021,"##aste":3022,"##amble":3023,"##tion":3024,"##remos":3025,"sería":3026,"Voy":3027,"conj":3028,"##gles":3029,"fá":3030,"Oye":3031,"##eric":3032,"consegui":3033,"labor":3034,"sesiones":3035,"tempor":3036,"grandes":3037,"miembro":3038,"vie":3039,"centro":3040,"##ches":3041,"##rán":3042,"materia":3043,"cooperación":3044,"##rea":3045,"##cito":3046,"anim":3047,"conten":3048,"##ptiembre":3049,"trad":3050,"movi":3051,"##diendo":3052,"Sa":3053,"evalu":3054,"##trás":3055,"cur":3056,"Vi":3057,"salud":3058,"##iene":3059,"junto":3060,"necesario":3061,"Col":3062,"municip":3063,"fecha":3064,"##mbi":3065,"dólares":3066,"cabeza":3067,"octubre":3068,"propor":3069,"nuestros":3070,"relacion":3071,"100":3072,"##tón":3073,"diver":3074,"celebr":3075,"suce":3076,"##zá":3077,"ener":3078,"consec":3079,"utili":3080,"modo":3081,"##amblea":3082,"demasiado":3083,"serio":3084,"casos":3085,"garanti":3086,"tomar":3087,"##cin":3088,"##ormidad":3089,"##ág":3090,"##ífic":3091,"Fin":3092,"priv":3093,"pueblo":3094,"##udi":3095,"##efe":3096,"gol":3097,"demás":3098,"mayoría":3099,"serie":3100,"secre":3101,"pueda":3102,"contigo":3103,"##turas":3104,"real":3105,"##don":3106,"cuar":3107,"##llas":3108,"producción":3109,"##dito":3110,"cora":3111,"septiembre":3112,"##ula":3113,"alim":3114,"comunit":3115,"##edes":3116,"##partamento":3117,"ries":3118,"muchas":3119,"marco":3120,"mucha":3121,"oí":3122,"mencion":3123,"benefici":3124,"enten":3125,"##ler":3126,"Quieres":3127,"casi":3128,"van":3129,"pelícu":3130,"The":3131,"sali":3132,"pró":3133,"puesto":3134,"Ho":3135,"Ban":3136,"algún":3137,"además":3138,"##bió":3139,"conformidad":3140,"sentido":3141,"##icamente":3142,"salir":3143,"##tán":3144,"ocup":3145,"##ima":3146,"Ter":3147,"atención":3148,"vir":3149,"poner":3150,"Sh":3151,"er":3152,"##tran":3153,"##char":3154,"cr":3155,"##ire":3156,"suficiente":3157,"##brero":3158,"Puedo":3159,"rad":3160,"normas":3161,"Gran":3162,"ningún":3163,"Ob":3164,"semana":3165,"diferentes":3166,"##mar":3167,"ev":3168,"realidad":3169,"Ru":3170,"##ific":3171,"armas":3172,"##inado":3173,"196":3174,"asegu":3175,"abril":3176,"Asamblea":3177,"libre":3178,"lista":3179,"##AL":3180,"Desp":3181,"##tom":3182,"última":3183,"público":3184,"pasó":3185,"Grupo":3186,"##chi":3187,"máxim":3188,"realmente":3189,"##onales":3190,"incluso":3191,"ninguna":3192,"at":3193,"conte":3194,"quería":3195,"pasar":3196,"##gia":3197,"##cis":3198,"blan":3199,"amigos":3200,"capacidad":3201,"hubi":3202,"##OR":3203,"Tom":3204,"llevar":3205,"estru":3206,"Ay":3207,"Minist":3208,"acceso":3209,"tér":3210,"##uido":3211,"Deci":3212,"2010":3213,"minutos":3214,"obli":3215,"hermano":3216,"Desde":3217,"supon":3218,"objetivo":3219,"asoci":3220,"##ap":3221,"cuestión":3222,"##ON":3223,"##gl":3224,"consul":3225,"refi":3226,"##cidad":3227,"difí":3228,"España":3229,"##adamente":3230,"pan":3231,"ámbi":3232,"iden":3233,"descu":3234,"considera":3235,"señal":3236,"enseñ":3237,"cuesti":3238,"perman":3239,"##dientes":3240,"##érica":3241,"40":3242,"formación":3243,"gru":3244,"tele":3245,"##oc":3246,"the":3247,"orig":3248,"##ribunal":3249,"olvi":3250,"##IC":3251,"Ci":3252,"agu":3253,"supuesto":3254,"gestión":3255,"región":3256,"tierra":3257,"Podr":3258,"1999":3259,"##var":3260,"Claro":3261,"disposiciones":3262,"##taría":3263,"mano":3264,"##gada":3265,"##alia":3266,"lan":3267,"conver":3268,"varios":3269,"faci":3270,"##sted":3271,"UN":3272,"regu":3273,"Catal":3274,"figu":3275,"Ver":3276,"compren":3277,"##lica":3278,"internacionales":3279,"próxim":3280,"principal":3281,"##tadas":3282,"Nacional":3283,"confi":3284,"calidad":3285,"##éis":3286,"organizaciones":3287,"cuanto":3288,"Sé":3289,"mos":3290,"##tencia":3291,"go":3292,"2009":3293,"jue":3294,"respe":3295,"cuerpo":3296,"Usted":3297,"efectos":3298,"párra":3299,"primero":3300,"reco":3301,"adi":3302,"##ile":3303,"##cent":3304,"tema":3305,"vista":3306,"seguir":3307,"debido":3308,"Internacional":3309,"Después":3310,"##leg":3311,"papel":3312,"##stan":3313,"prob":3314,"##rin":3315,"cate":3316,"origin":3317,"estre":3318,"hac":3319,"españ":3320,"##ismos":3321,"tuvo":3322,"vig":3323,"##cepto":3324,"propuesta":3325,"Era":3326,"Har":3327,"Ese":3328,"todavía":3329,"niño":3330,"ustedes":3331,"Deb":3332,"##turo":3333,"cabo":3334,"realizar":3335,"términ":3336,"##ID":3337,"resultados":3338,"hijos":3339,"##cando":3340,"##ohn":3341,"medios":3342,"juego":3343,"##dero":3344,"##adora":3345,"##gel":3346,"Nueva":3347,"##ablemente":3348,"##abas":3349,"políticas":3350,"línea":3351,"Directiva":3352,"grupos":3353,"Ra":3354,"reconoci":3355,"##mer":3356,"jurí":3357,"##bic":3358,"mús":3359,"conce":3360,"sigue":3361,"##quisi":3362,"mues":3363,"##oles":3364,"fundam":3365,"##tec":3366,"##ple":3367,"##sia":3368,"incre":3369,"Espera":3370,"elem":3371,"modific":3372,"esfuer":3373,"podrá":3374,"adecu":3375,"siglo":3376,"instal":3377,"##puestas":3378,"##gim":3379,"haces":3380,"acerca":3381,"##gido":3382,"mierda":3383,"##unta":3384,"anexo":3385,"apren":3386,"Mé":3387,"##ísticas":3388,"falta":3389,"encan":3390,"##lie":3391,"procedimiento":3392,"##ff":3393,"##teriores":3394,"##her":3395,"##com":3396,"temp":3397,"unas":3398,"puerta":3399,"##bia":3400,"mode":3401,"Seguridad":3402,"Val":3403,"chica":3404,"segunda":3405,"cl":3406,"educación":3407,"cru":3408,"vac":3409,"suf":3410,"grande":3411,"##tic":3412,"consecuen":3413,"Secretario":3414,"perten":3415,"elabor":3416,"##eas":3417,"deba":3418,"pudi":3419,"manos":3420,"prome":3421,"clase":3422,"vari":3423,"Tal":3424,"febrero":3425,"trabajadores":3426,"proyectos":3427,"militar":3428,"##ese":3429,"asistencia":3430,"carac":3431,"##ron":3432,"sociedad":3433,"principio":3434,"muerto":3435,"##una":3436,"Estamos":3437,"##dedor":3438,"##má":3439,"corazón":3440,"##UR":3441,"noti":3442,"##bur":3443,"der":3444,"##ly":3445,"esté":3446,"edad":3447,"mantener":3448,"##erva":3449,"##orn":3450,"##pción":3451,"mani":3452,"precios":3453,"interés":3454,"medida":3455,"participación":3456,"naci":3457,"##posición":3458,"claro":3459,"trabajar":3460,"tel":3461,"hija":3462,"acción":3463,"##gosto":3464,"indepen":3465,"Tratado":3466,"autoridades":3467,"difícil":3468,"##adres":3469,"##monio":3470,"superior":3471,"##zco":3472,"##lado":3473,"recu":3474,"##gimen":3475,"única":3476,"opin":3477,"##lub":3478,"nuevos":3479,"##ificación":3480,"arri":3481,"##égimen":3482,"ubic":3483,"cargo":3484,"futuro":3485,"##dic":3486,"actividad":3487,"fra":3488,"##eno":3489,"conta":3490,"##umi":3491,"proporcion":3492,"##miso":3493,"bri":3494,"dispar":3495,"guar":3496,"##este":3497,"objetivos":3498,"seis":3499,"ingres":3500,"Cap":3501,"nuevas":3502,"objeto":3503,"organización":3504,"especialmente":3505,"fuerte":3506,"propie":3507,"##IS":3508,"bi":3509,"##culo":3510,"oportunidad":3511,"##imos":3512,"fácil":3513,"##dica":3514,"Sra":3515,"##enso":3516,"Nada":3517,"##bres":3518,"##just":3519,"##omía":3520,"Ap":3521,"##ormente":3522,"ES":3523,"esposa":3524,"tenido":3525,"##via":3526,"luz":3527,"##ariño":3528,"obst":3529,"Puede":3530,"necesidad":3531,"agosto":3532,"##illa":3533,"Déj":3534,"##cido":3535,"##aremos":3536,"párrafo":3537,"papá":3538,"refer":3539,"espera":3540,"visit":3541,"habían":3542,"##tida":3543,"##rera":3544,"Durante":3545,"mín":3546,"alto":3547,"##ándose":3548,"##estr":3549,"##anas":3550,"obra":3551,"mamá":3552,"gri":3553,"cuestiones":3554,"dio":3555,"cuales":3556,"##gamos":3557,"norte":3558,"simple":3559,"titu":3560,"##dó":3561,"aument":3562,"hos":3563,"dado":3564,"##ósi":3565,"60":3566,"pronto":3567,"abs":3568,"tecno":3569,"correc":3570,"reunión":3571,"##olver":3572,"tuvi":3573,"importancia":3574,"dirección":3575,"##ácter":3576,"ojos":3577,"and":3578,"abier":3579,"pág":3580,"##gencia":3581,"principales":3582,"mec":3583,"carácter":3584,"##entar":3585,"##edo":3586,"paci":3587,"##ny":3588,"hon":3589,"perio":3590,"pequeño":3591,"sistemas":3592,"categor":3593,"tercer":3594,"Inform":3595,"puntos":3596,"Deber":3597,"película":3598,"presidente":3599,"avan":3600,"##cipios":3601,"vin":3602,"desi":3603,"éx":3604,"conci":3605,"ejerci":3606,"relativa":3607,"Puedes":3608,"Plan":3609,"profesional":3610,"capital":3611,"prof":3612,"##tric":3613,"cré":3614,"##zás":3615,"Estaba":3616,"conocer":3617,"##tículos":3618,"##uelo":3619,"##teriormente":3620,"recor":3621,"energía":3622,"##ty":3623,"Siempre":3624,"inicia":3625,"régimen":3626,"actual":3627,"##glesia":3628,"##ódigo":3629,"efecto":3630,"fa":3631,"posición":3632,"sor":3633,"perfec":3634,"colabor":3635,"inme":3636,"distrib":3637,"##omin":3638,"veo":3639,"estudio":3640,"sangre":3641,"##eran":3642,"ámbito":3643,"cali":3644,"caracter":3645,"arti":3646,"##dón":3647,"propia":3648,"##bal":3649,"##zada":3650,"aspec":3651,"##udo":3652,"ta":3653,"##ph":3654,"LA":3655,"Mundial":3656,"##bé":3657,"##oro":3658,"Vale":3659,"crees":3660,"paso":3661,"Pas":3662,"tro":3663,"##erio":3664,"allá":3665,"pin":3666,"estruc":3667,"Escu":3668,"sitio":3669,"órgan":3670,"len":3671,"UE":3672,"propio":3673,"##eme":3674,"Universidad":3675,"##gida":3676,"juntos":3677,"Según":3678,"##IN":3679,"##ira":3680,"##gando":3681,"195":3682,"194":3683,"respuesta":3684,"##eren":3685,"creación":3686,"et":3687,"entrar":3688,"verda":3689,"##amientos":3690,"Esa":3691,"Organ":3692,"##cina":3693,"##mania":3694,"##arte":3695,"operaciones":3696,"importantes":3697,"edifici":3698,"comb":3699,"llamado":3700,"Convención":3701,"sean":3702,"anterior":3703,"##quer":3704,"hablando":3705,"depen":3706,"32":3707,"Lle":3708,"Decisión":3709,"rápido":3710,"creer":3711,"Pues":3712,"suerte":3713,"Sus":3714,"##grama":3715,"Tribunal":3716,"desem":3717,"dele":3718,"##uan":3719,"siquiera":3720,"##isis":3721,"##xico":3722,"##ritu":3723,"negoci":3724,"##cados":3725,"##rio":3726,"##frica":3727,"explic":3728,"##vent":3729,"##có":3730,"alma":3731,"Más":3732,"escuela":3733,"Au":3734,"##tía":3735,"##tiendo":3736,"apoy":3737,"bor":3738,"limit":3739,"palabra":3740,"chico":3741,"resto":3742,"comunidad":3743,"cuad":3744,"##ífico":3745,"morir":3746,"##taria":3747,"varias":3748,"instituciones":3749,"##ecen":3750,"##fía":3751,"necesito":3752,"función":3753,"35":3754,"##tales":3755,"campo":3756,"tipos":3757,"Econ":3758,"bastante":3759,"estaban":3760,"buscar":3761,"joven":3762,"##gent":3763,"##diós":3764,"elim":3765,"##jiste":3766,"iba":3767,"Go":3768,"arm":3769,"principios":3770,"acuer":3771,"##taciones":3772,"venta":3773,"##grá":3774,"bal":3775,"##bu":3776,"recomend":3777,"coord":3778,"enfr":3779,"Her":3780,"##taron":3781,"gustaría":3782,"calle":3783,"conseguir":3784,"empleo":3785,"##ánto":3786,"Nues":3787,"Aunque":3788,"oblig":3789,"volun":3790,"##entemente":3791,"sociales":3792,"provin":3793,"hubiera":3794,"Quer":3795,"detal":3796,"come":3797,"fre":3798,"##entación":3799,"Entre":3800,"ocas":3801,"acom":3802,"##later":3803,"padres":3804,"fil":3805,"##sas":3806,"artículos":3807,"##puestos":3808,"##dente":3809,"##rido":3810,"podía":3811,"##cionales":3812,"transporte":3813,"##dición":3814,"terror":3815,"lucha":3816,"fac":3817,"hacen":3818,"1998":3819,"Francia":3820,"##jero":3821,"gén":3822,"##ley":3823,"alre":3824,"exac":3825,"##ienda":3826,"##ACI":3827,"queda":3828,"chicos":3829,"##gados":3830,"miedo":3831,"estudios":3832,"##dados":3833,"dormi":3834,"##ró":3835,"palabras":3836,"##iso":3837,"espacio":3838,"conflic":3839,"##éf":3840,"corre":3841,"referencia":3842,"comien":3843,"oficial":3844,"Sol":3845,"##ícti":3846,"##itán":3847,"zonas":3848,"##onia":3849,"pregunta":3850,"enferme":3851,"##gir":3852,"##álisis":3853,"rey":3854,"##mor":3855,"##día":3856,"Th":3857,"##pul":3858,"mensa":3859,"digo":3860,"##dores":3861,"##deo":3862,"pública":3863,"esca":3864,"local":3865,"Im":3866,"##ielo":3867,"##nas":3868,"utilizar":3869,"2011":3870,"Cal":3871,"libro":3872,"##rada":3873,"Conven":3874,"arreglo":3875,"##dez":3876,"Don":3877,"ellas":3878,"tam":3879,"jefe":3880,"texto":3881,"pesar":3882,"##tero":3883,"Oficina":3884,"##vió":3885,"BCE":3886,"bás":3887,"separ":3888,"prueba":3889,"##guen":3890,"##glés":3891,"##ército":3892,"fui":3893,"##mes":3894,"intro":3895,"inver":3896,"Pens":3897,"##ENT":3898,"venir":3899,"incor":3900,"sabía":3901,"PR":3902,"VI":3903,"Gre":3904,"libertad":3905,"Dan":3906,"##vidu":3907,"pobre":3908,"Tran":3909,"descri":3910,"domin":3911,"partido":3912,"bol":3913,"vícti":3914,"##ilo":3915,"Parece":3916,"integr":3917,"resultado":3918,"##bamos":3919,"fuerza":3920,"riesgo":3921,"especie":3922,"##tarse":3923,"vivir":3924,"dic":3925,"fir":3926,"##esión":3927,"comunicación":3928,"vuelta":3929,"pl":3930,"##gración":3931,"Hasta":3932,"dé":3933,"Han":3934,"##trón":3935,"##drá":3936,"##ística":3937,"viene":3938,"##osas":3939,"aband":3940,"necesita":3941,"Departamento":3942,"Mor":3943,"México":3944,"firm":3945,"música":3946,"Ud":3947,"Yor":3948,"##uña":3949,"partici":3950,"cole":3951,"establecer":3952,"##eb":3953,"##uda":3954,"éxito":3955,"individu":3956,"últimos":3957,"Les":3958,"gastos":3959,"Ta":3960,"##ibles":3961,"capa":3962,"nuestras":3963,"conjunto":3964,"interpre":3965,"hice":3966,"##rue":3967,"##leo":3968,"agra":3969,"evaluación":3970,"económica":3971,"##ner":3972,"##uera":3973,"tur":3974,"##cam":3975,"garantizar":3976,"fab":3977,"Ge":3978,"raz":3979,"pensar":3980,"amena":3981,"circ":3982,"##AM":3983,"concre":3984,"##lí":3985,"progres":3986,"contar":3987,"##osotros":3988,"Desarro":3989,"cantidad":3990,"##tina":3991,"recuer":3992,"hom":3993,"escuch":3994,"pagar":3995,"antigu":3996,"necesidades":3997,"Mad":3998,"##itos":3999,"estad":4000,"##od":4001,"tratamiento":4002,"##taba":4003,"##uicio":4004,"##acia":4005,"Derechos":4006,"Barcel":4007,"90":4008,"##uales":4009,"##ucle":4010,"acciones":4011,"##table":4012,"##didas":4013,"Ej":4014,"pequeña":4015,"Comun":4016,"Espe":4017,"Bas":4018,"estuvi":4019,"territorio":4020,"Social":4021,"teléf":4022,"Reino":4023,"##mán":4024,"dro":4025,"destac":4026,"ambiente":4027,"##manos":4028,"causa":4029,"az":4030,"Ben":4031,"COM":4032,"##cepción":4033,"avi":4034,"##damente":4035,"crí":4036,"disf":4037,"Ab":4038,"municipio":4039,"proces":4040,"llama":4041,"construcción":4042,"sec":4043,"##gon":4044,"il":4045,"reform":4046,"ejecu":4047,"CON":4048,"193":4049,"documento":4050,"clar":4051,"viejo":4052,"foto":4053,"##usión":4054,"demo":4055,"estrate":4056,"méto":4057,"tenga":4058,"##rados":4059,"##óven":4060,"Prim":4061,"cient":4062,"Estas":4063,"Pon":4064,"##gues":4065,"formas":4066,"río":4067,"Necesito":4068,"origen":4069,"adu":4070,"Cataluña":4071,"alter":4072,"golpe":4073,"exten":4074,"cla":4075,"##illo":4076,"##óvenes":4077,"Cons":4078,"ejecución":4079,"##au":4080,"evitar":4081,"interior":4082,"##poco":4083,"viv":4084,"peri":4085,"inglés":4086,"conside":4087,"multi":4088,"mundial":4089,"##uniden":4090,"It":4091,"Ste":4092,"Barcelona":4093,"##ír":4094,"Cri":4095,"Algun":4096,"contr":4097,"Acuerdo":4098,"##log":4099,"Esper":4100,"Ori":4101,"arriba":4102,"Institu":4103,"alrededor":4104,"serán":4105,"Be":4106,"somos":4107,"##lin":4108,"América":4109,"sir":4110,"fís":4111,"inten":4112,"##tural":4113,"Desarrollo":4114,"##rito":4115,"experiencia":4116,"frecu":4117,"habitantes":4118,"extran":4119,"conocido":4120,"informes":4121,"Qu":4122,"mejorar":4123,"habla":4124,"explo":4125,"funciones":4126,"elementos":4127,"33":4128,"mil":4129,"impres":4130,"desapar":4131,"fron":4132,"##tente":4133,"refiere":4134,"demos":4135,"alta":4136,"posibilidad":4137,"##ime":4138,"##iente":4139,"ambos":4140,"abo":4141,"##EC":4142,"##sis":4143,"director":4144,"##lia":4145,"nave":4146,"ment":4147,"conserv":4148,"práctica":4149,"mus":4150,"archi":4151,"Convenio":4152,"relaciones":4153,"nom":4154,"Conferencia":4155,"##ular":4156,"Alemania":4157,"locales":4158,"Fon":4159,"haga":4160,"fondos":4161,"infl":4162,"fan":4163,"bro":4164,"examen":4165,"##are":4166,"##dap":4167,"estadouniden":4168,"éste":4169,"##tará":4170,"semanas":4171,"on":4172,"##acción":4173,"profun":4174,"satis":4175,"pruebas":4176,"industri":4177,"bon":4178,"45":4179,"Toda":4180,"cuarto":4181,"##gh":4182,"veh":4183,"superfici":4184,"##yó":4185,"Mis":4186,"ton":4187,"##tbol":4188,"Buenos":4189,"carrera":4190,"2012":4191,"justo":4192,"consigui":4193,"##pl":4194,"jóvenes":4195,"producto":4196,"puedan":4197,"llamada":4198,"ves":4199,"estuvo":4200,"##ete":4201,"EN":4202,"simi":4203,"##icul":4204,"establece":4205,"##ído":4206,"##torios":4207,"Dr":4208,"crecimiento":4209,"color":4210,"##tró":4211,"Del":4212,"num":4213,"señora":4214,"pele":4215,"##NU":4216,"ens":4217,"##culos":4218,"sola":4219,"competencia":4220,"coche":4221,"decisiones":4222,"noches":4223,"Adiós":4224,"continuación":4225,"mecan":4226,"##imismo":4227,"Nadie":4228,"obras":4229,"estim":4230,"##rael":4231,"##ería":4232,"##pol":4233,"##tien":4234,"sosten":4235,"título":4236,"Santa":4237,"##ramos":4238,"##cidente":4239,"ali":4240,"ajust":4241,"Char":4242,"esfuerzos":4243,"central":4244,"desarroll":4245,"##tantes":4246,"##uciones":4247,"perder":4248,"defini":4249,"##tate":4250,"obtener":4251,"responsabilidad":4252,"doctor":4253,"entien":4254,"##aro":4255,"##erro":4256,"Servi":4257,"destin":4258,"36":4259,"glo":4260,"Em":4261,"Sam":4262,"EL":4263,"peli":4264,"Administ":4265,"análisis":4266,"oc":4267,"refle":4268,"nucle":4269,"01":4270,"médico":4271,"red":4272,"80":4273,"tendrá":4274,"incorpor":4275,"##jado":4276,"entidades":4277,"abajo":4278,"plen":4279,"deberá":4280,"presupuesto":4281,"hosp":4282,"##dita":4283,"opinión":4284,"aproxim":4285,"adelante":4286,"banda":4287,"##crimin":4288,"diab":4289,"it":4290,"Tras":4291,"##alidades":4292,"##sion":4293,"Centro":4294,"aire":4295,"deman":4296,"emi":4297,"constr":4298,"##eció":4299,"##zan":4300,"prior":4301,"Esc":4302,"Uno":4303,"##dios":4304,"adap":4305,"diez":4306,"preocu":4307,"enci":4308,"##IT":4309,"##idencia":4310,"##by":4311,"Programa":4312,"moder":4313,"específic":4314,"Estos":4315,"bienes":4316,"gui":4317,"38":4318,"existe":4319,"asunto":4320,"lími":4321,"corri":4322,"vehícu":4323,"máximo":4324,"##qué":4325,"Económ":4326,"épo":4327,"##mul":4328,"mejores":4329,"toma":4330,"fis":4331,"IN":4332,"##stancias":4333,"teléfono":4334,"enter":4335,"entrada":4336,"##bum":4337,"imag":4338,"##dy":4339,"tales":4340,"usar":4341,"##ose":4342,"##jeros":4343,"aumento":4344,"género":4345,"virtud":4346,"pasando":4347,"legislación":4348,"entender":4349,"##aridad":4350,"##pia":4351,"mari":4352,"##tificación":4353,"viaje":4354,"oficina":4355,"##orme":4356,"crear":4357,"relativo":4358,"civil":4359,"##AT":4360,"##aleza":4361,"##talla":4362,"sentir":4363,"Tan":4364,"##land":4365,"pago":4366,"levan":4367,"produ":4368,"comercio":4369,"Bri":4370,"34":4371,"ál":4372,"temporada":4373,"obstante":4374,"fuerzas":4375,"ejercicio":4376,"fabric":4377,"área":4378,"norma":4379,"cariño":4380,"Aust":4381,"Tor":4382,"diciendo":4383,"admi":4384,"##ane":4385,"##éase":4386,"Dos":4387,"Quizá":4388,"##para":4389,"##osos":4390,"##pren":4391,"##rac":4392,"media":4393,"##ierra":4394,"quin":4395,"agrade":4396,"##dra":4397,"Hey":4398,"Necesit":4399,"metros":4400,"Pla":4401,"habría":4402,"##cra":4403,"vino":4404,"##zando":4405,"nota":4406,"hermos":4407,"atrás":4408,"proteger":4409,"48":4410,"peligr":4411,"fiesta":4412,"suje":4413,"permite":4414,"##cambi":4415,"##pular":4416,"pertin":4417,"lleva":4418,"entiendo":4419,"##tudes":4420,"mitad":4421,"lengua":4422,"empezar":4423,"##dentes":4424,"precio":4425,"##úa":4426,"convir":4427,"declaración":4428,"acompañ":4429,"violencia":4430,"Hace":4431,"Gar":4432,"equivo":4433,"trá":4434,"canción":4435,"español":4436,"deri":4437,"##umen":4438,"##ide":4439,"##trimonio":4440,"solicitud":4441,"Cab":4442,"compañía":4443,"llegó":4444,"sesión":4445,"Pu":4446,"estará":4447,"expe":4448,"##cera":4449,"##ést":4450,"periódi":4451,"##vamente":4452,"cree":4453,"##ong":4454,"Estu":4455,"##pri":4456,"financiación":4457,"##icha":4458,"abandon":4459,"recono":4460,"relativas":4461,"preguntas":4462,"##ció":4463,"feliz":4464,"##tarios":4465,"Están":4466,"podrán":4467,"2013":4468,"##mentación":4469,"comida":4470,"haré":4471,"procedimientos":4472,"tío":4473,"primeros":4474,"##zquier":4475,"conduc":4476,"Fa":4477,"loco":4478,"Ri":4479,"##bernam":4480,"hayan":4481,"álbum":4482,"requisi":4483,"presupues":4484,"ido":4485,"Ber":4486,"económico":4487,"segura":4488,"formul":4489,"comba":4490,"Ti":4491,"##osé":4492,"nega":4493,"hermana":4494,"desempe":4495,"documentos":4496,"dispuesto":4497,"##turales":4498,"cuidado":4499,"dicha":4500,"ano":4501,"asign":4502,"##emi":4503,"esperar":4504,"Especial":4505,"##idas":4506,"##mio":4507,"##torial":4508,"export":4509,"##est":4510,"rev":4511,"retir":4512,"club":4513,"08":4514,"Geor":4515,"jugar":4516,"##ey":4517,"##poner":4518,"administración":4519,"lejos":4520,"manda":4521,"##uerto":4522,"jug":4523,"natural":4524,"entren":4525,"revis":4526,"##éndo":4527,"Hi":4528,"Sur":4529,"China":4530,"##llar":4531,"arma":4532,"finales":4533,"Dec":4534,"época":4535,"llamar":4536,"Sub":4537,"Mer":4538,"##tino":4539,"##tades":4540,"técnica":4541,"Cuál":4542,"##tividad":4543,"##ivo":4544,"establecido":4545,"ay":4546,"curso":4547,"material":4548,"consecuencia":4549,"cere":4550,"ocu":4551,"Sim":4552,"industria":4553,"vale":4554,"##adoras":4555,"infer":4556,"##estruc":4557,"##tén":4558,"Dem":4559,"colec":4560,"hiciste":4561,"debemos":4562,"##ím":4563,"suelo":4564,"Buenas":4565,"##dal":4566,"repar":4567,"39":4568,"##rón":4569,"cumplimiento":4570,"##isa":4571,"fortal":4572,"##reas":4573,"##enci":4574,"##tidos":4575,"##20":4576,"testi":4577,"##íos":4578,"hago":4579,"##quen":4580,"##asa":4581,"etc":4582,"valores":4583,"##tín":4584,"##ligi":4585,"##gal":4586,"1992":4587,"Cada":4588,"experim":4589,"aco":4590,"intercambi":4591,"directamente":4592,"político":4593,"minist":4594,"Pen":4595,"Alguien":4596,"Luego":4597,"modelo":4598,"disfru":4599,"##gaciones":4600,"mira":4601,"bu":4602,"Mil":4603,"preci":4604,"alcanzar":4605,"sust":4606,"concent":4607,"animales":4608,"fom":4609,"indic":4610,"ó":4611,"centros":4612,"##toco":4613,"har":4614,"exi":4615,"misión":4616,"mem":4617,"niveles":4618,"discu":4619,"honor":4620,"##ical":4621,"##10":4622,"46":4623,"500":4624,"cel":4625,"categoría":4626,"fondo":4627,"Trabajo":4628,"ciudadanos":4629,"usu":4630,"hogar":4631,"equipos":4632,"dijiste":4633,"##metros":4634,"##rales":4635,"generales":4636,"edificio":4637,"55":4638,"camp":4639,"##tt":4640,"Vas":4641,"culpa":4642,"plante":4643,"##ibilidad":4644,"##vid":4645,"naturaleza":4646,"obten":4647,"fuego":4648,"1995":4649,"descubri":4650,"pér":4651,"Va":4652,"##tuvo":4653,"Pal":4654,"voz":4655,"##vista":4656,"ayudas":4657,"organismos":4658,"##ang":4659,"tecnología":4660,"##uis":4661,"##TR":4662,"##ov":4663,"Bol":4664,"##siera":4665,"dices":4666,"debo":4667,"mantenimiento":4668,"participar":4669,"##rid":4670,"Pac":4671,"trabajos":4672,"lograr":4673,"Organización":4674,"diferencia":4675,"menor":4676,"dev":4677,"##ate":4678,"buscando":4679,"##didos":4680,"##stos":4681,"transform":4682,"extre":4683,"lic":4684,"Podría":4685,"término":4686,"temas":4687,"##pias":4688,"vivo":4689,"##menes":4690,"Ahí":4691,"Norte":4692,"mismos":4693,"##arca":4694,"Discul":4695,"Ed":4696,"contacto":4697,"1996":4698,"presentar":4699,"teniendo":4700,"electrón":4701,"Bel":4702,"sección":4703,"##aliza":4704,"tampoco":4705,"Unido":4706,"radio":4707,"quieren":4708,"quienes":4709,"permitir":4710,"debate":4711,"##dieron":4712,"43":4713,"##americ":4714,"##ósito":4715,"##tocolo":4716,"##íritu":4717,"dolor":4718,"##él":4719,"malo":4720,"movimiento":4721,"##éndose":4722,"acuerdos":4723,"públicas":4724,"Italia":4725,"bel":4726,"##pongo":4727,"fl":4728,"Bro":4729,"##ordin":4730,"cambios":4731,"aquellos":4732,"correspondiente":4733,"acus":4734,"##gentina":4735,"##bert":4736,"circun":4737,"##dada":4738,"compon":4739,"efectu":4740,"puestos":4741,"cumplir":4742,"elev":4743,"muestra":4744,"##baj":4745,"carta":4746,"##stico":4747,"##anzas":4748,"solución":4749,"##ámara":4750,"autoriz":4751,"1994":4752,"cambiar":4753,"##reno":4754,"representantes":4755,"habitación":4756,"economía":4757,"diferente":4758,"##viles":4759,"Parte":4760,"fru":4761,"acon":4762,"vigor":4763,"##sist":4764,"vali":4765,"especiales":4766,"María":4767,"publicación":4768,"versión":4769,"izquier":4770,"lec":4771,"provincia":4772,"ingresos":4773,"Central":4774,"prohi":4775,"instrumentos":4776,"AC":4777,"##amento":4778,"cit":4779,"presentación":4780,"##estro":4781,"Ir":4782,"##uri":4783,"##ond":4784,"Som":4785,"##ionales":4786,"Super":4787,"##my":4788,"Crees":4789,"efica":4790,"Os":4791,"crédito":4792,"monta":4793,"##tiene":4794,"escrito":4795,"ras":4796,"Mientras":4797,"gobern":4798,"##cés":4799,"Aún":4800,"##omas":4801,"superficie":4802,"##gran":4803,"absolu":4804,"bra":4805,"lin":4806,"nombr":4807,"resta":4808,"deten":4809,"Gra":4810,"figura":4811,"casti":4812,"regiones":4813,"##umo":4814,"justicia":4815,"crisis":4816,"presencia":4817,"Papá":4818,"recuper":4819,"pose":4820,"##uls":4821,"descon":4822,"##álo":4823,"eh":4824,"exclu":4825,"hará":4826,"##OP":4827,"exactamente":4828,"##mbre":4829,"##terios":4830,"Consi":4831,"1990":4832,"asesina":4833,"otor":4834,"grave":4835,"##nes":4836,"mensaje":4837,"Mamá":4838,"oportun":4839,"contrato":4840,"pedir":4841,"Podemos":4842,"##cía":4843,"provo":4844,"##lección":4845,"planes":4846,"candida":4847,"##grafía":4848,"ejército":4849,"llen":4850,"aver":4851,"vent":4852,"##dicos":4853,"##esús":4854,"prácticas":4855,"propuestas":4856,"reserv":4857,"##ort":4858,"92":4859,"##rir":4860,"encuentran":4861,"murió":4862,"ésta":4863,"discrimin":4864,"Nic":4865,"##col":4866,"##ticamente":4867,"arte":4868,"03":4869,"Dic":4870,"bebé":4871,"infra":4872,"baja":4873,"##gin":4874,"vaya":4875,"Mierda":4876,"Ali":4877,"isla":4878,"conden":4879,"grado":4880,"actualmente":4881,"##laz":4882,"Mc":4883,"tratar":4884,"##monios":4885,"##ética":4886,"##ite":4887,"encima":4888,"cuya":4889,"Miem":4890,"##pir":4891,"##dro":4892,"pelo":4893,"Hoy":4894,"vues":4895,"cabal":4896,"##obiernos":4897,"##ducido":4898,"mol":4899,"##titud":4900,"##UE":4901,"##gió":4902,"##lidad":4903,"resi":4904,"religi":4905,"Mat":4906,"pensando":4907,"Seguro":4908,"aspectos":4909,"sabemos":4910,"##bara":4911,"recibir":4912,"##adá":4913,"Fi":4914,"regionales":4915,"##bado":4916,"some":4917,"EUR":4918,"estilo":4919,"2014":4920,"##fé":4921,"urban":4922,"suminist":4923,"Humanos":4924,"Algo":4925,"mone":4926,"asegurar":4927,"propiedad":4928,"##tiz":4929,"Tierra":4930,"##ví":4931,"comenzó":4932,"conclu":4933,"vigil":4934,"lugares":4935,"vesti":4936,"máqu":4937,"estadounidense":4938,"##ífica":4939,"##ni":4940,"promover":4941,"##gica":4942,"Tur":4943,"pena":4944,"humano":4945,"mente":4946,"adoptar":4947,"encontra":4948,"genial":4949,"Espero":4950,"salvo":4951,"ham":4952,"ín":4953,"mara":4954,"listo":4955,"órganos":4956,"simplemente":4957,"Recuer":4958,"##úpi":4959,"##cioso":4960,"numeros":4961,"Ellos":4962,"##ficado":4963,"siete":4964,"ll":4965,"##cesa":4966,"esen":4967,"reducción":4968,"42":4969,"verte":4970,"##útbol":4971,"destru":4972,"dan":4973,"44":4974,"Bus":4975,"hagas":4976,"##enas":4977,"Vaya":4978,"tir":4979,"contenido":4980,"obligaciones":4981,"##jeron":4982,"déc":4983,"##tificado":4984,"enfo":4985,"enfermedad":4986,"agríc":4987,"##genes":4988,"##yos":4989,"enemi":4990,"bos":4991,"Supongo":4992,"vay":4993,"##tería":4994,"derro":4995,"2015":4996,"cama":4997,"colo":4998,"escon":4999,"estructura":5000,"##arla":5001,"satisf":5002,"perj":5003,"Debe":5004,"asuntos":5005,"elecciones":5006,"Partes":5007,"cuyo":5008,"oro":5009,"##jan":5010,"televisión":5011,"convo":5012,"##II":5013,"##versas":5014,"##curso":5015,"puta":5016,"Comis":5017,"192":5018,"Eh":5019,"utilización":5020,"##dimiento":5021,"despe":5022,"oído":5023,"trabajando":5024,"Déjame":5025,"Ministerio":5026,"##gente":5027,"reducir":5028,"error":5029,"##iencias":5030,"05":5031,"hospital":5032,"##date":5033,"poten":5034,"design":5035,"perdido":5036,"intereses":5037,"principalmente":5038,"##usticia":5039,"conocimiento":5040,"##ficul":5041,"histór":5042,"regional":5043,"contexto":5044,"##íble":5045,"##istema":5046,"Instituto":5047,"comercial":5048,"Mas":5049,"Ros":5050,"destino":5051,"compues":5052,"Lin":5053,"apre":5054,"salv":5055,"adqui":5056,"##iva":5057,"Vic":5058,"facilitar":5059,"##agen":5060,"Gener":5061,"##yas":5062,"ár":5063,"peor":5064,"intelig":5065,"idio":5066,"oscu":5067,"refu":5068,"##tí":5069,"compromiso":5070,"Ol":5071,"trato":5072,"autom":5073,"##alizado":5074,"página":5075,"autoridad":5076,"distintos":5077,"dismin":5078,"arro":5079,"##olas":5080,"requisitos":5081,"carre":5082,"audi":5083,"sectores":5084,"responsable":5085,"enfrent":5086,"III":5087,"##ung":5088,"disposición":5089,"##untamiento":5090,"incluye":5091,"tradici":5092,"##fin":5093,"asust":5094,"##ligro":5095,"respeto":5096,"descan":5097,"Pos":5098,"##ático":5099,"dificul":5100,"##pal":5101,"mue":5102,"marcha":5103,"##icultura":5104,"defensa":5105,"funcionamiento":5106,"##amás":5107,"emo":5108,"establecimiento":5109,"##rag":5110,"Francis":5111,"recha":5112,"deja":5113,"amo":5114,"##itario":5115,"04":5116,"rep":5117,"mínimo":5118,"caball":5119,"dem":5120,"ga":5121,"blanco":5122,"##OL":5123,"financieros":5124,"##ft":5125,"Haz":5126,"esperando":5127,"95":5128,"##ster":5129,"competi":5130,"normal":5131,"##ditos":5132,"divi":5133,"llegado":5134,"Emp":5135,"desc":5136,"##teras":5137,"impos":5138,"vic":5139,"motivo":5140,"cuentas":5141,"depor":5142,"Toma":5143,"mane":5144,"pudo":5145,"dise":5146,"deberán":5147,"moles":5148,"##torno":5149,"representa":5150,"Argentina":5151,"supone":5152,"podrían":5153,"##loque":5154,"velo":5155,"##din":5156,"Antes":5157,"ofer":5158,"##ham":5159,"1993":5160,"minuto":5161,"disco":5162,"detrás":5163,"unidad":5164,"EE":5165,"Quizás":5166,"##ciente":5167,"##ém":5168,"##guar":5169,"totalmente":5170,"aliment":5171,"pacientes":5172,"tí":5173,"pobreza":5174,"iglesia":5175,"tranqui":5176,"191":5177,"##cap":5178,"##vech":5179,"bru":5180,"especies":5181,"dormir":5182,"impa":5183,"Banco":5184,"importe":5185,"peligro":5186,"Bur":5187,"Cos":5188,"Cuánto":5189,"##venciones":5190,"manifes":5191,"Bru":5192,"85":5193,"41":5194,"promoción":5195,"##ille":5196,"estación":5197,"diversos":5198,"fines":5199,"##istán":5200,"Oficial":5201,"##hu":5202,"##lad":5203,"David":5204,"víctimas":5205,"colaboración":5206,"Hol":5207,"Pat":5208,"##lici":5209,"abor":5210,"dejó":5211,"ganar":5212,"##erto":5213,"anual":5214,"02":5215,"Fondo":5216,"##erta":5217,"términos":5218,"completo":5219,"Pensé":5220,"##tamen":5221,"criterios":5222,"Orden":5223,"dicen":5224,"hotel":5225,"noticias":5226,"Guerra":5227,"comenzar":5228,"chicas":5229,"habrá":5230,"##deración":5231,"selec":5232,"Madrid":5233,"##deres":5234,"niña":5235,"Derecho":5236,"Cá":5237,"nie":5238,"##lada":5239,"inversión":5240,"cielo":5241,"Cla":5242,"características":5243,"recomendaciones":5244,"marido":5245,"Asuntos":5246,"duda":5247,"venido":5248,"##pan":5249,"convertir":5250,"Rey":5251,"ocho":5252,"May":5253,"vía":5254,"políticos":5255,"##mun":5256,"##ática":5257,"imagen":5258,"buenas":5259,"ataque":5260,"actos":5261,"leyes":5262,"vio":5263,"56":5264,"prev":5265,"aprobación":5266,"Israel":5267,"##cesión":5268,"##ps":5269,"acos":5270,"##bes":5271,"At":5272,"País":5273,"pier":5274,"Polí":5275,"itali":5276,"sexo":5277,"despi":5278,"pros":5279,"provis":5280,"nu":5281,"##ecu":5282,"##ecido":5283,"arreg":5284,"##irse":5285,"conex":5286,"concepto":5287,"Vol":5288,"instalaciones":5289,"##ferencias":5290,"##cidental":5291,"bom":5292,"emer":5293,"inmedia":5294,"estabas":5295,"registro":5296,"sosp":5297,"Rusia":5298,"##pone":5299,"93":5300,"##iores":5301,"sorpren":5302,"destr":5303,"##zca":5304,"francés":5305,"comprar":5306,"##uida":5307,"histor":5308,"financiera":5309,"##burgo":5310,"mercados":5311,"oficiales":5312,"##pera":5313,"##iendas":5314,"secu":5315,"original":5316,"##deral":5317,"estrategia":5318,"campe":5319,"suel":5320,"tren":5321,"completamente":5322,"pueblos":5323,"91":5324,"campaña":5325,"cic":5326,"qued":5327,"##ecía":5328,"##tia":5329,"desper":5330,"resist":5331,"saben":5332,"legisla":5333,"debes":5334,"concl":5335,"pensé":5336,"##RE":5337,"Van":5338,"Ga":5339,"matrimonio":5340,"eta":5341,"##itaria":5342,"##tamos":5343,"judi":5344,"plata":5345,"añad":5346,"AD":5347,"##nov":5348,"cultura":5349,"Dirección":5350,"##ieza":5351,"privado":5352,"hicieron":5353,"##jor":5354,"##iales":5355,"conoce":5356,"##ines":5357,"##stitución":5358,"96":5359,"##elos":5360,"##apón":5361,"##ivos":5362,"daño":5363,"encontrado":5364,"materiales":5365,"comprome":5366,"hue":5367,"##ió":5368,"##igh":5369,"jurídico":5370,"Fre":5371,"fase":5372,"menudo":5373,"preocupes":5374,"##sen":5375,"##misión":5376,"Hemos":5377,"preguntar":5378,"necesarias":5379,"gt":5380,"reuniones":5381,"llevó":5382,"Pr":5383,"gal":5384,"desarrollar":5385,"Bill":5386,"div":5387,"solamente":5388,"espaci":5389,"anunci":5390,"Perdón":5391,"peso":5392,"##EL":5393,"recordar":5394,"aplicar":5395,"propios":5396,"igualdad":5397,"Soci":5398,"convi":5399,"ropa":5400,"Segun":5401,"ensay":5402,"condición":5403,"IV":5404,"boca":5405,"reclam":5406,"Bras":5407,"pequeños":5408,"##TA":5409,"carne":5410,"accidente":5411,"##sidad":5412,"inferior":5413,"independiente":5414,"Incl":5415,"Informe":5416,"mala":5417,"##ers":5418,"##tual":5419,"mez":5420,"##xi":5421,"##éctr":5422,"agentes":5423,"relacionados":5424,"##illi":5425,"tengan":5426,"##IA":5427,"Real":5428,"diversas":5429,"contrario":5430,"##cada":5431,"Gen":5432,"europea":5433,"tenían":5434,"Dame":5435,"coordinación":5436,"Señora":5437,"confirm":5438,"realización":5439,"hal":5440,"pun":5441,"##uye":5442,"diseñ":5443,"recurso":5444,"Fuer":5445,"pequeñas":5446,"anteriores":5447,"incluidos":5448,"gobiernos":5449,"familias":5450,"bre":5451,"debi":5452,"Decre":5453,"##íti":5454,"##onato":5455,"estúpi":5456,"finalmente":5457,"58":5458,"distribución":5459,"##ístico":5460,"participantes":5461,"##tora":5462,"Anton":5463,"Sec":5464,"examin":5465,"drogas":5466,"Código":5467,"##monos":5468,"tama":5469,"##álogo":5470,"##gentes":5471,"Fo":5472,"##bernamentales":5473,"deriv":5474,"Pan":5475,"SE":5476,"##tiles":5477,"compos":5478,"Llam":5479,"probablemente":5480,"públicos":5481,"Nor":5482,"Escucha":5483,"Alto":5484,"Carlos":5485,"##000":5486,"afuera":5487,"pare":5488,"mercan":5489,"árbol":5490,"##cla":5491,"incluyendo":5492,"preten":5493,"París":5494,"DEL":5495,"estén":5496,"Protocolo":5497,"influen":5498,"negro":5499,"resolver":5500,"Sch":5501,"duro":5502,"Decreto":5503,"49":5504,"carga":5505,"ep":5506,"ps":5507,"deseo":5508,"funcionarios":5509,"código":5510,"cump":5511,"ofrece":5512,"obliga":5513,"54":5514,"razones":5515,"##aras":5516,"án":5517,"Todavía":5518,"plane":5519,"##one":5520,"##iles":5521,"cubier":5522,"mayores":5523,"Será":5524,"demonios":5525,"Declar":5526,"aten":5527,"cualquiera":5528,"negocio":5529,"Ph":5530,"mesa":5531,"Algunos":5532,"profesor":5533,"Internet":5534,"letra":5535,"contemp":5536,"1991":5537,"adopción":5538,"Cul":5539,"due":5540,"operación":5541,"libros":5542,"##use":5543,"traer":5544,"esco":5545,"previsto":5546,"aguas":5547,"##rez":5548,"Medio":5549,"salida":5550,"##xic":5551,"Pi":5552,"Sud":5553,"doble":5554,"94":5555,"sig":5556,"##fric":5557,"aprovech":5558,"consol":5559,"profesionales":5560,"capaz":5561,"reforma":5562,"##ológico":5563,"juicio":5564,"Vete":5565,"##mana":5566,"secreto":5567,"transi":5568,"existen":5569,"britán":5570,"Chile":5571,"Den":5572,"##hesión":5573,"##portar":5574,"identific":5575,"Norm":5576,"lla":5577,"secund":5578,"hechos":5579,"##vidad":5580,"departamento":5581,"##oría":5582,"bes":5583,"conv":5584,"planta":5585,"dul":5586,"sobrevi":5587,"59":5588,"98":5589,"indica":5590,"mandato":5591,"Sobre":5592,"2016":5593,"unidades":5594,"riesgos":5595,"tratando":5596,"humana":5597,"conozco":5598,"Af":5599,"##rer":5600,"quím":5601,"entidad":5602,"Peter":5603,"necesitamos":5604,"##UN":5605,"apropi":5606,"Administración":5607,"52":5608,"coment":5609,"arres":5610,"consumi":5611,"##tres":5612,"negocios":5613,"comerci":5614,"clientes":5615,"Ayuntamiento":5616,"detec":5617,"##cripción":5618,"transmi":5619,"izquierda":5620,"Coo":5621,"tercera":5622,"##udades":5623,"enm":5624,"comerciales":5625,"extraordin":5626,"##gencias":5627,"grab":5628,"presentado":5629,"derecha":5630,"exterior":5631,"desempeñ":5632,"edu":5633,"aquel":5634,"Bi":5635,"pertinentes":5636,"presenta":5637,"##lido":5638,"tradu":5639,"##villos":5640,"##ome":5641,"mic":5642,"repro":5643,"elección":5644,"decidió":5645,"consumo":5646,"vemos":5647,"técnicas":5648,"café":5649,"Dar":5650,"agente":5651,"digas":5652,"##uelas":5653,"##áticos":5654,"##gio":5655,"61":5656,"partidos":5657,"##legio":5658,"perro":5659,"hacemos":5660,"##lización":5661,"##ológica":5662,"Cuándo":5663,"distancia":5664,"crea":5665,"perspec":5666,"defen":5667,"Quiere":5668,"enga":5669,"sueño":5670,"65":5671,"idi":5672,"##ses":5673,"reconocimiento":5674,"senci":5675,"sucede":5676,"ul":5677,"##AC":5678,"##ulas":5679,"##bras":5680,"##dígen":5681,"51":5682,"tier":5683,"próxima":5684,"##eca":5685,"##atamente":5686,"##cciones":5687,"Otros":5688,"tes":5689,"Hen":5690,"pron":5691,"88":5692,"##SE":5693,"##cionar":5694,"presión":5695,"diseño":5696,"iniciativa":5697,"##diatamente":5698,"##irma":5699,"##logías":5700,"##quía":5701,"Ciudad":5702,"discriminación":5703,"localidad":5704,"representante":5705,"##ervi":5706,"haría":5707,"tab":5708,"##cación":5709,"Tenía":5710,"restau":5711,"##ichael":5712,"escol":5713,"clave":5714,"Primera":5715,"ocurre":5716,"deberían":5717,"facili":5718,"escala":5719,"##amor":5720,"abogado":5721,"aumentar":5722,"alterna":5723,"suspen":5724,"incluir":5725,"##riendo":5726,"batalla":5727,"##pati":5728,"peti":5729,"confianza":5730,"existencia":5731,"##isiones":5732,"##denes":5733,"conflicto":5734,"Debo":5735,"sala":5736,"famos":5737,"##cus":5738,"distintas":5739,"naturales":5740,"quizá":5741,"capitán":5742,"discul":5743,"recuerdo":5744,"##ash":5745,"constituye":5746,"aproximadamente":5747,"antiguo":5748,"##radu":5749,"exclusi":5750,"##ben":5751,"baño":5752,"##rup":5753,"fij":5754,"terreno":5755,"acaba":5756,"oír":5757,"prevención":5758,"..":5759,"...":5760,"dep":5761,"bur":5762,"##erop":5763,"##ins":5764,"06":5765,"determinar":5766,"periodo":5767,"entra":5768,"convirtió":5769,"adul":5770,"ciudades":5771,"Actu":5772,"Nosotros":5773,"tre":5774,"Ur":5775,"tex":5776,"fuente":5777,"##estructura":5778,"tamaño":5779,"Michael":5780,"dedic":5781,"dig":5782,"estudiantes":5783,"Lond":5784,"62":5785,"laboral":5786,"Venga":5787,"##esa":5788,"99":5789,"eficaz":5790,"##dremos":5791,"cuadro":5792,"espíritu":5793,"Muchas":5794,"##igan":5795,"pone":5796,"Londres":5797,"lab":5798,"alum":5799,"mía":5800,"53":5801,"comunitario":5802,"##bano":5803,"estra":5804,"##gidos":5805,"queremos":5806,"pase":5807,"Bal":5808,"alqui":5809,"Trans":5810,"acre":5811,"quizás":5812,"##licidad":5813,"Mir":5814,"semi":5815,"Importe":5816,"doc":5817,"##seo":5818,"consecuencias":5819,"##bilidades":5820,"Francisco":5821,"salvar":5822,"ast":5823,"métodos":5824,"##iza":5825,"ofrecer":5826,"monet":5827,"##lé":5828,"Miembros":5829,"Brasil":5830,"voluntad":5831,"##culación":5832,"avión":5833,"Medi":5834,"##versiones":5835,"pul":5836,"correcto":5837,"Iglesia":5838,"##capaci":5839,"activos":5840,"conec":5841,"cumple":5842,"sede":5843,"cár":5844,"relacionadas":5845,"medicam":5846,"##yan":5847,"##ance":5848,"expertos":5849,"reserva":5850,"Oc":5851,"próximo":5852,"190":5853,"muertos":5854,"##ames":5855,"necesitas":5856,"##inte":5857,"debajo":5858,"##tentes":5859,"requer":5860,"RE":5861,"##arle":5862,"##ood":5863,"Secretaría":5864,"verano":5865,"prensa":5866,"abrir":5867,"reglam":5868,"Ped":5869,"aqui":5870,"increíble":5871,"diré":5872,"véase":5873,"Ayu":5874,"##edades":5875,"##ombra":5876,"circunstancias":5877,"##ington":5878,"recibió":5879,"periodi":5880,"escuchar":5881,"Deja":5882,"Padre":5883,"denom":5884,"Rom":5885,"puso":5886,"vien":5887,"extraño":5888,"prést":5889,"militares":5890,"máxima":5891,"Cer":5892,"mejora":5893,"aceptar":5894,"altura":5895,"realizado":5896,"India":5897,"global":5898,"terrorismo":5899,"idiota":5900,"##loj":5901,"residen":5902,"ocul":5903,"Rel":5904,"mostrar":5905,"innov":5906,"autorización":5907,"Asimismo":5908,"##torias":5909,"tiempos":5910,"permiso":5911,"George":5912,"Sil":5913,"pudiera":5914,"mó":5915,"##arma":5916,"Pien":5917,"ingen":5918,"siente":5919,"##venida":5920,"fútbol":5921,"cuál":5922,"##bel":5923,"##UL":5924,"##llate":5925,"delegación":5926,"procesos":5927,"##alizada":5928,"##oluciones":5929,"escal":5930,"##edor":5931,"##taste":5932,"diablos":5933,"menores":5934,"arqui":5935,"reac":5936,"pidió":5937,"asesinato":5938,"##uidos":5939,"##ney":5940,"Roma":5941,"División":5942,"Fu":5943,"Asoci":5944,"##af":5945,"prove":5946,"Srta":5947,"Form":5948,"verdadero":5949,"##oe":5950,"##iro":5951,"ja":5952,"duración":5953,"seguimiento":5954,"atrib":5955,"convers":5956,"denomin":5957,"##yn":5958,"1989":5959,"comunitaria":5960,"##triz":5961,"89":5962,"##TI":5963,"Nin":5964,"fundamental":5965,"eléctr":5966,"pec":5967,"##AP":5968,"afirm":5969,"inmediatamente":5970,"resulta":5971,"corte":5972,"Bob":5973,"##tum":5974,"publicado":5975,"caja":5976,"dedi":5977,"necesarios":5978,"completa":5979,"gusto":5980,"aé":5981,"prisión":5982,"acto":5983,"Mari":5984,"darle":5985,"terminar":5986,"buenos":5987,"actuación":5988,"bio":5989,"velocidad":5990,"enseñanza":5991,"Debemos":5992,"universi":5993,"tráfico":5994,"aprobado":5995,"embara":5996,"##ábi":5997,"europeo":5998,"##iló":5999,"##misos":6000,"conflictos":6001,"And":6002,"##yen":6003,"oeste":6004,"##ariamente":6005,"regul":6006,"##tilla":6007,"barco":6008,"Die":6009,"Cono":6010,"##han":6011,"disposi":6012,"pérdida":6013,"sexual":6014,"verdadera":6015,"##ribe":6016,"Ministro":6017,"excel":6018,"Portu":6019,"iniciativas":6020,"Declaración":6021,"fuentes":6022,"funciona":6023,"Salud":6024,"recibido":6025,"americ":6026,"Capitán":6027,"##tive":6028,"##cero":6029,"complement":6030,"llega":6031,"marca":6032,"necesaria":6033,"juris":6034,"leer":6035,"espero":6036,"Mejor":6037,"##arnos":6038,"Terri":6039,"##greso":6040,"fle":6041,"Partido":6042,"adj":6043,"maldito":6044,"diga":6045,"evolución":6046,"modificación":6047,"llor":6048,"hacía":6049,"Bos":6050,"##zados":6051,"##trices":6052,"300":6053,"visita":6054,"Somos":6055,"raro":6056,"##tent":6057,"64":6058,"financieras":6059,"Ing":6060,"integración":6061,"##dice":6062,"vehículos":6063,"##quia":6064,"reh":6065,"Dime":6066,"banco":6067,"habili":6068,"##yendo":6069,"década":6070,"Colom":6071,"larga":6072,"terminado":6073,"##úl":6074,"art":6075,"dia":6076,"maravillos":6077,"residu":6078,"propósito":6079,"indígen":6080,"pesca":6081,"descar":6082,"##giados":6083,"hubo":6084,"Todas":6085,"explotación":6086,"Ton":6087,"pocos":6088,"##emente":6089,"Cali":6090,"##melo":6091,"opción":6092,"##ficar":6093,"##tador":6094,"Tar":6095,"vuelto":6096,"volvió":6097,"##trado":6098,"##ED":6099,"##vieron":6100,"financiero":6101,"inspec":6102,"dios":6103,"redes":6104,"incluyen":6105,"órdenes":6106,"sensi":6107,"reglamento":6108,"##nie":6109,"##jera":6110,"##fos":6111,"63":6112,"Cual":6113,"cliente":6114,"parecer":6115,"aplicable":6116,"tierras":6117,"ben":6118,"debía":6119,"dura":6120,"Paul":6121,"##mó":6122,"aus":6123,"Men":6124,"##mia":6125,"distrito":6126,"suces":6127,"video":6128,"piel":6129,"irme":6130,"Ira":6131,"cine":6132,"sostenible":6133,"vive":6134,"presentó":6135,"##rami":6136,"quieras":6137,"desas":6138,"##emen":6139,"administrativo":6140,"cif":6141,"caden":6142,"detener":6143,"hambre":6144,"Anexo":6145,"hermanos":6146,"sín":6147,"espi":6148,"ubicado":6149,"líneas":6150,"planeta":6151,"excepto":6152,"siguen":6153,"vul":6154,"##echas":6155,"económicos":6156,"ideas":6157,"Bre":6158,"reglas":6159,"encuentro":6160,"##IF":6161,"tarje":6162,"imposible":6163,"comunidades":6164,"almacen":6165,"orgu":6166,"intervención":6167,"salva":6168,"delante":6169,"áreas":6170,"preocupación":6171,"ech":6172,"tempran":6173,"Bu":6174,"educa":6175,"liqui":6176,"##edores":6177,"invol":6178,"só":6179,"imper":6180,"motivos":6181,"Alex":6182,"impacto":6183,"##portes":6184,"avis":6185,"##venir":6186,"cristi":6187,"partida":6188,"celeb":6189,"contiene":6190,"administrativa":6191,"Vir":6192,"placer":6193,"intención":6194,"##ésimo":6195,"Director":6196,"Tres":6197,"ileg":6198,"##vesti":6199,"mando":6200,"mecanismos":6201,"técnico":6202,"geo":6203,"##vela":6204,"conforme":6205,"dur":6206,"##pó":6207,"##talidad":6208,"##ficacia":6209,"plantas":6210,"nervi":6211,"obligación":6212,"##OM":6213,"za":6214,"recibi":6215,"tomó":6216,"cita":6217,"##guay":6218,"tocar":6219,"habi":6220,"Repres":6221,"##itas":6222,"vidas":6223,"negociaciones":6224,"##titu":6225,"parcial":6226,"Doctor":6227,"##ardo":6228,"Países":6229,"alcance":6230,"fas":6231,"asesino":6232,"comunes":6233,"requi":6234,"cen":6235,"deberías":6236,"diálogo":6237,"Fern":6238,"perf":6239,"Luis":6240,"quisiera":6241,"Irlan":6242,"permanente":6243,"##plic":6244,"Obs":6245,"Acción":6246,"memoria":6247,"##iga":6248,"##ze":6249,"conse":6250,"Liber":6251,"amiga":6252,"Núm":6253,"conocimientos":6254,"Clar":6255,"enamor":6256,"piensa":6257,"Gol":6258,"establecen":6259,"86":6260,"exter":6261,"vuelve":6262,"capítulo":6263,"Ai":6264,"ran":6265,"##selo":6266,"cercan":6267,"##onel":6268,"##mático":6269,"Vene":6270,"##cías":6271,"##guno":6272,"volumen":6273,"cultural":6274,"refor":6275,"científic":6276,"esencial":6277,"carretera":6278,"##iel":6279,"opera":6280,"oportunidades":6281,"##san":6282,"##ensación":6283,"decirle":6284,"estatu":6285,"##grantes":6286,"##úsque":6287,"solicitudes":6288,"límite":6289,"demanda":6290,"##usto":6291,"189":6292,"elaboración":6293,"##usa":6294,"pies":6295,"graves":6296,"##rios":6297,"trabajador":6298,"infan":6299,"mm":6300,"##ficientes":6301,"##inta":6302,"económicas":6303,"grie":6304,"posibles":6305,"dejado":6306,"##derá":6307,"Sue":6308,"Ejecu":6309,"edición":6310,"Realmente":6311,"##itales":6312,"Cui":6313,"aun":6314,"##tional":6315,"coin":6316,"nucleares":6317,"tuve":6318,"pub":6319,"Resolución":6320,"dispu":6321,"órgano":6322,"Pedro":6323,"efectivo":6324,"Cara":6325,"amplia":6326,"160":6327,"Irlanda":6328,"##del":6329,"Tim":6330,"familiar":6331,"##mado":6332,"contam":6333,"legal":6334,"motor":6335,"selección":6336,"##cionado":6337,"gubernamentales":6338,"archivo":6339,"alimentos":6340,"consiguiente":6341,"##enda":6342,"actualidad":6343,"Sabe":6344,"mod":6345,"frecuencia":6346,"conocida":6347,"##tidas":6348,"##ficiencia":6349,"existentes":6350,"Ram":6351,"##TAD":6352,"##ense":6353,"jorn":6354,"novia":6355,"##TE":6356,"##ónica":6357,"clasific":6358,"env":6359,"azul":6360,"##anda":6361,"popular":6362,"cue":6363,"garantía":6364,"contes":6365,"Asia":6366,"ambas":6367,"Servicio":6368,"concesión":6369,"##mano":6370,"inicial":6371,"##ítulos":6372,"municipal":6373,"##uno":6374,"antigua":6375,"nombres":6376,"##crá":6377,"anoche":6378,"segundos":6379,"revel":6380,"Carta":6381,"aspecto":6382,"esperanza":6383,"##orden":6384,"##gias":6385,"Ray":6386,"tendrán":6387,"cámara":6388,"Prin":6389,"Rich":6390,"09":6391,"cuánto":6392,"bloque":6393,"déj":6394,"##gráfica":6395,"veci":6396,"##entado":6397,"lech":6398,"##CA":6399,"tareas":6400,"terceros":6401,"querido":6402,"seas":6403,"##imientos":6404,"Adelante":6405,"eficacia":6406,"tempera":6407,"##MA":6408,"creado":6409,"Cru":6410,"constante":6411,"herrami":6412,"soldados":6413,"Comer":6414,"piso":6415,"determinados":6416,"Club":6417,"fundamentales":6418,"Chi":6419,"##fas":6420,"##viendo":6421,"For":6422,"método":6423,"quiera":6424,"bancos":6425,"##telo":6426,"##ril":6427,"preparación":6428,"sacar":6429,"##duce":6430,"pilo":6431,"Er":6432,"escribir":6433,"regresar":6434,"oferta":6435,"##blio":6436,"costa":6437,"cán":6438,"enfoque":6439,"vigilancia":6440,"Dijo":6441,"Incluso":6442,"##pto":6443,"trib":6444,"excep":6445,"disponibles":6446,"instrumento":6447,"mismas":6448,"vel":6449,"##cura":6450,"perteneci":6451,"miles":6452,"##ámonos":6453,"provisional":6454,"##tn":6455,"##áis":6456,"luch":6457,"abierto":6458,"##rueba":6459,"##vio":6460,"únicamente":6461,"escena":6462,"regreso":6463,"Estatu":6464,"deuda":6465,"##gadas":6466,"68":6467,"asociación":6468,"verlo":6469,"##let":6470,"inicio":6471,"##tencias":6472,"justific":6473,"Ves":6474,"dispone":6475,"Antonio":6476,"##pes":6477,"mirar":6478,"##omo":6479,"pienso":6480,"situaciones":6481,"##laterra":6482,"examinar":6483,"huel":6484,"prevé":6485,"fotos":6486,"necesitan":6487,"Lar":6488,"##andante":6489,"##tame":6490,"posibilidades":6491,"jard":6492,"1988":6493,"##cracia":6494,"##úsqueda":6495,"podido":6496,"##tat":6497,"limp":6498,"comport":6499,"Pers":6500,"asumi":6501,"dichos":6502,"abierta":6503,"##eropuerto":6504,"dimen":6505,"##pira":6506,"vacaciones":6507,"Fui":6508,"jamás":6509,"Gi":6510,"##irá":6511,"aparece":6512,"##NUD":6513,"Inglaterra":6514,"Asociación":6515,"incluido":6516,"tienda":6517,"##BI":6518,"aman":6519,"estaría":6520,"desea":6521,"##dias":6522,"Canadá":6523,"##TO":6524,"equili":6525,"Educación":6526,"##tidades":6527,"europeos":6528,"##ude":6529,"controlar":6530,"claramente":6531,"66":6532,"equival":6533,"quedó":6534,"mentir":6535,"similar":6536,"##íz":6537,"agrad":6538,"cubri":6539,"divertido":6540,"##amo":6541,"prima":6542,"##ONES":6543,"incluidas":6544,"traslad":6545,"lon":6546,"##xili":6547,"##ilar":6548,"##uncia":6549,"propias":6550,"Dra":6551,"intercambio":6552,"##ies":6553,"silen":6554,"##íes":6555,"renov":6556,"##orro":6557,"Blan":6558,"respecta":6559,"amenaza":6560,"##centa":6561,"busca":6562,"##alizados":6563,"##fon":6564,"firme":6565,"disponible":6566,"Az":6567,"##eria":6568,"##dría":6569,"##IDA":6570,"involuc":6571,"##ini":6572,"mad":6573,"Dej":6574,"energ":6575,"beneficios":6576,"##gual":6577,"Euros":6578,"reservas":6579,"revisión":6580,"hel":6581,"aprender":6582,"##cí":6583,"Io":6584,"##ást":6585,"##pertura":6586,"ocupar":6587,"x":6588,"##terrán":6589,"acabó":6590,"usuarios":6591,"Debería":6592,"##guas":6593,"Cin":6594,"representación":6595,"##izar":6596,"Yu":6597,"acce":6598,"intento":6599,"constit":6600,"incu":6601,"##pado":6602,"##lados":6603,"precis":6604,"Nuestra":6605,"Encon":6606,"sugi":6607,"##gría":6608,"Cier":6609,"decirte":6610,"deberíamos":6611,"##ionado":6612,"condado":6613,"Corte":6614,"Investi":6615,"prohibi":6616,"universidad":6617,"Cat":6618,"hubier":6619,"##ting":6620,"rob":6621,"presupuestaria":6622,"encanta":6623,"industrial":6624,"Constitución":6625,"##cy":6626,"tarea":6627,"##abo":6628,"establecidos":6629,"alemán":6630,"reda":6631,"romp":6632,"Santo":6633,"Colombia":6634,"cans":6635,"vincul":6636,"Lan":6637,"##lon":6638,"##icación":6639,"tasa":6640,"etapa":6641,"##vera":6642,"facul":6643,"Otra":6644,"##lev":6645,"dando":6646,"densidad":6647,"rápidamente":6648,"olvidar":6649,"##tagon":6650,"canciones":6651,"posterior":6652,"Bra":6653,"relativos":6654,"pales":6655,"pis":6656,"clases":6657,"posteriormente":6658,"##ices":6659,"estraté":6660,"84":6661,"Def":6662,"infec":6663,"##usos":6664,"ocasiones":6665,"Bla":6666,"rom":6667,"cárcel":6668,"##ablo":6669,"labora":6670,"##50":6671,"##yecto":6672,"dipu":6673,"armon":6674,"##éro":6675,"entorno":6676,"Democ":6677,"haz":6678,"primeras":6679,"ayud":6680,"ayer":6681,"pagos":6682,"vivi":6683,"directa":6684,"##tista":6685,"##mate":6686,"salió":6687,"carb":6688,"##bul":6689,"independencia":6690,"flo":6691,"escuelas":6692,"Vie":6693,"Federación":6694,"vuelo":6695,"##dis":6696,"Din":6697,"US":6698,"comisión":6699,"incluida":6700,"##culares":6701,"factores":6702,"nueve":6703,"Tienen":6704,"##neo":6705,"rode":6706,"AL":6707,"tuyo":6708,"Conside":6709,"##IB":6710,"búsqueda":6711,"##tú":6712,"##dré":6713,"esfuerzo":6714,"prestar":6715,"impe":6716,"empezó":6717,"bille":6718,"perfecto":6719,"Apro":6720,"tratado":6721,"##ético":6722,"repu":6723,"judicial":6724,"##metro":6725,"corto":6726,"##CN":6727,"emergencia":6728,"##EA":6729,"##geles":6730,"##entan":6731,"razon":6732,"##ámica":6733,"##rame":6734,"civiles":6735,"combust":6736,"frontera":6737,"guer":6738,"bases":6739,"importación":6740,"Sui":6741,"##etas":6742,"Charlie":6743,"##dencias":6744,"##rador":6745,"fen":6746,"##tieron":6747,"cál":6748,"##istos":6749,"Mujer":6750,"determinadas":6751,"fres":6752,"Paz":6753,"Segunda":6754,"Gal":6755,"Servicios":6756,"Mac":6757,"acor":6758,"agre":6759,"dificultades":6760,"documentación":6761,"Económico":6762,"prac":6763,"interesante":6764,"cocina":6765,"visión":6766,"##tección":6767,"Cállate":6768,"Cuán":6769,"masa":6770,"##leta":6771,"Buena":6772,"resoluciones":6773,"##tinos":6774,"adicional":6775,"Campe":6776,"expresión":6777,"averi":6778,"Portugal":6779,"Política":6780,"dosis":6781,"mercancías":6782,"límites":6783,"##illas":6784,"triste":6785,"inversiones":6786,"pide":6787,"definición":6788,"firma":6789,"directo":6790,"##deros":6791,"incon":6792,"##anía":6793,"situado":6794,"Contra":6795,"adicionales":6796,"adver":6797,"##rismo":6798,"pac":6799,"##cipe":6800,"##ilómetros":6801,"##estas":6802,"##jate":6803,"##ello":6804,"arru":6805,"lad":6806,"ros":6807,"##terio":6808,"ciencia":6809,"espal":6810,"repe":6811,"alguno":6812,"maldita":6813,"Flor":6814,"llamó":6815,"piensas":6816,"construir":6817,"transpar":6818,"películas":6819,"ganó":6820,"aconte":6821,"Sara":6822,"ace":6823,"probar":6824,"prefer":6825,"responder":6826,"arreglar":6827,"##landia":6828,"nuclear":6829,"##rique":6830,"fiscal":6831,"juegos":6832,"decre":6833,"desaf":6834,"licencia":6835,"supervisión":6836,"Necesitamos":6837,"188":6838,"tecnologías":6839,"Número":6840,"##teca":6841,"revista":6842,"##gidas":6843,"influencia":6844,"animal":6845,"asesor":6846,"mató":6847,"person":6848,"Austr":6849,"Genial":6850,"normativa":6851,"dirigida":6852,"##lace":6853,"esposo":6854,"Información":6855,"apoyar":6856,"recuerda":6857,"hábi":6858,"##illiam":6859,"tomado":6860,"llamo":6861,"##tadora":6862,"##gán":6863,"elegido":6864,"Reci":6865,"decía":6866,"ocasión":6867,"directiva":6868,"terrible":6869,"socio":6870,"##amas":6871,"implic":6872,"Cristo":6873,"cá":6874,"##abe":6875,"víctima":6876,"##rupción":6877,"Fal":6878,"##ota":6879,"enf":6880,"brin":6881,"horri":6882,"empleados":6883,"excepción":6884,"votación":6885,"explos":6886,"Fun":6887,"Ger":6888,"##PA":6889,"fantas":6890,"##itarios":6891,"Nuestro":6892,"Vin":6893,"petición":6894,"indígenas":6895,"dulce":6896,"##eth":6897,"ganado":6898,"Dí":6899,"contac":6900,"vosotros":6901,"##eld":6902,"AN":6903,"##gico":6904,"consulta":6905,"supongo":6906,"considerado":6907,"negativo":6908,"madera":6909,"mecanismo":6910,"estabilidad":6911,"Prob":6912,"cerebro":6913,"utiliza":6914,"##ji":6915,"subvenciones":6916,"##ean":6917,"##ET":6918,"##tz":6919,"##IL":6920,"victoria":6921,"cuándo":6922,"##presa":6923,"NO":6924,"crimen":6925,"perci":6926,"##ortun":6927,"Siento":6928,"física":6929,"requiere":6930,"Considerando":6931,"acá":6932,"##get":6933,"##ges":6934,"plenamente":6935,"Bon":6936,"##versal":6937,"sup":6938,"trabaja":6939,"observaciones":6940,"exposición":6941,"##rey":6942,"luchar":6943,"flu":6944,"dibu":6945,"líder":6946,"Debes":6947,"conciencia":6948,"Vuel":6949,"Hun":6950,"Había":6951,"Mos":6952,"Fis":6953,"##identa":6954,"Fund":6955,"##forma":6956,"1986":6957,"##tern":6958,"ví":6959,"Chri":6960,"##diste":6961,"traje":6962,"categorías":6963,"82":6964,"longi":6965,"Quería":6966,"Ric":6967,"aport":6968,"##manes":6969,"muchacho":6970,"Tam":6971,"Red":6972,"falle":6973,"estan":6974,"excl":6975,"casas":6976,"Perú":6977,"Casi":6978,"##primi":6979,"produci":6980,"Tranqui":6981,"##mbo":6982,"aquella":6983,"##fron":6984,"##die":6985,"Oli":6986,"subsi":6987,"hermosa":6988,"culp":6989,"##selas":6990,"comunicaciones":6991,"##timi":6992,"##rabe":6993,"Vien":6994,"ater":6995,"contribuy":6996,"cena":6997,"escapar":6998,"Disculpe":6999,"colon":7000,"Apar":7001,"##ity":7002,"lun":7003,"dichas":7004,"##brio":7005,"Quien":7006,"##demia":7007,"lanz":7008,"##GC":7009,"consejo":7010,"vender":7011,"similares":7012,"##ensor":7013,"potencial":7014,"ferro":7015,"PAR":7016,"Sién":7017,"##coh":7018,"retras":7019,"Represent":7020,"producir":7021,"utilizado":7022,"##estiv":7023,"##19":7024,"máquina":7025,"program":7026,"juz":7027,"##ualmente":7028,"Casa":7029,"hablas":7030,"aden":7031,"##rump":7032,"complic":7033,"encontró":7034,"asimismo":7035,"sustitu":7036,"específicas":7037,"contratos":7038,"cáncer":7039,"Emi":7040,"Donde":7041,"Cuidado":7042,"premio":7043,"##trib":7044,"insu":7045,"limpi":7046,"oficinas":7047,"sale":7048,"nar":7049,"argu":7050,"Congreso":7051,"querida":7052,"vehículo":7053,"porcenta":7054,"eno":7055,"pobres":7056,"continuar":7057,"adelan":7058,"moneda":7059,"actuar":7060,"sacri":7061,"##grado":7062,"##tirá":7063,"Tri":7064,"Hijo":7065,"exportación":7066,"th":7067,"##zz":7068,"##forn":7069,"sencillo":7070,"inoc":7071,"competentes":7072,"costes":7073,"realizó":7074,"reemp":7075,"diario":7076,"capacitación":7077,"##US":7078,"Ham":7079,"Sha":7080,"loca":7081,"materias":7082,"tecn":7083,"##cida":7084,"##brica":7085,"ordin":7086,"1985":7087,"##dimos":7088,"##úcar":7089,"##menta":7090,"sientes":7091,"impuestos":7092,"##IM":7093,"83":7094,"momentos":7095,"figuran":7096,"teoría":7097,"ascen":7098,"corpor":7099,"niñas":7100,"Mí":7101,"perjuicio":7102,"##íncipe":7103,"##uega":7104,"responsables":7105,"plano":7106,"Alguna":7107,"bailar":7108,"restric":7109,"calor":7110,"tropas":7111,"comienzo":7112,"detalles":7113,"##cturas":7114,"Australia":7115,"parque":7116,"podrías":7117,"terminó":7118,"elegir":7119,"imá":7120,"Aires":7121,"gana":7122,"calles":7123,"gustan":7124,"irre":7125,"llevado":7126,"tradicional":7127,"democrá":7128,"enfermedades":7129,"dipl":7130,"##rarse":7131,"caer":7132,"exig":7133,"flores":7134,"##últi":7135,"considerar":7136,"##zuela":7137,"Comunidades":7138,"##inada":7139,"paciente":7140,"##zaje":7141,"ocupado":7142,"Dist":7143,"escen":7144,"Sala":7145,"circulación":7146,"tratados":7147,"##túa":7148,"##tios":7149,"IS":7150,"##RA":7151,"##berg":7152,"periódico":7153,"##grad":7154,"enorme":7155,"prestación":7156,"##años":7157,"preciso":7158,"piedra":7159,"iré":7160,"adecuada":7161,"Bor":7162,"##quete":7163,"previstas":7164,"institución":7165,"##bio":7166,"##geno":7167,"##jal":7168,"nav":7169,"ais":7170,"contribuir":7171,"jornada":7172,"incen":7173,"##mn":7174,"mono":7175,"ocurrió":7176,"##uf":7177,"##lesc":7178,"visitas":7179,"186":7180,"das":7181,"montón":7182,"actuales":7183,"##cro":7184,"escla":7185,"aplicables":7186,"seguros":7187,"Imp":7188,"episo":7189,"##uegos":7190,"400":7191,"odio":7192,"##rieron":7193,"Ins":7194,"##abilidades":7195,"investig":7196,"amplio":7197,"##ficaciones":7198,"temporal":7199,"Grecia":7200,"pareja":7201,"dieron":7202,"puerto":7203,"micro":7204,"entiendes":7205,"longitud":7206,"imágenes":7207,"ign":7208,"Rela":7209,"Domin":7210,"1980":7211,"leche":7212,"##onda":7213,"dijeron":7214,"Cro":7215,"agrícolas":7216,"entrega":7217,"informa":7218,"Obje":7219,"gor":7220,"##EM":7221,"##olucion":7222,"##ída":7223,"Cuba":7224,"puertas":7225,"##arás":7226,"puesta":7227,"escribió":7228,"##arición":7229,"corresponde":7230,"##dería":7231,"##IO":7232,"Hel":7233,"diferencias":7234,"Policía":7235,"Copa":7236,"##todo":7237,"##tique":7238,"inm":7239,"jugador":7240,"Municip":7241,"Visto":7242,"Sar":7243,"protagon":7244,"maestro":7245,"desplaz":7246,"dictamen":7247,"compañero":7248,"##ológicos":7249,"##IV":7250,"##forme":7251,"Californ":7252,"canal":7253,"ofrec":7254,"quedan":7255,"Generalidad":7256,"clás":7257,"apenas":7258,"teatro":7259,"##imas":7260,"je":7261,"verde":7262,"edificios":7263,"##caso":7264,"regalo":7265,"##verso":7266,"tomando":7267,"Marco":7268,"vulner":7269,"enemigo":7270,"adecuado":7271,"Mag":7272,"69":7273,"##trol":7274,"corriente":7275,"##ísimo":7276,"competencias":7277,"contribución":7278,"##uras":7279,"productores":7280,"considerable":7281,"##úch":7282,"barrio":7283,"81":7284,"clima":7285,"frío":7286,"##itor":7287,"Actualmente":7288,"abre":7289,"##mamente":7290,"crimin":7291,"tendría":7292,"hin":7293,"pist":7294,"Sigue":7295,"anteriormente":7296,"culo":7297,"regular":7298,"caballo":7299,"LOS":7300,"cuán":7301,"mover":7302,"cartas":7303,"sho":7304,"##reo":7305,"cuidar":7306,"competente":7307,"##ug":7308,"hem":7309,"increment":7310,"culturales":7311,"Fuera":7312,"declaraciones":7313,"sá":7314,"pista":7315,"engañ":7316,"Misión":7317,"Cariño":7318,"española":7319,"delito":7320,"California":7321,"identidad":7322,"##tui":7323,"democracia":7324,"alcoh":7325,"##OD":7326,"##rie":7327,"Sco":7328,"cambiado":7329,"Navidad":7330,"transferencia":7331,"Cambi":7332,"##toral":7333,"##ueso":7334,"##cidos":7335,"##tías":7336,"##ierno":7337,"sonido":7338,"conoces":7339,"##zcan":7340,"conclusiones":7341,"ciclo":7342,"cadena":7343,"suma":7344,"pedido":7345,"estrella":7346,"Primero":7347,"ampliación":7348,"anun":7349,"Edi":7350,"Mol":7351,"##pens":7352,"sucedió":7353,"##mpa":7354,"##stal":7355,"Perman":7356,"adquisi":7357,"Probablemente":7358,"meter":7359,"Costa":7360,"adoptado":7361,"##lida":7362,"división":7363,"Uste":7364,"Allí":7365,"pude":7366,"elemento":7367,"tengas":7368,"Agr":7369,"revi":7370,"cm":7371,"suici":7372,"mexic":7373,"formar":7374,"privada":7375,"zapa":7376,"Star":7377,"ec":7378,"realiza":7379,"gradu":7380,"##vina":7381,"Ustedes":7382,"##ENTE":7383,"novio":7384,"patr":7385,"consist":7386,"jurídica":7387,"activo":7388,"##mb":7389,"bote":7390,"##zación":7391,"ago":7392,"refugiados":7393,"exce":7394,"##rí":7395,"##hor":7396,"encontramos":7397,"centrales":7398,"nombrado":7399,"conferencia":7400,"150":7401,"muerta":7402,"resca":7403,"apertura":7404,"##aco":7405,"catal":7406,"territorios":7407,"##radas":7408,"fol":7409,"preparado":7410,"reper":7411,"voto":7412,"útil":7413,"boda":7414,"ventana":7415,"Sant":7416,"##teros":7417,"intentando":7418,"apues":7419,"celebrada":7420,"##ósitos":7421,"daños":7422,"notific":7423,"mate":7424,"bosque":7425,"carajo":7426,"manifi":7427,"Ambi":7428,"dra":7429,"musical":7430,"Rob":7431,"##teles":7432,"tonto":7433,"reciente":7434,"##lán":7435,"eli":7436,"viven":7437,"convoca":7438,"Guar":7439,"tonel":7440,"##gros":7441,"inmi":7442,"robo":7443,"servir":7444,"Regi":7445,"Basta":7446,"llegue":7447,"eliminar":7448,"##UC":7449,"Harry":7450,"cantidades":7451,"formula":7452,"recientemente":7453,"Indust":7454,"##30":7455,"##nia":7456,"respuestas":7457,"Comp":7458,"médicos":7459,"autén":7460,"inci":7461,"##tle":7462,"fras":7463,"procedentes":7464,"##ilip":7465,"Bruselas":7466,"##tones":7467,"##ania":7468,"consultas":7469,"##erno":7470,"##gráfic":7471,"estés":7472,"tribunal":7473,"sustit":7474,"estrategias":7475,"Día":7476,"conservación":7477,"Escuela":7478,"##ábamos":7479,"##gué":7480,"##ith":7481,"##jó":7482,"Mué":7483,"organismo":7484,"perspectiva":7485,"comienza":7486,"Sen":7487,"incom":7488,"##ashington":7489,"nació":7490,"proporcionar":7491,"##ancias":7492,"Martín":7493,"Finalmente":7494,"Max":7495,"aprendi":7496,"previa":7497,"Ce":7498,"Mary":7499,"empren":7500,"##dalo":7501,"Inf":7502,"técnicos":7503,"débi":7504,"AR":7505,"##celer":7506,"aprobó":7507,"##tismo":7508,"Hor":7509,"##enten":7510,"interesados":7511,"##bios":7512,"Agencia":7513,"DOGC":7514,"inmediato":7515,"expan":7516,"párr":7517,"obtuvo":7518,"Rev":7519,"causas":7520,"humanidad":7521,"espiritu":7522,"muchachos":7523,"##int":7524,"cumpleaños":7525,"Bajos":7526,"Federal":7527,"podamos":7528,"##ted":7529,"temperatura":7530,"modelos":7531,"estadísticas":7532,"compromisos":7533,"caballeros":7534,"Adónde":7535,"Rad":7536,"titular":7537,"entregar":7538,"créditos":7539,"estúpido":7540,"concer":7541,"números":7542,"residuos":7543,"Hist":7544,"raza":7545,"Martin":7546,"##arial":7547,"arquitec":7548,"Democrá":7549,"adoptadas":7550,"Daniel":7551,"Robert":7552,"Pacífico":7553,"cargos":7554,"impar":7555,"interna":7556,"Autor":7557,"Austria":7558,"protes":7559,"usando":7560,"discapaci":7561,"##tiago":7562,"##umin":7563,"adolesc":7564,"tuvieron":7565,"Salv":7566,"orientación":7567,"estrellas":7568,"Vo":7569,"compuesto":7570,"CN":7571,"ciertas":7572,"Ara":7573,"puente":7574,"##éramos":7575,"interno":7576,"magn":7577,"mutu":7578,"##bierto":7579,"viendo":7580,"medicamentos":7581,"decirme":7582,"liter":7583,"Mig":7584,"azúcar":7585,"determinación":7586,"compra":7587,"Henry":7588,"escrib":7589,"TV":7590,"Consul":7591,"##ciles":7592,"sospech":7593,"ninguno":7594,"depende":7595,"##ándome":7596,"basado":7597,"##adém":7598,"decidir":7599,"Algunas":7600,"##ísticos":7601,"##cales":7602,"plu":7603,"##ds":7604,"archivos":7605,"flor":7606,"adhesión":7607,"sirve":7608,"orgullos":7609,"cerve":7610,"##piración":7611,"##berto":7612,"##dación":7613,"Santiago":7614,"Sistema":7615,"correo":7616,"explor":7617,"ministro":7618,"lasti":7619,"reales":7620,"##12":7621,"EC":7622,"presentes":7623,"##augu":7624,"períodos":7625,"familiares":7626,"Eli":7627,"veras":7628,"Diario":7629,"cierta":7630,"Enten":7631,"##jada":7632,"cola":7633,"amable":7634,"##ade":7635,"héro":7636,"##cimientos":7637,"votos":7638,"Cari":7639,"establecidas":7640,"mencionado":7641,"##sh":7642,"Profes":7643,"##bación":7644,"remo":7645,"personaje":7646,"aeropuerto":7647,"celebración":7648,"hacerse":7649,"probable":7650,"conqui":7651,"caliente":7652,"Manuel":7653,"##incu":7654,"Gui":7655,"Lor":7656,"opciones":7657,"clín":7658,"Otro":7659,"##ieron":7660,"VIH":7661,"##tarias":7662,"basura":7663,"Apo":7664,"Liga":7665,"Hon":7666,"reconocer":7667,"basada":7668,"agricultura":7669,"##drán":7670,"##tarme":7671,"afectados":7672,"laboratorio":7673,"##ure":7674,"rápida":7675,"estados":7676,"horrible":7677,"##ciendo":7678,"numerosos":7679,"locura":7680,"Sy":7681,"medal":7682,"sustancias":7683,"aclar":7684,"múlti":7685,"modifica":7686,"Río":7687,"##úd":7688,"alcal":7689,"vienen":7690,"actuaciones":7691,"##siva":7692,"##uli":7693,"entiende":7694,"comportamiento":7695,"##cé":7696,"Corea":7697,"francesa":7698,"nacimiento":7699,"desgra":7700,"##icepres":7701,"##bral":7702,"recuperación":7703,"orient":7704,"ámbitos":7705,"estructuras":7706,"artes":7707,"##estival":7708,"fues":7709,"reempla":7710,"emplea":7711,"##ld":7712,"Bienven":7713,"eras":7714,"adentro":7715,"inteligente":7716,"##ess":7717,"destinados":7718,"Pacto":7719,"##tab":7720,"Deberías":7721,"##tización":7722,"recomienda":7723,"Fer":7724,"nuevamente":7725,"miras":7726,"hagan":7727,"haremos":7728,"particularmente":7729,"excelente":7730,"Comercio":7731,"##rida":7732,"señorita":7733,"beber":7734,"##40":7735,"investigaciones":7736,"creen":7737,"venga":7738,"combate":7739,"basta":7740,"vieja":7741,"ambiental":7742,"remi":7743,"peligroso":7744,"mantiene":7745,"extranjero":7746,"Anti":7747,"modos":7748,"personales":7749,"##inados":7750,"##rores":7751,"electrónico":7752,"##éli":7753,"tiro":7754,"rue":7755,"estudiar":7756,"situada":7757,"Muchos":7758,"Esos":7759,"espectá":7760,"seres":7761,"Mel":7762,"##undido":7763,"estuviera":7764,"##ICI":7765,"apreci":7766,"eliminación":7767,"destrucción":7768,"##lico":7769,"femen":7770,"podríamos":7771,"##ford":7772,"Egi":7773,"entró":7774,"difusión":7775,"mg":7776,"subvención":7777,"broma":7778,"##laterales":7779,"porcentaje":7780,"respal":7781,"bomba":7782,"Presidencia":7783,"pá":7784,"Europeas":7785,"Contin":7786,"prisa":7787,"titulado":7788,"agradable":7789,"Mic":7790,"Bul":7791,"brome":7792,"Miguel":7793,"Exac":7794,"##óp":7795,"doy":7796,"básicos":7797,"##deras":7798,"cuali":7799,"##esto":7800,"llamas":7801,"encontré":7802,"##ME":7803,"Venezuela":7804,"##III":7805,"interpretación":7806,"##cerdo":7807,"conexión":7808,"acces":7809,"##tano":7810,"Richard":7811,"estric":7812,"respectivamente":7813,"##ENTO":7814,"##icales":7815,"rojo":7816,"Gab":7817,"Ejército":7818,"componentes":7819,"procede":7820,"generalmente":7821,"##gios":7822,"gira":7823,"rei":7824,"LAS":7825,"previstos":7826,"preocupa":7827,"asociados":7828,"demues":7829,"compartir":7830,"Proyecto":7831,"Tre":7832,"plena":7833,"apara":7834,"colum":7835,"piezas":7836,"prepara":7837,"orgán":7838,"##ement":7839,"##ván":7840,"busc":7841,"##sar":7842,"##reras":7843,"decidido":7844,"avent":7845,"Record":7846,"produce":7847,"instalación":7848,"ubicada":7849,"contribuciones":7850,"Add":7851,"##seguida":7852,"Stan":7853,"autob":7854,"mirando":7855,"hablado":7856,"##feras":7857,"##igo":7858,"vecinos":7859,"Ren":7860,"clasificación":7861,"##11":7862,"flex":7863,"poderes":7864,"dirigir":7865,"gracioso":7866,"peda":7867,"descen":7868,"coches":7869,"##caron":7870,"##ples":7871,"planificación":7872,"lleno":7873,"juez":7874,"últimas":7875,"logró":7876,"CD":7877,"vestido":7878,"infantil":7879,"agar":7880,"suficientemente":7881,"##llante":7882,"usa":7883,"escucha":7884,"##entro":7885,"atre":7886,"Suiza":7887,"temo":7888,"generación":7889,"##tarlo":7890,"creó":7891,"Lee":7892,"##amarca":7893,"##ligión":7894,"sociedades":7895,"identificación":7896,"préstamos":7897,"##ling":7898,"playa":7899,"##ína":7900,"evento":7901,"##bida":7902,"consiste":7903,"llevan":7904,"impuls":7905,"##BC":7906,"##asas":7907,"##uél":7908,"##vencia":7909,"baile":7910,"ordenación":7911,"inaugu":7912,"conform":7913,"ahor":7914,"prioridad":7915,"encargado":7916,"vayas":7917,"Gon":7918,"Véase":7919,"##bí":7920,"temprano":7921,"supervis":7922,"##zadas":7923,"académ":7924,"##brado":7925,"Iraq":7926,"bonito":7927,"##gular":7928,"tarjeta":7929,"intentar":7930,"##esper":7931,"gesti":7932,"transmisión":7933,"march":7934,"##ah":7935,"##tte":7936,"sorpresa":7937,"##ándolo":7938,"legales":7939,"##tróleo":7940,"residencia":7941,"progreso":7942,"rato":7943,"conclusión":7944,"che":7945,"##strucción":7946,"suena":7947,"Maldita":7948,"progresos":7949,"correr":7950,"Asi":7951,"##dicción":7952,"acredi":7953,"Bél":7954,"páginas":7955,"BCN":7956,"saberlo":7957,"coste":7958,"pelea":7959,"emisiones":7960,"espalda":7961,"document":7962,"profundi":7963,"alquiler":7964,"importaciones":7965,"campos":7966,"prometo":7967,"trate":7968,"inyec":7969,"##cran":7970,"composición":7971,"##presión":7972,"suministro":7973,"publicó":7974,"##lando":7975,"fenóm":7976,"utilizando":7977,"delitos":7978,"##mática":7979,"##ulo":7980,"éstos":7981,"obstá":7982,"##américa":7983,"beneficio":7984,"pensado":7985,"residentes":7986,"plaza":7987,"reca":7988,"Bélgica":7989,"llave":7990,"ciertos":7991,"##fre":7992,"##fecto":7993,"pronunci":7994,"Dile":7995,"superiores":7996,"ama":7997,"fabricación":7998,"inclu":7999,"breve":8000,"SIDA":8001,"blancos":8002,"integ":8003,"objetos":8004,"Egipto":8005,"Técn":8006,"##CO":8007,"##agésimo":8008,"misiones":8009,"agrícola":8010,"ocupación":8011,"Turquía":8012,"Dice":8013,"##tara":8014,"##otas":8015,"violación":8016,"Cruz":8017,"biblio":8018,"Ari":8019,"resistencia":8020,"infierno":8021,"Relaciones":8022,"##ix":8023,"fuiste":8024,"record":8025,"Regres":8026,"convertido":8027,"prision":8028,"fomentar":8029,"##bran":8030,"asc":8031,"##IR":8032,"adultos":8033,"##llan":8034,"Bene":8035,"específicos":8036,"tuya":8037,"here":8038,"##DE":8039,"alegro":8040,"absoluto":8041,"##IDAD":8042,"silencio":8043,"destruir":8044,"mostr":8045,"tum":8046,"tej":8047,"demostrar":8048,"##rás":8049,"Primer":8050,"Gan":8051,"mens":8052,"indis":8053,"acabar":8054,"cursos":8055,"directrices":8056,"##bieron":8057,"Polonia":8058,"preocupar":8059,"##lle":8060,"Popular":8061,"maes":8062,"arras":8063,"##dé":8064,"ii":8065,"##pin":8066,"##dador":8067,"##vado":8068,"clara":8069,"reina":8070,"VII":8071,"individual":8072,"transición":8073,"gratui":8074,"Estudi":8075,"definitivamente":8076,"expediente":8077,"religión":8078,"certificado":8079,"Mire":8080,"llegada":8081,"SA":8082,"recoger":8083,"censo":8084,"máquinas":8085,"estándar":8086,"All":8087,"concep":8088,"apel":8089,"##gento":8090,"Docu":8091,"seguido":8092,"renunci":8093,"Mur":8094,"##cemos":8095,"tribun":8096,"Tel":8097,"satisfacción":8098,"movimientos":8099,"Roc":8100,"Imper":8101,"numerosas":8102,"Debido":8103,"rit":8104,"infraestructura":8105,"discip":8106,"agres":8107,"científicos":8108,"fuertes":8109,"té":8110,"anal":8111,"realizados":8112,"esfera":8113,"asociaciones":8114,"tuviera":8115,"compañeros":8116,"Eslo":8117,"ciento":8118,"costos":8119,"##pil":8120,"invent":8121,"##ventud":8122,"evidencia":8123,"comunitarias":8124,"tru":8125,"ataques":8126,"##ispo":8127,"diplom":8128,"##dicas":8129,"có":8130,"candidatos":8131,"tera":8132,"secundaria":8133,"idioma":8134,"abordar":8135,"suyo":8136,"Nuevo":8137,"extranjeros":8138,"##leza":8139,"trasero":8140,"sacerdo":8141,"romper":8142,"suger":8143,"##tillo":8144,"puedas":8145,"activa":8146,"Aca":8147,"hermoso":8148,"cuello":8149,"portu":8150,"descanso":8151,"deli":8152,"##xem":8153,"amist":8154,"vigente":8155,"Oriente":8156,"diría":8157,"impresion":8158,"##dadas":8159,"ventas":8160,"cha":8161,"vivienda":8162,"enviar":8163,"artista":8164,"aplica":8165,"##gna":8166,"##enos":8167,"brazo":8168,"##MI":8169,"llu":8170,"fomento":8171,"millón":8172,"alumnos":8173,"##traste":8174,"cató":8175,"reforzar":8176,"subra":8177,"petróleo":8178,"##tamentos":8179,"ignor":8180,"##posiciones":8181,"Charles":8182,"##tarte":8183,"Cooperación":8184,"penal":8185,"##cula":8186,"producido":8187,"coher":8188,"Quédate":8189,"suficientes":8190,"Pueden":8191,"eventos":8192,"tol":8193,"##ernes":8194,"reti":8195,"##yeron":8196,"consideración":8197,"toneladas":8198,"subir":8199,"errores":8200,"evaluar":8201,"##dones":8202,"##gnos":8203,"##desa":8204,"anuales":8205,"Sería":8206,"Sta":8207,"envió":8208,"cuerpos":8209,"##02":8210,"acord":8211,"parecía":8212,"1984":8213,"##sivo":8214,"piloto":8215,"cuch":8216,"libres":8217,"Representante":8218,"185":8219,"sustan":8220,"amp":8221,"noticia":8222,"ojo":8223,"repercu":8224,"pregunto":8225,"##cien":8226,"jugando":8227,"##ientes":8228,"aceler":8229,"##ólogo":8230,"efectiva":8231,"ador":8232,"inscri":8233,"ruta":8234,"propone":8235,"luna":8236,"##lín":8237,"incremento":8238,"Campeonato":8239,"imagin":8240,"italiano":8241,"##uma":8242,"vá":8243,"monstru":8244,"determinado":8245,"##uti":8246,"perdió":8247,"Madre":8248,"esperaba":8249,"instrucciones":8250,"Gas":8251,"consumidores":8252,"nacido":8253,"compati":8254,"Democrática":8255,"enviado":8256,"##ículo":8257,"soluciones":8258,"##ville":8259,"insi":8260,"compu":8261,"Parti":8262,"abra":8263,"dará":8264,"polic":8265,"rendimiento":8266,"introducción":8267,"opiniones":8268,"##isp":8269,"##alter":8270,"##ológicas":8271,"viento":8272,"conjun":8273,"resuel":8274,"cau":8275,"##ctores":8276,"oposición":8277,"confiar":8278,"##roga":8279,"##porta":8280,"##lectu":8281,"desn":8282,"enmiendas":8283,"formular":8284,"consiguió":8285,"autores":8286,"irse":8287,"Presu":8288,"certific":8289,"gua":8290,"apartamento":8291,"observa":8292,"dí":8293,"##izado":8294,"Modi":8295,"Cré":8296,"Lí":8297,"viernes":8298,"motiv":8299,"bajar":8300,"Hal":8301,"viva":8302,"##ieren":8303,"perdon":8304,"parar":8305,"simul":8306,"viste":8307,"seleccion":8308,"montaña":8309,"campeón":8310,"turno":8311,"sentencia":8312,"empu":8313,"estarán":8314,"parecen":8315,"bolsa":8316,"##tesis":8317,"sar":8318,"##taña":8319,"participó":8320,"daré":8321,"pertenece":8322,"reino":8323,"modificaciones":8324,"##ecimiento":8325,"indemn":8326,"alf":8327,"ayudarte":8328,"cantante":8329,"banc":8330,"##gráfico":8331,"pantal":8332,"frances":8333,"##itarias":8334,"artistas":8335,"pene":8336,"##ordenadas":8337,"Má":8338,"mundi":8339,"constituyen":8340,"Mañana":8341,"defender":8342,"totalidad":8343,"##abel":8344,"psic":8345,"variedad":8346,"##teo":8347,"##tienen":8348,"billetes":8349,"EUROP":8350,"evidente":8351,"interme":8352,"llaman":8353,"Ia":8354,"Económica":8355,"realizadas":8356,"sueños":8357,"##icion":8358,"conducir":8359,"prece":8360,"##01":8361,"fortalecer":8362,"pensaba":8363,"vuelva":8364,"##úc":8365,"##ilos":8366,"patri":8367,"Sección":8368,"##fera":8369,"##PE":8370,"hidro":8371,"estábamos":8372,"Eurosistema":8373,"cerveza":8374,"##DO":8375,"actor":8376,"##andia":8377,"2018":8378,"##cita":8379,"log":8380,"roc":8381,"contratación":8382,"##uena":8383,"sujeto":8384,"etique":8385,"abuelo":8386,"##ju":8387,"##garse":8388,"##mica":8389,"##idi":8390,"abuela":8391,"restos":8392,"##pp":8393,"normalmente":8394,"Aplic":8395,"Pablo":8396,"reduci":8397,"##viamente":8398,"irnos":8399,"##tions":8400,"##cidentes":8401,"sat":8402,"disfrutar":8403,"Ecu":8404,"monedas":8405,"poblaciones":8406,"##tral":8407,"divis":8408,"fer":8409,"garantías":8410,"##perador":8411,"historias":8412,"convocatoria":8413,"Regist":8414,"##ee":8415,"desemp":8416,"auxili":8417,"gar":8418,"##lament":8419,"torno":8420,"##ruguay":8421,"##ezca":8422,"cubrir":8423,"Suecia":8424,"recibe":8425,"##cher":8426,"asal":8427,"##quina":8428,"Hos":8429,"desastre":8430,"##orías":8431,"##zamos":8432,"escenario":8433,"enfermo":8434,"convierte":8435,"##uidas":8436,"##tativo":8437,"##jón":8438,"juro":8439,"sober":8440,"presentada":8441,"Rápi":8442,"preparar":8443,"##ándole":8444,"##mestre":8445,"Dinamarca":8446,"Vámonos":8447,"##gie":8448,"##toriales":8449,"margen":8450,"Escuch":8451,"echar":8452,"ingles":8453,"##giendo":8454,"##jando":8455,"simp":8456,"apa":8457,"promes":8458,"prevenir":8459,"Americ":8460,"##ys":8461,"Segui":8462,"recuperar":8463,"Cualquier":8464,"##élulas":8465,"aust":8466,"extensión":8467,"##mm":8468,"explica":8469,"##úchame":8470,"Tony":8471,"abur":8472,"utilizados":8473,"Gir":8474,"torneo":8475,"##mí":8476,"conferencias":8477,"Habla":8478,"Pueb":8479,"vengan":8480,"ejercer":8481,"##stein":8482,"Interna":8483,"Capítulo":8484,"##quilla":8485,"rural":8486,"ofen":8487,"hones":8488,"cami":8489,"Simple":8490,"Puerto":8491,"decreto":8492,"islas":8493,"cooper":8494,"coordenadas":8495,"comparación":8496,"Premio":8497,"ciru":8498,"##ller":8499,"discurso":8500,"Trabaj":8501,"autón":8502,"tardar":8503,"posee":8504,"destinadas":8505,"vías":8506,"##recto":8507,"Administra":8508,"explicar":8509,"##immy":8510,"##ñado":8511,"controles":8512,"1982":8513,"adaptación":8514,"##úr":8515,"##brar":8516,"notificación":8517,"cocin":8518,"600":8519,"retrib":8520,"equivocado":8521,"econom":8522,"Penal":8523,"arran":8524,"experiencias":8525,"factor":8526,"##eos":8527,"Gri":8528,"##ish":8529,"Tro":8530,"violaciones":8531,"Salvador":8532,"monetaria":8533,"pocas":8534,"Luc":8535,"suya":8536,"##gante":8537,"pape":8538,"##atem":8539,"podían":8540,"Monte":8541,"realizada":8542,"##ore":8543,"fronteras":8544,"Ana":8545,"impi":8546,"Arm":8547,"##tus":8548,"humi":8549,"habido":8550,"##cidencia":8551,"##tadores":8552,"concentración":8553,"ensayo":8554,"aves":8555,"##art":8556,"apun":8557,"celebrar":8558,"ces":8559,"1983":8560,"jugadores":8561,"equip":8562,"prioridades":8563,"Luxem":8564,"Bern":8565,"terroristas":8566,"llamadas":8567,"##asión":8568,"##viste":8569,"tradición":8570,"##talo":8571,"##mios":8572,"##taban":8573,"correcta":8574,"Exteriores":8575,"permiten":8576,"tradicionales":8577,"sufri":8578,"típ":8579,"pared":8580,"Otras":8581,"sentimientos":8582,"células":8583,"##zi":8584,"##sieron":8585,"acabado":8586,"aquellas":8587,"sanciones":8588,"##depen":8589,"ge":8590,"##ctur":8591,"israel":8592,"dom":8593,"atrac":8594,"ape":8595,"##clam":8596,"##mula":8597,"relev":8598,"Podrías":8599,"##100":8600,"pasos":8601,"aprueba":8602,"lóg":8603,"mediados":8604,"Entiendo":8605,"lanzamiento":8606,"tenías":8607,"Ast":8608,"ausencia":8609,"##ides":8610,"coger":8611,"Museo":8612,"finalidad":8613,"belleza":8614,"UNI":8615,"insul":8616,"ruido":8617,"legislativo":8618,"##carse":8619,"Creí":8620,"empieza":8621,"personajes":8622,"##apones":8623,"desconoci":8624,"solicitar":8625,"recomendación":8626,"acontecimientos":8627,"Empres":8628,"##inea":8629,"particulares":8630,"##TER":8631,"Irán":8632,"impul":8633,"árboles":8634,"estatal":8635,"signific":8636,"Sabía":8637,"jardín":8638,"divor":8639,"convenio":8640,"encer":8641,"##cili":8642,"##su":8643,"##gosla":8644,"PRES":8645,"##99":8646,"##éticos":8647,"##pulación":8648,"##gust":8649,"amari":8650,"jurisdicción":8651,"grá":8652,"combatir":8653,"cho":8654,"captur":8655,"comité":8656,"##enes":8657,"semin":8658,"##tese":8659,"siguiendo":8660,"lectura":8661,"prefi":8662,"impu":8663,"##ICA":8664,"##ernas":8665,"apareció":8666,"perra":8667,"Pes":8668,"Estatuto":8669,"Públ":8670,"rehabili":8671,"brazos":8672,"Presidenta":8673,"##timos":8674,"siga":8675,"Permanente":8676,"##pié":8677,"sitios":8678,"##LE":8679,"Estad":8680,"llena":8681,"doce":8682,"hipo":8683,"afirma":8684,"hubiese":8685,"textos":8686,"ilí":8687,"##endario":8688,"nación":8689,"Cumbre":8690,"Afgan":8691,"metro":8692,"lago":8693,"absor":8694,"encen":8695,"##cab":8696,"##ight":8697,"##rones":8698,"##terías":8699,"esferas":8700,"Islas":8701,"##eles":8702,"##bertura":8703,"Ejecutivo":8704,"##dea":8705,"bosques":8706,"pleno":8707,"viviendas":8708,"Observ":8709,"encam":8710,"Lam":8711,"Carol":8712,"##icción":8713,"##dri":8714,"lamento":8715,"pistola":8716,"gobernador":8717,"combustible":8718,"histórico":8719,"polvo":8720,"guitar":8721,"##máticas":8722,"acumul":8723,"##villa":8724,"oriental":8725,"intelectu":8726,"##lateral":8727,"metal":8728,"##inando":8729,"modificado":8730,"##ant":8731,"##icaciones":8732,"##enio":8733,"##garon":8734,"##letas":8735,"mínima":8736,"devolver":8737,"fuese":8738,"##DA":8739,"celebra":8740,"##ot":8741,"##uta":8742,"utilizan":8743,"convertirse":8744,"##ació":8745,"brillante":8746,"promedio":8747,"##tillas":8748,"interesado":8749,"expresa":8750,"Nat":8751,"núc":8752,"##uto":8753,"pic":8754,"fácilmente":8755,"maríti":8756,"antiguos":8757,"##avi":8758,"##adura":8759,"herramientas":8760,"altos":8761,"Mayor":8762,"Caribe":8763,"mili":8764,"ritmo":8765,"arries":8766,"##cara":8767,"##rente":8768,"novela":8769,"cenar":8770,"##game":8771,"sepa":8772,"amar":8773,"maravilloso":8774,"Dale":8775,"fábrica":8776,"##60":8777,"listos":8778,"Tec":8779,"Facul":8780,"electri":8781,"copia":8782,"inició":8783,"descubrir":8784,"##onos":8785,"##25":8786,"Manten":8787,"internos":8788,"permanecer":8789,"castillo":8790,"estuve":8791,"equivalente":8792,"escritor":8793,"pintura":8794,"vín":8795,"Ases":8796,"verific":8797,"específica":8798,"medicina":8799,"decirlo":8800,"alegra":8801,"actitud":8802,"forman":8803,"hall":8804,"occidental":8805,"Investigación":8806,"##erba":8807,"detención":8808,"harás":8809,"borra":8810,"reconoce":8811,"##lidos":8812,"territorial":8813,"asiento":8814,"odi":8815,"cifras":8816,"elaborar":8817,"##idación":8818,"Termin":8819,"transformación":8820,"##onóm":8821,"Tele":8822,"afric":8823,"señala":8824,"comis":8825,"##uelos":8826,"buques":8827,"1981":8828,"específico":8829,"Br":8830,"restaurante":8831,"persi":8832,"igualmente":8833,"equilibrio":8834,"dime":8835,"Cree":8836,"Fernando":8837,"anunció":8838,"adoptó":8839,"peces":8840,"Afganistán":8841,"##arlos":8842,"184":8843,"Dich":8844,"##inebra":8845,"tr":8846,"OM":8847,"vistas":8848,"alcohol":8849,"lunes":8850,"tasas":8851,"acceder":8852,"##aso":8853,"Ayuda":8854,"colores":8855,"presiden":8856,"Cámara":8857,"europeas":8858,"presentan":8859,"Reun":8860,"Provin":8861,"Sociedad":8862,"impedir":8863,"##deos":8864,"##cismo":8865,"aprendizaje":8866,"##jestad":8867,"Mus":8868,"Gro":8869,"Ener":8870,"unión":8871,"comunitarios":8872,"colectivo":8873,"estaré":8874,"Censo":8875,"Simplemente":8876,"##izada":8877,"concreto":8878,"##anto":8879,"Miren":8880,"consideran":8881,"cie":8882,"indicadores":8883,"glob":8884,"Villa":8885,"183":8886,"decide":8887,"Len":8888,"posiciones":8889,"lados":8890,"llegaron":8891,"publicidad":8892,"Exp":8893,"techo":8894,"##VI":8895,"tribunales":8896,"solu":8897,"var":8898,"Rápido":8899,"lenguas":8900,"Proce":8901,"bordo":8902,"rid":8903,"##uirá":8904,"salario":8905,"Equi":8906,"registros":8907,"lindo":8908,"Sierra":8909,"##sistencia":8910,"##dujo":8911,"vea":8912,"ruso":8913,"##bana":8914,"perros":8915,"rin":8916,"QUE":8917,"reformas":8918,"agradecer":8919,"Mich":8920,"Universi":8921,"prevista":8922,"profundo":8923,"famoso":8924,"querías":8925,"##21":8926,"dientes":8927,"apos":8928,"pérdidas":8929,"Feli":8930,"exces":8931,"##tomas":8932,"costo":8933,"##ponen":8934,"Maldición":8935,"comprender":8936,"corta":8937,"enemigos":8938,"##lez":8939,"bomb":8940,"Fundación":8941,"Urban":8942,"espacios":8943,"soft":8944,"Verdad":8945,"desay":8946,"##chel":8947,"Entidad":8948,"títulos":8949,"##tables":8950,"combinación":8951,"Dije":8952,"múltiples":8953,"León":8954,"científico":8955,"dispositivo":8956,"renta":8957,"Leon":8958,"sobr":8959,"industriales":8960,"crítica":8961,"dirigido":8962,"##ai":8963,"destinado":8964,"##ume":8965,"##adáver":8966,"Ele":8967,"##restre":8968,"lig":8969,"reacción":8970,"torm":8971,"informar":8972,"recientes":8973,"##BA":8974,"robar":8975,"logrado":8976,"siglos":8977,"My":8978,"##iento":8979,"##adro":8980,"##taré":8981,"declaró":8982,"individuales":8983,"##ux":8984,"médica":8985,"bara":8986,"poli":8987,"definitiva":8988,"compañías":8989,"##enza":8990,"señalar":8991,"##jalá":8992,"Fab":8993,"Ambiente":8994,"manejar":8995,"perteneciente":8996,"##eto":8997,"invierno":8998,"cerrar":8999,"superar":9000,"anillo":9001,"aer":9002,"regla":9003,"interrump":9004,"cria":9005,"AS":9006,"mapa":9007,"##udas":9008,"regal":9009,"##ivas":9010,"##ló":9011,"federal":9012,"luces":9013,"deje":9014,"800":9015,"##ánico":9016,"delincu":9017,"mul":9018,"reún":9019,"oficialmente":9020,"Protección":9021,"atender":9022,"secretaría":9023,"armados":9024,"transfer":9025,"Sir":9026,"letras":9027,"culpable":9028,"cayó":9029,"##uerzo":9030,"hicimos":9031,"quedado":9032,"ani":9033,"CP":9034,"innovación":9035,"Ll":9036,"Digo":9037,"decír":9038,"hielo":9039,"##iría":9040,"Mit":9041,"hí":9042,"ajuste":9043,"razas":9044,"continúa":9045,"##up":9046,"colegio":9047,"##lizar":9048,"Chica":9049,"hola":9050,"matado":9051,"cadáver":9052,"Inte":9053,"García":9054,"ira":9055,"Fan":9056,"llevo":9057,"congel":9058,"Esas":9059,"dejes":9060,"Ty":9061,"Latina":9062,"tendrás":9063,"recién":9064,"hojas":9065,"##eza":9066,"imple":9067,"IF":9068,"##ise":9069,"trabajan":9070,"##rero":9071,"beb":9072,"nacion":9073,"AG":9074,"##gle":9075,"Thomas":9076,"creciente":9077,"##izon":9078,"Sos":9079,"cubierta":9080,"##rimi":9081,"intensi":9082,"meta":9083,"##cén":9084,"##yes":9085,"recomen":9086,"Territorial":9087,"productor":9088,"Unidad":9089,"Congo":9090,"pasada":9091,"prov":9092,"primaria":9093,"estableció":9094,"comprendido":9095,"interesadas":9096,"descripción":9097,"rurales":9098,"radi":9099,"triun":9100,"eficiencia":9101,"##fu":9102,"espada":9103,"Matt":9104,"##13":9105,"diablo":9106,"revolución":9107,"episodio":9108,"notas":9109,"raíz":9110,"asent":9111,"Noruega":9112,"audiencia":9113,"funcionar":9114,"basa":9115,"Luxemburgo":9116,"FBI":9117,"chi":9118,"Roy":9119,"##dona":9120,"pertinente":9121,"##IP":9122,"Cierto":9123,"##americanos":9124,"apartados":9125,"Nav":9126,"usuario":9127,"##mith":9128,"##RO":9129,"##ciado":9130,"recep":9131,"torre":9132,"Far":9133,"Tuve":9134,"asesoramiento":9135,"Uh":9136,"Posteriormente":9137,"fantá":9138,"##eral":9139,"adquisición":9140,"emisión":9141,"derivados":9142,"Corre":9143,"zapatos":9144,"inteligencia":9145,"huevos":9146,"conversación":9147,"Ginebra":9148,"##rantes":9149,"##quin":9150,"AP":9151,"tendencia":9152,"tendremos":9153,"comentarios":9154,"mensajes":9155,"aplicaciones":9156,"cerrado":9157,"um":9158,"testigo":9159,"##trocin":9160,"ventaja":9161,"hayas":9162,"Financi":9163,"Ado":9164,"Ima":9165,"indicar":9166,"conseguido":9167,"malos":9168,"glor":9169,"Ag":9170,"corresponden":9171,"Oper":9172,"prohibición":9173,"rico":9174,"##tori":9175,"templo":9176,"depar":9177,"Llé":9178,"reloj":9179,"comandante":9180,"ine":9181,"##rabes":9182,"ilust":9183,"Sem":9184,"##orado":9185,"ger":9186,"120":9187,"180":9188,"aran":9189,"satisfa":9190,"##graf":9191,"firmado":9192,"exclusivamente":9193,"previo":9194,"transparencia":9195,"delegaciones":9196,"Personal":9197,"muestras":9198,"ecus":9199,"entrevista":9200,"héroe":9201,"lanzado":9202,"Guatem":9203,"interesa":9204,"##inadas":9205,"ilegal":9206,"blanca":9207,"Espere":9208,"Yugosla":9209,"termina":9210,"tercero":9211,"##field":9212,"piernas":9213,"veget":9214,"farma":9215,"copa":9216,"cuyos":9217,"Tex":9218,"lanzar":9219,"darte":9220,"Dentro":9221,"verme":9222,"Hombre":9223,"alemanes":9224,"guardia":9225,"Igual":9226,"darme":9227,"contaminación":9228,"##áles":9229,"paga":9230,"calendario":9231,"espectáculo":9232,"compr":9233,"usado":9234,"suele":9235,"adjudi":9236,"arbi":9237,"propuesto":9238,"cañ":9239,"compens":9240,"formado":9241,"##smo":9242,"potencia":9243,"Cinco":9244,"Recuerdas":9245,"vistazo":9246,"##vimos":9247,"##14":9248,"esti":9249,"##ámaras":9250,"señaló":9251,"##mpor":9252,"Excel":9253,"vivos":9254,"inspir":9255,"Acabo":9256,"Boli":9257,"desarrollado":9258,"##ritos":9259,"deliber":9260,"Entendido":9261,"entero":9262,"éstas":9263,"##pé":9264,"enmienda":9265,"siguió":9266,"##cir":9267,"##ALES":9268,"##icipios":9269,"modalidades":9270,"anci":9271,"acostum":9272,"extremo":9273,"verla":9274,"aduan":9275,"Pra":9276,"hacerle":9277,"fich":9278,"llevaron":9279,"##rum":9280,"minas":9281,"vete":9282,"capaces":9283,"pieza":9284,"fueran":9285,"Tus":9286,"Vall":9287,"Lis":9288,"Edu":9289,"prolon":9290,"soldado":9291,"integrado":9292,"formato":9293,"lenguaje":9294,"250":9295,"hogares":9296,"socios":9297,"Feliz":9298,"##ladas":9299,"##ENCI":9300,"policías":9301,"produjo":9302,"conducta":9303,"ganas":9304,"felici":9305,"cuestion":9306,"Lim":9307,"modificar":9308,"balance":9309,"llegando":9310,"habr":9311,"querer":9312,"Siéntate":9313,"denunci":9314,"idiomas":9315,"pensamiento":9316,"##sito":9317,"##ología":9318,"Guatemala":9319,"##áticas":9320,"infancia":9321,"inqui":9322,"humor":9323,"##óstico":9324,"diversidad":9325,"Supre":9326,"quedará":9327,"universo":9328,"quedarse":9329,"solid":9330,"Public":9331,"hable":9332,"veter":9333,"representan":9334,"auton":9335,"mezcla":9336,"Fecha":9337,"retro":9338,"comprobar":9339,"HA":9340,"Partida":9341,"periodista":9342,"##citos":9343,"guía":9344,"vuestro":9345,"##uyó":9346,"ensayos":9347,"Uds":9348,"fores":9349,"Recom":9350,"síntomas":9351,"##anta":9352,"habitual":9353,"Iré":9354,"##bécil":9355,"##gate":9356,"Sp":9357,"Pin":9358,"rebel":9359,"impuesto":9360,"Produc":9361,"Cál":9362,"complejo":9363,"viajes":9364,"On":9365,"extin":9366,"##ficio":9367,"japones":9368,"##sey":9369,"bis":9370,"oscuro":9371,"Españ":9372,"vuestra":9373,"Depen":9374,"##gaste":9375,"virus":9376,"líderes":9377,"viejos":9378,"celebró":9379,"listas":9380,"You":9381,"##icepresidente":9382,"She":9383,"##ensores":9384,"precisamente":9385,"irá":9386,"continua":9387,"Uruguay":9388,"##udar":9389,"colección":9390,"intenta":9391,"caída":9392,"volar":9393,"Cur":9394,"##ila":9395,"##ciosa":9396,"##ADO":9397,"Año":9398,"hablamos":9399,"escul":9400,"ON":9401,"trabajado":9402,"herido":9403,"##licos":9404,"##amentos":9405,"contó":9406,"Texto":9407,"##ándote":9408,"llevará":9409,"##bernamental":9410,"testigos":9411,"bonita":9412,"déjame":9413,"quinto":9414,"periódicos":9415,"##cadas":9416,"##80":9417,"practi":9418,"hacerte":9419,"##tarán":9420,"concier":9421,"##ans":9422,"ingeni":9423,"étn":9424,"##23":9425,"alcalde":9426,"cír":9427,"##donos":9428,"privadas":9429,"caballos":9430,"Sarah":9431,"moral":9432,"##lina":9433,"##stancia":9434,"tantos":9435,"##LA":9436,"##ridos":9437,"Occidental":9438,"nombra":9439,"acero":9440,"##pez":9441,"discre":9442,"Dijiste":9443,"demostrado":9444,"##gs":9445,"##guir":9446,"bienestar":9447,"telef":9448,"##eri":9449,"estadounidenses":9450,"Hecho":9451,"##renos":9452,"ronda":9453,"concurso":9454,"##ns":9455,"reunir":9456,"informó":9457,"Mucho":9458,"privi":9459,"encargar":9460,"paisa":9461,"desta":9462,"actriz":9463,"Comisario":9464,"alimentación":9465,"reflex":9466,"pasajeros":9467,"Pier":9468,"cierre":9469,"celebrado":9470,"polici":9471,"desarme":9472,"atrapar":9473,"you":9474,"##drás":9475,"Volver":9476,"homo":9477,"supi":9478,"Cha":9479,"usos":9480,"quise":9481,"##15":9482,"##icio":9483,"tanta":9484,"continú":9485,"Propuesta":9486,"Mill":9487,"Cultura":9488,"próximos":9489,"Adam":9490,"##ecución":9491,"estructurales":9492,"Felici":9493,"PNUD":9494,"Finlandia":9495,"concur":9496,"haberlo":9497,"##americana":9498,"ocurrido":9499,"##vido":9500,"injust":9501,"Milenio":9502,"SU":9503,"##sie":9504,"tranquilo":9505,"##hibi":9506,"prestaciones":9507,"pido":9508,"Academia":9509,"Relator":9510,"molesta":9511,"Cuatro":9512,"disminución":9513,"preocupado":9514,"poca":9515,"##illos":9516,"tía":9517,"harán":9518,"Quin":9519,"rein":9520,"repente":9521,"##IG":9522,"cuotas":9523,"aviones":9524,"casado":9525,"Papa":9526,"abst":9527,"abon":9528,"administrativas":9529,"##arl":9530,"##lecom":9531,"físico":9532,"##amp":9533,"##lito":9534,"duer":9535,"aceite":9536,"toca":9537,"Carl":9538,"cerem":9539,"embaj":9540,"recuerdas":9541,"Superior":9542,"sistem":9543,"lament":9544,"embarazada":9545,"##ónico":9546,"##ath":9547,"modificada":9548,"Vil":9549,"##duras":9550,"TR":9551,"plataforma":9552,"##uesos":9553,"acabo":9554,"ideal":9555,"estatales":9556,"universal":9557,"refiero":9558,"enca":9559,"salido":9560,"##orld":9561,"Quisiera":9562,"desen":9563,"valoración":9564,"vayan":9565,"quede":9566,"aprobada":9567,"ocupa":9568,"oh":9569,"malas":9570,"hablo":9571,"perfectamente":9572,"depósito":9573,"ingreso":9574,"veré":9575,"pantalla":9576,"##ández":9577,"oye":9578,"##alizó":9579,"Steve":9580,"exige":9581,"Entr":9582,"inclusión":9583,"cigar":9584,"rehabilitación":9585,"cobertura":9586,"Ucran":9587,"##teratura":9588,"referente":9589,"atacar":9590,"suple":9591,"vigi":9592,"civi":9593,"##itz":9594,"haberse":9595,"reconocido":9596,"prácticamente":9597,"descubierto":9598,"ubicación":9599,"Tes":9600,"Bea":9601,"caminar":9602,"##ela":9603,"##gara":9604,"implan":9605,"paquete":9606,"turismo":9607,"argent":9608,"obe":9609,"##ñar":9610,"permita":9611,"##ISI":9612,"diputados":9613,"concretas":9614,"fel":9615,"gasto":9616,"Chris":9617,"hecha":9618,"capacidades":9619,"Pregun":9620,"camar":9621,"perfecta":9622,"Imperio":9623,"Dé":9624,"noctur":9625,"##ngeles":9626,"##sias":9627,"positivo":9628,"científica":9629,"Veo":9630,"delic":9631,"necesitaba":9632,"pasan":9633,"señores":9634,"jubi":9635,"veinte":9636,"enseguida":9637,"##itan":9638,"afecta":9639,"domést":9640,"##ficada":9641,"##jen":9642,"bron":9643,"##sal":9644,"ONU":9645,"legíti":9646,"impresión":9647,"fija":9648,"##jeras":9649,"##dedores":9650,"insta":9651,"##ohnny":9652,"patrimonio":9653,"teniente":9654,"lleve":9655,"##éano":9656,"rango":9657,"##16":9658,"##cón":9659,"Cuar":9660,"electricidad":9661,"##erry":9662,"##ann":9663,"perjudi":9664,"##ualidad":9665,"atraves":9666,"trae":9667,"satéli":9668,"Stu":9669,"líqui":9670,"encontraron":9671,"mencionados":9672,"conceder":9673,"bromeando":9674,"analizar":9675,"Bretaña":9676,"##camente":9677,"##ragón":9678,"Viena":9679,"Pales":9680,"##áfrica":9681,"dejando":9682,"##SI":9683,"agrup":9684,"irte":9685,"desapareci":9686,"perdón":9687,"corrupción":9688,"británico":9689,"uniforme":9690,"escolar":9691,"##ránsito":9692,"logro":9693,"recepción":9694,"liger":9695,"detalle":9696,"avances":9697,"Cate":9698,"##dando":9699,"##terráneo":9700,"posteriores":9701,"activ":9702,"ecu":9703,"##dras":9704,"coinci":9705,"##ecían":9706,"Fuerza":9707,"entrevi":9708,"débil":9709,"toler":9710,"programación":9711,"frase":9712,"discutir":9713,"camión":9714,"negra":9715,"entrenamiento":9716,"medioambi":9717,"proto":9718,"estren":9719,"debidamente":9720,"Caball":9721,"##orge":9722,"##ave":9723,"##zones":9724,"muere":9725,"Registro":9726,"limpieza":9727,"aparecer":9728,"##crito":9729,"observación":9730,"existente":9731,"trabajó":9732,"iniciar":9733,"trampa":9734,"Oriental":9735,"Ucrania":9736,"Civil":9737,"candidato":9738,"##undir":9739,"##lón":9740,"Conf":9741,"visitar":9742,"sil":9743,"##alizadas":9744,"urgente":9745,"Sudáfrica":9746,"viviendo":9747,"Necesitas":9748,"##toría":9749,"consta":9750,"##lamiento":9751,"CU":9752,"municipios":9753,"Disculpa":9754,"indican":9755,"Danny":9756,"##ariz":9757,"logra":9758,"##versario":9759,"##cano":9760,"encontraba":9761,"Hotel":9762,"##tiende":9763,"##tha":9764,"mandar":9765,"independientes":9766,"proli":9767,"IP":9768,"Foro":9769,"##acciones":9770,"cantar":9771,"incumpli":9772,"traído":9773,"marcas":9774,"configu":9775,"llaves":9776,"Autoridad":9777,"cambia":9778,"dimensión":9779,"negociación":9780,"bala":9781,"patrocin":9782,"seme":9783,"St":9784,"implica":9785,"muestran":9786,"##aje":9787,"Prepar":9788,"laborales":9789,"escrita":9790,"Ecuador":9791,"abar":9792,"##iería":9793,"##ings":9794,"quem":9795,"cientos":9796,"hallar":9797,"Esco":9798,"Ojalá":9799,"Chicos":9800,"Lamento":9801,"##0000":9802,"##económ":9803,"Ambos":9804,"##sel":9805,"##str":9806,"##ombi":9807,"mila":9808,"institucional":9809,"ase":9810,"identificar":9811,"domingo":9812,"silla":9813,"gay":9814,"dign":9815,"árabe":9816,"caza":9817,"mirada":9818,"##grafo":9819,"mental":9820,"calma":9821,"autobús":9822,"cálculo":9823,"parlament":9824,"someter":9825,"neg":9826,"encom":9827,"##itar":9828,"veremos":9829,"tortura":9830,"gras":9831,"catá":9832,"##isten":9833,"Hungría":9834,"construido":9835,"bajas":9836,"proporción":9837,"retra":9838,"ofrecen":9839,"entrenador":9840,"Us":9841,"sensación":9842,"##diciones":9843,"Gestión":9844,"##entimiento":9845,"##gén":9846,"Olví":9847,"fortalecimiento":9848,"Glo":9849,"##elas":9850,"secretario":9851,"papeles":9852,"##pciones":9853,"##lique":9854,"##dante":9855,"Gobern":9856,"organizado":9857,"domi":9858,"príncipe":9859,"##tidi":9860,"coronel":9861,"##uth":9862,"reglament":9863,"FR":9864,"automó":9865,"empleado":9866,"necesitar":9867,"pelear":9868,"##ear":9869,"investigar":9870,"##americano":9871,"##guez":9872,"##leto":9873,"maneras":9874,"suspensión":9875,"##bidas":9876,"International":9877,"Agricultura":9878,"ponente":9879,"##díos":9880,"oscuridad":9881,"medalla":9882,"espiritual":9883,"Total":9884,"PRO":9885,"aéreo":9886,"semej":9887,"hiciera":9888,"caballero":9889,"##cúl":9890,"##bien":9891,"alternativa":9892,"cuarta":9893,"montañas":9894,"Deberíamos":9895,"significado":9896,"##ULO":9897,"##ian":9898,"chil":9899,"exitos":9900,"fenómeno":9901,"##urt":9902,"tendré":9903,"Majestad":9904,"habitaciones":9905,"paseo":9906,"dudas":9907,"##lóg":9908,"campes":9909,"Ami":9910,"restricciones":9911,"rique":9912,"Resul":9913,"Ted":9914,"##cionamiento":9915,"Espíritu":9916,"##icios":9917,"Dado":9918,"guardar":9919,"electoral":9920,"mantuvo":9921,"Colegio":9922,"establecida":9923,"sindica":9924,"##90":9925,"colega":9926,"aparición":9927,"horizon":9928,"Comunicación":9929,"relativamente":9930,"grados":9931,"propiedades":9932,"Movi":9933,"cambió":9934,"##ison":9935,"privados":9936,"##MP":9937,"alemana":9938,"almacenamiento":9939,"propa":9940,"señales":9941,"pará":9942,"Defensa":9943,"enferm":9944,"Control":9945,"cinta":9946,"dueño":9947,"##moslo":9948,"estudiante":9949,"creí":9950,"comprende":9951,"puntu":9952,"aca":9953,"donantes":9954,"conceptos":9955,"asesinado":9956,"creía":9957,"cero":9958,"Urbanismo":9959,"pasará":9960,"vídeo":9961,"pecho":9962,"esenciales":9963,"climático":9964,"rostro":9965,"Pública":9966,"horario":9967,"##gase":9968,"##osofía":9969,"compensación":9970,"##údame":9971,"##sec":9972,"Coronel":9973,"gestion":9974,"exportaciones":9975,"Anna":9976,"##inó":9977,"trop":9978,"##estructuras":9979,"expuls":9980,"abandonar":9981,"exteriores":9982,"##terna":9983,"Presupuesto":9984,"dedicado":9985,"extraordinario":9986,"compras":9987,"elevado":9988,"prostitu":9989,"invitado":9990,"Hazlo":9991,"colegas":9992,"obstáculos":9993,"Berlín":9994,"##ónimo":9995,"Smith":9996,"amenazas":9997,"difíciles":9998,"ADN":9999,"Tem":10000,"nena":10001,"cura":10002,"román":10003,"obligado":10004,"Mul":10005,"altas":10006,"##ST":10007,"Rica":10008,"##vanse":10009,"Evan":10010,"##eses":10011,"í":10012,"relacionado":10013,"##ally":10014,"##lecomun":10015,"##esen":10016,"Indepen":10017,"barcos":10018,"suelen":10019,"Tema":10020,"requier":10021,"dominio":10022,"Che":10023,"##tativas":10024,"inocente":10025,"valle":10026,"Billy":10027,"##ugh":10028,"redac":10029,"antig":10030,"##teza":10031,"SO":10032,"Gil":10033,"##amen":10034,"crímenes":10035,"cámaras":10036,"trami":10037,"Radio":10038,"##UT":10039,"cabello":10040,"##óptero":10041,"permitió":10042,"fijar":10043,"quedarme":10044,"##bs":10045,"##ther":10046,"autos":10047,"solos":10048,"olvidado":10049,"##fique":10050,"ilumin":10051,"tome":10052,"demasi":10053,"Andre":10054,"##ptimo":10055,"ampliar":10056,"##raron":10057,"aloj":10058,"Sac":10059,"poniendo":10060,"cometido":10061,"artifici":10062,"cien":10063,"##elle":10064,"##ulio":10065,"averiguar":10066,"simpli":10067,"sentado":10068,"gratis":10069,"Comen":10070,"actores":10071,"ejemplos":10072,"##mol":10073,"##domin":10074,"liquidación":10075,"prolifer":10076,"anex":10077,"City":10078,"Estaré":10079,"aterri":10080,"musul":10081,"cercano":10082,"Ron":10083,"básica":10084,"enfad":10085,"fiestas":10086,"fór":10087,"ox":10088,"anuncio":10089,"##elly":10090,"##grafías":10091,"ayudarme":10092,"estrecha":10093,"arque":10094,"Camp":10095,"criterio":10096,"##dam":10097,"Enrique":10098,"CR":10099,"choc":10100,"desempleo":10101,"mundiales":10102,"cro":10103,"desh":10104,"gir":10105,"Suél":10106,"##tie":10107,"griego":10108,"muñ":10109,"Abre":10110,"##orra":10111,"supervi":10112,"PC":10113,"mentira":10114,"planos":10115,"##gulo":10116,"entu":10117,"##tistas":10118,"pata":10119,"##teriza":10120,"españoles":10121,"Encu":10122,"secretos":10123,"depósitos":10124,"subsidi":10125,"permitido":10126,"Intent":10127,"##old":10128,"núcleo":10129,"##ariales":10130,"tantas":10131,"entendido":10132,"Mr":10133,"soportar":10134,"eléctrica":10135,"##oo":10136,"PARA":10137,"denominado":10138,"ayude":10139,"##úrate":10140,"##óx":10141,"desaparecido":10142,"inú":10143,"introducir":10144,"##26":10145,"naciones":10146,"Bran":10147,"judíos":10148,"lá":10149,"conveniente":10150,"nervioso":10151,"Guinea":10152,"Nota":10153,"Benefici":10154,"bac":10155,"vacío":10156,"##mann":10157,"humanitaria":10158,"pantalones":10159,"Maestro":10160,"monum":10161,"viajar":10162,"decen":10163,"##ganda":10164,"solía":10165,"dejé":10166,"##24":10167,"Cór":10168,"conocidos":10169,"arregl":10170,"Pide":10171,"refundido":10172,"##ae":10173,"##ulación":10174,"sobrevivir":10175,"codi":10176,"##quero":10177,"neu":10178,"##umer":10179,"duele":10180,"Reco":10181,"Exper":10182,"convencer":10183,"Mundo":10184,"electrónica":10185,"tránsito":10186,"Mont":10187,"merece":10188,"pájar":10189,"llevaba":10190,"negros":10191,"iban":10192,"afectado":10193,"jer":10194,"##dge":10195,"gracia":10196,"Quí":10197,"saliendo":10198,"perdiendo":10199,"##fricana":10200,"juventud":10201,"juega":10202,"plá":10203,"museo":10204,"Cuántos":10205,"hisp":10206,"jurado":10207,"##cionalmente":10208,"computadora":10209,"organizar":10210,"##vada":10211,"mag":10212,"Valle":10213,"##estia":10214,"##laciones":10215,"Aplicación":10216,"##SA":10217,"carro":10218,"hablan":10219,"observar":10220,"índice":10221,"mencionada":10222,"##undi":10223,"revisar":10224,"Mesa":10225,"##venta":10226,"mascul":10227,"Tay":10228,"invitados":10229,"Conse":10230,"Traba":10231,"llevando":10232,"tabla":10233,"gato":10234,"inscripción":10235,"profunda":10236,"apla":10237,"cifra":10238,"epi":10239,"pierna":10240,"discapacidad":10241,"proveedores":10242,"concierto":10243,"expedición":10244,"Historia":10245,"##dían":10246,"##mporán":10247,"már":10248,"Tommy":10249,"##ager":10250,"universidades":10251,"debates":10252,"serían":10253,"##ficados":10254,"##amilia":10255,"##nología":10256,"Sun":10257,"Chicago":10258,"##GL":10259,"traducción":10260,"inmun":10261,"párrafos":10262,"Industri":10263,"alcanzado":10264,"pura":10265,"EEE":10266,"considerarse":10267,"remun":10268,"seno":10269,"presentadas":10270,"debió":10271,"definir":10272,"realizan":10273,"clic":10274,"Dictamen":10275,"rodi":10276,"Boy":10277,"roman":10278,"franceses":10279,"PIB":10280,"Pé":10281,"Sá":10282,"##cana":10283,"expresar":10284,"Normas":10285,"fechas":10286,"detective":10287,"##udos":10288,"amistad":10289,"mata":10290,"##ady":10291,"Bienvenido":10292,"conocen":10293,"Baja":10294,"##viera":10295,"eficaces":10296,"##chada":10297,"ponen":10298,"rastre":10299,"##mbolo":10300,"##camiento":10301,"imbécil":10302,"confes":10303,"Festival":10304,"estima":10305,"Tampoco":10306,"Defin":10307,"móvil":10308,"Vis":10309,"##indo":10310,"educ":10311,"agricul":10312,"indemnización":10313,"sujetos":10314,"proporciona":10315,"chino":10316,"Aun":10317,"gama":10318,"tún":10319,"devuel":10320,"inmediata":10321,"Scott":10322,"iguales":10323,"dedos":10324,"sof":10325,"perspectivas":10326,"considerando":10327,"##18":10328,"Bec":10329,"escuchado":10330,"nutri":10331,"dejo":10332,"retirada":10333,"Cuadro":10334,"Municipio":10335,"bajos":10336,"Fred":10337,"corriendo":10338,"##bla":10339,"##oya":10340,"emis":10341,"##mond":10342,"##inario":10343,"##vá":10344,"1960":10345,"##jun":10346,"Cy":10347,"##ócra":10348,"administrativos":10349,"fracas":10350,"##ella":10351,"interponer":10352,"##andro":10353,"adecuadas":10354,"nove":10355,"copias":10356,"Leg":10357,"hubieran":10358,"fiscales":10359,"aparecen":10360,"##oa":10361,"bienvenida":10362,"Tranquilo":10363,"far":10364,"conjunta":10365,"##lano":10366,"Regional":10367,"##UM":10368,"redon":10369,"##entamente":10370,"Blac":10371,"##formes":10372,"Diego":10373,"##carril":10374,"conquist":10375,"treinta":10376,"McC":10377,"avance":10378,"Quieren":10379,"##tavo":10380,"hacerme":10381,"##tela":10382,"Ministros":10383,"Entra":10384,"om":10385,"absolutamente":10386,"##cán":10387,"referirse":10388,"columna":10389,"Chipre":10390,"consejero":10391,"##iner":10392,"##viética":10393,"regresó":10394,"##ivamente":10395,"##ifica":10396,"depos":10397,"conde":10398,"lluvia":10399,"eva":10400,"##tornos":10401,"ONG":10402,"##emia":10403,"futbol":10404,"##itación":10405,"despa":10406,"Energía":10407,"ventajas":10408,"Hy":10409,"Princip":10410,"alimentaria":10411,"alar":10412,"secuestr":10413,"##hat":10414,"asignación":10415,"americano":10416,"Vista":10417,"distinto":10418,"recogida":10419,"nomin":10420,"urbano":10421,"##ua":10422,"##cidas":10423,"dejaré":10424,"jugó":10425,"Cra":10426,"##CEF":10427,"Vuelve":10428,"##unt":10429,"proliferación":10430,"##cilio":10431,"##empo":10432,"departamentos":10433,"participa":10434,"guarda":10435,"##gaba":10436,"Rus":10437,"confiden":10438,"##ett":10439,"noble":10440,"##dul":10441,"primavera":10442,"oral":10443,"##pito":10444,"ultra":10445,"destaca":10446,"ponerse":10447,"preserv":10448,"Encan":10449,"trago":10450,"##mue":10451,"primo":10452,"Embaj":10453,"Promo":10454,"certificados":10455,"hierro":10456,"volverá":10457,"##lice":10458,"destacar":10459,"Siria":10460,"nariz":10461,"Leo":10462,"corrientes":10463,"versiones":10464,"##tenta":10465,"mete":10466,"obtenido":10467,"palacio":10468,"posesión":10469,"habló":10470,"##ters":10471,"##urí":10472,"deporte":10473,"emocion":10474,"##dral":10475,"positiva":10476,"trajo":10477,"Virgen":10478,"##donesia":10479,"Reunión":10480,"##for":10481,"##pendo":10482,"apoya":10483,"##tense":10484,"##BRE":10485,"Teniente":10486,"contenidos":10487,"##ruecos":10488,"campamento":10489,"magia":10490,"proclam":10491,"indirec":10492,"dirige":10493,"##ait":10494,"Human":10495,"circui":10496,"##omé":10497,"bandera":10498,"##undamente":10499,"##gón":10500,"sum":10501,"##zgo":10502,"electro":10503,"##tativa":10504,"detenido":10505,"défici":10506,"espacial":10507,"estadística":10508,"##ural":10509,"alber":10510,"individuos":10511,"quiso":10512,"punta":10513,"Tanto":10514,"disponibilidad":10515,"sábado":10516,"dioses":10517,"ridículo":10518,"flota":10519,"publicaciones":10520,"##his":10521,"Marruecos":10522,"Pl":10523,"consa":10524,"expansión":10525,"razonable":10526,"Ly":10527,"Bet":10528,"asistir":10529,"solar":10530,"##eff":10531,"##hal":10532,"esque":10533,"proceder":10534,"avanzar":10535,"habilidades":10536,"post":10537,"remuner":10538,"memor":10539,"##CC":10540,"Plata":10541,"##diera":10542,"##tración":10543,"respetar":10544,"inspección":10545,"talento":10546,"modern":10547,"arancel":10548,"Clas":10549,"jurídicos":10550,"Comisionado":10551,"##35":10552,"reproduc":10553,"proven":10554,"metodo":10555,"acusado":10556,"adolescentes":10557,"sú":10558,"Ann":10559,"parro":10560,"##reros":10561,"Sociales":10562,"completar":10563,"fué":10564,"bolsi":10565,"bienio":10566,"GR":10567,"droga":10568,"Luna":10569,"AM":10570,"vid":10571,"premios":10572,"Dol":10573,"dame":10574,"##genda":10575,"custo":10576,"Sex":10577,"##04":10578,"ponga":10579,"##gieron":10580,"quitar":10581,"Niño":10582,"disponer":10583,"Sudán":10584,"obligatorio":10585,"perfil":10586,"estaciones":10587,"refieres":10588,"##hen":10589,"salga":10590,"aprobar":10591,"##corro":10592,"##oración":10593,"reestructura":10594,"teníamos":10595,"consenso":10596,"dispositivos":10597,"##ders":10598,"abogados":10599,"ambientales":10600,"Aut":10601,"sabías":10602,"habías":10603,"CH":10604,"Bajo":10605,"feder":10606,"explicación":10607,"Palestina":10608,"motores":10609,"extraña":10610,"##icen":10611,"define":10612,"satisfac":10613,"##ímenes":10614,"Cho":10615,"arena":10616,"desesper":10617,"errad":10618,"Hosp":10619,"aceptación":10620,"perpe":10621,"incorporación":10622,"llevas":10623,"aprovechar":10624,"adiós":10625,"Aque":10626,"Brian":10627,"Reina":10628,"Cli":10629,"##ori":10630,"Checa":10631,"estancia":10632,"Bang":10633,"cansado":10634,"niñ":10635,"##cú":10636,"##áus":10637,"cuidados":10638,"persegui":10639,"pudieran":10640,"leal":10641,"Conozco":10642,"event":10643,"asumir":10644,"Bolivia":10645,"efectuar":10646,"semillas":10647,"Indonesia":10648,"admitir":10649,"taller":10650,"##mé":10651,"bombar":10652,"vieron":10653,"Ló":10654,"seguirá":10655,"EUROPE":10656,"esquina":10657,"preparados":10658,"Patri":10659,"consolidación":10660,"tensión":10661,"metas":10662,"estando":10663,"añadir":10664,"lanzó":10665,"linda":10666,"##rista":10667,"##LL":10668,"apropiado":10669,"sole":10670,"Finalidad":10671,"Sent":10672,"##capié":10673,"arquitectura":10674,"Cues":10675,"##ms":10676,"dejas":10677,"alcanzó":10678,"describe":10679,"yendo":10680,"Correcto":10681,"Nivel":10682,"Isabel":10683,"denominación":10684,"préstamo":10685,"Ciencias":10686,"##glos":10687,"llegan":10688,"especializados":10689,"Listo":10690,"críticas":10691,"indispens":10692,"literatura":10693,"Suena":10694,"finalizar":10695,"##zaba":10696,"destina":10697,"Recur":10698,"Líbano":10699,"Operaciones":10700,"previamente":10701,"Mara":10702,"##quito":10703,"solicitante":10704,"Hici":10705,"bras":10706,"regulación":10707,"consciente":10708,"recl":10709,"entusias":10710,"supe":10711,"huellas":10712,"##garia":10713,"estacion":10714,"homici":10715,"Hac":10716,"limpio":10717,"sospechoso":10718,"hincapié":10719,"cuentan":10720,"Holly":10721,"intelectual":10722,"##gy":10723,"##08":10724,"##ani":10725,"comisiones":10726,"bici":10727,"ácido":10728,"##eamente":10729,"cultivo":10730,"popu":10731,"separado":10732,"Dicen":10733,"entera":10734,"Hubo":10735,"revolucion":10736,"Parque":10737,"consecu":10738,"intra":10739,"##AMENTO":10740,"##blica":10741,"##rillo":10742,"rece":10743,"Rol":10744,"interro":10745,"Plaza":10746,"Cle":10747,"Torre":10748,"separación":10749,"Var":10750,"intervenciones":10751,"125":10752,"papa":10753,"agencia":10754,"##áticamente":10755,"suprimi":10756,"entrará":10757,"cortar":10758,"Media":10759,"NIF":10760,"Bat":10761,"botella":10762,"dimensiones":10763,"bronce":10764,"encantaría":10765,"constitución":10766,"pecado":10767,"parecido":10768,"##piro":10769,"conocí":10770,"reducido":10771,"POR":10772,"podremos":10773,"##lyn":10774,"Pronto":10775,"pó":10776,"Fil":10777,"Podríamos":10778,"##oan":10779,"beso":10780,"restr":10781,"Particip":10782,"elaborado":10783,"tari":10784,"subven":10785,"mencionar":10786,"descrito":10787,"Cielos":10788,"personalidad":10789,"##lista":10790,"sexuales":10791,"Arri":10792,"restitu":10793,"enorm":10794,"Pasa":10795,"Perdon":10796,"décadas":10797,"cuchillo":10798,"sustancia":10799,"Dun":10800,"Recon":10801,"##coles":10802,"criminal":10803,"López":10804,"campeonato":10805,"profundidad":10806,"felicidad":10807,"Roger":10808,"prede":10809,"dignidad":10810,"Vay":10811,"códi":10812,"libertades":10813,"antece":10814,"coordin":10815,"##hacer":10816,"Bobby":10817,"Fiscal":10818,"##ctos":10819,"integridad":10820,"herida":10821,"##pla":10822,"pretende":10823,"conjuntamente":10824,"jefes":10825,"previs":10826,"soporte":10827,"carreras":10828,"usan":10829,"decep":10830,"liberación":10831,"sabido":10832,"Muer":10833,"ricos":10834,"DOL":10835,"Recuerda":10836,"##pañas":10837,"##ités":10838,"##uicios":10839,"presi":10840,"dama":10841,"creada":10842,"##ald":10843,"recib":10844,"rayos":10845,"Discúl":10846,"consultar":10847,"Louis":10848,"mediano":10849,"##loc":10850,"consigue":10851,"continuó":10852,"##ombros":10853,"##28":10854,"parce":10855,"##ólica":10856,"##piente":10857,"##lecomunicaciones":10858,"actú":10859,"Bulgaria":10860,"integrada":10861,"inca":10862,"Llev":10863,"comenzaron":10864,"alegría":10865,"frag":10866,"##vete":10867,"investigadores":10868,"##vemente":10869,"Eric":10870,"disparar":10871,"seré":10872,"Libro":10873,"mejoras":10874,"##boa":10875,"felices":10876,"Inspec":10877,"autonomía":10878,"abund":10879,"Comandante":10880,"conocía":10881,"básico":10882,"Existen":10883,"funcionario":10884,"##embol":10885,"recuerdos":10886,"##tuales":10887,"presidencia":10888,"judiciales":10889,"discusión":10890,"cable":10891,"Lord":10892,"##ícula":10893,"digital":10894,"Saben":10895,"##pio":10896,"UNICEF":10897,"Filip":10898,"convenios":10899,"##ilandia":10900,"monstruo":10901,"debían":10902,"##enn":10903,"fla":10904,"##stica":10905,"Maria":10906,"formal":10907,"Anda":10908,"bandas":10909,"mam":10910,"empresarial":10911,"formó":10912,"urgencia":10913,"pedí":10914,"fort":10915,"consoli":10916,"##traje":10917,"Hit":10918,"##mping":10919,"##rense":10920,"ordinario":10921,"##ginal":10922,"cirugía":10923,"solidaridad":10924,"nacionalidad":10925,"continente":10926,"provincias":10927,"##eso":10928,"jugue":10929,"encuentre":10930,"adecuados":10931,"Algún":10932,"participan":10933,"plazos":10934,"##stitucional":10935,"##cate":10936,"Agente":10937,"herramienta":10938,"##damos":10939,"sentía":10940,"##ason":10941,"SL":10942,"exigencias":10943,"cuyas":10944,"##lores":10945,"Ante":10946,"##az":10947,"carn":10948,"liga":10949,"borde":10950,"símbolo":10951,"contactos":10952,"Lista":10953,"limitado":10954,"millas":10955,"autop":10956,"mister":10957,"##ght":10958,"roto":10959,"economías":10960,"##fia":10961,"Sho":10962,"llorar":10963,"favorable":10964,"Acta":10965,"Eddie":10966,"Castilla":10967,"vendrá":10968,"indicado":10969,"##pidez":10970,"específicamente":10971,"satisfacer":10972,"Trá":10973,"trataba":10974,"##pper":10975,"##usal":10976,"expec":10977,"profesores":10978,"Bl":10979,"##raciones":10980,"Miembro":10981,"patrón":10982,"##UER":10983,"diferenci":10984,"reciben":10985,"afectadas":10986,"jurídicas":10987,"id":10988,"aniversario":10989,"caminos":10990,"##ast":10991,"Odio":10992,"nor":10993,"Demas":10994,"contado":10995,"conductor":10996,"desf":10997,"diam":10998,"reparación":10999,"Bay":11000,"canales":11001,"llamaba":11002,"cae":11003,"declarado":11004,"Ryan":11005,"insec":11006,"Recomend":11007,"Pie":11008,"sufrido":11009,"Llo":11010,"##pía":11011,"##enme":11012,"escas":11013,"##adilla":11014,"Bah":11015,"cuen":11016,"designado":11017,"Via":11018,"géneros":11019,"Hice":11020,"tormenta":11021,"bastar":11022,"componente":11023,"poblacional":11024,"medicamento":11025,"##osovo":11026,"Art":11027,"dirigentes":11028,"verg":11029,"televis":11030,"Beneficiario":11031,"##ciar":11032,"115":11033,"##érico":11034,"##ning":11035,"utilizarse":11036,"Artes":11037,"audio":11038,"Hospital":11039,"##enny":11040,"Yugoslavia":11041,"Compañ":11042,"resumen":11043,"##sula":11044,"Estuvo":11045,"##acidad":11046,"##oneta":11047,"fri":11048,"##29":11049,"anticip":11050,"Encontr":11051,"hol":11052,"villa":11053,"campañas":11054,"##turos":11055,"much":11056,"intentado":11057,"##brada":11058,"cruzar":11059,"Georgia":11060,"déficit":11061,"comprensión":11062,"locos":11063,"##éndolo":11064,"juntas":11065,"Cir":11066,"mencionadas":11067,"##itri":11068,"manz":11069,"moderna":11070,"transfron":11071,"##ísima":11072,"verás":11073,"biblioteca":11074,"demuestra":11075,"enlace":11076,"orgulloso":11077,"Adi":11078,"Cambio":11079,"flujo":11080,"inicialmente":11081,"Lea":11082,"##03":11083,"##stió":11084,"tendencias":11085,"later":11086,"secciones":11087,"básicas":11088,"##mem":11089,"reiter":11090,"abaste":11091,"Air":11092,"degrad":11093,"uh":11094,"##enen":11095,"iremos":11096,"##idu":11097,"PY":11098,"##limin":11099,"daba":11100,"lici":11101,"pez":11102,"nad":11103,"##osh":11104,"aplicará":11105,"libras":11106,"##pirar":11107,"módu":11108,"impulso":11109,"ansi":11110,"casó":11111,"santo":11112,"ganador":11113,"##ics":11114,"calcul":11115,"##caba":11116,"Pueblo":11117,"emperador":11118,"químicos":11119,"Poco":11120,"##evin":11121,"dedo":11122,"##tari":11123,"##daron":11124,"Rafa":11125,"etapas":11126,"tribu":11127,"##abora":11128,"Mucha":11129,"extrem":11130,"OC":11131,"cultiv":11132,"##fac":11133,"##guesa":11134,"##TADO":11135,"Estuve":11136,"salón":11137,"##elo":11138,"Estudios":11139,"dada":11140,"pendientes":11141,"incent":11142,"##encio":11143,"##ily":11144,"hermanas":11145,"finanzas":11146,"Sali":11147,"resultó":11148,"##VIII":11149,"##uyen":11150,"105":11151,"Palacio":11152,"Gonzá":11153,"serás":11154,"##polit":11155,"##mina":11156,"Bosnia":11157,"desap":11158,"Públicas":11159,"cumplido":11160,"palestinos":11161,"gr":11162,"habéis":11163,"taxi":11164,"magni":11165,"##hí":11166,"municipales":11167,"##mbol":11168,"gravedad":11169,"italiana":11170,"ciudadano":11171,"##cuenta":11172,"Texas":11173,"llevaré":11174,"preocupaciones":11175,"gustaba":11176,"Tru":11177,"extranjera":11178,"##teriz":11179,"permitirá":11180,"organizada":11181,"Doc":11182,"Ano":11183,"llamados":11184,"permitan":11185,"Saint":11186,"causar":11187,"asilo":11188,"seria":11189,"##cebo":11190,"Valencia":11191,"ríos":11192,"Deben":11193,"Medidas":11194,"Alan":11195,"prevent":11196,"deseos":11197,"##vor":11198,"credi":11199,"COMISI":11200,"##ándola":11201,"crecer":11202,"demonio":11203,"preguntó":11204,"##ei":11205,"delan":11206,"European":11207,"divul":11208,"estadio":11209,"Ul":11210,"promesa":11211,"##gráficas":11212,"fundación":11213,"destinada":11214,"roja":11215,"vam":11216,"imponer":11217,"denuncia":11218,"##ligencia":11219,"cuento":11220,"Sabemos":11221,"vine":11222,"toque":11223,"##erusal":11224,"códigos":11225,"tumba":11226,"Stre":11227,"aparatos":11228,"##arra":11229,"##bren":11230,"Pobre":11231,"afectan":11232,"##UD":11233,"OS":11234,"gases":11235,"##FOR":11236,"intercambios":11237,"hero":11238,"ego":11239,"formulación":11240,"Nicara":11241,"contemporán":11242,"pescado":11243,"paredes":11244,"Formación":11245,"##inter":11246,"##85":11247,"afron":11248,"absoluta":11249,"ferrovi":11250,"baj":11251,"inflación":11252,"Piensa":11253,"##line":11254,"celular":11255,"desaparecer":11256,"profesión":11257,"González":11258,"Emple":11259,"ANE":11260,"cerrada":11261,"efectivamente":11262,"incumplimiento":11263,"beneficiarios":11264,"aparte":11265,"desayuno":11266,"transcur":11267,"##burg":11268,"periodistas":11269,"experiment":11270,"desempeñar":11271,"impera":11272,"##ander":11273,"intentó":11274,"invasión":11275,"manifiesto":11276,"desierto":11277,"inferiores":11278,"Isl":11279,"Green":11280,"registrado":11281,"cancel":11282,"##zon":11283,"Entien":11284,"Vig":11285,"grabación":11286,"futura":11287,"llame":11288,"concluir":11289,"condena":11290,"##landés":11291,"educativo":11292,"##omer":11293,"##eco":11294,"Escúchame":11295,"##oroeste":11296,"Nig":11297,"Haci":11298,"juven":11299,"dejan":11300,"publicada":11301,"Queremos":11302,"responde":11303,"pastel":11304,"informado":11305,"quedarte":11306,"##toma":11307,"enfrentar":11308,"haberte":11309,"protocolo":11310,"destro":11311,"encargo":11312,"Leván":11313,"Felipe":11314,"explosión":11315,"habilidad":11316,"Veamos":11317,"##istemas":11318,"moda":11319,"Alta":11320,"Empe":11321,"constitutivo":11322,"##céu":11323,"##pecto":11324,"alm":11325,"ling":11326,"Olí":11327,"auténtico":11328,"Pienso":11329,"Interior":11330,"princesa":11331,"dile":11332,"hoja":11333,"##ristas":11334,"aqué":11335,"recorrido":11336,"Ama":11337,"Fútbol":11338,"##ércoles":11339,"contaba":11340,"instancia":11341,"##tuario":11342,"##into":11343,"Tercera":11344,"competitividad":11345,"##inete":11346,"veía":11347,"oración":11348,"into":11349,"naves":11350,"##iss":11351,"mecán":11352,"Nuestros":11353,"Corpor":11354,"sexto":11355,"Abra":11356,"coopera":11357,"Fuente":11358,"##ons":11359,"##afirm":11360,"consign":11361,"Arte":11362,"abrió":11363,"activamente":11364,"terrenos":11365,"entenderá":11366,"cruz":11367,"inc":11368,"simultán":11369,"reembol":11370,"Audi":11371,"##organ":11372,"Ran":11373,"debut":11374,"ina":11375,"transmitir":11376,"buque":11377,"1968":11378,"##ciona":11379,"vienes":11380,"fabricante":11381,"vecin":11382,"##camos":11383,"populares":11384,"limitada":11385,"Olímp":11386,"##iebre":11387,"Oro":11388,"PA":11389,"Hill":11390,"cerdo":11391,"Segundo":11392,"##22":11393,"tos":11394,"traicion":11395,"Brad":11396,"hipó":11397,"##gicos":11398,"ino":11399,"esconder":11400,"enferma":11401,"esperan":11402,"##titudes":11403,"IT":11404,"fusión":11405,"Home":11406,"ancho":11407,"Bis":11408,"trimestre":11409,"cláus":11410,"lidera":11411,"##tár":11412,"profundamente":11413,"Cuer":11414,"Exacto":11415,"Dave":11416,"averigu":11417,"envas":11418,"ruedas":11419,"informaciones":11420,"carbono":11421,"tripulación":11422,"desvi":11423,"##34":11424,"##óma":11425,"aho":11426,"##than":11427,"ceremonia":11428,"agradezco":11429,"quince":11430,"##uncias":11431,"restable":11432,"utilizada":11433,"cuesta":11434,"##cientes":11435,"ejecutar":11436,"Dor":11437,"estuvieron":11438,"minorías":11439,"insist":11440,"Respon":11441,"##valuación":11442,"##gol":11443,"##ecas":11444,"huir":11445,"Uti":11446,"producen":11447,"unir":11448,"vulnerables":11449,"diagn":11450,"##tter":11451,"Panamá":11452,"coño":11453,"##tiste":11454,"histórica":11455,"redacción":11456,"intimi":11457,"refleja":11458,"entradas":11459,"reme":11460,"castigo":11461,"consigo":11462,"traslado":11463,"requieren":11464,"prisioneros":11465,"aventura":11466,"accidentes":11467,"considerada":11468,"sufrir":11469,"ofertas":11470,"Nicaragua":11471,"abarca":11472,"Extra":11473,"Dal":11474,"fraude":11475,"sombrero":11476,"contrad":11477,"##ámenes":11478,"personalmente":11479,"tuvimos":11480,"relie":11481,"Shi":11482,"deterior":11483,"dejarlo":11484,"Sor":11485,"religiosa":11486,"Moscú":11487,"FA":11488,"firmar":11489,"##OG":11490,"Mauri":11491,"##esu":11492,"atrap":11493,"eficiente":11494,"palestino":11495,"plas":11496,"Alfon":11497,"COMUN":11498,"Croacia":11499,"Ví":11500,"derrota":11501,"pidiendo":11502,"calcular":11503,"##cristo":11504,"##xa":11505,"##chen":11506,"exen":11507,"arroz":11508,"abuso":11509,"##bie":11510,"olor":11511,"goles":11512,"##tría":11513,"##gul":11514,"argentino":11515,"film":11516,"Blanca":11517,"##vida":11518,"química":11519,"tiendas":11520,"Tío":11521,"agujero":11522,"fortuna":11523,"MA":11524,"Eu":11525,"compuesta":11526,"Victoria":11527,"venganza":11528,"##gramas":11529,"##dioso":11530,"Fra":11531,"Atlán":11532,"ascenso":11533,"riqueza":11534,"nieve":11535,"Esperen":11536,"##decer":11537,"Bir":11538,"vuelvo":11539,"##ástima":11540,"ése":11541,"ibas":11542,"##ponés":11543,"##gará":11544,"futuros":11545,"helic":11546,"vos":11547,"pertenecientes":11548,"##anes":11549,"movilidad":11550,"incidente":11551,"imaginar":11552,"##sfera":11553,"experto":11554,"aquello":11555,"aguan":11556,"promue":11557,"llegamos":11558,"escuchas":11559,"pudieron":11560,"Nombre":11561,"Teatro":11562,"##uéspe":11563,"Oigan":11564,"##miendo":11565,"amas":11566,"sello":11567,"bombas":11568,"##fen":11569,"ciencias":11570,"##queta":11571,"distra":11572,"jueves":11573,"zo":11574,"cintur":11575,"originales":11576,"calificación":11577,"constituir":11578,"alu":11579,"Cuenta":11580,"cuota":11581,"votar":11582,"empie":11583,"rean":11584,"Alej":11585,"Sie":11586,"moto":11587,"Amor":11588,"chocola":11589,"IFM":11590,"Escri":11591,"fundada":11592,"proceda":11593,"tomo":11594,"magist":11595,"leído":11596,"vigentes":11597,"##uér":11598,"escán":11599,"Mem":11600,"##06":11601,"Rachel":11602,"##ACIONES":11603,"Señorita":11604,"impro":11605,"comput":11606,"##ominación":11607,"conocemos":11608,"##uidad":11609,"limpiar":11610,"fotografía":11611,"pren":11612,"##idae":11613,"DES":11614,"presta":11615,"##ater":11616,"cruel":11617,"cheque":11618,"pareci":11619,"##oras":11620,"futuras":11621,"controversi":11622,"reto":11623,"afro":11624,"Elec":11625,"determinada":11626,"##drí":11627,"relacionada":11628,"preocupe":11629,"sepas":11630,"primas":11631,"afortun":11632,"Andy":11633,"vital":11634,"excu":11635,"une":11636,"consideró":11637,"##BL":11638,"recre":11639,"respectivos":11640,"##gri":11641,"dirigió":11642,"cé":11643,"##jano":11644,"line":11645,"inútil":11646,"Acaso":11647,"##ngel":11648,"Señoría":11649,"podrás":11650,"llamaré":11651,"fili":11652,"poderoso":11653,"normales":11654,"exclusión":11655,"invitación":11656,"heridas":11657,"sacerdote":11658,"piensan":11659,"transportes":11660,"Rico":11661,"fundament":11662,"##blia":11663,"desarrolla":11664,"internet":11665,"mio":11666,"Ash":11667,"darse":11668,"Robin":11669,"presion":11670,"psi":11671,"aj":11672,"Christ":11673,"llan":11674,"PE":11675,"refuer":11676,"discos":11677,"curi":11678,"##imnas":11679,"EP":11680,"conocerte":11681,"1969":11682,"huéspe":11683,"##gicas":11684,"##tuvieron":11685,"eje":11686,"junta":11687,"Verde":11688,"legi":11689,"cumplan":11690,"repercusiones":11691,"##vol":11692,"hiper":11693,"fijado":11694,"##abeth":11695,"taba":11696,"Marina":11697,"blog":11698,"amante":11699,"murieron":11700,"##bita":11701,"Perdona":11702,"##trina":11703,"cens":11704,"Grande":11705,"figuras":11706,"incendio":11707,"##oder":11708,"Segura":11709,"camis":11710,"Fuego":11711,"físicas":11712,"consentimiento":11713,"eco":11714,"##oseph":11715,"limitaciones":11716,"oli":11717,"alianza":11718,"sigues":11719,"huesos":11720,"Nan":11721,"ampliamente":11722,"##ínea":11723,"cortes":11724,"diste":11725,"reconstrucción":11726,"Sea":11727,"##junto":11728,"##pur":11729,"contienen":11730,"Acab":11731,"enamorado":11732,"quisi":11733,"##delo":11734,"Provincia":11735,"Aten":11736,"negativa":11737,"ocupada":11738,"organiza":11739,"##esía":11740,"descansar":11741,"financiar":11742,"Comple":11743,"##bera":11744,"pensamientos":11745,"##ájate":11746,"envío":11747,"##vino":11748,"Iba":11749,"##rom":11750,"vag":11751,"##36":11752,"contrapar":11753,"##inti":11754,"dejaron":11755,"filosofía":11756,"verti":11757,"Hacia":11758,"##uz":11759,"pareció":11760,"refieren":11761,"verá":11762,"piedras":11763,"Sebas":11764,"logros":11765,"Signi":11766,"##banos":11767,"Córdo":11768,"queso":11769,"maestros":11770,"Rodrí":11771,"edificación":11772,"mínimas":11773,"frutas":11774,"presentados":11775,"patio":11776,"pese":11777,"##avier":11778,"valiente":11779,"##emato":11780,"industrias":11781,"integral":11782,"ejecutivo":11783,"Empresa":11784,"escuchando":11785,"migra":11786,"##unción":11787,"salvaguar":11788,"propon":11789,"posiblemente":11790,"##nal":11791,"océano":11792,"Coord":11793,"estaremos":11794,"Distrito":11795,"##jarse":11796,"cón":11797,"Rodríguez":11798,"alerta":11799,"hijas":11800,"Agua":11801,"gasol":11802,"promul":11803,"reclamaciones":11804,"observó":11805,"jud":11806,"##dario":11807,"sienta":11808,"##gador":11809,"Amy":11810,"exámenes":11811,"operativo":11812,"provocar":11813,"CC":11814,"##áce":11815,"volv":11816,"domicilio":11817,"fría":11818,"atro":11819,"agricultores":11820,"Oí":11821,"cristal":11822,"rí":11823,"Hablar":11824,"ges":11825,"estarás":11826,"Florida":11827,"##thur":11828,"Metro":11829,"##ence":11830,"clan":11831,"diseñado":11832,"volveré":11833,"fuimos":11834,"inmigrantes":11835,"atmó":11836,"##tito":11837,"solicitado":11838,"considere":11839,"sombra":11840,"ara":11841,"##ep":11842,"prelimin":11843,"parámetros":11844,"##nis":11845,"Crist":11846,"Broo":11847,"Príncipe":11848,"reglamentos":11849,"rara":11850,"consejos":11851,"matarme":11852,"religiosas":11853,"110":11854,"104":11855,"##restres":11856,"Seis":11857,"adoptada":11858,"compa":11859,"partícu":11860,"pagan":11861,"Alianza":11862,"##iy":11863,"poeta":11864,"privile":11865,"perdí":11866,"sentí":11867,"tarjetas":11868,"despierta":11869,"afili":11870,"Sede":11871,"armado":11872,"citado":11873,"##llado":11874,"Vá":11875,"vencer":11876,"##dadores":11877,"reduc":11878,"cuantía":11879,"vigilar":11880,"requisito":11881,"impre":11882,"ayudó":11883,"conversaciones":11884,"velar":11885,"pierde":11886,"Guad":11887,"escudo":11888,"Economía":11889,"manejo":11890,"##éndole":11891,"Profesor":11892,"##fru":11893,"vit":11894,"preciosa":11895,"Filipinas":11896,"moderno":11897,"Cés":11898,"Común":11899,"##roso":11900,"##tron":11901,"##ternidad":11902,"estabili":11903,"sién":11904,"desarrollados":11905,"dañ":11906,"fórmula":11907,"Doug":11908,"ulti":11909,"denominada":11910,"##zaron":11911,"Il":11912,"firmó":11913,"volviendo":11914,"##glesias":11915,"##cimo":11916,"cristianos":11917,"##daste":11918,"complicado":11919,"incur":11920,"##VA":11921,"psico":11922,"Silencio":11923,"verse":11924,"tardes":11925,"Atención":11926,"disparo":11927,"saque":11928,"farmacéu":11929,"anda":11930,"PER":11931,"##rian":11932,"Hacer":11933,"batal":11934,"puto":11935,"Recordando":11936,"TAR":11937,"empezando":11938,"ende":11939,"autorizado":11940,"fracaso":11941,"Ingen":11942,"desgracia":11943,"##trico":11944,"Cole":11945,"contento":11946,"rescate":11947,"arco":11948,"Lisboa":11949,"desapareció":11950,"Eri":11951,"Steph":11952,"Estatutos":11953,"armonización":11954,"1950":11955,"reclu":11956,"concedida":11957,"series":11958,"antiguas":11959,"reputación":11960,"Agu":11961,"empi":11962,"##queros":11963,"##dney":11964,"obtenidos":11965,"ordenó":11966,"precip":11967,"sentimiento":11968,"Ejecutiva":11969,"urbana":11970,"Andr":11971,"inex":11972,"obispo":11973,"Tuvo":11974,"chu":11975,"paro":11976,"presentarse":11977,"##tanos":11978,"inmo":11979,"comprob":11980,"dirigidas":11981,"##tipo":11982,"Oiga":11983,"parada":11984,"evacu":11985,"##unya":11986,"##mal":11987,"##ette":11988,"notable":11989,"##95":11990,"##hite":11991,"##juntivo":11992,"##questa":11993,"desempeño":11994,"##rías":11995,"Recuerdo":11996,"comuna":11997,"originalmente":11998,"aviso":11999,"Recursos":12000,"##éndome":12001,"brasile":12002,"Perfecto":12003,"diá":12004,"pira":12005,"genio":12006,"altitud":12007,"##tible":12008,"subjuntivo":12009,"disfra":12010,"##tifica":12011,"dormido":12012,"##cador":12013,"##GO":12014,"dor":12015,"borracho":12016,"##íces":12017,"Unos":12018,"114":12019,"dene":12020,"únicos":12021,"Rose":12022,"##tecto":12023,"intergu":12024,"##ub":12025,"##96":12026,"falso":12027,"carbón":12028,"Pete":12029,"Obras":12030,"##izan":12031,"ordenador":12032,"Título":12033,"##quera":12034,"Sel":12035,"adquirir":12036,"gris":12037,"acuerdas":12038,"Peque":12039,"##pula":12040,"abiertos":12041,"##yl":12042,"##teme":12043,"Cabe":12044,"##vez":12045,"##tividades":12046,"teór":12047,"mostró":12048,"mexicano":12049,"seg":12050,"inser":12051,"##unda":12052,"fantástico":12053,"Indi":12054,"necesariamente":12055,"estrech":12056,"británica":12057,"##ilación":12058,"existir":12059,"AT":12060,"ayudará":12061,"muro":12062,"aceptado":12063,"##ICO":12064,"##riel":12065,"##unas":12066,"ferrocarril":12067,"testimonio":12068,"colombi":12069,"manual":12070,"pertur":12071,"operadores":12072,"Existe":12073,"guitarra":12074,"humanitario":12075,"pru":12076,"despla":12077,"corona":12078,"círculo":12079,"Vine":12080,"##bec":12081,"utilizadas":12082,"##pie":12083,"##ámame":12084,"Sargento":12085,"satélite":12086,"concretos":12087,"acogida":12088,"pensiones":12089,"terapia":12090,"CL":12091,"partidas":12092,"lento":12093,"Dev":12094,"##ínsula":12095,"almuerzo":12096,"aprue":12097,"histori":12098,"desastres":12099,"Catalunya":12100,"##tta":12101,"UNC":12102,"Hong":12103,"porno":12104,"asistente":12105,"anf":12106,"Serbia":12107,"##dum":12108,"Tipo":12109,"Detec":12110,"creerlo":12111,"franco":12112,"asesinatos":12113,"escribe":12114,"Navi":12115,"##98":12116,"Rafael":12117,"##rus":12118,"certificación":12119,"Cham":12120,"##TOS":12121,"comienzos":12122,"fantasma":12123,"Observa":12124,"Claire":12125,"##vaquia":12126,"Córdoba":12127,"cartera":12128,"aconse":12129,"aerona":12130,"Temp":12131,"piano":12132,"conviene":12133,"Pensaba":12134,"Oeste":12135,"##enaje":12136,"enseñar":12137,"trató":12138,"extremadamente":12139,"Gor":12140,"##erusalén":12141,"enla":12142,"lav":12143,"estúpida":12144,"##fil":12145,"Maldito":12146,"porqué":12147,"externa":12148,"plus":12149,"##jones":12150,"##isco":12151,"vidrio":12152,"##ECH":12153,"Lima":12154,"expresó":12155,"cultivos":12156,"estatuto":12157,"Pérez":12158,"RES":12159,"unió":12160,"##dell":12161,"##inger":12162,"##zarse":12163,"101":12164,"##asta":12165,"##leres":12166,"##ólogos":12167,"instituto":12168,"imperio":12169,"Malas":12170,"Entiendes":12171,"subvencion":12172,"discur":12173,"Fuerzas":12174,"desafío":12175,"##vie":12176,"Canal":12177,"##taliz":12178,"conoció":12179,"Sebasti":12180,"ACP":12181,"##sy":12182,"distinta":12183,"diputado":12184,"Haré":12185,"estóma":12186,"aplicarse":12187,"piscina":12188,"##íso":12189,"Tiempo":12190,"querían":12191,"jueces":12192,"##edi":12193,"ml":12194,"Diez":12195,"participado":12196,"atmósfera":12197,"Alfonso":12198,"regímenes":12199,"almas":12200,"Laura":12201,"detallada":12202,"referencias":12203,"individuo":12204,"Conn":12205,"##úme":12206,"##ets":12207,"Mús":12208,"Fernández":12209,"Equipo":12210,"PYME":12211,"impon":12212,"##dd":12213,"ministros":12214,"aportar":12215,"##CH":12216,"Ang":12217,"caído":12218,"cobar":12219,"propietarios":12220,"##05":12221,"Morgan":12222,"gustó":12223,"rusos":12224,"Tailandia":12225,"by":12226,"Amigo":12227,"Malta":12228,"respira":12229,"despedir":12230,"sigan":12231,"bebida":12232,"minister":12233,"tono":12234,"Rosa":12235,"sonri":12236,"mante":12237,"crítico":12238,"##anismo":12239,"escolares":12240,"dificultad":12241,"bicic":12242,"Isla":12243,"construc":12244,"##éricas":12245,"hubieras":12246,"cuadros":12247,"Denominación":12248,"asociado":12249,"obtención":12250,"bella":12251,"##anca":12252,"Apuesto":12253,"##uch":12254,"esperamos":12255,"relieve":12256,"##ídos":12257,"idén":12258,"aumentado":12259,"realizando":12260,"##ls":12261,"regresa":12262,"Hora":12263,"obligatoria":12264,"tejido":12265,"aldea":12266,"##izaciones":12267,"Sul":12268,"suceder":12269,"sh":12270,"apareci":12271,"opon":12272,"Big":12273,"pensó":12274,"lógica":12275,"musicales":12276,"impresionante":12277,"elevada":12278,"Enter":12279,"Incre":12280,"infección":12281,"frecuentes":12282,"limpia":12283,"Imag":12284,"Soviética":12285,"##idional":12286,"tengamos":12287,"mintiendo":12288,"procedente":12289,"patrul":12290,"bruto":12291,"##dirá":12292,"Dom":12293,"sucedido":12294,"##remo":12295,"procur":12296,"prestado":12297,"fijo":12298,"extraordinarias":12299,"##iense":12300,"mist":12301,"disculpas":12302,"pendiente":12303,"Phil":12304,"Carajo":12305,"##icar":12306,"pasaron":12307,"lider":12308,"subre":12309,"Negro":12310,"UNCTAD":12311,"llamando":12312,"indispensable":12313,"##esucristo":12314,"desperdi":12315,"##rica":12316,"Lucas":12317,"heridos":12318,"cereales":12319,"geográfica":12320,"##blación":12321,"desigual":12322,"Biblia":12323,"drama":12324,"sigo":12325,"Natur":12326,"##PS":12327,"precisión":12328,"andar":12329,"agencias":12330,"National":12331,"Sevilla":12332,"Déjalo":12333,"Dese":12334,"Necesita":12335,"##tale":12336,"centa":12337,"soñ":12338,"CA":12339,"Apren":12340,"bilaterales":12341,"sufrió":12342,"temporadas":12343,"##écord":12344,"César":12345,"visitantes":12346,"disciplina":12347,"Exactamente":12348,"fundador":12349,"Aprobación":12350,"aplican":12351,"propietario":12352,"desplie":12353,"Bab":12354,"japonés":12355,"##rano":12356,"##rich":12357,"dejaste":12358,"generar":12359,"##aridades":12360,"##ij":12361,"Eran":12362,"Ningún":12363,"disponen":12364,"cumplen":12365,"Revolución":12366,"##tiéndose":12367,"mezc":12368,"americanos":12369,"cohesión":12370,"quedando":12371,"CECA":12372,"##vientes":12373,"Alberto":12374,"subray":12375,"verdaderamente":12376,"##éticas":12377,"cabezas":12378,"##chez":12379,"Igu":12380,"trono":12381,"fundado":12382,"##ácito":12383,"curios":12384,"matan":12385,"sem":12386,"nombramiento":12387,"Cuentas":12388,"Trin":12389,"desafíos":12390,"refugio":12391,"libr":12392,"levantar":12393,"derrib":12394,"significativa":12395,"##ites":12396,"presti":12397,"Ninguna":12398,"antecedentes":12399,"aumenta":12400,"acondi":12401,"alternativas":12402,"Monet":12403,"claridad":12404,"Examen":12405,"casarse":12406,"constitucional":12407,"soberanía":12408,"Cel":12409,"muriendo":12410,"##op":12411,"suave":12412,"puse":12413,"granja":12414,"Libre":12415,"transport":12416,"dedicada":12417,"expresamente":12418,"martes":12419,"Llama":12420,"##IDADES":12421,"voces":12422,"ahi":12423,"##ós":12424,"Apoyo":12425,"leyenda":12426,"Movimiento":12427,"##igante":12428,"##govina":12429,"##rese":12430,"gloria":12431,"energética":12432,"temporales":12433,"##adi":12434,"buscan":12435,"permanentes":12436,"Viste":12437,"##tti":12438,"Simon":12439,"mito":12440,"verificación":12441,"Detente":12442,"Subcom":12443,"parcialmente":12444,"Litu":12445,"char":12446,"toques":12447,"##andy":12448,"##tea":12449,"Permí":12450,"multitud":12451,"disper":12452,"##ciliación":12453,"##ementerio":12454,"Auxili":12455,"fachada":12456,"pusieron":12457,"izquierdo":12458,"alas":12459,"capitales":12460,"licencias":12461,"maravillosa":12462,"despre":12463,"monitor":12464,"ción":12465,"##ulsión":12466,"Objeto":12467,"constantemente":12468,"##dumbre":12469,"fren":12470,"##icidad":12471,"navegación":12472,"##ejas":12473,"Habrá":12474,"Cuanto":12475,"determina":12476,"##ití":12477,"##ñal":12478,"##dete":12479,"cóm":12480,"inmigración":12481,"##BS":12482,"sargento":12483,"900":12484,"árabes":12485,"estratégico":12486,"##ulia":12487,"exci":12488,"hec":12489,"sugiere":12490,"casco":12491,"sensible":12492,"comunicado":12493,"CF":12494,"gala":12495,"##utó":12496,"##oli":12497,"adivin":12498,"hech":12499,"parado":12500,"sovi":12501,"corresponda":12502,"hechas":12503,"institucionales":12504,"repetir":12505,"cómp":12506,"estómago":12507,"Honduras":12508,"invita":12509,"quincu":12510,"variable":12511,"reacciones":12512,"Despi":12513,"botón":12514,"séptimo":12515,"##tch":12516,"cubierto":12517,"noroeste":12518,"batería":12519,"aproximación":12520,"elo":12521,"custodia":12522,"##lah":12523,"colocar":12524,"pecados":12525,"agenda":12526,"oficio":12527,"alojamiento":12528,"##93":12529,"Arriba":12530,"Lisa":12531,"ventanas":12532,"conciertos":12533,"acta":12534,"##tinas":12535,"Teniendo":12536,"cari":12537,"Mujeres":12538,"favorito":12539,"##VD":12540,"Africana":12541,"inn":12542,"iniciado":12543,"##94":12544,"facultad":12545,"##óme":12546,"Queda":12547,"Dav":12548,"clásico":12549,"ID":12550,"respondió":12551,"llamamiento":12552,"Mes":12553,"famosa":12554,"raíces":12555,"despertar":12556,"116":12557,"##its":12558,"complemento":12559,"##gráficos":12560,"##utas":12561,"facilidad":12562,"participaron":12563,"##yle":12564,"correctamente":12565,"tratan":12566,"estáis":12567,"plato":12568,"aparato":12569,"condenado":12570,"fiebre":12571,"##aren":12572,"CAP":12573,"Paraguay":12574,"definitivo":12575,"##guera":12576,"##máticos":12577,"##onald":12578,"##emin":12579,"##gale":12580,"Sean":12581,"querría":12582,"ED":12583,"Invi":12584,"termine":12585,"tác":12586,"sel":12587,"deshacer":12588,"habiendo":12589,"DLL":12590,"##ule":12591,"Arthur":12592,"Eduardo":12593,"afirmó":12594,"Cierra":12595,"Cuesti":12596,"##onado":12597,"suponía":12598,"1000":12599,"puertos":12600,"rumbo":12601,"sanitaria":12602,"encargados":12603,"latinos":12604,"restaur":12605,"mataron":12606,"Fueron":12607,"Situ":12608,"estal":12609,"construyó":12610,"quincuagésimo":12611,"productividad":12612,"Dur":12613,"acepta":12614,"dependencia":12615,"Organismo":12616,"camisa":12617,"récord":12618,"reconocida":12619,"Ello":12620,"daría":12621,"##stán":12622,"trayec":12623,"sustituir":12624,"##valo":12625,"sufrimiento":12626,"peligrosos":12627,"pollo":12628,"diagnóstico":12629,"Alejandro":12630,"basados":12631,"##íficos":12632,"Mediterráneo":12633,"Tún":12634,"colectiva":12635,"##uelta":12636,"##letín":12637,"Mírame":12638,"##pilación":12639,"##cieron":12640,"Región":12641,"encab":12642,"sexy":12643,"##grada":12644,"placa":12645,"competición":12646,"maquin":12647,"##riles":12648,"homenaje":12649,"pistas":12650,"Tour":12651,"sustituye":12652,"consumidor":12653,"solas":12654,"renovación":12655,"Arge":12656,"Sosten":12657,"Iden":12658,"avergon":12659,"vínculos":12660,"Larry":12661,"Marsh":12662,"hablaba":12663,"Domingo":12664,"entendimiento":12665,"##abell":12666,"##ADA":12667,"flexibilidad":12668,"arresto":12669,"afectar":12670,"Consultiva":12671,"importar":12672,"aplas":12673,"Discúlp":12674,"##ather":12675,"extrañ":12676,"pasión":12677,"cajas":12678,"mantenido":12679,"##hip":12680,"joder":12681,"descenso":12682,"Martínez":12683,"coca":12684,"blo":12685,"##iera":12686,"quedo":12687,"##isla":12688,"publicar":12689,"útiles":12690,"originarios":12691,"##onces":12692,"##ezcan":12693,"cone":12694,"Compañía":12695,"##31":12696,"tramo":12697,"Aqui":12698,"plantea":12699,"incrementar":12700,"inyección":12701,"pensión":12702,"alent":12703,"Girona":12704,"salarios":12705,"Flo":12706,"Significa":12707,"Frente":12708,"##ortunadamente":12709,"sul":12710,"##quez":12711,"##gation":12712,"garantiza":12713,"esfor":12714,"mueve":12715,"ocurrir":12716,"rent":12717,"voluntarios":12718,"130":12719,"cincuenta":12720,"despacho":12721,"Caballeros":12722,"guerras":12723,"policial":12724,"Miami":12725,"##yer":12726,"precisa":12727,"##bus":12728,"##portado":12729,"revistas":12730,"Rumania":12731,"##gá":12732,"Abri":12733,"importes":12734,"últimamente":12735,"fases":12736,"tea":12737,"Demasiado":12738,"declara":12739,"lanza":12740,"terrorista":12741,"Carter":12742,"preocupada":12743,"##QU":12744,"inglesa":12745,"atras":12746,"rell":12747,"Cué":12748,"Conoces":12749,"clubes":12750,"chocolate":12751,"metido":12752,"detenidos":12753,"Económicos":12754,"LO":12755,"Alfre":12756,"Herze":12757,"fueras":12758,"camioneta":12759,"Eliz":12760,"transacciones":12761,"labios":12762,"Conten":12763,"presupuestario":12764,"sacrificio":12765,"von":12766,"cuantos":12767,"Dipu":12768,"##landes":12769,"anuncios":12770,"ligeramente":12771,"recibieron":12772,"##darse":12773,"liderazgo":12774,"##undo":12775,"trabajaba":12776,"fundó":12777,"##ign":12778,"bebidas":12779,"ángel":12780,"Cálmate":12781,"húme":12782,"##món":12783,"tomas":12784,"podré":12785,"madres":12786,"describir":12787,"EM":12788,"electrónicos":12789,"futbolista":12790,"poesía":12791,"clínica":12792,"##anse":12793,"propuso":12794,"Herzegovina":12795,"##pson":12796,"manifestaciones":12797,"descubrió":12798,"Apen":12799,"Edad":12800,"racial":12801,"##bulo":12802,"invers":12803,"Loc":12804,"evaluaciones":12805,"Enseñ":12806,"Damas":12807,"toman":12808,"diversión":12809,"##iano":12810,"lección":12811,"guard":12812,"Familia":12813,"##adir":12814,"roca":12815,"Depor":12816,"escuad":12817,"##VII":12818,"bail":12819,"robado":12820,"Abo":12821,"##dical":12822,"##84":12823,"vivía":12824,"##eda":12825,"retor":12826,"##tumbre":12827,"signos":12828,"aline":12829,"##dole":12830,"vapor":12831,"causado":12832,"##rará":12833,"##ique":12834,"##colos":12835,"1966":12836,"CIA":12837,"##gil":12838,"##acial":12839,"tambien":12840,"tesoro":12841,"Atlántico":12842,"retraso":12843,"decirles":12844,"justificación":12845,"##itores":12846,"not":12847,"positivos":12848,"apres":12849,"desarrolló":12850,"SEC":12851,"##ture":12852,"fotografías":12853,"balas":12854,"##eamiento":12855,"característica":12856,"noven":12857,"contingentes":12858,"Argelia":12859,"##toño":12860,"aprobadas":12861,"##oey":12862,"Geo":12863,"Pic":12864,"EI":12865,"supervivencia":12866,"hume":12867,"Boo":12868,"##jados":12869,"Ment":12870,"introduci":12871,"##hua":12872,"ganancias":12873,"##pensa":12874,"Chuc":12875,"predomin":12876,"añadido":12877,"religiosos":12878,"Demon":12879,"esclavos":12880,"##cedon":12881,"pico":12882,"##ach":12883,"plantilla":12884,"salen":12885,"ambul":12886,"ayudarle":12887,"espejo":12888,"sitúa":12889,"calent":12890,"radiación":12891,"sabor":12892,"1964":12893,"##rillos":12894,"israelíes":12895,"report":12896,"##cesis":12897,"respirar":12898,"MED":12899,"##lex":12900,"Estabas":12901,"Bil":12902,"pí":12903,"##BN":12904,"pagado":12905,"católica":12906,"intr":12907,"delici":12908,"##ind":12909,"eri":12910,"##alición":12911,"Aco":12912,"##liquen":12913,"##mería":12914,"cercana":12915,"incapaci":12916,"imperativo":12917,"Gh":12918,"MAR":12919,"duplic":12920,"##ENCIA":12921,"Pase":12922,"Bio":12923,"Feder":12924,"rica":12925,"prorro":12926,"Tab":12927,"benepl":12928,"cuáles":12929,"##ciende":12930,"Estrate":12931,"##cena":12932,"popul":12933,"Música":12934,"pertenecen":12935,"ánimo":12936,"##sible":12937,"Supremo":12938,"##ombro":12939,"##yac":12940,"beneplácito":12941,"mere":12942,"actúa":12943,"seguía":12944,"argumento":12945,"intentarlo":12946,"parale":12947,"But":12948,"guardias":12949,"House":12950,"exha":12951,"fortaleza":12952,"tabaco":12953,"MT":12954,"##ragona":12955,"expectativas":12956,"tuber":12957,"destacan":12958,"Lituania":12959,"Ponte":12960,"Excelente":12961,"mantienen":12962,"once":12963,"vivido":12964,"Cuántas":12965,"PT":12966,"##LO":12967,"##gat":12968,"##ulares":12969,"hables":12970,"Mediante":12971,"orgullo":12972,"##ígenes":12973,"ingeniería":12974,"##ohnson":12975,"terra":12976,"formada":12977,"Vicente":12978,"suministros":12979,"##erales":12980,"##trica":12981,"##EP":12982,"latino":12983,"criminales":12984,"denuncias":12985,"vaso":12986,"fijación":12987,"##ayne":12988,"deriva":12989,"utilidad":12990,"##ablos":12991,"##óst":12992,"EU":12993,"Asunto":12994,"Path":12995,"generaciones":12996,"##tualmente":12997,"Española":12998,"republic":12999,"Facultad":13000,"##anim":13001,"##ball":13002,"instante":13003,"seminario":13004,"sobres":13005,"vuelvas":13006,"paisaje":13007,"británicos":13008,"##far":13009,"ocupados":13010,"magnitud":13011,"escritura":13012,"##RES":13013,"EST":13014,"##uyendo":13015,"gimnas":13016,"migrantes":13017,"maíz":13018,"efectivos":13019,"gigante":13020,"habrían":13021,"Ciencia":13022,"encuentras":13023,"MI":13024,"##vey":13025,"enseñanzas":13026,"##locu":13027,"Dicho":13028,"especific":13029,"dispuestos":13030,"sustitución":13031,"plástico":13032,"obvio":13033,"legislaciones":13034,"Asistencia":13035,"fumar":13036,"Emily":13037,"robó":13038,"caz":13039,"explí":13040,"1945":13041,"invo":13042,"##ecemos":13043,"muertes":13044,"Susan":13045,"prosper":13046,"Há":13047,"temor":13048,"significativo":13049,"acordado":13050,"migración":13051,"indios":13052,"Tarragona":13053,"pelota":13054,"Vietn":13055,"creemos":13056,"altamente":13057,"territoriales":13058,"Fron":13059,"Lon":13060,"barro":13061,"##doro":13062,"Guardia":13063,"escaleras":13064,"BE":13065,"##usta":13066,"##zona":13067,"Disfru":13068,"##ámico":13069,"ladrón":13070,"funeral":13071,"misterio":13072,"##fal":13073,"##mico":13074,"fes":13075,"casada":13076,"muevas":13077,"contener":13078,"Estonia":13079,"Intro":13080,"tim":13081,"Aman":13082,"Marie":13083,"supuestos":13084,"piz":13085,"conservar":13086,"hagamos":13087,"##har":13088,"Tradu":13089,"##osex":13090,"pedazo":13091,"##amba":13092,"quinta":13093,"mentiras":13094,"obligados":13095,"##uya":13096,"embarazo":13097,"fiel":13098,"costumbre":13099,"alcanza":13100,"##diar":13101,"##92":13102,"Street":13103,"aplicado":13104,"actuando":13105,"Envi":13106,"miércoles":13107,"##ester":13108,"ajustes":13109,"caras":13110,"hacían":13111,"Spi":13112,"reparto":13113,"terremo":13114,"nosotras":13115,"sep":13116,"arquitecto":13117,"comentario":13118,"delim":13119,"dió":13120,"recurrir":13121,"##rés":13122,"Um":13123,"##pent":13124,"Olvídalo":13125,"restauración":13126,"adónde":13127,"##radores":13128,"haberme":13129,"multilaterales":13130,"pasivos":13131,"proponer":13132,"trage":13133,"##ígeno":13134,"maldición":13135,"oyes":13136,"encabez":13137,"Coordinación":13138,"apellido":13139,"##erten":13140,"exclusiva":13141,"culturas":13142,"cumbre":13143,"Timor":13144,"intensidad":13145,"israelí":13146,"##ágri":13147,"Porqué":13148,"Emma":13149,"negociar":13150,"macro":13151,"##gad":13152,"preguntaba":13153,"apuesta":13154,"exigir":13155,"despren":13156,"##ilson":13157,"titulada":13158,"deportes":13159,"truco":13160,"##uci":13161,"interac":13162,"comenzado":13163,"Vietnam":13164,"Estábamos":13165,"acoge":13166,"Sán":13167,"##phy":13168,"bolsillo":13169,"solicita":13170,"indicación":13171,"desesti":13172,"olvides":13173,"Cielo":13174,"Actividades":13175,"gargan":13176,"Taylor":13177,"índole":13178,"##tto":13179,"sueldo":13180,"##heim":13181,"criatura":13182,"##uts":13183,"foro":13184,"escritos":13185,"Apenas":13186,"106":13187,"Hern":13188,"coherencia":13189,"enve":13190,"##eña":13191,"corazones":13192,"prohí":13193,"Militar":13194,"venía":13195,"umbral":13196,"describ":13197,"##árselo":13198,"paral":13199,"creando":13200,"presentará":13201,"orgánica":13202,"exili":13203,"Av":13204,"postura":13205,"Garan":13206,"almacén":13207,"acompañado":13208,"debili":13209,"Lleva":13210,"ratific":13211,"##xo":13212,"vigencia":13213,"Viene":13214,"humil":13215,"jodido":13216,"##pido":13217,"admis":13218,"cuerda":13219,"entrado":13220,"##prisa":13221,"contras":13222,"Rem":13223,"religioso":13224,"Hitler":13225,"desaparición":13226,"##ram":13227,"Inicia":13228,"##fectos":13229,"##minación":13230,"realizarse":13231,"retos":13232,"pintor":13233,"##86":13234,"##riger":13235,"Elizabeth":13236,"##gués":13237,"conduce":13238,"obviamente":13239,"Blanco":13240,"##arquía":13241,"Ayúdame":13242,"facultades":13243,"##ídas":13244,"Guer":13245,"##tadura":13246,"##eresa":13247,"tranquila":13248,"Espacio":13249,"renunciar":13250,"revo":13251,"##onasterio":13252,"ADOP":13253,"aro":13254,"sincer":13255,"direcciones":13256,"ayudando":13257,"Técnica":13258,"Leona":13259,"Murió":13260,"amarillo":13261,"presupuestos":13262,"estructural":13263,"mix":13264,"Prefi":13265,"fama":13266,"Nigeria":13267,"clor":13268,"ofreció":13269,"formulario":13270,"##dina":13271,"asquer":13272,"Viv":13273,"Hermano":13274,"Malasia":13275,"racismo":13276,"mensual":13277,"##more":13278,"dirá":13279,"bebe":13280,"##velo":13281,"Ross":13282,"1965":13283,"cinturón":13284,"legalmente":13285,"conversión":13286,"costas":13287,"Alcal":13288,"aérea":13289,"incidencia":13290,"##sive":13291,"falsa":13292,"124":13293,"asustado":13294,"hectá":13295,"##manas":13296,"obtiene":13297,"##encial":13298,"auditoría":13299,"##cientos":13300,"##ister":13301,"lujo":13302,"internas":13303,"puro":13304,"menciona":13305,"saltar":13306,"presentaron":13307,"videoj":13308,"vivió":13309,"restantes":13310,"disfrute":13311,"iniciales":13312,"fallo":13313,"##teria":13314,"abandonado":13315,"##cialidad":13316,"##comun":13317,"milagro":13318,"delincuencia":13319,"Señorías":13320,"quedaron":13321,"optimi":13322,"desplazamiento":13323,"desean":13324,"excepciones":13325,"##gena":13326,"##ata":13327,"vecino":13328,"sencil":13329,"fila":13330,"Mario":13331,"modalidad":13332,"ruego":13333,"persist":13334,"hazlo":13335,"humo":13336,"señalado":13337,"##terrestre":13338,"redi":13339,"talleres":13340,"Cuén":13341,"equivocada":13342,"Dele":13343,"fresco":13344,"ilegales":13345,"escape":13346,"Compren":13347,"Hue":13348,"##itado":13349,"Estará":13350,"salvaje":13351,"miel":13352,"##oncesto":13353,"concretamente":13354,"sótano":13355,"Túnez":13356,"Lic":13357,"##ónicas":13358,"incompati":13359,"multiplic":13360,"rendir":13361,"##xia":13362,"largas":13363,"Haití":13364,"proveedor":13365,"conduci":13366,"primi":13367,"vueltas":13368,"justa":13369,"tonta":13370,"quédate":13371,"enumer":13372,"implement":13373,"aprendido":13374,"partículas":13375,"##orcio":13376,"rum":13377,"Igualmente":13378,"divorcio":13379,"Dominic":13380,"humanas":13381,"llegué":13382,"Colum":13383,"anfitri":13384,"##ERO":13385,"sindic":13386,"enormes":13387,"##SS":13388,"charla":13389,"conducto":13390,"conserva":13391,"##quetes":13392,"##ptima":13393,"quieran":13394,"##EG":13395,"Detective":13396,"represión":13397,"escenas":13398,"Auto":13399,"Procedimiento":13400,"109":13401,"espon":13402,"desglos":13403,"Nar":13404,"masas":13405,"bañ":13406,"escuché":13407,"sustancial":13408,"homosex":13409,"Granada":13410,"Sto":13411,"sorprende":13412,"Abs":13413,"##82":13414,"citada":13415,"exceso":13416,"Fondos":13417,"reclamación":13418,"comprometido":13419,"##TAN":13420,"Steven":13421,"##úmenes":13422,"Goo":13423,"##émica":13424,"curiosidad":13425,"##uerta":13426,"Roja":13427,"##esse":13428,"hispanos":13429,"matando":13430,"Sri":13431,"basadas":13432,"Lady":13433,"Déjeme":13434,"titulares":13435,"trámi":13436,"fruto":13437,"Evaluación":13438,"PRESENTE":13439,"##cidentales":13440,"homolo":13441,"celebrará":13442,"amigas":13443,"VIII":13444,"1963":13445,"disparó":13446,"comités":13447,"avanzada":13448,"##ston":13449,"Navigation":13450,"femenina":13451,"respectivas":13452,"diámetro":13453,"simples":13454,"lástima":13455,"ron":13456,"Oficiales":13457,"Lucy":13458,"seguida":13459,"limita":13460,"frust":13461,"salto":13462,"rusa":13463,"##letos":13464,"matarlo":13465,"conmem":13466,"pesetas":13467,"ingeniero":13468,"##ato":13469,"festival":13470,"extiende":13471,"##ótico":13472,"aumentó":13473,"Bell":13474,"Mitch":13475,"barra":13476,"gordo":13477,"Concepto":13478,"harías":13479,"Quiénes":13480,"alien":13481,"cance":13482,"Ramón":13483,"huelga":13484,"Sat":13485,"##dices":13486,"Dean":13487,"durmiendo":13488,"perdida":13489,"estuviste":13490,"##árgate":13491,"##ordan":13492,"Inici":13493,"Tecnología":13494,"maté":13495,"carreteras":13496,"interesada":13497,"envía":13498,"medir":13499,"elegidos":13500,"rever":13501,"##hara":13502,"asignado":13503,"Hablas":13504,"adopten":13505,"críticos":13506,"elegante":13507,"Vino":13508,"infin":13509,"preca":13510,"##bados":13511,"Boston":13512,"ecos":13513,"ganando":13514,"##tone":13515,"gasolina":13516,"##leno":13517,"FC":13518,"realizará":13519,"inund":13520,"##pientes":13521,"Industria":13522,"unirse":13523,"IVA":13524,"bah":13525,"Sigui":13526,"Condiciones":13527,"NC":13528,"Senado":13529,"funcionando":13530,"##venia":13531,"legislativas":13532,"mantenerse":13533,"beneficiario":13534,"vean":13535,"##zy":13536,"federales":13537,"compró":13538,"caminando":13539,"pade":13540,"fusi":13541,"colectivos":13542,"Fri":13543,"enunci":13544,"Compar":13545,"Bravo":13546,"Gali":13547,"Dre":13548,"aprobados":13549,"otoño":13550,"sindicatos":13551,"##ef":13552,"representar":13553,"cafe":13554,"divertir":13555,"históricos":13556,"##éndice":13557,"##tamientos":13558,"validez":13559,"##licas":13560,"suplement":13561,"refriger":13562,"Armen":13563,"contencioso":13564,"##lvar":13565,"castel":13566,"Ey":13567,"CEN":13568,"examinó":13569,"estro":13570,"cuenca":13571,"excepcional":13572,"vuestros":13573,"Miss":13574,"repi":13575,"destacado":13576,"encontrarse":13577,"Ign":13578,"trenes":13579,"##polis":13580,"##plan":13581,"entreten":13582,"##amina":13583,"grad":13584,"pondrá":13585,"##támenes":13586,"atractivo":13587,"instrucción":13588,"delegados":13589,"compositor":13590,"continuidad":13591,"orientaciones":13592,"peru":13593,"ejercicios":13594,"##ralo":13595,"Tai":13596,"desechos":13597,"Santos":13598,"tomaron":13599,"rompió":13600,"inevi":13601,"reinte":13602,"##lamentos":13603,"South":13604,"Latino":13605,"plazas":13606,"rebeldes":13607,"alarma":13608,"ratificación":13609,"##33":13610,"##ícola":13611,"agradecimiento":13612,"esqui":13613,"##gela":13614,"supl":13615,"latín":13616,"##DI":13617,"seguramente":13618,"encargada":13619,"submar":13620,"Subvención":13621,"##ensas":13622,"retiro":13623,"##TM":13624,"Cabo":13625,"##llería":13626,"Grace":13627,"destacó":13628,"Dy":13629,"penas":13630,"cotidi":13631,"##tánico":13632,"cuarenta":13633,"Biblio":13634,"ense":13635,"##nidad":13636,"Pala":13637,"interacción":13638,"Alice":13639,"##ull":13640,"ciego":13641,"reguladora":13642,"emitido":13643,"Coun":13644,
[...]
