{"version":"1.0","truncation":null,"padding":null,"added_tokens":[{"id":0,"special":true,"content":"[PAD]","single_word":false,"lstrip":false,"rstrip":false,"normalized":false},{"id":1,"special":true,"content":"[UNK]","single_word":false,"lstrip":false,"rstrip":false,"normalized":false},{"id":2,"special":true,"content":"[CLS]","single_word":false,"lstrip":false,"rstrip":false,"normalized":false},{"id":3,"special":true,"content":"[SEP]","single_word":false,"lstrip":false,"rstrip":false,"normalized":false},{"id":4,"special":true,"content":"[MASK]","single_word":false,"lstrip":false,"rstrip":false,"normalized":false},{"id":1156,"special":false,"content":"emoji","single_word":false,"lstrip":false,"rstrip":false,"normalized":true},{"id":1186,"special":false,"content":"hashtag","single_word":false,"lstrip":false,"rstrip":false,"normalized":true},{"id":40000,"special":false,"content":"@usuario","single_word":false,"lstrip":false,"rstrip":false,"normalized":true},{"id":40001,"special":false,"content":"url","single_word":false,"lstrip":false,"rstrip":false,"normalized":true}],"normalizer":{"type":"BertNormalizer","clean_text":true,"handle_chinese_chars":true,"strip_accents":false,"lowercase":false},"pre_tokenizer":{"type":"BertPreTokenizer"},"post_processor":null,"decoder":{"type":"WordPiece","prefix":"##","cleanup":true},"model":{"type":"WordPiece","unk_token":"[UNK]","continuing_subword_prefix":"##","max_input_chars_per_word":100,"vocab":{"[PAD]":0,"[UNK]":1,"[CLS]":2,"[SEP]":3,"[MASK]":4,"!":5,"\"":6,"#":7,"$":8,"%":9,"&":10,"'":11,"(":12,")":13,"*":14,"+":15,",":16,"-":17,".":18,"/":19,"0":20,"1":21,"2":22,"3":23,"4":24,"5":25,"6":26,"7":27,"8":28,"9":29,":":30,";":31,"=":32,"?":33,"@":34,"A":35,"B":36,"C":37,"D":38,"E":39,"F":40,"G":41,"H":42,"I":43,"J":44,"K":45,"L":46,"M":47,"N":48,"O":49,"P":50,"Q":51,"R":52,"S":53,"T":54,"U":55,"V":56,"W":57,"X":58,"Y":59,"Z":60,"[":61,"\\":62,"]":63,"^":64,"_":65,"`":66,"a":67,"b":68,"c":69,"d":70,"e":71,"f":72,"g":73,"h":74,"i":75,"j":76,"k":77,"l":78,"m":79,"n":80,"o":81,"p":82,"q":83,"r":84,"s":85,"t":86,"u":87,"v":88,"w":89,"x":90,"y":91,"z":92,"{":93,"|":94,"}":95,"¡":96,"ª":97,"®":98,"²":99,"¿":100,"À":101,"Á":102,"Ã":103,"Ç":104,"É":105,"Ê":106,"Í":107,"Ñ":108,"Ó":109,"Ú":110,"Ü":111,"à":112,"á":113,"â":114,"ã":115,"ä":116,"å":117,"ç":118,"è":119,"é":120,"ê":121,"ë":122,"ì":123,"í":124,"ï":125,"ñ":126,"ò":127,"ó":128,"ô":129,"õ":130,"ö":131,"ù":132,"ú":133,"ü":134,"ć":135,"ę":136,"ğ":137,"İ":138,"ı":139,"ł":140,"ş":141,"š":142,"ż":143,"ɪ":144,"ɴ":145,"ʀ":146,"ʟ":147,"́":148,"̶":149,"α":150,"ε":151,"ι":152,"ν":153,"ο":154,"σ":155,"τ":156,"а":157,"б":158,"в":159,"г":160,"д":161,"е":162,"з":163,"и":164,"й":165,"к":166,"л":167,"м":168,"н":169,"о":170,"п":171,"р":172,"с":173,"т":174,"у":175,"ч":176,"ы":177,"ь":178,"я":179,"،":180,"أ":181,"ئ":182,"ب":183,"ة":184,"ت":185,"ج":186,"ح":187,"خ":188,"د":189,"ذ":190,"ر":191,"ز":192,"س":193,"ش":194,"ص":195,"ض":196,"ط":197,"ع":198,"غ":199,"ف":200,"ق":201,"ك":202,"ل":203,"م":204,"ن":205,"ه":206,"و":207,"ى":208,"ي":209,"َ":210,"پ":211,"ک":212,"گ":213,"ں":214,"ھ":215,"ہ":216,"ی":217,"ے":218,"ं":219,"क":220,"ग":221,"ज":222,"त":223,"द":224,"न":225,"प":226,"ब":227,"म":228,"य":229,"र":230,"ल":231,"व":232,"स":233,"ह":234,"ा":235,"ि":236,"ी":237,"ु":238,"े":239,"ै":240,"ो":241,"्":242,"க":243,"ட":244,"த":245,"ம":246,"ா":247,"ி":248,"ு":249,"்":250,"ก":251,"ข":252,"ค":253,"ง":254,"จ":255,"ช":256,"ด":257,"ต":258,"ท":259,"น":260,"บ":261,"ป":262,"พ":263,"ม":264,"ย":265,"ร":266,"ล":267,"ว":268,"ส":269,"ห":270,"อ":271,"ะ":272,"ั":273,"า":274,"ำ":275,"ิ":276,"ี":277,"ื":278,"ุ":279,"ู":280,"เ":281,"แ":282,"โ":283,"ใ":284,"ไ":285,"็":286,"่":287,"้":288,"์":289,"ᥱ":290,"ᥲ":291,"ᴀ":292,"ᴄ":293,"ᴅ":294,"ᴇ":295,"ᴍ":296,"ᴏ":297,"ᴛ":298,"ᴜ":299,"ᵉ":300,"ᵒ":301,"⃣":302,"→":303,"⏱":304,"─":305,"━":306,"┃":307,"┊":308,"┏":309,"┓":310,"┗":311,"┛":312,"═":313,"█":314,"▶":315,"►":316,"☀":317,"★":318,"☆":319,"♪":320,"♫":321,"⚠":322,"✏":323,"✔":324,"✧":325,"❄":326,"❣":327,"➡":328,"⠀":329,"⬇":330,"、":331,"。":332,"》":333,"「":334,"」":335,"『":336,"』":337,"【":338,"】":339,"あ":340,"い":341,"う":342,"え":343,"お":344,"か":345,"が":346,"き":347,"く":348,"け":349,"こ":350,"ご":351,"さ":352,"し":353,"す":354,"せ":355,"そ":356,"た":357,"だ":358,"ち":359,"っ":360,"つ":361,"て":362,"で":363,"と":364,"ど":365,"な":366,"に":367,"ね":368,"の":369,"は":370,"ま":371,"み":372,"め":373,"も":374,"ゃ":375,"や":376,"よ":377,"ら":378,"り":379,"る":380,"れ":381,"わ":382,"を":383,"ん":384,"ア":385,"ィ":386,"イ":387,"オ":388,"カ":389,"キ":390,"ク":391,"グ":392,"コ":393,"サ":394,"シ":395,"ジ":396,"ス":397,"タ":398,"チ":399,"ッ":400,"ツ":401,"テ":402,"デ":403,"ト":404,"ド":405,"ナ":406,"ニ":407,"バ":408,"フ":409,"ブ":410,"プ":411,"マ":412,"ミ":413,"ム":414,"メ":415,"ャ":416,"ュ":417,"ョ":418,"ラ":419,"リ":420,"ル":421,"レ":422,"ロ":423,"ン":424,"・":425,"ㅋ":426,"ㅠ":427,"ㅤ":428,"一":429,"中":430,"人":431,"今":432,"大":433,"年":434,"日":435,"月":436,"本":437,"生":438,"見":439,"가":440,"갓":441,"게":442,"고":443,"공":444,"구":445,"국":446,"그":447,"기":448,"김":449,"나":450,"내":451,"너":452,"년":453,"는":454,"늘":455,"니":456,"다":457,"단":458,"대":459,"더":460,"데":461,"도":462,"동":463,"드":464,"들":465,"디":466,"라":467,"랑":468,"러":469,"레":470,"로":471,"를":472,"리":473,"마":474,"만":475,"면":476,"모":477,"무":478,"미":479,"민":480,"바":481,"방":482,"백":483,"보":484,"부":485,"븐":486,"비":487,"사":488,"상":489,"생":490,"서":491,"석":492,"성":493,"세":494,"소":495,"수":496,"슈":497,"스":498,"시":499,"신":500,"아":501,"안":502,"야":503,"어":504,"에":505,"엑":506,"여":507,"연":508,"영":509,"예":510,"오":511,"와":512,"요":513,"우":514,"원":515,"위":516,"유":517,"으":518,"은":519,"을":520,"의":521,"이":522,"인":523,"일":524,"있":525,"자":526,"재":527,"전":528,"정":529,"제":530,"주":531,"준":532,"즈":533,"지":534,"진":535,"찬":536,"축":537,"크":538,"키":539,"타":540,"탄":541,"태":542,"투":543,"트":544,"티":545,"하":546,"한":547,"해":548,"현":549,"형":550,"호":551,"화":552,"︎":553,"！":554,"？":555,"＿":556,"｡":557,"･":558,"ﾟ":559,"￣":560,"𝐀":561,"𝐄":562,"𝐚":563,"𝐞":564,"𝐢":565,"𝐥":566,"𝐧":567,"𝐨":568,"𝐫":569,"𝐬":570,"𝐭":571,"𝑎":572,"𝑒":573,"𝑜":574,"𝒂":575,"𝒆":576,"𝒊":577,"𝒏":578,"𝒐":579,"𝒓":580,"𝒔":581,"𝗔":582,"𝗘":583,"𝗮":584,"𝗲":585,"𝗶":586,"𝗻":587,"𝗼":588,"𝗿":589,"𝘀":590,"𝘢":591,"𝘦":592,"𝘰":593,"𝙚":594,"𝚎":595,"🌧":596,"🎙":597,"🏟":598,"👁":599,"📽":600,"🕊":601,"🗓":602,"🗞":603,"🗣":604,"##I":605,"##S":606,"##T":607,"##A":608,"##C":609,"##L":610,"##K":611,"##v":612,"##d":613,"##x":614,"##b":615,"##j":616,"##a":617,"##r":618,"##m":619,"##l":620,"##P":621,"##N":622,"##3":623,"##6":624,"##け":625,"##を":626,"##ツ":627,"##イ":628,"##ト":629,"##O":630,"##E":631,"##G":632,"##J":633,"##F":634,"##n":635,"##g":636,"##u":637,"##i":638,"##e":639,"##t":640,"##1":641,"##8":642,"##h":643,"##c":644,"##o":645,"##k":646,"##y":647,"##s":648,"##w":649,"##ス":650,"##タ":651,"##は":652,"##が":653,"##き":654,"##ッ":655,"##H":656,"##í":657,"##q":658,"##f":659,"##é":660,"##е":661,"##б":662,"##с":663,"##я":664,"##2":665,"##0":666,"##D":667,"##p":668,"##B":669,"##V":670,"##R":671,"##4":672,"##5":673,"##M":674,"##9":675,"##Z":676,"##Y":677,"##ñ":678,"##z":679,"##そ":680,"##の":681,"##よ":682,"##う":683,"##な":684,"##ᴀ":685,"##ᴛ":686,"##て":687,"##く":688,"##れ":689,"##る":690,"##ل":691,"##م":692,"##W":693,"##ᵒ":694,"##7":695,"##á":696,"##ㅤ":697,"##U":698,"##っ":699,"##た":700,"##テ":701,"##ン":702,"##シ":703,"##ョ":704,"##で":705,"##해":706,"##니":707,"##다":708,"##X":709,"##こ":710,"##า":711,"##อ":712,"##ย":713,"##่":714,"##ง":715,"##ส":716,"##ว":717,"##ม":718,"##ジ":719,"##ャ":720,"##ナ":721,"##ル":722,"##บ":723,"##ค":724,"##ุ":725,"##ป":726,"##้":727,"##ใ":728,"##ห":729,"##𝑒":730,"##Ã":731,"##ᴏ":732,"##ュ":733,"##レ":734,"##ド":735,"##와":736,"##일":737,"##들":738,"##ü":739,"##𝑎":740,"##र":741,"##्":742,"##व":743,"##ó":744,"##Q":745,"##Í":746,"##ร":747,"##ท":748,"##ี":749,"##ื":750,"##พ":751,"##ั":752,"##น":753,"##ก":754,"##ข":755,"##เ":756,"##ิ":757,"##보":758,"##아":759,"##ช":760,"##็":761,"##σ":762,"##ι":763,"##α":764,"##♪":765,"##т":766,"##و":767,"##د":768,"##ي":769,"##ロ":770,"##キ":771,"##ア":772,"##さ":773,"##ん":774,"##⠀":775,"##𝐥":776,"##デ":777,"##だ":778,"##と":779,"##ú":780,"##ู":781,"##ำ":782,"##ล":783,"##ะ":784,"##ä":785,"##러":786,"##하":787,"##가":788,"##주":789,"##리":790,"##ク":791,"##チ":792,"##し":793,"##ご":794,"##ع":795,"##ر":796,"##ف":797,"##ن":798,"##ت":799,"##ه":800,"##ö":801,"##𝗶":802,"##𝗻":803,"##𝗼":804,"##𝘀":805,"##𝘰":806,"##τ":807,"##ı":808,"##Ó":809,"##ต":810,"##أ":811,"##س":812,"##서":813,"##더":814,"##い":815,"##す":816,"##ど":817,"##か":818,"##ま":819,"##ح":820,"##ب":821,"##♫":822,"##м":823,"##р":824,"##и":825,"##к":826,"##у":827,"##்":828,"##ட":829,"##ு":830,"##ம":831,"##야":832,"##ę":833,"##خ":834,"##지":835,"##ï":836,"##َ":837,"##ق":838,"##ة":839,"##о":840,"##н":841,"##п":842,"##в":843,"##а":844,"##л":845,"##상":846,"##์":847,"##ด":848,"##ᴇ":849,"##ʀ":850,"##ᴍ":851,"##이":852,"##에":853,"##게":854,"##ã":855,"##प":856,"##ह":857,"##े":858,"##ल":859,"##ा":860,"##न":861,"##𝐨":862,"##𝐧":863,"##𝐭":864,"##𝐚":865,"##è":866,"##ா":867,"##ك":868,"##Ñ":869,"##に":870,"##ミ":871,"##𝐬":872,"##𝐢":873,"##ş":874,"##க":875,"##த":876,"##ç":877,"##𝗘":878,"##ं":879,"##ु":880,"##ि":881,"##ش":882,"##म":883,"##ी":884,"##य":885,"##ν":886,"##ο":887,"##ら":888,"##는":889,"##ち":890,"##ゃ":891,"##あ":892,"##り":893,"##コ":894,"##г":895,"##क":896,"##メ":897,"##リ":898,"##스":899,"##แ":900,"##จ":901,"##비":902,"##ɪ":903,"##ᴅ":904,"##𝙚":905,"##ğ":906,"##ไ":907,"##ラ":908,"##み":909,"##つ":910,"##д":911,"##ы":912,"##İ":913,"##성":914,"##내":915,"##랑":916,"##バ":917,"##으":918,"##면":919,"##ニ":920,"##や":921,"##ч":922,"##𝐀":923,"##𝐄":924,"##ص":925,"##Á":926,"##É":927,"##재":928,"##어":929,"##요":930,"##ε":931,"##Ç":932,"##𝘢":933,"##𝘦":934,"##ʟ":935,"##ज":936,"##स":937,"##त":938,"##द":939,"##ی":940,"##オ":941,"##フ":942,"##자":943,"##ブ":944,"##ね":945,"##え":946,"##ز":947,"##も":948,"##호":949,"##태":950,"##²":951,"##𝒂":952,"##𝒔":953,"##𝒊":954,"##𝒆":955,"##𝒏":956,"##𝒐":957,"##Ü":958,"##โ":959,"##레":960,"##사":961,"##나":962,"##─":963,"##무":964,"##ㅠ":965,"##타":966,"##를":967,"##동":968,"##ㅋ":969,"##カ":970,"##기":971,"##ک":972,"##도":973,"##ᴜ":974,"##ذ":975,"##❣":976,"##원":977,"##의":978,"##ط":979,"##대":980,"##제":981,"##영":982,"##🌧":983,"##을":984,"##ج":985,"##ム":986,"##ò":987,"##라":988,"##ć":989,"##ł":990,"##𝐞":991,"##𝐫":992,"##サ":993,"##お":994,"##à":995,"##š":996,"##ி":997,"##수":998,"##プ":999,"##⃣":1000,"##ィ":1001,"##め":1002,"##わ":1003,"##ë":1004,"##グ":1005,"##ى":1006,"##바":1007,"##ь":1008,"##형":1009,"##ض":1010,"##ہ":1011,"##گ":1012,"##ì":1013,"##ɴ":1014,"##로":1015,"##즈":1016,"##︎":1017,"##𝗲":1018,"##ئ":1019,"##マ":1020,"##®":1021,"##õ":1022,"##𝒓":1023,"##せ":1024,"##시":1025,"##만":1026,"##데":1027,"##پ":1028,"##👁":1029,"##ᴄ":1030,"##й":1031,"##→":1032,"##모":1033,"##국":1034,"##ê":1035,"##🗣":1036,"##ے":1037,"##ھ":1038,"##민":1039,"##현":1040,"##년":1041,"##드":1042,"##티":1043,"##━":1044,"##┗":1045,"##┛":1046,"##우":1047,"##å":1048,"##🏟":1049,"##ᵉ":1050,"##정":1051,"##미":1052,"##안":1053,"##마":1054,"##준":1055,"##🗓":1056,"##𝑜":1057,"##𝗮":1058,"##𝗿":1059,"##ो":1060,"##́":1061,"##̶":1062,"##찬":1063,"##구":1064,"##은":1065,"##고":1066,"##𝚎":1067,"##з":1068,"##부":1069,"##Ú":1070,"##â":1071,"##✔":1072,"##ô":1073,"##ᥲ":1074,"##➡":1075,"##트":1076,"##▶":1077,"##공":1078,"##⬇":1079,"##인":1080,"##화":1081,"##⚠":1082,"##한":1083,"##★":1084,"##غ":1085,"##┊":1086,"##ब":1087,"##☆":1088,"##생":1089,"##전":1090,"##ᥱ":1091,"##📽":1092,"##여":1093,"##À":1094,"##❄":1095,"##𝗔":1096,"##소":1097,"##예":1098,"##그":1099,"##디":1100,"##있":1101,"##단":1102,"##ں":1103,"##너":1104,"##연":1105,"##유":1106,"##✧":1107,"##위":1108,"##ै":1109,"##오":1110,"##┃":1111,"##크":1112,"##세":1113,"##ª":1114,"##투":1115,"##진":1116,"##═":1117,"##신":1118,"##🕊":1119,"##Ê":1120,"##ż":1121,"##☀":1122,"##█":1123,"##ù":1124,"##￣":1125,"##방":1126,"##🎙":1127,"##►":1128,"##ग":1129,"##백":1130,"##탄":1131,"##석":1132,"##ﾟ":1133,"##✏":1134,"##🗞":1135,"##축":1136,"##엑":1137,"##늘":1138,"##⏱":1139,"##키":1140,"##┏":1141,"##┓":1142,"##김":1143,"##븐":1144,"##슈":1145,"##갓":1146,"##ar":1147,"##mo":1148,"##io":1149,"de":1150,"##er":1151,"##as":1152,"##en":1153,"##ji":1154,"emo":1155,"emoji":1156,"##an":1157,"##ario":1158,"##su":1159,"usu":1160,"usuario":1161,"##os":1162,"##ue":1163,"##on":1164,"##or":1165,"##ta":1166,"##es":1167,"##do":1168,"es":1169,"que":1170,"la":1171,"##RL":1172,"URL":1173,"##al":1174,"en":1175,"##ci":1176,"##ara":1177,"##te":1178,"##da":1179,"##in":1180,"##is":1181,"has":1182,"con":1183,"##tag":1184,"##htag":1185,"hashtag":1186,"el":1187,"##ra":1188,"##to":1189,"##ic":1190,"##re":1191,"##ien":1192,"no":1193,"un":1194,"##ón":1195,"##ol":1196,"se":1197,"me":1198,"cara":1199,"##ro":1200,"##ando":1201,"##le":1202,"##ti":1203,"ha":1204,"##mp":1205,"##la":1206,"##de":1207,"por":1208,"##ch":1209,"co":1210,"##un":1211,"re":1212,"##el":1213,"al":1214,"los":1215,"##ui":1216,"##ri":1217,"lo":1218,"to":1219,"##us":1220,"per":1221,"##mos":1222,"##ora":1223,"##am":1224,"in":1225,"##ia":1226,"##go":1227,"si":1228,"para":1229,"##ía":1230,"mi":1231,"##ma":1232,"##lo":1233,"##dos":1234,"##ab":1235,"##ción":1236,"cu":1237,"##ja":1238,"est":1239,"del":1240,"##ion":1241,"##ente":1242,"te":1243,"su":1244,"##ca":1245,"##di":1246,"las":1247,"##vi":1248,"##ás":1249,"man":1250,"##iendo":1251,"##ec":1252,"una":1253,"##dad":1254,"##uer":1255,"son":1256,"##ba":1257,"##res":1258,"le":1259,"##ga":1260,"##ent":1261,"##il":1262,"Es":1263,"##era":1264,"des":1265,"##gu":1266,"##oy":1267,"##co":1268,"##cia":1269,"##it":1270,"##ero":1271,"##tr":1272,"ll":1273,"cora":1274,"##om":1275,"di":1276,"coraz":1277,"##cu":1278,"mu":1279,"##at":1280,"an":1281,"##ce":1282,"vi":1283,"##que":1284,"##ica":1285,"##AJ":1286,"##jo":1287,"th":1288,"##ir":1289,"llor":1290,"##isa":1291,"##ad":1292,"##ada":1293,"##me":1294,"más":1295,"ten":1296,"pi":1297,"##ran":1298,"corazón":1299,"##tra":1300,"##ez":1301,"##lar":1302,"pro":1303,"ver":1304,"##tu":1305,"##ues":1306,"como":1307,"llorando":1308,"No":1309,"ch":1310,"risa":1311,"ser":1312,"##cion":1313,"##ter":1314,"yo":1315,"##ing":1316,"pero":1317,"sonr":1318,"esta":1319,"ap":1320,"##jos":1321,"pa":1322,"##tos":1323,"##ob":1324,"ex":1325,"##tes":1326,"##tas":1327,"par":1328,"##mi":1329,"##ono":1330,"##ico":1331,"##tar":1332,"El":1333,"ac":1334,"##pa":1335,"ca":1336,"##iz":1337,"as":1338,"##ur":1339,"##én":1340,"##AJAJ":1341,"##ay":1342,"##uen":1343,"##son":1344,"po":1345,"##ve":1346,"##ios":1347,"qui":1348,"##án":1349,"sonriendo":1350,"##ul":1351,"La":1352,"ya":1353,"ojos":1354,"##vo":1355,"##va":1356,"##ana":1357,"##se":1358,"pas":1359,"tu":1360,"##das":1361,"##bi":1362,"##ué":1363,"##tor":1364,"pue":1365,"person":1366,"##ten":1367,"##cer":1368,"##qui":1369,"##ver":1370,"##emp":1371,"ar":1372,"sal":1373,"##cha":1374,"##ud":1375,"tra":1376,"ni":1377,"todo":1378,"the":1379,"##der":1380,"ti":1381,"va":1382,"sol":1383,"##lan":1384,"##mb":1385,"##gar":1386,"pe":1387,"mano":1388,"##so":1389,"piel":1390,"Que":1391,"##ina":1392,"tien":1393,"pre":1394,"Me":1395,"tono":1396,"##ño":1397,"ja":1398,"##cho":1399,"ma":1400,"##per":1401,"##dio":1402,"##idad":1403,"##ens":1404,"mis":1405,"hab":1406,"##tro":1407,"tan":1408,"fa":1409,"li":1410,"##ru":1411,"Si":1412,"En":1413,"sin":1414,"comp":1415,"##laro":1416,"##za":1417,"cas":1418,"nos":1419,"##ER":1420,"com":1421,"esto":1422,"##ble":1423,"##dor":1424,"##cias":1425,"fuer":1426,"so":1427,"##tal":1428,"##et":1429,"claro":1430,"##ice":1431,"##ern":1432,"##po":1433,"ab":1434,"ah":1435,"##OS":1436,"manos":1437,"##ales":1438,"##ado":1439,"este":1440,"##pe":1441,"##tan":1442,"hay":1443,"##li":1444,"##EN":1445,"##jor":1446,"##las":1447,"sab":1448,"20":1449,"res":1450,"jaja":1451,"##ños":1452,"cre":1453,"Se":1454,"cuando":1455,"can":1456,"##den":1457,"##je":1458,"buen":1459,"##oo":1460,"está":1461,"##ici":1462,"##ión":1463,"##des":1464,"he":1465,"lle":1466,"na":1467,"mejor":1468,"ro":1469,"##los":1470,"todos":1471,"##ones":1472,"pu":1473,"##eces":1474,"porque":1475,"mal":1476,"##ac":1477,"persona":1478,"##ras":1479,"bien":1480,"cor":1481,"##and":1482,"##men":1483,"of":1484,"##ciones":1485,"Un":1486,"ent":1487,"##AN":1488,"for":1489,"mas":1490,"##mente":1491,"día":1492,"mar":1493,"##man":1494,"##AR":1495,"##mas":1496,"hacer":1497,"sus":1498,"dis":1499,"##les":1500,"DE":1501,"##gun":1502,"##pi":1503,"cos":1504,"Yo":1505,"eso":1506,"imp":1507,"men":1508,"rev":1509,"##ís":1510,"##mar":1511,"ne":1512,"De":1513,"##ut":1514,"##emos":1515,"##AS":1516,"fr":1517,"##iento":1518,"##du":1519,"##ista":1520,"ven":1521,"##gan":1522,"##OR":1523,"##ES":1524,"##ena":1525,"medio":1526,"fue":1527,"##ías":1528,"pr":1529,"car":1530,"##ha":1531,"##empre":1532,"vida":1533,"Por":1534,"##ito":1535,"##ces":1536,"##obre":1537,"##omb":1538,"nada":1539,"dor":1540,"da":1541,"amo":1542,"##ho":1543,"tiene":1544,"cam":1545,"##racias":1546,"##id":1547,"##ed":1548,"##ON":1549,"##vor":1550,"Con":1551,"qu":1552,"ve":1553,"##ita":1554,"##gui":1555,"gente":1556,"and":1557,"ami":1558,"Al":1559,"gan":1560,"gran":1561,"cal":1562,"pri":1563,"##ña":1564,"hace":1565,"be":1566,"fin":1567,"les":1568,"qué":1569,"muy":1570,"##dose":1571,"##enta":1572,"ju":1573,"bo":1574,"emp":1575,"nues":1576,"##che":1577,"##min":1578,"on":1579,"##ig":1580,"##endo":1581,"In":1582,"favor":1583,"pres":1584,"col":1585,"##ere":1586,"##qu":1587,"##UE":1588,"fel":1589,"##olvi":1590,"hoy":1591,"Lo":1592,"solo":1593,"##gra":1594,"ba":1595,"hacia":1596,"##iste":1597,"fuerte":1598,"##for":1599,"vo":1600,"así":1601,"ra":1602,"##zo":1603,"##jaja":1604,"##uel":1605,"##00":1606,"##ven":1607,"##ber":1608,"##nd":1609,"fal":1610,"lu":1611,"siempre":1612,"gus":1613,"ter":1614,"##car":1615,"Co":1616,"##tros":1617,"##bajo":1618,"pol":1619,"##na":1620,"##és":1621,"##éndose":1622,"is":1623,"##ona":1624,"nue":1625,"deci":1626,"mo":1627,"##con":1628,"pens":1629,"ci":1630,"dos":1631,"##be":1632,"##ts":1633,"pon":1634,"fo":1635,"##ros":1636,"quiero":1637,"##van":1638,"##jer":1639,"sobre":1640,"tengo":1641,"##ren":1642,"años":1643,"##ino":1644,"revolvi":1645,"revolviéndose":1646,"##encia":1647,"Re":1648,"##tic":1649,"estar":1650,"do":1651,"estoy":1652,"##he":1653,"hi":1654,"mun":1655,"##jar":1656,"Jjaja":1657,"Ya":1658,"##por":1659,"tam":1660,"ir":1661,"##rar":1662,"Cu":1663,"vez":1664,"us":1665,"band":1666,"you":1667,"##ún":1668,"bandera":1669,"Te":1670,"ahora":1671,"ta":1672,"##AL":1673,"##dar":1674,"her":1675,"##pon":1676,"ES":1677,"##unca":1678,"voy":1679,"cer":1680,"##ante":1681,"Los":1682,"don":1683,"##aa":1684,"bes":1685,"##no":1686,"##tir":1687,"##mer":1688,"algo":1689,"##AD":1690,"cab":1691,"To":1692,"##20":1693,"mucho":1694,"##fer":1695,"##ano":1696,"or":1697,"##cial":1698,"quer":1699,"apla":1700,"hasta":1701,"##ke":1702,"##tras":1703,"##CI":1704,"puede":1705,"Mi":1706,"##gos":1707,"##if":1708,"##par":1709,"##bién":1710,"##guien":1711,"pel":1712,"rec":1713,"casa":1714,"##gue":1715,"##can":1716,"fe":1717,"inter":1718,"##sa":1719,"ay":1720,"##dr":1721,"real":1722,"esc":1723,"hu":1724,"mil":1725,"aplaud":1726,"##IN":1727,"entre":1728,"##ola":1729,"##gi":1730,"aplaudiendo":1731,"##tiva":1732,"##bl":1733,"pos":1734,"ese":1735,"##eron":1736,"esp":1737,"pla":1738,"##ciendo":1739,"##tado":1740,"##amente":1741,"##AJAJAJAJ":1742,"##ie":1743,"dere":1744,"NO":1745,"fle":1746,"feliz":1747,"##ck":1748,"##ndice":1749,"neces":1750,"cosas":1751,"parti":1752,"##cep":1753,"##ly":1754,"exp":1755,"índice":1756,"##TA":1757,"##gas":1758,"Ch":1759,"también":1760,"##ee":1761,"##ento":1762,"##ío":1763,"du":1764,"##erda":1765,"##ece":1766,"Pero":1767,"conf":1768,"tiemp":1769,"tener":1770,"10":1771,"desde":1772,"##ão":1773,"min":1774,"toda":1775,"soy":1776,"esa":1777,"nunca":1778,"vol":1779,"ob":1780,"dorso":1781,"quien":1782,"au":1783,"menos":1784,"señ":1785,"verdad":1786,"cons":1787,"días":1788,"##eza":1789,"dar":1790,"sea":1791,"much":1792,"##aba":1793,"##lla":1794,"Le":1795,"Mar":1796,"##ores":1797,"##bol":1798,"##cen":1799,"era":1800,"val":1801,"##ientes":1802,"##ín":1803,"corazones":1804,"##die":1805,"##ismo":1806,"##iern":1807,"contra":1808,"##im":1809,"##olo":1810,"##toria":1811,"201":1812,"##gual":1813,"##th":1814,"mundo":1815,"##TE":1816,"##ómo":1817,"tr":1818,"Buen":1819,"his":1820,"##lti":1821,"mor":1822,"reg":1823,"##mana":1824,"lin":1825,"sen":1826,"os":1827,"segui":1828,"op":1829,"##cas":1830,"LA":1831,"QUE":1832,"mujer":1833,"##gua":1834,"decir":1835,"##ias":1836,"dic":1837,"están":1838,"ce":1839,"##bo":1840,"##uela":1841,"##ima":1842,"##ge":1843,"sa":1844,"desp":1845,"##tiv":1846,"Hoy":1847,"##deo":1848,"##tre":1849,"##imo":1850,"mad":1851,"19":1852,"homb":1853,"##ñana":1854,"tiempo":1855,"mes":1856,"##tando":1857,"personas":1858,"uno":1859,"##aron":1860,"##zando":1861,"##vir":1862,"##istas":1863,"##cio":1864,"ho":1865,"##ala":1866,"Gracias":1867,"amor":1868,"##cional":1869,"hor":1870,"ad":1871,"##entes":1872,"jun":1873,"mom":1874,"mismo":1875,"alguien":1876,"##ves":1877,"##obiern":1878,"país":1879,"##ris":1880,"##dores":1881,"##ido":1882,"sí":1883,"ins":1884,"##tica":1885,"ganas":1886,"##quí":1887,"frente":1888,"tar":1889,"##IS":1890,"##icos":1891,"impor":1892,"##tin":1893,"equi":1894,"As":1895,"blan":1896,"donde":1897,"lla":1898,"jo":1899,"##ame":1900,"Ah":1901,"cada":1902,"gracias":1903,"rojo":1904,"##mbre":1905,"año":1906,"##rec":1907,"##TO":1908,"Esta":1909,"jue":1910,"##DO":1911,"tanto":1912,"##eo":1913,"Ma":1914,"##ies":1915,"escu":1916,"##ine":1917,"san":1918,"EN":1919,"vis":1920,"An":1921,"Qué":1922,"levan":1923,"##gn":1924,"##amil":1925,"vos":1926,"jus":1927,"##gen":1928,"##xico":1929,"##AM":1930,"##culo":1931,"##tivo":1932,"##fec":1933,"San":1934,"##iv":1935,"we":1936,"gu":1937,"estu":1938,"Ar":1939,"Mu":1940,"##iones":1941,"##pas":1942,"ga":1943,"cono":1944,"han":1945,"traba":1946,"##ués":1947,"##tura":1948,"puedo":1949,"cuenta":1950,"##miento":1951,"lan":1952,"gra":1953,"Des":1954,"abajo":1955,"##obierno":1956,"tran":1957,"go":1958,"haciendo":1959,"nadie":1960,"##dia":1961,"tw":1962,"beso":1963,"igual":1964,"##RE":1965,"tienen":1966,"Esto":1967,"fu":1968,"##til":1969,"EL":1970,"##nos":1971,"##lu":1972,"rep":1973,"eu":1974,"cump":1975,"wh":1976,"##arios":1977,"bueno":1978,"pan":1979,"van":1980,"##cal":1981,"pes":1982,"##ted":1983,"muer":1984,"##ap":1985,"##ril":1986,"quier":1987,"bus":1988,"gen":1989,"otro":1990,"pal":1991,"mat":1992,"mam":1993,"##ían":1994,"it":1995,"##iente":1996,"dia":1997,"##ración":1998,"at":1999,"dice":2000,"def":2001,"super":2002,"famil":2003,"##mir":2004,"otra":2005,"mus":2006,"##ación":2007,"ol":2008,"pasa":2009,"cual":2010,"Qui":2011,"esper":2012,"may":2013,"##ID":2014,"boca":2015,"vuel":2016,"derecha":2017,"grande":2018,"Las":2019,"mierda":2020,"##RA":2021,"mon":2022,"##forma":2023,"mañana":2024,"segu":2025,"##tada":2026,"Ten":2027,"##ador":2028,"##var":2029,"sonrientes":2030,"##cil":2031,"##vers":2032,"lib":2033,"##ír":2034,"##cel":2035,"Como":2036,"Para":2037,"##anos":2038,"##tion":2039,"##tó":2040,"bar":2041,"plan":2042,"algun":2043,"poco":2044,"semana":2045,"arri":2046,"##vid":2047,"pen":2048,"##ible":2049,"final":2050,"CO":2051,"##ith":2052,"vamos":2053,"##tico":2054,"##br":2055,"mer":2056,"cul":2057,"gusta":2058,"##ment":2059,"sac":2060,"Na":2061,"nuevo":2062,"##dem":2063,"bas":2064,"##IC":2065,"todas":2066,"##rib":2067,"blanco":2068,"mie":2069,"az":2070,"poder":2071,"den":2072,"##HA":2073,"Cuando":2074,"creo":2075,"Ha":2076,"##ér":2077,"##cre":2078,"##pen":2079,"foto":2080,"##gent":2081,"veces":2082,"inf":2083,"prim":2084,"##iene":2085,"##amos":2086,"después":2087,"bol":2088,"##dan":2089,"abra":2090,"##ensa":2091,"##icar":2092,"sé":2093,"##jas":2094,"antes":2095,"##udad":2096,"##ile":2097,"##um":2098,"tal":2099,"##ill":2100,"últi":2101,"##pu":2102,"Pa":2103,"pues":2104,"##idente":2105,"momento":2106,"reci":2107,"nuestro":2108,"##char":2109,"ún":2110,"Dios":2111,"SE":2112,"##sul":2113,"##ale":2114,"##tante":2115,"polí":2116,"that":2117,"##uda":2118,"parte":2119,"##ria":2120,"The":2121,"camp":2122,"##oles":2123,"temp":2124,"my":2125,"##icio":2126,"ban":2127,"aquí":2128,"##pues":2129,"trabajo":2130,"cómo":2131,"##erto":2132,"Car":2133,"tus":2134,"##ds":2135,"arriba":2136,"pregun":2137,"##OL":2138,"bal":2139,"sue":2140,"##ers":2141,"cele":2142,"this":2143,"##una":2144,"ME":2145,"##rá":2146,"Ven":2147,"pun":2148,"extra":2149,"##ezuela":2150,"Una":2151,"Su":2152,"estos":2153,"Fel":2154,"##lor":2155,"fun":2156,"##vel":2157,"Sal":2158,"vía":2159,"falta":2160,"##gres":2161,"espa":2162,"eres":2163,"##ff":2164,"só":2165,"##ridad":2166,"Mad":2167,"##ne":2168,"noche":2169,"azul":2170,"##vis":2171,"##uerdo":2172,"##pos":2173,"##tad":2174,"##ib":2175,"##vil":2176,"##zar":2177,"with":2178,"gui":2179,"##len":2180,"Ca":2181,"##ida":2182,"##via":2183,"lanzando":2184,"apro":2185,"##fe":2186,"señal":2187,"miedo":2188,"##cl":2189,"##lante":2190,"##orado":2191,"oración":2192,"##úbl":2193,"am":2194,"##tv":2195,"##icación":2196,"via":2197,"##titu":2198,"queda":2199,"##OO":2200,"quiere":2201,"music":2202,"fuego":2203,"all":2204,"apoy":2205,"##ya":2206,"gobierno":2207,"gt":2208,"parece":2209,"flecha":2210,"##able":2211,"Hay":2212,"Th":2213,"dormir":2214,"video":2215,"Ex":2216,"dejar":2217,"tú":2218,"##trar":2219,"Par":2220,"##tido":2221,"##ctor":2222,"dej":2223,"##gún":2224,"ellos":2225,"##uro":2226,"Per":2227,"##ton":2228,"##dic":2229,"##dir":2230,"seguir":2231,"ojo":2232,"##fi":2233,"proble":2234,"hora":2235,"vas":2236,"##itos":2237,"##tbol":2238,"RT":2239,"30":2240,"##ionado":2241,"##tual":2242,"UN":2243,"##añ":2244,"vio":2245,"##js":2246,"sos":2247,"##cos":2248,"##útbol":2249,"##ollo":2250,"##cur":2251,"##blo":2252,"##gro":2253,"termin":2254,"respon":2255,"##TI":2256,"##ger":2257,"##ea":2258,"salir":2259,"Este":2260,"##alo":2261,"estamos":2262,"##dido":2263,"cuar":2264,"ima":2265,"pelo":2266,"##ant":2267,"##itar":2268,"##ht":2269,"ahí":2270,"##rado":2271,"15":2272,"##si":2273,"##elo":2274,"Ay":2275,"bon":2276,"buena":2277,"CON":2278,"##éxico":2279,"mí":2280,"estas":2281,"clas":2282,"sub":2283,"marca":2284,"dan":2285,"So":2286,"##fa":2287,"##cción":2288,"##AA":2289,"##pp":2290,"##chas":2291,"hermos":2292,"frío":2293,"somos":2294,"comun":2295,"##icas":2296,"fútbol":2297,"##eta":2298,"Po":2299,"cír":2300,"##RO":2301,"amp":2302,"historia":2303,"unos":2304,"nuestra":2305,"amigos":2306,"##eando":2307,"círculo":2308,"##itter":2309,"ella":2310,"AM":2311,"acab":2312,"estaba":2313,"TO":2314,"mtv":2315,"medi":2316,"prof":2317,"##use":2318,"flex":2319,"##rid":2320,"##eros":2321,"##UN":2322,"##gentina":2323,"##mon":2324,"ide":2325,"##ús":2326,"har":2327,"##one":2328,"ciudad":2329,"Pro":2330,"##ks":2331,"trans":2332,"12":2333,"gri":2334,"sudor":2335,"##tif":2336,"partido":2337,"##cios":2338,"##ome":2339,"hecho":2340,"comer":2341,"gol":2342,"estre":2343,"Di":2344,"af":2345,"cabeza":2346,"madre":2347,"equipo":2348,"##chos":2349,"##ñando":2350,"bí":2351,"pin":2352,"pensa":2353,"##illa":2354,"##omin":2355,"fan":2356,"##entos":2357,"salud":2358,"##ceps":2359,"hablar":2360,"##aya":2361,"primer":2362,"bíceps":2363,"are":2364,"flexionado":2365,"pasar":2366,"hacen":2367,"##entro":2368,"fuera":2369,"##tón":2370,"##orn":2371,"##otros":2372,"dijo":2373,"##19":2374,"camb":2375,"Así":2376,"JAJAJAJAJ":2377,"##antes":2378,"din":2379,"##izo":2380,"##EL":2381,"sabe":2382,"sor":2383,"será":2384,"##vio":2385,"poner":2386,"forma":2387,"##uego":2388,"horas":2389,"fi":2390,"cha":2391,"saber":2392,"##gado":2393,"Lu":2394,"ag":2395,"pensativa":2396,"peor":2397,"aun":2398,"chis":2399,"##pera":2400,"mill":2401,"##mes":2402,"##tadas":2403,"amigo":2404,"##entar":2405,"Ju":2406,"##rr":2407,"uni":2408,"amar":2409,"cualqui":2410,"morado":2411,"##adas":2412,"cri":2413,"cr":2414,"##ban":2415,"pul":2416,"11":2417,"ale":2418,"##hi":2419,"Ac":2420,"##AJA":2421,"él":2422,"veo":2423,"familia":2424,"direc":2425,"##ientras":2426,"Bar":2427,"Ro":2428,"##ka":2429,"social":2430,"nueva":2431,"##ss":2432,"dif":2433,"##eral":2434,"##bación":2435,"puta":2436,"cosa":2437,"Ahora":2438,"##IL":2439,"##ticia":2440,"corona":2441,"tenemos":2442,"cumple":2443,"##osa":2444,"##dades":2445,"##all":2446,"Estoy":2447,"lugar":2448,"segun":2449,"deb":2450,"##ior":2451,"##itas":2452,"##olu":2453,"comi":2454,"##mor":2455,"encan":2456,"deja":2457,"##tedes":2458,"##illo":2459,"##ura":2460,"vie":2461,"siento":2462,"##port":2463,"Ja":2464,"##cis":2465,"compar":2466,"by":2467,"esos":2468,"debe":2469,"elec":2470,"##idades":2471,"##cido":2472,"Gu":2473,"não":2474,"olvi":2475,"##tru":2476,"Com":2477,"Col":2478,"enten":2479,"nor":2480,"informa":2481,"Ser":2482,"##demos":2483,"HA":2484,"guiñando":2485,"invi":2486,"ning":2487,"auto":2488,"##tá":2489,"triste":2490,"IN":2491,"bril":2492,"bab":2493,"##gin":2494,"ví":2495,"len":2496,"##rom":2497,"pra":2498,"##lación":2499,"100":2500,"pueden":2501,"##izar":2502,"RE":2503,"##tados":2504,"##ular":2505,"perd":2506,"deber":2507,"Cor":2508,"2020":2509,"hizo":2510,"cl":2511,"hombre":2512,"##eno":2513,"volver":2514,"##ty":2515,"##ron":2516,"primera":2517,"pien":2518,"em":2519,"AL":2520,"LO":2521,"##eet":2522,"18":2523,"your":2524,"lindo":2525,"otros":2526,"##iso":2527,"##tamente":2528,"##tación":2529,"Espa":2530,"estado":2531,"##op":2532,"públ":2533,"##ich":2534,"POR":2535,"##vos":2536,"tienes":2537,"##uso":2538,"Cre":2539,"juga":2540,"je":2541,"presidente":2542,"cá":2543,"mayor":2544,"haber":2545,"##jal":2546,"podr":2547,"##ira":2548,"##lando":2549,"##lado":2550,"##mal":2551,"##RI":2552,"sólo":2553,"##ord":2554,"dem":2555,"Ni":2556,"pueblo":2557,"00":2558,"vic":2559,"##guen":2560,"ben":2561,"fotos":2562,"##rup":2563,"JAJAJ":2564,"sido":2565,"tarde":2566,"##tel":2567,"Pues":2568,"##ches":2569,"##ug":2570,"tipo":2571,"muchos":2572,"dios":2573,"encon":2574,"Qu":2575,"notas":2576,"##virus":2577,"##ial":2578,"sigue":2579,"produ":2580,"pap":2581,"SI":2582,"##MP":2583,"amiga":2584,"Tw":2585,"##bas":2586,"mos":2587,"DI":2588,"##ear":2589,"llama":2590,"##entena":2591,"asi":2592,"cambi":2593,"##óx":2594,"##gando":2595,"digo":2596,"##ándo":2597,"##iza":2598,"visto":2599,"viene":2600,"TE":2601,"##brando":2602,"acuerdo":2603,"##cía":2604,"##erte":2605,"lengua":2606,"lado":2607,"cui":2608,"##pital":2609,"espe":2610,"##ook":2611,"##cin":2612,"profes":2613,"paso":2614,"##iado":2615,"loco":2616,"##ite":2617,"apar":2618,"##vas":2619,"tor":2620,"Pre":2621,"##LE":2622,"##ry":2623,"chispas":2624,"##bra":2625,"llegar":2626,"Ne":2627,"##ció":2628,"nar":2629,"##lica":2630,"tomar":2631,"##dió":2632,"raz":2633,"difer":2634,"##US":2635,"##haha":2636,"disf":2637,"Cas":2638,"##mento":2639,"##ian":2640,"respe":2641,"##ist":2642,"##yo":2643,"Nos":2644,"##fas":2645,"ele":2646,"Eso":2647,"##ÓN":2648,"##ícu":2649,"##ii":2650,"##cri":2651,"##jes":2652,"##mm":2653,"PAR":2654,"ley":2655,"dicen":2656,"gas":2657,"##bre":2658,"caso":2659,"##cip":2660,"##ió":2661,"MI":2662,"había":2663,"bel":2664,"sho":2665,"##dida":2666,"ustedes":2667,"##MO":2668,"Tengo":2669,"##rin":2670,"único":2671,"cur":2672,"vir":2673,"##cado":2674,"casi":2675,"gru":2676,"aten":2677,"He":2678,"##ye":2679,"##cul":2680,"##migo":2681,"brillante":2682,"Pe":2683,"publ":2684,"dinero":2685,"muchas":2686,"minu":2687,"ante":2688,"##imada":2689,"pulgar":2690,"Man":2691,"##éis":2692,"celebrando":2693,"cru":2694,"##ollow":2695,"empres":2696,"like":2697,"apren":2698,"Quiero":2699,"cualquier":2700,"##UI":2701,"suf":2702,"sueño":2703,"mujeres":2704,"##hh":2705,"##amiento":2706,"##rante":2707,"##kk":2708,"##mina":2709,"balón":2710,"##jalá":2711,"estudi":2712,"aún":2713,"##tivos":2714,"##mano":2715,"Tu":2716,"##king":2717,"cuarentena":2718,"luego":2719,"Vi":2720,"##bado":2721,"##rados":2722,"Pres":2723,"che":2724,"##duca":2725,"##ood":2726,"pasado":2727,"palab":2728,"cap":2729,"##cie":2730,"##má":2731,"España":2732,"empez":2733,"desan":2734,"##DE":2735,"tras":2736,"##ombia":2737,"Li":2738,"##ñas":2739,"Todo":2740,"amb":2741,"##ting":2742,"##bar":2743,"interes":2744,"nosotros":2745,"domin":2746,"##day":2747,"##ticos":2748,"not":2749,"##vía":2750,"##eti":2751,"##LO":2752,"##comp":2753,"Jo":2754,"##llas":2755,"##yec":2756,"Venezuela":2757,"##gida":2758,"Cómo":2759,"##ilidad":2760,"art":2761,"pod":2762,"##anto":2763,"habla":2764,"pat":2765,"aunque":2766,"##tima":2767,"rob":2768,"quieren":2769,"##CH":2770,"estás":2771,"sh":2772,"mientras":2773,"contr":2774,"liber":2775,"ej":2776,"##isión":2777,"desanimada":2778,"econ":2779,"progra":2780,"levantadas":2781,"love":2782,"mejores":2783,"dol":2784,"jugar":2785,"tro":2786,"oscu":2787,"Son":2788,"sex":2789,"México":2790,"##pm":2791,"##zos":2792,"comida":2793,"musicales":2794,"##zas":2795,"##ell":2796,"##ional":2797,"lab":2798,"##para":2799,"ges":2800,"##ama":2801,"##ciales":2802,"comple":2803,"alto":2804,"Porque":2805,"hue":2806,"LOS":2807,"quedar":2808,"##rada":2809,"##ientos":2810,"encu":2811,"Val":2812,"##mpo":2813,"enf":2814,"come":2815,"2019":2816,"fies":2817,"##ini":2818,"##erta":2819,"##unes":2820,"was":2821,"##fil":2822,"esas":2823,"wor":2824,"##iar":2825,"prop":2826,"mucha":2827,"##wn":2828,"##gía":2829,"Bo":2830,"pensar":2831,"meses":2832,"have":2833,"14":2834,"##DI":2835,"##eras":2836,"##onces":2837,"tenía":2838,"##atos":2839,"##dios":2840,"tema":2841,"pare":2842,"Fa":2843,"millones":2844,"covid":2845,"enco":2846,"um":2847,"Hola":2848,"##gó":2849,"nuestros":2850,"agua":2851,"coronavirus":2852,"hici":2853,"mé":2854,"##dez":2855,"##ase":2856,"Madrid":2857,"Ra":2858,"##gada":2859,"recor":2860,"##vidad":2861,"##tencia":2862,"13":2863,"sino":2864,"iz":2865,"##AB":2866,"Bueno":2867,"pad":2868,"##dado":2869,"próx":2870,"##ual":2871,"corrup":2872,"000":2873,"verde":2874,"Wh":2875,"problema":2876,"Sin":2877,"##cn":2878,"blo":2879,"felici":2880,"##ps":2881,"##dial":2882,"##DA":2883,"misma":2884,"inten":2885,"calle":2886,"but":2887,"et":2888,"##ram":2889,"disfru":2890,"##ys":2891,"polic":2892,"negro":2893,"serv":2894,"##val":2895,"sale":2896,"hombros":2897,"##llo":2898,"agu":2899,"##ocu":2900,"ayud":2901,"##ix":2902,"prin":2903,"##amo":2904,"manera":2905,"one":2906,"tri":2907,"peque":2908,"##lub":2909,"##ernes":2910,"##quer":2911,"compañ":2912,"cho":2913,"##pec":2914,"quién":2915,"abo":2916,"sabes":2917,"##gre":2918,"resul":2919,"##ERO":2920,"hago":2921,"vivir":2922,"You":2923,"Siempre":2924,"##diendo":2925,"mono":2926,"Vamos":2927,"##LA":2928,"##vin":2929,"iba":2930,"Rec":2931,"romp":2932,"fir":2933,"viernes":2934,"reco":2935,"##tia":2936,"tir":2937,"##ral":2938,"24":2939,"##ick":2940,"##icial":2941,"bro":2942,"necesita":2943,"ru":2944,"chin":2945,"##mara":2946,"##años":2947,"##aso":2948,"Can":2949,"unas":2950,"Feliz":2951,"encogida":2952,"ayer":2953,"tele":2954,"entr":2955,"##orada":2956,"nota":2957,"Twitter":2958,"##ard":2959,"##ición":2960,"16":2961,"puedes":2962,"17":2963,"##ust":2964,"cris":2965,"due":2966,"mamá":2967,"llorar":2968,"opin":2969,"prem":2970,"##asta":2971,"And":2972,"##gal":2973,"gato":2974,"##est":2975,"##iod":2976,"agra":2977,"##don":2978,"CU":2979,"##demia":2980,"nivel":2981,"información":2982,"total":2983,"##HAHA":2984,"cel":2985,"hubi":2986,"##mple":2987,"##udos":2988,"conse":2989,"##tigo":2990,"seguro":2991,"oscuro":2992,"importante":2993,"inte":2994,"gana":2995,"ganar":2996,"##iden":2997,"ases":2998,"ren":2999,"comprar":3000,"izqui":3001,"Mon":3002,"up":3003,"il":3004,"escuchar":3005,"victoria":3006,"##aria":3007,"##gü":3008,"##ko":3009,"##ernos":3010,"##cima":3011,"lit":3012,"vale":3013,"espera":3014,"##tamos":3015,"day":3016,"Solo":3017,"##dica":3018,"bor":3019,"odio":3020,"##ados":3021,"ama":3022,"lar":3023,"just":3024,"sig":3025,"##IA":3026,"grandes":3027,"ves":3028,"tui":3029,"Más":3030,"##ticas":3031,"out":3032,"##her":3033,"from":3034,"##ity":3035,"##icios":3036,"##st":3037,"Gran":3038,"espero":3039,"tres":3040,"##mil":3041,"pena":3042,"importa":3043,"bail":3044,"sentir":3045,"##ñar":3046,"Don":3047,"##diante":3048,"capa":3049,"##gamos":3050,"##ua":3051,"Ins":3052,"desa":3053,"proyec":3054,"Buenos":3055,"tweet":3056,"##iencia":3057,"babeando":3058,"actual":3059,"mtvla":3060,"dur":3061,"aprobación":3062,"##uu":3063,"gafas":3064,"enfer":3065,"perfil":3066,"int":3067,"##udo":3068,"##erra":3069,"Soy":3070,"Neces":3071,"##IEN":3072,"siendo":3073,"##uld":3074,"mensa":3075,"Mor":3076,"entra":3077,"educa":3078,"Creo":3079,"##usa":3080,"##rea":3081,"ur":3082,"##ight":3083,"preocu":3084,"ref":3085,"exper":3086,"hijo":3087,"##cidad":3088,"tur":3089,"situ":3090,"##ría":3091,"##del":3092,"entiendo":3093,"confeti":3094,"funcion":3095,"##gia":3096,"algún":3097,"##ciente":3098,"roto":3099,"pende":3100,"juego":3101,"new":3102,"play":3103,"##GO":3104,"cla":3105,"##MA":3106,"conmigo":3107,"rela":3108,"##ip":3109,"##gel":3110,"##ler":3111,"realidad":3112,"Mo":3113,"##idos":3114,"##mpoco":3115,"##demás":3116,"##dy":3117,"domingo":3118,"radiante":3119,"##fono":3120,"cambio":3121,"25":3122,"##oso":3123,"aque":3124,"nombre":3125,"what":3126,"pone":3127,"##ila":3128,"##cor":3129,"programa":3130,"##rir":3131,"200":3132,"Nunca":3133,"##ung":3134,"##cito":3135,"mús":3136,"21":3137,"Todos":3138,"##ál":3139,"##cra":3140,"##atro":3141,"top":3142,"##ificación":3143,"gar":3144,"viendo":3145,"futu":3146,"##jada":3147,"##ecer":3148,"##té":3149,"Cal":3150,"##uestra":3151,"fiesta":3152,"perfec":3153,"trabaja":3154,"We":3155,"viol":3156,"acá":3157,"paz":3158,"pl":3159,"ade":3160,"##enza":3161,"sería":3162,"niños":3163,"##vent":3164,"punto":3165,"grupo":3166,"pier":3167,"##pres":3168,"##ese":3169,"Sab":3170,"pq":3171,"cuer":3172,"entonces":3173,"cans":3174,"##tiendo":3175,"idea":3176,"##ans":3177,"encanta":3178,"##ang":3179,"prote":3180,"##ire":3181,"##ización":3182,"ago":3183,"MU":3184,"Ta":3185,"usted":3186,"demas":3187,"##dito":3188,"##ula":3189,"ayuda":3190,"##ró":3191,"##CA":3192,"cumpleaños":3193,"escri":3194,"saben":3195,"period":3196,"rad":3197,"demás":3198,"estrellas":3199,"ton":3200,"bts":3201,"Ap":3202,"leer":3203,"argentina":3204,"repres":3205,"##lig":3206,"cues":3207,"trabajar":3208,"razón":3209,"##aro":3210,"tendr":3211,"cerrados":3212,"50":3213,"##vés":3214,"policía":3215,"durante":3216,"gritando":3217,"emb":3218,"lleva":3219,"lt":3220,"pay":3221,"hos":3222,"Ci":3223,"expres":3224,"suerte":3225,"arre":3226,"pron":3227,"nacional":3228,"especial":3229,"serio":3230,"minutos":3231,"extraño":3232,"ever":3233,"escrib":3234,"necesito":3235,"sacar":3236,"##cimiento":3237,"abrazando":3238,"canción":3239,"##icia":3240,"SU":3241,"normal":3242,"organ":3243,"desper":3244,"##ctu":3245,"##puesta":3246,"##taría":3247,"señor":3248,"##sos":3249,"##gio":3250,"sob":3251,"hijos":3252,"izquierda":3253,"Da":3254,"##IT":3255,"##uncia":3256,"Ver":3257,"##fo":3258,"buenos":3259,"menti":3260,"és":3261,"##und":3262,"sá":3263,"amarillo":3264,"##EE":3265,"Tra":3266,"Pue":3267,"Muy":3268,"##vesti":3269,"pelícu":3270,"política":3271,"fil":3272,"vs":3273,"mala":3274,"##portun":3275,"símb":3276,"##inos":3277,"mira":3278,"apoyo":3279,"AN":3280,"##imos":3281,"##MOS":3282,"##table":3283,"##ADO":3284,"Dis":3285,"dec":3286,"Inter":3287,"Or":3288,"plata":3289,"encima":3290,"linda":3291,"Fran":3292,"##ong":3293,"##ça":3294,"través":3295,"Min":3296,"haya":3297,"##ónde":3298,"##aaa":3299,"ata":3300,"DEL":3301,"Esp":3302,"creer":3303,"Ale":3304,"##isto":3305,"##sión":3306,"VI":3307,"personal":3308,"##ENTE":3309,"##ñón":3310,"##óm":3311,"##pido":3312,"##tis":3313,"fá":3314,"##ioridad":3315,"##ifica":3316,"##arr":3317,"perder":3318,"##ki":3319,"pagar":3320,"cierto":3321,"##are":3322,"alguna":3323,"lunes":3324,"gor":3325,"españ":3326,"vaya":3327,"demo":3328,"##usión":3329,"Ba":3330,"coment":3331,"Fe":3332,"llega":3333,"pobre":3334,"juntos":3335,"dio":3336,"venezuela":3337,"Pri":3338,"more":3339,"EST":3340,"abi":3341,"will":3342,"sur":3343,"##rump":3344,"música":3345,"cuernos":3346,"incre":3347,"serie":3348,"Aquí":3349,"respons":3350,"Pol":3351,"##rio":3352,"MA":3353,"##ack":3354,"##porte":3355,"llevar":3356,"##ciar":3357,"Gobierno":3358,"##taron":3359,"##ld":3360,"otras":3361,"##eran":3362,"Desde":3363,"chu":3364,"ejemp":3365,"Juan":3366,"tampoco":3367,"vivo":3368,"clase":3369,"##ess":3370,"##bé":3371,"perro":3372,"fra":3373,"##mando":3374,"botón":3375,"puer":3376,"asu":3377,"##ms":3378,"club":3379,"##OY":3380,"they":3381,"##eria":3382,"##ísimo":3383,"##now":3384,"buenas":3385,"Hab":3386,"expl":3387,"##ADA":3388,"partici":3389,"contin":3390,"recib":3391,"##EC":3392,"##IO":3393,"##embre":3394,"##ANDO":3395,"##aña":3396,"quieres":3397,"evi":3398,"podemos":3399,"incl":3400,"primero":3401,"dé":3402,"PARA":3403,"##greso":3404,"temporada":3405,"human":3406,"##TS":3407,"edi":3408,"tranqui":3409,"##ices":3410,"Ho":3411,"now":3412,"##isi":3413,"tre":3414,"sola":3415,"difí":3416,"##óg":3417,"##ticias":3418,"##ror":3419,"get":3420,"uma":3421,"sigo":3422,"sele":3423,"guar":3424,"empi":3425,"##rera":3426,"22":3427,"oportun":3428,"##güenza":3429,"Nue":3430,"mara":3431,"pandemia":3432,"cámara":3433,"##miendo":3434,"##cina":3435,"dicho":3436,"cañón":3437,"##trás":3438,"##SJ":3439,"##cla":3440,"orgu":3441,"cabre":3442,"anda":3443,"glo":3444,"sir":3445,"anti":3446,"haga":3447,"todavía":3448,"prue":3449,"##ct":3450,"##ENT":3451,"YO":3452,"bur":3453,"contigo":3454,"##istra":3455,"meu":3456,"##RES":3457,"bb":3458,"PA":3459,"Lle":3460,"xd":3461,"##cando":3462,"culpa":3463,"má":3464,"aliv":3465,"defen":3466,"pase":3467,"Ojalá":3468,"junto":3469,"hermosa":3470,"peop":3471,"mais":3472,"Argentina":3473,"##atur":3474,"último":3475,"log":3476,"conocer":3477,"##ques":3478,"conta":3479,"Pla":3480,"##bal":3481,"##udio":3482,"fueron":3483,"AR":3484,"##gina":3485,"luz":3486,"orden":3487,"##ions":3488,"##dí":3489,"wa":3490,"pelotu":3491,"toma":3492,"##pre":3493,"corr":3494,"dije":3495,"vídeo":3496,"Cha":3497,"##mero":3498,"bu":3499,"people":3500,"pedo":3501,"##jando":3502,"nego":3503,"ano":3504,"pasó":3505,"##esta":3506,"##ivers":3507,"libre":3508,"cole":3509,"Men":3510,"quienes":3511,"##ítu":3512,"flor":3513,"##icip":3514,"verificación":3515,"Sí":3516,"cabreada":3517,"##ooo":3518,"investi":3519,"princip":3520,"##arias":3521,"Hace":3522,"Sa":3523,"algunos":3524,"##xic":3525,"nu":3526,"Hasta":3527,"cuad":3528,"entender":3529,"##ole":3530,"puño":3531,"ign":3532,"##rible":3533,"recuer":3534,"acomp":3535,"cambiar":3536,"ps":3537,"Os":3538,"debería":3539,"exis":3540,"##CIÓN":3541,"##cto":3542,"##ok":3543,"casos":3544,"palabras":3545,"##tagram":3546,"Hu":3547,"Les":3548,"enamo":3549,"fui":3550,"about":3551,"etc":3552,"follow":3553,"abrazo":3554,"futuro":3555,"TH":3556,"##bles":3557,"presenta":3558,"pedir":3559,"##quito":3560,"infor":3561,"sabor":3562,"lpm":3563,"Mun":3564,"mundial":3565,"##CO":3566,"##bido":3567,"pob":3568,"mic":3569,"sacando":3570,"##pez":3571,"cine":3572,"dias":3573,"Vo":3574,"Jos":3575,"23":3576,"LE":3577,"justicia":3578,"##érica":3579,"##llos":3580,"##obern":3581,"##way":3582,"alta":3583,"Is":3584,"novio":3585,"##anza":3586,"mue":3587,"hermoso":3588,"##ceso":3589,"cuerpo":3590,"some":3591,"regres":3592,"hablando":3593,"Nacional":3594,"autor":3595,"Mañana":3596,"Mis":3597,"##dó":3598,"##vista":3599,"dentro":3600,"posible":3601,"escuch":3602,"inde":3603,"Comp":3604,"sign":3605,"fácil":3606,"CH":3607,"sábado":3608,"##istema":3609,"Necesito":3610,"##tera":3611,"##ezol":3612,"sta":3613,"recono":3614,"calor":3615,"##dencia":3616,"pesso":3617,"tenga":3618,"conci":3619,"respeto":3620,"Colombia":3621,"sentido":3622,"cent":3623,"regal":3624,"guer":3625,"##uir":3626,"##ink":3627,"##ner":3628,"##rito":3629,"##yy":3630,"##deos":3631,"time":3632,"indi":3633,"US":3634,"nú":3635,"conver":3636,"entien":3637,"##jan":3638,"morir":3639,"##ancia":3640,"##ING":3641,"##ção":3642,"derecho":3643,"##mó":3644,"Ti":3645,"Mal":3646,"##ef":3647,"Cam":3648,"##rez":3649,"anim":3650,"##my":3651,"gua":3652,"##VE":3653,"##ables":3654,"##arme":3655,"querer":3656,"##book":3657,"bonito":3658,"##UL":3659,"existe":3660,"40":3661,"media":3662,"jam":3663,"voz":3664,"estrella":3665,"sean":3666,"Estado":3667,"dejo":3668,"confir":3669,"difícil":3670,"##ish":3671,"##entas":3672,"##enas":3673,"premios":3674,"know":3675,"Quien":3676,"##celente":3677,"##ph":3678,"ri":3679,"seguridad":3680,"hermano":3681,"haces":3682,"usar":3683,"##ins":3684,"##tivas":3685,"libro":3686,"EX":3687,"ense":3688,"##VID":3689,"situación":3690,"##net":3691,"eh":3692,"Her":3693,"##ienen":3694,"Cada":3695,"ejemplo":3696,"esperando":3697,"campe":3698,"##dita":3699,"2018":3700,"Felici":3701,"única":3702,"##guay":3703,"##tt":3704,"vuelta":3705,"bra":3706,"precios":3707,"chi":3708,"gro":3709,"Muchas":3710,"##tancia":3711,"lí":3712,"show":3713,"rá":3714,"##tener":3715,"rico":3716,"das":3717,"##ex":3718,"##ós":3719,"Cris":3720,"Pas":3721,"dolor":3722,"##mia":3723,"##CION":3724,"##dico":3725,"##rando":3726,"twitter":3727,"##nacional":3728,"##cir":3729,"buscar":3730,"voto":3731,"servicio":3732,"hemos":3733,"diciendo":3734,"Ese":3735,"##ME":3736,"malo":3737,"Alguien":3738,"av":3739,"##ecen":3740,"permi":3741,"recu":3742,"puntos":3743,"control":3744,"culo":3745,"llamar":3746,"Mes":3747,"demasiado":3748,"encontrar":3749,"libertad":3750,"##remos":3751,"Am":3752,"##arse":3753,"##201":3754,"##pados":3755,"##iro":3756,"payaso":3757,"##dando":3758,"atención":3759,"moles":3760,"vergüenza":3761,"##voca":3762,"deses":3763,"Real":3764,"agrade":3765,"acep":3766,"ayudar":3767,"##date":3768,"pregunta":3769,"##gación":3770,"tel":3771,"##GA":3772,"muerte":3773,"pele":3774,"For":3775,"kkk":3776,"##mientos":3777,"radio":3778,"Día":3779,"##rió":3780,"##au":3781,"trata":3782,"Be":3783,"if":3784,"##adores":3785,"chan":3786,"alma":3787,"der":3788,"##íble":3789,"podría":3790,"got":3791,"##mit":3792,"Pu":3793,"##UR":3794,"Res":3795,"redes":3796,"##gles":3797,"superioridad":3798,"##fico":3799,"##qué":3800,"##rate":3801,"contes":3802,"##rasil":3803,"crisis":3804,"encuent":3805,"##bro":3806,"dando":3807,"gira":3808,"##art":3809,"##inas":3810,"senti":3811,"Mas":3812,"##pan":3813,"hice":3814,"solu":3815,"problemas":3816,"##uli":3817,"ignor":3818,"estan":3819,"##tina":3820,"bir":3821,"util":3822,"##ác":3823,"rato":3824,"##aban":3825,"emple":3826,"##terio":3827,"noches":3828,"##ther":3829,"Us":3830,"Do":3831,"cir":3832,"camino":3833,"##taciones":3834,"españa":3835,"quería":3836,"AS":3837,"Bol":3838,"fon":3839,"lista":3840,"chile":3841,"##ft":3842,"PER":3843,"##coles":3844,"ado":3845,"##IR":3846,"##jsjs":3847,"deba":3848,"LAS":3849,"agar":3850,"dónde":3851,"segundo":3852,"##cebook":3853,"bajo":3854,"bloque":3855,"asco":3856,"##quen":3857,"##imin":3858,"PU":3859,"Del":3860,"Fin":3861,"partidos":3862,"##bu":3863,"Ben":3864,"momentos":3865,"nuestras":3866,"##rano":3867,"revés":3868,"err":3869,"explo":3870,"ningún":3871,"YA":3872,"than":3873,"##uno":3874,"acaba":3875,"##ulio":3876,"##este":3877,"Ter":3878,"##úper":3879,"simple":3880,"empezar":3881,"hombres":3882,"##em":3883,"##col":3884,"##ORA":3885,"duda":3886,"envi":3887,"doy":3888,"aj":3889,"##AJJ":3890,"realmente":3891,"afec":3892,"cerv":3893,"fran":3894,"fuerza":3895,"xq":3896,"eno":3897,"##izado":3898,"Go":3899,"público":3900,"descu":3901,"vino":3902,"queremos":3903,"Dan":3904,"méxico":3905,"##ículo":3906,"abur":3907,"pensando":3908,"creciente":3909,"What":3910,"papá":3911,"##tantes":3912,"diga":3913,"Estamos":3914,"obli":3915,"ans":3916,"##ise":3917,"##pada":3918,"Presidente":3919,"SO":3920,"covid19":3921,"Je":3922,"##apro":3923,"violencia":3924,"acos":3925,"Euro":3926,"esperar":3927,"year":3928,"##ciedad":3929,"tanta":3930,"##torios":3931,"##ár":3932,"Espero":3933,"última":3934,"Quer":3935,"sistema":3936,"mensaje":3937,"contag":3938,"jueves":3939,"cama":3940,"limp":3941,"every":3942,"hon":3943,"vaca":3944,"ou":3945,"when":3946,"##icado":3947,"Chile":3948,"amigas":3949,"##pare":3950,"##ecu":3951,"##dal":3952,"copa":3953,"##tión":3954,"econom":3955,"bla":3956,"verga":3957,"mandar":3958,"dra":3959,"##aste":3960,"bailando":3961,"Trump":3962,"avan":3963,"##ser":3964,"##dura":3965,"##cida":3966,"además":3967,"Jun":3968,"brin":3969,"##tero":3970,"DES":3971,"Tam":3972,"gusto":3973,"terminar":3974,"wo":3975,"##teo":3976,"Mira":3977,"desapro":3978,"##istro":3979,"hicieron":3980,"Esa":3981,"##ll":3982,"euro":3983,"Ob":3984,"Bien":3985,"valor":3986,"película":3987,"mó":3988,"see":3989,"##tió":3990,"Está":3991,"pronto":3992,"gal":3993,"##ep":3994,"toca":3995,"onda":3996,"venezol":3997,"##TR":3998,"elecciones":3999,"entren":4000,"ocur":4001,"our":4002,"padre":4003,"segunda":4004,"sent":4005,"siguen":4006,"luna":4007,"desarr":4008,"##uito":4009,"sociales":4010,"agotada":4011,"who":4012,"CA":4013,"proyecto":4014,"##tales":4015,"gesto":4016,"imagin":4017,"puesto":4018,"##ología":4019,"##ric":4020,"decep":4021,"##bien":4022,"fre":4023,"saboreando":4024,"xD":4025,"##gl":4026,"##tral":4027,"cin":4028,"##tidad":4029,"vac":4030,"##diciones":4031,"económ":4032,"##end":4033,"##bes":4034,"##brar":4035,"QUI":4036,"abs":4037,"##ré":4038,"Gen":4039,"##usi":4040,"dob":4041,"fas":4042,"mane":4043,"suel":4044,"noticias":4045,"##ólo":4046,"fut":4047,"té":4048,"derechos":4049,"sector":4050,"##ude":4051,"aca":4052,"##we":4053,"duele":4054,"##dente":4055,"Pi":4056,"##abo":4057,"manda":4058,"##PA":4059,"Igual":4060,"niño":4061,"posi":4062,"##21":4063,"darle":4064,"##ór":4065,"##itan":4066,"##puesto":4067,"gi":4068,"##ull":4069,"hospital":4070,"educación":4071,"tem":4072,"dispon":4073,"dado":4074,"##2019":4075,"##fica":4076,"##torio":4077,"Luis":4078,"desaprobación":4079,"##ÍA":4080,"pueda":4081,"bola":4082,"hacerlo":4083,"llev":4084,"##torias":4085,"estudiar":4086,"##gir":4087,"##tran":4088,"##TER":4089,"aqui":4090,"seman":4091,"reun":4092,"quiera":4093,"clases":4094,"##eración":4095,"llu":4096,"##CE":4097,"##tream":4098,"súper":4099,"##gué":4100,"gobern":4101,"Ab":4102,"Ve":4103,"promo":4104,"virus":4105,"cuatro":4106,"candida":4107,"impos":4108,"UNA":4109,"pasando":4110,"meter":4111,"esté":4112,"##inar":4113,"##sas":4114,"##tle":4115,"símbolo":4116,"Voy":4117,"próximo":4118,"cerca":4119,"Ad":4120,"Gar":4121,"sonro":4122,"Du":4123,"##ello":4124,"##incu":4125,"signo":4126,"Carlos":4127,"enter":4128,"even":4129,"##gon":4130,"alcan":4131,"votar":4132,"ok":4133,"cli":4134,"##xs":4135,"acor":4136,"mascar":4137,"Emp":4138,"Segu":4139,"canal":4140,"##TOS":4141,"faz":4142,"acer":4143,"vuelve":4144,"##tarme":4145,"consi":4146,"##eck":4147,"busca":4148,"##mentos":4149,"entrar":4150,"cien":4151,"##tador":4152,"lucha":4153,"mexic":4154,"respuesta":4155,"diri":4156,"univers":4157,"##ería":4158,"This":4159,"##ings":4160,"##CIA":4161,"pienso":4162,"hambre":4163,"despi":4164,"acti":4165,"políticos":4166,"##celona":4167,"seas":4168,"deben":4169,"##2020":4170,"seu":4171,"##diente":4172,"star":4173,"acabo":4174,"Fern":4175,"ener":4176,"##ju":4177,"gir":4178,"Nada":4179,"##lin":4180,"jugadores":4181,"##villa":4182,"tapados":4183,"jugador":4184,"cier":4185,"centro":4186,"idio":4187,"##erno":4188,"##andom":4189,"luces":4190,"##DOS":4191,"##ugh":4192,"campaña":4193,"hubiera":4194,"silen":4195,"##tán":4196,"desespera":4197,"hagan":4198,"orto":4199,"cerveza":4200,"how":4201,"##visión":4202,"movi":4203,"allá":4204,"FA":4205,"##pren":4206,"general":4207,"##dieron":4208,"##ach":4209,"obje":4210,"sonrojada":4211,"nie":4212,"##mación":4213,"acompañ":4214,"##VO":4215,"medios":4216,"pequeño":4217,"conten":4218,"##ste":4219,"ré":4220,"##ican":4221,"fla":4222,"contar":4223,"26":4224,"viv":4225,"aman":4226,"sup":4227,"##unt":4228,"##ket":4229,"ahor":4230,"Señ":4231,"tenes":4232,"efec":4233,"martes":4234,"Jaja":4235,"consegui":4236,"28":4237,"Mer":4238,"nuevos":4239,"bebé":4240,"sociedad":4241,"resto":4242,"##feo":4243,"PRO":4244,"best":4245,"Desp":4246,"matar":4247,"Pan":4248,"##iscal":4249,"##CU":4250,"liga":4251,"Fal":4252,"##itando":4253,"quedo":4254,"##miaw":4255,"COVID":4256,"##ght":4257,"##BA":4258,"durmiendo":4259,"##ari":4260,"off":4261,"datos":4262,"##cracia":4263,"mando":4264,"PS":4265,"Saludos":4266,"gre":4267,"Fo":4268,"##10":4269,"good":4270,"##ítulo":4271,"demos":4272,"prepara":4273,"##graf":4274,"##hu":4275,"happ":4276,"##top":4277,"vay":4278,"say":4279,"##iada":4280,"hija":4281,"papel":4282,"según":4283,"##IE":4284,"##tarse":4285,"regalo":4286,"uso":4287,"rápido":4288,"##damos":4289,"ind":4290,"##ído":4291,"##có":4292,"pessoas":4293,"ESTA":4294,"##arte":4295,"##zada":4296,"venir":4297,"##éndo":4298,"##ws":4299,"Tan":4300,"27":4301,"veci":4302,"imagen":4303,"desc":4304,"##ure":4305,"##tito":4306,"vive":4307,"dro":4308,"merece":4309,"##ny":4310,"termina":4311,"avis":4312,"corre":4313,"bastante":4314,"##uras":4315,"ninguna":4316,"##OOO":4317,"##fé":4318,"##kes":4319,"##ará":4320,"##ses":4321,"vieja":4322,"ori":4323,"dese":4324,"sabemos":4325,"Sol":4326,"aleg":4327,"It":4328,"ár":4329,"cree":4330,"back":4331,"sep":4332,"bi":4333,"Eu":4334,"novia":4335,"consu":4336,"##icamente":4337,"VER":4338,"cerrado":4339,"trofeo":4340,"municip":4341,"##TU":4342,"musical":4343,"protes":4344,"QU":4345,"##chez":4346,"##ky":4347,"actu":4348,"Jus":4349,"##zco":4350,"tit":4351,"##leta":4352,"pá":4353,"##ning":4354,"tuvi":4355,"Imp":4356,"medidas":4357,"joven":4358,"presu":4359,"produc":4360,"##ÁS":4361,"oficial":4362,"Eres":4363,"##nas":4364,"##pular":4365,"##cheta":4366,"##áis":4367,"##cidos":4368,"detal":4369,"##entan":4370,"opinión":4371,"opos":4372,"bom":4373,"José":4374,"labor":4375,"eran":4376,"número":4377,"##uestro":4378,"##tino":4379,"##rido":4380,"noticia":4381,"ass":4382,"LI":4383,"##itch":4384,"##RAN":4385,"depor":4386,"##curso":4387,"mío":4388,"Mac":4389,"##ICA":4390,"Tor":4391,"esti":4392,"##olución":4393,"celular":4394,"##atch":4395,"partir":4396,"##gues":4397,"##tí":4398,"terror":4399,"tren":4400,"mtvmiaw":4401,"AH":4402,"Maduro":4403,"char":4404,"any":4405,"##ete":4406,"subir":4407,"Después":4408,"May":4409,"far":4410,"##ille":4411,"##lease":4412,"JAJAJAJA":4413,"cruz":4414,"sec":4415,"Toda":4416,"##cuador":4417,"foi":4418,"##up":4419,"descan":4420,"##atural":4421,"viejo":4422,"BTS":4423,"mayoría":4424,"insta":4425,"##mun":4426,"impres":4427,"Santa":4428,"rosa":4429,"oportunidad":4430,"Facebook":4431,"##ical":4432,"mente":4433,"móvil":4434,"TODO":4435,"puto":4436,"##gencia":4437,"team":4438,"recuerdo":4439,"##vado":4440,"##fuer":4441,"chicos":4442,"##gor":4443,"PO":4444,"hermana":4445,"levantada":4446,"TU":4447,"compartir":4448,"red":4449,"tuit":4450,"Cons":4451,"##quiera":4452,"local":4453,"ros":4454,"literal":4455,"Aun":4456,"verano":4457,"##lix":4458,"telé":4459,"comen":4460,"##GU":4461,"##AAA":4462,"sorpren":4463,"bomb":4464,"fras":4465,"EE":4466,"ON":4467,"Mil":4468,"##mental":4469,"##ombi":4470,"##día":4471,"tes":4472,"feo":4473,"minha":4474,"##PE":4475,"##dora":4476,"ropa":4477,"aire":4478,"##tores":4479,"cont":4480,"##mado":4481,"##ornada":4482,"ase":4483,"Messi":4484,"##AMOS":4485,"chincheta":4486,"perdón":4487,"##ioso":4488,"jamás":4489,"tenido":4490,"cumpl":4491,"tambien":4492,"dó":4493,"alivio":4494,"Entre":4495,"ke":4496,"##hor":4497,"carrera":4498,"##cê":4499,"need":4500,"globo":4501,"dedo":4502,"##UU":4503,"live":4504,"AMO":4505,"##TAS":4506,"AC":4507,"##bum":4508,"##ls":4509,"justo":4510,"indepen":4511,"##mera":4512,"beca":4513,"tiempos":4514,"vacaciones":4515,"hilo":4516,"llen":4517,"mín":4518,"SER":4519,"pongo":4520,"enc":4521,"empresa":4522,"atrás":4523,"decepcion":4524,"##iciente":4525,"##erv":4526,"##menda":4527,"correc":4528,"VID":4529,"Pal":4530,"Che":4531,"colombia":4532,"##dé":4533,"imag":4534,"significa":4535,"cuanto":4536,"ESTO":4537,"##mis":4538,"##bio":4539,"golpe":4540,"futbol":4541,"institu":4542,"ojalá":4543,"##ulo":4544,"vai":4545,"here":4546,"palabra":4547,"mate":4548,"##line":4549,"Claro":4550,"vemos":4551,"profesional":4552,"GRA":4553,"vom":4554,"##ker":4555,"increíble":4556,"##QUE":4557,"##eek":4558,"##tivamente":4559,"##lada":4560,"##respon":4561,"capital":4562,"cari":4563,"mental":4564,"web":4565,"creen":4566,"manif":4567,"My":4568,"felicidad":4569,"paci":4570,"Ri":4571,"##eee":4572,"##sar":4573,"calidad":4574,"its":4575,"edad":4576,"##bió":4577,"empresas":4578,"También":4579,"espec":4580,"##eres":4581,"corrupción":4582,"exig":4583,"ahre":4584,"lín":4585,"Va":4586,"niña":4587,"Instagram":4588,"dev":4589,"##yendo":4590,"##ctubre":4591,"color":4592,"##zan":4593,"prome":4594,"##ablo":4595,"##mena":4596,"##ustra":4597,"want":4598,"##abilidad":4599,"giratorios":4600,"conven":4601,"##uera":4602,"##dd":4603,"aut":4604,"apre":4605,"##dera":4606,"blanca":4607,"##bli":4608,"##MB":4609,"sabía":4610,"arran":4611,"##icion":4612,"lejos":4613,"señora":4614,"guerra":4615,"apor":4616,"##vera":4617,"##bida":4618,"##hs":4619,"##VA":4620,"##hy":4621,"muertos":4622,"ponen":4623,"Gua":4624,"disfrutar":4625,"compro":4626,"distin":4627,"##quis":4628,"Mejor":4629,"##gados":4630,"ejer":4631,"Im":4632,"dólar":4633,"político":4634,"VO":4635,"banda":4636,"##rí":4637,"semanas":4638,"##ública":4639,"Buenas":4640,"libros":4641,"ido":4642,"mismos":4643,"salió":4644,"##INA":4645,"Than":4646,"##ércoles":4647,"##ley":4648,"##sion":4649,"##chi":4650,"dom":4651,"juega":4652,"tierra":4653,"atra":4654,"##ándose":4655,"Nor":4656,"On":4657,"Camp":4658,"##anja":4659,"denun":4660,"their":4661,"##ign":4662,"##talla":4663,"olvidar":4664,"pais":4665,"Amo":4666,"repro":4667,"mía":4668,"reac":4669,"viaje":4670,"éx":4671,"países":4672,"ofre":4673,"femin":4674,"##uta":4675,"CAR":4676,"militar":4677,"rid":4678,"COMO":4679,"herman":4680,"Ros":4681,"familiar":4682,"abor":4683,"hin":4684,"cere":4685,"dejen":4686,"vivi":4687,"##iedad":4688,"Nadie":4689,"sens":4690,"teléfono":4691,"Ped":4692,"siguien":4693,"##EO":4694,"##cionales":4695,"cae":4696,"defender":4697,"varios":4698,"them":4699,"secre":4700,"##ferencia":4701,"aw":4702,"enfr":4703,"inv":4704,"##II":4705,"Cara":4706,"##nn":4707,"pareja":4708,"im":4709,"tecn":4710,"humor":4711,"##ópez":4712,"flas":4713,"fuck":4714,"##fiero":4715,"pelig":4716,"##orge":4717,"habrá":4718,"evitar":4719,"aga":4720,"##igh":4721,"him":4722,"temprano":4723,"##lic":4724,"lluvia":4725,"canciones":4726,"jugando":4727,"unidos":4728,"tantas":4729,"##ramos":4730,"##iel":4731,"##ruz":4732,"loca":4733,"##ICO":4734,"duer":4735,"mirar":4736,"Ayer":4737,"##onas":4738,"ep":4739,"alcal":4740,"aprove":4741,"directo":4742,"aprender":4743,"At":4744,"##int":4745,"Quién":4746,"constru":4747,"##taje":4748,"stream":4749,"happy":4750,"anun":4751,"cra":4752,"##ZA":4753,"##gente":4754,"benef":4755,"gustaría":4756,"llegó":4757,"##ERA":4758,"colec":4759,"solid":4760,"THE":4761,"90":4762,"##ICI":4763,"##ares":4764,"respec":4765,"##ation":4766,"##ANA":4767,"##tiembre":4768,"cansada":4769,"llevo":4770,"##mber":4771,"feel":4772,"##ally":4773,"seguidores":4774,"rey":4775,"##ator":4776,"##fin":4777,"##roso":4778,"expresión":4779,"PUE":4780,"arte":4781,"because":4782,"##came":4783,"relación":4784,"café":4785,"án":4786,"Rob":4787,"Fu":4788,"zona":4789,"cielo":4790,"largo":4791,"adelante":4792,"##tur":4793,"refle":4794,"comien":4795,"inc":4796,"##tions":4797,"##bil":4798,"did":4799,"Cos":4800,"esfuer":4801,"maes":4802,"bru":4803,"obra":4804,"encuentro":4805,"##eren":4806,"##óven":4807,"algunas":4808,"dieron":4809,"app":4810,"intelig":4811,"isso":4812,"impues":4813,"##inda":4814,"español":4815,"##gle":4816,"precio":4817,"##flix":4818,"##pación":4819,"mueca":4820,"TEN":4821,"##dición":4822,"##thing":4823,"GO":4824,"cad":4825,"bet":4826,"deje":4827,"##itario":4828,"##TRA":4829,"llegue":4830,"pide":4831,"##bamos":4832,"##anas":4833,"chil":4834,"realiz":4835,"##ami":4836,"baja":4837,"##mbo":4838,"##uerto":4839,"cuán":4840,"##oll":4841,"resu":4842,"##tín":4843,"liger":4844,"##nt":4845,"colab":4846,"Hi":4847,"##ducir":4848,"delincu":4849,"rt":4850,"500":4851,"pruebas":4852,"ries":4853,"depen":4854,"##jen":4855,"López":4856,"##óvenes":4857,"##talia":4858,"##etflix":4859,"diferencia":4860,"##cti":4861,"fecha":4862,"lec":4863,"80":4864,"hom":4865,"##ak":4866,"ulti":4867,"##trando":4868,"##JA":4869,"doble":4870,"##tri":4871,"##BI":4872,"##berto":4873,"##SS":4874,"##sual":4875,"siente":4876,"entrevista":4877,"##uelo":4878,"dipu":4879,"apa":4880,"mayo":4881,"29":4882,"Covid":4883,"##san":4884,"aband":4885,"naranja":4886,"digi":4887,"##didos":4888,"escribir":4889,"debate":4890,"despe":4891,"##yn":4892,"critic":4893,"##ters":4894,"##jun":4895,"##encias":4896,"esperamos":4897,"dudas":4898,"internacional":4899,"##icol":4900,"##queo":4901,"aguan":4902,"fantas":4903,"Ami":4904,"tec":4905,"Ciudad":4906,"##tiago":4907,"ocu":4908,"##unda":4909,"pic":4910,"##uido":4911,"AP":4912,"natural":4913,"viola":4914,"dont":4915,"marcha":4916,"tat":4917,"adver":4918,"cuan":4919,"poquito":4920,"absolu":4921,"hel":4922,"exa":4923,"##anda":4924,"tengan":4925,"Au":4926,"##get":4927,"madrid":4928,"chica":4929,"##inho":4930,"Barcelona":4931,"##ezo":4932,"##VER":4933,"quedan":4934,"memo":4935,"##IG":4936,"##monio":4937,"vc":4938,"##TEN":4939,"escuela":4940,"juro":4941,"##cionar":4942,"Har":4943,"ala":4944,"pasan":4945,"bonita":4946,"ev":4947,"##wer":4948,"##ding":4949,"Segui":4950,"##tale":4951,"técn":4952,"##ime":4953,"resp":4954,"enfada":4955,"ligeramente":4956,"paro":4957,"##ianza":4958,"31":4959,"venta":4960,"mel":4961,"presiden":4962,"imposible":4963,"fondo":4964,"##terior":4965,"been":4966,"asegu":4967,"trabajando":4968,"ahi":4969,"world":4970,"silencio":4971,"##anti":4972,"make":4973,"flo":4974,"experiencia":4975,"videos":4976,"peda":4977,"Pos":4978,"##jeje":4979,"tuvo":4980,"maravil":4981,"líder":4982,"basura":4983,"excla":4984,"padres":4985,"Aunque":4986,"Ce":4987,"Pat":4988,"mascarilla":4989,"hacemos":4990,"##zz":4991,"##AJAJA":4992,"##dp":4993,"##adora":4994,"hojas":4995,"você":4996,"only":4997,"finde":4998,"Gra":4999,"Cono":5000,"anal":5001,"insul":5002,"bron":5003,"compra":5004,"preven":5005,"pensé":5006,"cuba":5007,"cuentas":5008,"recordar":5009,"enga":5010,"win":5011,"TODOS":5012,"gustan":5013,"##vez":5014,"pública":5015,"##rica":5016,"she":5017,"SAL":5018,"puso":5019,"crí":5020,"digan":5021,"60":5022,"Mientras":5023,"JAJAJA":5024,"siquiera":5025,"falle":5026,"caer":5027,"dejan":5028,"post":5029,"Tú":5030,"democracia":5031,"##ku":5032,"JAJAJAJAJA":5033,"dices":5034,"Mir":5035,"##tilla":5036,"leg":5037,"##puestas":5038,"cultura":5039,"desesperada":5040,"Tran":5041,"prepar":5042,"over":5043,"historias":5044,"info":5045,"##rés":5046,"##py":5047,"horrible":5048,"##tear":5049,"##lores":5050,"##rero":5051,"economía":5052,"2017":5053,"MAR":5054,"##mite":5055,"##ribu":5056,"Super":5057,"##gosto":5058,"exclamación":5059,"##tory":5060,"##bla":5061,"##AY":5062,"iden":5063,"recur":5064,"sirve":5065,"##TAR":5066,"chor":5067,"cen":5068,"##sen":5069,"##menta":5070,"inicia":5071,"##antina":5072,"llena":5073,"##lito":5074,"tá":5075,"##till":5076,"##KK":5077,"Pablo":5078,"##ose":5079,"crea":5080,"er":5081,"##gran":5082,"sw":5083,"vista":5084,"Felicidades":5085,"tuve":5086,"Sen":5087,"mentira":5088,"María":5089,"##mate":5090,"disponible":5091,"##CIAS":5092,"COM":5093,"nuevas":5094,"##bit":5095,"fís":5096,"##olver":5097,"deseo":5098,"PERO":5099,"conoce":5100,"repe":5101,"mitad":5102,"Uno":5103,"##cola":5104,"##ruguay":5105,"##uros":5106,"cuesta":5107,"cargo":5108,"##tem":5109,"agre":5110,"seria":5111,"orgullo":5112,"estudio":5113,"Sh":5114,"arro":5115,"##ienta":5116,"salen":5117,"recibir":5118,"pie":5119,"descar":5120,"##ze":5121,"oro":5122,"andar":5123,"##acto":5124,"ellas":5125,"lá":5126,"Mig":5127,"##pes":5128,"quedó":5129,"fans":5130,"prensa":5131,"Domin":5132,"##ving":5133,"gratis":5134,"##icha":5135,"necesario":5136,"suce":5137,"frien":5138,"internet":5139,"tv":5140,"escucha":5141,"##alu":5142,"causa":5143,"##dón":5144,"DIOS":5145,"kcame":5146,"Bus":5147,"##gs":5148,"ka":5149,"kcamexico":5150,"##imas":5151,"45":5152,"##EZ":5153,"##gimen":5154,"colo":5155,"jóvenes":5156,"too":5157,"boy":5158,"Rep":5159,"ran":5160,"##lec":5161,"MAS":5162,"goles":5163,"really":5164,"##uliantina":5165,"##ísima":5166,"buscando":5167,"pesar":5168,"##tida":5169,"Direc":5170,"##ánchez":5171,"dale":5172,"##zado":5173,"##teros":5174,"again":5175,"mode":5176,"Tom":5177,"saca":5178,"Sec":5179,"grogui":5180,"##sel":5181,"##olina":5182,"encar":5183,"PP":5184,"##cent":5185,"Gal":5186,"##tró":5187,"would":5188,"comunidad":5189,"convi":5190,"miles":5191,"RO":5192,"explica":5193,"Bel":5194,"hablan":5195,"##tio":5196,"life":5197,"PE":5198,"presente":5199,"##SE":5200,"##follow":5201,"##hora":5202,"Pon":5203,"excelente":5204,"modo":5205,"##cura":5206,"extre":5207,"##itaria":5208,"eter":5209,"máx":5210,"##dimos":5211,"fer":5212,"nomb":5213,"reti":5214,"cat":5215,"##isco":5216,"##jeron":5217,"equipos":5218,"35":5219,"comentarios":5220,"##mica":5221,"##indo":5222,"caliente":5223,"flash":5224,"NA":5225,"##chando":5226,"DO":5227,"##DAD":5228,"visita":5229,"##ady":5230,"raro":5231,"trabajadores":5232,"##olos":5233,"puse":5234,"cuidar":5235,"miércoles":5236,"Ga":5237,"proceso":5238,"có":5239,"fri":5240,"##zados":5241,"calles":5242,"##isis":5243,"corriendo":5244,"Estu":5245,"Fue":5246,"##cate":5247,"Def":5248,"##cita":5249,"New":5250,"##JO":5251,"##voz":5252,"Será":5253,"últimos":5254,"PAS":5255,"##lez":5256,"##RU":5257,"colisión":5258,"participar":5259,"legal":5260,"Enton":5261,"propio":5262,"pido":5263,"##mpions":5264,"Comun":5265,"consul":5266,"pendejo":5267,"Mat":5268,"genera":5269,"ello":5270,"way":5271,"cualquiera":5272,"Europa":5273,"BU":5274,"##IM":5275,"siguiente":5276,"dicta":5277,"##ush":5278,"##cien":5279,"segura":5280,"##ways":5281,"tb":5282,"dise":5283,"nas":5284,"Entonces":5285,"fav":5286,"##riendo":5287,"estuvo":5288,"amena":5289,"campo":5290,"recha":5291,"##xa":5292,"acu":5293,"##ames":5294,"Tal":5295,"##uena":5296,"##capa":5297,"##ey":5298,"empieza":5299,"línea":5300,"repor":5301,"dign":5302,"concha":5303,"docu":5304,"##unta":5305,"tin":5306,"##uesta":5307,"diferente":5308,"Brasil":5309,"##ards":5310,"orgullos":5311,"##taria":5312,"##crip":5313,"supon":5314,"Sánchez":5315,"##dicos":5316,"argent":5317,"game":5318,"já":5319,"Somos":5320,"##jala":5321,"##isiera":5322,"cagar":5323,"querido":5324,"Pedro":5325,"árbol":5326,"Vos":5327,"bre":5328,"##hhh":5329,"representa":5330,"obvio":5331,"enfadada":5332,"dormi":5333,"mater":5334,"rat":5335,"##xt":5336,"últimas":5337,"volvi":5338,"##hol":5339,"##pia":5340,"nomas":5341,"##entando":5342,"##pol":5343,"ofici":5344,"##gri":5345,"emocion":5346,"colegio":5347,"familias":5348,"##IZ":5349,"##éc":5350,"espacio":5351,"jar":5352,"Salud":5353,"##turas":5354,"defensa":5355,"##ibles":5356,"SOL":5357,"vidas":5358,"vomitando":5359,"prob":5360,"latiendo":5361,"cic":5362,"arreg":5363,"sonrisa":5364,"daño":5365,"##rue":5366,"##sea":5367,"Polic":5368,"recla":5369,"##poca":5370,"estuvi":5371,"decl":5372,"##ibilidad":5373,"##ministra":5374,"think":5375,"check":5376,"muito":5377,"argu":5378,"puerta":5379,"##isla":5380,"##ines":5381,"salga":5382,"joder":5383,"##titud":5384,"pesos":5385,"##amá":5386,"##medad":5387,"decía":5388,"##arlo":5389,"penal":5390,"##CK":5391,"##pla":5392,"basta":5393,"##iosa":5394,"sueños":5395,"navidad":5396,"somb":5397,"week":5398,"##brero":5399,"arco":5400,"##ide":5401,"perfecto":5402,"temas":5403,"##TES":5404,"AB":5405,"animal":5406,"disco":5407,"##zó":5408,"gil":5409,"publicar":5410,"##AK":5411,"Pens":5412,"prác":5413,"lograr":5414,"##zá":5415,"emer":5416,"first":5417,"vienen":5418,"capaz":5419,"##ilo":5420,"ses":5421,"esse":5422,"##ind":5423,"error":5424,"Cab":5425,"abril":5426,"duro":5427,"barrio":5428,"today":5429,"ens":5430,"black":5431,"quieras":5432,"AMLO":5433,"70":5434,"##ienes":5435,"##ded":5436,"televisión":5437,"tiro":5438,"cuento":5439,"América":5440,"##ctura":5441,"##titución":5442,"Estos":5443,"Ru":5444,"##TOR":5445,"advertencia":5446,"conseguir":5447,"bajar":5448,"opción":5449,"Gre":5450,"##hoto":5451,"dejó":5452,"##cí":5453,"aus":5454,"non":5455,"there":5456,"mata":5457,"deten":5458,"llego":5459,"tengas":5460,"julio":5461,"mani":5462,"admi":5463,"ansiedad":5464,"octubre":5465,"dul":5466,"##arn":5467,"marzo":5468,"histó":5469,"abierta":5470,"votos":5471,"piensa":5472,"masa":5473,"##rs":5474,"patr":5475,"vou":5476,"Ban":5477,"##ily":5478,"##ney":5479,"quede":5480,"Tiene":5481,"cumplir":5482,"TV":5483,"defini":5484,"##alda":5485,"jornada":5486,"sat":5487,"mercado":5488,"HOY":5489,"bici":5490,"CAM":5491,"pis":5492,"amista":5493,"amer":5494,"funda":5495,"VEN":5496,"Vic":5497,"##ditos":5498,"##rida":5499,"inicio":5500,"huevo":5501,"refer":5502,"Bra":5503,"adop":5504,"podes":5505,"##arma":5506,"Escu":5507,"##cy":5508,"Sus":5509,"provin":5510,"##truir":5511,"listo":5512,"verte":5513,"equivo":5514,"##ienda":5515,"Reg":5516,"tenia":5517,"solici":5518,"recuper":5519,"PRE":5520,"despues":5521,"curso":5522,"Además":5523,"diferentes":5524,"besando":5525,"##pira":5526,"##ví":5527,"ciudadanos":5528,"venga":5529,"perdido":5530,"declara":5531,"podía":5532,"mesa":5533,"##allo":5534,"sexual":5535,"##IDAD":5536,"estaría":5537,"##isten":5538,"saludos":5539,"riesgo":5540,"##amen":5541,"paja":5542,"##vela":5543,"felices":5544,"FU":5545,"Ima":5546,"caca":5547,"bat":5548,"##rán":5549,"contrario":5550,"tí":5551,"incluso":5552,"##ández":5553,"##iga":5554,"opera":5555,"conozco":5556,"tapada":5557,"estaban":5558,"##han":5559,"Algun":5560,"##mpa":5561,"genial":5562,"##gg":5563,"##ardo":5564,"##ela":5565,"ná":5566,"Univers":5567,"servicios":5568,"##rias":5569,"##fff":5570,"vecinos":5571,"éxito":5572,"decis":5573,"viva":5574,"alco":5575,"never":5576,"COR":5577,"sangre":5578,"##ni":5579,"##bia":5580,"vote":5581,"Bu":5582,"##dilla":5583,"mama":5584,"alim":5585,"mol":5586,"##ww":5587,"MAN":5588,"##vador":5589,"##cular":5590,"after":5591,"##matic":5592,"lleno":5593,"unfollow":5594,"junio":5595,"##PO":5596,"suficiente":5597,"aud":5598,"resultados":5599,"necesidad":5600,"crimin":5601,"septiembre":5602,"propia":5603,"##ionales":5604,"Señor":5605,"##xto":5606,"into":5607,"##bel":5608,"dedos":5609,"##ENA":5610,"home":5611,"##cera":5612,"ideas":5613,"##iva":5614,"##isas":5615,"LL":5616,"##juliantina":5617,"##lido":5618,"##chan":5619,"Of":5620,"Donde":5621,"ingres":5622,"Pin":5623,"##ñe":5624,"##illas":5625,"Rey":5626,"estados":5627,"ai":5628,"CAN":5629,"base":5630,"stan":5631,"##igo":5632,"NE":5633,"narco":5634,"hablo":5635,"escuchando":5636,"torn":5637,"continu":5638,"huevos":5639,"##ying":5640,"##timos":5641,"##QU":5642,"asus":5643,"mantener":5644,"estud":5645,"##cus":5646,"finan":5647,"muerto":5648,"##cing":5649,"sp":5650,"puro":5651,"##12":5652,"Otra":5653,"decepcionada":5654,"playa":5655,"baj":5656,"##amer":5657,"MÁS":5658,"##vidades":5659,"sim":5660,"NI":5661,"TAN":5662,"##chu":5663,"Martín":5664,"dura":5665,"entrada":5666,"diario":5667,"siga":5668,"banco":5669,"##gus":5670,"##PER":5671,"prohi":5672,"##quina":5673,"tantos":5674,"abrir":5675,"chico":5676,"##wa":5677,"acabar":5678,"esfuerzo":5679,"tirar":5680,"preten":5681,"concierto":5682,"##tifica":5683,"decisión":5684,"digital":5685,"Miguel":5686,"caus":5687,"pago":5688,"Recuer":5689,"manten":5690,"denuncia":5691,"altavoz":5692,"sel":5693,"##énero":5694,"bos":5695,"mtvlaf":5696,"escon":5697,"##logo":5698,"polit":5699,"##ásico":5700,"##icana":5701,"moral":5702,"China":5703,"Otro":5704,"destru":5705,"feste":5706,"mínimo":5707,"##kook":5708,"prueba":5709,"estupi":5710,"seguimos":5711,"##cons":5712,"completo":5713,"PR":5714,"comprom":5715,"confianza":5716,"za":5717,"##iano":5718,"Gon":5719,"##trado":5720,"PRI":5721,"ko":5722,"##HH":5723,"relo":5724,"Esper":5725,"conversa":5726,"pidiendo":5727,"carajo":5728,"fiscal":5729,"médica":5730,"jajaj":5731,"humano":5732,"##taba":5733,"maravillos":5734,"EEUU":5735,"huel":5736,"apoyar":5737,"compañeros":5738,"fracas":5739,"doc":5740,"##quita":5741,"cantidad":5742,"Cla":5743,"Ahí":5744,"verlo":5745,"spo":5746,"muero":5747,"frustra":5748,"diver":5749,"##jero":5750,"totalmente":5751,"##gna":5752,"##gular":5753,"mul":5754,"leche":5755,"desarrollo":5756,"termine":5757,"If":5758,"tocar":5759,"##mada":5760,"##genes":5761,"mier":5762,"##mendo":5763,"##lé":5764,"bella":5765,"varias":5766,"estorn":5767,"##FA":5768,"acciones":5769,"mio":5770,"próxima":5771,"popular":5772,"besos":5773,"triun":5774,"big":5775,"Parece":5776,"##guez":5777,"imb":5778,"##tadores":5779,"entiende":5780,"acuer":5781,"##grafía":5782,"sui":5783,"joda":5784,"##ane":5785,"##icara":5786,"tuyo":5787,"SON":5788,"##jado":5789,"clara":5790,"bbmas":5791,"Excelente":5792,"Jue":5793,"look":5794,"gener":5795,"##icó":5796,"cuarto":5797,"dibu":5798,"##leza":5799,"hola":5800,"Acabo":5801,"##TAN":5802,"##hn":5803,"##ges":5804,"##xi":5805,"impuestos":5806,"celebra":5807,"##sed":5808,"condu":5809,"periodista":5810,"##ciembre":5811,"##useas":5812,"##urs":5813,"conden":5814,"##dri":5815,"bille":5816,"Cap":5817,"vender":5818,"robo":5819,"##orar":5820,"Die":5821,"##sun":5822,"parar":5823,"##by":5824,"Dos":5825,"##AJAJAJAJAJAJAJAJ":5826,"MAD":5827,"muchísimo":5828,"pocos":5829,"##eth":5830,"els":5831,"Macri":5832,"##sur":5833,"diciembre":5834,"##oogle":5835,"gobiern":5836,"wey":5837,"explicar":5838,"cerrar":5839,"##ars":5840,"##dis":5841,"heart":5842,"##vie":5843,"esperanza":5844,"##cada":5845,"right":5846,"Án":5847,"Sólo":5848,"##yó":5849,"##PM":5850,"##ple":5851,"Congreso":5852,"neu":5853,"ene":5854,"##ticamente":5855,"usa":5856,"crees":5857,"Jes":5858,"rom":5859,"adul":5860,"##ful":5861,"tudo":5862,"coche":5863,"elimin":5864,"Tenemos":5865,"ador":5866,"empren":5867,"estará":5868,"Av":5869,"##erro":5870,"preguntas":5871,"reír":5872,"km":5873,"##doba":5874,"enor":5875,"online":5876,"##úa":5877,"Nuevo":5878,"years":5879,"##udando":5880,"won":5881,"recién":5882,"##jus":5883,"frase":5884,"salva":5885,"##2018":5886,"aco":5887,"piz":5888,"oposición":5889,"recursos":5890,"pinche":5891,"lol":5892,"dijeron":5893,"apl":5894,"##tita":5895,"##zon":5896,"náuseas":5897,"##tidos":5898,"apenas":5899,"RES":5900,"##pado":5901,"##idas":5902,"lea":5903,"campeón":5904,"echar":5905,"clar":5906,"símbolos":5907,"##oración":5908,"sem":5909,"humanos":5910,"resultado":5911,"derro":5912,"Vaya":5913,"##ense":5914,"mari":5915,"CD":5916,"negocio":5917,"Era":5918,"##rita":5919,"cuándo":5920,"gh":5921,"##iados":5922,"##mpl":5923,"suspen":5924,"Bon":5925,"##DER":5926,"régimen":5927,"salida":5928,"siesta":5929,"conte":5930,"MO":5931,"GRACIAS":5932,"SA":5933,"Conf":5934,"##ITO":5935,"mach":5936,"incen":5937,"desta":5938,"##eas":5939,"resop":5940,"origin":5941,"Liber":5942,"mete":5943,"publi":5944,"porfa":5945,"##fans":5946,"CAS":5947,"Bor":5948,"Final":5949,"cerebro":5950,"ando":5951,"Sor":5952,"resoplando":5953,"300":5954,"pobres":5955,"entrega":5956,"nerv":5957,"mostrando":5958,"neta":5959,"Estas":5960,"IS":5961,"##11":5962,"##dre":5963,"cuál":5964,"##icular":5965,"mejorar":5966,"still":5967,"##ene":5968,"simplemente":5969,"pudo":5970,"Cual":5971,"vayan":5972,"cambia":5973,"##estiv":5974,"essa":5975,"quin":5976,"brindando":5977,"som":5978,"##ónica":5979,"Anton":5980,"work":5981,"cub":5982,"teclas":5983,"bomba":5984,"js":5985,"##ço":5986,"##aram":5987,"Ama":5988,"colombi":5989,"##iti":5990,"allí":5991,"memoria":5992,"población":5993,"baby":5994,"reloj":5995,"interesa":5996,"ching":5997,"ganó":5998,"explotando":5999,"##pul":6000,"titular":6001,"romper":6002,"ot":6003,"XD":6004,"Hol":6005,"Sos":6006,"Fuer":6007,"stop":6008,"FEL":6009,"cariño":6010,"##ógico":6011,"ela":6012,"ali":6013,"##iversario":6014,"Gol":6015,"repar":6016,"##bor":6017,"##ñan":6018,"recuerda":6019,"toque":6020,"Plan":6021,"cancha":6022,"riv":6023,"gestión":6024,"ejerci":6025,"Lat":6026,"MAL":6027,"##vada":6028,"Extra":6029,"agosto":6030,"##ayo":6031,"hacía":6032,"época":6033,"terrá":6034,"terráqueo":6035,"realizar":6036,"Mus":6037,"Ley":6038,"##ork":6039,"tarta":6040,"micró":6041,"##tea":6042,"##lados":6043,"distancia":6044,"Amer":6045,"##tillo":6046,"racis":6047,"FIN":6048,"trá":6049,"alum":6050,"ras":6051,"##row":6052,"estilo":6053,"##land":6054,"##tagon":6055,"elector":6056,"Esc":6057,"##ivia":6058,"deberían":6059,"pied":6060,"##keting":6061,"VA":6062,"##tm":6063,"aur":6064,"embar":6065,"gotas":6066,"##endario":6067,"muestra":6068,"caga":6069,"periodistas":6070,"gay":6071,"36":6072,"abuela":6073,"mexico":6074,"responder":6075,"saludando":6076,"OF":6077,"##50":6078,"pren":6079,"famos":6080,"grave":6081,"Hos":6082,"##jd":6083,"##eratura":6084,"malas":6085,"free":6086,"##tw":6087,"were":6088,"General":6089,"mediana":6090,"Cent":6091,"empleo":6092,"Alberto":6093,"desay":6094,"estudiantes":6095,"reto":6096,"serán":6097,"Cul":6098,"humil":6099,"grupos":6100,"##buena":6101,"placer":6102,"Centro":6103,"##segu":6104,"discul":6105,"##izada":6106,"interesante":6107,"anto":6108,"eta":6109,"Dr":6110,"2016":6111,"33":6112,"##tres":6113,"propi":6114,"##tumb":6115,"Az":6116,"##ders":6117,"pegar":6118,"MIS":6119,"bebida":6120,"pil":6121,"##ife":6122,"##mamente":6123,"##udas":6124,"debemos":6125,"##40":6126,"bailar":6127,"##mmm":6128,"ile":6129,"##fon":6130,"##ribe":6131,"descon":6132,"novi":6133,"deporte":6134,"Oh":6135,"##bilidad":6136,"##tividad":6137,"venezolanos":6138,"objetivo":6139,"automatic":6140,"estrate":6141,"##BL":6142,"responsabilidad":6143,"##ring":6144,"##thday":6145,"exo":6146,"##ILL":6147,"All":6148,"BO":6149,"fres":6150,"##TRO":6151,"##CHO":6152,"##dedor":6153,"##cle":6154,"bio":6155,"Rom":6156,"piso":6157,"##pro":6158,"alre":6159,"cár":6160,"defien":6161,"Nueva":6162,"##drá":6163,"##icano":6164,"##lia":6165,"##istemo":6166,"always":6167,"palo":6168,"##cam":6169,"sua":6170,"cero":6171,"##món":6172,"##zás":6173,"vuelvo":6174,"pregunto":6175,"var":6176,"viento":6177,"NOS":6178,"chicas":6179,"chocola":6180,"YOU":6181,"Mara":6182,"##abil":6183,"##aldo":6184,"gon":6185,"Jorge":6186,"His":6187,"Catal":6188,"detalles":6189,"SIN":6190,"HER":6191,"CL":6192,"Ur":6193,"imagino":6194,"EU":6195,"redon":6196,"paga":6197,"Copa":6198,"micrófono":6199,"Sigue":6200,"##tiene":6201,"tío":6202,"crack":6203,"##dela":6204,"dep":6205,"##meros":6206,"parecer":6207,"bronca":6208,"##tora":6209,"página":6210,"esca":6211,"género":6212,"tho":6213,"sorpres":6214,"existen":6215,"##jue":6216,"selector":6217,"##dría":6218,"##media":6219,"nem":6220,"##viendo":6221,"##ORES":6222,"desapar":6223,"pelotudo":6224,"09":6225,"desas":6226,"camis":6227,"##SK":6228,"DA":6229,"salvar":6230,"hahaha":6231,"##ertas":6232,"Ella":6233,"##quin":6234,"bri":6235,"madru":6236,"comba":6237,"versión":6238,"Santiago":6239,"##ógica":6240,"Unidos":6241,"Bla":6242,"mensajes":6243,"sk":6244,"Ok":6245,"hogar":6246,"FAV":6247,"##red":6248,"##tui":6249,"NADA":6250,"rece":6251,"gos":6252,"calendario":6253,"piern":6254,"tomando":6255,"##UM":6256,"Corona":6257,"llegan":6258,"prima":6259,"Jesús":6260,"##quero":6261,"chiste":6262,"htt":6263,"aliviada":6264,"teniendo":6265,"vea":6266,"##oc":6267,"had":6268,"going":6269,"why":6270,"estornudando":6271,"##gido":6272,"bl":6273,"##ets":6274,"anoche":6275,"hagas":6276,"twit":6277,"personaje":6278,"##icul":6279,"solución":6280,"fron":6281,"enero":6282,"link":6283,"##itor":6284,"alter":6285,"encuentra":6286,"alcohol":6287,"honor":6288,"pinta":6289,"checked":6290,"asesina":6291,"spe":6292,"##leno":6293,"Guar":6294,"##mg":6295,"juegos":6296,"cuidado":6297,"TRA":6298,"being":6299,"inclu":6300,"crear":6301,"juz":6302,"cate":6303,"condiciones":6304,"minuto":6305,"respecto":6306,"energía":6307,"llevan":6308,"primeros":6309,"ig":6310,"BE":6311,"Rad":6312,"bolsa":6313,"##estival":6314,"Dale":6315,"baño":6316,"automatically":6317,"##tive":6318,"cn":6319,"comentario":6320,"Netflix":6321,"sexo":6322,"dictadura":6323,"pudi":6324,"multi":6325,"perdon":6326,"avi":6327,"Ana":6328,"##test":6329,"miss":6330,"##30":6331,"##verso":6332,"odi":6333,"Boca":6334,"bad":6335,"manifes":6336,"##sura":6337,"##usia":6338,"##QUI":6339,"guste":6340,"brasil":6341,"##quilla":6342,"##mania":6343,"04":6344,"please":6345,"compromiso":6346,"##istencia":6347,"##jeros":6348,"queria":6349,"pura":6350,"##icaragua":6351,"##ombo":6352,"mag":6353,"saque":6354,"animales":6355,"##18":6356,"hubo":6357,"películas":6358,"##ate":6359,"papa":6360,"##uma":6361,"##HAHAHAHA":6362,"compe":6363,"funciona":6364,"##ncia":6365,"##VI":6366,"http":6367,"suena":6368,"obras":6369,"pierde":6370,"peso":6371,"##hip":6372,"rol":6373,"Nuestro":6374,"##glés":6375,"mayores":6376,"tweets":6377,"##fes":6378,"##teca":6379,"dólares":6380,"stu":6381,"fru":6382,"Ag":6383,"perros":6384,"River":6385,"proces":6386,"down":6387,"##vier":6388,"Total":6389,"##pareja":6390,"##oli":6391,"común":6392,"febrero":6393,"borra":6394,"##amientos":6395,"##mé":6396,"##BLE":6397,"veh":6398,"Están":6399,"##icen":6400,"Algo":6401,"necesitan":6402,"Antes":6403,"199":6404,"##ERN":6405,"consid":6406,"TIEN":6407,"dele":6408,"pude":6409,"Igles":6410,"camiseta":6411,"##misión":6412,"AY":6413,"celebrar":6414,"##ADOS":6415,"sien":6416,"haz":6417,"micro":6418,"rica":6419,"Van":6420,"Estados":6421,"Ara":6422,"##ustria":6423,"supuesto":6424,"inici":6425,"quieran":6426,"sigan":6427,"##rón":6428,"sera":6429,"##tré":6430,"afuera":6431,"does":6432,"##álisis":6433,"##ctores":6434,"##mágenes":6435,"Deja":6436,"army":6437,"vuelva":6438,"bara":6439,"Gab":6440,"Perú":6441,"Mundial":6442,"estren":6443,"ladr":6444,"series":6445,"patria":6446,"episo":6447,"##didas":6448,"amlo":6449,"quedate":6450,"hacerme":6451,"detrás":6452,"elegir":6453,"Vía":6454,"##ond":6455,"há":6456,"##ube":6457,"tru":6458,"viven":6459,"##esa":6460,"evento":6461,"Cruz":6462,"Cuán":6463,"artículo":6464,"cd":6465,"##cero":6466,"visit":6467,"vul":6468,"Deber":6469,"llegado":6470,"llamado":6471,"pendeja":6472,"Sil":6473,"tour":6474,"##nes":6475,"neg":6476,"cita":6477,"medal":6478,"##ben":6479,"OM":6480,"administra":6481,"##sus":6482,"hiciste":6483,"Domingo":6484,"ESTE":6485,"##horabuena":6486,"estadio":6487,"##vación":6488,"intentar":6489,"alegría":6490,"tira":6491,"comb":6492,"##cales":6493,"favorito":6494,"Tre":6495,"Vol":6496,"##als":6497,"movil":6498,"##SI":6499,"##teando":6500,"##cta":6501,"##ALL":6502,"supera":6503,"rock":6504,"ara":6505,"##ecuen":6506,"cocin":6507,"grá":6508,"##pó":6509,"recupera":6510,"resta":6511,"##let":6512,"verdadero":6513,"##ÁN":6514,"puedan":6515,"selección":6516,"mtvlapareja":6517,"complica":6518,"agen":6519,"watch":6520,"ecuador":6521,"Cl":6522,"interés":6523,"montón":6524,"##MI":6525,"sing":6526,"HO":6527,"##HO":6528,"##ance":6529,"tratar":6530,"molesta":6531,"responsable":6532,"##ándome":6533,"##versión":6534,"chocolate":6535,"consider":6536,"Acá":6537,"##AJAJAJA":6538,"actividades":6539,"##cian":6540,"2015":6541,"cocina":6542,"acción":6543,"leo":6544,"##gy":6545,"cárcel":6546,"Menos":6547,"nom":6548,"same":6549,"Villa":6550,"capacidad":6551,"##cisco":6552,"irme":6553,"##dade":6554,"##cón":6555,"pega":6556,"quem":6557,"##cara":6558,"digas":6559,"##mx":6560,"propon":6561,"publica":6562,"##SA":6563,"##ham":6564,"Abra":6565,"##pito":6566,"agora":6567,"##gón":6568,"could":6569,"necesitamos":6570,"followed":6571,"##gracia":6572,"##ducción":6573,"##CHA":6574,"should":6575,"##eep":6576,"ambos":6577,"quando":6578,"cinco":6579,"Ustedes":6580,"Hermos":6581,"##uca":6582,"figu":6583,"difun":6584,"recomenda":6585,"##mática":6586,"clima":6587,"instagram":6588,"miser":6589,"##queta":6590,"importantes":6591,"Liga":6592,"##fort":6593,"tendrá":6594,"plaza":6595,"esco":6596,"Diego":6597,"planeta":6598,"##tario":6599,"lados":6600,"##mentar":6601,"modelo":6602,"tol":6603,"##ics":6604,"##tural":6605,"acon":6606,"##istir":6607,"clave":6608,"fazer":6609,"##TRE":6610,"##self":6611,"rin":6612,"##iciones":6613,"IMP":6614,"##mel":6615,"pers":6616,"##asa":6617,"##álogo":6618,"##chada":6619,"JAJAJAJAJAJA":6620,"saco":6621,"Asi":6622,"##dados":6623,"wan":6624,"belleza":6625,"premio":6626,"Gente":6627,"##luen":6628,"COMP":6629,"2021":6630,"Odio":6631,"hdp":6632,"Video":6633,"##cán":6634,"menor":6635,"corruptos":6636,"QUÉ":6637,"##jera":6638,"caí":6639,"estú":6640,"##tería":6641,"cantar":6642,"INF":6643,"RA":6644,"##andro":6645,"Flor":6646,"hones":6647,"ocas":6648,"Ol":6649,"preciosa":6650,"Antonio":6651,"##baja":6652,"sou":6653,"Just":6654,"solidar":6655,"tristeza":6656,"Oye":6657,"That":6658,"Bro":6659,"TI":6660,"principio":6661,"##ÑO":6662,"##fia":6663,"HI":6664,"##ctimas":6665,"niñas":6666,"let":6667,"Sta":6668,"emergencia":6669,"last":6670,"Perdón":6671,"metro":6672,"##ieron":6673,"obliga":6674,"##UES":6675,"europe":6676,"Hap":6677,"##ezas":6678,"acto":6679,"mentiras":6680,"viste":6681,"Fer":6682,"##venida":6683,"corte":6684,"##ei":6685,"principal":6686,"aaa":6687,"##dientes":6688,"##cidente":6689,"##inha":6690,"mirando":6691,"YouT":6692,"arma":6693,"##omen":6694,"aparece":6695,"##pl":6696,"levantar":6697,"##mpre":6698,"##iler":6699,"dignidad":6700,"prefer":6701,"##24":6702,"consecuen":6703,"MEN":6704,"Dar":6705,"shit":6706,"##ertos":6707,"##ivo":6708,"particip":6709,"Sabes":6710,"##ándole":6711,"Thank":6712,"arru":6713,"take":6714,"##DES":6715,"Ram":6716,"##CER":6717,"tenés":6718,"terrible":6719,"felicidades":6720,"Social":6721,"porq":6722,"discu":6723,"##ibil":6724,"hac":6725,"Ste":6726,"desarrol":6727,"mesmo":6728,"##formación":6729,"hol":6730,"espalda":6731,"Conse":6732,"saludo":6733,"negra":6734,"excl":6735,"tendría":6736,"médico":6737,"pierdas":6738,"enorme":6739,"estén":6740,"norte":6741,"##edad":6742,"##parta":6743,"pies":6744,"##amble":6745,"urgente":6746,"Sam":6747,"##ved":6748,"cán":6749,"Podemos":6750,"##icil":6751,"##ordin":6752,"pizza":6753,"hable":6754,"Tur":6755,"##éro":6756,"sopor":6757,"carne":6758,"Sr":6759,"Barça":6760,"hs":6761,"estable":6762,"ál":6763,"correr":6764,"queres":6765,"##igan":6766,"flores":6767,"salgo":6768,"ocul":6769,"mina":6770,"Est":6771,"##gh":6772,"completa":6773,"##undo":6774,"##mán":6775,"Pen":6776,"entera":6777,"Cuba":6778,"médicos":6779,"acco":6780,"##rer":6781,"##cados":6782,"mates":6783,"##ONA":6784,"##ALES":6785,"##íris":6786,"aborto":6787,"##its":6788,"Vir":6789,"favorita":6790,"ministro":6791,"defens":6792,"AD":6793,"photo":6794,"edición":6795,"gustó":6796,"##abas":6797,"Cá":6798,"proyectos":6799,"visual":6800,"capítulo":6801,"##tify":6802,"arcoíris":6803,"##gotá":6804,"talento":6805,"##dimiento":6806,"most":6807,"One":6808,"comiendo":6809,"gracia":6810,"cala":6811,"descub":6812,"cham":6813,"Aún":6814,"meta":6815,"env":6816,"segundos":6817,"comunicación":6818,"##usos":6819,"euros":6820,"Grande":6821,"concep":6822,"Den":6823,"decirle":6824,"correspon":6825,"jefe":6826,"impul":6827,"Seguro":6828,"éste":6829,"santa":6830,"voltaje":6831,"repetir":6832,"fandom":6833,"ada":6834,"neutral":6835,"auricular":6836,"##trol":6837,"investigación":6838,"casas":6839,"acus":6840,"##OE":6841,"##éctr":6842,"##izando":6843,"##ella":6844,"Tienes":6845,"##ym":6846,"República":6847,"YouTube":6848,"confirma":6849,"conec":6850,"olvid":6851,"rombo":6852,"piensan":6853,"##pir":6854,"ge":6855,"##isterio":6856,"recibiendo":6857,"afir":6858,"Municip":6859,"##onia":6860,"coño":6861,"##rique":6862,"Dia":6863,"help":6864,"redonda":6865,"tré":6866,"reflex":6867,"sil":6868,"##ture":6869,"##ipol":6870,"nega":6871,"##acio":6872,"simp":6873,"une":6874,"Luego":6875,"aniversario":6876,"said":6877,"Dra":6878,"AHORA":6879,"ESTOY":6880,"tecnología":6881,"##antil":6882,"##pida":6883,"##rones":6884,"atre":6885,"moto":6886,"preguntar":6887,"fortale":6888,"locura":6889,"trébol":6890,"##very":6891,"positivo":6892,"##ONES":6893,"gustado":6894,"bote":6895,"Lor":6896,"Bal":6897,"ao":6898,"reunión":6899,"##crá":6900,"vosotros":6901,"great":6902,"candidato":6903,"frustración":6904,"sempre":6905,"##ISTA":6906,"productos":6907,"cabe":6908,"##gala":6909,"##menes":6910,"Julio":6911,"García":6912,"escucho":6913,"quisiera":6914,"tarje":6915,"jeje":6916,"ganado":6917,"actitud":6918,"Lam":6919,"Temp":6920,"lugares":6921,"end":6922,"Tar":6923,"abierto":6924,"##dremos":6925,"entero":6926,"quitar":6927,"cola":6928,"ciencia":6929,"##tube":6930,"CR":6931,"Whats":6932,"chav":6933,"##back":6934,"sueldo":6935,"garanti":6936,"torneo":6937,"infec":6938,"pio":6939,"PRES":6940,"constitu":6941,"víctimas":6942,"logra":6943,"##ath":6944,"motivo":6945,"##ZO":6946,"costa":6947,"Manuel":6948,"carro":6949,"volun":6950,"GRAN":6951,"resulta":6952,"Pobre":6953,"presentar":6954,"1000":6955,"cré":6956,"título":6957,"escol":6958,"central":6959,"debes":6960,"altura":6961,"examen":6962,"##zi":6963,"noso":6964,"loo":6965,"Inf":6966,"Wo":6967,"got7":6968,"nin":6969,"ron":6970,"##fac":6971,"amistad":6972,"TA":6973,"full":6974,"Lit":6975,"better":6976,"##iss":6977,"##guém":6978,"cach":6979,"##NA":6980,"##mático":6981,"discurso":6982,"##tici":6983,"night":6984,"ofen":6985,"##tec":6986,"autoridades":6987,"perman":6988,"55":6989,"SAN":6990,"anterior":6991,"NUE":6992,"empezó":6993,"piden":6994,"civil":6995,"dejas":6996,"Cuál":6997,"faltan":6998,"LU":6999,"##ivas":7000,"pros":7001,"USA":7002,"Happy":7003,"##DIO":7004,"##lab":7005,"robar":7006,"##ítulos":7007,"Club":7008,"reme":7009,"##oya":7010,"Ai":7011,"mia":7012,"mareo":7013,"acostumb":7014,"##rimonio":7015,"ber":7016,"ninguno":7017,"Acaba":7018,"##BE":7019,"cambios":7020,"##13":7021,"part":7022,"JU":7023,"justif":7024,"##ÑOS":7025,"mostrar":7026,"errores":7027,"familiares":7028,"agres":7029,"inglés":7030,"fascis":7031,"99":7032,"miemb":7033,"Internacional":7034,"##órdoba":7035,"virtual":7036,"bebe":7037,"Wil":7038,"##torial":7039,"carta":7040,"Star":7041,"##RG":7042,"other":7043,"dejado":7044,"perió":7045,"SAB":7046,"##ries":7047,"viajar":7048,"abandon":7049,"Lib":7050,"Dere":7051,"##sta":7052,"injus":7053,"##lie":7054,"encer":7055,"helado":7056,"cruzados":7057,"##tieron":7058,"Ecuador":7059,"coj":7060,"Media":7061,"##lip":7062,"##fu":7063,"##eco":7064,"##MEN":7065,"##quia":7066,"ub":7067,"HAY":7068,"But":7069,"##EMP":7070,"Cur":7071,"##íos":7072,"record":7073,"##ciles":7074,"medida":7075,"Educa":7076,"##ERE":7077,"##cter":7078,"desgracia":7079,"##mio":7080,"##ló":7081,"tarea":7082,"Sur":7083,"Rafa":7084,"Ali":7085,"corto":7086,"imágenes":7087,"How":7088,"##oría":7089,"protagon":7090,"##ñado":7091,"PUTA":7092,"públicos":7093,"culp":7094,"desastre":7095,"camin":7096,"made":7097,"##GAR":7098,"ul":7099,"##BER":7100,"bás":7101,"hará":7102,"##ced":7103,"##ECES":7104,"importancia":7105,"lamen":7106,"##tus":7107,"hermanos":7108,"laboral":7109,"moda":7110,"alcalde":7111,"colores":7112,"Mucho":7113,"ataque":7114,"permitir":7115,"BA":7116,"FOR":7117,"sitio":7118,"medalla":7119,"David":7120,"exac":7121,"JO":7122,"##umen":7123,"##ículos":7124,"pelota":7125,"##ween":7126,"compañía":7127,"malos":7128,"gasolina":7129,"01":7130,"álbum":7131,"##uis":7132,"Love":7133,"Mel":7134,"Alex":7135,"##udes":7136,"habi":7137,"##ivos":7138,"Guer":7139,"##forme":7140,"Pr":7141,"bem":7142,"##ident":7143,"Disf":7144,"director":7145,"PI":7146,"provincia":7147,"excep":7148,"quita":7149,"Não":7150,"fol":7151,"##puta":7152,"##cé":7153,"trabajos":7154,"give":7155,"##tian":7156,"Bas":7157,"##todo":7158,"facil":7159,"##istos":7160,"debo":7161,"hablamos":7162,"##enos":7163,"hechos":7164,"extran":7165,"Paz":7166,"cantando":7167,"Francisco":7168,"termino":7169,"decisiones":7170,"##ux":7171,"##óme":7172,"HE":7173,"##22":7174,"compañero":7175,"electoral":7176,"##uelos":7177,"QUIERO":7178,"confun":7179,"cerezo":7180,"presentación":7181,"ud":7182,"españoles":7183,"Cui":7184,"porqué":7185,"coca":7186,"##mestre":7187,"GU":7188,"vin":7189,"##ynam":7190,"##ling":7191,"hipo":7192,"##ANO":7193,"##uuu":7194,"Alcal":7195,"##aman":7196,"transporte":7197,"##tará":7198,"tardes":7199,"extraña":7200,"políticas":7201,"##ifa":7202,"##leo":7203,"##ciona":7204,"##ik":7205,"##deral":7206,"horario":7207,"poniendo":7208,"nooo":7209,"##vile":7210,"terri":7211,"##ezco":7212,"##augu":7213,"interven":7214,"Aten":7215,"reina":7216,"AAA":7217,"##ASTA":7218,"##minación":7219,"confusión":7220,"##ficio":7221,"Chris":7222,"##tron":7223,"pm":7224,"ambiente":7225,"diría":7226,"esperan":7227,"##onato":7228,"coin":7229,"acerca":7230,"suma":7231,"pibe":7232,"idiota":7233,"pobreza":7234,"económica":7235,"vengan":7236,"##vidu":7237,"##ah":7238,"extrañar":7239,"Estaba":7240,"fase":7241,"planes":7242,"profesionales":7243,"##ons":7244,"08":7245,"these":7246,"hal":7247,"PSOE":7248,"destino":7249,"prefiero":7250,"recuerdos":7251,"dedica":7252,"congreso":7253,"mez":7254,"Mujer":7255,"imagina":7256,"Casa":7257,"visitar":7258,"##blos":7259,"##App":7260,"interior":7261,"cago":7262,"##vic":7263,"##zón":7264,"Seguimos":7265,"##any":7266,"##lace":7267,"embara":7268,"delincuentes":7269,"##ejo":7270,"anuncia":7271,"trae":7272,"##gá":7273,"##jito":7274,"Ber":7275,"sube":7276,"##tto":7277,"##rico":7278,"ejercicio":7279,"carre":7280,"cobrar":7281,"habría":7282,"compara":7283,"mostra":7284,"Ron":7285,"##etas":7286,"dre":7287,"WE":7288,"juntas":7289,"##anía":7290,"criminal":7291,"##less":7292,"##riel":7293,"dulce":7294,"billete":7295,"div":7296,"informe":7297,"##tiful":7298,"noviembre":7299,"perten":7300,"cáncer":7301,"ef":7302,"##MIN":7303,"isla":7304,"##CIONES":7305,"influen":7306,"Secre":7307,"descono":7308,"DM":7309,"FO":7310,"mim":7311,"MOR":7312,"femen":7313,"##uelas":7314,"Siii":7315,"tac":7316,"vende":7317,"Person":7318,"VIDEO":7319,"##ipe":7320,"coger":7321,"##DAS":7322,"necesitas":7323,"##xo":7324,"##ITA":7325,"dona":7326,"facul":7327,"ego":7328,"relig":7329,"32":7330,"Sho":7331,"##ast":7332,"desin":7333,"hoja":7334,"Fernández":7335,"##cs":7336,"protección":7337,"##oro":7338,"uñas":7339,"poca":7340,"##ISTE":7341,"##oncesto":7342,"FI":7343,"NUN":7344,"glor":7345,"##respons":7346,"reno":7347,"hablas":7348,"universidad":7349,"##GR":7350,"JA":7351,"##joy":7352,"friends":7353,"apun":7354,"MEJ":7355,"acordar":7356,"privado":7357,"John":7358,"rele":7359,"literalmente":7360,"Últi":7361,"##jin":7362,"##hos":7363,"JAJAJAJAJAJAJAJAJ":7364,"tranquila":7365,"##grantes":7366,"TR":7367,"Fr":7368,"hoje":7369,"##try":7370,"formas":7371,"peligro":7372,"##ET":7373,"inno":7374,"##has":7375,"06":7376,"Trans":7377,"Oli":7378,"superar":7379,"birthday":7380,"little":7381,"perdió":7382,"Según":7383,"lamentable":7384,"##SO":7385,"pela":7386,"Valencia":7387,"Coronavirus":7388,"ore":7389,"05":7390,"Daniel":7391,"Han":7392,"very":7393,"##unas":7394,"##rosa":7395,"Todavía":7396,"aquellos":7397,"Fernando":7398,"##enario":7399,"##ilable":7400,"convoca":7401,"oh":7402,"##cesa":7403,"Incre":7404,"querés":7405,"Buena":7406,"##ciéndo":7407,"##ynamite":7408,"##fore":7409,"traer":7410,"desapare":7411,"aparte":7412,"igles":7413,"##dent":7414,"##quez":7415,"sepa":7416,"tremendo":7417,"merecen":7418,"bienes":7419,"movimiento":7420,"##obo":7421,"marketing":7422,"exc":7423,"roja":7424,"##mu":7425,"agradecer":7426,"##DJ":7427,"##etw":7428,"audio":7429,"sar":7430,"##tillas":7431,"##17":7432,"máximo":7433,"account":7434,"##íamos":7435,"rab":7436,"Ej":7437,"carga":7438,"##enaje":7439,"##ína":7440,"pequeña":7441,"aplica":7442,"Amor":7443,"pacientes":7444,"profe":7445,"progres":7446,"GAN":7447,"Sub":7448,"Mario":7449,"volumen":7450,"Fir":7451,"Madre":7452,"original":7453,"calavera":7454,"##iana":7455,"olvida":7456,"pusi":7457,"news":7458,"gordo":7459,"##vamente":7460,"##tf":7461,"Jam":7462,"##BRE":7463,"elig":7464,"regreso":7465,"Nooo":7466,"song":7467,"concent":7468,"sincer":7469,"sum":7470,"eléctr":7471,"Blan":7472,"aso":7473,"privile":7474,"cumpli":7475,"cancel":7476,"Bogotá":7477,"then":7478,"VAMOS":7479,"##uns":7480,"IG":7481,"masaje":7482,"KKK":7483,"Ger":7484,"##dicial":7485,"NUNCA":7486,"periodismo":7487,"Gui":7488,"tuya":7489,"hayan":7490,"responde":7491,"##vailable":7492,"PL":7493,"##wu":7494,"imper":7495,"Uribe":7496,"priva":7497,"##UEL":7498,"volvió":7499,"cif":7500,"avión":7501,"cientí":7502,"Puerto":7503,"Tele":7504,"obser":7505,"habit":7506,"##ñera":7507,"dema":7508,"lloro":7509,"WhatsApp":7510,"artista":7511,"materia":7512,"actividad":7513,"Vis":7514,"cant":7515,"##viamente":7516,"corta":7517,"##jate":7518,"cuestión":7519,"##vemos":7520,"Nicol":7521,"tod":7522,"##inación":7523,"Puede":7524,"##ENDO":7525,"mm":7526,"Rodr":7527,"verla":7528,"delito":7529,"awards":7530,"cuánto":7531,"##tz":7532,"Enhorabuena":7533,"defin":7534,"tranquilo":7535,"cuantos":7536,"embargo":7537,"CRE":7538,"Kar":7539,"llaman":7540,"celeb":7541,"estrategia":7542,"198":7543,"investiga":7544,"alguno":7545,"##zca":7546,"dejaron":7547,"##ald":7548,"##SJSJ":7549,"Ele":7550,"##ionante":7551,"App":7552,"preocupa":7553,"reproducir":7554,"entradas":7555,"##guas":7556,"vota":7557,"##ater":7558,"##ross":7559,"##gaba":7560,"inú":7561,"fuerzas":7562,"psic":7563,"Red":7564,"ingen":7565,"Wor":7566,"Cer":7567,"bue":7568,"categor":7569,"##gil":7570,"##ids":7571,"##isimo":7572,"thre":7573,"hubiese":7574,"MUN":7575,"deman":7576,"individu":7577,"##cks":7578,"infin":7579,"##teras":7580,"Google":7581,"##lita":7582,"memes":7583,"vengo":7584,"ponga":7585,"cerdo":7586,"queso":7587,"Fi":7588,"invito":7589,"impun":7590,"##kkk":7591,"##ística":7592,"CN":7593,"##DEN":7594,"permite":7595,"uruguay":7596,"Justicia":7597,"##ball":7598,"contacto":7599,"bul":7600,"salido":7601,"interna":7602,"Mucha":7603,"Radio":7604,"##izan":7605,"estuve":7606,"aceptar":7607,"conciencia":7608,"##digo":7609,"##mita":7610,"ponerme":7611,"hand":7612,"apo":7613,"34":7614,"ascen":7615,"##usto":7616,"jarras":7617,"##chen":7618,"##har":7619,"##íguez":7620,"##EMPRE":7621,"vean":7622,"##hone":7623,"represent":7624,"solidaridad":7625,"madres":7626,"viviendo":7627,"Primera":7628,"ilus":7629,"sei":7630,"correcto":7631,"Sá":7632,"rit":7633,"Unas":7634,"fea":7635,"Good":7636,"perra":7637,"##ecía":7638,"valores":7639,"finales":7640,"##dible":7641,"cuel":7642,"millon":7643,"material":7644,"##tud":7645,"baloncesto":7646,"puerto":7647,"SIEMPRE":7648,"##gica":7649,"tercer":7650,"Casi":7651,"deix":7652,"canta":7653,"ejecu":7654,"Mexico":7655,"integ":7656,"rue":7657,"##amblea":7658,"Nuestra":7659,"##yen":7660,"renun":7661,"fiestas":7662,"presos":7663,"inoc":7664,"use":7665,"ARM":7666,"qual":7667,"propuesta":7668,"Segun":7669,"##cemos":7670,"revis":7671,"##16":7672,"##ught":7673,"ESO":7674,"HD":7675,"ji":7676,"repu":7677,"##olucion":7678,"Pé":7679,"solamente":7680,"Ed":7681,"##jj":7682,"##entable":7683,"aquel":7684,"##amento":7685,"meme":7686,"enfermedad":7687,"##14":7688,"Hor":7689,"corazon":7690,"##ged":7691,"mur":7692,"depres":7693,"muere":7694,"piedra":7695,"clásico":7696,"##ciación":7697,"mirada":7698,"peores":7699,"##TAL":7700,"personajes":7701,"BUEN":7702,"##lesc":7703,"sorpresa":7704,"compren":7705,"tercera":7706,"##ness":7707,"perfecta":7708,"periódico":7709,"MIN":7710,"present":7711,"##inado":7712,"##iii":7713,"proteger":7714,"tonto":7715,"adelan":7716,"separa":7717,"sorry":7718,"##abel":7719,"also":7720,"Dor":7721,"##rey":7722,"situa":7723,"irre":7724,"##tate":7725,"intento":7726,"ánimo":7727,"07":7728,"Esos":7729,"podido":7730,"presencia":7731,"##logía":7732,"##kan":7733,"##tacular":7734,"##UT":7735,"querida":7736,"##ational":7737,"wait":7738,"despertar":7739,"Má":7740,"tía":7741,"##erop":7742,"##torno":7743,"yendo":7744,"estres":7745,"##tant":7746,"pedido":7747,"entregar":7748,"##000":7749,"probar":7750,"Usted":7751,"rata":7752,"parque":7753,"##usta":7754,"pecho":7755,"They":7756,"indica":7757,"Ke":7758,"well":7759,"##erva":7760,"Disfru":7761,"##ósito":7762,"prefi":7763,"playing":7764,"siglo":7765,"ahorita":7766,"fuiste":7767,"girl":7768,"##ieza":7769,"##15":7770,"Hahaha":7771,"##quete":7772,"chal":7773,"##dable":7774,"beb":7775,"ainda":7776,"insegu":7777,"##ething":7778,"##bur":7779,"andan":7780,"posta":7781,"Af":7782,"##iales":7783,"Char":7784,"##yan":7785,"pez":7786,"taller":7787,"respuestas":7788,"nomás":7789,"pode":7790,"##ehy":7791,"mismas":7792,"##ilos":7793,"perm":7794,"Er":7795,"corrupto":7796,"análisis":7797,"Sobre":7798,"##tiz":7799,"quedado":7800,"Spo":7801,"beau":7802,"Dónde":7803,"##ather":7804,"open":7805,"muertes":7806,"mexicanos":7807,"Italia":7808,"pensaba":7809,"##oos":7810,"haría":7811,"##gios":7812,"pones":7813,"prohibido":7814,"empat":7815,"hy":7816,"llo":7817,"thank":7818,"leyendo":7819,"gane":7820,"VIDA":7821,"lic":7822,"diálogo":7823,"pocas":7824,"Él":7825,"##nto":7826,"##eda":7827,"divers":7828,"##melo":7829,"##mula":7830,"Rodríguez":7831,"SUS":7832,"##illos":7833,"senta":7834,"suelo":7835,"preci":7836,"##timo":7837,"brea":7838,"contenido":7839,"producción":7840,"2014":7841,"ola":7842,"funcionarios":7843,"Reci":7844,"sad":7845,"teatro":7846,"things":7847,"ki":7848,"cabello":7849,"etapa":7850,"FAVOR":7851,"##gulo":7852,"Jul":7853,"run":7854,"##KE":7855,"tenían":7856,"##erac":7857,"##kin":7858,"##gante":7859,"next":7860,"##uto":7861,"paciencia":7862,"##uco":7863,"##gol":7864,"##elos":7865,"Thanks":7866,"##yos":7867,"profesor":7868,"rode":7869,"oportunidades":7870,"valen":7871,"global":7872,"posición":7873,"02":7874,"relacion":7875,"nov":7876,"BIEN":7877,"sabado":7878,"dist":7879,"##empo":7880,"pantalla":7881,"probable":7882,"gracios":7883,"nieve":7884,"She":7885,"##mites":7886,"##cast":7887,"##ueva":7888,"##tiano":7889,"reforma":7890,"Black":7891,"até":7892,"##vida":7893,"ace":7894,"Estás":7895,"Pregun":7896,"capit":7897,"##bin":7898,"provo":7899,"Ano":7900,"##izados":7901,"ganan":7902,"03":7903,"##laciones":7904,"Champions":7905,"##icho":7906,"##mba":7907,"ped":7908,"murió":7909,"tomo":7910,"larga":7911,"esperaba":7912,"municipio":7913,"##uestros":7914,"económico":7915,"enamorada":7916,"peru":7917,"unico":7918,"Campe":7919,"jung":7920,"Wa":7921,"Hugo":7922,"calla":7923,"##elas":7924,"conce":7925,"##quil":7926,"party":7927,"##eto":7928,"leí":7929,"interpre":7930,"pleno":7931,"hp":7932,"depende":7933,"##enzo":7934,"irrespons":7935,"abre":7936,"sencil":7937,"sentimientos":7938,"monta":7939,"pensamiento":7940,"inteligente":7941,"##BO":7942,"plena":7943,"ilegal":7944,"ceja":7945,"asomb":7946,"AND":7947,"Pad":7948,"cie":7949,"crush":7950,"assim":7951,"##anta":7952,"turismo":7953,"construcción":7954,"##diós":7955,"Ka":7956,"fern":7957,"pasada":7958,"tab":7959,"fake":7960,"renuncia":7961,"comienza":7962,"LLE":7963,"##dillo":7964,"fab":7965,"Quieres":7966,"llora":7967,"FE":7968,"demostrar":7969,"##ped":7970,"Amigos":7971,"##vern":7972,"mac":7973,"emoción":7974,"pata":7975,"sombrero":7976,"##PI":7977,"aro":7978,"León":7979,"incon":7980,"gorda":7981,"peli":7982,"Compar":7983,"Gru":7984,"escribiendo":7985,"Plaza":7986,"PEL":7987,"anima":7988,"##uña":7989,"asesin":7990,"propa":7991,"batalla":7992,"nao":7993,"##dona":7994,"set":7995,"musica":7996,"48":7997,"acceso":7998,"diz":7999,"Lea":8000,"##rimiento":8001,"Hern":8002,"conjun":8003,"vídeos":8004,"38":8005,"saliendo":8006,"##ked":8007,"olvido":8008,"partes":8009,"##ástima":8010,"participación":8011,"##ever":8012,"agenda":8013,"##IDA":8014,"envidia":8015,"siii":8016,"clo":8017,"MUY":8018,"pudiera":8019,"Sevilla":8020,"DIS":8021,"juicio":8022,"PAN":8023,"sha":8024,"cierre":8025,"esposa":8026,"cobar":8027,"Learn":8028,"AF":8029,"prac":8030,"ray":8031,"Day":8032,"zo":8033,"amas":8034,"Apren":8035,"Viern":8036,"baile":8037,"cro":8038,"partida":8039,"alterna":8040,"intereses":8041,"Vas":8042,"sabia":8043,"Pérez":8044,"act":8045,"##sapp":8046,"##ccion":8047,"absolutamente":8048,"##itarios":8049,"fis":8050,"iban":8051,"fiel":8052,"sois":8053,"##TH":8054,"##chado":8055,"CAB":8056,"casual":8057,"tell":8058,"##ões":8059,"##hua":8060,"dejes":8061,"##ERDA":8062,"Todas":8063,"Cristina":8064,"face":8065,"pongan":8066,"BAR":8067,"restau":8068,"duermo":8069,"drama":8070,"SOLO":8071,"nariz":8072,"dejamos":8073,"album":8074,"peron":8075,"hope":8076,"expon":8077,"irse":8078,"medic":8079,"Felicitaciones":8080,"Alej":8081,"cabo":8082,"Muer":8083,"insu":8084,"divi":8085,"Foto":8086,"cuch":8087,"estés":8088,"Extraño":8089,"##árez":8090,"nosotras":8091,"##úl":8092,"mami":8093,"Universidad":8094,"usando":8095,"catal":8096,"##pin":8097,"##grama":8098,"tenho":8099,"##pita":8100,"Viernes":8101,"rompe":8102,"devuel":8103,"pasión":8104,"When":8105,"##cies":8106,"hamb":8107,"deuda":8108,"Gan":8109,"iniciativa":8110,"##ek":8111,"dirección":8112,"mx":8113,"##idal":8114,"Siento":8115,"care":8116,"Ir":8117,"##ister":8118,"Fiscal":8119,"##ticular":8120,"toy":8121,"##jó":8122,"conversación":8123,"técnico":8124,"universo":8125,"sobrevi":8126,"##ificar":8127,"##cleta":8128,"escribe":8129,"##uales":8130,"eti":8131,"br":8132,"llamada":8133,"venezolano":8134,"##iche":8135,"negocios":8136,"##pico":8137,"inaugu":8138,"Conoce":8139,"habían":8140,"diji":8141,"Art":8142,"##jec":8143,"pija":8144,"Amb":8145,"pagan":8146,"gala":8147,"chat":8148,"humanidad":8149,"melhor":8150,"contrato":8151,"viejos":8152,"##rael":8153,"PORQUE":8154,"##ken":8155,"##riz":8156,"planta":8157,"proto":8158,"37":8159,"piernas":8160,"where":8161,"pendejos":8162,"##uth":8163,"sensación":8164,"CAL":8165,"buscan":8166,"bec":8167,"##ns":8168,"alumnos":8169,"deter":8170,"##serio":8171,"ple":8172,"sala":8173,"Agra":8174,"##aas":8175,"coisa":8176,"angel":8177,"bolas":8178,"Sw":8179,"financi":8180,"Nar":8181,"encontra":8182,"Primer":8183,"##tti":8184,"##urar":8185,"frio":8186,"##timi":8187,"##tric":8188,"lazo":8189,"##ezca":8190,"generación":8191,"refor":8192,"Cr":8193,"tienda":8194,"precis":8195,"ste":8196,"##km":8197,"arras":8198,"Ojo":8199,"tenéis":8200,"nose":8201,"consejos":8202,"resca":8203,"##cord":8204,"región":8205,"marido":8206,"pedazo":8207,"argentino":8208,"invierno":8209,"alimentos":8210,"##iona":8211,"II":8212,"razones":8213,"ficha":8214,"cojones":8215,"##cieron":8216,"ms":8217,"sorteo":8218,"##din":8219,"##tiles":8220,"Mé":8221,"##mentación":8222,"keep":8223,"luchar":8224,"##CAR":8225,"daba":8226,"Uruguay":8227,"maltra":8228,"AJ":8229,"war":8230,"adolesc":8231,"vacuna":8232,"mexicano":8233,"falso":8234,"VE":8235,"unidad":8236,"américa":8237,"##lano":8238,"##iencias":8239,"encontré":8240,"militares":8241,"Tr":8242,"Chi":8243,"something":8244,"CI":8245,"##igi":8246,"pibes":8247,"DON":8248,"##ost":8249,"guitar":8250,"##gentes":8251,"pelotuda":8252,"cata":8253,"compa":8254,"Dec":8255,"##ombre":8256,"considera":8257,"##oot":8258,"instru":8259,"tik":8260,"##alth":8261,"tratando":8262,"##icando":8263,"##elli":8264,"jard":8265,"cuestion":8266,"##ísimas":8267,"Policía":8268,"bello":8269,"##bito":8270,"bendi":8271,"quizás":8272,"cob":8273,"##duras":8274,"##AME":8275,"recuperar":8276,"igu":8277,"ignorancia":8278,"locos":8279,"hacerse":8280,"ridículo":8281,"conocido":8282,"ruta":8283,"verdadera":8284,"##ANTE":8285,"Hospital":8286,"##reo":8287,"##com":8288,"libres":8289,"MEJOR":8290,"consecuencias":8291,"leído":8292,"##INO":8293,"##ates":8294,"days":8295,"publicidad":8296,"##ventud":8297,"perdí":8298,"adic":8299,"##nia":8300,"EXO":8301,"##ADOR":8302,"pasaron":8303,"diputados":8304,"héro":8305,"ec":8306,"perdiendo":8307,"##dias":8308,"##EEE":8309,"País":8310,"##gico":8311,"river":8312,"ocurre":8313,"pesa":8314,"Nosotros":8315,"##25":8316,"vuelto":8317,"mtvlafandom":8318,"río":8319,"lastima":8320,"habia":8321,"##mí":8322,"chab":8323,"PEN":8324,"Ge":8325,"delante":8326,"quedarse":8327,"pass":8328,"disfra":8329,"pés":8330,"yes":8331,"##ÉN":8332,"seres":8333,"armas":8334,"pantal":8335,"##GUI":8336,"activ":8337,"contagios":8338,"humo":8339,"equivoca":8340,"##grimas":8341,"##kers":8342,"##omía":8343,"vaina":8344,"crecer":8345,"Lar":8346,"Ángel":8347,"##osos":8348,"guapo":8349,"Mc":8350,"Córdoba":8351,"##ñé":8352,"##tible":8353,"##izaciones":8354,"hotel":8355,"Its":8356,"##imnas":8357,"##PP":8358,"broma":8359,"asquer":8360,"support":8361,"Navidad":8362,"enfrentar":8363,"quero":8364,"imbé":8365,"sorprende":8366,"##tame":8367,"Bern":8368,"Bes":8369,"thing":8370,"atras":8371,"homenaje":8372,"declar":8373,"##igue":8374,"criticar":8375,"##ueve":8376,"Javier":8377,"##XI":8378,"adentro":8379,"charla":8380,"odia":8381,"vá":8382,"maestro":8383,"##CON":8384,"##RAS":8385,"Bri":8386,"Sha":8387,"nena":8388,"hun":8389,"Via":8390,"cayó":8391,"proce":8392,"números":8393,"dispos":8394,"##ongi":8395,"adi":8396,"Cali":8397,"gilipol":8398,"##tit":8399,"##tiza":8400,"quédate":8401,"igualdad":8402,"Tras":8403,"sosten":8404,"hate":8405,"requi":8406,"dato":8407,"beautiful":8408,"##ÑA":8409,"vice":8410,"##rillo":8411,"herram":8412,"many":8413,"##DK":8414,"Uni":8415,"##uri":8416,"coinci":8417,"TW":8418,"##illar":8419,"parecen":8420,"pour":8421,"razon":8422,"someone":8423,"área":8424,"preso":8425,"##reras":8426,"nes":8427,"oli":8428,"Vuel":8429,"##plo":8430,"menores":8431,"sesión":8432,"pendiente":8433,"cool":8434,"democrá":8435,"trib":8436,"fucking":8437,"##tage":8438,"AU":8439,"fues":8440,"perú":8441,"escena":8442,"cuadrado":8443,"abrazar":8444,"##temala":8445,"##clo":8446,"rio":8447,"recomen":8448,"Anda":8449,"exten":8450,"lindas":8451,"##ieve":8452,"##udar":8453,"gym":8454,"TER":8455,"Br":8456,"reconocer":8457,"stor":8458,"decís":8459,"pusieron":8460,"gustar":8461,"tarjeta":8462,"lopez":8463,"##ávez":8464,"coo":8465,"policías":8466,"before":8467,"ésta":8468,"Ví":8469,"##iosos":8470,"inmedia":8471,"Dipu":8472,"##ensión":8473,"acabe":8474,"lee":8475,"olor":8476,"##culos":8477,"botella":8478,"blog":8479,"servi":8480,"caja":8481,"convertir":8482,"guapa":8483,"papas":8484,"ricos":8485,"##sal":8486,"##list":8487,"independiente":8488,"recomiendo":8489,"##GAN":8490,"##ecemos":8491,"formación":8492,"##key":8493,"confin":8494,"Ellos":8495,"marco":8496,"##cciones":8497,"NECES":8498,"decre":8499,"##dezco":8500,"Aca":8501,"Francia":8502,"dejando":8503,"mere":8504,"bols":8505,"española":8506,"Viva":8507,"sm":8508,"##valu":8509,"##lle":8510,"ame":8511,"Constitución":8512,"##cripción":8513,"terminó":8514,"magia":8515,"JUN":8516,"mues":8517,"ng":8518,"tmb":8519,"Blo":8520,"existir":8521,"birra":8522,"Famil":8523,"##ifi":8524,"Inde":8525,"##titos":8526,"prioridad":8527,"##omas":8528,"darme":8529,"##ritos":8530,"despertador":8531,"aprue":8532,"hacerle":8533,"Joa":8534,"escrito":8535,"né":8536,"Santos":8537,"suici":8538,"capaci":8539,"uwu":8540,"##REN":8541,"apare":8542,"Gobern":8543,"gall":8544,"inteligencia":8545,"cena":8546,"story":8547,"fumar":8548,"400":8549,"kar":8550,"197":8551,"podrían":8552,"##pool":8553,"ESP":8554,"actuar":8555,"##enda":8556,"constante":8557,"##doras":8558,"sufrir":8559,"##zy":8560,"redu":8561,"novela":8562,"recon":8563,"Confir":8564,"informar":8565,"fort":8566,"entienden":8567,"##box":8568,"later":8569,"##ites":8570,"hard":8571,"##sonaro":8572,"debido":8573,"tão":8574,"enseñ":8575,"alerta":8576,"leyes":8577,"caro":8578,"##quía":8579,"tendencia":8580,"consulta":8581,"Fan":8582,"caminar":8583,"enviar":8584,"##ali":8585,"pico":8586,"expul":8587,"75":8588,"lidera":8589,"##VEN":8590,"ideal":8591,"Valle":8592,"hospitales":8593,"stay":8594,"Ning":8595,"esque":8596,"##rieron":8597,"Muchos":8598,"mmm":8599,"##quier":8600,"##ARA":8601,"saluda":8602,"nuevamente":8603,"podrá":8604,"tatu":8605,"##ficos":8606,"PC":8607,"##ército":8608,"aumento":8609,"Apro":8610,"obs":8611,"supone":8612,"##zález":8613,"mentir":8614,"sacan":8615,"pollo":8616,"brazos":8617,"##pop":8618,"compras":8619,"atender":8620,"darte":8621,"Fla":8622,"OP":8623,"moder":8624,"naturaleza":8625,"##sh":8626,"##reola":8627,"rendir":8628,"programas":8629,"##ilio":8630,"señores":8631,"City":8632,"mini":8633,"die":8634,"##encial":8635,"Necesita":8636,"own":8637,"##LTI":8638,"##UD":8639,"ARMY":8640,"mencion":8641,"veía":8642,"jur":8643,"##ary":8644,"Iglesias":8645,"rival":8646,"##ony":8647,"old":8648,"Bur":8649,"transpar":8650,"mtvlafandomjuliantina":8651,"Basta":8652,"pud":8653,"madrugada":8654,"##jsj":8655,"##entemente":8656,"##idó":8657,"mtvlaparejajuliantina":8658,"Ojala":8659,"Martin":8660,"Depor":8661,"Top":8662,"velo":8663,"Harry":8664,"presión":8665,"Mill":8666,"comprome":8667,"circ":8668,"alas":8669,"arroz":8670,"IT":8671,"##orio":8672,"##amar":8673,"##23":8674,"giras":8675,"china":8676,"##quitos":8677,"magn":8678,"prevención":8679,"culia":8680,"hot":8681,"##sito":8682,"cultural":8683,"nal":8684,"pequeños":8685,"discri":8686,"tl":8687,"self":8688,"mila":8689,"friend":8690,"##uestas":8691,"mtvlafandomjuliantinafans":8692,"nove":8693,"##pio":8694,"##gether":8695,"melo":8696,"##hib":8697,"fantasma":8698,"damos":8699,"box":8700,"aviso":8701,"##íz":8702,"convers":8703,"satis":8704,"clos":8705,"asesino":8706,"put":8707,"MADRE":8708,"quedé":8709,"Za":8710,"##ore":8711,"##rarse":8712,"pelea":8713,"superior":8714,"pessoa":8715,"43":8716,"##dicar":8717,"Primero":8718,"LES":8719,"juez":8720,"nen":8721,"##ól":8722,"construir":8723,"cura":8724,"ee":8725,"droga":8726,"comenzar":8727,"facultad":8728,"Play":8729,"monó":8730,"##ritu":8731,"alzada":8732,"##iros":8733,"Diario":8734,"##donos":8735,"claramente":8736,"vuelven":8737,"AT":8738,"Riv":8739,"##deces":8740,"long":8741,"seis":8742,"##eropuerto":8743,"##ports":8744,"lavar":8745,"FAL":8746,"Rev":8747,"més":8748,"unfollowed":8749,"Sigo":8750,"MAM":8751,"turno":8752,"##yes":8753,"POL":8754,"aver":8755,"Rodri":8756,"two":8757,"efecto":8758,"descanso":8759,"estaremos":8760,"protesta":8761,"##itat":8762,"instituciones":8763,"##fr":8764,"Falta":8765,"##olazo":8766,"punta":8767,"aureola":8768,"##yyy":8769,"master":8770,"##iness":8771,"expec":8772,"artistas":8773,"fuertes":8774,"##fía":8775,"everyone":8776,"##nal":8777,"##cimientos":8778,"acord":8779,"Andrés":8780,"power":8781,"adap":8782,"##erba":8783,"##tición":8784,"producto":8785,"vivimos":8786,"particular":8787,"mega":8788,"sana":8789,"mereces":8790,"respetar":8791,"refi":8792,"demuestra":8793,"premi":8794,"González":8795,"putas":8796,"jimin":8797,"wal":8798,"estima":8799,"anci":8800,"relaciones":8801,"oferta":8802,"oficina":8803,"competi":8804,"##bs":8805,"Tanto":8806,"fracaso":8807,"Grupo":8808,"acaso":8809,"Cel":8810,"Obvio":8811,"##tias":8812,"ordenador":8813,"Agu":8814,"poten":8815,"##teles":8816,"gonna":8817,"dispar":8818,"ficar":8819,"bicicleta":8820,"##MAS":8821,"##vs":8822,"publicado":8823,"##ientas":8824,"soon":8825,"decirte":8826,"enseñar":8827,"Duque":8828,"diez":8829,"##bieron":8830,"maduro":8831,"trump":8832,"gratui":8833,"tome":8834,"Haz":8835,"##gaste":8836,"##game":8837,"tera":8838,"mej":8839,"##dra":8840,"MIL":8841,"##emb":8842,"entro":8843,"millón":8844,"##ash":8845,"##cá":8846,"Sep":8847,"##ehyung":8848,"elección":8849,"Recor":8850,"##OLA":8851,"orien":8852,"mato":8853,"vieron":8854,"JAJA":8855,"Jap":8856,"high":8857,"##celo":8858,"completamente":8859,"triunfo":8860,"parla":8861,"rechazo":8862,"God":8863,"##fob":8864,"bit":8865,"contestar":8866,"JAJAJAJAJAJAJA":8867,"conflic":8868,"##pain":8869,"gatos":8870,"Educación":8871,"solos":8872,"44":8873,"coun":8874,"comunista":8875,"recibe":8876,"jejeje":8877,"##ALE":8878,"##ert":8879,"echo":8880,"##ezamos":8881,"39":8882,"num":8883,"##zing":8884,"##ché":8885,"cartel":8886,"delicios":8887,"concl":8888,"Emil":8889,"firma":8890,"Fre":8891,"diseño":8892,"gobiernos":8893,"horror":8894,"coming":8895,"aguanto":8896,"champions":8897,"descen":8898,"jubi":8899,"DÍA":8900,"##ural":8901,"##low":8902,"##ason":8903,"##ierno":8904,"##body":8905,"Queremos":8906,"##jitos":8907,"Defini":8908,"##riana":8909,"aí":8910,"habil":8911,"##lenge":8912,"tô":8913,"física":8914,"vecino":8915,"vent":8916,"oye":8917,"FELIZ":8918,"dió":8919,"remo":8920,"Vale":8921,"##bara":8922,"gobernador":8923,"Alemania":8924,"tranquil":8925,"atro":8926,"monóculo":8927,"##far":8928,"Estar":8929,"inep":8930,"incor":8931,"##AJJA":8932,"permiso":8933,"regalar":8934,"Justo":8935,"Ál":8936,"registra":8937,"Aires":8938,"##RR":8939,"Wal":8940,"puertas":8941,"met":8942,"##zla":8943,"Chávez":8944,"identif":8945,"iguales":8946,"retro":8947,"##dencias":8948,"acaban":8949,"##come":8950,"reconocimiento":8951,"parecido":8952,"cc":8953,"pidió":8954,"PM":8955,"Increíble":8956,"zapa":8957,"##cadas":8958,"Salvador":8959,"tuviera":8960,"Europe":8961,"Felipe":8962,"voluntad":8963,"cadena":8964,"GENTE":8965,"cute":8966,"##ñez":8967,"nombres":8968,"##olog":8969,"##cidas":8970,"vayas":8971,"invita":8972,"pasos":8973,"##FE":8974,"Panamá":8975,"vueltas":8976,"manga":8977,"compor":8978,"##istes":8979,"industria":8980,"invent":8981,"humana":8982,"eras":8983,"boludo":8984,"##kd":8985,"generar":8986,"trai":8987,"##pto":8988,"##lín":8989,"tér":8990,"maldita":8991,"posibilidad":8992,"thro":8993,"##CHE":8994,"##ENTA":8995,"desn":8996,"trato":8997,"directamente":8998,"pop":8999,"CUANDO":9000,"semi":9001,"Ministerio":9002,"responsables":9003,"lectura":9004,"call":9005,"alarma":9006,"ojala":9007,"Consejo":9008,"emocional":9009,"##erna":9010,"estaré":9011,"propuestas":9012,"Costa":9013,"conocimiento":9014,"pasen":9015,"encuesta":9016,"llegando":9017,"comentar":9018,"dig":9019,"##idade":9020,"moment":9021,"comercial":9022,"iglesia":9023,"##ilar":9024,"usan":9025,"rea":9026,"manipu":9027,"ESTÁ":9028,"incomp":9029,"Bet":9030,"uds":9031,"regresar":9032,"dream":9033,"##graph":9034,"actos":9035,"##led":9036,"tempo":9037,"ye":9038,"contac":9039,"Sergio":9040,"falsa":9041,"##ctima":9042,"inver":9043,"##oyo":9044,"##EP":9045,"anime":9046,"AMOR":9047,"##IP":9048,"suyo":9049,"bloqueo":9050,"privada":9051,"LIN":9052,"nube":9053,"colum":9054,"cabron":9055,"Caracas":9056,"##uk":9057,"rever":9058,"abus":9059,"Entra":9060,"aguantar":9061,"SH":9062,"harta":9063,"bibl":9064,"##ité":9065,"##partamento":9066,"ritmo":9067,"desemp":9068,"##time":9069,"##año":9070,"arbit":9071,"test":9072,"anos":9073,"Bolivia":9074,"##monos":9075,"tremenda":9076,"Totalmente":9077,"destro":9078,"CHA":9079,"mostrador":9080,"agarrar":9081,"##identes":9082,"Please":9083,"maldito":9084,"lindos":9085,"semestre":9086,"doing":9087,"frases":9088,"disfruta":9089,"maravilla":9090,"##ionar":9091,"pensado":9092,"comparto":9093,"fraude":9094,"hap":9095,"##ulos":9096,"expos":9097,"Pd":9098,"caminando":9099,"colectivo":9100,"feria":9101,"##ñal":9102,"bolude":9103,"##udia":9104,"participa":9105,"episodio":9106,"chupa":9107,"temporar":9108,"maravilloso":9109,"apoya":9110,"presupuesto":9111,"Algún":9112,"##JE":9113,"edu":9114,"correo":9115,"Demo":9116,"pases":9117,"inversión":9118,"aho":9119,"simil":9120,"ciclo":9121,"primo":9122,"##dero":9123,"tatua":9124,"ilu":9125,"desayun":9126,"DIC":9127,"tuits":9128,"tipos":9129,"##imiento":9130,"trendy":9131,"##ENCIA":9132,"bang":9133,"LLOR":9134,"veremos":9135,"ger":9136,"Actual":9137,"TIENE":9138,"Semana":9139,"Mag":9140,"pus":9141,"single":9142,"##chool":9143,"sacri":9144,"nam":9145,"Recuerda":9146,"Lla":9147,"Guaidó":9148,"NAD":9149,"Wow":9150,"invitamos":9151,"Mundo":9152,"hrs":9153,"Ministro":9154,"orgullosa":9155,"tap":9156,"activa":9157,"brutal":9158,"mean":9159,"emi":9160,"labios":9161,"jer":9162,"##irch":9163,"Dé":9164,"Imag":9165,"gab":9166,"estando":9167,"arena":9168,"ed":9169,"##tumbre":9170,"manejo":9171,"ór":9172,"hambur":9173,"##tter":9174,"paraguay":9175,"##cula":9176,"Edu":9177,"Moreno":9178,"Gi":9179,"Alf":9180,"47":9181,"Bil":9182,"víctima":9183,"afecta":9184,"##ani":9185,"hacerte":9186,"ultra":9187,"##ARIO":9188,"ghvi":9189,"##venido":9190,"##icanos":9191,"sexy":9192,"japon":9193,"those":9194,"vulner":9195,"Petro":9196,"##MX":9197,"abuso":9198,"##iten":9199,"##él":9200,"##pel":9201,"conejo":9202,"Policy":9203,"doctor":9204,"violates":9205,"Plata":9206,"##DU":9207,"exist":9208,"Sé":9209,"dela":9210,"mover":9211,"puente":9212,"desi":9213,"Ud":9214,"miercoles":9215,"secreto":9216,"breve":9217,"PD":9218,"Pel":9219,"Mayo":9220,"iP":9221,"Em":9222,"UU":9223,"dm":9224,"Retw":9225,"Has":9226,"dir":9227,"##capacidad":9228,"Hey":9229,"##60":9230,"letra":9231,"Norte":9232,"tóx":9233,"Tener":9234,"denunciar":9235,"##ulas":9236,"copas":9237,"##mart":9238,"##dada":9239,"REP":9240,"Municipal":9241,"GOO":9242,"plus":9243,"sospe":9244,"estudios":9245,"excusa":9246,"Tri":9247,"també":9248,"sevilla":9249,"mames":9250,"sentimiento":9251,"bendiciones":9252,"arreglar":9253,"tos":9254,"nefas":9255,"motiva":9256,"seguramente":9257,"tul":9258,"sabiendo":9259,"##viene":9260,"wit":9261,"tas":9262,"ilusión":9263,"rabia":9264,"festival":9265,"servir":9266,"pueblos":9267,"##manos":9268,"Puedes":9269,"cance":9270,"aprox":9271,"oso":9272,"##ático":9273,"entrenador":9274,"histórico":9275,"enca":9276,"ranking":9277,"##maria":9278,"##citos":9279,"##ÃO":9280,"chance":9281,"clientes":9282,"Cho":9283,"zap":9284,"##teriores":9285,"comunica":9286,"legisla":9287,"tigre":9288,"JUS":9289,"##verpool":9290,"amooo":9291,"##guer":9292,"lujo":9293,"alegra":9294,"accidente":9295,"temporarily":9296,"once":9297,"##andal":9298,"pisto":9299,"actor":9300,"físico":9301,"##taste":9302,"impunidad":9303,"jungkook":9304,"regis":9305,"##cano":9306,"under":9307,"Econ":9308,"pér":9309,"##exual":9310,"##ats":9311,"bendiga":9312,"absur":9313,"##arada":9314,"##ánd":9315,"abrazos":9316,"falla":9317,"##uesto":9318,"##cres":9319,"HACE":9320,"infierno":9321,"intens":9322,"Veo":9323,"##amentos":9324,"unavailable":9325,"Ren":9326,"Sería":9327,"centros":9328,"cnco":9329,"##ION":9330,"IM":9331,"cortar":9332,"empresarios":9333,"espacios":9334,"stra":9335,"##axa":9336,"Let":9337,"miro":9338,"argumentos":9339,"elim":9340,"hincha":9341,"Sábado":9342,"##IOS":9343,"Tiempo":9344,"definitivamente":9345,"CC":9346,"defiende":9347,"##ments":9348,"##eada":9349,"##irchner":9350,"gastar":9351,"wanna":9352,"sumar":9353,"Gas":9354,"conoces":9355,"girasol":9356,"BB":9357,"##aría":9358,"Partido":9359,"##IÓN":9360,"##iles":9361,"##rina":9362,"aclar":9363,"crecimiento":9364,"cuales":9365,"##enten":9366,"ultima":9367,"##rino":9368,"read":9369,"lon":9370,"vaso":9371,"vestido":9372,"##ismos":9373,"##ribir":9374,"inco":9375,"##CES":9376,"judicial":9377,"imple":9378,"conocen":9379,"Central":9380,"##od":9381,"afi":9382,"avance":9383,"electr":9384,"##vando":9385,"LPM":9386,"conferencia":9387,"acabó":9388,"##gem":9389,"caracter":9390,"dueño":9391,"avent":9392,"##íe":9393,"##desa":9394,"Spotify":9395,"ciudadano":9396,"espi":9397,"jul":9398,"Dice":9399,"ayudas":9400,"são":9401,"##lanes":9402,"VOY":9403,"##hout":9404,"intentando":9405,"##arnos":9406,"##eracruz":9407,"##vy":9408,"convir":9409,"##bos":9410,"carita":9411,"temb":9412,"##frica":9413,"chino":9414,"fuese":9415,"Bat":9416,"##ética":9417,"resolver":9418,"##tendo":9419,"##DD":9420,"Var":9421,"abuelo":9422,"frun":9423,"suje":9424,"fondos":9425,"##mico":9426,"Amigo":9427,"concurso":9428,"##CAN":9429,"obses":9430,"##ladas":9431,"##atura":9432,"angus":9433,"##ástico":9434,"dam":9435,"PLA":9436,"espectacular":9437,"Fab":9438,"primeras":9439,"puedas":9440,"hipó":9441,"Internet":9442,"summer":9443,"Martínez":9444,"hijue":9445,"Apar":9446,"regla":9447,"Gusta":9448,"dynamite":9449,"Rusia":9450,"supi":9451,"Pra":9452,"firme":9453,"podrán":9454,"HERMOS":9455,"continuar":9456,"masco":9457,"Nicolás":9458,"UP":9459,"NUES":9460,"##jsja":9461,"##MENTE":9462,"formar":9463,"infantil":9464,"ganando":9465,"##pecial":9466,"##dedores":9467,"Ahhh":9468,"ángel":9469,"##cau":9470,"##rie":9471,"opciones":9472,"##gara":9473,"hamburgues":9474,"Maria":9475,"##tren":9476,"hero":9477,"##reas":9478,"cohe":9479,"Corte":9480,"plataforma":9481,"##zgo":9482,"Indepen":9483,"##GE":9484,"Lunes":9485,"megá":9486,"netflix":9487,"2013":9488,"World":9489,"everything":9490,"##mej":9491,"lider":9492,"Div":9493,"extrañ":9494,"##ezan":9495,"Polí":9496,"apos":9497,"líderes":9498,"evolución":9499,"##rama":9500,"ceño":9501,"Leo":9502,"miembros":9503,"retras":9504,"##tell":9505,"despierto":9506,"Atención":9507,"EMP":9508,"diputado":9509,"ft":9510,"cuaderno":9511,"##28":9512,"escal":9513,"FINAL":9514,"llamo":9515,"podcast":9516,"James":9517,"megáfono":9518,"Mur":9519,"cs":9520,"ignorante":9521,"alv":9522,"europa":9523,"together":9524,"ganador":9525,"organización":9526,"bienestar":9527,"juan":9528,"Habla":9529,"prime":9530,"##estima":9531,"dedic":9532,"ques":9533,"##memo":9534,"santo":9535,"ultimo":9536,"TODA":9537,"pasaba":9538,"##alucía":9539,"##mix":9540,"Il":9541,"exactamente":9542,"Santo":9543,"##viles":9544,"##gers":9545,"Alejandro":9546,"Resul":9547,"ciudadanía":9548,"##GUN":9549,"Noticias":9550,"diablo":9551,"##NO":9552,"Patria":9553,"Lee":9554,"deportiva":9555,"##ingos":9556,"##rios":9557,"##terra":9558,"##todos":9559,"propósito":9560,"pur":9561,"oper":9562,"##EMOS":9563,"line":9564,"##posa":9565,"mons":9566,"##andra":9567,"##lara":9568,"choice":9569,"princesa":9570,"Españ":9571,"epi":9572,"Leon":9573,"lanz":9574,"##jud":9575,"pelotudos":9576,"MIERDA":9577,"##ence":9578,"tenis":9579,"##ely":9580,"facebook":9581,"##olas":9582,"DT":9583,"fren":9584,"sencillo":9585,"mandan":9586,"estrés":9587,"sun":9588,"Sala":9589,"family":9590,"Dicen":9591,"##TAD":9592,"##cher":9593,"Bos":9594,"##26":9595,"##thers":9596,"##temos":9597,"pelu":9598,"##ívar":9599,"ponerse":9600,"enti":9601,"##ecé":9602,"sienten":9603,"##GUE":9604,"socio":9605,"colaboración":9606,"venden":9607,"##dicional":9608,"Álvar":9609,"##taro":9610,"edificio":9611,"beneficio":9612,"difundir":9613,"confor":9614,"compre":9615,"Serv":9616,"izquier":9617,"concre":9618,"empe":9619,"##MAN":9620,"chau":9621,"parcial":9622,"provoca":9623,"##quista":9624,"sobra":9625,"##jita":9626,"##pat":9627,"##ónico":9628,"despierta":9629,"importar":9630,"gimnas":9631,"quise":9632,"##fic":9633,"##fortun":9634,"copi":9635,"quar":9636,"consumo":9637,"beber":9638,"mind":9639,"revolución":9640,"cansa":9641,"negar":9642,"##eld":9643,"colabora":9644,"##27":9645,"Contin":9646,"INS":9647,"sentí":9648,"Angel":9649,"##ángulo":9650,"competencia":9651,"##viste":9652,"LOVE":9653,"lástima":9654,"Franco":9655,"##ciado":9656,"MON":9657,"beneficios":9658,"away":9659,"quejar":9660,"encuentran":9661,"llevó":9662,"gano":9663,"Rafael":9664,"ang":9665,"Ala":9666,"##untamiento":9667,"ciudades":9668,"alegro":9669,"SOY":9670,"Wey":9671,"tendremos":9672,"presidencial":9673,"65":9674,"bill":9675,"head":9676,"estru":9677,"##kaka":9678,"THIS":9679,"tocó":9680,"aprende":9681,"##play":9682,"árbit":9683,"hecha":9684,"##cess":9685,"quedarme":9686,"quiso":9687,"audiencia":9688,"Off":9689,"japonés":9690,"150":9691,"caen":9692,"estupidez":9693,"sede":9694,"MV":9695,"zur":9696,"pana":9697,"entendí":9698,"##alloween":9699,"##IAN":9700,"chef":9701,"transmisión":9702,"retw":9703,"##guenza":9704,"46":9705,"##dea":9706,"inseguridad":9707,"levanto":9708,"##CL":9709,"limpiar":9710,"##enti":9711,"Lan":9712,"##ário":9713,"confiar":9714,"Deus":9715,"león":9716,"cuida":9717,"Termin":9718,"Bay":9719,"enfo":9720,"joy":9721,"Dejen":9722,"empleados":9723,"Uy":9724,"##ward":9725,"##camos":9726,"habéis":9727,"##ute":9728,"haha":9729,"happen":9730,"49":9731,"DEJ":9732,"##ERON":9733,"##ione":9734,"rap":9735,"##ICOS":9736,"perrito":9737,"caras":9738,"eterno":9739,"sit":9740,"lot":9741,"desma":9742,"##roid":9743,"aguante":9744,"candidatos":9745,"cliente":9746,"municipal":9747,"esquina":9748,"##ating":9749,"VAR":9750,"permit":9751,"##ollón":9752,"debut":9753,"detalle":9754,"Definitivamente":9755,"##ísticas":9756,"##bano":9757,"argentinos":9758,"AG":9759,"##oral":9760,"##ism":9761,"##gena":9762,"Comisión":9763,"mana":9764,"usuarios":9765,"gasto":9766,"subs":9767,"consejo":9768,"miren":9769,"mantiene":9770,"asesinos":9771,"##laga":9772,"huellas":9773,"Ramos":9774,"logro":9775,"##lético":9776,"Encu":9777,"##ele":9778,"JAJAJAJ":9779,"##morrow":9780,"##of":9781,"ofrece":9782,"queriendo":9783,"##icardo":9784,"aplicar":9785,"Your":9786,"##rendo":9787,"##ili":9788,"##CIAL":9789,"Tienen":9790,"kids":9791,"fundamental":9792,"York":9793,"preocupada":9794,"MY":9795,"muriendo":9796,"toman":9797,"ído":9798,"Llevo":9799,"papás":9800,"Díaz":9801,"##drán":9802,"estudiando":9803,"sonre":9804,"##enses":9805,"800":9806,"dame":9807,"##sp":9808,"REAL":9809,"pilo":9810,"evid":9811,"cuentan":9812,"alcanza":9813,"gloria":9814,"confinamiento":9815,"entrenar":9816,"##amb":9817,"haré":9818,"##ístico":9819,"engan":9820,"cdmx":9821,"##tyle":9822,"morning":9823,"trabajan":9824,"mtvlaic":9825,"infra":9826,"season":9827,"vuestra":9828,"compu":9829,"juegan":9830,"ghvip":9831,"##ties":9832,"recom":9833,"puestos":9834,"triángulo":9835,"##ólogo":9836,"nervios":9837,"cómpl":9838,"guitarra":9839,"OMG":9840,"apoyando":9841,"calma":9842,"INTER":9843,"porta":9844,"pica":9845,"Clas":9846,"##guiendo":9847,"Why":9848,"##males":9849,"##decer":9850,"##iesta":9851,"respir":9852,"##arla":9853,"##pal":9854,"NUEVO":9855,"##oman":9856,"acho":9857,"##jón":9858,"cobra":9859,"nicaragua":9860,"##rial":9861,"##guar":9862,"inútil":9863,"todavia":9864,"month":9865,"unión":9866,"eventos":9867,"cuello":9868,"quedaron":9869,"letras":9870,"Descu":9871,"enfermo":9872,"##oni":9873,"##vias":9874,"prove":9875,"soñar":9876,"##tara":9877,"##unya":9878,"cerrada":9879,"##LL":9880,"##vision":9881,"COS":9882,"since":9883,"##tim":9884,"plazo":9885,"Quin":9886,"fechas":9887,"mt":9888,"dieta":9889,"Today":9890,"Guad":9891,"dire":9892,"##lite":9893,"ayudan":9894,"seguido":9895,"lives":9896,"arrancar":9897,"abri":9898,"##yente":9899,"FM":9900,"##vadas":9901,"sto":9902,"##deras":9903,"llevamos":9904,"##cilla":9905,"pieza":9906,"salvo":9907,"arrep":9908,"arrepen":9909,"##DS":9910,"olvides":9911,"ech":9912,"vamo":9913,"Consul":9914,"estreno":9915,"complicado":9916,"gent":9917,"decían":9918,"propios":9919,"fuimos":9920,"cicl":9921,"BAN":9922,"portá":9923,"impacto":9924,"##fan":9925,"locales":9926,"cle":9927,"##HAT":9928,"##JOS":9929,"medicina":9930,"guys":9931,"Cat":9932,"##lique":9933,"vel":9934,"Rosario":9935,"ces":9936,"Follow":9937,"gradu":9938,"tio":9939,"tuvieron":9940,"##axaca":9941,"HACER":9942,"dí":9943,"##EA":9944,"alrededor":9945,"##bados":9946,"ONU":9947,"latino":9948,"##cés":9949,"drogas":9950,"Mexic":9951,"Tig":9952,"escuchado":9953,"promes":9954,"cumplen":9955,"Not":9956,"dr":9957,"Venga":9958,"Lucas":9959,"Tres":9960,"genio":9961,"py":9962,"energ":9963,"despre":9964,"hinchas":9965,"Pun":9966,"lleve":9967,"Boy":9968,"costumbre":9969,"términ":9970,"##AJO":9971,"ambas":9972,"56":9973,"feminismo":9974,"Jor":9975,"dijiste":9976,"mc":9977,"distra":9978,"pelotas":9979,"Are":9980,"cafe":9981,"##tugal":9982,"escenario":9983,"zonas":9984,"fueran":9985,"##igna":9986,"metas":9987,"Esas":9988,"preguntan":9989,"feminista":9990,"preparado":9991,"quedas":9992,"conex":9993,"galle":9994,"##recto":9995,"##tty":9996,"##unny":9997,"Bab":9998,"vergon":9999,"##tain":10000,"cocinar":10001,"##29":10002,"which":10003,"ventana":10004,"empu":10005,"intención":10006,"quemar":10007,"OL":10008,"ruido":10009,"Jung":10010,"aprovechar":10011,"ear":10012,"guardia":10013,"inci":10014,"abogado":10015,"alqui":10016,"abiertas":10017,"URG":10018,"PON":10019,"camion":10020,"Literal":10021,"##tancias":10022,"cagada":10023,"Bad":10024,"Peña":10025,"Fuerza":10026,"intern":10027,"##uerte":10028,"sensa":10029,"rut":10030,"while":10031,"##poche":10032,"done":10033,"Luna":10034,"##TV":10035,"torta":10036,"##IF":10037,"salieron":10038,"##tralia":10039,"Cristiano":10040,"Pensé":10041,"NADIE":10042,"##oradas":10043,"aper":10044,"##orable":10045,"decirlo":10046,"Seguridad":10047,"bras":10048,"asombrada":10049,"Louis":10050,"##ists":10051,"##dol":10052,"Pien":10053,"##íritu":10054,"Jose":10055,"Aaaa":10056,"##ISMO":10057,"ana":10058,"raza":10059,"##ST":10060,"Institu":10061,"boluda":10062,"enferma":10063,"Llu":10064,"metros":10065,"faltar":10066,"##pris":10067,"2000":10068,"miserable":10069,"figura":10070,"##tat":10071,"Jack":10072,"reales":10073,"tetas":10074,"Live":10075,"Bi":10076,"Exacto":10077,"##icky":10078,"Jamás":10079,"##gt":10080,"##dillas":10081,"contexto":10082,"fic":10083,"Llor":10084,"macri":10085,"##mpe":10086,"GOL":10087,"juventud":10088,"guardar":10089,"llevas":10090,"hear":10091,"rein":10092,"##ymar":10093,"Aus":10094,"##gera":10095,"Parque":10096,"Tranqui":10097,"##ARON":10098,"crítica":10099,"Hora":10100,"wacho":10101,"PERS":10102,"##raron":10103,"Fil":10104,"alar":10105,"gracioso":10106,"through":10107,"salgan":10108,"##ético":10109,"Paul":10110,"##ícula":10111,"mande":10112,"utilizar":10113,"artic":10114,"NOOO":10115,"lead":10116,"Prin":10117,"600":10118,"##titas":10119,"EP":10120,"Civil":10121,"kill":10122,"Disney":10123,"Ante":10124,"enserio":10125,"tax":10126,"llegaron":10127,"chingo":10128,"id":10129,"revista":10130,"enlace":10131,"CDMX":10132,"ph":10133,"find":10134,"wow":10135,"exigir":10136,"Pueblo":10137,"##CRI":10138,"deser":10139,"IR":10140,"gilipollas":10141,"Cuanto":10142,"amenaza":10143,"##terrey":10144,"Espera":10145,"Puedo":10146,"jode":10147,"##CIO":10148,"Metro":10149,"bala":10150,"Now":10151,"Jornada":10152,"##ming":10153,"impac":10154,"##REC":10155,"##undar":10156,"listen":10157,"fala":10158,"Jim":10159,"excel":10160,"bolivia":10161,"divertido":10162,"##pois":10163,"posted":10164,"decidir":10165,"##AC":10166,"##ditas":10167,"##ctora":10168,"depresión":10169,"enemigo":10170,"ital":10171,"##orro":10172,"vuestro":10173,"##ın":10174,"salario":10175,"comienzo":10176,"change":10177,"##AT":10178,"distinto":10179,"rumbo":10180,"espejo":10181,"asustada":10182,"##ISTAS":10183,"stic":10184,"mascarillas":10185,"Vie":10186,"Amazon":10187,"internacionales":10188,"adecu":10189,"jal":10190,"95":10191,"hit":10192,"getting":10193,"lor":10194,"Sebas":10195,"MES":10196,"Calder":10197,"públicas":10198,"escor":10199,"salí":10200,"Gir":10201,"##mpia":10202,"##guila":10203,"##hot":10204,"inm":10205,"critica":10206,"##quel":10207,"##real":10208,"profesores":10209,"Bru":10210,"sanitaria":10211,"eslab":10212,"##tely":10213,"compañera":10214,"desen":10215,"59":10216,"encantan":10217,"normalidad":10218,"prox":10219,"lágrimas":10220,"cambiado":10221,"costo":10222,"dormido":10223,"empollón":10224,"Rosa":10225,"Vox":10226,"ATEN":10227,"America":10228,"##TF":10229,"PRIM":10230,"hicimos":10231,"trop":10232,"matan":10233,"ajena":10234,"SOS":10235,"##chita":10236,"ate":10237,"destruir":10238,"olvide":10239,"desaf":10240,"Contra":10241,"portátil":10242,"mg":10243,"positivos":10244,"Cualquier":10245,"Abrazo":10246,"ready":10247,"Info":10248,"playlist":10249,"tratamiento":10250,"Like":10251,"##urt":10252,"##dian":10253,"MUCH":10254,"##jara":10255,"sure":10256,"##view":10257,"paciente":10258,"##pping":10259,"sigues":10260,"matando":10261,"caos":10262,"regular":10263,"urib":10264,"rema":10265,"levante":10266,"data":10267,"##bus":10268,"##eah":10269,"MUNDO":10270,"conjunto":10271,"Cristo":10272,"extrema":10273,"caída":10274,"Pap":10275,"Roberto":10276,"##bada":10277,"##izó":10278,"harry":10279,"mueve":10280,"##quín":10281,"differ":10282,"enfrenta":10283,"190":10284,"autoridad":10285,"##chito":10286,"2012":10287,"ine":10288,"##tly":10289,"Ko":10290,"alien":10291,"##naval":10292,"UE":10293,"##nie":10294,"controlar":10295,"joa":10296,"##lá":10297,"impon":10298,"villa":10299,"##fit":10300,"around":10301,"##viar":10302,"portada":10303,"desayuno":10304,"aña":10305,"aisla":10306,"fb":10307,"eslabón":10308,"Oscar":10309,"##tades":10310,"HORA":10311,"##traron":10312,"##diz":10313,"##ándote":10314,"descansar":10315,"##ínate":10316,"##cinas":10317,"##ván":10318,"JAJAJAJAJAJAJ":10319,"health":10320,"llegada":10321,"sanitario":10322,"resumen":10323,"##corro":10324,"Vio":10325,"##puestos":10326,"impro":10327,"bonitas":10328,"inspi":10329,"##fici":10330,"sirven":10331,"exclusi":10332,"testi":10333,"coma":10334,"papi":10335,"fc":10336,"indí":10337,"unir":10338,"jueces":10339,"estra":10340,"Some":10341,"viajes":10342,"texto":10343,"##atra":10344,"comunistas":10345,"asunto":10346,"deportivo":10347,"##hyun":10348,"gam":10349,"pego":10350,"demais":10351,"yourself":10352,"callar":10353,"demonio":10354,"consigo":10355,"ambien":10356,"Rico":10357,"Chu":10358,"motivos":10359,"supongo":10360,"##colo":10361,"See":10362,"##MBRE":10363,"culpable":10364,"fur":10365,"##wh":10366,"##pers":10367,"situaciones":10368,"##yas":10369,"Yes":10370,"Hemos":10371,"alcanzar":10372,"impresionante":10373,"semej":10374,"benefici":10375,"gráfica":10376,"##antos":10377,"rar":10378,"57":10379,"mtvlaicono":10380,"break":10381,"##ijo":10382,"sectores":10383,"levanta":10384,"ty":10385,"comes":10386,"atacar":10387,"indign":10388,"##ricul":10389,"##jena":10390,"gritar":10391,"vaquero":10392,"reca":10393,"aburrido":10394,"hubieran":10395,"Far":10396,"últimamente":10397,"asal":10398,"sober":10399,"PUEDE":10400,"SOR":10401,"DOS":10402,"tex":10403,"concepto":10404,"logo":10405,"##itu":10406,"empiezan":10407,"autoestima":10408,"jaj":10409,"residen":10410,"42":10411,"VOL":10412,"date":10413,"trabal":10414,"League":10415,"Bl":10416,"##caba":10417,"##tanos":10418,"Equi":10419,"alu":10420,"empiezo":10421,"práctica":10422,"aument":10423,"olvidado":10424,"obviamente":10425,"whatsapp":10426,"Azul":10427,"AÑOS":10428,"Rock":10429,"gr":10430,"latin":10431,"##turo":10432,"Latino":10433,"Cuen":10434,"amigui":10435,"Asamblea":10436,"##pora":10437,"fuente":10438,"city":10439,"podés":10440,"sentar":10441,"beren":10442,"##visa":10443,"dará":10444,"ingreso":10445,"limpieza":10446,"prom":10447,"vencer":10448,"eliminar":10449,"Ufff":10450,"gestion":10451,"sientes":10452,"tern":10453,"Tampoco":10454,"amores":10455,"##80":10456,"TAM":10457,"Carmen":10458,"Só":10459,"colap":10460,"columna":10461,"cigar":10462,"pelear":10463,"desperté":10464,"inmun":10465,"aeropuerto":10466,"##unal":10467,"cover":10468,"contagio":10469,"italia":10470,"paral":10471,"Necesitamos":10472,"respeta":10473,"league":10474,"##YY":10475,"escuelas":10476,"##radas":10477,"##CIONAL":10478,"jardín":10479,"levantarme":10480,"##tua":10481,"interro":10482,"##fra":10483,"aspec":10484,"##100":10485,"VAL":10486,"perse":10487,"guay":10488,"osea":10489,"##jam":10490,"##gr":10491,"fli":10492,"##SH":10493,"##sss":10494,"precioso":10495,"##grá":10496,"laburo":10497,"tendrán":10498,"comenta":10499,"acre":10500,"comparte":10501,"Tro":10502,"traje":10503,"##ils":10504,"another":10505,"##isima":10506,"fruncido":10507,"mejora":10508,"youre":10509,"dime":10510,"EM":10511,"Bolsonaro":10512,"cohete":10513,"silla":10514,"TENGO":10515,"REG":10516,"kind":10517,"##2017":10518,"infancia":10519,"limi":10520,"salsa":10521,"##iendas":10522,"##ASE":10523,"BOL":10524,"existencia":10525,"Programa":10526,"tulip":10527,"cierra":10528,"wtf":10529,"santiago":10530,"amanecer":10531,"sín":10532,"bil":10533,"##arado":10534,"Ricardo":10535,"##etos":10536,"ment":10537,"##pongo":10538,"escla":10539,"Liverpool":10540,"neur":10541,"qe":10542,"name":10543,"declaraciones":10544,"categoría":10545,"camión":10546,"##TION":10547,"fit":10548,"concer":10549,"##une":10550,"morena":10551,"Chan":10552,"apretón":10553,"adultos":10554,"Vamo":10555,"Cuar":10556,"Patr":10557,"necesitaba":10558,"crédito":10559,"Glo":10560,"Ki":10561,"bac":10562,"pasas":10563,"place":10564,"##tez":10565,"start":10566,"Sue":10567,"estarán":10568,"ratito":10569,"##crí":10570,"oc":10571,"Rt":10572,"##tega":10573,"Comer":10574,"Mos":10575,"bañar":10576,"##wards":10577,"respira":10578,"wish":10579,"Aqui":10580,"famoso":10581,"intervención":10582,"hermosas":10583,"##minar":10584,"##ondo":10585,"hipócri":10586,"##ándolo":10587,"Our":10588,"estad":10589,"investigar":10590,"##ota":10591,"queja":10592,"##bert":10593,"##olla":10594,"dal":10595,"Quisiera":10596,"##zana":10597,"merda":10598,"##UELA":10599,"##aylor":10600,"cuantas":10601,"group":10602,"Victoria":10603,"entreten":10604,"explicación":10605,"##máticas":10606,"Every":10607,"More":10608,"fight":10609,"bús":10610,"##leep":10611,"Lamentable":10612,"nación":10613,"MD":10614,"##LES":10615,"soluciones":10616,"origen":10617,"tonta":10618,"terren":10619,"##grado":10620,"recuperación":10621,"deli":10622,"##américa":10623,"fich":10624,"Mmmm":10625,"##genas":10626,"Río":10627,"coopera":10628,"ladrones":10629,"##calley":10630,"Cri":10631,"without":10632,"against":10633,"##dom":10634,"lanza":10635,"##the":10636,"VENEZ":10637,"Cole":10638,"previa":10639,"##vana":10640,"cifras":10641,"Partici":10642,"comunicado":10643,"convo":10644,"manejar":10645,"DD":10646,"##oool":10647,"dad":10648,"perdida":10649,"##OSO":10650,"##boy":10651,"youtube":10652,"status":10653,"duerme":10654,"Debe":10655,"popul":10656,"domingos":10657,"yan":10658,"asesinato":10659,"Algunos":10660,"##verse":10661,"pc":10662,"air":10663,"Cataluña":10664,"adiós":10665,"HOR":10666,"방탄":10667,"##tano":10668,"vete":10669,"volví":10670,"Fui":10671,"##yor":10672,"Invi":10673,"believe":10674,"artes":10675,"bui":10676,"Guerra":10677,"america":10678,"territorio":10679,"Lima":10680,"hib":10681,"OB":10682,"##orra":10683,"TL":10684,"milit":10685,"siete":10686,"##diar":10687,"##liam":10688,"##liga":10689,"jugada":10690,"apel":10691,"Ayyy":10692,"podéis":10693,"arries":10694,"tirando":10695,"fora":10696,"tráfico":10697,"##lán":10698,"imbe":10699,"tó":10700,"banca":10701,"quema":10702,"41":10703,"mentiroso":10704,"true":10705,"##vamos":10706,"perfor":10707,"##FK":10708,"##sung":10709,"vdd":10710,"money":10711,"curios":10712,"función":10713,"Castro":10714,"Obra":10715,"HASTA":10716,"parlante":10717,"mtvlaiconocalley":10718,"semb":10719,"guap":10720,"demues":10721,"tranquilidad":10722,"Año":10723,"remember":10724,"sano":10725,"##gla":10726,"##TROS":10727,"contribu":10728,"HIS":10729,"títulos":10730,"MUCHO":10731,"expertos":10732,"Big":10733,"sindic":10734,"talk":10735,"##yeron":10736,"##ÍS":10737,"##fc":10738,"fing":10739,"##ência":10740,"dá":10741,"garantizar":10742,"encantaría":10743,"evidencia":10744,"JUE":10745,"already":10746,"tulipán":10747,"institución":10748,"pato":10749,"imbécil":10750,"Dol":10751,"Fra":10752,"Gabriel":10753,"DU":10754,"##gias":10755,"jugue":10756,"##reta":10757,"Joder":10758,"ajus":10759,"principios":10760,"Len":10761,"##ganda":10762,"adoro":10763,"intent":10764,"deseos":10765,"depri":10766,"gif":10767,"##jame":10768,"##íso":10769,"opinar":10770,"vuelo":10771,"Ps":10772,"demanda":10773,"Rio":10774,"reir":10775,"##gadas":10776,"caballo":10777,"54":10778,"##ADAS":10779,"principales":10780,"fallecidos":10781,"federal":10782,"libertadores":10783,"Ade":10784,"dudo":10785,"##rilla":10786,"Rivera":10787,"85":10788,"modi":10789,"try":10790,"latest":10791,"debajo":10792,"##ou":10793,"prisión":10794,"pense":10795,"defendiendo":10796,"argumento":10797,"##telo":10798,"##ents":10799,"emociones":10800,"Fun":10801,"##metro":10802,"personalidad":10803,"socialismo":10804,"Realmente":10805,"darse":10806,"amazing":10807,"ocho":10808,"sof":10809,"##ÍAS":10810,"boa":10811,"pea":10812,"##ática":10813,"salimos":10814,"Aprove":10815,"imaginan":10816,"exitos":10817,"##uerzo":10818,"##ALA":10819,"estáis":10820,"agradece":10821,"PUEDO":10822,"##vencia":10823,"##www":10824,"Retweet":10825,"repente":10826,"ende":10827,"actualidad":10828,"casualidad":10829,"FC":10830,"enferme":10831,"enamorar":10832,"máxima":10833,"##cusión":10834,"##kas":10835,"terra":10836,"Jimin":10837,"intro":10838,"verme":10839,"QUIEN":10840,"Bravo":10841,"terminan":10842,"ora":10843,"delitos":10844,"hid":10845,"decide":10846,"pasará":10847,"mafia":10848,"Banco":10849,"Suerte":10850,"seamos":10851,"campeonato":10852,"forever":10853,"subo":10854,"Festival":10855,"circo":10856,"acompaña":10857,"pastel":10858,"curr":10859,"alguém":10860,"marcar":10861,"VOX":10862,"##iu":10863,"##ísimos":10864,"Cin":10865,"crimen":10866,"##OOK":10867,"inn":10868,"aconte":10869,"brazo":10870,"pls":10871,"busco":10872,"OR":10873,"##queda":10874,"berenjena":10875,"farma":10876,"Libertad":10877,"etique":10878,"##áles":10879,"pared":10880,"veas":10881,"Encima":10882,"cansado":10883,"58":10884,"ÚLTI":10885,"miseria":10886,"mutual":10887,"Gonz":10888,"fam":10889,"Inte":10890,"Nu":10891,"falar":10892,"ingeni":10893,"maf":10894,"pistola":10895,"gustaba":10896,"##nio":10897,"fico":10898,"poss":10899,"Alba":10900,"meloco":10901,"Bea":10902,"nacionales":10903,"##joon":10904,"dormí":10905,"Piñera":10906,"Trabajo":10907,"orgulloso":10908,"revolucion":10909,"##TIS":10910,"##ções":10911,"##ídos":10912,"ofrecer":10913,"ingles":10914,"femenino":10915,"quí":10916,"gustos":10917,"Cele":10918,"fen":10919,"conocí":10920,"sn":10921,"bye":10922,"##diza":10923,"Gustavo":10924,"##teria":10925,"estabas":10926,"jarra":10927,"##ómez":10928,"opiniones":10929,"mariposa":10930,"barato":10931,"protestas":10932,"ecu":10933,"Padre":10934,"contamos":10935,"distintos":10936,"##tarte":10937,"deus":10938,"sucede":10939,"novo":10940,"##PON":10941,"motor":10942,"estudiante":10943,"##verde":10944,"##tte":10945,"##ánico":10946,"Venezol":10947,"##bb":10948,"Gil":10949,"Hen":10950,"borrar":10951,"soft":10952,"##arial":10953,"SÍ":10954,"##vió":10955,"##pica":10956,"ganamos":10957,"Music":10958,"##MM":10959,"Poder":10960,"estuviera":10961,"Enrique":10962,"colombianos":10963,"53":10964,"thats":10965,"resuel":10966,"ml":10967,"afición":10968,"##board":10969,"##óno":10970,"aplicación":10971,"##ciando":10972,"velocidad":10973,"república":10974,"geno":10975,"putos":10976,"LG":10977,"##sopor":10978,"##sey":10979,"##quite":10980,"##dere":10981,"medias":10982,"##med":10983,"Ph":10984,"##bén":10985,"artist":10986,"##últi":10987,"class":10988,"iPhone":10989,"seguirá":10990,"kilos":10991,"Up":10992,"##fthe":10993,"sam":10994,"coher":10995,"##vide":10996,"women":10997,"delincuente":10998,"TRAB":10999,"docente":11000,"omg":11001,"robaron":11002,"implica":11003,"##nap":11004,"mood":11005,"pinches":11006,"Jueves":11007,"terminado":11008,"Micha":11009,"Pron":11010,"##yu":11011,"Who":11012,"derrota":11013,"convierte":11014,"##ginas":11015,"unido":11016,"plato":11017,"##ining":11018,"caiga":11019,"salvador":11020,"##paz":11021,"patrio":11022,"Morales":11023,"Orgu":11024,"likes":11025,"##tienen":11026,"JAJ":11027,"amig":11028,"documental":11029,"listos":11030,"##Pa":11031,"imaginar":11032,"nació":11033,"compré":11034,"cuchillo":11035,"Link":11036,"empa":11037,"barbar":11038,"suda":11039,"##esión":11040,"sentirme":11041,"von":11042,"DIF":11043,"Habrá":11044,"necesidades":11045,"VERDAD":11046,"lógica":11047,"ESE":11048,"vivienda":11049,"Paraguay":11050,"Israel":11051,"There":11052,"child":11053,"melocotón":11054,"##PU":11055,"armar":11056,"acha":11057,"##iamente":11058,"Deb":11059,"transfor":11060,"petición":11061,"##temp":11062,"##ÉS":11063,"ani":11064,"##xel":11065,"contando":11066,"Sp":11067,"administración":11068,"independencia":11069,"##táculo":11070,"colombiano":11071,"Hacer":11072,"vacío":11073,"##PAR":11074,"macho":11075,"##소년":11076,"agarra":11077,"sanidad":11078,"dientes":11079,"Sar":11080,"##uida":11081,"mexicana":11082,"Presiden":11083,"visión":11084,"retiro":11085,"##guir":11086,"##jeras":11087,"Kkkk":11088,"revolo":11089,"cobarde":11090,"##hahahaha":11091,"fila":11092,"##iende":11093,"gustas":11094,"próximos":11095,"War":11096,"##xx":11097,"podrás":11098,"##ng":11099,"##qm":11100,"##AMA":11101,"country":11102,"Noche":11103,"hagamos":11104,"Tweet":11105,"únicos":11106,"garant":11107,"comunidades":11108,"Mic":11109,"commun":11110,"##ticar":11111,"hablen":11112,"añ":11113,"##fecto":11114,"empecé":11115,"##mao":11116,"dictador":11117,"preocupar":11118,"Vida":11119,"separ":11120,"metió":11121,"amamos":11122,"piensas":11123,"##caso":11124,"Valent":11125,"decimos":11126,"casti":11127,"policia":11128,"##dame":11129,"trabajador":11130,"ingresos":11131,"burla":11132,"Arran":11133,"acomo":11134,"Lluvia":11135,"ris":11136,"OS":11137,"##gedia":11138,"fines":11139,"##소년단":11140,"traicion":11141,"tiran":11142,"Hon":11143,"##fs":11144,"Oficial":11145,"verás":11146,"luchando":11147,"encontrado":11148,"##nor":11149,"valent":11150,"enamorado":11151,"fijo":11152,"##gros":11153,"pagando":11154,"##iciales":11155,"republ":11156,"muerta":11157,"anteriores":11158,"tech":11159,"Much":11160,"Gor":11161,"SEÑ":11162,"Here":11163,"mtvlaiconocalleypoche":11164,"##peda":11165,"sacó":11166,"quisi":11167,"Bir":11168,"sv":11169,"justificar":11170,"antic":11171,"##mann":11172,"exá":11173,"##rome":11174,"audios":11175,"subiendo":11176,"ia":11177,"artif":11178,"daría":11179,"socorro":11180,"despa":11181,"Atlético":11182,"distintas":11183,"MER":11184,"Director":11185,"recibió":11186,"porno":11187,"Simple":11188,"asado":11189,"grito":11190,"Guatemala":11191,"imaginas":11192,"job":11193,"Gri":11194,"maquilla":11195,"Supre":11196,"dificil":11197,"sensible":11198,"comis":11199,"revoloteando":11200,"WO":11201,"##quería":11202,"##uty":11203,"Tec":11204,"wonder":11205,"hierba":11206,"jugado":11207,"detec":11208,"sienta":11209,"nothing":11210,"##inete":11211,"aquello":11212,"CASA":11213,"##bios":11214,"방탄소년단":11215,"festejar":11216,"sinceramente":11217,"gallina":11218,"##talo":11219,"pentag":11220,"comunismo":11221,"shor":11222,"flu":11223,"house":11224,"Viento":11225,"##ller":11226,"cubre":11227,"tomorrow":11228,"desear":11229,"##tela":11230,"pollito":11231,"Cuánto":11232,"domicil":11233,"##garon":11234,"Come":11235,"mimos":11236,"carlos":11237,"Calderón":11238,"medicamentos":11239,"challenge":11240,"ox":11241,"empezando":11242,"Cuándo":11243,"HAHAHA":11244,"quedamos":11245,"terroristas":11246,"Michael":11247,"destin":11248,"identidad":11249,"agente":11250,"Prefiero":11251,"Suárez":11252,"cambian":11253,"god":11254,"teoría":11255,"##andez":11256,"Cosas":11257,"Bolívar":11258,"adqui":11259,"pensamientos":11260,"pierdo":11261,"##foro":11262,"hibisco":11263,"ESPA":11264,"Edi":11265,"Ajaja":11266,"piola":11267,"##ctur":11268,"valiente":11269,"Calle":11270,"ponerle":11271,"pasamos":11272,"##JAJAJAJAJ":11273,"matter":11274,"jugó":11275,"perfectamente":11276,"sinver":11277,"cortes":11278,"mediante":11279,"FAN":11280,"##carra":11281,"##úan":11282,"junta":11283,"##ights":11284,"Oro":11285,"VIVO":11286,"urge":11287,"##mad":11288,"huele":11289,"##LI":11290,"##elcome":11291,"enfermos":11292,"##mitir":11293,"publicación":11294,"##ència":11295,"pentagrama":11296,"enemi":11297,"times":11298,"realiza":11299,"POS":11300,"##tamiento":11301,"##lador":11302,"Anoche":11303,"Amar":11304,"coraje":11305,"combatir":11306,"Ign":11307,"xfa":11308,"ER":11309,"block":11310,"Papa":11311,"fom":11312,"Historia":11313,"nene":11314,"bff":11315,"##fobia":11316,"recomendaciones":11317,"poes":11318,"1er":11319,"alla":11320,"luis":11321,"Tenía":11322,"operación":11323,"pró":11324,"dels":11325,"gobernar":11326,"##vante":11327,"solucion":11328,"plante":11329,"Tus":11330,"masac":11331,"refug":11332,"cy":11333,"FUE":11334,"salv":11335,"##uch":11336,"DIREC":11337,"asegura":11338,"racismo":11339,"amistades":11340,"Provin":11341,"News":11342,"mtvlafando":11343,"viral":11344,"Organ":11345,"habitantes":11346,"ach":11347,"hues":11348,"##bt":11349,"Inten":11350,"66":11351,"##final":11352,"convocatoria":11353,"##mex":11354,"Gómez":11355,"Hernández":11356,"homo":11357,"##estru":11358,"Hac":11359,"favoritos":11360,"streaming":11361,"##ífico":11362,"ASÍ":11363,"bene":11364,"meten":11365,"reacción":11366,"presidencia":11367,"Lorenzo":11368,"crean":11369,"captura":11370,"##gaz":11371,"##iores":11372,"##goza":11373,"thread":11374,"##hã":11375,"nat":11376,"##ábamos":11377,"aquella":11378,"Durante":11379,"puesta":11380,"ratas":11381,"##rich":11382,"constitucional":11383,"Deci":11384,"especialmente":11385,"JUL":11386,"envia":11387,"boo":11388,"##oney":11389,"ESA":11390,"must":11391,"Reyes":11392,"sínto":11393,"school":11394,"white":11395,"suben":11396,"excus":11397,"##JER":11398,"##bando":11399,"vais":11400,"##onga":11401,"caigo":11402,"Mendo":11403,"paquete":11404,"recibido":11405,"rebel":11406,"baila":11407,"barcelona":11408,"clín":11409,"makes":11410,"incendio":11411,"##PS":11412,"insopor":11413,"##minis":11414,"grado":11415,"##ganta":11416,"##áticos":11417,"##down":11418,"anuncio":11419,"pista":11420,"Puebla":11421,"cruel":11422,"descubrir":11423,"Comunidad":11424,"comercio":11425,"vigil":11426,"manzana":11427,"##uss":11428,"##bon":11429,"evalu":11430,"Comien":11431,"##tarlo":11432,"##ciera":11433,"sand":11434,"GOOOL":11435,"##uestras":11436,"##RUP":11437,"fos":11438,"tortura":11439,"acce":11440,"pir":11441,"hermosos":11442,"oficiales":11443,"##ned":11444,"##bete":11445,"looks":11446,"metido":11447,"poe":11448,"SEN":11449,"socialista":11450,"empatía":11451,"lobo":11452,"##enio":11453,"Vin":11454,"Maes":11455,"tormenta":11456,"docentes":11457,"##IDOS":11458,"##tadora":11459,"tonight":11460,"exterior":11461,"palos":11462,"##rol":11463,"aprobar":11464,"descuento":11465,"devolver":11466,"Hombre":11467,"##unch":11468,"organiz":11469,"Pinche":11470,"##giendo":11471,"horarios":11472,"##IENTO":11473,"##cepción":11474,"Andalucía":11475,"barba":11476,"cantante":11477,"acuerdan":11478,"ARG":11479,"soul":11480,"pasta":11481,"humilde":11482,"##aca":11483,"regalos":11484,"196":11485,"faltó":11486,"voces":11487,"coco":11488,"##iación":11489,"Aman":11490,"boda":11491,"maravillosa":11492,"bancos":11493,"vox":11494,"Apple":11495,"proud":11496,"Fri":11497,"flaco":11498,"bot":11499,"Respon":11500,"porra":11501,"regala":11502,"##gración":11503,"##aan":11504,"extraordin":11505,"Digi":11506,"##tand":11507,"soledad":11508,"altos":11509,"ak":11510,"##triz":11511,"verguenza":11512,"conmemo":11513,"##ganme":11514,"making":11515,"Trib":11516,"##wor":11517,"dedicar":11518,"biblio":11519,"design":11520,"sigui":11521,"With":11522,"Amiga":11523,"acoso":11524,"thanks":11525,"capaces":11526,"GEN":11527,"##ORM":11528,"google":11529,"escuche":11530,"tortu":11531,"Torres":11532,"nad":11533,"##EST":11534,"Roma":11535,"bancar":11536,"tava":11537,"fire":11538,"messi":11539,"organizado":11540,"##oliber":11541,"##graphy":11542,"echa":11543,"niveles":11544,"fl":11545,"Empres":11546,"Especial":11547,"Hel":11548,"sorte":11549,"Kim":11550,"socios":11551,"tomado":11552,"censura":11553,"escolar":11554,"delant":11555,"Nam":11556,"sentencia":11557,"Unión":11558,"ask":11559,"Eduardo":11560,"Mam":11561,"Octubre":11562,"terapia":11563,"##lio":11564,"Interes":11565,"##nite":11566,"andas":11567,"Profes":11568,"Dom":11569,"regu":11570,"##bierto":11571,"indust":11572,"yall":11573,"uns":11574,"preparando":11575,"Derecho":11576,"Alto":11577,"##ERNO":11578,"bajón":11579,"light":11580,"##enme":11581,"DIA":11582,"pelos":11583,"64":11584,"chabon":11585,"sr":11586,"discutir":11587,"vehículo":11588,"##uiz":11589,"Bomb":11590,"também":11591,"desaparecer":11592,"Té":11593,"subió":11594,"##pero":11595,"##wl":11596,"##quillo":11597,"gota":11598,"event":11599,"deportes":11600,"Laura":11601,"rompió":11602,"mamar":11603,"bitch":11604,"Mul":11605,"##doni":11606,"Morena":11607,"FL":11608,"tragedia":11609,"encab":11610,"Medel":11611,"dejé":11612,"##garse":11613,"##cámara":11614,"ena":11615,"meus":11616,"King":11617,"##CEL":11618,"Argent":11619,"##TIR":11620,"agradezco":11621,"enfermedades":11622,"mã":11623,"Mendoza":11624,"Cambi":11625,"habitación":11626,"Funda":11627,"mascul":11628,"llegará":11629,"plu":11630,"##FF":11631,"falsas":11632,"##itana":11633,"dialo":11634,"##bó":11635,"Alcalde":11636,"mire":11637,"Ayuntamiento":11638,"##eño":11639,"Nuevos":11640,"##gencias":11641,"dead":11642,"MAÑ":11643,"nace":11644,"clubes":11645,"##ENTES":11646,"actuación":11647,"secu":11648,"##andante":11649,"Tel":11650,"##pet":11651,"llenar":11652,"fama":11653,"rutina":11654,"credi":11655,"votaron":11656,"altas":11657,"##ison":11658,"##hotos":11659,"verlos":11660,"Dif":11661,"bebés":11662,"##lectual":11663,"AGU":11664,"circu":11665,"siste":11666,"Aso":11667,"##BLO":11668,"tendré":11669,"brasile":11670,"Period":11671,"vezes":11672,"avanza":11673,"profunda":11674,"ku":11675,"disfrutando":11676,"##tander":11677,"##lex":11678,"Neymar":11679,"negros":11680,"reyes":11681,"tacos":11682,"llamas":11683,"##NI":11684,"limpia":11685,"CONF":11686,"otor":11687,"harán":11688,"récord":11689,"gole":11690,"##pata":11691,"idiotas":11692,"##icula":11693,"##atorio":11694,"Escuela":11695,"flaca":11696,"comenzó":11697,"##ERTE":11698,"luch":11699,"contemp":11700,"podamos":11701,"##TIN":11702,"Mujeres":11703,"Impres":11704,"Bue":11705,"##dentes":11706,"coord":11707,"decirme":11708,"followers":11709,"campeones":11710,"vivido":11711,"##ique":11712,"Miren":11713,"##VES":11714,"ideología":11715,"entrenamiento":11716,"Best":11717,"fritas":11718,"sentirse":11719,"fica":11720,"Sun":11721,"govern":11722,"sonido":11723,"Tierra":11724,"Pod":11725,"##vido":11726,"peligroso":11727,"Mol":11728,"semejante":11729,"tok":11730,"Get":11731,"gigante":11732,"disculpas":11733,"Mom":11734,"Quizás":11735,"##cino":11736,"Canal":11737,"creación":11738,"Junior":11739,"juntar":11740,"Listo":11741,"##tismo":11742,"conflicto":11743,"##yl":11744,"ini":11745,"COL":11746,"Neta":11747,"movie":11748,"Pq":11749,"Desarr":11750,"##tuvo":11751,"sentía":11752,"##90":11753,"left":11754,"mapa":11755,"gata":11756,"##vinen":11757,"chur":11758,"aparecer":11759,"promedio":11760,"CONS":11761,"invers":11762,"indigna":11763,"rug":11764,"mix":11765,"DECI":11766,"pp":11767,"consecu":11768,"Catalunya":11769,"##casa":11770,"continúa":11771,"##úcar":11772,"ps4":11773,"produce":11774,"pilas":11775,"sacaron":11776,"##TY":11777,"##dam":11778,"perio":11779,"Ji":11780,"triple":11781,"##TRI":11782,"##tade":11783,"##glaterra":11784,"salio":11785,"Marcelo":11786,"Debería":11787,"exter":11788,"merecemos":11789,"gros":11790,"mulher":11791,"lento":11792,"CUMP":11793,"mandó":11794,"quizá":11795,"pac":11796,"videocámara":11797,"food":11798,"##ficar":11799,"says":11800,"##rity":11801,"##itarias":11802,"rostro":11803,"requiere":11804,"primaria":11805,"##venidos":11806,"muchachos":11807,"coisas":11808,"plo":11809,"fría":11810,"mierdas":11811,"deca":11812,"##oor":11813,"Incl":11814,"cagando":11815,"porfavor":11816,"pala":11817,"reino":11818,"Monte":11819,"volviendo":11820,"##tam":11821,"##tial":11822,"##win":11823,"confirmar":11824,"BL":11825,"Ind":11826,"##vé":11827,"piba":11828,"##jon":11829,"##70":11830,"Bill":11831,"unfollowers":11832,"enci":11833,"terrorismo":11834,"Game":11835,"prevenir":11836,"EXP":11837,"##ornadas":11838,"sepan":11839,"##fornia":11840,"garganta":11841,"Libertadores":11842,"tomas":11843,"pese":11844,"probablemente":11845,"exámenes":11846,"##hal":11847,"cancer":11848,"Iglesia":11849,"diplo":11850,"referencia":11851,"contento":11852,"legen":11853,"Miami":11854,"parejas":11855,"depois":11856,"secon":11857,"Sel":11858,"##chera":11859,"aprendí":11860,"##diste":11861,"correcta":11862,"Zara":11863,"obtener":11864,"tengamos":11865,"tromp":11866,"falsos":11867,"wil":11868,"dri":11869,"olviden":11870,"##fir":11871,"llevando":11872,"cacer":11873,"fué":11874,"soltar":11875,"trán":11876,"feeling":11877,"##ENTO":11878,"Podría":11879,"ann":11880,"##éisbol":11881,"efectos":11882,"##xy":11883,"zapatos":11884,"acces":11885,"##éramos":11886,"Puta":11887,"##eis":11888,"pierden":11889,"estación":11890,"cuarta":11891,"nomina":11892,"##LOS":11893,"Humedad":11894,"impar":11895,"##venil":11896,"bis":11897,"prácticas":11898,"bran":11899,"involu":11900,"bob":11901,"vide":11902,"quis":11903,"precisamente":11904,"core":11905,"##ware":11906,"52":11907,"leal":11908,"joaquin":11909,"Alta":11910,"tot":11911,"##TM":11912,"asistencia":11913,"francia":11914,"digno":11915,"reser":11916,"Normal":11917,"##xe":11918,"VEZ":11919,"cansan":11920,"##CRE":11921,"diagn":11922,"aja":11923,"dificul":11924,"aplau":11925,"constitución":11926,"sacado":11927,"Air":11928,"pot":11929,"Hermoso":11930,"##pens":11931,"apertura":11932,"actually":11933,"##mido":11934,"stre":11935,"demostrado":11936,"Recién":11937,"explico":11938,"##rd":11939,"pretty":11940,"Alguna":11941,"quejan":11942,"cop":11943,"comunicar":11944,"sorprender":11945,"##presidente":11946,"ramo":11947,"respirar":11948,"##tics":11949,"scre":11950,"nice":11951,"##ific":11952,"Clar":11953,"thin":11954,"IMPOR":11955,"ejército":11956,"##dina":11957,"Youtube":11958,"grados":11959,"cargos":11960,"panamá":11961,"trying":11962,"Toma":11963,"sound":11964,"Temperatura":11965,"Pueden":11966,"TODAS":11967,"crema":11968,"transforma":11969,"pérdida":11970,"invitación":11971,"##ONG":11972,"meet":11973,"cagan":11974,"irá":11975,"Japón":11976,"volar":11977,"dueños":11978,"dirigentes":11979,"perspec":11980,"##VIS":11981,"##gones":11982,"##rill":11983,"oscar":11984,"rusia":11985,"aporte":11986,"barra":11987,"piña":11988,"SUPER":11989,"ida":11990,"límite":11991,"parado":11992,"md":11993,"Martes":11994,"técnica":11995,"habló":11996,"##bimos":11997,"esperas":11998,"##ize":11999,"incons":12000,"difíciles":12001,"posibles":12002,"##live":12003,"aux":12004,"##elle":12005,"bocadillo":12006,"norma":12007,"icon":12008,"pack":12009,"pacto":12010,"entorno":12011,"United":12012,"unica":12013,"expecta":12014,"##CEN":12015,"Nuestros":12016,"##rantes":12017,"parecía":12018,"##tula":12019,"profun":12020,"Prote":12021,"51":12022,"Jon":12023,"Traba":12024,"avisa":12025,"##éndome":12026,"estou":12027,"##hah":12028,"##IDO":12029,"##ED":12030,"sales":12031,"young":12032,"##didad":12033,"indis":12034,"Arri":12035,"éxitos":12036,"héroes":12037,"Bre":12038,"##publ":12039,"##mería":12040,"wri":12041,"venía":12042,"##ácter":12043,"gel":12044,"rara":12045,"78":12046,"compla":12047,"iniciar":12048,"##zis":12049,"Iba":12050,"pintarse":12051,"empezamos":12052,"##ñada":12053,"Ortega":12054,"##doro":12055,"CÓ":12056,"aix":12057,"conviene":12058,"llegamos":12059,"plas":12060,"ciertas":12061,"looking":12062,"machista":12063,"Sara":12064,"barco":12065,"Premi":12066,"colon":12067,"##rosos":12068,"Verdad":12069,"estábamos":12070,"MAY":12071,"independent":12072,"refiero":12073,"##HAH":12074,"contesta":12075,"Jungkook":12076,"cé":12077,"Pasa":12078,"afirma":12079,"lenguaje":12080,"vimos":12081,"##fal":12082,"##ayan":12083,"##selo":12084,"##chin":12085,"tuvimos":12086,"ataques":12087,"##ibo":12088,"autos":12089,"virtu":12090,"robado":12091,"##mago":12092,"pensiones":12093,"##titucional":12094,"departamento":12095,"HAHAHAHAHA":12096,"maestra":12097,"entendido":12098,"personales":12099,"##laron":12100,"SP":12101,"reducir":12102,"##pace":12103,"Show":12104,"circuns":12105,"miente":12106,"##iend":12107,"rápida":12108,"parada":12109,"guarda":12110,"jogo":12111,"Segunda":12112,"resistencia":12113,"##uidos":12114,"verdes":12115,"matrimonio":12116,"jin":12117,"revi":12118,"pereza":12119,"OC":12120,"dormida":12121,"##URA":12122,"##uidad":12123,"receta":12124,"tontos":12125,"unders":12126,"rique":12127,"2010":12128,"By":12129,"Hermosa":12130,"interrogación":12131,"hueco":12132,"publico":12133,"misión":12134,"eles":12135,"Cari":12136,"tamaño":12137,"revisar":12138,"sc":12139,"vendo":12140,"whole":12141,"logró":12142,"##uricio":12143,"##army":12144,"stand":12145,"##alajara":12146,"##ience":12147,"preocup":12148,"quedando":12149,"Saben":12150,"Junta":12151,"agricul":12152,"deberías":12153,"desac":12154,"##ribles":12155,"carretera":12156,"pendientes":12157,"##tidas":12158,"domicilio":12159,"propiedad":12160,"licencia":12161,"ventas":12162,"eco":12163,"espíritu":12164,"maestros":12165,"acorde":12166,"63":12167,"URGENTE":12168,"Pl":12169,"##IENDO":12170,"discusión":12171,"objetivos":12172,"arm":12173,"escribo":12174,"##ANOS":12175,"colocar":12176,"creí":12177,"Watch":12178,"roban":12179,"cup":12180,"##habil":12181,"##TINA":12182,"ça":12183,"##MAR":12184,"Bs":12185,"cancion":12186,"fem":12187,"polé":12188,"solar":12189,"meto":12190,"##lying":12191,"Sch":12192,"##óstico":12193,"##ologia":12194,"##vol":12195,"huelga":12196,"reda":12197,"Nin":12198,"miran":12199,"VAN":12200,"experiencias":12201,"switch":12202,"during":12203,"aburrida":12204,"realizado":12205,"hamburguesa":12206,"alm":12207,"mañ":12208,"tradu":12209,"caball":12210,"patrimonio":12211,"tapa":12212,"##siones":12213,"Llega":12214,"Ánimo":12215,"##more":12216,"MAÑANA":12217,"##ction":12218,"código":12219,"##TORIA":12220,"ocurrió":12221,"RI":12222,"propor":12223,"120":12224,"Anti":12225,"##ès":12226,"##ule":12227,"apete":12228,"##cipe":12229,"vehículos":12230,"intera":12231,"tikto":12232,"Jal":12233,"carácter":12234,"anything":12235,"cuántos":12236,"98":12237,"##idi":12238,"golp":12239,"faltaba":12240,"##ors":12241,"querían":12242,"Federal":12243,"##loy":12244,"pasé":12245,"##df":12246,"grabar":12247,"cenar":12248,"water":12249,"audi":12250,"cabal":12251,"##atar":12252,"gü":12253,"muñ":12254,"Unos":12255,"JAJAJAJJ":12256,"criminales":12257,"VUEL":12258,"acadé":12259,"##cking":12260,"dibujo":12261,"activo":12262,"ball":12263,"Vidal":12264,"favoritas":12265,"peña":12266,"##tena":12267,"registro":12268,"ocasión":12269,"thought":12270,"Palacio":12271,"promoción":12272,"eas":12273,"Digital":12274,"vem":12275,"embarazada":12276,"Lab":12277,"caído":12278,"minis":12279,"intenta":12280,"fernet":12281,"hala":12282,"radical":12283,"caes":12284,"temperatura":12285,"temporadas":12286,"jap":12287,"##yon":12288,"Donald":12289,"Cir":12290,"débil":12291,"GOT":12292,"profundo":12293,"Lindo":12294,"supermer":12295,"pudieron":12296,"diste":12297,"conexión":12298,"##tián":12299,"JAJAJAJAJAJAJAJA":12300,"##vistar":12301,"firmar":12302,"##cipl":12303,"cobran":12304,"infer":12305,"table":12306,"Amén":12307,"ministra":12308,"flechas":12309,"Medio":12310,"preocupes":12311,"risas":12312,"##alismo":12313,"límites":12314,"max":12315,"bonitos":12316,"ciudadana":12317,"convertido":12318,"ningun":12319,"rollo":12320,"Op":12321,"cm":12322,"Tin":12323,"renta":12324,"Sale":12325,"Sac":12326,"88":12327,"girls":12328,"Sele":12329,"dismin":12330,"Abril":12331,"similar":12332,"##ológico":12333,"descargar":12334,"limón":12335,"sense":12336,"avanzar":12337,"point":12338,"##ALO":12339,"68":12340,"PRESID":12341,"##een":12342,"Colo":12343,"denuncias":12344,"mueren":12345,"organizar":12346,"especiales":12347,"manija":12348,"Mora":12349,"##ot":12350,"empan":12351,"Obrador":12352,"diciéndo":12353,"hayas":12354,"lateral":12355,"prometo":12356,"##cientes":12357,"cursos":12358,"##bineros":12359,"acar":12360,"Agrade":12361,"HAR":12362,"##cht":12363,"comisión":12364,"venido":12365,"##undaria":12366,"mig":12367,"cuadro":12368,"envío":12369,"panza":12370,"##ingü":12371,"##UDA":12372,"inmi":12373,"muera":12374,"realizó":12375,"ídolo":12376,"apellido":12377,"hijueputa":12378,"##ILO":12379,"Trabaja":12380,"ERES":12381,"sono":12382,"patri":12383,"##iamos":12384,"llevado":12385,"##kemon":12386,"tareas":12387,"##eña":12388,"Cra":12389,"jamas":12390,"##wing":12391,"##esar":12392,"haciéndo":12393,"reaccion":12394,"preparar":12395,"##lay":12396,"camisa":12397,"report":12398,"wea":12399,"primavera":12400,"suya":12401,"President":12402,"GUS":12403,"##ridos":12404,"Win":12405,"tapar":12406,"myself":12407,"##fonos":12408,"venezolana":12409,"##jsjaja":12410,"sufre":12411,"atle":12412,"moch":12413,"mareada":12414,"Digo":12415,"reba":12416,"Auto":12417,"politi":12418,"movilidad":12419,"lxs":12420,"gob":12421,"##dense":12422,"hair":12423,"Gobernador":12424,"cause":12425,"##osas":12426,"apoyan":12427,"mínima":12428,"Popular":12429,"seen":12430,"##rong":12431,"##sado":12432,"saquen":12433,"Voto":12434,"FAR":12435,"municipios":12436,"compartimos":12437,"patio":12438,"##ote":12439,"##BR":12440,"abuelos":12441,"máquina":12442,"consigue":12443,"presidenta":12444,"merezco":12445,"##gest":12446,"##uría":12447,"##ます":12448,"##inte":12449,"Time":12450,"propone":12451,"Latina":12452,"##uts":12453,"##piro":12454,"neoliber":12455,"##bao":12456,"recomp":12457,"adorno":12458,"AMI":12459,"vuelvan":12460,"OMS":12461,"##ILE":12462,"##gam":12463,"llegué":12464,"dl":12465,"dile":12466,"##mito":12467,"molt":12468,"barbi":12469,"until":12470,"condena":12471,"Rica":12472,"gráfico":12473,"estr":12474,"estúpida":12475,"aumentar":12476,"pague":12477,"##mpi":12478,"Iván":12479,"cross":12480,"VOS":12481,"exige":12482,"nacer":12483,"Acaso":12484,"having":12485,"chap":12486,"policial":12487,"activos":12488,"gastos":12489,"##uz":12490,"Lin":12491,"Dame":12492,"congres":12493,"cientos":12494,"Jajaj":12495,"##NE":12496,"herramientas":12497,"tribu":12498,"Pregunta":12499,"ENTRE":12500,"sleep":12501,"##ERTA":12502,"Frente":12503,"aislamiento":12504,"Hal":12505,"Mmm":12506,"corresponde":12507,"700":12508,"Pública":12509,"Bang":12510,"yang":12511,"##hop":12512,"TT":12513,"consen":12514,"defienden":12515,"4T":12516,"Vá":12517,"enough":12518,"##elia":12519,"Raúl":12520,"Feder":12521,"Cultura":12522,"important":12523,"discapacidad":12524,"##vento":12525,"NY":12526,"ram":12527,"Emilio":12528,"STRE":12529,"##RLO":12530,"FELICI":12531,"PN":12532,"cambie":12533,"##vistas":12534,"##gió":12535,"Tes":12536,"autén":12537,"soporto":12538,"Tremendo":12539,"str":12540,"##maras":12541,"novios":12542,"respet":12543,"vil":12544,"Dal":12545,"ako":12546,"##clu":12547,"Premio":12548,"sanciones":12549,"##INE":12550,"JJ":12551,"algu":12552,"dark":12553,"acusa":12554,"inclusi":12555,"ponemos":12556,"escuchas":12557,"mtvlafandomar":12558,"engañar":12559,"barrios":12560,"exposición":12561,"##jaba":12562,"2011":12563,"escudo":12564,"sangu":12565,"manifesta":12566,"propaganda":12567,"FIFA":12568,"Proyec":12569,"##ERTO":12570,"Investi":12571,"blin":12572,"##GAS":12573,"impuesto":12574,"apuesta":12575,"GA":12576,"##llate":12577,"demon":12578,"chiquito":12579,"criterio":12580,"##bir":12581,"though":12582,"creyendo":12583,"dog":12584,"Guardia":12585,"reprodu":12586,"chavista":12587,"##quera":12588,"aler":12589,"tránsito":12590,"##zaron":12591,"Viz":12592,"labora":12593,"Estadio":12594,"politica":12595,"reporte":12596,"Ran":12597,"##adamente":12598,"frecu":12599,"etern":12600,"##dl":12601,"Simón":12602,"##itores":12603,"save":12604,"okay":12605,"taehyung":12606,"Biden":12607,"bienvenida":12608,"Marcos":12609,"yoongi":12610,"elab":12611,"gritos":12612,"psicol":12613,"##phone":12614,"muuu":12615,"roba":12616,"impe":12617,"##tróleo":12618,"ascenso":12619,"condición":12620,"reflexión":12621,"Uds":12622,"román":12623,"ambul":12624,"Parla":12625,"favorite":12626,"##riga":12627,"Din":12628,"Públ":12629,"Sra":12630,"both":12631,"exci":12632,"##ESTA":12633,"gue":12634,"gris":12635,"##ject":12636,"Mr":12637,"##damente":12638,"lanzamiento":12639,"Señora":12640,"pedimos":12641,"chupar":12642,"béisbol":12643,"Clara":12644,"dama":12645,"compr":12646,"##CT":12647,"cry":12648,"Claudia":12649,"reconoce":12650,"frontera":12651,"##CAS":12652,"chavismo":12653,"##cturas":12654,"sonreír":12655,"weather":12656,"##AJE":12657,"clan":12658,"CORRUP":12659,"tóxica":12660,"institucional":12661,"carnaval":12662,"##ABLE":12663,"paseo":12664,"Tall":12665,"##vieron":12666,"donar":12667,"saying":12668,"Glor":12669,"detener":12670,"prio":12671,"##TB":12672,"Estudi":12673,"##III":12674,"juzgar":12675,"CE":12676,"CAP":12677,"sueldos":12678,"chaval":12679,"usur":12680,"cabrón":12681,"explos":12682,"puebla":12683,"Linda":12684,"##daba":12685,"comprarme":12686,"ayude":12687,"##ules":12688,"##cao":12689,"##meno":12690,"different":12691,"inex":12692,"##36":12693,"Adi":12694,"##mile":12695,"stal":12696,"Ep":12697,"##mus":12698,"recicla":12699,"gratuita":12700,"intelectual":12701,"late":12702,"diré":12703,"histórica":12704,"jugamos":12705,"insom":12706,"##IGH":12707,"combate":12708,"chup":12709,"##atas":12710,"Fiscalía":12711,"##VOS":12712,"cargar":12713,"ocasiones":12714,"Presenta":12715,"##empla":12716,"##HY":12717,"Jer":12718,"##cro":12719,"clás":12720,"chinos":12721,"Mamá":12722,"##ándalo":12723,"muchacho":12724,"olvidó":12725,"taxi":12726,"cartas":12727,"ternura":12728,"hj":12729,"Ayuso":12730,"Ronaldo":12731,"junior":12732,"ema":12733,"##vimos":12734,"imbecil":12735,"travel":12736,"##abe":12737,"brindar":12738,"##icientes":12739,"andalu":12740,"Inicia":12741,"chinga":12742,"##eri":12743,"bolsillo":12744,"##gidos":12745,"##brio":12746,"Chin":12747,"##aristemo":12748,"Comple":12749,"##peta":12750,"mtvlafandomaristemo":12751,"##ABA":12752,"jud":12753,"Evo":12754,"Disfruta":12755,"causas":12756,"##tern":12757,"Pes":12758,"trajo":12759,"QUER":12760,"posibil":12761,"invitar":12762,"##uti":12763,"maneras":12764,"##pid":12765,"incapa":12766,"public":12767,"Joaquín":12768,"##rista":12769,"##tou":12770,"##ciencia":12771,"solucionar":12772,"jsjsjs":12773,"estão":12774,"seré":12775,"77":12776,"TANTO":12777,"mtvlaparejaaristemo":12778,"perdieron":12779,"Vivo":12780,"Entrevista":12781,"##gie":12782,"dans":12783,"Información":12784,"##pidos":12785,"DAN":12786,"##ivari":12787,"Max":12788,"##uñas":12789,"##ímp":12790,"Rodrigo":12791,"chang":12792,"distan":12793,"MILL":12794,"##ition":12795,"auton":12796,"Nación":12797,"serás":12798,"mãe":12799,"pcas":12800,"##URL":12801,"espn":12802,"##gador":12803,"##rian":12804,"##tha":12805,"mir":12806,"##tta":12807,"cambió":12808,"pedí":12809,"aguanta":12810,"##titudes":12811,"##nya":12812,"emilio":12813,"gimnasio":12814,"mtvlafandomaristemofans":12815,"Familia":12816,"nba":12817,"Also":12818,"monstru":12819,"alba":12820,"alimentar":12821,"tela":12822,"Nie":12823,"ausencia":12824,"curioso":12825,"##tana":12826,"manifestación":12827,"reglas":12828,"vital":12829,"##gano":12830,"conser":12831,"Agust":12832,"Vice":12833,"Juli":12834,"carreras":12835,"colonia":12836,"plane":12837,"liderazgo":12838,"patas":12839,"games":12840,"retra":12841,"##eliz":12842,"tumb":12843,"lesbi":12844,"##vangel":12845,"whats":12846,"bomberos":12847,"##IAS":12848,"such":12849,"terrorista":12850,"##ations":12851,"escuché":12852,"seleccion":12853,"bondoni":12854,"##guito":12855,"incu":12856,"shi":12857,"lac":12858,"marcas":12859,"##47":12860,"##kar":12861,"saldrá":12862,"fatal":12863,"hig":12864,"monu":12865,"detenido":12866,"monte":12867,"Capital":12868,"##dula":12869,"rompiendo":12870,"logrado":12871,"parlament":12872,"##ety":12873,"69":12874,"tratan":12875,"maneja":12876,"chill":12877,"Cine":12878,"restric":12879,"OK":12880,"darles":12881,"Málaga":12882,"libera":12883,"PUEBLO":12884,"Virgen":12885,"síntomas":12886,"conseguido":12887,"visitas":12888,"míos":12889,"capítulos":12890,"expor":12891,"llevaba":12892,"analizar":12893,"Dime":12894,"##AND":12895,"Supongo":12896,"leyenda":12897,"acel":12898,"lasti":12899,"encuestas":12900,"feministas":12901,"##nis":12902,"##ócra":12903,"portero":12904,"Medi":12905,"mien":12906,"Instituto":12907,"facu":12908,"##onso":12909,"alternativa":12910,"árbitro":12911,"##çar":12912,"milagro":12913,"##side":12914,"##zadas":12915,"##cker":12916,"##redo":12917,"Zo":12918,"ESPER":12919,"techo":12920,"propias":12921,"especie":12922,"##AMENTE":12923,"Discul":12924,"##gate":12925,"idioma":12926,"sufrimiento":12927,"##kw":12928,"97":12929,"##onos":12930,"toco":12931,"dance":12932,"Gala":12933,"feat":12934,"William":12935,"##etero":12936,"Descan":12937,"factura":12938,"debió":12939,"Paso":12940,"montaña":12941,"regresa":12942,"Viendo":12943,"COMUN":12944,"alf":12945,"##bús":12946,"eyes":12947,"##ICE":12948,"anillo":12949,"mortal":12950,"estúpido":12951,"##gí":12952,"declaración":12953,"##omitas":12954,"absoluta":12955,"desea":12956,"##cribe":12957,"però":12958,"yu":12959,"acompañar":12960,"críticas":12961,"chingada":12962,"##cribir":12963,"precau":12964,"presentó":12965,"búsqueda":12966,"jurí":12967,"desigual":12968,"individual":12969,"nossa":12970,"67":12971,"actores":12972,"Junio":12973,"lang":12974,"terminé":12975,"##ianos":12976,"##uelen":12977,"mediocre":12978,"##ksks":12979,"future":12980,"responsabil":12981,"valencia":12982,"influencer":12983,"transparencia":12984,"STREAM":12985,"vibra":12986,"Nah":12987,"tier":12988,"##cierto":12989,"##set":12990,"vocês":12991,"Feria":12992,"gras":12993,"hijas":12994,"próximas":12995,"década":12996,"##ford":12997,"ALL":12998,"secuestra":12999,"transformación":13000,"normas":13001,"Acomp":13002,"mv":13003,"antigu":13004,"venti":13005,"##TICIA":13006,"Presión":13007,"cierta":13008,"salón":13009,"ATENCIÓN":13010,"vivos":13011,"ahorrar":13012,"ventaja":13013,"Baby":13014,"Nad":13015,"boletos":13016,"jab":13017,"move":13018,"##ass":13019,"comí":13020,"anunció":13021,"decreto":13022,"ERA":13023,"##ners":13024,"##ILLA":13025,"##ólica":13026,"tae":13027,"##lid":13028,"BR":13029,"esposo":13030,"líneas":13031,"motiv":13032,"blue":13033,"##OSA":13034,"tia":13035,"##ayaquil":13036,"##uit":13037,"ampli":13038,"GOBI":13039,"##itz":13040,"división":13041,"rd":13042,"contratos":13043,"gp":13044,"extrañaba":13045,"pezuñas":13046,"numero":13047,"Stor":13048,"paran":13049,"##VAR":13050,"##puestamente":13051,"tomó":13052,"Yan":13053,"NEW":13054,"lanzar":13055,"VENEZUELA":13056,"opinion":13057,"boys":13058,"Ken":13059,"seguros":13060,"evidente":13061,"aguas":13062,"celebración":13063,"Segura":13064,"dou":13065,"aparecen":13066,"suba":13067,"##lida":13068,"preciso":13069,"violación":13070,"SEM":13071,"canto":13072,"CONTRA":13073,"ESTU":13074,"Dist":13075,"wrong":13076,"##bras":13077,"linea":13078,"ESCU":13079,"Jan":13080,"intensa":13081,"acci":13082,"XXI":13083,"##bana":13084,"DDHH":13085,"cristal":13086,"azúcar":13087,"borracho":13088,"##grada":13089,"regional":13090,"vincu":13091,"73":13092,"sufriendo":13093,"efectivo":13094,"Jen":13095,"NECESITO":13096,"##gantes":13097,"laburar":13098,"##cat":13099,"espectáculo":13100,"recuerden":13101,"animo":13102,"capitán":13103,"NOT":13104,"andaba":13105,"Iz":13106,"Medellín":13107,"impo":13108,"Senado":13109,"##cela":13110,"suave":13111,"conserv":13112,"nct":13113,"##ficas":13114,"pelis":13115,"96":13116,"PELO":13117,"##ciano":13118,"Encon":13119,"reen":13120,"Esperemos":13121,"vcs":13122,"##dré":13123,"vini":13124,"DONDE":13125,"pareció":13126,"##ICIAL":13127,"##rú":13128,"##mul":13129,"quito":13130,"mañan":13131,"##jaj":13132,"ademas":13133,"pai":13134,"king":13135,"Chil":13136,"##llermo":13137,"state":13138,"llave":13139,"chistes":13140,"capitalismo":13141,"embaja":13142,"mtvhot":13143,"adolescentes":13144,"##ution":13145,"vendiendo":13146,"borde":13147,"jodido":13148,"BASTA":13149,"ridic":13150,"filoso":13151,"necesaria":13152,"arch":13153,"tinha":13154,"enjoy":13155,"representantes":13156,"contras":13157,"vacun":13158,"halloween":13159,"##plica":13160,"volvemos":13161,"##diales":13162,"consol":13163,"Monterrey":13164,"mui":13165,"igualmente":13166,"JAJAJJ":13167,"##tol":13168,"##ette":13169,"##ament":13170,"##abra":13171,"UC":13172,"minas":13173,"Goool":13174,"tomen":13175,"semá":13176,"##ELA":13177,"George":13178,"repost":13179,"til":13180,"##icada":13181,"##ington":13182,"egoís":13183,"##VAN":13184,"Marzo":13185,"##rile":13186,"estuvieron":13187,"extranjero":13188,"##grafo":13189,"insoportable":13190,"Quieren":13191,"aristemo":13192,"Dici":13193,"hablaba":13194,"yaaa":13195,"ín":13196,"XX":13197,"##aturales":13198,"##linson":13199,"##mentales":13200,"Derechos":13201,"maria":13202,"share":13203,"fifa":13204,"##zquez":13205,"miembro":13206,"eva":13207,"excusas":13208,"note":13209,"##trá":13210,"##erio":13211,"Sco":13212,"hours":13213,"decidido":13214,"importan":13215,"Desarrollo":13216,"quite":13217,"reciben":13218,"cercan":13219,"rel":13220,"lemb":13221,"##riles":13222,"incomo":13223,"Navar":13224,"##eok":13225,"Dam":13226,"perdi":13227,"difusión":13228,"##tation":13229,"nova":13230,"ov":13231,"##kis":13232,"Triste":13233,"crece":13234,"empate":13235,"DEP":13236,"claqueta":13237,"Nicaragua":13238,"supl":13239,"llueve":13240,"Ata":13241,"logros":13242,"jugo":13243,"golazo":13244,"veter":13245,"##CAL":13246,"chic":13247,"vacunas":13248,"joya":13249,"colegios":13250,"book":13251,"satisfac":13252,"##light":13253,"obligación":13254,"hipocres":13255,"pendejadas":13256,"necesitar":13257,"homos":13258,"enseña":13259,"##cripciones":13260,"Team":13261,"odiar":13262,"##times":13263,"revela":13264,"mtvhottest":13265,"##denes":13266,"HU":13267,"##zcan":13268,"supre":13269,"##ently":13270,"Precio":13271,"cumpliendo":13272,"pedi":13273,"abue":13274,"conciertos":13275,"##tamo":13276,"perjud":13277,"##ult":13278,"##bern":13279,"86":13280,"Granada":13281,"##chester":13282,"American":13283,"hip":13284,"barde":13285,"honduras":13286,"certe":13287,"llegas":13288,"tomate":13289,"Há":13290,"##core":13291,"##máticamente":13292,"Agosto":13293,"petro":13294,"patro":13295,"Congra":13296,"CAMPE":13297,"nut":13298,"##vención":13299,"enojo":13300,"##ês":13301,"##mall":13302,"##zu":13303,"inocente":13304,"lenta":13305,"quitan":13306,"##2016":13307,"##field":13308,"##45":13309,"hablado":13310,"guy":13311,"pira":13312,"sd":13313,"requis":13314,"Parte":13315,"##jiji":13316,"apareció":13317,"finalmente":13318,"delantero":13319,"chiqui":13320,"fox":13321,"Ases":13322,"forget":13323,"2do":13324,"humildad":13325,"##érate":13326,"Fac":13327,"diná":13328,"materias":13329,"##versa":13330,"each":13331,"##enciales":13332,"##énez":13333,"##reros":13334,"##rupción":13335,"falando":13336,"llame":13337,"temporal":13338,"queridos":13339,"sismo":13340,"chilenos":13341,"##formas":13342,"enemigos":13343,"disposición":13344,"represión":13345,"##hibir":13346,"rapido":13347,"barras":13348,"enamor":13349,"Camila":13350,"##iela":13351,"Empez":13352,"reempla":13353,"valorar":13354,"##imal":13355,"cable":13356,"##itud":13357,"Torre":13358,"teníamos":13359,"Sigan":13360,"iré":13361,"tom":13362,"mtvlains":13363,"sii":13364,"vous":13365,"##cienda":13366,"décadas":13367,"##DIA":13368,"##toso":13369,"indirec":13370,"explique":13371,"MUJER":13372,"Well":13373,"MX":13374,"creciendo":13375,"equipara":13376,"penales":13377,"invertir":13378,"escab":13379,"250":13380,"levanté":13381,"##coin":13382,"gla":13383,"noctur":13384,"asqueroso":13385,"novedades":13386,"##estructura":13387,"Veracruz":13388,"random":13389,"disponibles":13390,"posibilidades":13391,"USTE":13392,"Tru":13393,"ODIO":13394,"Llegó":13395,"aula":13396,"fantasía":13397,"prácticamente":13398,"Memo":13399,"comprando":13400,"##idar":13401,"almo":13402,"remix":13403,"consumi":13404,"Osea":13405,"##gram":13406,"comeback":13407,"memb":13408,"combus":13409,"otgala":13410,"ALGO":13411,"potencial":13412,"oídos":13413,"##inge":13414,"vine":13415,"protocolo":13416,"reserva":13417,"ARGENT":13418,"desayunar":13419,"##ladolid":13420,"##ient":13421,"valora":13422,"used":13423,"Ando":13424,"Isabel":13425,"equili":13426,"Dani":13427,"traen":13428,"estupe":13429,"indic":13430,"procesos":13431,"nerviosa":13432,"enoja":13433,"maric":13434,"##38":13435,"##geno":13436,"##bición":13437,"pañ":13438,"Castillo":13439,"Paulo":13440,"mame":13441,"asumir":13442,"ESTAR":13443,"Android":13444,"Escucha":13445,"Eh":13446,"tenías":13447,"bobo":13448,"##LY":13449,"##fos":13450,"##48":13451,"estadoun":13452,"Abo":13453,"comprado":13454,"guía":13455,"águila":13456,"##izamos":13457,"creado":13458,"intensidad":13459,"chido":13460,"inventa":13461,"critican":13462,"##alho":13463,"ines":13464,"##cista":13465,"ASI":13466,"talentos":13467,"reclamar":13468,"male":13469,"##EROS":13470,"arranca":13471,"tenerte":13472,"bendición":13473,"eterna":13474,"##mones":13475,"canales":13476,"inneces":13477,"religión":13478,"ronda":13479,"Mich":13480,"descor":13481,"lora":13482,"emprendimiento":13483,"arquite":13484,"innovación":13485,"abogados":13486,"hacían":13487,"agro":13488,"##ctivo":13489,"arrepiento":13490,"diferencias":13491,"##adá":13492,"TIE":13493,"namo":13494,"Consulta":13495,"desarrollar":13496,"QUIER":13497,"asocia":13498,"Ges":13499,"mora":13500,"entran":13501,"76":13502,"amable":13503,"Mauricio":13504,"##gero":13505,"##sula":13506,"##directo":13507,"Mayor":13508,"pací":13509,"##lon":13510,"viejas":13511,"Rich":13512,"CUL":13513,"escribió":13514,"yet":13515,"##imamente":13516,"##bita":13517,"virgen":13518,"##ciamiento":13519,"##cié":13520,"##した":13521,"Dí":13522,"Demas":13523,"Oigan":13524,"besitos":13525,"sombra":13526,"##icante":13527,"cruzar":13528,"recortable":13529,"equivocado":13530,"woman":13531,"spi":13532,"fotografía":13533,"195":13534,"sepas":13535,"intercam":13536,"Sorry":13537,"bc":13538,"paisa":13539,"didnt":13540,"mañanas":13541,"traidor":13542,"Alfon":13543,"marchas":13544,"Marco":13545,"plazas":13546,"##VIR":13547,"novel":13548,"Elec":13549,"TAR":13550,"sed":13551,"felicitaciones":13552,"##ondres":13553,"Jaime":13554,"##eos":13555,"##meras":13556,"alianza":13557,"##rimos":13558,"maca":13559,"Marta":13560,"entrando":13561,"##wood":13562,"##ónimo":13563,"decirles":13564,"pronun":13565,"CER":13566,"decente":13567,"Poco":13568,"##inados":13569,"pierdan":13570,"Fútbol":13571,"creía":13572,"petróleo":13573,"insulto":13574,"asistir":13575,"needs":13576,"watching":13577,"pretende":13578,"karma":13579,"ibas":13580,"invitados":13581,"SM":13582,"##berg":13583,"III":13584,"hum":13585,"europea":13586,"##cris":13587,"microbio":13588,"stories":13589,"anyone":13590,"ira":13591,"smart":13592,"Opera":13593,"wall":13594,"tope":13595,"Ill":13596,"wn":13597,"financia":13598,"irresponsable":13599,"2009":13600,"Flores":13601,"ninguém":13602,"afortun":13603,"empleos":13604,"plano":13605,"mezcla":13606,"Toy":13607,"pain":13608,"foro":13609,"ful":13610,"lentes":13611,"Comienza":13612,"sanitarios":13613,"psi":13614,"##jua":13615,"##dies":13616,"SEA":13617,"Ramón":13618,"Aaa":13619,"##queros":13620,"89":13621,"DAR":13622,"Vargas":13623,"funciones":13624,"##tone":13625,"##tent":13626,"Tour":13627,"pierna":13628,"rega":13629,"ambiental":13630,"Ejecu":13631,"##istente":13632,"ofens":13633,"bolsas":13634,"instalaciones":13635,"VÍ":13636,"concur":13637,"cuadra":13638,"BUS":13639,"##cedes":13640,"Racing":13641,"##อง":13642,"elementos":13643,"empiece":13644,"organizaciones":13645,"Villar":13646,"##senal":13647,"extin":13648,"mai":13649,"periodo":13650,"inspira":13651,"raya":13652,"ignorantes":13653,"vengas":13654,"Hom":13655,"TRAN":13656,"estemos":13657,"fé":13658,"Aut":13659,"Portugal":13660,"##COR":13661,"##hon":13662,"hands":13663,"cacas":13664,"##tificación":13665,"##ECE":13666,"fascista":13667,"word":13668,"justifica":13669,"else":13670,"PAÍS":13671,"rueda":13672,"payas":13673,"tkm":13674,"Herrera":13675,"Bienvenido":13676,"shows":13677,"TOR":13678,"duela":13679,"Selección":13680,"##aré":13681,"increible":13682,"secundaria":13683,"Cámara":13684,"##jé":13685,"##plic":13686,"noite":13687,"body":13688,"indígenas":13689,"lluvias":13690,"Non":13691,"Atle":13692,"sali":13693,"##trucción":13694,"desco":13695,"##tones":13696,"##tors":13697,"cifra":13698,"pierda":13699,"Cierto":13700,"enamora":13701,"directa":13702,"Romero":13703,"pasear":13704,"##dicion":13705,"##xd":13706,"Produ":13707,"##pink":13708,"PERSON":13709,"ladrón":13710,"retweet":13711,"útil":13712,"fant":13713,"Exper":13714,"representante":13715,"Sob":13716,"##ija":13717,"Lpm":13718,"racista":13719,"senador":13720,"gring":13721,"Joe":13722,"facha":13723,"Vicente":13724,"als":13725,"Jin":13726,"Já":13727,"Bayern":13728,"deri":13729,"Favor":13730,"colegas":13731,"hur":13732,"nave":13733,"aficion":13734,"business":13735,"##aring":13736,"tocado":13737,"nintendo":13738,"Nose":13739,"##usion":13740,"carn":13741,"polla":13742,"##iving":13743,"penas":13744,"Frank":13745,"Tá":13746,"jodas":13747,"##ivamente":13748,"intimi":13749,"regga":13750,"alcance":13751,"ganaron":13752,"Cs":13753,"PARTI":13754,"##terías":13755,"##vote":13756,"aprendiza":13757,"##TON":13758,"actualmente":13759,"laborales":13760,"fanat":13761,"GRANDE":13762,"##ariamente":13763,"bring":13764,"Menti":13765,"aprendido":13766,"##bis":13767,"##eme":13768,"quedaba":13769,"cober":13770,"kil":13771,"##pite":13772,"autóno":13773,"##bidas":13774,"Nota":13775,"volunt":13776,"##GEN":13777,"Có":13778,"LIVE":13779,"maquillaje":13780,"petrol":13781,"incluye":13782,"sigueme":13783,"##entimiento":13784,"boludeces":13785,"mario":13786,"antojo":13787,"working":13788,"nacido":13789,"extranjeros":13790,"atta":13791,"87":13792,"##enzamos":13793,"INFO":13794,"atar":13795,"herramienta":13796,"HABL":13797,"##jama":13798,"Justin":13799,"Segundo":13800,"pequeñas":13801,"00h":13802,"miel":13803,"Mercado":13804,"bicho":13805,"##madas":13806,"duelen":13807,"Pdte":13808,"##aar":13809,"##NN":13810,"trailer":13811,"protagonista":13812,"FUCK":13813,"alemania":13814,"##remo":13815,"verdaderos":13816,"siguientes":13817,"72":13818,"maltrato":13819,"Cru":13820,"Esco":13821,"FF":13822,"##hite":13823,"Recuerden":13824,"recorrido":13825,"Park":13826,"##cine":13827,"quiénes":13828,"##ornio":13829,"whis":13830,"Impos":13831,"bende":13832,"room":13833,"cuerpos":13834,"##cab":13835,"bn":13836,"reproducción":13837,"creas":13838,"ecuator":13839,"inventar":13840,"narra":13841,"kca":13842,"93":13843,"conocemos":13844,"sopa":13845,"history":13846,"##oria":13847,"##ELE":13848,"metan":13849,"limpio":13850,"Mila":13851,"ciego":13852,"sobrevivir":13853,"##ÍN":13854,"quie":13855,"lp":13856,"##vila":13857,"pit":13858,"##night":13859,"vecina":13860,"##facta":13861,"ética":13862,"##ológ":13863,"admiro":13864,"##onal":13865,"Miércoles":13866,"##DAN":13867,"trampa":13868,"Cambio":13869,"estudia":13870,"terreno":13871,"##got":13872,"Pepe":13873,"Torn":13874,"Stu":13875,"Fuera":13876,"sujeto":13877,"abr":13878,"extremo":13879,"francés":13880,"Meu":13881,"Sebastián":13882,"Cora":13883,"##late":13884,"##UB":13885,"fallo":13886,"Cob":13887,"luv":13888,"simples":13889,"amenazas":13890,"fasti":13891,"lost":13892,"##ILA":13893,"americano":13894,"##às":13895,"Septiembre":13896,"foda":13897,"##CN":13898,"elegido":13899,"##edo":13900,"Recuerdo":13901,"verdades":13902,"##iebre":13903,"entró":13904,"deu":13905,"cámaras":13906,"bases":13907,"comparación":13908,"arres":13909,"##tista":13910,"encantó":13911,"didn":13912,"celu":13913,"tiros":13914,"mató":13915,"##zen":13916,"restaurante":13917,"Porqué":13918,"Abs":13919,"aliení":13920,"conversaciones":13921,"dd":13922,"Ref":13923,"revel":13924,"legado":13925,"##mante":13926,"Corea":13927,"Bella":13928,"seguidos":13929,"##mentado":13930,"spotify":13931,"resen":13932,"custo":13933,"pilla":13934,"oído":13935,"quinta":13936,"desse":13937,"Lic":13938,"intenso":13939,"preparada":13940,"chir":13941,"##soe":13942,"##ladores":13943,"##riam":13944,"##UNG":13945,"ARE":13946,"NBA":13947,"renunciar":13948,"case":13949,"##ootball":13950,"traigo":13951,"##ilas":13952,"estrena":13953,"Correa":13954,"eléctrico":13955,"polvo":13956,"siguiendo":13957,"precisa":13958,"special":13959,"PES":13960,"84":13961,"Ye":13962,"version":13963,"Acu":13964,"##99":13965,"claves":13966,"Jesus":13967,"potencia":13968,"##jarse":13969,"peleando":13970,"##aran":13971,"Tim":13972,"##wi":13973,"##trate":13974,"Will":13975,"Informa":13976,"##dete":13977,"hela":13978,"consciente":13979,"acordé":13980,"jajas":13981,"aval":13982,"tasa":13983,"pelicula":13984,"##tie":13985,"Blanca":13986,"chara":13987,"tips":13988,"##nel":13989,"votando":13990,"secretario":13991,"Estima":13992,"postura":13993,"##idane":13994,"##máticos":13995,"estupideces":13996,"golpes":13997,"desor":13998,"##críbete":13999,"DESDE":14000,"ill":14001,"WA":14002,"Cuidado":14003,"Apoy":14004,"##ándonos":14005,"##wan":14006,"Dic":14007,"maldad":14008,"Luz":14009,"Cés":14010,"Simplemente":14011,"ode":14012,"##AJAJAJ":14013,"ASES":14014,"side":14015,"tqm":14016,"mutuals":14017,"burro":14018,"ESTAMOS":14019,"Diciembre":14020,"vontade":14021,"fes":14022,"##omi":14023,"distribu":14024,"official":14025,"copo":14026,"Fox":14027,"coach":14028,"repri":14029,"plantilla":14030,"##deros":14031,"documento":14032,"##ulia":14033,"hes":14034,"tristes":14035,"abusos":14036,"héroe":14037,"vienes":14038,"Mí":14039,"tabla":14040,"##log":14041,"##TIVO":14042,"comprender":14043,"##tagena":14044,"grin":14045,"##ive":14046,"sobran":14047,"lap":14048,"Spi":14049,"ss":14050,"Visita":14051,"HDP":14052,"invis":14053,"##arle":14054,"duran":14055,"##ritas":14056,"##WN":14057,"##iando":14058,"abro":14059,"match":14060,"protocol":14061,"compartiendo":14062,"jour":14063,"cuadros":14064,"pongas":14065,"##lies":14066,"kilo":14067,"Pronto":14068,"##ISA":14069,"llevaron":14070,"aportar":14071,"Guillermo":14072,"electri":14073,"Álvaro":14074,"##anted":14075,"##DH":14076,"##ision":14077,"capo":14078,"hea":14079,"yg":14080,"##XICO":14081,"Sistema":14082,"baje":14083,"saga":14084,"##zamos":14085,"empezaron":14086,"Hy":14087,"##unk":14088,"##KA":14089,"Vizcarra":14090,"universidades":14091,"##AKAK":14092,"serlo":14093,"Fundación":14094,"piedras":14095,"falto":14096,"Cola":14097,"enojada":14098,"plantel":14099,"chiquita":14100,"palmera":14101,"paguen":14102,"94":14103,"detes":14104,"porte":14105,"abandono":14106,"juegue":14107,"corri":14108,"piñas":14109,"##mance":14110,"deberíamos":14111,"president":14112,"sigamos":14113,"páginas":14114,"Leg":14115,"##izon":14116,"detenidos":14117,"prés":14118,"##tuito":14119,"Mús":14120,"lamentablemente":14121,"leon":14122,"passa":14123,"Administra":14124,"áfrica":14125,"##ITE":14126,"negocia":14127,"carcel":14128,"Nico":14129,"AMIG":14130,"Pare":14131,"##EM":14132,"California":14133,"Teatro":14134,"Desa":14135,"##grafia":14136,"aveces":14137,"##BAR":14138,"##izas":14139,"##icidio":14140,"batal":14141,"estafa":14142,"##arán":14143,"arquero":14144,"##centa":14145,"votado":14146,"perfect":14147,"gastron":14148,"fiscales":14149,"graves":14150,"borre":14151,"reiv":14152,"ilustra":14153,"##rarme":14154,"reuniones":14155,"Volver":14156,"dormirme":14157,"recordamos":14158,"exagera":14159,"##cloud":14160,"teen":14161,"hiper":14162,"Fotos":14163,"dulces":14164,"##lares":14165,"determin":14166,"louis":14167,"GOBIERNO":14168,"cubanos":14169,"##dro":14170,"HUM":14171,"Yoongi":14172,"FR":14173,"tatuaje":14174,"forro":14175,"votación":14176,"##ivi":14177,"JAJAJAJAJAJAJAJAJAJAJAJAJ":14178,"hipocresía":14179,"Mala":14180,"despedir":14181,"Emer":14182,"reverencia":14183,"poesía":14184,"wee":14185,"dete":14186,"metal":14187,"##BS":14188,"Publi":14189,"biz":14190,"Sabías":14191,"Sino":14192,"nomin":14193,"soñé":14194,"comparar":14195,"WTF":14196,"Participa":14197,"nudes":14198,"bajas":14199,"Colombi":14200,"Independiente":14201,"##cions":14202,"##ELO":14203,"pánico":14204,"kk":14205,"piense":14206,"##ém":14207,"ricas":14208,"instante":14209,"progreso":14210,"AÑO":14211,"Esperamos":14212,"Robert":14213,"coña":14214,"recien":14215,"convirtió":14216,"##rales":14217,"preocupación":14218,"##hun":14219,"mandarina":14220,"Ulti":14221,"piro":14222,"##etti":14223,"disculpa":14224,"main":14225,"humanitaria":14226,"afectados":14227,"profesora":14228,"cali":14229,"##carse":14230,"cache":14231,"##eton":14232,"##ift":14233,"##GRA":14234,"Lol":14235,"Descubre":14236,"Miss":14237,"Bale":14238,"luck":14239,"plantas":14240,"Entiendo":14241,"riendo":14242,"Señores":14243,"preparados":14244,"recons":14245,"##ixa":14246,"Libre":14247,"##cimos":14248,"Aparte":14249,"castigo":14250,"Check":14251,"Xq":14252,"seca":14253,"literatura":14254,"sencilla":14255,"colección":14256,"porro":14257,"##zano":14258,"desblo":14259,"Dont":14260,"found":14261,"##TC":14262,"fuentes":14263,"diarios":14264,"##ress":14265,"learn":14266,"##glo":14267,"##vándose":14268,"beat":14269,"ponte":14270,"bloquear":14271,"profesión":14272,"Simp":14273,"todxs":14274,"Spain":14275,"TIEMP":14276,"compos":14277,"aceite":14278,"Isa":14279,"Ciudadanos":14280,"Alma":14281,"##íes":14282,"formal":14283,"##anya":14284,"famosa":14285,"afron":14286,"DEF":14287,"eeuu":14288,"##ieber":14289,"Fecha":14290,"might":14291,"##chill":14292,"##garme":14293,"positiva":14294,"##elsea":14295,"descorchada":14296,"FAM":14297,"riqueza":14298,"tendencias":14299,"ly":14300,"dispara":14301,"Depen":14302,"Ori":14303,"despedida":14304,"benefi":14305,"passar":14306,"orejas":14307,"listas":14308,"send":14309,"invas":14310,"##iral":14311,"escándalo":14312,"osorio":14313,"integral":14314,"lis":14315,"votantes":14316,"subnor":14317,"poderes":14318,"saludar":14319,"literally":14320,"Personal":14321,"##jete":14322,"Tribunal":14323,"Blanco":14324,"rescate":14325,"##larse":14326,"ésto":14327,"lets":14328,"Resu":14329,"##eer":14330,"Coño":14331,"aburro":14332,"valle":14333,"disney":14334,"colectivos":14335,"doler":14336,"estupefacta":14337,"himno":14338,"##dicación":14339,"colega":14340,"pera":14341,"Ray":14342,"##sición":14343,"VAS":14344,"##arez":14345,"delicioso":14346,"##tría":14347,"##pazo":14348,"inmor":14349,"escapar":14350,"##daste":14351,"aventura":14352,"absurdo":14353,"priori":14354,"alienígena":14355,"vestir":14356,"Gonzalo":14357,"suele":14358,"delincuencia":14359,"conquis":14360,"##rás":14361,"iron":14362,"##ADORES":14363,"experi":14364,"presun":14365,"tiendas":14366,"##trans":14367,"Pay":14368,"film":14369,"Unidad":14370,"plen":14371,"doesn":14372,"amplia":14373,"alquiler":14374,"n1":14375,"cayendo":14376,"hí":14377,"dispu":14378,"ocurrido":14379,"convencer":14380,"Juntos":14381,"Colegio":14382,"aa":14383,"vege":14384,"##wo":14385,"rojos":14386,"faltas":14387,"actriz":14388,"few":14389,"acabado":14390,"##talgia":14391,"##chis":14392,"##35":14393,"##ganos":14394,"asamblea":14395,"depos":14396,"serp":14397,"##ARO":14398,"Asociación":14399,"incómo":14400,"fet":14401,"podrías":14402,"kirchner":14403,"caracas":14404,"lleguen":14405,"Ton":14406,"Guti":14407,"destrucción":14408,"##idalgo":14409,"presta":14410,"trauma":14411,"Prec":14412,"Sui":14413,"supuestamente":14414,"dies":14415,"certeza":14416,"sentado":14417,"productivo":14418,"##gela":14419,"Conta":14420,"canso":14421,"hPa":14422,"presentes":14423,"robando":14424,"##caras":14425,"queden":14426,"Cumple":14427,"tuyos":14428,"##ees":14429,"talking":14430,"vial":14431,"gila":14432,"És":14433,"ARISTE":14434,"ole":14435,"involuc":14436,"academia":14437,"##KS":14438,"##too":14439,"pí":14440,"Próx":14441,"##hue":14442,"##37":14443,"##quad":14444,"zombi":14445,"PIN":14446,"Murcia":14447,"fiz":14448,"pegue":14449,"between":14450,"##ñarol":14451,"culti":14452,"Et":14453,"short":14454,"##itivo":14455,"Web":14456,"municipales":14457,"yours":14458,"##ctive":14459,"define":14460,"llover":14461,"pag":14462,"UNO":14463,"Encuentro":14464,"tropical":14465,"fortalecer":14466,"⠀⠀":14467,"cín":14468,"Ayuda":14469,"liv":14470,"Wi":14471,"definición":14472,"##tifi":14473,"##landia":14474,"volverá":14475,"fac":14476,"DEN":14477,"##ctiva":14478,"daños":14479,"heridos":14480,"JAM":14481,"perpe":14482,"2008":14483,"Vuelve":14484,"inflación":14485,"hables":14486,"damn":14487,"Tik":14488,"decepción":14489,"SOMOS":14490,"Descar":14491,"continuidad":14492,"Impor":14493,"Respe":14494,"decidió":14495,"contenta":14496,"Have":14497,"Técn":14498,"encontramos":14499,"merca":14500,"encen":14501,"repas":14502,"chama":14503,"dedicado":14504,"emprendedores":14505,"urgencia":14506,"bin":14507,"impotencia":14508,"ptm":14509,"##ades":14510,"merecido":14511,"creemos":14512,"hueva":14513,"thinking":14514,"##noun":14515,"absoluto":14516,"califica":14517,"llamadas":14518,"mandaron":14519,"Aguante":14520,"Florida":14521,"IGU":14522,"Agua":14523,"Beat":14524,"mandando":14525,"Fed":14526,"sección":14527,"Cuer":14528,"queréis":14529,"vives":14530,"##izadas":14531,"permanente":14532,"molestar":14533,"darnos":14534,"Tigres":14535,"eléctrica":14536,"JAJAJAJAJAJ":14537,"trasla":14538,"mercados":14539,"CARA":14540,"colaborar":14541,"nefasto":14542,"sabéis":14543,"2006":14544,"##añas":14545,"##tables":14546,"Latinoamérica":14547,"sev":14548,"suces":14549,"campeon":14550,"Mari":14551,"ARISTEMO":14552,"##orías":14553,"PRESIDENTE":14554,"previs":14555,"Tex":14556,"explotar":14557,"gobierna":14558,"Tuve":14559,"hablemos":14560,"Indi":14561,"BEL":14562,"oír":14563,"tierno":14564,"hielo":14565,"susten":14566,"miras":14567,"amado":14568,"César":14569,"Silva":14570,"RD":14571,"perspectiva":14572,"tirado":14573,"sky":14574,"##habilita":14575,"pájar":14576,"photos":14577,"Bio":14578,"deberia":14579,"HAB":14580,"saludable":14581,"##güen":14582,"##edor":14583,"TOP":14584,"##CUL":14585,"grita":14586,"million":14587,"##lardo":14588,"##ível":14589,"Hijo":14590,"perdona":14591,"directiva":14592,"relato":14593,"##chat":14594,"XI":14595,"lmao":14596,"televis":14597,"##pear":14598,"##zoso":14599,"demand":14600,"OTRA":14601,"oficialmente":14602,"digna":14603,"plataformas":14604,"llenos":14605,"kpop":14606,"perre":14607,"compas":14608,"##cci":14609,"empezado":14610,"##tuario":14611,"Víctor":14612,"SS":14613,"##mbia":14614,"##caron":14615,"onde":14616,"pantalones":14617,"enchu":14618,"ofertas":14619,"invitado":14620,"ensal":14621,"plástico":14622,"##quei":14623,"##video":14624,"##orama":14625,"LIBER":14626,"ner":14627,"politicos":14628,"##mble":14629,"ahhh":14630,"privados":14631,"sis":14632,"estimado":14633,"promover":14634,"divina":14635,"Alonso":14636,"wpp":14637,"past":14638,"anunciar":14639,"experto":14640,"fez":14641,"presi":14642,"##okjin":14643,"bestia":14644,"Foro":14645,"xddd":14646,"mascotas":14647,"##mous":14648,"snap":14649,"sl":14650,"cercano":14651,"Pob":14652,"llamando":14653,"close":14654,"ocupa":14655,"infar":14656,"talleres":14657,"cambiando":14658,"ina":14659,"insomnio":14660,"##yentes":14661,"PERD":14662,"unidades":14663,"AQU":14664,"muestran":14665,"soberan":14666,"Barrio":14667,"Ive":14668,"curiosidad":14669,"GRATIS":14670,"sweet":14671,"Autor":14672,"rodilla":14673,"jefa":14674,"understand":14675,"diosss":14676,"mola":14677,"2da":14678,"piscina":14679,"##tizar":14680,"niega":14681,"gallo":14682,"##ird":14683,"torre":14684,"##tización":14685,"Republ":14686,"BEN":14687,"esperemos":14688,"subido":14689,"tuiter":14690,"definir":14691,"Gro":14692,"robó":14693,"deport":14694,"##lón":14695,"moneda":14696,"duelo":14697,"retos":14698,"##vere":14699,"##ké":14700,"universal":14701,"Felices":14702,"##mios":14703,"fiebre":14704,"nalgas":14705,"costado":14706,"##juegos":14707,"zoom":14708,"level":14709,"74":14710,"complejo":14711,"habido":14712,"##iadas":14713,"discipl":14714,"cubrebo":14715,"Bran":14716,"socialistas":14717,"om":14718,"Taylor":14719,"bay":14720,"Valverde":14721,"copia":14722,"Fav":14723,"Uber":14724,"others":14725,"dirigir":14726,"##cono":14727,"wifi":14728,"oct":14729,"obten":14730,"TIENEN":14731,"deseamos":14732,"vuestros":14733,"##panish":14734,"concentración":14735,"ship":14736,"##rt":14737,"curvándose":14738,"santos":14739,"chris":14740,"refiere":14741,"Ahre":14742,"##uig":14743,"smile":14744,"hostia":14745,"##itó":14746,"cositas":14747,"pene":14748,"sospechos":14749,"gues":14750,"sincero":14751,"voice":14752,"##gota":14753,"serían":14754,"Dre":14755,"remera":14756,"##jarme":14757,"eee":14758,"tick":14759,"lav":14760,"##arquía":14761,"migrantes":14762,"Bendiciones":14763,"Días":14764,"marihu":14765,"##cones":14766,"pesadilla":14767,"House":14768,"Human":14769,"manual":14770,"click":14771,"##mobil":14772,"Revolución":14773,"ave":14774,"##TANDO":14775,"salarios":14776,"Peo":14777,"climático":14778,"apetece":14779,"Rol":14780,"Diputados":14781,"SEGUI":14782,"words":14783,"police":14784,"fronteras":14785,"Enero":14786,"explicaciones":14787,"opina":14788,"##ี่":14789,
[...]
