[PAD]
[UNK]
[CLS]
[SEP]
[MASK]
@usuario
url
hashtag
emoji
!
"
#
$
%
&
'
(
)
*
+
,
-
.
/
0
1
2
3
4
5
6
7
8
9
:
;
=
?
@
A
B
C
D
E
F
G
H
I
J
K
L
M
N
O
P
Q
R
S
T
U
V
W
X
Y
Z
[
\
]
^
_
`
a
b
c
d
e
f
g
h
i
j
k
l
m
n
o
p
q
r
s
t
u
v
w
x
y
z
{
|
}
¡
ª
®
²
¿
À
Á
Ã
Ç
É
Ê
Í
Ñ
Ó
Ú
Ü
à
á
â
ã
ä
å
ç
è
é
ê
ë
ì
í
ï
ñ
ò
ó
ô
õ
ö
ù
ú
ü
ć
ę
ğ
İ
ı
ł
ş
š
ż
ɪ
ɴ
ʀ
ʟ
́
̶
α
ε
ι
ν
ο
σ
τ
а
б
в
г
д
е
з
и
й
к
л
м
н
о
п
р
с
т
у
ч
ы
ь
я
،
أ
ئ
ب
ة
ت
ج
ح
خ
د
ذ
ر
ز
س
ش
ص
ض
ط
ع
غ
ف
ق
ك
ل
م
ن
ه
و
ى
ي
َ
پ
ک
گ
ں
ھ
ہ
ی
ے
ं
क
ग
ज
त
द
न
प
ब
म
य
र
ल
व
स
ह
ा
ि
ी
ु
े
ै
ो
्
க
ட
த
ம
ா
ி
ு
்
ก
ข
ค
ง
จ
ช
ด
ต
ท
น
บ
ป
พ
ม
ย
ร
ล
ว
ส
ห
อ
ะ
ั
า
ำ
ิ
ี
ื
ุ
ู
เ
แ
โ
ใ
ไ
็
่
้
์
ᥱ
ᥲ
ᴀ
ᴄ
ᴅ
ᴇ
ᴍ
ᴏ
ᴛ
ᴜ
ᵉ
ᵒ
⃣
→
⏱
─
━
┃
┊
┏
┓
┗
┛
═
█
▶
►
☀
★
☆
♪
♫
⚠
✏
✔
✧
❄
❣
➡
⠀
⬇
、
。
》
「
」
『
』
【
】
あ
い
う
え
お
か
が
き
く
け
こ
ご
さ
し
す
せ
そ
た
だ
ち
っ
つ
て
で
と
ど
な
に
ね
の
は
ま
み
め
も
ゃ
や
よ
ら
り
る
れ
わ
を
ん
ア
ィ
イ
オ
カ
キ
ク
グ
コ
サ
シ
ジ
ス
タ
チ
ッ
ツ
テ
デ
ト
ド
ナ
ニ
バ
フ
ブ
プ
マ
ミ
ム
メ
ャ
ュ
ョ
ラ
リ
ル
レ
ロ
ン
・
ㅋ
ㅠ
ㅤ
一
中
人
今
大
年
日
月
本
生
見
가
갓
게
고
공
구
국
그
기
김
나
내
너
년
는
늘
니
다
단
대
더
데
도
동
드
들
디
라
랑
러
레
로
를
리
마
만
면
모
무
미
민
바
방
백
보
부
븐
비
사
상
생
서
석
성
세
소
수
슈
스
시
신
아
안
야
어
에
엑
여
연
영
예
오
와
요
우
원
위
유
으
은
을
의
이
인
일
있
자
재
전
정
제
주
준
즈
지
진
찬
축
크
키
타
탄
태
투
트
티
하
한
해
현
형
호
화
︎
！
？
＿
｡
･
ﾟ
￣
𝐀
𝐄
𝐚
𝐞
𝐢
𝐥
𝐧
𝐨
𝐫
𝐬
𝐭
𝑎
𝑒
𝑜
𝒂
𝒆
𝒊
𝒏
𝒐
𝒓
𝒔
𝗔
𝗘
𝗮
𝗲
𝗶
𝗻
𝗼
𝗿
𝘀
𝘢
𝘦
𝘰
𝙚
𝚎
🌧
🎙
🏟
👁
📽
🕊
🗓
🗞
🗣
##о
##и
##а
##л
##с
##т
##ч
##е
##к
##г
##e
##c
##a
##l
##d
##n
##i
##่
##อ
##ไ
##ป
##น
##ี
##้
##ใ
##ค
##ร
##ม
##า
##ด
##เ
##ห
##จ
##ท
##ต
##ำ
##ว
##ื
##ย
##ะ
##ิ
##ก
##แ
##พ
##ส
##์
##ุ
##บ
##T
##G
##S
##s
##o
##E
##I
##6
##1
##5
##9
##L
##O
##b
##r
##v
##p
##B
##t
##f
##m
##ล
##ั
##ง
##็
##ん
##ゃ
##こ
##の
##D
##h
##A
##R
##y
##é
##u
##g
##N
##z
##k
##J
##í
##á
##3
##2
##0
##7
##й
##ь
##в
##C
##H
##V
##q
##イ
##ン
##ト
##で
##U
##M
##스
##지
##𝐀
##れ
##な
##か
##っ
##た
##け
##ど
##j
##W
##ن
##و
##ی
##ó
##デ
##ィ
##ス
##ツ
##ç
##ı
##x
##𝚎
##Y
##w
##م
##ช
##ñ
##P
##K
##े
##क
##ं
##द
##ा
##्
##य
##사
##니
##다
##4
##Í
##ج
##ح
##Q
##Z
##く
##い
##ú
##𝒊
##𝒂
##8
##ż
##F
##シ
##リ
##だ
##ş
##س
##خ
##ت
##➡
##ي
##ز
##ه
##Ó
##र
##ी
##त
##と
##ु
##व
##ி
##ா
##슈
##가
##ㅋ
##은
##α
##τ
##ε
##𝑎
##X
##ɪ
##ᴇ
##ᴜ
##ᴀ
##ʟ
##𝙚
##ü
##レ
##보
##ع
##்
##க
##미
##아
##고
##そ
##う
##し
##て
##る
##は
##즈
##š
##ู
##ข
##공
##Á
##ク
##ロ
##ナ
##ム
##ル
##ド
##ア
##さ
##ご
##を
##よ
##ね
##ャ
##カ
##タ
##き
##ك
##ر
##コ
##ミ
##ュ
##ニ
##テ
##に
##お
##어
##ラ
##́
##ò
##ä
##ち
##Ñ
##서
##𝗘
##𝗔
##나
##ㅠ
##ğ
##ب
##ê
##을
##𝒓
##り
##랑
##하
##게
##요
##들
##이
##소
##د
##ہ
##サ
##プ
##グ
##у
##п
##м
##마
##기
##あ
##ل
##ش
##로
##𝐫
##𝐨
##𝐥
##𝐞
##𝐚
##𝐭
##𝐢
##🗣
##پ
##や
##フ
##つ
##わ
##𝐧
##も
##는
##면
##야
##ㅤ
##ら
##め
##マ
##キ
##ッ
##ص
##غ
##â
##ì
##𝗿
##𝗶
##𝗻
##𝗲
##É
##수
##있
##데
##ã
##أ
##す
##𝗼
##が
##𝑒
##å
##인
##せ
##티
##→
##영
##생
##일
##축
##해
##ط
##리
##드
##ν
##σ
##̶
##ʀ
##ᴍ
##ɴ
##ま
##オ
##ட
##ு
##구
##🕊
##®
##𝘢
##𝘰
##д
##ö
##♫
##ι
##н
##み
##チ
##ô
##𝒆
##𝒏
##주
##ق
##ض
##ᴛ
##ै
##ᴏ
##ᴅ
##َ
##ブ
##𝗮
##𝘀
##à
##ᥲ
##ᥱ
##재
##진
##ł
##த
##р
##𝒔
##⏱
##𝐄
##☆
##À
##호
##크
##시
##я
##그
##𝒐
##부
##바
##에
##ம
##⠀
##Ü
##İ
##ة
##오
##를
##โ
##𝑜
##레
##►
##स
##원
##🎙
##연
##ù
##ف
##👁
##メ
##제
##으
##ª
##ल
##ि
##ो
##라
##러
##ы
##자
##Ç
##Ã
##ジ
##म
##バ
##प
##Ê
##ᴄ
##ę
##신
##늘
##ग
##𝘦
##성
##✔
##동
##𝐬
##ئ
##ے
##ھ
##상
##え
##─
##유
##의
##국
##ں
##⬇
##è
##⃣
##정
##현
##☀
##न
##ï
##⚠
##ब
##방
##븐
##б
##도
##🗓
##대
##석
##여
##디
##세
##ョ
##ह
##타
##와
##з
##무
##백
##ک
##엑
##┊
##┃
##گ
##❣
##♪
##만
##내
##화
##━
##ο
##ᵉ
##비
##우
##ᵒ
##키
##김
##ć
##전
##┗
##┛
##안
##ज
##❄
##￣
##단
##민
##ﾟ
##õ
##ى
##Ú
##✧
##🗞
##ë
##🌧
##태
##트
##형
##한
##★
##²
##ذ
##═
##더
##갓
##위
##탄
##🏟
##︎
##▶
##예
##┓
##┏
##너
##📽
##준
##년
##✏
##█
##투
##모
##찬
##ar
##mo
##io
de
##er
##as
##en
##ji
emo
##an
##ario
##su
usu
usuario
##os
##ue
##on
##or
##ta
##es
##do
es
que
la
##RL
URL
##al
en
##ci
##ara
##te
##da
##in
##is
has
con
##tag
##htag
el
##ra
##to
##ic
##re
##ien
no
un
##ón
##ol
se
me
cara
##ro
##ando
##le
##ti
ha
##mp
##la
##de
por
##ch
co
##un
re
##el
al
los
##ui
##ri
lo
to
##us
per
##mos
##ora
##am
in
##ia
##go
si
para
##ía
mi
##ma
##lo
##dos
##ab
##ción
cu
##ja
est
del
##ion
##ente
te
su
##ca
##di
las
##vi
##ás
man
##iendo
##ec
una
##dad
##uer
son
##ba
##res
le
##ga
##ent
##il
Es
##era
des
##gu
##oy
##co
##cia
##it
##ero
##tr
ll
cora
##om
di
coraz
##cu
mu
##at
an
##ce
vi
##que
##ica
##AJ
##jo
th
##ir
llor
##isa
##ad
##ada
##me
más
ten
pi
##ran
corazón
##tra
##ez
##lar
pro
ver
##tu
##ues
como
llorando
No
ch
risa
ser
##cion
##ter
yo
##ing
pero
sonr
esta
ap
##jos
pa
##tos
##ob
ex
##tes
##tas
par
##mi
##ono
##ico
##tar
El
ac
##pa
ca
##iz
as
##ur
##én
##AJAJ
##ay
##uen
##son
po
##ve
##ios
qui
##án
sonriendo
##ul
La
ya
ojos
##vo
##va
##ana
##se
pas
tu
##das
##bi
##ué
##tor
pue
person
##ten
##cer
##qui
##ver
##emp
ar
sal
##cha
##ud
tra
ni
todo
the
##der
ti
va
sol
##lan
##mb
##gar
pe
mano
##so
piel
Que
##ina
tien
pre
Me
tono
##ño
ja
##cho
ma
##per
##dio
##idad
##ens
mis
hab
##tro
tan
fa
li
##ru
Si
En
sin
comp
##laro
##za
cas
nos
##ER
com
esto
##ble
##dor
##cias
fuer
so
##tal
##et
claro
##ice
##ern
##po
ab
ah
##OS
manos
##ales
##ado
este
##pe
##tan
hay
##li
##EN
##jor
##las
sab
20
res
jaja
##ños
cre
Se
cuando
can
##den
##je
buen
##oo
está
##ici
##ión
##des
he
lle
na
mejor
ro
##los
todos
##ones
pu
##eces
porque
mal
##ac
persona
##ras
bien
cor
##and
##men
of
##ciones
Un
ent
##AN
for
mas
##mente
día
mar
##man
##AR
##mas
hacer
sus
dis
##les
DE
##gun
##pi
cos
Yo
eso
imp
men
rev
##ís
##mar
ne
De
##ut
##emos
##AS
fr
##iento
##du
##ista
ven
##gan
##OR
##ES
##ena
medio
fue
##ías
pr
car
##ha
##empre
vida
Por
##ito
##ces
##obre
##omb
nada
dor
da
amo
##ho
tiene
cam
##racias
##id
##ed
##ON
##vor
Con
qu
ve
##ita
##gui
gente
and
ami
Al
gan
gran
cal
pri
##ña
hace
be
fin
les
qué
muy
##dose
##enta
ju
bo
emp
nues
##che
##min
on
##ig
##endo
In
favor
pres
col
##ere
##qu
##UE
fel
##olvi
hoy
Lo
solo
##gra
ba
hacia
##iste
fuerte
##for
vo
así
ra
##zo
##jaja
##uel
##00
##ven
##ber
##nd
fal
lu
siempre
gus
ter
##car
Co
##tros
##bajo
pol
##na
##és
##éndose
is
##ona
nue
deci
mo
##con
pens
ci
dos
##be
##ts
pon
fo
##ros
quiero
##van
##jer
sobre
tengo
##ren
años
##ino
revolvi
revolviéndose
##encia
Re
##tic
estar
do
estoy
##he
hi
mun
##jar
Jjaja
Ya
##por
tam
ir
##rar
Cu
vez
us
band
you
##ún
bandera
Te
ahora
ta
##AL
##dar
her
##pon
ES
##unca
voy
cer
##ante
Los
don
##aa
bes
##no
##tir
##mer
algo
##AD
cab
To
##20
mucho
##fer
##ano
or
##cial
quer
apla
hasta
##ke
##tras
##CI
puede
Mi
##gos
##if
##par
##bién
##guien
pel
rec
casa
##gue
##can
fe
inter
##sa
ay
##dr
real
esc
hu
mil
aplaud
##IN
entre
##ola
##gi
aplaudiendo
##tiva
##bl
pos
ese
##eron
esp
pla
##ciendo
##tado
##amente
##AJAJAJAJ
##ie
dere
NO
fle
feliz
##ck
##ndice
neces
cosas
parti
##cep
##ly
exp
índice
##TA
##gas
Ch
también
##ee
##ento
##ío
du
##erda
##ece
Pero
conf
tiemp
tener
10
desde
##ão
min
toda
soy
esa
nunca
vol
ob
dorso
quien
au
menos
señ
verdad
cons
días
##eza
dar
sea
much
##aba
##lla
Le
Mar
##ores
##bol
##cen
era
val
##ientes
##ín
corazones
##die
##ismo
##iern
contra
##im
##olo
##toria
201
##gual
##th
mundo
##TE
##ómo
tr
Buen
his
##lti
mor
reg
##mana
lin
sen
os
segui
op
##cas
LA
QUE
mujer
##gua
decir
##ias
dic
están
ce
##bo
##uela
##ima
##ge
sa
desp
##tiv
Hoy
##deo
##tre
##imo
mad
19
homb
##ñana
tiempo
mes
##tando
personas
uno
##aron
##zando
##vir
##istas
##cio
ho
##ala
Gracias
amor
##cional
hor
ad
##entes
jun
mom
mismo
alguien
##ves
##obiern
país
##ris
##dores
##ido
sí
ins
##tica
ganas
##quí
frente
tar
##IS
##icos
impor
##tin
equi
As
blan
donde
lla
jo
##ame
Ah
cada
gracias
rojo
##mbre
año
##rec
##TO
Esta
jue
##DO
tanto
##eo
Ma
##ies
escu
##ine
san
EN
vis
An
Qué
levan
##gn
##amil
vos
jus
##gen
##xico
##AM
##culo
##tivo
##fec
San
##iv
we
gu
estu
Ar
Mu
##iones
##pas
ga
cono
han
traba
##ués
##tura
puedo
cuenta
##miento
lan
gra
Des
abajo
##obierno
tran
go
haciendo
nadie
##dia
tw
beso
igual
##RE
tienen
Esto
fu
##til
EL
##nos
##lu
rep
eu
cump
wh
##arios
bueno
pan
van
##cal
pes
##ted
muer
##ap
##ril
quier
bus
gen
otro
pal
mat
mam
##ían
it
##iente
dia
##ración
at
dice
def
super
famil
##mir
otra
mus
##ación
ol
pasa
cual
Qui
esper
may
##ID
boca
vuel
derecha
grande
Las
mierda
##RA
mon
##forma
mañana
segu
##tada
Ten
##ador
##var
sonrientes
##cil
##vers
lib
##ír
##cel
Como
Para
##anos
##tion
##tó
bar
plan
algun
poco
semana
arri
##vid
pen
##ible
final
CO
##ith
vamos
##tico
##br
mer
cul
gusta
##ment
sac
Na
nuevo
##dem
bas
##IC
todas
##rib
blanco
mie
az
poder
den
##HA
Cuando
creo
Ha
##ér
##cre
##pen
foto
##gent
veces
inf
prim
##iene
##amos
después
bol
##dan
abra
##ensa
##icar
sé
##jas
antes
##udad
##ile
##um
tal
##ill
últi
##pu
Pa
pues
##idente
momento
reci
nuestro
##char
ún
Dios
SE
##sul
##ale
##tante
polí
that
##uda
parte
##ria
The
camp
##oles
temp
my
##icio
ban
aquí
##pues
trabajo
cómo
##erto
Car
tus
##ds
arriba
pregun
##OL
bal
sue
##ers
cele
this
##una
ME
##rá
Ven
pun
extra
##ezuela
Una
Su
estos
Fel
##lor
fun
##vel
Sal
vía
falta
##gres
espa
eres
##ff
só
##ridad
Mad
##ne
noche
azul
##vis
##uerdo
##pos
##tad
##ib
##vil
##zar
with
gui
##len
Ca
##ida
##via
lanzando
apro
##fe
señal
miedo
##cl
##lante
##orado
oración
##úbl
am
##tv
##icación
via
##titu
queda
##OO
quiere
music
fuego
all
apoy
##ya
gobierno
gt
parece
flecha
##able
Hay
Th
dormir
video
Ex
dejar
tú
##trar
Par
##tido
##ctor
dej
##gún
ellos
##uro
Per
##ton
##dic
##dir
seguir
ojo
##fi
proble
hora
vas
##itos
##tbol
RT
30
##ionado
##tual
UN
##añ
vio
##js
sos
##cos
##útbol
##ollo
##cur
##blo
##gro
termin
respon
##TI
##ger
##ea
salir
Este
##alo
estamos
##dido
cuar
ima
pelo
##ant
##itar
##ht
ahí
##rado
15
##si
##elo
Ay
bon
buena
CON
##éxico
mí
estas
clas
sub
marca
dan
So
##fa
##cción
##AA
##pp
##chas
hermos
frío
somos
comun
##icas
fútbol
##eta
Po
cír
##RO
amp
historia
unos
nuestra
amigos
##eando
círculo
##itter
ella
AM
acab
estaba
TO
mtv
medi
prof
##use
flex
##rid
##eros
##UN
##gentina
##mon
ide
##ús
har
##one
ciudad
Pro
##ks
trans
12
gri
sudor
##tif
partido
##cios
##ome
hecho
comer
gol
estre
Di
af
cabeza
madre
equipo
##chos
##ñando
bí
pin
pensa
##illa
##omin
fan
##entos
salud
##ceps
hablar
##aya
primer
bíceps
are
flexionado
pasar
hacen
##entro
fuera
##tón
##orn
##otros
dijo
##19
camb
Así
JAJAJAJAJ
##antes
din
##izo
##EL
sabe
sor
será
##vio
poner
forma
##uego
horas
fi
cha
saber
##gado
Lu
ag
pensativa
peor
aun
chis
##pera
mill
##mes
##tadas
amigo
##entar
Ju
##rr
uni
amar
cualqui
morado
##adas
cri
cr
##ban
pul
11
ale
##hi
Ac
##AJA
él
veo
familia
direc
##ientras
Bar
Ro
##ka
social
nueva
##ss
dif
##eral
##bación
puta
cosa
Ahora
##IL
##ticia
corona
tenemos
cumple
##osa
##dades
##all
Estoy
lugar
segun
deb
##ior
##itas
##olu
comi
##mor
encan
deja
##tedes
##illo
##ura
vie
siento
##port
Ja
##cis
compar
by
esos
debe
elec
##idades
##cido
Gu
não
olvi
##tru
Com
Col
enten
nor
informa
Ser
##demos
HA
guiñando
invi
ning
auto
##tá
triste
IN
bril
bab
##gin
ví
len
##rom
pra
##lación
100
pueden
##izar
RE
##tados
##ular
perd
deber
Cor
2020
hizo
cl
hombre
##eno
volver
##ty
##ron
primera
pien
em
AL
LO
##eet
18
your
lindo
otros
##iso
##tamente
##tación
Espa
estado
##op
públ
##ich
POR
##vos
tienes
##uso
Cre
juga
je
presidente
cá
mayor
haber
##jal
podr
##ira
##lando
##lado
##mal
##RI
sólo
##ord
dem
Ni
pueblo
00
vic
##guen
ben
fotos
##rup
JAJAJ
sido
tarde
##tel
Pues
##ches
##ug
tipo
muchos
dios
encon
Qu
notas
##virus
##ial
sigue
produ
pap
SI
##MP
amiga
Tw
##bas
mos
DI
##ear
llama
##entena
asi
cambi
##óx
##gando
digo
##ándo
##iza
visto
viene
TE
##brando
acuerdo
##cía
##erte
lengua
lado
cui
##pital
espe
##ook
##cin
profes
paso
##iado
loco
##ite
apar
##vas
tor
Pre
##LE
##ry
chispas
##bra
llegar
Ne
##ció
nar
##lica
tomar
##dió
raz
difer
##US
##haha
disf
Cas
##mento
##ian
respe
##ist
##yo
Nos
##fas
ele
Eso
##ÓN
##ícu
##ii
##cri
##jes
##mm
PAR
ley
dicen
gas
##bre
caso
##cip
##ió
MI
había
bel
sho
##dida
ustedes
##MO
Tengo
##rin
único
cur
vir
##cado
casi
gru
aten
He
##ye
##cul
##migo
brillante
Pe
publ
dinero
muchas
minu
ante
##imada
pulgar
Man
##éis
celebrando
cru
##ollow
empres
like
apren
Quiero
cualquier
##UI
suf
sueño
mujeres
##hh
##amiento
##rante
##kk
##mina
balón
##jalá
estudi
aún
##tivos
##mano
Tu
##king
cuarentena
luego
Vi
##bado
##rados
Pres
che
##duca
##ood
pasado
palab
cap
##cie
##má
España
empez
desan
##DE
tras
##ombia
Li
##ñas
Todo
amb
##ting
##bar
interes
nosotros
domin
##day
##ticos
not
##vía
##eti
##LO
##comp
Jo
##llas
##yec
Venezuela
##gida
Cómo
##ilidad
art
pod
##anto
habla
pat
aunque
##tima
rob
quieren
##CH
estás
sh
mientras
contr
liber
ej
##isión
desanimada
econ
progra
levantadas
love
mejores
dol
jugar
tro
oscu
Son
sex
México
##pm
##zos
comida
musicales
##zas
##ell
##ional
lab
##para
ges
##ama
##ciales
comple
alto
Porque
hue
LOS
quedar
##rada
##ientos
encu
Val
##mpo
enf
come
2019
fies
##ini
##erta
##unes
was
##fil
esas
wor
##iar
prop
mucha
##wn
##gía
Bo
pensar
meses
have
14
##DI
##eras
##onces
tenía
##atos
##dios
tema
pare
Fa
millones
covid
enco
um
Hola
##gó
nuestros
agua
coronavirus
hici
mé
##dez
##ase
Madrid
Ra
##gada
recor
##vidad
##tencia
13
sino
iz
##AB
Bueno
pad
##dado
próx
##ual
corrup
000
verde
Wh
problema
Sin
##cn
blo
felici
##ps
##dial
##DA
misma
inten
calle
but
et
##ram
disfru
##ys
polic
negro
serv
##val
sale
hombros
##llo
agu
##ocu
ayud
##ix
prin
##amo
manera
one
tri
peque
##lub
##ernes
##quer
compañ
cho
##pec
quién
abo
sabes
##gre
resul
##ERO
hago
vivir
You
Siempre
##diendo
mono
Vamos
##LA
##vin
iba
Rec
romp
fir
viernes
reco
##tia
tir
##ral
24
##ick
##icial
bro
necesita
ru
chin
##mara
##años
##aso
Can
unas
Feliz
encogida
ayer
tele
entr
##orada
nota
Twitter
##ard
##ición
16
puedes
17
##ust
cris
due
mamá
llorar
opin
prem
##asta
And
##gal
gato
##est
##iod
agra
##don
CU
##demia
nivel
información
total
##HAHA
cel
hubi
##mple
##udos
conse
##tigo
seguro
oscuro
importante
inte
gana
ganar
##iden
ases
ren
comprar
izqui
Mon
up
il
escuchar
victoria
##aria
##gü
##ko
##ernos
##cima
lit
vale
espera
##tamos
day
Solo
##dica
bor
odio
##ados
ama
lar
just
sig
##IA
grandes
ves
tui
Más
##ticas
out
##her
from
##ity
##icios
##st
Gran
espero
tres
##mil
pena
importa
bail
sentir
##ñar
Don
##diante
capa
##gamos
##ua
Ins
desa
proyec
Buenos
tweet
##iencia
babeando
actual
mtvla
dur
aprobación
##uu
gafas
enfer
perfil
int
##udo
##erra
Soy
Neces
##IEN
siendo
##uld
mensa
Mor
entra
educa
Creo
##usa
##rea
ur
##ight
preocu
ref
exper
hijo
##cidad
tur
situ
##ría
##del
entiendo
confeti
funcion
##gia
algún
##ciente
roto
pende
juego
new
play
##GO
cla
##MA
conmigo
rela
##ip
##gel
##ler
realidad
Mo
##idos
##mpoco
##demás
##dy
domingo
radiante
##fono
cambio
25
##oso
aque
nombre
what
pone
##ila
##cor
programa
##rir
200
Nunca
##ung
##cito
mús
21
Todos
##ál
##cra
##atro
top
##ificación
gar
viendo
futu
##jada
##ecer
##té
Cal
##uestra
fiesta
perfec
trabaja
We
viol
acá
paz
pl
ade
##enza
sería
niños
##vent
punto
grupo
pier
##pres
##ese
Sab
pq
cuer
entonces
cans
##tiendo
idea
##ans
encanta
##ang
prote
##ire
##ización
ago
MU
Ta
usted
demas
##dito
##ula
ayuda
##ró
##CA
cumpleaños
escri
saben
period
rad
demás
estrellas
ton
bts
Ap
leer
argentina
repres
##lig
cues
trabajar
razón
##aro
tendr
cerrados
50
##vés
policía
durante
gritando
emb
lleva
lt
pay
hos
Ci
expres
suerte
arre
pron
nacional
especial
serio
minutos
extraño
ever
escrib
necesito
sacar
##cimiento
abrazando
canción
##icia
SU
normal
organ
desper
##ctu
##puesta
##taría
señor
##sos
##gio
sob
hijos
izquierda
Da
##IT
##uncia
Ver
##fo
buenos
menti
és
##und
sá
amarillo
##EE
Tra
Pue
Muy
##vesti
pelícu
política
fil
vs
mala
##portun
símb
##inos
mira
apoyo
AN
##imos
##MOS
##table
##ADO
Dis
dec
Inter
Or
plata
encima
linda
Fran
##ong
##ça
través
Min
haya
##ónde
##aaa
ata
DEL
Esp
creer
Ale
##isto
##sión
VI
personal
##ENTE
##ñón
##óm
##pido
##tis
fá
##ioridad
##ifica
##arr
perder
##ki
pagar
cierto
##are
alguna
lunes
gor
españ
vaya
demo
##usión
Ba
coment
Fe
llega
pobre
juntos
dio
venezuela
Pri
more
EST
abi
will
sur
##rump
música
cuernos
incre
serie
Aquí
respons
Pol
##rio
MA
##ack
##porte
llevar
##ciar
Gobierno
##taron
##ld
otras
##eran
Desde
chu
ejemp
Juan
tampoco
vivo
clase
##ess
##bé
perro
fra
##mando
botón
puer
asu
##ms
club
##OY
they
##eria
##ísimo
##now
buenas
Hab
expl
##ADA
partici
contin
recib
##EC
##IO
##embre
##ANDO
##aña
quieres
evi
podemos
incl
primero
dé
PARA
##greso
temporada
human
##TS
edi
tranqui
##ices
Ho
now
##isi
tre
sola
difí
##óg
##ticias
##ror
get
uma
sigo
sele
guar
empi
##rera
22
oportun
##güenza
Nue
mara
pandemia
cámara
##miendo
##cina
dicho
cañón
##trás
##SJ
##cla
orgu
cabre
anda
glo
sir
anti
haga
todavía
prue
##ct
##ENT
YO
bur
contigo
##istra
meu
##RES
bb
PA
Lle
xd
##cando
culpa
má
aliv
defen
pase
Ojalá
junto
hermosa
peop
mais
Argentina
##atur
último
log
conocer
##ques
conta
Pla
##bal
##udio
fueron
AR
##gina
luz
orden
##ions
##dí
wa
pelotu
toma
##pre
corr
dije
vídeo
Cha
##mero
bu
people
pedo
##jando
nego
ano
pasó
##esta
##ivers
libre
cole
Men
quienes
##ítu
flor
##icip
verificación
Sí
cabreada
##ooo
investi
princip
##arias
Hace
Sa
algunos
##xic
nu
Hasta
cuad
entender
##ole
puño
ign
##rible
recuer
acomp
cambiar
ps
Os
debería
exis
##CIÓN
##cto
##ok
casos
palabras
##tagram
Hu
Les
enamo
fui
about
etc
follow
abrazo
futuro
TH
##bles
presenta
pedir
##quito
infor
sabor
lpm
Mun
mundial
##CO
##bido
pob
mic
sacando
##pez
cine
dias
Vo
Jos
23
LE
justicia
##érica
##llos
##obern
##way
alta
Is
novio
##anza
mue
hermoso
##ceso
cuerpo
some
regres
hablando
Nacional
autor
Mañana
Mis
##dó
##vista
dentro
posible
escuch
inde
Comp
sign
fácil
CH
sábado
##istema
Necesito
##tera
##ezol
sta
recono
calor
##dencia
pesso
tenga
conci
respeto
Colombia
sentido
cent
regal
guer
##uir
##ink
##ner
##rito
##yy
##deos
time
indi
US
nú
conver
entien
##jan
morir
##ancia
##ING
##ção
derecho
##mó
Ti
Mal
##ef
Cam
##rez
anim
##my
gua
##VE
##ables
##arme
querer
##book
bonito
##UL
existe
40
media
jam
voz
estrella
sean
Estado
dejo
confir
difícil
##ish
##entas
##enas
premios
know
Quien
##celente
##ph
ri
seguridad
hermano
haces
usar
##ins
##tivas
libro
EX
ense
##VID
situación
##net
eh
Her
##ienen
Cada
ejemplo
esperando
campe
##dita
2018
Felici
única
##guay
##tt
vuelta
bra
precios
chi
gro
Muchas
##tancia
lí
show
rá
##tener
rico
das
##ex
##ós
Cris
Pas
dolor
##mia
##CION
##dico
##rando
twitter
##nacional
##cir
buscar
voto
servicio
hemos
diciendo
Ese
##ME
malo
Alguien
av
##ecen
permi
recu
puntos
control
culo
llamar
Mes
demasiado
encontrar
libertad
##remos
Am
##arse
##201
##pados
##iro
payaso
##dando
atención
moles
vergüenza
##voca
deses
Real
agrade
acep
ayudar
##date
pregunta
##gación
tel
##GA
muerte
pele
For
kkk
##mientos
radio
Día
##rió
##au
trata
Be
if
##adores
chan
alma
der
##íble
podría
got
##mit
Pu
##UR
Res
redes
##gles
superioridad
##fico
##qué
##rate
contes
##rasil
crisis
encuent
##bro
dando
gira
##art
##inas
senti
Mas
##pan
hice
solu
problemas
##uli
ignor
estan
##tina
bir
util
##ác
rato
##aban
emple
##terio
noches
##ther
Us
Do
cir
camino
##taciones
españa
quería
AS
Bol
fon
lista
chile
##ft
PER
##coles
ado
##IR
##jsjs
deba
LAS
agar
dónde
segundo
##cebook
bajo
bloque
asco
##quen
##imin
PU
Del
Fin
partidos
##bu
Ben
momentos
nuestras
##rano
revés
err
explo
ningún
YA
than
##uno
acaba
##ulio
##este
Ter
##úper
simple
empezar
hombres
##em
##col
##ORA
duda
envi
doy
aj
##AJJ
realmente
afec
cerv
fran
fuerza
xq
eno
##izado
Go
público
descu
vino
queremos
Dan
méxico
##ículo
abur
pensando
creciente
What
papá
##tantes
diga
Estamos
obli
ans
##ise
##pada
Presidente
SO
covid19
Je
##apro
violencia
acos
Euro
esperar
year
##ciedad
tanta
##torios
##ár
Espero
última
Quer
sistema
mensaje
contag
jueves
cama
limp
every
hon
vaca
ou
when
##icado
Chile
amigas
##pare
##ecu
##dal
copa
##tión
econom
bla
verga
mandar
dra
##aste
bailando
Trump
avan
##ser
##dura
##cida
además
Jun
brin
##tero
DES
Tam
gusto
terminar
wo
##teo
Mira
desapro
##istro
hicieron
Esa
##ll
euro
Ob
Bien
valor
película
mó
see
##tió
Está
pronto
gal
##ep
toca
onda
venezol
##TR
elecciones
entren
ocur
our
padre
segunda
sent
siguen
luna
desarr
##uito
sociales
agotada
who
CA
proyecto
##tales
gesto
imagin
puesto
##ología
##ric
decep
##bien
fre
saboreando
xD
##gl
##tral
cin
##tidad
vac
##diciones
económ
##end
##bes
##brar
QUI
abs
##ré
Gen
##usi
dob
fas
mane
suel
noticias
##ólo
fut
té
derechos
sector
##ude
aca
##we
duele
##dente
Pi
##abo
manda
##PA
Igual
niño
posi
##21
darle
##ór
##itan
##puesto
gi
##ull
hospital
educación
tem
dispon
dado
##2019
##fica
##torio
Luis
desaprobación
##ÍA
pueda
bola
hacerlo
llev
##torias
estudiar
##gir
##tran
##TER
aqui
seman
reun
quiera
clases
##eración
llu
##CE
##tream
súper
##gué
gobern
Ab
Ve
promo
virus
cuatro
candida
impos
UNA
pasando
meter
esté
##inar
##sas
##tle
símbolo
Voy
próximo
cerca
Ad
Gar
sonro
Du
##ello
##incu
signo
Carlos
enter
even
##gon
alcan
votar
ok
cli
##xs
acor
mascar
Emp
Segu
canal
##TOS
faz
acer
vuelve
##tarme
consi
##eck
busca
##mentos
entrar
cien
##tador
lucha
mexic
respuesta
diri
univers
##ería
This
##ings
##CIA
pienso
hambre
despi
acti
políticos
##celona
seas
deben
##2020
seu
##diente
star
acabo
Fern
ener
##ju
gir
Nada
##lin
jugadores
##villa
tapados
jugador
cier
centro
idio
##erno
##andom
luces
##DOS
##ugh
campaña
hubiera
silen
##tán
desespera
hagan
orto
cerveza
how
##visión
movi
allá
FA
##pren
general
##dieron
##ach
obje
sonrojada
nie
##mación
acompañ
##VO
medios
pequeño
conten
##ste
ré
##ican
fla
contar
26
viv
aman
sup
##unt
##ket
ahor
Señ
tenes
efec
martes
Jaja
consegui
28
Mer
nuevos
bebé
sociedad
resto
##feo
PRO
best
Desp
matar
Pan
##iscal
##CU
liga
Fal
##itando
quedo
##miaw
COVID
##ght
##BA
durmiendo
##ari
off
datos
##cracia
mando
PS
Saludos
gre
Fo
##10
good
##ítulo
demos
prepara
##graf
##hu
happ
##top
vay
say
##iada
hija
papel
según
##IE
##tarse
regalo
uso
rápido
##damos
ind
##ído
##có
pessoas
ESTA
##arte
##zada
venir
##éndo
##ws
Tan
27
veci
imagen
desc
##ure
##tito
vive
dro
merece
##ny
termina
avis
corre
bastante
##uras
ninguna
##OOO
##fé
##kes
##ará
##ses
vieja
ori
dese
sabemos
Sol
aleg
It
ár
cree
back
sep
bi
Eu
novia
consu
##icamente
VER
cerrado
trofeo
municip
##TU
musical
protes
QU
##chez
##ky
actu
Jus
##zco
tit
##leta
pá
##ning
tuvi
Imp
medidas
joven
presu
produc
##ÁS
oficial
Eres
##nas
##pular
##cheta
##áis
##cidos
detal
##entan
opinión
opos
bom
José
labor
eran
número
##uestro
##tino
##rido
noticia
ass
LI
##itch
##RAN
depor
##curso
mío
Mac
##ICA
Tor
esti
##olución
celular
##atch
partir
##gues
##tí
terror
tren
mtvmiaw
AH
Maduro
char
any
##ete
subir
Después
May
far
##ille
##lease
JAJAJAJA
cruz
sec
Toda
##cuador
foi
##up
descan
##atural
viejo
BTS
mayoría
insta
##mun
impres
Santa
rosa
oportunidad
Facebook
##ical
mente
móvil
TODO
puto
##gencia
team
recuerdo
##vado
##fuer
chicos
##gor
PO
hermana
levantada
TU
compartir
red
tuit
Cons
##quiera
local
ros
literal
Aun
verano
##lix
telé
comen
##GU
##AAA
sorpren
bomb
fras
EE
ON
Mil
##mental
##ombi
##día
tes
feo
minha
##PE
##dora
ropa
aire
##tores
cont
##mado
##ornada
ase
Messi
##AMOS
chincheta
perdón
##ioso
jamás
tenido
cumpl
tambien
dó
alivio
Entre
ke
##hor
carrera
##cê
need
globo
dedo
##UU
live
AMO
##TAS
AC
##bum
##ls
justo
indepen
##mera
beca
tiempos
vacaciones
hilo
llen
mín
SER
pongo
enc
empresa
atrás
decepcion
##iciente
##erv
##menda
correc
VID
Pal
Che
colombia
##dé
imag
significa
cuanto
ESTO
##mis
##bio
golpe
futbol
institu
ojalá
##ulo
vai
here
palabra
mate
##line
Claro
vemos
profesional
GRA
vom
##ker
increíble
##QUE
##eek
##tivamente
##lada
##respon
capital
cari
mental
web
creen
manif
My
felicidad
paci
Ri
##eee
##sar
calidad
its
edad
##bió
empresas
También
espec
##eres
corrupción
exig
ahre
lín
Va
niña
Instagram
dev
##yendo
##ctubre
color
##zan
prome
##ablo
##mena
##ustra
want
##abilidad
giratorios
conven
##uera
##dd
aut
apre
##dera
blanca
##bli
##MB
sabía
arran
##icion
lejos
señora
guerra
apor
##vera
##bida
##hs
##VA
##hy
muertos
ponen
Gua
disfrutar
compro
distin
##quis
Mejor
##gados
ejer
Im
dólar
político
VO
banda
##rí
semanas
##ública
Buenas
libros
ido
mismos
salió
##INA
Than
##ércoles
##ley
##sion
##chi
dom
juega
tierra
atra
##ándose
Nor
On
Camp
##anja
denun
their
##ign
##talla
olvidar
pais
Amo
repro
mía
reac
viaje
éx
países
ofre
femin
##uta
CAR
militar
rid
COMO
herman
Ros
familiar
abor
hin
cere
dejen
vivi
##iedad
Nadie
sens
teléfono
Ped
siguien
##EO
##cionales
cae
defender
varios
them
secre
##ferencia
aw
enfr
inv
##II
Cara
##nn
pareja
im
tecn
humor
##ópez
flas
fuck
##fiero
pelig
##orge
habrá
evitar
aga
##igh
him
temprano
##lic
lluvia
canciones
jugando
unidos
tantas
##ramos
##iel
##ruz
loca
##ICO
duer
mirar
Ayer
##onas
ep
alcal
aprove
directo
aprender
At
##int
Quién
constru
##taje
stream
happy
anun
cra
##ZA
##gente
benef
gustaría
llegó
##ERA
colec
solid
THE
90
##ICI
##ares
respec
##ation
##ANA
##tiembre
cansada
llevo
##mber
feel
##ally
seguidores
rey
##ator
##fin
##roso
expresión
PUE
arte
because
##came
relación
café
án
Rob
Fu
zona
cielo
largo
adelante
##tur
refle
comien
inc
##tions
##bil
did
Cos
esfuer
maes
bru
obra
encuentro
##eren
##óven
algunas
dieron
app
intelig
isso
impues
##inda
español
##gle
precio
##flix
##pación
mueca
TEN
##dición
##thing
GO
cad
bet
deje
##itario
##TRA
llegue
pide
##bamos
##anas
chil
realiz
##ami
baja
##mbo
##uerto
cuán
##oll
resu
##tín
liger
##nt
colab
Hi
##ducir
delincu
rt
500
pruebas
ries
depen
##jen
López
##óvenes
##talia
##etflix
diferencia
##cti
fecha
lec
80
hom
##ak
ulti
##trando
##JA
doble
##tri
##BI
##berto
##SS
##sual
siente
entrevista
##uelo
dipu
apa
mayo
29
Covid
##san
aband
naranja
digi
##didos
escribir
debate
despe
##yn
critic
##ters
##jun
##encias
esperamos
dudas
internacional
##icol
##queo
aguan
fantas
Ami
tec
Ciudad
##tiago
ocu
##unda
pic
##uido
AP
natural
viola
dont
marcha
tat
adver
cuan
poquito
absolu
hel
exa
##anda
tengan
Au
##get
madrid
chica
##inho
Barcelona
##ezo
##VER
quedan
memo
##IG
##monio
vc
##TEN
escuela
juro
##cionar
Har
ala
pasan
bonita
ev
##wer
##ding
Segui
##tale
técn
##ime
resp
enfada
ligeramente
paro
##ianza
31
venta
mel
presiden
imposible
fondo
##terior
been
asegu
trabajando
ahi
world
silencio
##anti
make
flo
experiencia
videos
peda
Pos
##jeje
tuvo
maravil
líder
basura
excla
padres
Aunque
Ce
Pat
mascarilla
hacemos
##zz
##AJAJA
##dp
##adora
hojas
você
only
finde
Gra
Cono
anal
insul
bron
compra
preven
pensé
cuba
cuentas
recordar
enga
win
TODOS
gustan
##vez
pública
##rica
she
SAL
puso
crí
digan
60
Mientras
JAJAJA
siquiera
falle
caer
dejan
post
Tú
democracia
##ku
JAJAJAJAJA
dices
Mir
##tilla
leg
##puestas
cultura
desesperada
Tran
prepar
over
historias
info
##rés
##py
horrible
##tear
##lores
##rero
economía
2017
MAR
##mite
##ribu
Super
##gosto
exclamación
##tory
##bla
##AY
iden
recur
sirve
##TAR
chor
cen
##sen
##menta
inicia
##antina
llena
##lito
tá
##till
##KK
Pablo
##ose
crea
er
##gran
sw
vista
Felicidades
tuve
Sen
mentira
María
##mate
disponible
##CIAS
COM
nuevas
##bit
fís
##olver
deseo
PERO
conoce
repe
mitad
Uno
##cola
##ruguay
##uros
cuesta
cargo
##tem
agre
seria
orgullo
estudio
Sh
arro
##ienta
salen
recibir
pie
descar
##ze
oro
andar
##acto
ellas
lá
Mig
##pes
quedó
fans
prensa
Domin
##ving
gratis
##icha
necesario
suce
frien
internet
tv
escucha
##alu
causa
##dón
DIOS
kcame
Bus
##gs
ka
kcamexico
##imas
45
##EZ
##gimen
colo
jóvenes
too
boy
Rep
ran
##lec
MAS
goles
really
##uliantina
##ísima
buscando
pesar
##tida
Direc
##ánchez
dale
##zado
##teros
again
mode
Tom
saca
Sec
grogui
##sel
##olina
encar
PP
##cent
Gal
##tró
would
comunidad
convi
miles
RO
explica
Bel
hablan
##tio
life
PE
presente
##SE
##follow
##hora
Pon
excelente
modo
##cura
extre
##itaria
eter
máx
##dimos
fer
nomb
reti
cat
##isco
##jeron
equipos
35
comentarios
##mica
##indo
caliente
flash
NA
##chando
DO
##DAD
visita
##ady
raro
trabajadores
##olos
puse
cuidar
miércoles
Ga
proceso
có
fri
##zados
calles
##isis
corriendo
Estu
Fue
##cate
Def
##cita
New
##JO
##voz
Será
últimos
PAS
##lez
##RU
colisión
participar
legal
Enton
propio
pido
##mpions
Comun
consul
pendejo
Mat
genera
ello
way
cualquiera
Europa
BU
##IM
siguiente
dicta
##ush
##cien
segura
##ways
tb
dise
nas
Entonces
fav
##riendo
estuvo
amena
campo
recha
##xa
acu
##ames
Tal
##uena
##capa
##ey
empieza
línea
repor
dign
concha
docu
##unta
tin
##uesta
diferente
Brasil
##ards
orgullos
##taria
##crip
supon
Sánchez
##dicos
argent
game
já
Somos
##jala
##isiera
cagar
querido
Pedro
árbol
Vos
bre
##hhh
representa
obvio
enfadada
dormi
mater
rat
##xt
últimas
volvi
##hol
##pia
nomas
##entando
##pol
ofici
##gri
emocion
colegio
familias
##IZ
##éc
espacio
jar
Salud
##turas
defensa
##ibles
SOL
vidas
vomitando
prob
latiendo
cic
arreg
sonrisa
daño
##rue
##sea
Polic
recla
##poca
estuvi
decl
##ibilidad
##ministra
think
check
muito
argu
puerta
##isla
##ines
salga
joder
##titud
pesos
##amá
##medad
decía
##arlo
penal
##CK
##pla
basta
##iosa
sueños
navidad
somb
week
##brero
arco
##ide
perfecto
temas
##TES
AB
animal
disco
##zó
gil
publicar
##AK
Pens
prác
lograr
##zá
emer
first
vienen
capaz
##ilo
ses
esse
##ind
error
Cab
abril
duro
barrio
today
ens
black
quieras
AMLO
70
##ienes
##ded
televisión
tiro
cuento
América
##ctura
##titución
Estos
Ru
##TOR
advertencia
conseguir
bajar
opción
Gre
##hoto
dejó
##cí
aus
non
there
mata
deten
llego
tengas
julio
mani
admi
ansiedad
octubre
dul
##arn
marzo
histó
abierta
votos
piensa
masa
##rs
patr
vou
Ban
##ily
##ney
quede
Tiene
cumplir
TV
defini
##alda
jornada
sat
mercado
HOY
bici
CAM
pis
amista
amer
funda
VEN
Vic
##ditos
##rida
inicio
huevo
refer
Bra
adop
podes
##arma
Escu
##cy
Sus
provin
##truir
listo
verte
equivo
##ienda
Reg
tenia
solici
recuper
PRE
despues
curso
Además
diferentes
besando
##pira
##ví
ciudadanos
venga
perdido
declara
podía
mesa
##allo
sexual
##IDAD
estaría
##isten
saludos
riesgo
##amen
paja
##vela
felices
FU
Ima
caca
bat
##rán
contrario
tí
incluso
##ández
##iga
opera
conozco
tapada
estaban
##han
Algun
##mpa
genial
##gg
##ardo
##ela
ná
Univers
servicios
##rias
##fff
vecinos
éxito
decis
viva
alco
never
COR
sangre
##ni
##bia
vote
Bu
##dilla
mama
alim
mol
##ww
MAN
##vador
##cular
after
##matic
lleno
unfollow
junio
##PO
suficiente
aud
resultados
necesidad
crimin
septiembre
propia
##ionales
Señor
##xto
into
##bel
dedos
##ENA
home
##cera
ideas
##iva
##isas
LL
##juliantina
##lido
##chan
Of
Donde
ingres
Pin
##ñe
##illas
Rey
estados
ai
CAN
base
stan
##igo
NE
narco
hablo
escuchando
torn
continu
huevos
##ying
##timos
##QU
asus
mantener
estud
##cus
finan
muerto
##cing
sp
puro
##12
Otra
decepcionada
playa
baj
##amer
MÁS
##vidades
sim
NI
TAN
##chu
Martín
dura
entrada
diario
siga
banco
##gus
##PER
prohi
##quina
tantos
abrir
chico
##wa
acabar
esfuerzo
tirar
preten
concierto
##tifica
decisión
digital
Miguel
caus
pago
Recuer
manten
denuncia
altavoz
sel
##énero
bos
mtvlaf
escon
##logo
polit
##ásico
##icana
moral
China
Otro
destru
feste
mínimo
##kook
prueba
estupi
seguimos
##cons
completo
PR
comprom
confianza
za
##iano
Gon
##trado
PRI
ko
##HH
relo
Esper
conversa
pidiendo
carajo
fiscal
médica
jajaj
humano
##taba
maravillos
EEUU
huel
apoyar
compañeros
fracas
doc
##quita
cantidad
Cla
Ahí
verlo
spo
muero
frustra
diver
##jero
totalmente
##gna
##gular
mul
leche
desarrollo
termine
If
tocar
##mada
##genes
mier
##mendo
##lé
bella
varias
estorn
##FA
acciones
mio
próxima
popular
besos
triun
big
Parece
##guez
imb
##tadores
entiende
acuer
##grafía
sui
joda
##ane
##icara
tuyo
SON
##jado
clara
bbmas
Excelente
Jue
look
gener
##icó
cuarto
dibu
##leza
hola
Acabo
##TAN
##hn
##ges
##xi
impuestos
celebra
##sed
condu
periodista
##ciembre
##useas
##urs
conden
##dri
bille
Cap
vender
robo
##orar
Die
##sun
parar
##by
Dos
##AJAJAJAJAJAJAJAJ
MAD
muchísimo
pocos
##eth
els
Macri
##sur
diciembre
##oogle
gobiern
wey
explicar
cerrar
##ars
##dis
heart
##vie
esperanza
##cada
right
Án
Sólo
##yó
##PM
##ple
Congreso
neu
ene
##ticamente
usa
crees
Jes
rom
adul
##ful
tudo
coche
elimin
Tenemos
ador
empren
estará
Av
##erro
preguntas
reír
km
##doba
enor
online
##úa
Nuevo
years
##udando
won
recién
##jus
frase
salva
##2018
aco
piz
oposición
recursos
pinche
lol
dijeron
apl
##tita
##zon
náuseas
##tidos
apenas
RES
##pado
##idas
lea
campeón
echar
clar
símbolos
##oración
sem
humanos
resultado
derro
Vaya
##ense
mari
CD
negocio
Era
##rita
cuándo
gh
##iados
##mpl
suspen
Bon
##DER
régimen
salida
siesta
conte
MO
GRACIAS
SA
Conf
##ITO
mach
incen
desta
##eas
resop
origin
Liber
mete
publi
porfa
##fans
CAS
Bor
Final
cerebro
ando
Sor
resoplando
300
pobres
entrega
nerv
mostrando
neta
Estas
IS
##11
##dre
cuál
##icular
mejorar
still
##ene
simplemente
pudo
Cual
vayan
cambia
##estiv
essa
quin
brindando
som
##ónica
Anton
work
cub
teclas
bomba
js
##ço
##aram
Ama
colombi
##iti
allí
memoria
población
baby
reloj
interesa
ching
ganó
explotando
##pul
titular
romper
ot
XD
Hol
Sos
Fuer
stop
FEL
cariño
##ógico
ela
ali
##iversario
Gol
repar
##bor
##ñan
recuerda
toque
Plan
cancha
riv
gestión
ejerci
Lat
MAL
##vada
Extra
agosto
##ayo
hacía
época
terrá
terráqueo
realizar
Mus
Ley
##ork
tarta
micró
##tea
##lados
distancia
Amer
##tillo
racis
FIN
trá
alum
ras
##row
estilo
##land
##tagon
elector
Esc
##ivia
deberían
pied
##keting
VA
##tm
aur
embar
gotas
##endario
muestra
caga
periodistas
gay
36
abuela
mexico
responder
saludando
OF
##50
pren
famos
grave
Hos
##jd
##eratura
malas
free
##tw
were
General
mediana
Cent
empleo
Alberto
desay
estudiantes
reto
serán
Cul
humil
grupos
##buena
placer
Centro
##segu
discul
##izada
interesante
anto
eta
Dr
2016
33
##tres
propi
##tumb
Az
##ders
pegar
MIS
bebida
pil
##ife
##mamente
##udas
debemos
##40
bailar
##mmm
ile
##fon
##ribe
descon
novi
deporte
Oh
##bilidad
##tividad
venezolanos
objetivo
automatic
estrate
##BL
responsabilidad
##ring
##thday
exo
##ILL
All
BO
fres
##TRO
##CHO
##dedor
##cle
bio
Rom
piso
##pro
alre
cár
defien
Nueva
##drá
##icano
##lia
##istemo
always
palo
##cam
sua
cero
##món
##zás
vuelvo
pregunto
var
viento
NOS
chicas
chocola
YOU
Mara
##abil
##aldo
gon
Jorge
His
Catal
detalles
SIN
HER
CL
Ur
imagino
EU
redon
paga
Copa
micrófono
Sigue
##tiene
tío
crack
##dela
dep
##meros
parecer
bronca
##tora
página
esca
género
tho
sorpres
existen
##jue
selector
##dría
##media
nem
##viendo
##ORES
desapar
pelotudo
09
desas
camis
##SK
DA
salvar
hahaha
##ertas
Ella
##quin
bri
madru
comba
versión
Santiago
##ógica
Unidos
Bla
mensajes
sk
Ok
hogar
FAV
##red
##tui
NADA
rece
gos
calendario
piern
tomando
##UM
Corona
llegan
prima
Jesús
##quero
chiste
htt
aliviada
teniendo
vea
##oc
had
going
why
estornudando
##gido
bl
##ets
anoche
hagas
twit
personaje
##icul
solución
fron
enero
link
##itor
alter
encuentra
alcohol
honor
pinta
checked
asesina
spe
##leno
Guar
##mg
juegos
cuidado
TRA
being
inclu
crear
juz
cate
condiciones
minuto
respecto
energía
llevan
primeros
ig
BE
Rad
bolsa
##estival
Dale
baño
automatically
##tive
cn
comentario
Netflix
sexo
dictadura
pudi
multi
perdon
avi
Ana
##test
miss
##30
##verso
odi
Boca
bad
manifes
##sura
##usia
##QUI
guste
brasil
##quilla
##mania
04
please
compromiso
##istencia
##jeros
queria
pura
##icaragua
##ombo
mag
saque
animales
##18
hubo
películas
##ate
papa
##uma
##HAHAHAHA
compe
funciona
##ncia
##VI
http
suena
obras
pierde
peso
##hip
rol
Nuestro
##glés
mayores
tweets
##fes
##teca
dólares
stu
fru
Ag
perros
River
proces
down
##vier
Total
##pareja
##oli
común
febrero
borra
##amientos
##mé
##BLE
veh
Están
##icen
Algo
necesitan
Antes
199
##ERN
consid
TIEN
dele
pude
Igles
camiseta
##misión
AY
celebrar
##ADOS
sien
haz
micro
rica
Van
Estados
Ara
##ustria
supuesto
inici
quieran
sigan
##rón
sera
##tré
afuera
does
##álisis
##ctores
##mágenes
Deja
army
vuelva
bara
Gab
Perú
Mundial
estren
ladr
series
patria
episo
##didas
amlo
quedate
hacerme
detrás
elegir
Vía
##ond
há
##ube
tru
viven
##esa
evento
Cruz
Cuán
artículo
cd
##cero
visit
vul
Deber
llegado
llamado
pendeja
Sil
tour
##nes
neg
cita
medal
##ben
OM
administra
##sus
hiciste
Domingo
ESTE
##horabuena
estadio
##vación
intentar
alegría
tira
comb
##cales
favorito
Tre
Vol
##als
movil
##SI
##teando
##cta
##ALL
supera
rock
ara
##ecuen
cocin
grá
##pó
recupera
resta
##let
verdadero
##ÁN
puedan
selección
mtvlapareja
complica
agen
watch
ecuador
Cl
interés
montón
##MI
sing
HO
##HO
##ance
tratar
molesta
responsable
##ándome
##versión
chocolate
consider
Acá
##AJAJAJA
actividades
##cian
2015
cocina
acción
leo
##gy
cárcel
Menos
nom
same
Villa
capacidad
##cisco
irme
##dade
##cón
pega
quem
##cara
digas
##mx
propon
publica
##SA
##ham
Abra
##pito
agora
##gón
could
necesitamos
followed
##gracia
##ducción
##CHA
should
##eep
ambos
quando
cinco
Ustedes
Hermos
##uca
figu
difun
recomenda
##mática
clima
instagram
miser
##queta
importantes
Liga
##fort
tendrá
plaza
esco
Diego
planeta
##tario
lados
##mentar
modelo
tol
##ics
##tural
acon
##istir
clave
fazer
##TRE
##self
rin
##iciones
IMP
##mel
pers
##asa
##álogo
##chada
JAJAJAJAJAJA
saco
Asi
##dados
wan
belleza
premio
Gente
##luen
COMP
2021
Odio
hdp
Video
##cán
menor
corruptos
QUÉ
##jera
caí
estú
##tería
cantar
INF
RA
##andro
Flor
hones
ocas
Ol
preciosa
Antonio
##baja
sou
Just
solidar
tristeza
Oye
That
Bro
TI
principio
##ÑO
##fia
HI
##ctimas
niñas
let
Sta
emergencia
last
Perdón
metro
##ieron
obliga
##UES
europe
Hap
##ezas
acto
mentiras
viste
Fer
##venida
corte
##ei
principal
aaa
##dientes
##cidente
##inha
mirando
YouT
arma
##omen
aparece
##pl
levantar
##mpre
##iler
dignidad
prefer
##24
consecuen
MEN
Dar
shit
##ertos
##ivo
particip
Sabes
##ándole
Thank
arru
take
##DES
Ram
##CER
tenés
terrible
felicidades
Social
porq
discu
##ibil
hac
Ste
desarrol
mesmo
##formación
hol
espalda
Conse
saludo
negra
excl
tendría
médico
pierdas
enorme
estén
norte
##edad
##parta
pies
##amble
urgente
Sam
##ved
cán
Podemos
##icil
##ordin
pizza
hable
Tur
##éro
sopor
carne
Sr
Barça
hs
estable
ál
correr
queres
##igan
flores
salgo
ocul
mina
Est
##gh
completa
##undo
##mán
Pen
entera
Cuba
médicos
acco
##rer
##cados
mates
##ONA
##ALES
##íris
aborto
##its
Vir
favorita
ministro
defens
AD
photo
edición
gustó
##abas
Cá
proyectos
visual
capítulo
##tify
arcoíris
##gotá
talento
##dimiento
most
One
comiendo
gracia
cala
descub
cham
Aún
meta
env
segundos
comunicación
##usos
euros
Grande
concep
Den
decirle
correspon
jefe
impul
Seguro
éste
santa
voltaje
repetir
fandom
ada
neutral
auricular
##trol
investigación
casas
acus
##OE
##éctr
##izando
##ella
Tienes
##ym
República
YouTube
confirma
conec
olvid
rombo
piensan
##pir
ge
##isterio
recibiendo
afir
Municip
##onia
coño
##rique
Dia
help
redonda
tré
reflex
sil
##ture
##ipol
nega
##acio
simp
une
Luego
aniversario
said
Dra
AHORA
ESTOY
tecnología
##antil
##pida
##rones
atre
moto
preguntar
fortale
locura
trébol
##very
positivo
##ONES
gustado
bote
Lor
Bal
ao
reunión
##crá
vosotros
great
candidato
frustración
sempre
##ISTA
productos
cabe
##gala
##menes
Julio
García
escucho
quisiera
tarje
jeje
ganado
actitud
Lam
Temp
lugares
end
Tar
abierto
##dremos
entero
quitar
cola
ciencia
##tube
CR
Whats
chav
##back
sueldo
garanti
torneo
infec
pio
PRES
constitu
víctimas
logra
##ath
motivo
##ZO
costa
Manuel
carro
volun
GRAN
resulta
Pobre
presentar
1000
cré
título
escol
central
debes
altura
examen
##zi
noso
loo
Inf
Wo
got7
nin
ron
##fac
amistad
TA
full
Lit
better
##iss
##guém
cach
##NA
##mático
discurso
##tici
night
ofen
##tec
autoridades
perman
55
SAN
anterior
NUE
empezó
piden
civil
dejas
Cuál
faltan
LU
##ivas
pros
USA
Happy
##DIO
##lab
robar
##ítulos
Club
reme
##oya
Ai
mia
mareo
acostumb
##rimonio
ber
ninguno
Acaba
##BE
cambios
##13
part
JU
justif
##ÑOS
mostrar
errores
familiares
agres
inglés
fascis
99
miemb
Internacional
##órdoba
virtual
bebe
Wil
##torial
carta
Star
##RG
other
dejado
perió
SAB
##ries
viajar
abandon
Lib
Dere
##sta
injus
##lie
encer
helado
cruzados
##tieron
Ecuador
coj
Media
##lip
##fu
##eco
##MEN
##quia
ub
HAY
But
##EMP
Cur
##íos
record
##ciles
medida
Educa
##ERE
##cter
desgracia
##mio
##ló
tarea
Sur
Rafa
Ali
corto
imágenes
How
##oría
protagon
##ñado
PUTA
públicos
culp
desastre
camin
made
##GAR
ul
##BER
bás
hará
##ced
##ECES
importancia
lamen
##tus
hermanos
laboral
moda
alcalde
colores
Mucho
ataque
permitir
BA
FOR
sitio
medalla
David
exac
JO
##umen
##ículos
pelota
##ween
compañía
malos
gasolina
01
álbum
##uis
Love
Mel
Alex
##udes
habi
##ivos
Guer
##forme
Pr
bem
##ident
Disf
director
PI
provincia
excep
quita
Não
fol
##puta
##cé
trabajos
give
##tian
Bas
##todo
facil
##istos
debo
hablamos
##enos
hechos
extran
Paz
cantando
Francisco
termino
decisiones
##ux
##óme
HE
##22
compañero
electoral
##uelos
QUIERO
confun
cerezo
presentación
ud
españoles
Cui
porqué
coca
##mestre
GU
vin
##ynam
##ling
hipo
##ANO
##uuu
Alcal
##aman
transporte
##tará
tardes
extraña
políticas
##ifa
##leo
##ciona
##ik
##deral
horario
poniendo
nooo
##vile
terri
##ezco
##augu
interven
Aten
reina
AAA
##ASTA
##minación
confusión
##ficio
Chris
##tron
pm
ambiente
diría
esperan
##onato
coin
acerca
suma
pibe
idiota
pobreza
económica
vengan
##vidu
##ah
extrañar
Estaba
fase
planes
profesionales
##ons
08
these
hal
PSOE
destino
prefiero
recuerdos
dedica
congreso
mez
Mujer
imagina
Casa
visitar
##blos
##App
interior
cago
##vic
##zón
Seguimos
##any
##lace
embara
delincuentes
##ejo
anuncia
trae
##gá
##jito
Ber
sube
##tto
##rico
ejercicio
carre
cobrar
habría
compara
mostra
Ron
##etas
dre
WE
juntas
##anía
criminal
##less
##riel
dulce
billete
div
informe
##tiful
noviembre
perten
cáncer
ef
##MIN
isla
##CIONES
influen
Secre
descono
DM
FO
mim
MOR
femen
##uelas
Siii
tac
vende
Person
VIDEO
##ipe
coger
##DAS
necesitas
##xo
##ITA
dona
facul
ego
relig
32
Sho
##ast
desin
hoja
Fernández
##cs
protección
##oro
uñas
poca
##ISTE
##oncesto
FI
NUN
glor
##respons
reno
hablas
universidad
##GR
JA
##joy
friends
apun
MEJ
acordar
privado
John
rele
literalmente
Últi
##jin
##hos
JAJAJAJAJAJAJAJAJ
tranquila
##grantes
TR
Fr
hoje
##try
formas
peligro
##ET
inno
##has
06
Trans
Oli
superar
birthday
little
perdió
Según
lamentable
##SO
pela
Valencia
Coronavirus
ore
05
Daniel
Han
very
##unas
##rosa
Todavía
aquellos
Fernando
##enario
##ilable
convoca
oh
##cesa
Incre
querés
Buena
##ciéndo
##ynamite
##fore
traer
desapare
aparte
igles
##dent
##quez
sepa
tremendo
merecen
bienes
movimiento
##obo
marketing
exc
roja
##mu
agradecer
##DJ
##etw
audio
sar
##tillas
##17
máximo
account
##íamos
rab
Ej
carga
##enaje
##ína
pequeña
aplica
Amor
pacientes
profe
progres
GAN
Sub
Mario
volumen
Fir
Madre
original
calavera
##iana
olvida
pusi
news
gordo
##vamente
##tf
Jam
##BRE
elig
regreso
Nooo
song
concent
sincer
sum
eléctr
Blan
aso
privile
cumpli
cancel
Bogotá
then
VAMOS
##uns
IG
masaje
KKK
Ger
##dicial
NUNCA
periodismo
Gui
tuya
hayan
responde
##vailable
PL
##wu
imper
Uribe
priva
##UEL
volvió
cif
avión
cientí
Puerto
Tele
obser
habit
##ñera
dema
lloro
WhatsApp
artista
materia
actividad
Vis
cant
##viamente
corta
##jate
cuestión
##vemos
Nicol
tod
##inación
Puede
##ENDO
mm
Rodr
verla
delito
awards
cuánto
##tz
Enhorabuena
defin
tranquilo
cuantos
embargo
CRE
Kar
llaman
celeb
estrategia
198
investiga
alguno
##zca
dejaron
##ald
##SJSJ
Ele
##ionante
App
preocupa
reproducir
entradas
##guas
vota
##ater
##ross
##gaba
inú
fuerzas
psic
Red
ingen
Wor
Cer
bue
categor
##gil
##ids
##isimo
thre
hubiese
MUN
deman
individu
##cks
infin
##teras
Google
##lita
memes
vengo
ponga
cerdo
queso
Fi
invito
impun
##kkk
##ística
CN
##DEN
permite
uruguay
Justicia
##ball
contacto
bul
salido
interna
Mucha
Radio
##izan
estuve
aceptar
conciencia
##digo
##mita
ponerme
hand
apo
34
ascen
##usto
jarras
##chen
##har
##íguez
##EMPRE
vean
##hone
represent
solidaridad
madres
viviendo
Primera
ilus
sei
correcto
Sá
rit
Unas
fea
Good
perra
##ecía
valores
finales
##dible
cuel
millon
material
##tud
baloncesto
puerto
SIEMPRE
##gica
tercer
Casi
deix
canta
ejecu
Mexico
integ
rue
##amblea
Nuestra
##yen
renun
fiestas
presos
inoc
use
ARM
qual
propuesta
Segun
##cemos
revis
##16
##ught
ESO
HD
ji
repu
##olucion
Pé
solamente
Ed
##jj
##entable
aquel
##amento
meme
enfermedad
##14
Hor
corazon
##ged
mur
depres
muere
piedra
clásico
##ciación
mirada
peores
##TAL
personajes
BUEN
##lesc
sorpresa
compren
tercera
##ness
perfecta
periódico
MIN
present
##inado
##iii
proteger
tonto
adelan
separa
sorry
##abel
also
Dor
##rey
situa
irre
##tate
intento
ánimo
07
Esos
podido
presencia
##logía
##kan
##tacular
##UT
querida
##ational
wait
despertar
Má
tía
##erop
##torno
yendo
estres
##tant
pedido
entregar
##000
probar
Usted
rata
parque
##usta
pecho
They
indica
Ke
well
##erva
Disfru
##ósito
prefi
playing
siglo
ahorita
fuiste
girl
##ieza
##15
Hahaha
##quete
chal
##dable
beb
ainda
insegu
##ething
##bur
andan
posta
Af
##iales
Char
##yan
pez
taller
respuestas
nomás
pode
##ehy
mismas
##ilos
perm
Er
corrupto
análisis
Sobre
##tiz
quedado
Spo
beau
Dónde
##ather
open
muertes
mexicanos
Italia
pensaba
##oos
haría
##gios
pones
prohibido
empat
hy
llo
thank
leyendo
gane
VIDA
lic
diálogo
pocas
Él
##nto
##eda
divers
##melo
##mula
Rodríguez
SUS
##illos
senta
suelo
preci
##timo
brea
contenido
producción
2014
ola
funcionarios
Reci
sad
teatro
things
ki
cabello
etapa
FAVOR
##gulo
Jul
run
##KE
tenían
##erac
##kin
##gante
next
##uto
paciencia
##uco
##gol
##elos
Thanks
##yos
profesor
rode
oportunidades
valen
global
posición
02
relacion
nov
BIEN
sabado
dist
##empo
pantalla
probable
gracios
nieve
She
##mites
##cast
##ueva
##tiano
reforma
Black
até
##vida
ace
Estás
Pregun
capit
##bin
provo
Ano
##izados
ganan
03
##laciones
Champions
##icho
##mba
ped
murió
tomo
larga
esperaba
municipio
##uestros
económico
enamorada
peru
unico
Campe
jung
Wa
Hugo
calla
##elas
conce
##quil
party
##eto
leí
interpre
pleno
hp
depende
##enzo
irrespons
abre
sencil
sentimientos
monta
pensamiento
inteligente
##BO
plena
ilegal
ceja
asomb
AND
Pad
cie
crush
assim
##anta
turismo
construcción
##diós
Ka
fern
pasada
tab
fake
renuncia
comienza
LLE
##dillo
fab
Quieres
llora
FE
demostrar
##ped
Amigos
##vern
mac
emoción
pata
sombrero
##PI
aro
León
incon
gorda
peli
Compar
Gru
escribiendo
Plaza
PEL
anima
##uña
asesin
propa
batalla
nao
##dona
set
musica
48
acceso
diz
Lea
##rimiento
Hern
conjun
vídeos
38
saliendo
##ked
olvido
partes
##ástima
participación
##ever
agenda
##IDA
envidia
siii
clo
MUY
pudiera
Sevilla
DIS
juicio
PAN
sha
cierre
esposa
cobar
Learn
AF
prac
ray
Day
zo
amas
Apren
Viern
baile
cro
partida
alterna
intereses
Vas
sabia
Pérez
act
##sapp
##ccion
absolutamente
##itarios
fis
iban
fiel
sois
##TH
##chado
CAB
casual
tell
##ões
##hua
dejes
##ERDA
Todas
Cristina
face
pongan
BAR
restau
duermo
drama
SOLO
nariz
dejamos
album
peron
hope
expon
irse
medic
Felicitaciones
Alej
cabo
Muer
insu
divi
Foto
cuch
estés
Extraño
##árez
nosotras
##úl
mami
Universidad
usando
catal
##pin
##grama
tenho
##pita
Viernes
rompe
devuel
pasión
When
##cies
hamb
deuda
Gan
iniciativa
##ek
dirección
mx
##idal
Siento
care
Ir
##ister
Fiscal
##ticular
toy
##jó
conversación
técnico
universo
sobrevi
##ificar
##cleta
escribe
##uales
eti
br
llamada
venezolano
##iche
negocios
##pico
inaugu
Conoce
habían
diji
Art
##jec
pija
Amb
pagan
gala
chat
humanidad
melhor
contrato
viejos
##rael
PORQUE
##ken
##riz
planta
proto
37
piernas
where
pendejos
##uth
sensación
CAL
buscan
bec
##ns
alumnos
deter
##serio
ple
sala
Agra
##aas
coisa
angel
bolas
Sw
financi
Nar
encontra
Primer
##tti
##urar
frio
##timi
##tric
lazo
##ezca
generación
refor
Cr
tienda
precis
ste
##km
arras
Ojo
tenéis
nose
consejos
resca
##cord
región
marido
pedazo
argentino
invierno
alimentos
##iona
II
razones
ficha
cojones
##cieron
ms
sorteo
##din
##tiles
Mé
##mentación
keep
luchar
##CAR
daba
Uruguay
maltra
AJ
war
adolesc
vacuna
mexicano
falso
VE
unidad
américa
##lano
##iencias
encontré
militares
Tr
Chi
something
CI
##igi
pibes
DON
##ost
guitar
##gentes
pelotuda
cata
compa
Dec
##ombre
considera
##oot
instru
tik
##alth
tratando
##icando
##elli
jard
cuestion
##ísimas
Policía
bello
##bito
bendi
quizás
cob
##duras
##AME
recuperar
igu
ignorancia
locos
hacerse
ridículo
conocido
ruta
verdadera
##ANTE
Hospital
##reo
##com
libres
MEJOR
consecuencias
leído
##INO
##ates
days
publicidad
##ventud
perdí
adic
##nia
EXO
##ADOR
pasaron
diputados
héro
ec
perdiendo
##dias
##EEE
País
##gico
river
ocurre
pesa
Nosotros
##25
vuelto
mtvlafandom
río
lastima
habia
##mí
chab
PEN
Ge
delante
quedarse
pass
disfra
pés
yes
##ÉN
seres
armas
pantal
##GUI
activ
contagios
humo
equivoca
##grimas
##kers
##omía
vaina
crecer
Lar
Ángel
##osos
guapo
Mc
Córdoba
##ñé
##tible
##izaciones
hotel
Its
##imnas
##PP
broma
asquer
support
Navidad
enfrentar
quero
imbé
sorprende
##tame
Bern
Bes
thing
atras
homenaje
declar
##igue
criticar
##ueve
Javier
##XI
adentro
charla
odia
vá
maestro
##CON
##RAS
Bri
Sha
nena
hun
Via
cayó
proce
números
dispos
##ongi
adi
Cali
gilipol
##tit
##tiza
quédate
igualdad
Tras
sosten
hate
requi
dato
beautiful
##ÑA
vice
##rillo
herram
many
##DK
Uni
##uri
coinci
TW
##illar
parecen
pour
razon
someone
área
preso
##reras
nes
oli
Vuel
##plo
menores
sesión
pendiente
cool
democrá
trib
fucking
##tage
AU
fues
perú
escena
cuadrado
abrazar
##temala
##clo
rio
recomen
Anda
exten
lindas
##ieve
##udar
gym
TER
Br
reconocer
stor
decís
pusieron
gustar
tarjeta
lopez
##ávez
coo
policías
before
ésta
Ví
##iosos
inmedia
Dipu
##ensión
acabe
lee
olor
##culos
botella
blog
servi
caja
convertir
guapa
papas
ricos
##sal
##list
independiente
recomiendo
##GAN
##ecemos
formación
##key
confin
Ellos
marco
##cciones
NECES
decre
##dezco
Aca
Francia
dejando
mere
bols
española
Viva
sm
##valu
##lle
ame
Constitución
##cripción
terminó
magia
JUN
mues
ng
tmb
Blo
existir
birra
Famil
##ifi
Inde
##titos
prioridad
##omas
darme
##ritos
despertador
aprue
hacerle
Joa
escrito
né
Santos
suici
capaci
uwu
##REN
apare
Gobern
gall
inteligencia
cena
story
fumar
400
kar
197
podrían
##pool
ESP
actuar
##enda
constante
##doras
sufrir
##zy
redu
novela
recon
Confir
informar
fort
entienden
##box
later
##ites
hard
##sonaro
debido
tão
enseñ
alerta
leyes
caro
##quía
tendencia
consulta
Fan
caminar
enviar
##ali
pico
expul
75
lidera
##VEN
ideal
Valle
hospitales
stay
Ning
esque
##rieron
Muchos
mmm
##quier
##ARA
saluda
nuevamente
podrá
tatu
##ficos
PC
##ército
aumento
Apro
obs
supone
##zález
mentir
sacan
pollo
brazos
##pop
compras
atender
darte
Fla
OP
moder
naturaleza
##sh
##reola
rendir
programas
##ilio
señores
City
mini
die
##encial
Necesita
own
##LTI
##UD
ARMY
mencion
veía
jur
##ary
Iglesias
rival
##ony
old
Bur
transpar
mtvlafandomjuliantina
Basta
pud
madrugada
##jsj
##entemente
##idó
mtvlaparejajuliantina
Ojala
Martin
Depor
Top
velo
Harry
presión
Mill
comprome
circ
alas
arroz
IT
##orio
##amar
##23
giras
china
##quitos
magn
prevención
culia
hot
##sito
cultural
nal
pequeños
discri
tl
self
mila
friend
##uestas
mtvlafandomjuliantinafans
nove
##pio
##gether
melo
##hib
fantasma
damos
box
aviso
##íz
convers
satis
clos
asesino
put
MADRE
quedé
Za
##ore
##rarse
pelea
superior
pessoa
43
##dicar
Primero
LES
juez
nen
##ól
construir
cura
ee
droga
comenzar
facultad
Play
monó
##ritu
alzada
##iros
Diario
##donos
claramente
vuelven
AT
Riv
##deces
long
seis
##eropuerto
##ports
lavar
FAL
Rev
més
unfollowed
Sigo
MAM
turno
##yes
POL
aver
Rodri
two
efecto
descanso
estaremos
protesta
##itat
instituciones
##fr
Falta
##olazo
punta
aureola
##yyy
master
##iness
expec
artistas
fuertes
##fía
everyone
##nal
##cimientos
acord
Andrés
power
adap
##erba
##tición
producto
vivimos
particular
mega
sana
mereces
respetar
refi
demuestra
premi
González
putas
jimin
wal
estima
anci
relaciones
oferta
oficina
competi
##bs
Tanto
fracaso
Grupo
acaso
Cel
Obvio
##tias
ordenador
Agu
poten
##teles
gonna
dispar
ficar
bicicleta
##MAS
##vs
publicado
##ientas
soon
decirte
enseñar
Duque
diez
##bieron
maduro
trump
gratui
tome
Haz
##gaste
##game
tera
mej
##dra
MIL
##emb
entro
millón
##ash
##cá
Sep
##ehyung
elección
Recor
##OLA
orien
mato
vieron
JAJA
Jap
high
##celo
completamente
triunfo
parla
rechazo
God
##fob
bit
contestar
JAJAJAJAJAJAJA
conflic
##pain
gatos
Educación
solos
44
coun
comunista
recibe
jejeje
##ALE
##ert
echo
##ezamos
39
num
##zing
##ché
cartel
delicios
concl
Emil
firma
Fre
diseño
gobiernos
horror
coming
aguanto
champions
descen
jubi
DÍA
##ural
##low
##ason
##ierno
##body
Queremos
##jitos
Defini
##riana
aí
habil
##lenge
tô
física
vecino
vent
oye
FELIZ
dió
remo
Vale
##bara
gobernador
Alemania
tranquil
atro
monóculo
##far
Estar
inep
incor
##AJJA
permiso
regalar
Justo
Ál
registra
Aires
##RR
Wal
puertas
met
##zla
Chávez
identif
iguales
retro
##dencias
acaban
##come
reconocimiento
parecido
cc
pidió
PM
Increíble
zapa
##cadas
Salvador
tuviera
Europe
Felipe
voluntad
cadena
GENTE
cute
##ñez
nombres
##olog
##cidas
vayas
invita
pasos
##FE
Panamá
vueltas
manga
compor
##istes
industria
invent
humana
eras
boludo
##kd
generar
trai
##pto
##lín
tér
maldita
posibilidad
thro
##CHE
##ENTA
desn
trato
directamente
pop
CUANDO
semi
Ministerio
responsables
lectura
call
alarma
ojala
Consejo
emocional
##erna
estaré
propuestas
Costa
conocimiento
pasen
encuesta
llegando
comentar
dig
##idade
moment
comercial
iglesia
##ilar
usan
rea
manipu
ESTÁ
incomp
Bet
uds
regresar
dream
##graph
actos
##led
tempo
ye
contac
Sergio
falsa
##ctima
inver
##oyo
##EP
anime
AMOR
##IP
suyo
bloqueo
privada
LIN
nube
colum
cabron
Caracas
##uk
rever
abus
Entra
aguantar
SH
harta
bibl
##ité
##partamento
ritmo
desemp
##time
##año
arbit
test
anos
Bolivia
##monos
tremenda
Totalmente
destro
CHA
mostrador
agarrar
##identes
Please
maldito
lindos
semestre
doing
frases
disfruta
maravilla
##ionar
pensado
comparto
fraude
hap
##ulos
expos
Pd
caminando
colectivo
feria
##ñal
bolude
##udia
participa
episodio
chupa
temporar
maravilloso
apoya
presupuesto
Algún
##JE
edu
correo
Demo
pases
inversión
aho
simil
ciclo
primo
##dero
tatua
ilu
desayun
DIC
tuits
tipos
##imiento
trendy
##ENCIA
bang
LLOR
veremos
ger
Actual
TIENE
Semana
Mag
pus
single
##chool
sacri
nam
Recuerda
Lla
Guaidó
NAD
Wow
invitamos
Mundo
hrs
Ministro
orgullosa
tap
activa
brutal
mean
emi
labios
jer
##irch
Dé
Imag
gab
estando
arena
ed
##tumbre
manejo
ór
hambur
##tter
paraguay
##cula
Edu
Moreno
Gi
Alf
47
Bil
víctima
afecta
##ani
hacerte
ultra
##ARIO
ghvi
##venido
##icanos
sexy
japon
those
vulner
Petro
##MX
abuso
##iten
##él
##pel
conejo
Policy
doctor
violates
Plata
##DU
exist
Sé
dela
mover
puente
desi
Ud
miercoles
secreto
breve
PD
Pel
Mayo
iP
Em
UU
dm
Retw
Has
dir
##capacidad
Hey
##60
letra
Norte
tóx
Tener
denunciar
##ulas
copas
##mart
##dada
REP
Municipal
GOO
plus
sospe
estudios
excusa
Tri
també
sevilla
mames
sentimiento
bendiciones
arreglar
tos
nefas
motiva
seguramente
tul
sabiendo
##viene
wit
tas
ilusión
rabia
festival
servir
pueblos
##manos
Puedes
cance
aprox
oso
##ático
entrenador
histórico
enca
ranking
##maria
##citos
##ÃO
chance
clientes
Cho
zap
##teriores
comunica
legisla
tigre
JUS
##verpool
amooo
##guer
lujo
alegra
accidente
temporarily
once
##andal
pisto
actor
físico
##taste
impunidad
jungkook
regis
##cano
under
Econ
pér
##exual
##ats
bendiga
absur
##arada
##ánd
abrazos
falla
##uesto
##cres
HACE
infierno
intens
Veo
##amentos
unavailable
Ren
Sería
centros
cnco
##ION
IM
cortar
empresarios
espacios
stra
##axa
Let
miro
argumentos
elim
hincha
Sábado
##IOS
Tiempo
definitivamente
CC
defiende
##ments
##eada
##irchner
gastar
wanna
sumar
Gas
conoces
girasol
BB
##aría
Partido
##IÓN
##iles
##rina
aclar
crecimiento
cuales
##enten
ultima
##rino
read
lon
vaso
vestido
##ismos
##ribir
inco
##CES
judicial
imple
conocen
Central
##od
afi
avance
electr
##vando
LPM
conferencia
acabó
##gem
caracter
dueño
avent
##íe
##desa
Spotify
ciudadano
espi
jul
Dice
ayudas
são
##lanes
VOY
##hout
intentando
##arnos
##eracruz
##vy
convir
##bos
carita
temb
##frica
chino
fuese
Bat
##ética
resolver
##tendo
##DD
Var
abuelo
frun
suje
fondos
##mico
Amigo
concurso
##CAN
obses
##ladas
##atura
angus
##ástico
dam
PLA
espectacular
Fab
primeras
puedas
hipó
Internet
summer
Martínez
hijue
Apar
regla
Gusta
dynamite
Rusia
supi
Pra
firme
podrán
HERMOS
continuar
masco
Nicolás
UP
NUES
##jsja
##MENTE
formar
infantil
ganando
##pecial
##dedores
Ahhh
ángel
##cau
##rie
opciones
##gara
hamburgues
Maria
##tren
hero
##reas
cohe
Corte
plataforma
##zgo
Indepen
##GE
Lunes
megá
netflix
2013
World
everything
##mej
lider
Div
extrañ
##ezan
Polí
apos
líderes
evolución
##rama
ceño
Leo
miembros
retras
##tell
despierto
Atención
EMP
diputado
ft
cuaderno
##28
escal
FINAL
llamo
podcast
James
megáfono
Mur
cs
ignorante
alv
europa
together
ganador
organización
bienestar
juan
Habla
prime
##estima
dedic
ques
##memo
santo
ultimo
TODA
pasaba
##alucía
##mix
Il
exactamente
Santo
##viles
##gers
Alejandro
Resul
ciudadanía
##GUN
Noticias
diablo
##NO
Patria
Lee
deportiva
##ingos
##rios
##terra
##todos
propósito
pur
oper
##EMOS
line
##posa
mons
##andra
##lara
choice
princesa
Españ
epi
Leon
lanz
##jud
pelotudos
MIERDA
##ence
tenis
##ely
facebook
##olas
DT
fren
sencillo
mandan
estrés
sun
Sala
family
Dicen
##TAD
##cher
Bos
##26
##thers
##temos
pelu
##ívar
ponerse
enti
##ecé
sienten
##GUE
socio
colaboración
venden
##dicional
Álvar
##taro
edificio
beneficio
difundir
confor
compre
Serv
izquier
concre
empe
##MAN
chau
parcial
provoca
##quista
sobra
##jita
##pat
##ónico
despierta
importar
gimnas
quise
##fic
##fortun
copi
quar
consumo
beber
mind
revolución
cansa
negar
##eld
colabora
##27
Contin
INS
sentí
Angel
##ángulo
competencia
##viste
LOVE
lástima
Franco
##ciado
MON
beneficios
away
quejar
encuentran
llevó
gano
Rafael
ang
Ala
##untamiento
ciudades
alegro
SOY
Wey
tendremos
presidencial
65
bill
head
estru
##kaka
THIS
tocó
aprende
##play
árbit
hecha
##cess
quedarme
quiso
audiencia
Off
japonés
150
caen
estupidez
sede
MV
zur
pana
entendí
##alloween
##IAN
chef
transmisión
retw
##guenza
46
##dea
inseguridad
levanto
##CL
limpiar
##enti
Lan
##ário
confiar
Deus
león
cuida
Termin
Bay
enfo
joy
Dejen
empleados
Uy
##ward
##camos
habéis
##ute
haha
happen
49
DEJ
##ERON
##ione
rap
##ICOS
perrito
caras
eterno
sit
lot
desma
##roid
aguante
candidatos
cliente
municipal
esquina
##ating
VAR
permit
##ollón
debut
detalle
Definitivamente
##ísticas
##bano
argentinos
AG
##oral
##ism
##gena
Comisión
mana
usuarios
gasto
subs
consejo
miren
mantiene
asesinos
##laga
huellas
Ramos
logro
##lético
Encu
##ele
JAJAJAJ
##morrow
##of
ofrece
queriendo
##icardo
aplicar
Your
##rendo
##ili
##CIAL
Tienen
kids
fundamental
York
preocupada
MY
muriendo
toman
ído
Llevo
papás
Díaz
##drán
estudiando
sonre
##enses
800
dame
##sp
REAL
pilo
evid
cuentan
alcanza
gloria
confinamiento
entrenar
##amb
haré
##ístico
engan
cdmx
##tyle
morning
trabajan
mtvlaic
infra
season
vuestra
compu
juegan
ghvip
##ties
recom
puestos
triángulo
##ólogo
nervios
cómpl
guitarra
OMG
apoyando
calma
INTER
porta
pica
Clas
##guiendo
Why
##males
##decer
##iesta
respir
##arla
##pal
NUEVO
##oman
acho
##jón
cobra
nicaragua
##rial
##guar
inútil
todavia
month
unión
eventos
cuello
quedaron
letras
Descu
enfermo
##oni
##vias
prove
soñar
##tara
##unya
cerrada
##LL
##vision
COS
since
##tim
plazo
Quin
fechas
mt
dieta
Today
Guad
dire
##lite
ayudan
seguido
lives
arrancar
abri
##yente
FM
##vadas
sto
##deras
llevamos
##cilla
pieza
salvo
arrep
arrepen
##DS
olvides
ech
vamo
Consul
estreno
complicado
gent
decían
propios
fuimos
cicl
BAN
portá
impacto
##fan
locales
cle
##HAT
##JOS
medicina
guys
Cat
##lique
vel
Rosario
ces
Follow
gradu
tio
tuvieron
##axaca
HACER
dí
##EA
alrededor
##bados
ONU
latino
##cés
drogas
Mexic
Tig
escuchado
promes
cumplen
Not
dr
Venga
Lucas
Tres
genio
py
energ
despre
hinchas
Pun
lleve
Boy
costumbre
términ
##AJO
ambas
56
feminismo
Jor
dijiste
mc
distra
pelotas
Are
cafe
##tugal
escenario
zonas
fueran
##igna
metas
Esas
preguntan
feminista
preparado
quedas
conex
galle
##recto
##tty
##unny
Bab
vergon
##tain
cocinar
##29
which
ventana
empu
intención
quemar
OL
ruido
Jung
aprovechar
ear
guardia
inci
abogado
alqui
abiertas
URG
PON
camion
Literal
##tancias
cagada
Bad
Peña
Fuerza
intern
##uerte
sensa
rut
while
##poche
done
Luna
##TV
torta
##IF
salieron
##tralia
Cristiano
Pensé
NADIE
##oradas
aper
##orable
decirlo
Seguridad
bras
asombrada
Louis
##ists
##dol
Pien
##íritu
Jose
Aaaa
##ISMO
ana
raza
##ST
Institu
boluda
enferma
Llu
metros
faltar
##pris
2000
miserable
figura
##tat
Jack
reales
tetas
Live
Bi
Exacto
##icky
Jamás
##gt
##dillas
contexto
fic
Llor
macri
##mpe
GOL
juventud
guardar
llevas
hear
rein
##ymar
Aus
##gera
Parque
Tranqui
##ARON
crítica
Hora
wacho
PERS
##raron
Fil
alar
gracioso
through
salgan
##ético
Paul
##ícula
mande
utilizar
artic
NOOO
lead
Prin
600
##titas
EP
Civil
kill
Disney
Ante
enserio
tax
llegaron
chingo
id
revista
enlace
CDMX
ph
find
wow
exigir
Pueblo
##CRI
deser
IR
gilipollas
Cuanto
amenaza
##terrey
Espera
Puedo
jode
##CIO
Metro
bala
Now
Jornada
##ming
impac
##REC
##undar
listen
fala
Jim
excel
bolivia
divertido
##pois
posted
decidir
##AC
##ditas
##ctora
depresión
enemigo
ital
##orro
vuestro
##ın
salario
comienzo
change
##AT
distinto
rumbo
espejo
asustada
##ISTAS
stic
mascarillas
Vie
Amazon
internacionales
adecu
jal
95
hit
getting
lor
Sebas
MES
Calder
públicas
escor
salí
Gir
##mpia
##guila
##hot
inm
critica
##quel
##real
profesores
Bru
sanitaria
eslab
##tely
compañera
desen
59
encantan
normalidad
prox
lágrimas
cambiado
costo
dormido
empollón
Rosa
Vox
ATEN
America
##TF
PRIM
hicimos
trop
matan
ajena
SOS
##chita
ate
destruir
olvide
desaf
Contra
portátil
mg
positivos
Cualquier
Abrazo
ready
Info
playlist
tratamiento
Like
##urt
##dian
MUCH
##jara
sure
##view
paciente
##pping
sigues
matando
caos
regular
urib
rema
levante
data
##bus
##eah
MUNDO
conjunto
Cristo
extrema
caída
Pap
Roberto
##bada
##izó
harry
mueve
##quín
differ
enfrenta
190
autoridad
##chito
2012
ine
##tly
Ko
alien
##naval
UE
##nie
controlar
joa
##lá
impon
villa
##fit
around
##viar
portada
desayuno
aña
aisla
fb
eslabón
Oscar
##tades
HORA
##traron
##diz
##ándote
descansar
##ínate
##cinas
##ván
JAJAJAJAJAJAJ
health
llegada
sanitario
resumen
##corro
Vio
##puestos
impro
bonitas
inspi
##fici
sirven
exclusi
testi
coma
papi
fc
indí
unir
jueces
estra
Some
viajes
texto
##atra
comunistas
asunto
deportivo
##hyun
gam
pego
demais
yourself
callar
demonio
consigo
ambien
Rico
Chu
motivos
supongo
##colo
See
##MBRE
culpable
fur
##wh
##pers
situaciones
##yas
Yes
Hemos
alcanzar
impresionante
semej
benefici
gráfica
##antos
rar
57
mtvlaicono
break
##ijo
sectores
levanta
ty
comes
atacar
indign
##ricul
##jena
gritar
vaquero
reca
aburrido
hubieran
Far
últimamente
asal
sober
PUEDE
SOR
DOS
tex
concepto
logo
##itu
empiezan
autoestima
jaj
residen
42
VOL
date
trabal
League
Bl
##caba
##tanos
Equi
alu
empiezo
práctica
aument
olvidado
obviamente
whatsapp
Azul
AÑOS
Rock
gr
latin
##turo
Latino
Cuen
amigui
Asamblea
##pora
fuente
city
podés
sentar
beren
##visa
dará
ingreso
limpieza
prom
vencer
eliminar
Ufff
gestion
sientes
tern
Tampoco
amores
##80
TAM
Carmen
Só
colap
columna
cigar
pelear
desperté
inmun
aeropuerto
##unal
cover
contagio
italia
paral
Necesitamos
respeta
league
##YY
escuelas
##radas
##CIONAL
jardín
levantarme
##tua
interro
##fra
aspec
##100
VAL
perse
guay
osea
##jam
##gr
fli
##SH
##sss
precioso
##grá
laburo
tendrán
comenta
acre
comparte
Tro
traje
##ils
another
##isima
fruncido
mejora
youre
dime
EM
Bolsonaro
cohete
silla
TENGO
REG
kind
##2017
infancia
limi
salsa
##iendas
##ASE
BOL
existencia
Programa
tulip
cierra
wtf
santiago
amanecer
sín
bil
##arado
Ricardo
##etos
ment
##pongo
escla
Liverpool
neur
qe
name
declaraciones
categoría
camión
##TION
fit
concer
##une
morena
Chan
apretón
adultos
Vamo
Cuar
Patr
necesitaba
crédito
Glo
Ki
bac
pasas
place
##tez
start
Sue
estarán
ratito
##crí
oc
Rt
##tega
Comer
Mos
bañar
##wards
respira
wish
Aqui
famoso
intervención
hermosas
##minar
##ondo
hipócri
##ándolo
Our
estad
investigar
##ota
queja
##bert
##olla
dal
Quisiera
##zana
merda
##UELA
##aylor
cuantas
group
Victoria
entreten
explicación
##máticas
Every
More
fight
bús
##leep
Lamentable
nación
MD
##LES
soluciones
origen
tonta
terren
##grado
recuperación
deli
##américa
fich
Mmmm
##genas
Río
coopera
ladrones
##calley
Cri
without
against
##dom
lanza
##the
VENEZ
Cole
previa
##vana
cifras
Partici
comunicado
convo
manejar
DD
##oool
dad
perdida
##OSO
##boy
youtube
status
duerme
Debe
popul
domingos
yan
asesinato
Algunos
##verse
pc
air
Cataluña
adiós
HOR
방탄
##tano
vete
volví
Fui
##yor
Invi
believe
artes
bui
Guerra
america
territorio
Lima
hib
OB
##orra
TL
milit
siete
##diar
##liam
##liga
jugada
apel
Ayyy
podéis
arries
tirando
fora
tráfico
##lán
imbe
tó
banca
quema
41
mentiroso
true
##vamos
perfor
##FK
##sung
vdd
money
curios
función
Castro
Obra
HASTA
parlante
mtvlaiconocalley
semb
guap
demues
tranquilidad
Año
remember
sano
##gla
##TROS
contribu
HIS
títulos
MUCHO
expertos
Big
sindic
talk
##yeron
##ÍS
##fc
fing
##ência
dá
garantizar
encantaría
evidencia
JUE
already
tulipán
institución
pato
imbécil
Dol
Fra
Gabriel
DU
##gias
jugue
##reta
Joder
ajus
principios
Len
##ganda
adoro
intent
deseos
depri
gif
##jame
##íso
opinar
vuelo
Ps
demanda
Rio
reir
##gadas
caballo
54
##ADAS
principales
fallecidos
federal
libertadores
Ade
dudo
##rilla
Rivera
85
modi
try
latest
debajo
##ou
prisión
pense
defendiendo
argumento
##telo
##ents
emociones
Fun
##metro
personalidad
socialismo
Realmente
darse
amazing
ocho
sof
##ÍAS
boa
pea
##ática
salimos
Aprove
imaginan
exitos
##uerzo
##ALA
estáis
agradece
PUEDO
##vencia
##www
Retweet
repente
ende
actualidad
casualidad
FC
enferme
enamorar
máxima
##cusión
##kas
terra
Jimin
intro
verme
QUIEN
Bravo
terminan
ora
delitos
hid
decide
pasará
mafia
Banco
Suerte
seamos
campeonato
forever
subo
Festival
circo
acompaña
pastel
curr
alguém
marcar
VOX
##iu
##ísimos
Cin
crimen
##OOK
inn
aconte
brazo
pls
busco
OR
##queda
berenjena
farma
Libertad
etique
##áles
pared
veas
Encima
cansado
58
ÚLTI
miseria
mutual
Gonz
fam
Inte
Nu
falar
ingeni
maf
pistola
gustaba
##nio
fico
poss
Alba
meloco
Bea
nacionales
##joon
dormí
Piñera
Trabajo
orgulloso
revolucion
##TIS
##ções
##ídos
ofrecer
ingles
femenino
quí
gustos
Cele
fen
conocí
sn
bye
##diza
Gustavo
##teria
estabas
jarra
##ómez
opiniones
mariposa
barato
protestas
ecu
Padre
contamos
distintos
##tarte
deus
sucede
novo
##PON
motor
estudiante
##verde
##tte
##ánico
Venezol
##bb
Gil
Hen
borrar
soft
##arial
SÍ
##vió
##pica
ganamos
Music
##MM
Poder
estuviera
Enrique
colombianos
53
thats
resuel
ml
afición
##board
##óno
aplicación
##ciando
velocidad
república
geno
putos
LG
##sopor
##sey
##quite
##dere
medias
##med
Ph
##bén
artist
##últi
class
iPhone
seguirá
kilos
Up
##fthe
sam
coher
##vide
women
delincuente
TRAB
docente
omg
robaron
implica
##nap
mood
pinches
Jueves
terminado
Micha
Pron
##yu
Who
derrota
convierte
##ginas
unido
plato
##ining
caiga
salvador
##paz
patrio
Morales
Orgu
likes
##tienen
JAJ
amig
documental
listos
##Pa
imaginar
nació
compré
cuchillo
Link
empa
barbar
suda
##esión
sentirme
von
DIF
Habrá
necesidades
VERDAD
lógica
ESE
vivienda
Paraguay
Israel
There
child
melocotón
##PU
armar
acha
##iamente
Deb
transfor
petición
##temp
##ÉS
ani
##xel
contando
Sp
administración
independencia
##táculo
colombiano
Hacer
vacío
##PAR
macho
##소년
agarra
sanidad
dientes
Sar
##uida
mexicana
Presiden
visión
retiro
##guir
##jeras
Kkkk
revolo
cobarde
##hahahaha
fila
##iende
gustas
próximos
War
##xx
podrás
##ng
##qm
##AMA
country
Noche
hagamos
Tweet
únicos
garant
comunidades
Mic
commun
##ticar
hablen
añ
##fecto
empecé
##mao
dictador
preocupar
Vida
separ
metió
amamos
piensas
##caso
Valent
decimos
casti
policia
##dame
trabajador
ingresos
burla
Arran
acomo
Lluvia
ris
OS
##gedia
fines
##소년단
traicion
tiran
Hon
##fs
Oficial
verás
luchando
encontrado
##nor
valent
enamorado
fijo
##gros
pagando
##iciales
republ
muerta
anteriores
tech
Much
Gor
SEÑ
Here
mtvlaiconocalleypoche
##peda
sacó
quisi
Bir
sv
justificar
antic
##mann
exá
##rome
audios
subiendo
ia
artif
daría
socorro
despa
Atlético
distintas
MER
Director
recibió
porno
Simple
asado
grito
Guatemala
imaginas
job
Gri
maquilla
Supre
dificil
sensible
comis
revoloteando
WO
##quería
##uty
Tec
wonder
hierba
jugado
detec
sienta
nothing
##inete
aquello
CASA
##bios
방탄소년단
festejar
sinceramente
gallina
##talo
pentag
comunismo
shor
flu
house
Viento
##ller
cubre
tomorrow
desear
##tela
pollito
Cuánto
domicil
##garon
Come
mimos
carlos
Calderón
medicamentos
challenge
ox
empezando
Cuándo
HAHAHA
quedamos
terroristas
Michael
destin
identidad
agente
Prefiero
Suárez
cambian
god
teoría
##andez
Cosas
Bolívar
adqui
pensamientos
pierdo
##foro
hibisco
ESPA
Edi
Ajaja
piola
##ctur
valiente
Calle
ponerle
pasamos
##JAJAJAJAJ
matter
jugó
perfectamente
sinver
cortes
mediante
FAN
##carra
##úan
junta
##ights
Oro
VIVO
urge
##mad
huele
##LI
##elcome
enfermos
##mitir
publicación
##ència
pentagrama
enemi
times
realiza
POS
##tamiento
##lador
Anoche
Amar
coraje
combatir
Ign
xfa
ER
block
Papa
fom
Historia
nene
bff
##fobia
recomendaciones
poes
1er
alla
luis
Tenía
operación
pró
dels
gobernar
##vante
solucion
plante
Tus
masac
refug
cy
FUE
salv
##uch
DIREC
asegura
racismo
amistades
Provin
News
mtvlafando
viral
Organ
habitantes
ach
hues
##bt
Inten
66
##final
convocatoria
##mex
Gómez
Hernández
homo
##estru
Hac
favoritos
streaming
##ífico
ASÍ
bene
meten
reacción
presidencia
Lorenzo
crean
captura
##gaz
##iores
##goza
thread
##hã
nat
##ábamos
aquella
Durante
puesta
ratas
##rich
constitucional
Deci
especialmente
JUL
envia
boo
##oney
ESA
must
Reyes
sínto
school
white
suben
excus
##JER
##bando
vais
##onga
caigo
Mendo
paquete
recibido
rebel
baila
barcelona
clín
makes
incendio
##PS
insopor
##minis
grado
##ganta
##áticos
##down
anuncio
pista
Puebla
cruel
descubrir
Comunidad
comercio
vigil
manzana
##uss
##bon
evalu
Comien
##tarlo
##ciera
sand
GOOOL
##uestras
##RUP
fos
tortura
acce
pir
hermosos
oficiales
##ned
##bete
looks
metido
poe
SEN
socialista
empatía
lobo
##enio
Vin
Maes
tormenta
docentes
##IDOS
##tadora
tonight
exterior
palos
##rol
aprobar
descuento
devolver
Hombre
##unch
organiz
Pinche
##giendo
horarios
##IENTO
##cepción
Andalucía
barba
cantante
acuerdan
ARG
soul
pasta
humilde
##aca
regalos
196
faltó
voces
coco
##iación
Aman
boda
maravillosa
bancos
vox
Apple
proud
Fri
flaco
bot
Respon
porra
regala
##gración
##aan
extraordin
Digi
##tand
soledad
altos
ak
##triz
verguenza
conmemo
##ganme
making
Trib
##wor
dedicar
biblio
design
sigui
With
Amiga
acoso
thanks
capaces
GEN
##ORM
google
escuche
tortu
Torres
nad
##EST
Roma
bancar
tava
fire
messi
organizado
##oliber
##graphy
echa
niveles
fl
Empres
Especial
Hel
sorte
Kim
socios
tomado
censura
escolar
delant
Nam
sentencia
Unión
ask
Eduardo
Mam
Octubre
terapia
##lio
Interes
##nite
andas
Profes
Dom
regu
##bierto
indust
yall
uns
preparando
Derecho
Alto
##ERNO
bajón
light
##enme
DIA
pelos
64
chabon
sr
discutir
vehículo
##uiz
Bomb
também
desaparecer
Té
subió
##pero
##wl
##quillo
gota
event
deportes
Laura
rompió
mamar
bitch
Mul
##doni
Morena
FL
tragedia
encab
Medel
dejé
##garse
##cámara
ena
meus
King
##CEL
Argent
##TIR
agradezco
enfermedades
mã
Mendoza
Cambi
habitación
Funda
mascul
llegará
plu
##FF
falsas
##itana
dialo
##bó
Alcalde
mire
Ayuntamiento
##eño
Nuevos
##gencias
dead
MAÑ
nace
clubes
##ENTES
actuación
secu
##andante
Tel
##pet
llenar
fama
rutina
credi
votaron
altas
##ison
##hotos
verlos
Dif
bebés
##lectual
AGU
circu
siste
Aso
##BLO
tendré
brasile
Period
vezes
avanza
profunda
ku
disfrutando
##tander
##lex
Neymar
negros
reyes
tacos
llamas
##NI
limpia
CONF
otor
harán
récord
gole
##pata
idiotas
##icula
##atorio
Escuela
flaca
comenzó
##ERTE
luch
contemp
podamos
##TIN
Mujeres
Impres
Bue
##dentes
coord
decirme
followers
campeones
vivido
##ique
Miren
##VES
ideología
entrenamiento
Best
fritas
sentirse
fica
Sun
govern
sonido
Tierra
Pod
##vido
peligroso
Mol
semejante
tok
Get
gigante
disculpas
Mom
Quizás
##cino
Canal
creación
Junior
juntar
Listo
##tismo
conflicto
##yl
ini
COL
Neta
movie
Pq
Desarr
##tuvo
sentía
##90
left
mapa
gata
##vinen
chur
aparecer
promedio
CONS
invers
indigna
rug
mix
DECI
pp
consecu
Catalunya
##casa
continúa
##úcar
ps4
produce
pilas
sacaron
##TY
##dam
perio
Ji
triple
##TRI
##tade
##glaterra
salio
Marcelo
Debería
exter
merecemos
gros
mulher
lento
CUMP
mandó
quizá
pac
videocámara
food
##ficar
says
##rity
##itarias
rostro
requiere
primaria
##venidos
muchachos
coisas
plo
fría
mierdas
deca
##oor
Incl
cagando
porfavor
pala
reino
Monte
volviendo
##tam
##tial
##win
confirmar
BL
Ind
##vé
piba
##jon
##70
Bill
unfollowers
enci
terrorismo
Game
prevenir
EXP
##ornadas
sepan
##fornia
garganta
Libertadores
tomas
pese
probablemente
exámenes
##hal
cancer
Iglesia
diplo
referencia
contento
legen
Miami
parejas
depois
secon
Sel
##chera
aprendí
##diste
correcta
Zara
obtener
tengamos
tromp
falsos
wil
dri
olviden
##fir
llevando
cacer
fué
soltar
trán
feeling
##ENTO
Podría
ann
##éisbol
efectos
##xy
zapatos
acces
##éramos
Puta
##eis
pierden
estación
cuarta
nomina
##LOS
Humedad
impar
##venil
bis
prácticas
bran
involu
bob
vide
quis
precisamente
core
##ware
52
leal
joaquin
Alta
tot
##TM
asistencia
francia
digno
reser
Normal
##xe
VEZ
cansan
##CRE
diagn
aja
dificul
aplau
constitución
sacado
Air
pot
Hermoso
##pens
apertura
actually
##mido
stre
demostrado
Recién
explico
##rd
pretty
Alguna
quejan
cop
comunicar
sorprender
##presidente
ramo
respirar
##tics
scre
nice
##ific
Clar
thin
IMPOR
ejército
##dina
Youtube
grados
cargos
panamá
trying
Toma
sound
Temperatura
Pueden
TODAS
crema
transforma
pérdida
invitación
##ONG
meet
cagan
irá
Japón
volar
dueños
dirigentes
perspec
##VIS
##gones
##rill
oscar
rusia
aporte
barra
piña
SUPER
ida
límite
parado
md
Martes
técnica
habló
##bimos
esperas
##ize
incons
difíciles
posibles
##live
aux
##elle
bocadillo
norma
icon
pack
pacto
entorno
United
unica
expecta
##CEN
Nuestros
##rantes
parecía
##tula
profun
Prote
51
Jon
Traba
avisa
##éndome
estou
##hah
##IDO
##ED
sales
young
##didad
indis
Arri
éxitos
héroes
Bre
##publ
##mería
wri
venía
##ácter
gel
rara
78
compla
iniciar
##zis
Iba
pintarse
empezamos
##ñada
Ortega
##doro
CÓ
aix
conviene
llegamos
plas
ciertas
looking
machista
Sara
barco
Premi
colon
##rosos
Verdad
estábamos
MAY
independent
refiero
##HAH
contesta
Jungkook
cé
Pasa
afirma
lenguaje
vimos
##fal
##ayan
##selo
##chin
tuvimos
ataques
##ibo
autos
virtu
robado
##mago
pensiones
##titucional
departamento
HAHAHAHAHA
maestra
entendido
personales
##laron
SP
reducir
##pace
Show
circuns
miente
##iend
rápida
parada
guarda
jogo
Segunda
resistencia
##uidos
verdes
matrimonio
jin
revi
pereza
OC
dormida
##URA
##uidad
receta
tontos
unders
rique
2010
By
Hermosa
interrogación
hueco
publico
misión
eles
Cari
tamaño
revisar
sc
vendo
whole
logró
##uricio
##army
stand
##alajara
##ience
preocup
quedando
Saben
Junta
agricul
deberías
desac
##ribles
carretera
pendientes
##tidas
domicilio
propiedad
licencia
ventas
eco
espíritu
maestros
acorde
63
URGENTE
Pl
##IENDO
discusión
objetivos
arm
escribo
##ANOS
colocar
creí
Watch
roban
cup
##habil
##TINA
ça
##MAR
Bs
cancion
fem
polé
solar
meto
##lying
Sch
##óstico
##ologia
##vol
huelga
reda
Nin
miran
VAN
experiencias
switch
during
aburrida
realizado
hamburguesa
alm
mañ
tradu
caball
patrimonio
tapa
##siones
Llega
Ánimo
##more
MAÑANA
##ction
código
##TORIA
ocurrió
RI
propor
120
Anti
##ès
##ule
apete
##cipe
vehículos
intera
tikto
Jal
carácter
anything
cuántos
98
##idi
golp
faltaba
##ors
querían
Federal
##loy
pasé
##df
grabar
cenar
water
audi
cabal
##atar
gü
muñ
Unos
JAJAJAJJ
criminales
VUEL
acadé
##cking
dibujo
activo
ball
Vidal
favoritas
peña
##tena
registro
ocasión
thought
Palacio
promoción
eas
Digital
vem
embarazada
Lab
caído
minis
intenta
fernet
hala
radical
caes
temperatura
temporadas
jap
##yon
Donald
Cir
débil
GOT
profundo
Lindo
supermer
pudieron
diste
conexión
##tián
JAJAJAJAJAJAJAJA
##vistar
firmar
##cipl
cobran
infer
table
Amén
ministra
flechas
Medio
preocupes
risas
##alismo
límites
max
bonitos
ciudadana
convertido
ningun
rollo
Op
cm
Tin
renta
Sale
Sac
88
girls
Sele
dismin
Abril
similar
##ológico
descargar
limón
sense
avanzar
point
##ALO
68
PRESID
##een
Colo
denuncias
mueren
organizar
especiales
manija
Mora
##ot
empan
Obrador
diciéndo
hayas
lateral
prometo
##cientes
cursos
##bineros
acar
Agrade
HAR
##cht
comisión
venido
##undaria
mig
cuadro
envío
panza
##ingü
##UDA
inmi
muera
realizó
ídolo
apellido
hijueputa
##ILO
Trabaja
ERES
sono
patri
##iamos
llevado
##kemon
tareas
##eña
Cra
jamas
##wing
##esar
haciéndo
reaccion
preparar
##lay
camisa
report
wea
primavera
suya
President
GUS
##ridos
Win
tapar
myself
##fonos
venezolana
##jsjaja
sufre
atle
moch
mareada
Digo
reba
Auto
politi
movilidad
lxs
gob
##dense
hair
Gobernador
cause
##osas
apoyan
mínima
Popular
seen
##rong
##sado
saquen
Voto
FAR
municipios
compartimos
patio
##ote
##BR
abuelos
máquina
consigue
presidenta
merezco
##gest
##uría
##ます
##inte
Time
propone
Latina
##uts
##piro
neoliber
##bao
recomp
adorno
AMI
vuelvan
OMS
##ILE
##gam
llegué
dl
dile
##mito
molt
barbi
until
condena
Rica
gráfico
estr
estúpida
aumentar
pague
##mpi
Iván
cross
VOS
exige
nacer
Acaso
having
chap
policial
activos
gastos
##uz
Lin
Dame
congres
cientos
Jajaj
##NE
herramientas
tribu
Pregunta
ENTRE
sleep
##ERTA
Frente
aislamiento
Hal
Mmm
corresponde
700
Pública
Bang
yang
##hop
TT
consen
defienden
4T
Vá
enough
##elia
Raúl
Feder
Cultura
important
discapacidad
##vento
NY
ram
Emilio
STRE
##RLO
FELICI
PN
cambie
##vistas
##gió
Tes
autén
soporto
Tremendo
str
##maras
novios
respet
vil
Dal
ako
##clu
Premio
sanciones
##INE
JJ
algu
dark
acusa
inclusi
ponemos
escuchas
mtvlafandomar
engañar
barrios
exposición
##jaba
2011
escudo
sangu
manifesta
propaganda
FIFA
Proyec
##ERTO
Investi
blin
##GAS
impuesto
apuesta
GA
##llate
demon
chiquito
criterio
##bir
though
creyendo
dog
Guardia
reprodu
chavista
##quera
aler
tránsito
##zaron
Viz
labora
Estadio
politica
reporte
Ran
##adamente
frecu
etern
##dl
Simón
##itores
save
okay
taehyung
Biden
bienvenida
Marcos
yoongi
elab
gritos
psicol
##phone
muuu
roba
impe
##tróleo
ascenso
condición
reflexión
Uds
román
ambul
Parla
favorite
##riga
Din
Públ
Sra
both
exci
##ESTA
gue
gris
##ject
Mr
##damente
lanzamiento
Señora
pedimos
chupar
béisbol
Clara
dama
compr
##CT
cry
Claudia
reconoce
frontera
##CAS
chavismo
##cturas
sonreír
weather
##AJE
clan
CORRUP
tóxica
institucional
carnaval
##ABLE
paseo
Tall
##vieron
donar
saying
Glor
detener
prio
##TB
Estudi
##III
juzgar
CE
CAP
sueldos
chaval
usur
cabrón
explos
puebla
Linda
##daba
comprarme
ayude
##ules
##cao
##meno
different
inex
##36
Adi
##mile
stal
Ep
##mus
recicla
gratuita
intelectual
late
diré
histórica
jugamos
insom
##IGH
combate
chup
##atas
Fiscalía
##VOS
cargar
ocasiones
Presenta
##empla
##HY
Jer
##cro
clás
chinos
Mamá
##ándalo
muchacho
olvidó
taxi
cartas
ternura
hj
Ayuso
Ronaldo
junior
ema
##vimos
imbecil
travel
##abe
brindar
##icientes
andalu
Inicia
chinga
##eri
bolsillo
##gidos
##brio
Chin
##aristemo
Comple
##peta
mtvlafandomaristemo
##ABA
jud
Evo
Disfruta
causas
##tern
Pes
trajo
QUER
posibil
invitar
##uti
maneras
##pid
incapa
public
Joaquín
##rista
##tou
##ciencia
solucionar
jsjsjs
estão
seré
77
TANTO
mtvlaparejaaristemo
perdieron
Vivo
Entrevista
##gie
dans
Información
##pidos
DAN
##ivari
Max
##uñas
##ímp
Rodrigo
chang
distan
MILL
##ition
auton
Nación
serás
mãe
pcas
##URL
espn
##gador
##rian
##tha
mir
##tta
cambió
pedí
aguanta
##titudes
##nya
emilio
gimnasio
mtvlafandomaristemofans
Familia
nba
Also
monstru
alba
alimentar
tela
Nie
ausencia
curioso
##tana
manifestación
reglas
vital
##gano
conser
Agust
Vice
Juli
carreras
colonia
plane
liderazgo
patas
games
retra
##eliz
tumb
lesbi
##vangel
whats
bomberos
##IAS
such
terrorista
##ations
escuché
seleccion
bondoni
##guito
incu
shi
lac
marcas
##47
##kar
saldrá
fatal
hig
monu
detenido
monte
Capital
##dula
rompiendo
logrado
parlament
##ety
69
tratan
maneja
chill
Cine
restric
OK
darles
Málaga
libera
PUEBLO
Virgen
síntomas
conseguido
visitas
míos
capítulos
expor
llevaba
analizar
Dime
##AND
Supongo
leyenda
acel
lasti
encuestas
feministas
##nis
##ócra
portero
Medi
mien
Instituto
facu
##onso
alternativa
árbitro
##çar
milagro
##side
##zadas
##cker
##redo
Zo
ESPER
techo
propias
especie
##AMENTE
Discul
##gate
idioma
sufrimiento
##kw
97
##onos
toco
dance
Gala
feat
William
##etero
Descan
factura
debió
Paso
montaña
regresa
Viendo
COMUN
alf
##bús
eyes
##ICE
anillo
mortal
estúpido
##gí
declaración
##omitas
absoluta
desea
##cribe
però
yu
acompañar
críticas
chingada
##cribir
precau
presentó
búsqueda
jurí
desigual
individual
nossa
67
actores
Junio
lang
terminé
##ianos
##uelen
mediocre
##ksks
future
responsabil
valencia
influencer
transparencia
STREAM
vibra
Nah
tier
##cierto
##set
vocês
Feria
gras
hijas
próximas
década
##ford
ALL
secuestra
transformación
normas
Acomp
mv
antigu
venti
##TICIA
Presión
cierta
salón
ATENCIÓN
vivos
ahorrar
ventaja
Baby
Nad
boletos
jab
move
##ass
comí
anunció
decreto
ERA
##ners
##ILLA
##ólica
tae
##lid
BR
esposo
líneas
motiv
blue
##OSA
tia
##ayaquil
##uit
ampli
GOBI
##itz
división
rd
contratos
gp
extrañaba
pezuñas
numero
Stor
paran
##VAR
##puestamente
tomó
Yan
NEW
lanzar
VENEZUELA
opinion
boys
Ken
seguros
evidente
aguas
celebración
Segura
dou
aparecen
suba
##lida
preciso
violación
SEM
canto
CONTRA
ESTU
Dist
wrong
##bras
linea
ESCU
Jan
intensa
acci
XXI
##bana
DDHH
cristal
azúcar
borracho
##grada
regional
vincu
73
sufriendo
efectivo
Jen
NECESITO
##gantes
laburar
##cat
espectáculo
recuerden
animo
capitán
NOT
andaba
Iz
Medellín
impo
Senado
##cela
suave
conserv
nct
##ficas
pelis
96
PELO
##ciano
Encon
reen
Esperemos
vcs
##dré
vini
DONDE
pareció
##ICIAL
##rú
##mul
quito
mañan
##jaj
ademas
pai
king
Chil
##llermo
state
llave
chistes
capitalismo
embaja
mtvhot
adolescentes
##ution
vendiendo
borde
jodido
BASTA
ridic
filoso
necesaria
arch
tinha
enjoy
representantes
contras
vacun
halloween
##plica
volvemos
##diales
consol
Monterrey
mui
igualmente
JAJAJJ
##tol
##ette
##ament
##abra
UC
minas
Goool
tomen
semá
##ELA
George
repost
til
##icada
##ington
egoís
##VAN
Marzo
##rile
estuvieron
extranjero
##grafo
insoportable
Quieren
aristemo
Dici
hablaba
yaaa
ín
XX
##aturales
##linson
##mentales
Derechos
maria
share
fifa
##zquez
miembro
eva
excusas
note
##trá
##erio
Sco
hours
decidido
importan
Desarrollo
quite
reciben
cercan
rel
lemb
##riles
incomo
Navar
##eok
Dam
perdi
difusión
##tation
nova
ov
##kis
Triste
crece
empate
DEP
claqueta
Nicaragua
supl
llueve
Ata
logros
jugo
golazo
veter
##CAL
chic
vacunas
joya
colegios
book
satisfac
##light
obligación
hipocres
pendejadas
necesitar
homos
enseña
##cripciones
Team
odiar
##times
revela
mtvhottest
##denes
HU
##zcan
supre
##ently
Precio
cumpliendo
pedi
abue
conciertos
##tamo
perjud
##ult
##bern
86
Granada
##chester
American
hip
barde
honduras
certe
llegas
tomate
Há
##core
##máticamente
Agosto
petro
patro
Congra
CAMPE
nut
##vención
enojo
##ês
##mall
##zu
inocente
lenta
quitan
##2016
##field
##45
hablado
guy
pira
sd
requis
Parte
##jiji
apareció
finalmente
delantero
chiqui
fox
Ases
forget
2do
humildad
##érate
Fac
diná
materias
##versa
each
##enciales
##énez
##reros
##rupción
falando
llame
temporal
queridos
sismo
chilenos
##formas
enemigos
disposición
represión
##hibir
rapido
barras
enamor
Camila
##iela
Empez
reempla
valorar
##imal
cable
##itud
Torre
teníamos
Sigan
iré
tom
mtvlains
sii
vous
##cienda
décadas
##DIA
##toso
indirec
explique
MUJER
Well
MX
creciendo
equipara
penales
invertir
escab
250
levanté
##coin
gla
noctur
asqueroso
novedades
##estructura
Veracruz
random
disponibles
posibilidades
USTE
Tru
ODIO
Llegó
aula
fantasía
prácticamente
Memo
comprando
##idar
almo
remix
consumi
Osea
##gram
comeback
memb
combus
otgala
ALGO
potencial
oídos
##inge
vine
protocolo
reserva
ARGENT
desayunar
##ladolid
##ient
valora
used
Ando
Isabel
equili
Dani
traen
estupe
indic
procesos
nerviosa
enoja
maric
##38
##geno
##bición
pañ
Castillo
Paulo
mame
asumir
ESTAR
Android
Escucha
Eh
tenías
bobo
##LY
##fos
##48
estadoun
Abo
comprado
guía
águila
##izamos
creado
intensidad
chido
inventa
critican
##alho
ines
##cista
ASI
talentos
reclamar
male
##EROS
arranca
tenerte
bendición
eterna
##mones
canales
inneces
religión
ronda
Mich
descor
lora
emprendimiento
arquite
innovación
abogados
hacían
agro
##ctivo
arrepiento
diferencias
##adá
TIE
namo
Consulta
desarrollar
QUIER
asocia
Ges
mora
entran
76
amable
Mauricio
##gero
##sula
##directo
Mayor
pací
##lon
viejas
Rich
CUL
escribió
yet
##imamente
##bita
virgen
##ciamiento
##cié
##した
Dí
Demas
Oigan
besitos
sombra
##icante
cruzar
recortable
equivocado
woman
spi
fotografía
195
sepas
intercam
Sorry
bc
paisa
didnt
mañanas
traidor
Alfon
marchas
Marco
plazas
##VIR
novel
Elec
TAR
sed
felicitaciones
##ondres
Jaime
##eos
##meras
alianza
##rimos
maca
Marta
entrando
##wood
##ónimo
decirles
pronun
CER
decente
Poco
##inados
pierdan
Fútbol
creía
petróleo
insulto
asistir
needs
watching
pretende
karma
ibas
invitados
SM
##berg
III
hum
europea
##cris
microbio
stories
anyone
ira
smart
Opera
wall
tope
Ill
wn
financia
irresponsable
2009
Flores
ninguém
afortun
empleos
plano
mezcla
Toy
pain
foro
ful
lentes
Comienza
sanitarios
psi
##jua
##dies
SEA
Ramón
Aaa
##queros
89
DAR
Vargas
funciones
##tone
##tent
Tour
pierna
rega
ambiental
Ejecu
##istente
ofens
bolsas
instalaciones
VÍ
concur
cuadra
BUS
##cedes
Racing
##อง
elementos
empiece
organizaciones
Villar
##senal
extin
mai
periodo
inspira
raya
ignorantes
vengas
Hom
TRAN
estemos
fé
Aut
Portugal
##COR
##hon
hands
cacas
##tificación
##ECE
fascista
word
justifica
else
PAÍS
rueda
payas
tkm
Herrera
Bienvenido
shows
TOR
duela
Selección
##aré
increible
secundaria
Cámara
##jé
##plic
noite
body
indígenas
lluvias
Non
Atle
sali
##trucción
desco
##tones
##tors
cifra
pierda
Cierto
enamora
directa
Romero
pasear
##dicion
##xd
Produ
##pink
PERSON
ladrón
retweet
útil
fant
Exper
representante
Sob
##ija
Lpm
racista
senador
gring
Joe
facha
Vicente
als
Jin
Já
Bayern
deri
Favor
colegas
hur
nave
aficion
business
##aring
tocado
nintendo
Nose
##usion
carn
polla
##iving
penas
Frank
Tá
jodas
##ivamente
intimi
regga
alcance
ganaron
Cs
PARTI
##terías
##vote
aprendiza
##TON
actualmente
laborales
fanat
GRANDE
##ariamente
bring
Menti
aprendido
##bis
##eme
quedaba
cober
kil
##pite
autóno
##bidas
Nota
volunt
##GEN
Có
LIVE
maquillaje
petrol
incluye
sigueme
##entimiento
boludeces
mario
antojo
working
nacido
extranjeros
atta
87
##enzamos
INFO
atar
herramienta
HABL
##jama
Justin
Segundo
pequeñas
00h
miel
Mercado
bicho
##madas
duelen
Pdte
##aar
##NN
trailer
protagonista
FUCK
alemania
##remo
verdaderos
siguientes
72
maltrato
Cru
Esco
FF
##hite
Recuerden
recorrido
Park
##cine
quiénes
##ornio
whis
Impos
bende
room
cuerpos
##cab
bn
reproducción
creas
ecuator
inventar
narra
kca
93
conocemos
sopa
history
##oria
##ELE
metan
limpio
Mila
ciego
sobrevivir
##ÍN
quie
lp
##vila
pit
##night
vecina
##facta
ética
##ológ
admiro
##onal
Miércoles
##DAN
trampa
Cambio
estudia
terreno
##got
Pepe
Torn
Stu
Fuera
sujeto
abr
extremo
francés
Meu
Sebastián
Cora
##late
##UB
fallo
Cob
luv
simples
amenazas
fasti
lost
##ILA
americano
##às
Septiembre
foda
##CN
elegido
##edo
Recuerdo
verdades
##iebre
entró
deu
cámaras
bases
comparación
arres
##tista
encantó
didn
celu
tiros
mató
##zen
restaurante
Porqué
Abs
aliení
conversaciones
dd
Ref
revel
legado
##mante
Corea
Bella
seguidos
##mentado
spotify
resen
custo
pilla
oído
quinta
desse
Lic
intenso
preparada
chir
##soe
##ladores
##riam
##UNG
ARE
NBA
renunciar
case
##ootball
traigo
##ilas
estrena
Correa
eléctrico
polvo
siguiendo
precisa
special
PES
84
Ye
version
Acu
##99
claves
Jesus
potencia
##jarse
peleando
##aran
Tim
##wi
##trate
Will
Informa
##dete
hela
consciente
acordé
jajas
aval
tasa
pelicula
##tie
Blanca
chara
tips
##nel
votando
secretario
Estima
postura
##idane
##máticos
estupideces
golpes
desor
##críbete
DESDE
ill
WA
Cuidado
Apoy
##ándonos
##wan
Dic
maldad
Luz
Cés
Simplemente
ode
##AJAJAJ
ASES
side
tqm
mutuals
burro
ESTAMOS
Diciembre
vontade
fes
##omi
distribu
official
copo
Fox
coach
repri
plantilla
##deros
documento
##ulia
hes
tristes
abusos
héroe
vienes
Mí
tabla
##log
##TIVO
comprender
##tagena
grin
##ive
sobran
lap
Spi
ss
Visita
HDP
invis
##arle
duran
##ritas
##WN
##iando
abro
match
protocol
compartiendo
jour
cuadros
pongas
##lies
kilo
Pronto
##ISA
llevaron
aportar
Guillermo
electri
Álvaro
##anted
##DH
##ision
capo
hea
yg
##XICO
Sistema
baje
saga
##zamos
empezaron
Hy
##unk
##KA
Vizcarra
universidades
##AKAK
serlo
Fundación
piedras
falto
Cola
enojada
plantel
chiquita
palmera
paguen
94
detes
porte
abandono
juegue
corri
piñas
##mance
deberíamos
president
sigamos
páginas
Leg
##izon
detenidos
prés
##tuito
Mús
lamentablemente
leon
passa
Administra
áfrica
##ITE
negocia
carcel
Nico
AMIG
Pare
##EM
California
Teatro
Desa
##grafia
aveces
##BAR
##izas
##icidio
batal
estafa
##arán
arquero
##centa
votado
perfect
gastron
fiscales
graves
borre
reiv
ilustra
##rarme
reuniones
Volver
dormirme
recordamos
exagera
##cloud
teen
hiper
Fotos
dulces
##lares
determin
louis
GOBIERNO
cubanos
##dro
HUM
Yoongi
FR
tatuaje
forro
votación
##ivi
JAJAJAJAJAJAJAJAJAJAJAJAJ
hipocresía
Mala
despedir
Emer
reverencia
poesía
wee
dete
metal
##BS
Publi
biz
Sabías
Sino
nomin
soñé
comparar
WTF
Participa
nudes
bajas
Colombi
Independiente
##cions
##ELO
pánico
kk
piense
##ém
ricas
instante
progreso
AÑO
Esperamos
Robert
coña
recien
convirtió
##rales
preocupación
##hun
mandarina
Ulti
piro
##etti
disculpa
main
humanitaria
afectados
profesora
cali
##carse
cache
##eton
##ift
##GRA
Lol
Descubre
Miss
Bale
luck
plantas
Entiendo
riendo
Señores
preparados
recons
##ixa
Libre
##cimos
Aparte
castigo
Check
Xq
seca
literatura
sencilla
colección
porro
##zano
desblo
Dont
found
##TC
fuentes
diarios
##ress
learn
##glo
##vándose
beat
ponte
bloquear
profesión
Simp
todxs
Spain
TIEMP
compos
aceite
Isa
Ciudadanos
Alma
##íes
formal
##anya
famosa
afron
DEF
eeuu
##ieber
Fecha
might
##chill
##garme
positiva
##elsea
descorchada
FAM
riqueza
tendencias
ly
dispara
Depen
Ori
despedida
benefi
passar
orejas
listas
send
invas
##iral
escándalo
osorio
integral
lis
votantes
subnor
poderes
saludar
literally
Personal
##jete
Tribunal
Blanco
rescate
##larse
ésto
lets
Resu
##eer
Coño
aburro
valle
disney
colectivos
doler
estupefacta
himno
##dicación
colega
pera
Ray
##sición
VAS
##arez
delicioso
##tría
##pazo
inmor
escapar
##daste
aventura
absurdo
priori
alienígena
vestir
Gonzalo
suele
delincuencia
conquis
##rás
iron
##ADORES
experi
presun
tiendas
##trans
Pay
film
Unidad
plen
doesn
amplia
alquiler
n1
cayendo
hí
dispu
ocurrido
convencer
Juntos
Colegio
aa
vege
##wo
rojos
faltas
actriz
few
acabado
##talgia
##chis
##35
##ganos
asamblea
depos
serp
##ARO
Asociación
incómo
fet
podrías
kirchner
caracas
lleguen
Ton
Guti
destrucción
##idalgo
presta
trauma
Prec
Sui
supuestamente
dies
certeza
sentado
productivo
##gela
Conta
canso
hPa
presentes
robando
##caras
queden
Cumple
tuyos
##ees
talking
vial
gila
És
ARISTE
ole
involuc
academia
##KS
##too
pí
Próx
##hue
##37
##quad
zombi
PIN
Murcia
fiz
pegue
between
##ñarol
culti
Et
short
##itivo
Web
municipales
yours
##ctive
define
llover
pag
UNO
Encuentro
tropical
fortalecer
⠀⠀
cín
Ayuda
liv
Wi
definición
##tifi
##landia
volverá
fac
DEN
##ctiva
daños
heridos
JAM
perpe
2008
Vuelve
inflación
hables
damn
Tik
decepción
SOMOS
Descar
continuidad
Impor
Respe
decidió
contenta
Have
Técn
encontramos
merca
encen
repas
chama
dedicado
emprendedores
urgencia
bin
impotencia
ptm
##ades
merecido
creemos
hueva
thinking
##noun
absoluto
califica
llamadas
mandaron
Aguante
Florida
IGU
Agua
Beat
mandando
Fed
sección
Cuer
queréis
vives
##izadas
permanente
molestar
darnos
Tigres
eléctrica
JAJAJAJAJAJ
trasla
mercados
CARA
colaborar
nefasto
sabéis
2006
##añas
##tables
Latinoamérica
sev
suces
campeon
Mari
ARISTEMO
##orías
PRESIDENTE
previs
Tex
explotar
gobierna
Tuve
hablemos
Indi
BEL
oír
tierno
hielo
susten
miras
amado
César
Silva
RD
perspectiva
tirado
sky
##habilita
pájar
photos
Bio
deberia
HAB
saludable
##güen
##edor
TOP
##CUL
grita
million
##lardo
##ível
Hijo
perdona
directiva
relato
##chat
XI
lmao
televis
##pear
##zoso
demand
OTRA
oficialmente
digna
plataformas
llenos
kpop
perre
compas
##cci
empezado
##tuario
Víctor
SS
##mbia
##caron
onde
pantalones
enchu
ofertas
invitado
ensal
plástico
##quei
##video
##orama
LIBER
ner
politicos
##mble
ahhh
privados
sis
estimado
promover
divina
Alonso
wpp
past
anunciar
experto
fez
presi
##okjin
bestia
Foro
xddd
mascotas
##mous
snap
sl
cercano
Pob
llamando
close
ocupa
infar
talleres
cambiando
ina
insomnio
##yentes
PERD
unidades
AQU
muestran
soberan
Barrio
Ive
curiosidad
GRATIS
sweet
Autor
rodilla
jefa
understand
diosss
mola
2da
piscina
##tizar
niega
gallo
##ird
torre
##tización
Republ
BEN
esperemos
subido
tuiter
definir
Gro
robó
deport
##lón
moneda
duelo
retos
##vere
##ké
universal
Felices
##mios
fiebre
nalgas
costado
##juegos
zoom
level
74
complejo
habido
##iadas
discipl
cubrebo
Bran
socialistas
om
Taylor
bay
Valverde
copia
Fav
Uber
others
dirigir
##cono
wifi
oct
obten
TIENEN
deseamos
vuestros
##panish
concentración
ship
##rt
curvándose
santos
chris
refiere
Ahre
##uig
smile
hostia
##itó
cositas
pene
sospechos
gues
sincero
voice
##gota
serían
Dre
remera
##jarme
eee
tick
lav
##arquía
migrantes
Bendiciones
Días
marihu
##cones
pesadilla
House
Human
manual
click
##mobil
Revolución
ave
##TANDO
salarios
Peo
climático
apetece
Rol
Diputados
SEGUI
words
police
fronteras
Enero
explicaciones
opina
##ี่
Sea
##antas
Aug
Galicia
Ves
operativo
enrique
flow
tóxico
sufren
##bria
##gale
biggest
alberto
negativo
cose
modelos
##kit
martin
ruedas
##lah
Puro
estatal
supe
Fuente
plis
tendrás
Daily
coordin
Imagina
jen
##anes
##hit
##ciste
aprendiendo
##ging
lun
##ICAS
mantenimiento
hura
##rona
Sex
##micas
arruin
seguiremos
cerro
oficinas
Grandes
pray
##timas
justa
GI
##uza
abe
Rajoy
cariños
estructura
trayec
perfe
mister
bono
Loco
From
mamen
oreja
Firma
dicha
escribí
pec
octa
Maradona
hpta
término
pagado
significado
bs
acceder
naturales
##AJAJJ
estacion
perdiste
empo
pila
##mona
##yoff
nacimiento
Tarde
Mirá
digitales
liqui
##hion
pagamos
##gma
##sin
bajos
Bom
Defensa
##jimo
##erías
abandona
thrones
disim
kim
##cenas
retirar
despla
tiktok
##่า
pau
Sm
Bibl
tend
mutu
JAJJ
MÉ
##oledo
ESTÁN
dejaste
contagiados
##chet
Only
árboles
autobús
vuelos
uy
corrupta
encanto
órdenes
votan
mochila
salía
presentado
vato
amarilla
Ty
imagine
##enciar
leave
##MENTO
reclama
puras
clip
ENTR
verdade
almuerzo
estabilidad
tesis
fazendo
agregar
Publ
celebramos
GN
Casado
Siguen
##idu
##met
tenerlo
gosto
issu
Ll
lucas
Tecn
programación
agentes
competir
Gana
Verde
##GN
##tional
DC
patada
esfor
##ples
futbolista
Arte
sitios
gripe
sair
quilo
pé
pedirle
hinchada
buy
io
sco
##ciana
##dum
informó
privilegio
##guita
identifica
Alan
obri
##dumbre
Out
##usiones
ilusion
confes
bea
teclado
Cic
generaciones
ater
cumpla
acepta
contrar
cómplice
Ode
leve
##mengo
firmas
community
lady
parezca
##ivel
bronce
democra
Uh
Guadalajara
##tine
elo
rosario
avec
##rene
generos
weekend
Corre
FOTO
bangtan
urban
ocupar
uniforme
dosis
asegurar
Gr
tocando
grand
solidario
Español
vernos
Música
Stream
reve
delicia
Dir
##rame
##cena
##tein
##vita
lupa
científicos
aclarar
meteor
##ัน
##cación
##elf
Great
##órmula
balance
CUMPLE
Peru
Sum
##TIL
pijama
sancion
adulto
abiertos
180
comido
contesto
compli
solas
Nacho
podré
##íbles
riesgos
bloqueado
prepa
preguntó
##DR
clau
wanted
tapabo
podia
sabías
##ários
##ITOS
##39
aumenta
Mano
##lanta
oaxaca
cuáles
count
##ilia
kan
tire
mob
Hit
bandas
Zona
aprendizaje
melilla
pade
ganadores
COLO
mataron
actitudes
NOW
Mark
filtro
##HE
dure
Junto
presa
chileno
Lopez
Dejar
Cuántos
twitch
Eva
descal
Uff
silue
FUN
pensamos
aku
pd
encuentras
ÚLTIMA
convic
##uevo
poronga
peronismo
NAR
##ERS
pokemon
Zidane
##ISI
AI
sucio
acuerdos
excepción
Bah
Patri
advers
pagina
valga
piensen
went
pick
##aciones
##mida
tumba
##íncipe
Rap
##pula
##turias
meterse
hipócrita
económicos
tocan
cóm
##glish
##gales
suger
Debemos
comerciales
destr
tigres
Apen
ais
dessa
Lon
efica
##garita
##onduras
##cked
BON
promesas
suc
ESTAS
fascismo
porcenta
Look
ño
artículos
Leer
cule
Pienso
remon
Andrea
celos
##cismo
##undan
tomé
scen
discriminación
sentimos
irregular
producir
UK
asign
consecuencia
Lara
constr
casar
mail
DIRECTO
Servicio
pibas
Lec
liberal
yeah
##ienden
views
barça
lean
cubrebocas
Estudiantes
posicion
##intana
##iras
doesnt
##tuber
##bri
inolvi
dominicana
imponer
navide
##bate
##SM
Últimamente
mp
cour
llamó
##alapa
##hat
então
barbara
erra
##ekhyun
mogol
Bob
Dio
oto
Ham
##YA
exclus
Cuantos
falte
##aser
paraguas
dispuesto
Dark
Lady
niñ
wants
escuchan
buscas
alone
##uy
vela
actualización
pesado
fact
##manes
Promo
solicitud
Reino
acompañado
jubilados
Estaría
Sincer
escas
safe
Paco
quedará
jos
presentamos
Fon
campes
Cuenta
Lau
Mesa
PAL
MENOS
nan
PSG
scar
metiendo
##obe
##ritual
lava
##ferencias
GR
espiral
camar
vías
reciente
busque
Kirchner
frenar
tradicional
Anal
rindo
pintar
culpables
##ologías
People
Adiós
harto
deal
cobertura
Reina
felicito
portu
jajsjs
tbm
##COS
Jalisco
rural
protestar
agr
##ília
ALE
EQUI
Quienes
rif
Medina
stickers
equiparacion
Ruiz
VÍDE
hey
##ier
conting
Dijo
psico
Cerro
quedes
crímenes
insultar
perfu
problem
##ganse
Torneo
goals
##mbe
##americana
##ined
gratuito
engor
called
##ished
fm
ACAB
angustia
ministerio
##madre
second
pintor
##ased
moon
Posta
incendios
Imposible
vistazo
coches
pep
seus
Put
##grano
postu
áreas
hermanas
##umba
Barran
##vengers
##imba
Esperando
Apenas
Cro
sobretodo
THAT
skin
amazon
##friend
##mato
900
credibilidad
##tp
##eramente
trol
previo
##니다
##etín
latina
atentos
democrático
amistos
##dador
lg
##atri
Personas
queen
telef
Militar
insultos
##usly
narcos
llenas
EXTRA
alimentación
Aque
cuí
recoger
continua
maybe
##cc
funcionario
circunstancias
jack
pecado
IV
Bruno
using
máscaras
##ológica
persecu
llueva
batería
sistemas
BUENO
jornadas
##heiro
inu
Hotel
stalke
##igas
imagínate
integrantes
dirán
protocolos
AQUÍ
##cr
CÓMO
Jejeje
Punto
caralho
##cedentes
vulnerables
conductor
dolar
Mana
vd
patrocin
Guerrero
##acán
##demi
saberlo
favs
acepto
pertenece
Omar
##ulado
ufff
inocentes
PT
pedazos
##OOOS
##ctr
Free
mencionar
##dental
##YE
##love
usado
##hind
lad
##cala
referente
leas
Tomlinson
cb
básico
esconder
boxeo
noble
feb
levantarse
##els
ny
escritor
reason
discus
shot
CONCHA
caduca
Local
##tivar
##pertura
##ivar
muñeco
list
##adre
told
##ée
elige
VS
Um
Honduras
essas
##FEC
manifestaciones
expectativas
bombilla
susp
alturas
MC
boludos
##ização
nome
##hen
desbloque
##mmy
Isla
kara
##fen
nueve
sostenible
blancos
##jadas
atual
chisme
##thle
inútiles
jodan
##ólico
FELICIDAD
##ciable
MISMO
pito
cabra
CUENTA
odian
##tyles
##EET
Gloria
arrepentir
##ginal
##ures
living
DÍAS
##quetas
SHO
##AH
style
libra
corro
##utista
cristi
infectados
ML
##sor
Había
respaldo
presidentes
Doctor
truco
fenó
order
outro
NACIONAL
##esen
caminos
##tiones
plá
##ficios
materiales
sobrino
JULIAN
tomamos
infinito
Vzla
casita
fortuna
anuncios
defensor
Open
Zaragoza
pute
ceuta
practic
VIS
comportamiento
París
mandato
Dynamite
Você
aconse
vagos
estó
dándole
##hí
##TUAL
aprovecha
India
Paris
expresar
semáforo
##étaro
ciertos
hacernos
##viembre
##ARIOS
##plan
angusti
lealtad
incluido
Gue
suman
costó
vien
nostalgia
Secretario
aclara
aba
Penal
##ih
tierras
##ças
geo
respect
morra
claras
##ım
manden
Taehyung
misa
castel
atodos
Vou
PODER
temor
##ango
exista
Never
reciclaje
FAMIL
##rete
otdirecto
TRI
mamita
##cidio
##FER
Nel
menudo
movimientos
Chica
79
aspir
Official
##vame
Deportivo
##ándola
##tei
cuidados
diputada
Hice
tercero
Sii
##most
responden
neuronas
empresario
Pere
confirmado
csm
sexuales
VIEN
##copo
entiendes
Avan
Life
predic
##tráfico
##kal
Venta
law
veré
esencia
CABA
Australia
Reun
##kémon
##ands
cál
##guis
Fuck
Hello
btsarmy
##uele
Genial
HIJO
diosa
Muchísimas
Js
mamada
valió
chavistas
Suda
qued
educativa
VIVA
esfuerzos
dim
Febrero
paleta
##gadores
stats
##TEO
Algunas
Abro
##minado
##jamos
corriente
Podr
veni
##ONE
alber
CORA
rubia
cf
aber
meo
divul
coron
entienda
salta
fruta
PASA
Perdon
viviendas
##biera
##tmas
CRI
##litos
Pep
desinfec
pésimo
pouco
notifica
White
conclusión
privilegios
representación
birras
weon
##sy
Pul
migra
USD
##guera
##unds
INE
blackpink
lavado
pagos
fuma
diversidad
##TT
dolió
##ligencia
TIEMPO
confia
MM
meren
Sofía
##tazo
hiciera
##chero
ff
Alfredo
rr
##46
ascendente
Guz
Wash
Manchester
compl
vocal
ino
aé
##DAR
gets
confío
quejas
Proyecto
##ribuir
publicaciones
representan
Londres
sentidos
##TANTE
Repor
Miranda
##raste
##hd
salto
##usias
Nan
Economía
supo
##tch
formato
DJ
##edores
JE
Global
##iends
##erten
##FL
Sanidad
tots
israel
##arados
agradecido
Secretaría
##lera
platos
crazy
st
obligatorio
##mores
Call
verse
respondió
decia
ctm
jodiendo
##sivo
cansancio
fresa
Xa
aficionados
coti
##mela
Any
fine
##delo
##izacion
MUS
##ury
##nar
nubes
nesse
83
hell
madrile
Equipo
Roc
perritos
trama
Inglaterra
##hab
##lanos
imprescin
Queda
trabajamos
##americanos
remin
##alia
reunir
##suales
Absolu
##obi
jugaba
pastor
aline
saw
capitulo
death
cuántas
Mate
palomitas
productores
agarro
Interesante
cómplices
victorias
aplic
suficientes
contagiar
admira
venganza
marchar
SOBRE
pqp
Lí
descubr
pich
IGUAL
tentaciones
sorpresas
ríe
##VAS
coup
TRE
Éx
Arro
confirmados
##militar
whisky
##AJAJAJJ
racing
dirá
volando
BLA
doña
Arturo
##ENTOS
Vé
capric
artisto
##gáis
##tibles
realizan
##precia
compon
##erar
típico
SEGU
trolo
enví
legí
cancelar
started
deserve
##VIA
seguía
##UNA
ORG
preguntando
##temporada
interno
peace
##gona
intoler
virtuales
Obviamente
##clas
Curso
División
fus
##IGHT
Orgullos
fallas
influ
refres
vence
boom
artistofthe
increíbles
descenso
técnicos
ahorro
##isos
noo
dois
videojuegos
Regional
Ky
rou
manifestantes
haremos
funcionar
mascota
##bitos
serios
##americano
vzla
horno
cosita
panda
##ols
ridiculo
cierran
friday
##isme
chucha
Besos
##ingui
fortaleza
Betis
australia
bondi
efe
boliche
##comun
##ORMA
Coin
sonrisas
##otas
Last
##brecht
##lax
civiles
##้า
Alianza
Jackson
##ANG
direction
Dirección
fat
ocultar
sys
reún
##ology
Viste
zu
invitan
##mía
inclusión
##mpli
##cana
HERMOSO
paraíso
Home
Magn
low
varia
suspender
92
automáticamente
violenta
cumplido
Lucía
Potter
estrategias
opinan
RM
enfrente
##ZÓN
Same
Mercedes
esencial
boba
mito
europeo
Mariano
##ENO
AA
vistas
polémica
archi
Conce
fuga
muro
##ably
creatividad
Ahor
volvieron
panel
FB
OFICIAL
OT
##pá
camila
NÃO
CRIS
##íen
cague
cremall
Noviembre
Despues
asun
piloto
##grafías
aprueba
anual
Humanos
##uren
cres
f1
Dispon
nós
phone
bah
Fá
chich
Caribe
##chira
agresión
atropel
inteligentes
##mision
vuelvas
Tenes
explota
cajas
##ities
Pac
##fis
Quem
Albert
rompen
seguirme
campañas
82
dil
Terrible
empanadas
bienvenido
Sant
oq
Campeón
dud
##DN
hai
estes
legi
transición
atardecer
curva
conocía
cremallera
sy
afil
traidores
SUB
Súper
##iapas
garra
bots
amen
Comen
estómago
interesantes
##sive
candidata
Deberían
##where
After
podria
aspectos
seguimiento
tone
encierro
##dadas
hombro
##mill
parió
##LOW
kilóme
##nec
##TURA
famosos
jan
Municipio
Juro
cubrir
Ejército
speak
susto
comigo
least
##aal
performance
##zones
miserables
PLE
perrita
motivación
fichaje
SEMANA
injusto
certo
##cua
ALGUI
alo
##HHH
Tab
entendió
egres
##icóp
opositores
Quizá
embarazo
serpiente
엑소
parto
##VEL
Ent
revol
económicas
banderas
Tok
First
apas
pesada
##ENTRO
Viv
##ilers
diam
##ecio
infeliz
Jiménez
soportar
camina
inqui
gabinete
Colón
fall
encontró
temblor
##IBLE
JULIANTINA
debía
Máx
##GUEN
sigas
chocol
##ICH
VÍDEO
fascistas
infraestructura
Chicos
##ür
##raft
##ÚN
Sinceramente
##sando
lleven
##uero
contradic
permiten
##DL
Deje
debatir
fija
Aja
lección
##óloga
91
Hum
mecan
documentos
champ
DALE
nervioso
volta
xa
##jk
considero
Arriba
meridi
came
industrial
rui
Naaa
nací
elef
mérito
PLAN
qualquer
drop
##ulla
##zil
##idro
alcaldesa
##ère
Museo
directora
Niño
Vive
alfa
justamente
##ech
4ta
caf
goes
##bie
Ingen
ALGUIEN
sarcas
##uerta
guard
##wich
tron
presentan
GRI
1st
##ander
gringos
ajeno
guantes
Sois
Seguramente
taba
continue
señorita
##ástica
Ze
weathercloud
Ment
heridas
canse
##ises
compañeras
Quito
playas
##ROS
electricidad
agradable
FARC
##oluca
reí
##hada
arce
prender
brother
sientas
strong
Diosito
contó
dejemos
despertarme
Cepeda
##ív
ridícula
##RLE
##CIENDO
adulta
question
favo
Sport
supero
##mper
##meto
necesarias
llore
Fort
charlas
ayú
valer
colmo
sacas
protege
COME
##pete
machismo
pales
cest
##quila
lorenzo
impresión
peat
rota
reclamo
mens
lác
hahahaha
##GG
waiting
demócra
pesca
jura
arregla
Álvarez
convivencia
compró
lógico
Incluso
Premier
guita
almor
##gancia
##tten
suicidio
##citas
Tae
##kee
discur
biblioteca
62
sobrin
##logos
vidr
entrevistas
Jefe
culero
##tificado
factor
energy
kid
##quet
ministros
##amora
##iao
esq
enterar
24h
OTRO
fallar
##lorca
Queen
propos
CADA
Cle
locas
wsp
vicio
##onesa
##amanca
males
deve
Negro
desigualdad
ESPAÑA
marihuana
Cero
catalán
Irán
Provincia
cuartos
selfie
fashion
TAL
Olimpia
mayoria
##mira
##TÓ
##ader
cau
videolla
impu
contactos
##velo
cron
##lago
valientes
respondo
##pot
##sada
TÚ
laugh
premier
gorra
sacrificio
ensu
bud
##demic
##úch
electrónico
##trio
eng
tonterías
perdonar
ingresar
estaf
antoja
Full
##já
ㅤㅤ
zar
lesion
##minario
imperio
##ndrome
##TICA
multa
inspir
oscars
##bd
hogares
Alfonso
marcado
dedi
##guna
##vantes
tranquilos
Der
Omg
confirmó
Comité
Pensar
influencia
##ciller
BAS
asesinado
uribe
Igualmente
lees
alcaldía
ROS
petar
chon
2007
##pé
aporta
andamos
Coo
orgullosos
##iendan
##cún
operaciones
##zinho
puñ
##well
PRECI
prefiere
Agui
entérate
terminamos
Pino
##OLO
sinto
outra
Oaxaca
##venta
habitual
Política
mtvlainsta
OUT
créditos
Stan
HT
Espec
niego
Guaido
##YO
##igu
Id
repite
##ída
##olvió
##dería
##alla
sushi
##ficiente
envid
apunta
modern
Agre
términos
NING
JAJAJAJAJAJAJAJAJA
##bró
##írez
inva
##alupe
choco
Castilla
cima
Blue
cebol
asis
iría
##vinas
sabido
museo
WHAT
aquest
##49
trau
kiss
reele
actuales
SEÑOR
##mió
seguí
Washington
esqui
rinde
ducha
aires
##hope
escra
siglos
APOY
sendo
veneno
lie
tt
##etto
editorial
funny
Friday
sábados
participantes
inepto
##43
Impresionante
Emo
adoptar
armado
##betes
Exac
Chelsea
refuer
fábr
##tencias
##ASA
oscuridad
violador
detiene
veracruz
mentales
##TIF
dejarlo
Peter
teach
##fl
destina
olla
señala
milan
##2015
adopción
podían
Santander
rm
rebo
taco
Carolina
dizer
contund
##new
##hei
dude
30h
filosofía
transpor
Army
Aprende
falleció
fuji
necesitando
nessa
trago
cabeça
Control
##RY
ESTADO
##diola
prohibir
DIN
deseando
violadores
soldados
##gase
ponía
parezco
Decir
Coca
##rop
##ministro
conocimientos
##IDE
pelicul
preocupado
pensas
método
Rojas
habra
cheque
camas
Llego
##ETA
beneficia
##GH
half
parás
bombón
conquista
vago
Empieza
mone
##micos
Dob
pior
##arca
construyendo
contaminación
Actualización
candidatura
##ombra
molesto
Cad
campana
Lamentablemente
Awww
optim
##lama
bai
welcome
WH
##vitable
expe
contratar
announ
##ints
malditos
Puig
Región
sobrina
ds
besar
##tures
poli
##ÍO
admiración
hubieras
##piración
gustaria
democrática
tarda
ETA
penalti
tradición
amanhã
Maraca
##rana
AFP
avisar
mecán
msj
Cuatro
AYUDA
perfume
##élite
sucia
mk
està
##jano
querías
insumos
pablo
escriben
envía
##ventus
##chile
##iduría
Juegos
pintura
resaca
asesor
Ul
Yu
##ORT
Kevin
misterio
aseguro
ficción
tramp
deep
tbt
HP
culpar
HEL
##jillo
##adero
GUA
agradecida
pareces
Ayú
privadas
HIJOS
voten
Mais
estupida
pate
viu
adolescente
toros
guatemala
transmitir
ARGENTINA
tarjetas
##veja
criticando
unic
##bón
finally
solicitar
seremos
pelotudeces
eurovision
clandes
entendi
ESC
oran
LGB
Dentro
adopta
##udade
TUS
tapabocas
presento
Cien
aburrimiento
educativo
Quédate
acostada
recol
básica
abren
arg
Ide
pasara
##idense
begin
Bara
##tecas
irm
recomendar
less
##mont
discre
Sociedad
Ahh
utiliza
inmediato
cuanta
teu
##yeol
electorales
Estuve
entidad
##onera
rendimiento
repara
Depende
##ICK
##ciaron
persi
probado
##quinas
Dy
Tol
sabían
Birthday
##FO
##IZA
presumir
LIKE
prefieren
recibo
##tivi
##tinto
##iter
##tense
##PUES
maratón
##trico
Photo
clasifica
##ÉR
recar
ratón
muchísimas
##ides
##ITAR
Lets
bullying
Natalia
Már
Vídeo
Gallardo
honesto
Lil
enseñan
##encasa
outfit
medicinas
tatuajes
##zio
agricultura
funcionan
ataca
Juárez
##monia
Nú
Papá
taking
Nat
papeles
##tosa
helicóp
invento
anar
West
Pier
identificar
ONE
MINU
ayudando
Valen
episode
Ramírez
##asi
carros
llevará
##cun
permita
seja
verán
ls
colle
seguidas
poeta
##ffee
Smith
Alv
false
porcentaje
Exig
emocionada
zapatillas
repito
HAN
##andia
tibur
##amarca
entusias
action
Mérida
international
cagado
indo
##lywood
BES
Night
answer
add
Sera
##IVER
##finales
carnet
habrán
aquellas
Ignacio
bosque
falo
reporta
superado
locu
Efec
Taller
opon
habilita
took
diana
agrada
IMA
Maravil
MG
foco
convenio
Maldita
Reforma
pida
buenísimo
miedos
clínica
retorno
diseñ
TAE
catalanes
digamos
Take
dj
sexta
austria
Debo
Roy
fuegos
flashe
mark
camioneta
suspensión
rene
##mosa
spain
consigui
marica
Marvel
##ata
med
pensión
veamos
##renda
##icor
definitiva
múlti
Master
small
##into
protagonistas
ejercicios
wha
##vate
Esse
narcotráfico
rain
amorcito
Abas
estraté
Nom
admitir
##rant
FRE
inicial
psoe
Existe
primos
avenida
alegre
eat
rest
sic
concert
emis
bares
HAPP
monstruo
soberanía
##SN
vera
##tidumbre
daban
aplaudir
Sole
vertic
##TAM
Won
Hé
sill
tp
OH
cursar
##cran
##guin
gatito
robot
Mateo
Vivir
renovar
inscripción
extrañas
DAY
Hagamos
bt
##calo
titulares
2x
esperanzas
encantado
##fagas
ocurra
Ku
heteros
means
impulsar
pedro
corregir
##ñoz
##tome
##érrez
déjame
escapa
##KO
caballero
escenas
cloud
quej
##RAR
gur
promesa
x2
ESTOS
això
soñando
##íste
Arsenal
Miles
##ieta
química
##zal
Pilar
messa
##íjate
cante
Sir
##erancia
##anal
lloré
paras
casilla
tea
acuerda
turn
científico
volante
Ningún
TRABAJ
vendido
Tucu
##arela
Repres
IP
##iciencia
contingencia
Vil
Ponte
##bero
apprecia
recetas
mae
apagar
TENER
##uila
months
representar
pse
##quisi
Cate
maior
nga
Hope
##junior
##días
##aremos
rayo
barata
poderoso
usen
mías
mantienen
italiano
ventan
songs
perfección
repos
Maldito
Whatsapp
Pá
##33
TENEMOS
##istentes
namjoon
spre
Extre
pasajeros
##tines
enojar
##loro
admir
##oon
monitor
Vayan
TAMBI
Fiesta
porquería
##von
##but
Empezamos
##TITU
##mone
##chon
raja
coração
murcié
éramos
##dolfo
promete
fresco
demostra
Soñé
NUESTRO
Hablar
##cilia
cuide
##UDAD
##kg
mendo
mili
##CUER
inunda
Cy
mandado
encuentre
Vel
##mundo
deudas
Vai
##esome
buscamos
##ensor
panama
básicamente
cue
abrió
regaló
Ejecutivo
cuentos
##tulations
##ichi
paises
distinta
restaurantes
Rojo
copy
combo
prioridades
karol
Dur
morirme
ensalada
Paula
subes
##dese
caídas
simula
##àcies
LIT
toro
homem
izquierdas
persecución
##viv
Público
óp
drin
##oi
##tudes
haberme
cubano
tag
ST
permitido
Campeonato
Orden
2022
antiguo
##ério
ayudarte
##CIL
femenina
podremos
##ました
peleas
mudar
atentado
##cience
reparto
weeks
candado
PATRI
##antiles
Ang
torne
FMI
demuestran
engañ
exclusiva
##tificar
bosta
61
desempleo
Falle
incer
MP
##right
##kira
flip
juvenil
cumplió
goleador
infinita
LEY
realizando
alli
Agustín
dibujar
tak
##tuoso
TAMBIÉN
magistra
Acep
combustible
Post
cuyo
tardar
provocar
##dral
capacitación
consultar
cumplo
DOMIN
Prof
bate
psicólogo
detención
Hablando
##NOS
Vergüenza
Ener
reflexionar
ejercer
Enten
aguacate
##TUR
comandante
violen
EVER
tomarme
Quiere
##life
Bunny
##deu
##kel
Busca
##ínea
##zard
exigen
montar
Vega
emociona
##how
##asure
oni
suegra
derru
VIE
Cultural
otoño
bull
asisten
##uf
Ninguna
alegria
##aldas
##telli
vita
generales
reportaje
Imagínate
HISTORIA
##ANTES
declarar
##vant
tanga
seco
##aturday
condenado
subi
Acos
reach
uribista
recomienda
Send
pegado
recurso
Thats
imbéciles
##arning
balon
sentada
##JJ
meridianos
preju
recomendación
acumula
PUTO
##TRAS
build
chairos
##iosas
casta
regiones
ENCAN
Dele
ken
##ixo
##not
##pt
asesinatos
Sky
modera
##tesis
PAP
confirmo
corn
cansé
apreciar
seguirán
felicitar
disfruten
Avis
Suena
among
##wal
##aj
imaginación
respetan
rig
avances
choque
MALDI
actúa
Did
##lı
JUSTICIA
tremen
golf
Aveces
coal
Fidel
##inter
sufrido
cú
desconec
Demasiado
gem
Bajo
apara
llenan
##세븐
aviones
Alvar
votamos
outros
populares
##domin
histor
Cay
traición
educacion
cabelo
muñe
visitantes
haberlo
ciber
antigua
##itano
Quando
Estan
obsesión
tun
mera
Seguir
polar
cringe
suceder
vuela
irres
Sabe
rusa
##dicato
##icans
Rin
vuestras
COLOMB
necesarios
##tinos
Obama
##mani
paren
apruebo
St
desaparecido
##brada
calaba
##zer
deixa
SOCIAL
AMOOO
Brea
puros
Guayaquil
defec
bona
golden
aff
easy
##rote
##pocas
##ERAL
violento
manifies
excepto
Batman
##fri
Pop
MIRA
matemáticas
Fé
seguiré
##piz
ayuden
agradecimiento
pidan
dimos
##itis
##chó
giving
##TEL
Héctor
##isetas
patrón
##ueno
Unido
incluyendo
emba
##pr
Café
##jf
DICE
ensayo
##gou
rodillas
TC
sobres
millonarios
reality
갓세븐
amane
##ania
VAY
subí
crítico
##44
generan
##tadura
##roquia
señales
nig
deixar
Faltan
three
exceso
pedos
comuna
Ministra
negociar
##RID
Comparto
transformar
##ster
##roga
etiqueta
intenciones
##mbra
espon
Year
pretenden
campos
GOT7
íbamos
spot
infarto
##bala
remedio
secretos
Ital
fosse
miguel
basket
tensión
Jordi
hetero
kg
Apoyo
adoctr
Henry
rs
##quetes
update
enhorabuena
feos
##away
compran
Zu
##kak
caña
Hoje
##ciantes
trozo
energías
responsabilidades
##ULAR
##xit
Juego
##rías
Fuerte
##bts
Elena
desesper
Peñarol
Pokémon
spoiler
##sons
Estre
Turismo
requisitos
inevitable
##tead
Nicolas
##miro
Dormir
Toledo
Informe
olvidan
verdaderamente
Bull
##tarios
obligar
Continu
stray
experim
##scar
##tinas
inmigrantes
##MON
informes
Sanchez
relax
bebes
negras
##PEN
madera
desagra
Mensa
tendrían
aliados
ganadora
arranque
estuvimos
##vá
acento
cobrando
##éndole
cobro
exponer
clear
Adri
##rueba
##OLU
iglesias
##deja
sla
brillo
especí
lose
angustiada
##güenzas
##horario
High
trabajado
ESTAN
##copa
suelta
disting
Infor
Fantas
lecciones
number
agarre
##ómica
##ecre
cuota
Make
pantalón
##écdo
normales
donación
Green
fores
preparación
Jean
animar
Exp
##vó
guess
adn
loves
Último
millonario
quan
NOCHE
##erado
##bral
fortnite
Canarias
metieron
UCI
mandé
abandonar
conocidos
Adara
ojitos
irán
Distrito
fueras
callate
children
AHHH
##cete
Sigamos
desafío
torno
road
disciplina
humilla
##TADO
terremo
sentimental
##terday
prestar
kon
Inno
FOTOS
##chor
running
olvidemos
Victor
##ious
postre
recompensa
comedia
oficio
hacerla
##béns
ahr
##his
CFK
Cup
##gaban
##sela
orientada
podríamos
stri
##SKSK
anys
almost
astr
nó
wi
crossing
desperdi
constantemente
Peor
realizará
Claramente
##IMIN
##wei
##atoria
recordando
##fó
3er
encerrada
opinas
mamadas
infil
##vina
brown
lesión
Els
Verga
Agradezco
Chivas
sacarme
defensores
frutas
Hear
71
mienten
taaan
estal
##75
##teado
##mbito
mentalidad
antihorario
##rismo
gustando
behind
Sign
##ctus
pedidos
afer
laboratorio
##òn
##TICO
BC
Py
edo
narcotra
##hoo
muchisimo
poema
##AJAJAJAJA
##cible
CUAL
mágico
arquitectura
medir
Adivinen
disse
##arra
aer
##ganle
leerlo
mr
amix
quilombo
Hacienda
cruce
circular
piñera
##vados
Nick
RESPE
herida
rivera
##ÚS
##ayn
violar
entregó
bardo
bbb
##ándal
hd
veinte
cirug
escala
##ablemente
##mericana
sai
violaciones
Dad
faci
smo
##fab
temazo
granada
levantando
##DIR
LIBERTAD
amante
##ólogos
diaria
##siva
Dominicana
Tony
aprobado
Denun
creó
##った
testigo
american
talla
fenómeno
trap
uber
##ين
sarcasmo
OLVID
##nam
Hua
retui
Consu
HOS
crying
incapaz
CHU
repartir
cuidando
apuestas
PAZ
fallecido
seriamente
pares
notar
descansa
estaria
ejemplos
injusticia
urnas
##eb
YOUR
possible
portal
largas
PUES
luce
USTEDES
delivery
Wars
player
##tete
Bienvenidos
ato
poster
aburre
únicamente
ponerte
mero
CUAR
##monía
cometer
Bit
estadounidense
##fera
Escuchar
IVA
TWIT
MEU
Anto
stars
ojete
desorden
masiva
Week
mona
controla
Canadá
Rena
pregunten
espiritual
ea
palacio
##omez
combinación
llamaba
descubre
circulación
ucl
antena
##érico
flojera
acarici
noel
Hip
##donado
acabas
sabiduría
fallecimiento
quase
ELLOS
##turales
##ills
Bangtan
org
##kos
Mike
Hot
Vs
diversión
##xia
evita
Over
acredi
conocida
esperado
intendente
Roja
mand
chula
##ecraft
exces
bár
homosexual
ciento
Prepara
ID
Clo
Richard
##press
achaga
Cata
football
bajando
Camino
Apa
billetes
Gutiérrez
SC
##itán
Cádiz
Atleti
##ون
sanción
Cuanta
boleto
PRA
incluir
Ado
##hahaha
inició
ofender
##ristas
ENTI
jabón
##BU
cumplimiento
uh
inespera
sinton
##nesto
365
trian
LLORAR
Benito
encerrado
instalar
ota
entiendan
##questa
Nintendo
ones
panorama
RESPON
Ruta
sirva
##lee
BAB
##EDO
balcón
contenidos
##grima
bias
mica
Roger
cabrones
artificiales
feriado
Cár
worth
##etafe
passion
Reme
minimo
##guenos
##vierte
llamen
provincias
jeito
echando
##GI
PUN
earth
Desper
pt
populismo
##ombres
Literalmente
##ERRA
ensay
retur
consegu
##TW
##icidios
Read
Rubén
Ada
impedir
##inguito
Chal
conversar
Manu
2005
Europea
##apol
volveremos
patético
Venezolanos
peronista
mism
pymes
clasificación
##ping
notici
naman
VIOL
Ganas
Datos
CONO
tauro
space
BOCA
able
OJO
##juato
Gob
Patricia
من
Kat
Ever
camara
##olf
##adera
organiza
alemán
become
masacre
conocerte
##huahua
resolución
principalmente
Cc
cállate
لل
##què
##ulipas
mid
Nadal
estarían
dais
RU
ROMP
Recono
comunes
meio
iran
conozca
##77
minutes
##lacion
enano
organizada
patriar
Sierra
horizon
rechaza
elimina
Nivel
Esteban
vr
yung
Yeah
darán
##war
pasaje
Tem
Jordan
gigantes
satisfacción
##anajuato
satélite
Javi
Compañ
maso
PASO
entere
##rrr
reírme
Finan
cartera
##dil
##GÜ
##gne
extor
##INOS
quinto
Valladolid
##dit
##guirre
Cier
bode
resal
mtvbr
##rosoft
grup
dragón
office
##lore
agree
evangel
Ingeni
Story
WIT
CM
durar
dañ
rn
Asun
cómodo
bell
Namjoon
##ession
paloma
Vengo
tox
Banda
Apo
Menudo
corpora
divino
cerra
Muñoz
Guzmán
franco
vesti
##FC
pegó
KE
viña
justice
termo
Chau
##work
##INI
Palo
residu
SEGUN
iT
email
##tere
salidas
aprobó
inscribir
Hilo
camisetas
vão
tuitear
##uestos
Run
##ically
dudes
instituto
caprich
##amba
pretemporada
##econ
hueso
Way
tic
81
dibujos
pusiste
filme
130
##lantes
Cartagena
rip
Quería
Christian
sanitarias
loved
quejo
sú
Down
Diputado
Legisla
sara
inauguración
kit
agencia
Ola
Viol
besito
escoger
Puente
Femen
príncipe
##TIVA
PENS
kilómetros
prosper
jefes
bich
córdoba
sport
picture
cut
##ceres
pasaría
Jong
##ulación
Facul
anciano
2002
lana
chen
dragon
CEO
Montero
##kini
##95
fórmula
Avenida
cadenas
##camp
giro
pidieron
##dice
entrado
dudar
informado
##chal
Resumen
110
precar
suprema
aspecto
creando
##rari
britán
chavales
dolares
ayudo
Vean
course
nel
recuerdan
##juana
Opin
##ray
kno
gosta
publicó
##presiden
##WK
botel
##iversary
Pone
voting
Band
paredes
South
cambiaron
cana
PIB
##chelet
2001
##rizo
pajar
VAM
stage
tomarse
##clip
BLACK
LLAM
murieron
##polis
##prisiones
tarif
dirigido
Publiqué
anécdo
available
DECIR
##jados
fia
nah
Audi
Enfer
cobardes
Fred
##lidos
Teresa
colombiana
pájaro
##élgica
##ficamente
##gement
Conferencia
ilumin
chorro
claros
Ariana
secund
Prob
Rodriguez
veras
##gicos
tomaron
descubierto
BOR
pileta
##blado
##ials
nazi
Encuent
content
piano
castellano
tiró
carajos
feed
mango
Hermano
alcaldes
Campo
roll
láctea
release
ape
Back
Escri
Federico
##aloa
key
##ómico
trabalho
Maestro
retor
Cinco
votó
SW
##orados
##tiu
ligas
##thletic
dioses
meji
Honor
##danos
TOTAL
tortas
##trices
lloran
pás
nou
modos
##dka
tác
hermanito
surpris
Sat
duque
cerró
pride
burbu
Sean
##SJS
##edades
LAD
solito
Mónica
manipulación
minhas
bei
delir
parciales
artificial
BRE
Gaga
obe
estupido
##movil
vín
track
partidazo
##ERNES
##MOR
Dragon
Nobel
posiciones
##icales
reformas
##são
td
##ormal
##hes
lata
BEB
bajan
SIGUE
pose
vereda
cervezas
##zema
voluntarios
demostrando
fotó
JAJAJAJAJJ
##jona
##rit
éstos
UD
quererte
cojer
Persona
costar
mediano
emble
QUIERE
Rocío
##putas
preocupante
##ox
Camilo
turistas
3000
trayectoria
##ionistas
##entino
Parlamento
celulares
##ezcan
parce
Pelo
happened
pergun
##pus
Democracia
barbijo
supermercado
Tir
censu
controles
suyos
MOMENTO
rugby
##GT
##world
##consola
##demo
aulas
termó
jugará
conclu
promocion
##mmys
lame
##letas
ayyy
honestidad
MADRID
sang
Record
saudade
excited
roman
incertidumbre
Elector
ocurren
PARTE
subnormal
Margarita
pagas
Irene
Vers
Ángeles
dinámica
##aturas
Lis
Serie
tribuna
ddhh
Muere
afrontar
model
sucedió
aplausos
Allen
CIUDAD
These
patadas
Infantil
##won
genero
##VAL
demasiada
científica
horribles
ruim
compres
##tress
3D
FALTA
manu
##trada
##denas
lui
disminu
desmadre
Tí
Andre
vales
##VIO
TEMP
peruanos
distribución
bunny
COSAS
##です
decime
Ou
violentos
citas
aos
Young
join
fix
Porfa
##old
##pulco
convertirse
salu
Metropol
cancela
mine
tuviste
##RLOS
UR
##31
teta
della
ilegales
quisieron
Mín
habiendo
##share
##band
echan
SEP
sindical
##flores
Susana
daddy
clasico
enterado
Flamengo
##treet
##vales
##táculos
##dure
NUEVA
azules
##pando
CV
##psis
ignorar
videoconsola
jogar
Protección
government
antro
##dicas
cagas
pegando
culiao
Sand
marx
verá
Chale
jose
##RLA
youtuber
atencion
prud
enteré
##rics
##bobo
guardo
CF
incompet
Ingres
comió
Cristian
##tiera
olha
saltar
sintiendo
respal
##tona
##poración
moi
personalmente
decidí
bed
Tomás
ice
Friends
##anyol
llanto
ez
Racha
Gian
##ciende
mtvlas
olvidé
Where
Lá
##acas
sies
follar
ANTES
Halloween
anciana
regalan
##abi
Nove
zapato
##kele
prohí
básicos
fidel
castillo
lima
Piz
##jja
bigo
##CHOS
tolerancia
família
boste
Marina
CNE
paname
BRA
aparta
urbano
ejemplar
cuadras
ns
Dul
garantía
festejo
solidaria
abuelita
ps4share
transmit
añadido
consiste
nature
antici
squad
criti
merecía
Niños
jesus
distrito
RECI
Int
gave
irresponsables
sosn
unida
chilena
economia
End
##resti
Mand
##88
Nombre
asustado
##tives
##ells
ubica
VIP
comidas
pregunté
tala
##rível
PENDE
montaje
entidades
avanzando
legis
placa
lei
quitaron
sumando
major
##rición
fideos
PLEASE
ontem
iTunes
participando
FRA
liberación
##room
##rillos
impide
rights
tvn
rusia2018
って
##leto
guante
retraso
sugar
Ahi
asesinados
compet
##ghts
nosso
escucharlo
Cli
##ême
ELLA
aint
apps
sedu
Ole
ecol
Pura
legales
contado
jk
Ocho
psicó
atacan
divertida
estadísticas
dejará
dinheiro
##ulan
CLA
##mamos
Lista
RAD
Recomen
nazis
trabajadora
##ckey
sensual
resultó
corrupcion
reit
calabaza
hipócritas
posso
goal
gold
Óscar
sanchez
Excel
solita
Xbox
seg
##dú
secues
GUSTA
bajon
objeto
ámbito
VIERNES
Narco
valla
vergas
tratado
respetos
##posición
pseudo
##rosas
engaño
##UA
tooo
##nete
Cant
Ivan
##TBOL
invite
##tistas
##eless
reggaeton
##wers
considerar
bellas
perreo
mau
vivas
msm
wars
Hidalgo
tou
veterin
Cuí
asociación
mandas
troll
simb
##eses
graba
##izaron
Enserio
reten
chocolates
##yeon
soo
sacamos
productor
bombas
IL
Bolivari
portugal
ofrecen
trin
zara
ESCUCH
Lad
hormi
becas
##kpop
irresponsabilidad
aplauso
taza
tant
móviles
contentos
echarle
fanáticos
asusta
##mn
Vélez
##mers
estric
són
##rror
##emplo
futbolistas
##oras
mod
Otros
residencia
nombrar
##icionado
irte
podrida
Alerta
pesta
tierna
##earch
2004
embajador
sosnicaragua
Pea
##órmate
##ede
clic
##KOOK
inspiración
inolvidable
green
solicita
101
galletas
yte
usas
Comparte
##มา
metes
Histó
rich
##pidas
##ither
BY
saf
Caso
divor
murciélago
seguís
##exuales
medo
oral
financiera
salvaje
Nieto
sesiones
##cuta
inmobil
##jajas
SALUD
rivales
##oto
terminaron
maquin
aparezca
Ira
lay
ordin
##lash
encargado
fait
derechas
bolu
Nig
higiene
##kf
cantera
##guida
tuiteros
Keep
cinismo
bless
map
Vázquez
Campaña
Kor
Santi
paramilitar
rana
pure
devo
novelas
virgo
##utbol
Stay
encantas
bajó
##tituir
nucle
perci
bonos
funcionamiento
islas
##NG
##FJ
EH
##ÍSI
SORTEO
todes
comprensión
Pab
clásicos
concejal
vergonzoso
gasta
naaa
preguntado
Edo
##ladi
SK
patatas
chayo
reb
comparten
##DEMOS
aci
vomitar
fib
COMPAR
epidemia
Sim
March
pierdes
camiones
Carre
##dazo
piece
##ussia
##wen
vibras
##ICIO
##RIO
##FI
fly
leen
lío
Marketing
REY
##viedo
dun
muestras
asuntos
HUE
sonar
140
AMIGOS
##yoffs
comprobar
psiqui
##jitas
inversiones
##quismo
estava
##load
##GÜEN
acompañe
Playa
litros
haci
Tremenda
##2021
informan
ancianos
paper
Power
##zie
Muero
works
vé
##rek
##fect
Tren
Hitler
accion
valentía
divis
alex
terminando
Mix
suelen
perío
##dimientos
##izarro
##DAY
character
estaciones
equilibrio
##zaba
##ísticos
Coun
Guay
negó
vivió
bravo
ASCO
cuen
Apla
Jesu
Libro
probably
##imadamente
desaho
vendrá
tiemb
##udades
##alos
donaciones
##tándose
vinieron
##GOS
stupid
##iol
palmas
##abasco
wacha
Carabineros
sugi
##mission
giles
inspec
inyec
coherencia
##ROR
Japan
nombra
mga
Esperanza
##ermo
##girl
##DEM
Lástima
primeiro
callado
jiji
ecos
costos
pastillas
residencias
inside
##osaur
cuente
termómetro
caric
bikini
conforme
ext
apunto
##bae
role
aseguró
Disponible
##BD
Usa
Cabello
sorete
árbitros
discrimin
Constitucional
##chei
creador
android
pescado
pisa
ÚN
##cristo
alle
Termina
##gués
vulgar
celosa
GAR
dirigente
manejan
testigos
natal
Reunión
twice
lloviendo
raíz
renovación
semifinal
incorpor
ilusiones
autop
Vasco
reflejo
disfrute
visualiz
daily
dejaba
hada
vicepresidente
##boa
mirá
quejarse
competencias
hold
pinto
DEBE
Federación
Guardiola
povo
incondicional
##iago
##URO
distanciamiento
ambulancia
fanatismo
LOL
##ensas
helicóptero
politico
pape
enamore
pingü
shock
svgala
preventiva
Movi
contamin
##KKK
manipular
knows
Danilo
##ÚBL
Zap
##HS
educar
empiecen
mesas
brillar
Ré
Gestión
cuotas
##deme
belo
diabetes
MÉXICO
recibieron
viaja
##iner
altera
cueste
##woo
##gura
filho
##oti
Guadalupe
hacéis
experience
##file
bolivi
##fagasta
##dalena
cone
Dream
Ahorita
Stop
explic
##tour
##dés
atualização
REN
ofende
acusado
##inf
daniel
##eso
semifinales
Miriam
pelado
##ISO
avo
wont
##terna
Pic
Viejo
##TIC
##LAS
grandeza
exacto
Ari
reconocido
##vd
park
Obser
##clar
investigaciones
subida
Pase
##INK
Departamento
justin
afe
##CEP
imperial
sobreval
wed
##iego
Solici
Haciendo
LINDO
Sabemos
sinies
autónomos
intele
##YS
##gráfica
KST
CHI
conducir
dru
Baja
sincera
IMPORTANTE
curar
mesma
Alcaldía
Acho
RR
bolso
##trabajo
market
Corazón
discos
fábrica
##gger
لم
##opol
asia
Barranquilla
##RLD
debil
Samsung
##ない
lesiones
procla
cristiano
##vara
gotta
VIENE
madu
presencial
##loyd
consta
jodida
descui
user
alternativas
perdono
escuchen
mueran
od
fed
Tranquilo
asc
cintura
destruye
amantes
miga
marcó
dejarme
sientan
confundir
Mierda
eje
casco
Aniversario
rescatar
picante
disgus
Allí
Facultad
vinos
⠀⠀⠀
adorable
##filo
##cente
student
sonora
Detal
cartón
vivan
descomp
PEOR
TN
ignora
fundación
##ignación
Hablamos
carrito
coherente
canarias
adivinen
aquesta
heard
farsa
recorrer
diagnos
prol
izquierdo
Fase
vandal
##sex
##tuvieron
Minha
provecho
notificaciones
arbitra
Ortiz
odios
HAPPY
##ancha
pón
esconde
marcador
Bomberos
déj
wild
empresarial
PARTIDO
Abascal
Empi
monton
regrese
disfruto
expli
encabez
pregunte
##━━
caballos
gays
Prensa
rencor
arde
filas
Cuántas
queee
Hagan
FUER
vivía
alimento
debilidad
dedico
duros
motos
maíz
refería
colapso
##itiendo
Servicios
hour
Supremo
empleado
##vete
liter
Congres
revisa
restricciones
##rimir
##gat
Brown
##reto
national
##bat
Perez
inta
divertir
gone
##midad
uf
calder
quiten
llegaba
Grand
Jr
conge
fest
lamento
JUG
##you
##crib
tortuga
Spe
fif
ze
CARAJO
TON
hechas
##éndolo
tucu
delic
Fire
Dile
Abrazos
adquirir
Comunicación
técnicas
##ADE
improvisa
mercen
Ernesto
boico
2003
##kita
saqué
rc
fair
DERE
kiero
Resultados
atleti
##diera
##bata
##fón
##chón
finanzas
Arre
Ambos
chip
Enviar
FIR
diversos
atiende
fail
##ECHA
crónica
largos
esses
mass
##cú
fabr
##ika
suga
bun
suban
##ade
despertó
##lum
paramos
ejecutivo
KO
apoyamos
unha
##otras
Once
recolec
CLUB
publici
##UUU
##midos
barbaridad
amarte
depre
##menos
isnt
fichajes
prohibida
expro
##tóbal
peruano
defra
enamoré
épocas
eficiente
opres
Ass
disso
participan
##hin
porfi
ánimos
ROB
transmite
enlo
HORAS
margen
paco
recibi
Independencia
Griez
##rían
botas
Querétaro
tambor
elite
Larreta
betis
manejando
reivin
semanal
princi
##ooks
productiva
soberbia
Maravillos
chv
aha
Román
directos
completar
comerme
taylor
##tivación
Senador
dolores
nenes
masculino
precaución
##ciada
grow
obligatoria
##fín
visualizado
elefante
supuesta
Regres
Suprema
humedad
temo
enojado
cordoba
Llegar
350
xbox
dú
hermo
trate
trip
##monios
masajes
##GRES
perdidos
Diana
Nego
reper
perdimos
denuncian
area
Claudio
Reserva
ysi
##IAL
##ians
##mond
habilidades
PRIMER
##cico
UV
inef
alza
debates
mex
Pandemia
##glio
borracha
knew
aceptan
rafa
##nab
##digi
votaciones
judi
Argentino
PAD
Sandra
nee
focus
brilla
##terios
4to
##áver
caz
cejas
ONG
##cesión
hist
##zamiento
doce
superiores
Peque
##bran
muuuy
members
subven
##tomeu
acabando
desaparición
VIR
pillar
FOL
Juventus
fingir
##ículas
integra
TRU
soci
consultas
regalaron
vendría
cadáver
piezas
huracán
choto
Sociales
tontería
insuficiente
inscri
arbol
Hur
isn
amistoso
##velop
coreo
dijera
cactus
sexto
Ríos
siemb
Clau
Recu
culito
Alexis
VIC
meterme
universitario
##pedia
impresentable
john
touch
reventar
monsta
duró
idk
pronuncia
emocionante
##rus
MUD
Agen
project
halla
four
força
Dead
raras
silencios
exhi
##ecos
Sunday
muita
##inal
HILO
mide
infiel
disa
PREGUN
asked
presion
##AJSJ
ELEC
TRANS
vacía
hec
Abi
Wtf
europeos
stuff
enseñó
ajuste
mensual
localidad
rena
bata
born
Ly
primeira
Compartimos
depender
PJ
SEX
genocida
##cable
Asturias
fino
CHE
lograron
Rela
Cuantas
##JAS
land
recal
HOLA
emprendedor
devas
Ún
lente
REV
mosquitos
MILLONES
instrucciones
enviado
seeing
Bry
hablarle
Dem
sufrió
Animal
dedicación
nde
proyector
pizzas
##──
soltera
senadores
únicas
Torra
dit
AQUI
moreno
aliento
Rus
GANAR
ler
Alar
##toriales
felt
##tés
Essa
BRO
front
intentado
entras
deseas
Constitu
universe
toneladas
##arlos
inmediata
REF
obligado
abeja
coordinación
##lds
hilos
##TIA
enve
DIJO
sorteos
forman
bolsillos
##house
Tanta
Únete
WITH
hello
Congratulations
sirvo
DIFUN
colectiva
histór
cuenten
feas
shin
##trados
##jis
following
streams
TERMIN
Say
vainas
permanecer
allow
grasa
guad
##alía
##CR
necesite
##sei
##rense
Cen
salame
edificios
bruto
coch
arruinar
Shi
PELOTU
##ícia
Emple
##cerdo
PAIS
walk
juntamos
gobernantes
NOSO
accep
bitcoin
##jense
##blan
Ing
mother
Garcia
voluntar
##mitar
profundamente
imprescindible
visualizaram
5to
JAJSJ
Sy
consumir
auriculares
São
Som
Fueron
FRAN
teñ
sacarle
##tecn
diversas
Judicial
Welcome
castro
hacke
shar
Nas
company
campa
responda
madrugar
seguirnos
##uertos
conscientes
tip
heladera
##tember
anton
imaginate
system
juju
coman
Bron
##یں
##ilan
chingon
##itt
Salinas
cagaron
##iff
redac
Chavez
##uru
##obos
Celebra
inferior
mentes
prete
diria
##inger
##IOR
Artes
videollamada
##isti
##head
Matías
##ARS
##lim
released
SIII
embole
bé
trust
street
Ampl
parques
reservas
vinito
sonríe
Bilbao
Prepar
offer
Resultado
Ball
llegaste
interesado
metí
Natural
##mbar
##ALLY
tired
##tories
aprendo
Cré
##MINA
vamp
acercar
dei
Queria
Trin
legend
##illed
utilizando
##inta
players
Online
intentan
traiga
llé
sucedido
cuidan
pensarlo
##ceta
Kan
caravana
teaser
##ising
##arde
compens
COMPLE
Márquez
##pc
Gio
rutas
PERFEC
sabíamos
concreto
chota
POLÍ
niger
equivoco
comienzan
emocionado
Salir
asquerosa
triunf
dificultades
Bonito
##AP
##laska
##VIL
##IZO
##anca
vigente
mutuo
fascin
demago
sinvergüenza
##cali
sebas
intercambio
draw
chao
biblia
rancho
Prime
moción
refugio
kaya
##pias
tíos
Agus
##énico
AZ
visitaram
##HI
Democra
HERMOSA
discursos
Cuáles
pegan
pendejada
##mster
partid
cabezas
instead
cruda
Caball
Éste
tn
viví
Intern
##mentas
mejorando
facturas
##chel
##coa
calmar
frutos
aterri
##ANT
Gracia
mundiales
Cambiemos
##98
Sk
milagros
cebolla
Unidas
invisible
##uelan
Última
cobre
macar
cmg
reforzar
tirada
características
##ız
LOCO
Tit
##arch
intra
cement
Escuch
##city
##tever
masivo
considerado
##gli
Hahahaha
##duro
software
early
Mary
horós
traten
tipa
Exactamente
##ifican
funcionando
rincón
##capaci
realizada
CORONA
##ándalos
##tacion
cumplan
abraza
jhope
venda
conmemora
puntual
##èn
##ZAS
estatua
##delos
Mariana
Capaz
Electoral
supiera
regalado
requer
desaparecidos
##yond
rayos
ks
triangular
##ctel
##itivos
desesperación
normalmente
Interior
psicología
##wide
##onna
Spanish
##teres
##darse
##habilitación
##ígeno
peligrosa
##terapia
zor
##uly
##illal
pagó
adora
coge
Odebrecht
sofá
##cinos
##andome
Beca
##onde
matemática
presti
mimir
servidor
Urib
Escúch
Acción
##enteen
WORLD
cagadas
vuelves
sumo
colaboradores
Ciencia
advierte
Comenta
wat
ess
Aprovecha
##ITAL
llegara
colabor
##úe
logran
entendemos
##cky
primar
##ery
vision
tatuar
Navarro
interrump
Tas
pienses
near
JUNG
##wis
novedad
apple
pario
actualizar
cordo
spread
##fre
##qua
fro
##ARD
catalan
Thomas
mostró
cinta
##ctos
aproximadamente
Times
loro
mediocres
gara
atraves
DOMINGO
secuestro
##dium
impulso
Colec
mentalmente
regar
reduce
##poner
collab
pandemic
inma
matr
cambien
enseño
Orgullo
##hando
crio
importe
ortografía
aren
agarró
labores
bolsonaro
Juventud
##66
AMA
viejito
FELICIDADES
cristina
Molina
cardio
##uesday
dimision
Bár
Maldonado
baekhyun
##riela
frag
cuido
Nuestras
Reach
vidrio
suspende
bienvenidos
araña
YES
añitos
Momento
liberar
genia
afectar
salarial
##vely
FP
##ville
Monu
plátano
sabio
Academia
##thur
espaldas
amg
mintiendo
especies
cumbia
Urge
Listen
##pri
compañer
##ELL
relations
XV
##ensos
revuel
uff
Hijos
extraordinario
MUER
expla
Pau
##tik
SÓ
##ñito
conclusiones
rapi
##ub
Walter
##cm
tragar
basa
unen
adivin
encontraron
acabaron
##ONO
##kia
Fuerzas
LLORANDO
bellos
##zonas
June
Dejo
Quintana
rompo
equival
في
##ínense
July
sia
##quistas
revisión
Suiza
Mentira
condo
Manda
vacas
clavo
##eli
relacionado
ESPN
Nap
##yal
esten
MS
quedarte
anymore
##eeey
denunció
Benzema
visitante
permitirá
diera
##ceu
Perfecto
terremoto
##versidad
accidentes
mocos
##ibre
2ª
##hara
volcán
CALLE
interac
Mire
encerrados
truth
Inscríbete
interactu
jamón
##jsjsjsjs
Tucumán
gestionar
almas
##tid
culos
##elly
Comercio
##uega
##chados
computadora
posiblemente
celeste
desbor
Pastor
spam
negociación
quanto
shado
Imagen
age
excelencia
##CIS
theyre
##unales
##dence
COMER
##ppy
asiento
Movistar
ooo
maquil
Querido
evo
jsjs
##logia
Zel
herencia
Nay
idol
recortes
pedor
payasos
##ggi
Milan
pronta
reafir
Millon
profile
sports
especialistas
condi
quitado
podrido
alegrar
enfermar
idiomas
fomentar
terraza
Ens
Toca
rosas
interpretación
DF
exclusivo
ciega
Ame
expo
farmacia
garantías
dueña
lastimar
arranco
Gos
AK
##trica
listening
entire
culturales
liked
Mama
##usas
##ecas
France
Pás
pasarla
Vino
Levan
##OLES
Awards
PERSONAS
herido
xdd
lago
Concepción
vibes
busquen
Fall
organismo
##jol
forward
azo
Acab
Arias
Absolutamente
##cistas
firmado
apaga
##eraturas
##lmes
Cama
##eng
page
fachas
MATAR
hoteles
##tenme
cines
plomo
Spider
limit
figuras
##AAAS
coalición
élite
acn
chofer
alergia
demonios
UM
##istía
abran
Cumpleaños
Código
perquè
gonor
confron
reaccionar
dirige
CREO
reducción
racha
escen
golpista
perdemos
huella
história
millor
quarentena
##america
acordaba
Julia
##ribui
##terrán
pf
cooperación
continente
rumores
##tarnos
WIN
gané
pavo
##DIOS
shawn
xo
dejame
Pala
Steph
woo
ovarios
climate
Gam
FIL
bando
válido
##itza
itu
Rid
sabias
Contigo
iphone
EDU
##zinha
ideales
##이스
Moon
##ensible
visa
HOMBRE
pois
MENTI
factores
aplas
feder
amé
carpeta
independientes
Tipo
destaca
SEGUIR
success
piscis
##mebol
##lam
Empren
Deportes
Imper
##CHES
Pregún
demostró
estarás
barca
911
superó
individuo
##jetivo
##tranger
apuntes
##verno
cubana
fast
trimestre
TRABAJO
Aga
Too
##UV
Punta
ganancias
PCR
haberse
madreee
guerrero
cuestiones
aspira
suelto
cuya
Entrada
Arena
Viene
##bn
inves
sisi
##menso
inmediatamente
##って
sell
caramelo
calen
Jeje
##mbro
culto
gl
chale
ampl
chingar
##zione
plaga
balas
Selena
Fede
##zzi
Little
##ün
chiringuito
Presidencia
##tenible
potable
errado
Cualquiera
Doble
jama
resistir
bocas
barro
rifa
venimos
galería
transparente
mendoza
estúpidos
podem
##UNCI
Bye
ESPE
feels
detesto
##ับ
anato
caza
Lana
peo
##USI
Lula
Entren
Hubo
descripción
Compra
PRIMERA
pensó
orientación
aves
AW
buses
batallas
captu
takes
directivos
mante
##tini
Rá
defiendo
##metros
##tele
##chuca
##hehe
##iceo
saldremos
eclip
marvel
##istan
duerma
Comenzamos
##onesia
Cuarentena
ocupado
Deben
sch
mención
##iled
tarado
monto
Marca
DEJA
##GRAM
hidro
Sonora
ue
Bell
##ñados
passo
couple
##pue
grabado
Seria
vapor
Carrera
deliciosa
##tific
Fake
negativa
polo
atento
spoilers
hazlo
apu
EQUIPO
multipl
consume
APAR
tout
deportistas
policiales
Tat
autores
jajja
envían
hablame
seokjin
expresidente
Conoces
montañas
CALL
guerrill
Declara
##bang
##DIAL
indispens
tortilla
merec
rola
##urce
procura
extinción
chamba
##cora
Vista
moro
equip
universitaria
##demont
##55
rubio
INFORMA
soñ
salvó
daré
nit
Maybe
inac
##zarse
##aren
Lion
##adoras
Bás
efectiva
dsp
genu
introdu
awesome
Wat
##dme
##ULA
amoo
CEL
alt
twittear
fiscalía
OEA
frances
pasaste
cuerda
##daje
##iat
Ear
survi
Ques
##merce
##quitas
ventajas
egoísta
Siendo
##ertan
Joan
##GUR
##UNES
Española
yesterday
FAMILIA
sensibilidad
GANAS
##jjj
utilizan
##ahuila
vacan
Lugar
mamás
niñez
EMO
##ógicos
Mini
plana
##jería
iniciativas
Texas
sindicatos
##laria
carabineros
gat
futuros
morí
múltiples
atrop
doctora
preferido
##ULL
Tech
##ม่
Años
sanguín
##iliar
Lozano
##argentina
maten
dear
medioc
##dendo
ESTABA
##DIDO
weno
chivas
##enne
##UAL
##disimo
##mare
série
Hero
adecuado
Veremos
superjunior
sosprisiones
##itely
GNB
##ITAS
rayados
CONFIR
sole
explicando
FUERA
comment
Zulia
subsi
dms
CAMB
soldado
##lal
comercios
ANG
##Oo
##GRO
cometido
##ري
##dá
gli
exquis
coincidencia
##ppe
Coron
##BAS
sirvió
##olin
terminas
asesores
OFF
##2014
##vam
CB
interesados
Nuevas
adelanto
##vet
##limi
ponerlo
desh
pudimos
##icaciones
Avui
Floyd
sj
campera
conductores
##vale
voltar
##tee
sombras
##biscito
GL
TRES
pozo
Joven
encontraba
festa
CHO
##itado
##glia
BLO
presentando
escandal
Calla
baños
supermercados
##hum
dn
diarias
##rase
políticamente
spen
refieres
MIEDO
Síguenos
LGBT
nation
Aur
ordena
período
BBC
temps
habl
acuerdas
Escobar
pab
Obri
trabaje
movilización
ultradere
1ª
PUEDEN
espere
practicar
fumando
##lection
mediodía
agarran
photography
testimonio
Doña
NECESITA
##galo
abandonado
almohada
culiado
JUST
espiga
nietos
treat
##ILLO
Crees
Daniela
##ficación
HAS
lil
Aw
libertades
asesinar
soporte
torneos
chegar
JAJAJAJAJAJAJAJAJAJA
Hago
##EPD
net
cojo
dreams
quierooo
amorrr
serve
máscara
CUMPLEA
trabajadoras
protect
Capa
gusten
desprecio
esperes
propagación
April
dinosaur
##guero
##iloche
recauda
##issa
INCRE
##rou
##eles
##rem
secretaria
Soto
titulo
NUESTRA
habías
pou
coste
escuchaba
debu
##QJ
Martinez
contestan
Bachelet
foo
bostezo
juguetes
Beau
inmunidad
##ctober
5000
pésima
manager
Espectacular
##demn
volveré
DIAS
clap
Ash
indignación
chimba
versiones
echado
monterrey
##tedra
##inan
amando
incremento
ficou
Mami
AMIGO
##uér
señoras
seriedad
##CRA
Busco
Tap
esclavi
enseñanza
MED
##iber
matado
fácilmente
type
##gráfico
##CTOR
danza
menciona
explotación
watched
##isimas
garantiza
EMIL
Abel
##gana
##ridge
persegui
SUE
2nd
espadas
hamburguesas
Valor
##sub
race
implementar
dañar
vodka
Ohhh
elegi
poni
fugaz
DEB
##gobi
battle
perfectos
relevante
Lord
abriendo
Cancún
##iches
públicamente
##ceros
##lencias
sintió
Aguirre
ruso
Girl
NASA
Alber
##icks
##entó
amén
preguntaron
Cristóbal
actuaciones
più
escucharla
expresa
Mega
AGUA
Menuda
trompadas
luchan
indie
espada
ELE
verduras
vestidos
compatrio
apaix
uvas
nis
umas
##tup
profess
Mit
PS4
sama
veure
SL
botellas
opino
aplicaciones
competición
minimi
alias
útiles
preguntarle
TikT
Presidenta
Twitch
Fas
CHILE
##gut
kam
guapos
aflo
liberen
ash
cierren
six
##digital
##GÜENZA
masss
dps
complicidad
energia
Wu
##etta
Aran
Asco
sra
Echa
cargado
Tema
Hable
miradas
xDDD
centrales
gordito
homicidio
verle
varones
coffee
Enté
jurado
Agradecemos
propiedades
##udemos
Cesar
##ásticos
MANO
Bonita
code
##ífica
explosión
luto
dobla
Hollywood
##quierda
jor
poll
KA
signos
heavy
Party
Griezmann
estere
conociendo
Mensaje
TSJ
160
##eees
eclipse
tarada
Violencia
Ninguno
Índice
gin
##TRU
##etario
##cionario
march
Presentación
PRD
Seamos
pajero
disfraz
Vac
tarifa
excelentes
vu
##pra
##tioquia
muchísima
spa
explican
financiero
sentirte
Uma
cuidarnos
##hou
Johnson
Ox
ABC
incul
adu
Amen
armados
##abras
dinam
electro
Series
ande
##ginia
Confi
##ificado
robos
##irt
eli
incapacidad
##gab
tribunal
llaves
##MES
JOR
##direc
agresiones
Resta
describir
préstamo
SN
cases
##oke
Ofer
leones
##sure
ENCU
##لي
aprecio
correctamente
##mash
jeringui
##VIN
##venezuela
Charles
##jardo
participó
esenciales
Administración
CS
olimpia
Switch
PERSONA
brinda
resol
ironía
##tori
##opoldo
azu
què
GAS
##IDAS
sick
Belén
convencido
##cean
AMIGA
tua
##dah
retroce
##lot
Qual
tiras
cruzadas
kal
##eu
servidores
aliado
Ey
##aces
aprendan
añadir
Vete
sabrá
episodios
peliculas
##34
Mica
evaluación
ratos
desarrolla
Nes
ky
socie
oculta
bachill
Alfaro
stru
Juez
filtros
##ที่
alos
center
##vv
inocencia
pausa
tatuarme
escolares
##bros
careta
Phil
aprovechando
##entado
Sector
comodidad
##apal
Edgar
QEPD
##ooos
tequila
ehhh
Mina
Tigre
CIN
quiebra
STA
pasto
nobody
##denme
vocación
cucara
Tambien
chus
progre
siguió
afp
8M
Mood
ódio
##jaron
similares
hem
beauty
invic
Chicago
SALE
envió
conceptos
zurdos
##care
##PL
cuidamos
##guesa
ineptos
COLOMBIA
bendito
convivir
mds
asique
oposicion
grie
África
gravedad
rompa
raros
walking
##jales
pides
oi
honey
manada
congresistas
extrañando
Wall
##entin
Pobres
assistir
##TOP
uruguayo
bruja
COVID19
Mba
Most
indirectas
##quino
aunq
Toluca
##venir
inmensa
enfoque
jeringuilla
Peron
biol
##cade
Quedan
Jimmy
epic
retira
##De
cueva
Pensando
desconocido
##ESTI
Vota
##hacer
quedaría
##tention
##gazine
Isso
posterior
Microsoft
diagnóstico
nigeria
##bbmas
##star
##uston
TWITTER
JK
Jane
malpar
fieles
carril
zorro
##lad
##jdjd
##iaomi
##adería
moo
retomar
mires
tesoro
Carta
lacra
##form
Fernandez
Puto
inhu
cuna
consiguió
inser
##tech
clean
renuncie
##arable
trámites
hábitos
contundente
declaró
pedía
Manif
dirigencia
Pich
German
integridad
rompan
defectos
JAJAJAJAJAJJ
SPO
merecer
##dale
##ánica
##yer
eliminación
teorías
##ctuales
ansias
Revista
##icili
##medo
sexenio
trámite
nun
verlas
pérdidas
despresti
burbuja
bota
Presu
Putin
ator
despo
jajsja
enrol
duas
Descarga
Herman
PROF
hype
deportivos
Lé
GH
alfajor
cun
National
Tui
Mej
##jido
tabaco
tableta
Diosdado
acostumbrado
##GAL
encontre
superfici
gg
bloquea
Salamanca
##éticos
establecer
##erato
##mín
suis
1ra
##éndez
Two
sanguíneo
Flo
HACEN
Nis
##ried
##In
especialista
##with
Belgrano
##tía
Aris
##ursday
santander
##pate
store
##camiento
##sing
deta
tarifas
ganen
quemado
infantiles
Olímp
aprecia
pere
físicamente
Tendría
lc
coloca
subieron
BUENA
joyita
colas
Kei
conh
##estar
##ORTE
vayamos
worst
reta
pidas
##istiendo
Eze
nefasta
quitó
faire
brote
proteja
numeros
guion
##ecí
Porq
complicada
regale
Even
Hun
##icordia
hubiesen
gdl
Maya
Envi
panas
anivers
##IVERS
llevarse
Comunicado
Ela
seo
message
##zate
sag
oxígeno
dedican
manzan
Holanda
roo
vulnerable
##arrior
##onda
Karen
lagrimas
vestuario
sever
Insta
Millones
sillón
chulo
Tô
Nike
Convoca
recuerde
155
techn
Give
##éndote
cantan
MUNDIAL
cagó
subsid
##ENS
##pie
arreglo
compartido
japón
avion
JUNTOS
##méri
IDE
Gatell
arr
afectado
JUAN
MORENA
SALIR
triunfar
ateez
juzgado
bajado
##dise
kita
Holaaa
hurt
Eri
observar
Agora
fina
terminal
cachor
##vaca
##estes
CUMPLEAÑOS
##tén
sul
##medi
vejo
hno
Conozco
##dían
Vote
Importante
English
##sió
##quelme
pris
sucur
OJ
refleja
abundan
practica
líqui
##ciliación
VOTAR
##acios
despido
sostener
Palma
ax
Join
desean
ib
caros
##divia
Valentín
palma
Pir
fear
lanzó
##cco
##zam
Andy
##áñ
tún
chamo
##dill
##guilas
recomendable
amplio
archivo
##MAD
##dicio
nick
##esco
MIR
gremio
luci
imaginé
pisar
harina
modal
crian
##ernidad
testa
##CONO
pilar
lápiz
existía
ADN
cese
grammys
##bul
Likes
destruyendo
sabés
poderosa
kat
Vieron
borro
##arem
##asss
##omes
jeta
Aeropuerto
estresa
Vera
Set
racistas
##toría
bú
respete
liberales
Liz
provincial
##eeted
##65
quitarle
DNI
Sígue
site
cortos
intentarlo
Paola
##daron
##madrid
sometimes
indígena
##CCIÓN
cai
Ace
seventeen
Ora
##etón
activar
HERM
##97
chec
Alicia
##tean
fancam
Dije
Legen
genios
construye
amada
silenciar
apostar
dividir
##ioni
Tercera
Zamora
cansar
recibimos
afectadas
neoliberal
procu
##ficit
enla
rezar
staff
Bac
blancas
State
Efectivamente
HAM
Leonardo
escape
TIR
##colar
throw
nous
hugo
conducta
juliantina
Animo
##ICAR
##adar
##banos
Steve
trabajas
##gno
Fuego
ART
guaido
superan
force
compan
##guem
##ized
##vivencia
españolas
teste
##poder
##cillo
desqui
fundamentales
golpistas
Fua
vecin
##RIA
ganaste
alcoh
Jard
horóscopo
##200
Nic
efectivamente
CONTA
TEMA
chavo
alegrías
volvamos
bie
sacu
Juvenil
cannot
apres
emprender
Ev
Edición
NAM
Bienvenida
diciéndole
styles
ts
juntan
conspira
Nou
##baro
ADO
kin
TikTok
apoyos
##lier
##ented
Cortes
alucin
melan
dizque
##rasco
lentamente
regi
##jimori
magnitud
hoyo
##atorias
miami
##chain
##dele
pregún
uu
firmó
encara
##ır
Canta
Pales
Christmas
Princip
embajada
Part
THAN
ojeras
Imagin
사랑
##dicionado
incómodo
seguidor
PUBL
buenísima
##ável
entretenimiento
Bona
Allá
rodea
perf
fumo
##ónicos
##chitos
##fran
##ggg
hyun
Oriente
millen
DOL
gobiernan
ofrez
escribes
ingeniero
##vidas
cua
congra
llam
talent
wear
demandas
##uble
##filia
cigarro
corea
diego
fim
Ricky
##zación
##tándome
Audio
tenias
SABE
##teur
Robin
posesión
Veni
frena
uuu
Trá
##egu
##gicas
JAMÁS
Clin
aglo
##GON
mamarra
Lastima
prova
Estatal
mercan
Existen
corren
logramos
aran
prisa
leaders
prende
inclusive
financiar
##ous
desar
claridad
Sto
Concurso
lock
Defen
rellen
intente
##orios
creadores
disfrutes
estor
Eugen
expans
walls
roy
##zone
CORAZÓN
fiquei
fichar
desierto
Estimado
Saber
enfermeras
cuidarse
ql
unicornio
venció
massa
zorra
atu
futura
Williams
Juve
Diaz
domés
Ciencias
needed
jd
Universitario
##atero
BUENOS
enre
verticales
enven
celebran
cerrando
mengu
Bul
micros
Perón
##ventura
Recom
##yun
ghdú
participaron
archivos
respeten
Eus
fijado
pisos
bebidas
casado
##qq
JOS
ae
indefen
millonaria
Dig
universitarios
##้ว
tramo
tm
cambiemos
##mms
mentirosa
##YYY
GM
JIMIN
##oluciones
suyas
##rei
confía
##espa
confies
caribe
Billboard
diploma
SIM
CR7
aportes
descaro
tiburón
cotidi
Gral
##pper
sép
Always
##site
Terror
NOTI
##eds
##bias
goma
bowl
##ferente
decision
necess
clavar
##photo
meterle
recontra
duras
comento
##blame
obrigada
quick
nublado
hermanita
desafíos
ineptitud
MUCHAS
X2
sticker
Stra
caray
Detalles
bolivari
contener
aguento
Mallorca
Pis
ain
##laxcala
##taaa
##baron
terminen
##ándolos
continúan
funcione
pondría
facilitar
Remember
ganaba
##tore
categorías
Raya
LAR
Another
##GIN
hablé
olímp
rien
Lean
Fondo
especi
Aragón
hr
trending
habilidad
india
mdp
astu
JES
organismos
Gold
tnt
menú
##ENTAR
Fron
dispuestos
valioso
Wait
nic
DER
Jóvenes
lyrics
exting
favorrr
reply
Premios
##gú
platica
positive
cyber
acudir
jodidos
paris
scene
Varela
jajs
frecuencia
reúne
##SL
rules
COMING
mijo
chorros
xdxd
alej
PQ
ester
ocurrir
Memoria
learning
platicar
viajando
cuídate
##ZZ
desaparece
fitness
Plus
##dern
Windo
jes
seee
eligió
decenas
objetos
insistir
GAL
ayudó
##tese
HAHAHAHA
psicóloga
sério
##rección
bucle
enloque
pegarle
harían
##ี้
##éndonos
winner
##minas
cercana
##GP
navar
GOR
frus
Massa
Haber
paisaje
cerezas
clausura
portería
##melec
Montevideo
jovenes
cargador
pacífica
antis
##PLE
Aud
##cli
CNN
rompieron
descontrol
partidas
levantado
POCO
romance
GRU
vehicular
circuito
SÉ
##ólicos
traigan
##asu
Oiga
LIBRE
capacidades
hits
##onada
textos
restos
sinónimo
ERC
105
contro
##encio
auténtico
diff
carteles
LeB
compadre
Poner
cayo
basado
btsbbmas
arreba
lob
Neu
suplente
avengers
comerciantes
1⃣
parano
##icom
descarga
escaleras
##lp
comemos
Det
shes
enteras
QUERE
##ên
agus
alcanzó
Sisi
Minuto
Noo
peste
entregado
consiguen
ati
adjud
##edia
novias
played
ree
Estación
odeio
Dev
slow
Mauro
##END
countries
almorzar
ug
Cientí
bebo
playera
##して
militantes
multas
Jesucristo
cayeron
vendrán
ruina
gentuza
rean
Noticia
happiness
##inero
union
afecto
pingüino
round
absten
síndrome
##ómetro
galleta
btsx
##sante
anniversary
##guitos
pee
##ionada
##mpar
hicieran
Ferrari
aprovech
ocupada
meti
##TAAA
Asu
observa
##fla
allan
explí
##etera
Hazard
amaba
alguma
##ándoles
nutr
##BIEN
##VIRUS
desalo
##andy
despidos
Temporada
rei
vara
Gabriela
killed
afectan
cis
manipula
##athan
oiga
reelección
gerente
brain
andando
estereoti
urbana
Govern
medicamento
##ulando
madura
Imágenes
már
SERV
renov
contribuir
##zaro
##juego
flia
unidas
chega
pelean
1500
##íces
tuvieran
buro
instal
Hin
luchas
Tenés
hisp
guardado
##vich
##citación
Ub
morro
##kh
Bun
##erry
privilegia
plat
##WJ
##dicionales
jorge
##BUM
Haha
choca
curro
preocupan
obes
##85
##kt
preocupados
escoria
Iron
AYUD
PROMO
faço
IF
Coincido
Vaca
narcotrafic
departa
review
respiro
hijueputas
gatitos
##BAN
copiar
DEJEN
##guei
360
WW
conquistar
##digos
Fortnite
llamaron
PODEMOS
maravillas
suene
inmenso
almacen
##éu
PART
##Station
Benjam
emitir
eficaz
neo
huir
ISS
Tenerife
express
##vre
acostado
Orlando
armys
emergencias
dirigida
moderno
cañ
domicili
SEO
refuerzo
opositor
traga
afro
gobernadores
mtvlakpop
##dones
sindicato
follower
##terias
peluche
promueve
ubicado
connec
response
Album
detectar
dichos
sacerdo
##almente
quedaste
##cén
devuelvan
murcia
conectar
##IÓ
bale
BEST
inscripciones
equivocada
aries
##rillas
Comandante
cacho
Trabajadores
International
venís
DORM
chances
SHOW
PLD
Profe
milanesa
step
spea
comisiones
impre
Cuad
HIZO
hígado
Leí
veran
Sports
romántico
pique
amargo
##ius
Bello
##GB
Líder
##bab
kirchnerismo
Emergencia
##pur
fantasmas
thoughts
porquer
blood
conhe
continuación
Hici
##MIENTO
usaba
VOTA
entrenamientos
##zuela
ubicación
##lands
##ige
Lola
maleta
Félix
Farc
##AJAJAJAJAJA
CLARO
##ññ
tecnologia
Samuel
rebro
ول
Marcha
Finalmente
bisexual
indu
Monday
Puigdemont
Ib
agradecería
xeno
concentra
cínico
convicción
indul
Resulta
elegante
##VIDAD
##dulo
Chur
levantó
mediocridad
ligar
autopista
##jsjsj
mija
ogt
impone
juicios
monumento
higi
SJ
##zooo
sonho
Evi
usurp
##paraíso
Cosa
Shawn
comme
uva
salve
Gerardo
desfile
##super
RADIO
crudo
##inapa
##aco
Proble
##young
NOSOTROS
##อน
iOS
idola
autonomía
##edero
mantenerse
YE
##calipsis
push
BI
##cante
toi
##から
Cross
##CUR
ganarle
Maracaibo
Facundo
usarlo
muñeca
aka
achei
enamoro
hoseok
plantea
Suecia
screen
sinceridad
##mps
##urales
based
BRU
Entérate
emisión
Stal
letal
##BLES
femi
desperdicio
tf
ferro
QUIEREN
vers
camarada
##izos
satisfe
Guía
Análisis
Vuelta
exigimos
##GADO
superh
ahh
reseña
Deseo
constituyente
mán
presunto
basada
territorios
##pone
##aticano
tama
elle
ULTI
nadando
Biel
conch
##cans
Redes
shoo
ajo
analiza
causar
zero
##lico
escriba
ENCI
##etic
dominio
##icemos
descubrí
quebrar
CP
Street
Universal
Hones
descul
##tebol
visibil
Dri
residuos
spin
##dle
##ires
Directo
WOW
perseguir
Alejandra
narices
drive
ampliar
##melos
bander
Was
sensaciones
corazoncito
##gins
Delgado
##hael
pacos
Miraflores
originales
F1
LADR
Indust
sustitu
venas
necesites
giveaway
ED
Vivimos
rojas
conflictos
ww
nieto
Venezolano
Salta
Guanajuato
eliminado
evolucion
##jez
anunciado
comenzamos
Kill
tara
jueguen
remar
desconfi
alimentaria
coincidir
vendió
Ayud
Capitán
cuchara
extraordinaria
neuro
Mach
##mentan
recre
Expl
condolencias
Okay
alumno
boss
Respeto
##delas
victimas
##ibu
appro
##thony
##AW
escuchamos
fruto
pill
finalizar
descuentos
Crea
##asons
medico
Murió
CTM
impr
##utinho
##vios
analfab
elas
Aguas
##riales
Wan
##vino
##FM
Arthur
Pais
enseñaron
logre
picar
Inglés
cerradas
traes
##renal
editar
bendecido
JAJAJAJJA
shut
##ólito
##ory
Uf
cuén
atacando
BIR
DEJAR
##ICADO
simpa
##gable
influencers
form
Formación
resentimiento
blanque
innov
barran
Cuén
points
conmo
pillo
##zin
geniales
pink
##nah
presto
lectores
soltero
Mons
QUEDA
lagi
intentó
##campe
##ZAR
##acia
Medicina
tried
correos
tranquilamente
sapo
INV
##lt
##gobierno
ACTUAL
107
scor
cabida
ajudar
Juega
##gidas
Pumas
premium
VALE
00pm
tocaba
Ronald
reading
##chazo
##tober
Seguiremos
vit
##matica
##dear
opening
Still
trenes
##ficial
Hacen
exigiendo
Rick
garcia
vina
consuelo
##teee
ilí
##dul
chanyeol
##bosa
quince
denle
Dece
kor
salgas
cabrona
insiste
senado
attack
deberá
##ener
inglaterra
##nado
perez
Inaugu
##kat
enormes
estat
pulmón
pasaporte
Disco
eval
webinar
conté
impl
chapar
##titui
investidura
theres
perras
servido
catalana
##ónicas
Because
Jar
hocico
hob
Solidar
##ológicas
Agar
##uce
pts
relleno
Emb
Familiar
lomo
dy
PATRIA
Acuerdo
verificar
##táis
productividad
straight
perju
##famil
##jsjsjs
tenerla
estaríamos
dedicada
tráiler
##seguridad
Difí
pics
vientos
impa
##CC
videoclip
pareciera
ell
jugadas
coreano
Panama
atribu
SÁ
afric
toquen
view
Biblio
Línea
particulares
cív
anticip
básicas
republica
paquetes
proxima
respondan
##suel
DEUS
##ueven
ht
pagaron
eri
Axel
Boa
anh
inexplic
opa
traves
dumb
Got
Armando
##éstor
escenarios
##icius
amorosa
generando
Brian
ceremonia
Rel
Remix
cuchar
coro
lograrlo
ESPAÑ
Hue
funcional
##fortunadamente
##ORO
esperen
Galaxy
ÉL
Next
FUCKING
##etencia
Huawei
chorar
multitud
salas
nacionalidad
##misos
campesinos
Update
suceda
déficit
Lleva
alimenta
September
eye
enfermera
##estabil
Huel
adecuada
HACIENDO
flamen
mandamos
haberte
marchita
article
tutorial
##irse
edit
Deberías
Gomez
preser
reportan
harías
arbitraje
maldición
guión
outside
Voz
ALV
inseguridades
Doc
##aaal
Cán
ríos
desagradable
socia
paralelo
obrador
##67
cripto
instalación
MEX
registrado
##32
Cállate
cogiendo
bustos
recordó
Kobe
vendada
avia
##anan
evolu
##RESA
soc
fighting
saldo
ára
##uding
cóctel
FOLLOW
gastronomía
##éricas
cirugía
ppl
mentirosos
##USO
##tare
##fortuna
Hombres
MORIR
##rison
Toro
variedad
TUR
encargo
destacar
beach
##vedra
##ZOS
sont
conv
TIME
Click
restr
Olvi
Windows
Movimiento
Fren
adios
asume
POP
##orán
registrar
Aguilar
Econom
orgas
tiranía
##ESS
même
##quique
plebiscito
mejore
Morelos
estudiado
gamer
female
todooo
wins
##sol
breaking
INSTA
Corrup
Beck
definitivo
gameof
secta
enseguida
ahorros
impulsa
sierra
interpretar
##fun
bandeja
3ra
##UITO
##inada
escasez
ANTI
moderna
##ológicos
sonando
##ernal
menstru
Jeho
ghvipgala
Exigimos
##ishing
abogada
Salí
vigilancia
hen
devuelve
chistoso
traído
maraton
comedor
abaste
##ARES
attention
pertur
##kon
exhib
##tiempo
perenne
##tao
gonorrea
ramos
Cadena
joke
##icon
Reco
##yanse
##Es
mto
wonderful
exito
##ketch
along
##cionado
cabez
##cuentro
##oming
maraca
Hoseok
##nesday
exclu
facilidad
emojis
ganhar
fantástico
##anahor
electo
financiamiento
Athletic
molestia
CUR
##TED
Siga
##derson
##USE
compromisos
cementerio
Colonia
VERGÜENZA
culture
##éroes
Shakira
carca
##boys
seva
pronóstico
revolucionario
Difícil
diciéndome
Leonel
Bloque
poste
advir
devol
modificar
##ionados
Ore
lesbiana
proven
acuario
Carla
vari
dejarte
##liz
hermosura
cuatri
charlar
Artist
mare
Imagine
Argentinos
eficiencia
inutil
molestan
rechazar
##aná
transmi
Acompañ
fabric
HBO
alive
teme
terribles
##onymous
chac
##SOS
して
MVP
Acor
ey
##minal
incoher
cuero
##ORADA
mastur
DR
siluetas
irrespe
Jur
##hores
dengue
reírse
vaga
HICI
denig
estándar
escar
Line
bizco
Golden
MÍ
VECES
diseños
demora
##BADO
expulsión
soñado
##kees
mago
comentando
machistas
LIS
##rix
AVIS
##dece
fracasado
##person
trascen
##IX
gritan
MARA
reconozco
##erem
pano
##cou
##ول
miraba
##ecable
##kadi
Provincial
aprenden
ajuda
Chor
ansiosa
deberian
comité
militancia
Juju
tendria
OPIN
CONTR
afán
##uar
##doy
Pide
muchacha
informativo
##ibera
vergonha
andate
##party
concor
amiguitos
prejuicios
##ificó
DINERO
shopping
happens
mudo
bam
Boys
calling
venia
DEMAS
monedas
carreteras
avui
##enco
tormentas
fals
chongo
Situ
atenta
Marx
##apalabra
Verano
##hr
service
Rue
compartirlo
BREAK
##thes
Estudio
caigan
tbh
lamb
Joel
##portivo
MAG
invol
compraron
##TERO
##ور
##とう
##presidenta
mágica
NFL
Chino
Metal
cédula
##demias
##ibal
##çado
prostitu
boleta
IGN
##manuel
lema
##medio
parents
instrumento
##ispo
limitado
##álogos
JUNGKOOK
publican
presidenciales
graduación
Wooo
desil
cómoda
realizaron
populista
recomendado
Nelson
armando
pós
London
burra
tanque
##vard
codo
Superior
grax
protector
Mid
Arranca
##hay
morder
Suarez
vidaaa
##bella
Center
ORGUL
desgas
##uls
aventuras
guardias
gimnasia
movida
Eng
refuerzos
##iment
ayudarme
traslado
MEDIO
militante
tomada
TREMEN
INDE
Sud
católica
quaran
Episo
Clase
ventanas
parásitos
##colombia
Mó
Thre
menguante
choose
##simo
encuentros
Palabras
##gnante
Extrema
jurídica
maquina
Enamo
Deten
oscura
extremos
proponer
permitió
situacion
Protes
presupuestos
eternidad
limite
Apertura
PÚBL
CORONAVIRUS
oligar
deserves
ventilador
Key
inaugura
##enan
Evangel
cubi
mazo
##oosss
MADURO
Reac
pár
Congrats
málaga
##under
##cazo
académico
##doso
##tepec
dejaré
volvería
xfavor
Solid
ladilla
##lea
##tidades
Restau
##tap
respondiendo
CLAS
Blas
ingeniería
fachos
##kus
##GL
demasiadas
below
Pensaba
besa
monopol
Bieber
guerras
##ducto
citar
Incen
##def
espan
है
NARCO
ESOS
propongo
Vegas
mejoras
acusaciones
naciones
Pied
desapareció
invasión
Misión
balonmano
Cú
campus
reglamento
ultraderecha
Jones
nocturno
temperaturas
Golpe
monday
cuidate
pudiste
##árselo
##BC
BANG
##como
Subs
ant
honra
Vig
retwit
exitoso
pino
Déjame
##DON
##jae
np
Pato
##fully
Gimnas
Cuenca
fíjate
prometió
consig
PlayStation
deciden
##YN
##otz
niegan
##asis
gestos
audí
Estr
defecto
ultimos
proper
Song
Ejemplo
Summer
Getafe
Util
caradura
Respons
Muerte
angelito
Conven
Color
##endas
menina
contarle
peti
##CIN
gubern
worry
refu
mms
selec
indiferencia
puls
170
asistentes
Tío
resiste
procedimiento
averi
valoran
delan
derri
saqueo
bastantes
llamados
tropa
##TAMENTE
##ezer
187
irra
constancia
##carme
Marc
cortesía
Jara
##ucatán
diva
roca
lujos
traspas
VAI
##kout
Hablemos
BS
##huma
Valentina
hockey
XDDD
##iko
Comis
##guilla
##fób
August
jazz
##quisimeto
GRUPO
jejejeje
##zoya
jugaron
butter
entrena
preocuparse
##ldora
Keiko
zurdo
##qual
apoyado
mlb
intelectuales
circula
sandía
##patas
salvación
temer
Sesión
##ENSA
Noches
teléfonos
books
quemando
CASI
FREE
##sunami
Lamento
saudades
press
Long
reparación
sexualidad
tao
jijiji
ordenar
Enor
ayuntamiento
##pect
##thon
##master
pluma
##vón
##mesa
Bernab
Fis
Lucha
ponernos
remate
radicales
Néstor
##XT
templo
diablos
Chiapas
bajen
JIN
CAMPEÓN
desvel
WAS
##127
LP
vra
##rash
atendiendo
andalucía
VOLVER
beyond
SIL
chavez
Recuerdas
Aix
grabando
correa
##maron
Eas
Seré
##trina
producen
whatever
dt
Eran
##alidad
Procura
Miser
suficientemente
desestabil
vê
##veniles
##wski
dever
Leopoldo
##gni
VOTO
Joy
PERIO
diariamente
provida
bromas
우리
txt
doloroso
busc
auténtica
Buff
merme
diferenciar
traemos
McD
Confirmen
weird
desnuda
ESTUDI
muchísimos
##yi
cuña
imparcial
Paseo
cargando
INTERNA
##tala
##terror
impune
Pers
APRO
abordar
riqu
political
EVERY
desnudo
Kiko
quel
crime
presentará
##trxs
bañ
escorpio
rodeado
borolas
comunicarse
##urando
madrileños
escola
apri
##nic
##ANTO
Covid19
ostia
##BIL
perce
##crania
Encontré
billboard
nudo
stock
##AJAJAJAJAJAJAJAJAJAJAJAJAJAJAJAJ
##entamiento
YT
operar
electrónica
POD
##uche
llores
denunciado
JODER
jackson
##mbers
próp
cerraron
proximo
cocaína
certificado
capitalista
ingre
##cere
comporta
election
Feb
separar
##iorno
##non
Beautiful
Sony
piedad
contratación
festeja
principi
mich
##mexico
##eni
epoca
recorda
parec
residentes
##icados
informacion
Ambiente
peje
Duarte
refri
kick
Crack
piercing
##junto
sf
habíamos
describe
ciclismo
##lei
reacciones
##ABLES
questions
haciéndose
desconocidos
certifica
hablarme
caris
anon
conteste
entrevis
RC
##quanto
##rum
Tantas
lesionado
efeméri
##isoo
EV
fijar
secundario
parroquia
entendiste
reab
siembra
Grey
galicia
visibilidad
##manga
milanes
##IDORES
Periodista
Podes
vegetar
CÁ
transfer
armada
##iam
nojo
resume
carna
##campo
Calma
##vismo
cristo
duermen
acostumbrados
Adam
bastar
##hanna
informando
pistas
Hard
##cianos
calderon
langua
##cif
começo
Class
Embaja
JEP
Virtual
irmão
Nice
vaci
david
Agenda
bios
Revisa
conforma
##semos
ENTEN
éstas
negri
banana
Regal
nag
##ceptable
complacer
oeste
asesora
futsal
##otzinapa
Sing
##lessed
Saca
Clín
animación
bolo
fotografías
KAR
certa
teres
##icken
##ış
surreal
acnh
costas
pondrá
##ちゃ
desinformación
hectá
##viera
오늘
órganos
##rent
creció
##tney
##jed
lisa
asking
sentís
banquillo
##ZON
AMAR
adminis
##más
encontrarás
Psic
dimisión
abol
rating
busto
Alicante
degen
inconsciente
UNAM
missing
tecnologías
Estuvo
Reti
escrita
##ñalich
##enix
meteorito
MINUTOS
píldora
Montes
sentarse
volverán
Lionel
##zalo
mural
Woo
##áu
truly
viera
litro
disimular
##KI
saliste
centa
importas
TERROR
Rayados
Biblia
##AMIENTO
##lamos
resuelve
##ósitos
##valo
criterios
tuyas
##pendo
MUERO
Stories
ARTE
wake
DEMO
escul
estran
Perro
cortan
patriotas
agru
pésame
gringo
opportun
complejos
Infobae
VOTE
##อย
omb
perfiles
avisan
cooperativa
metodo
Sinaloa
##hood
quest
escritorio
medel
##ógicamente
Porto
RIP
Hong
##acos
conferencias
metida
huesos
Pfff
ARRI
apoye
Nem
integración
BUT
admit
Vea
atten
##ao
piru
Vecinos
consideran
Tama
tendríamos
North
nuclear
Saturday
festejando
exitosa
Ayy
AUN
equidad
fome
Ofici
Minis
Vine
sumamos
##KJ
Despi
permitan
##mpico
##lazo
océ
epidem
QUEREMOS
buzo
##disima
drawing
extranjera
oraciones
##uimos
##IDADES
agran
silueta
Guevara
##ftheday
calum
favores
##vani
callo
Demb
closet
##ipolar
contactar
##ciso
sufro
seems
##rel
entregan
Busque
Barca
##inando
tiren
protagonismo
hahahahaha
amigaaa
Mexicana
ciegos
Antioquia
ciencias
princes
Polo
research
ehh
COLE
##ASTE
##ume
LUZ
##eh
Abre
##ecto
LIB
tutti
##zat
##tanas
DUE
##tár
cortas
science
fins
sostiene
exager
baba
extrañan
October
AV
##pad
envuel
onu
marina
kios
jon
either
viniendo
##ference
mosquito
##izarse
adolescencia
1999
PORFA
##pher
ariana
Bélgica
ere
Espe
##gth
ESCRI
##zel
Docu
rastre
dc
dejarse
##guardia
lacras
privacidad
traducción
Ganó
##ير
agradecidos
##POS
Nova
monos
Jess
##bly
Universo
cofra
ayudado
bloqueó
costumb
nd
rodri
HOL
across
GANA
madurez
sinvergüenzas
##DY
##ñor
Aa
##mense
parrilla
Ense
mit
Trujillo
tribunales
Fol
GRE
VERGA
balanza
##grar
##cato
##FT
gio
Insisto
às
reminder
correspondiente
comic
Benede
Seguí
supieras
comprometidos
weones
vali
##EMBRE
elemento
salvemos
maga
hierro
cucu
##iestas
carpa
Adelante
estatales
gén
##ligh
cumbre
tiraron
achieve
inclusivo
RECOR
DELIN
consola
ivo
##irs
##quense
deberes
urgencias
apuesto
zanahor
integrante
visible
agust
recordado
independentistas
Light
Angeles
##tindo
Culia
Fans
anche
trompeta
5ta
aq
bañarme
shop
extrañamos
aparato
guiso
negativos
##imil
surf
study
MÁ
ble
##erati
##bet
Hura
##landa
Querés
perderte
mueven
LOOK
entré
##ental
bendita
només
Gus
escabiar
sujetos
indispensable
títere
antecedentes
##ellón
##ehyun
lord
cielos
ALGUN
inmortal
##10s
##dejo
Hacemos
##etnam
Hes
típica
aumentan
WILL
##visual
Reflex
francesa
LeBron
mention
educativos
Elimin
Scott
enfadado
Confirmo
united
realizamos
Investigación
Pinches
##하해
WEY
access
Vall
Salió
##put
penso
##UDO
pasion
PLAY
veis
gun
congel
estuviste
MUCHA
bisa
gaming
positivas
Diablo
Espíritu
verso
colgar
rogar
##tum
Lakers
##cture
Patrio
Coco
aquele
Pur
KIM
mayús
Sorteo
axel
extrañe
##céut
hat
20h
Trabajar
Grecia
zi
netw
##bron
ㅤㅤㅤ
125
flan
TRAD
##TING
Inscripciones
absolutely
suicida
died
vmas
ridicul
winter
indemn
Emma
cupo
enseñado
preferencia
Feel
acostarme
oveja
ejecución
cajón
PASAR
Juana
Cd
ente
sant
Quintero
Azteca
Jugar
ballena
twitt
judiciales
confirman
Aaaah
Descansa
##iba
Atentos
Rioja
forra
PED
cum
teve
Doy
demen
Jonas
Brazil
develop
##calle
cay
eus
afa
habrían
moments
cruza
motoci
##dria
lali
Vicky
insign
Mere
Silvia
curs
##ERAS
olvidamos
##portes
tentar
CRU
Lenin
mensuales
nenhum
Epi
consa
profundidad
SAME
##cual
segue
vip
Democrá
Michel
chart
nya
buscaba
lagar
estamp
Cielo
futebol
Really
##quillas
minister
IMSS
alb
CHAN
kay
oo
##VISTA
FLOR
dea
##ops
Riquelme
hundir
guerreros
Elecciones
Oviedo
roma
disfrutado
demócratas
compartan
AHÍ
##AMI
entusiasmo
Face
dupla
Teo
preocupe
subli
Space
starting
recep
Hacia
Lim
yooo
##ruecos
feelings
críticos
ome
Cry
Borges
Kra
taken
Arau
Organización
innecesario
Gay
descarada
##ástro
fantasy
suministro
sostenibilidad
##ㅋㅋ
equivoque
##town
##ppo
Navarra
psicológico
##hoy
recibí
sello
MAMA
recuerdas
ídolos
precauciones
Borja
##41
injusta
pumas
Diez
expan
##mista
##inaldo
aces
QUIÉN
Salazar
Julián
tickets
Asia
Coordin
mancha
aburrir
raíces
##peo
rotos
##ार
cade
Femin
TIENES
##lho
murder
Solamente
enamorados
##caste
##minados
##zul
puñal
folk
milanesas
establece
fave
Gin
##vit
roji
grieta
desgraciado
confiable
crow
##aderos
dick
mpn
ticket
beta
##lyn
##irro
Tito
olvidarme
magic
##tish
##idera
cracks
noticiero
RTs
bodas
Miedo
audífonos
cachorro
Diosss
Fuentes
Maxi
Jjajas
##lr
acompaño
##fano
##GS
Éxito
Mata
turístico
##zura
Infin
DL
limon
##dibles
FAS
llene
CABE
Piqué
Brad
endgame
ABRA
##92
puñeta
reflexiones
Turquía
##SON
cacerolazo
lara
haters
Sú
Ras
esquer
calentar
##obs
Beatriz
##GAMOS
##idra
pré
##CUERDO
ridículos
tests
JAK
mak
patear
##millas
PLATA
##nabis
catch
Under
espar
putear
dilema
cortado
Probablemente
governo
dates
##berry
Fortale
atienden
##eller
bajada
juguete
bank
plural
golpear
##veis
##jante
Periodismo
explicado
Karol
teletrabajo
##eños
solidarios
Diri
CHING
CUID
##cap
suppor
##cionista
albor
Xavi
Kici
##tidor
##ims
evil
ENCIMA
egresados
sobrinos
discutiendo
explor
Clásico
extensión
APP
Escrib
amigxs
EJ
VC
ANIM
vente
Aplica
Evita
zurda
puntu
comerte
refugiados
anón
pestañas
##GER
##brado
billetera
Artículo
##JUE
findes
Habría
telefono
presentaciones
máquinas
fraud
campaign
débiles
SOCI
sabroso
eternamente
convocar
Eliz
PRODU
escuchó
rodean
Marcel
##lines
virtud
Enter
AUTO
definitely
pedia
##ICES
ring
wine
Dj
quand
Cuida
Burgos
GRANDES
naran
macro
##demy
reunió
##quar
##queño
infección
Inteligencia
Lali
entendía
ganará
pesas
snow
chif
##tment
registró
aniversário
##UND
uribismo
##NER
links
esquema
nenas
decides
entrenando
##erales
GUAR
##yd
Piensa
Duran
Vendo
##itta
falou
vencido
EURO
sumamente
toques
Mexicano
acompañan
ósea
Fácil
##banas
partner
##ágil
aguantando
Bis
##umel
marea
cosplay
dijimos
cloro
##ean
lgbt
retar
prometido
Hernán
conformo
revivir
épico
reconstrucción
indio
##dric
podre
encuentren
##IADO
##ridas
cristianos
##phy
Gregor
THEY
Sent
flipa
aaah
Enjoy
intriga
declarado
##hosa
Jonathan
Rece
calce
agü
##ítica
Parabéns
aportan
Nov
victimi
enfado
McC
projec
##instein
Vieja
Técnico
entrenadores
##bres
energética
CAMBI
lamenta
Latin
Dance
progresista
##wins
Capriles
costaba
Deporte
##ARIA
Escuchando
nadaaa
##ground
tube
Fig
cast
Allende
##ddle
mask
promocionar
Avi
Octa
darlo
mão
##لم
LAN
till
です
cagarla
rápidamente
Luisa
Km
Palermo
bug
Federer
Old
##barra
Tengan
ríen
##dioso
Anthony
wearing
financiación
##culas
Sabía
heroes
elijo
franqui
farc
healthy
delfín
bake
indicado
BACK
capturas
##vero
configu
revancha
##vito
necesariamente
Andres
unimos
##kn
##idora
Candida
Continuamos
pasados
asalto
rabo
Commun
Andalu
##vío
BIG
Sup
##queras
soluciona
octavos
aprenda
dependiendo
spider
dero
botar
acompañando
paliza
planeado
training
##ERG
gordos
aprovechan
impresion
cigarrillo
##essa
Simpson
Carabobo
mafias
arbitrar
CRA
##ık
pudieran
Ariel
##ildo
BABY
enamorarme
chingón
Ford
prosperidad
##eeps
2x1
##tegui
ENCANTA
awe
justificación
Charlie
placas
regionales
mins
Contacto
avise
##ัง
Ciudadana
desmon
Rubio
reactivación
dong
5G
btw
kn
##enty
timel
##idenses
DESPU
Sporting
aplauden
manio
##96
antofagasta
frágil
Europeo
door
Johnny
##ato
Ann
nfl
Ner
soles
iremos
brava
winning
regimen
gé
Pregunto
Marte
tempor
dorm
Empresa
Jornadas
Aní
trasero
##pame
DELINCU
Morn
alejar
Snap
##DB
apelli
guate
pum
rehabilitación
happening
Cerra
MOS
acompañada
Continúa
ua
Sou
Confirmado
legisladores
##gens
kinda
Salas
##jeta
weas
cold
quitando
escucharte
##gata
##ief
pasapalabra
talaga
Gonzal
##TERA
Secretaria
##mbos
##leg
nigga
dependencia
parlamento
celebrate
gale
##UDE
SUR
hacerles
inventó
crecido
Ajax
encuentres
tertu
TWEET
ouvir
DESPUÉS
disque
regalen
ingenu
Anne
cortarme
Wonder
##tác
##aten
issue
manip
lovely
levantan
aerol
roben
entraron
palav
recupere
Situación
mugre
honestos
##gipto
ET
collar
blas
automático
102
cascar
Carlo
yoga
joden
evaluar
Pido
##chale
anillos
Hahahahaha
Izquierda
cagon
##formes
##watch
pondré
Magal
Millonarios
funcionó
RESUL
information
erradicar
drink
##wners
entenderlo
Joker
ched
Prima
ángeles
Oc
hier
leader
ESPECIAL
funeral
Atlas
misiones
MUJERES
Right
campeona
##AU
School
ÚLTIMO
Parti
##diario
##86
estadística
Sweet
rally
diosito
contraria
regalando
Bras
YOONG
trajeron
manhã
bogota
Were
assu
filtra
movies
POBRE
##PAS
calienta
card
llorado
Colab
##calada
##daaa
##tornos
Malditos
##andonos
filha
torres
Quero
aficionado
bogotá
cocinando
ink
oku
everyday
Hil
modifica
fanático
Viña
##AJAJJA
##ÇA
Però
GOD
##mol
neoliberalismo
invitó
cuñado
##cedente
cep
francisco
##kovic
Esque
##ÍSIMO
member
##ERIA
amigues
##IST
##music
mediático
comprendo
Denuncia
evidentemente
pulso
mafiosos
##mismo
hyung
Osorio
##dadores
##jica
3rd
EUA
depu
sabo
paul
##ificados
Iran
lotería
inda
persones
despacho
Consejos
Smart
birrete
##lian
Caro
UEFA
pet
Sad
Raquel
taste
calcula
rot
Dear
históricos
upda
sorprendente
patriarcado
##ني
alca
consenso
Contr
perdidas
m²
Julian
Caballero
COÑO
##vellan
Tranquila
FÚ
Kong
adel
Habana
##tats
guarde
security
Acosta
Ademas
Blog
gift
ABS
##42
imposs
Youre
Gràcies
Parce
primi
Opinión
telling
Lava
Pink
relationship
visualizar
EPN
rede
fresca
cocino
##gging
Berlín
##ester
potente
##radio
Mentions
##jedrez
Gaby
##iental
despide
aliment
Integ
##MENT
##gru
##óso
PROBLE
Preocu
creativo
consumidores
Adrián
parados
minería
estuvieran
##ups
percepción
cercanos
Registro
Autoridades
##tira
Radiación
##mic
pillado
coque
ecuatoriano
TELE
prede
brecha
porn
manteniendo
Enzo
fã
dialogar
agujero
participado
Roca
##cale
##cket
arbitro
chas
innova
turco
BLAN
##ulada
interview
selva
tenian
Help
##cletas
consolida
violan
minoría
pertenecer
Llama
poderosos
Very
FT
rusos
exal
Duele
Nothing
aprendes
##nifer
Season
reitera
cacha
adaptación
pedó
##madamente
eventual
##rería
etapas
desempeño
rebelde
conservar
fotógrafo
agrí
Cuau
Dolores
Recordemos
Callate
chamu
hectáreas
Canciller
diamantes
provis
ari
chupe
##JS
##amela
##misiones
reivindica
##timahora
escondido
declaro
##ients
Bernardo
logrando
##amas
canas
Sueño
Hig
##pea
##yp
Papi
##llof
ENFER
apagón
ecuatorianos
Solidaridad
Crisis
##ants
AGR
Uuuu
hormon
dispositivos
Barra
including
peronistas
cogido
asfi
103
requieren
oriente
##lock
heterosexual
costumbres
corpo
Fro
afirmó
mamon
Salón
disminuir
emborra
enfrentamiento
olvidarte
lágrima
amiguita
perfeita
Pense
##moc
estatu
admite
Roque
Swift
suspendido
comprometido
tempran
galera
sembrar
exclusivamente
##ógicas
hir
volei
dificultad
Profesional
JAJAJJA
monumental
Castel
##istica
##istral
furia
EDUCA
VP
velas
##┃┃
##obia
Zoom
acusación
Jehová
##onto
mapu
buscado
##jq
##CIDO
ups
jalo
Bolivariana
acelera
deportivas
Dro
prohíbe
BAL
pegada
preferir
ral
Golazo
TEAM
seminario
majes
##vivientes
##lista
diu
##teos
BOY
despierte
máster
pendejas
mamo
Rossi
Mexicanos
borrachos
##tarias
combina
FÚTBOL
kai
Contral
issues
vió
##AJAA
marcan
Eric
##ustry
Rug
Decreto
Titan
##gay
milh
ric
Siete
morales
seung
##quio
libremente
##IES
##gic
tratamientos
serias
hij
Iden
ofensiva
Lautaro
Podéis
Despe
sagitario
salvando
Palabra
Parlament
wonho
##ISIS
matarme
Kris
Reto
creencias
##altres
llá
##dación
Chac
education
##DP
atreve
perrear
compatriotas
##desliga
Domín
utilizado
Bendito
Fres
fallado
Futbol
VENEZOL
decida
adelantado
interesan
##orean
TAEHY
expone
dispuesta
implan
Sebastian
SAM
relaja
##lero
Coutinho
internos
Desay
deterio
LUNES
Carnaval
##etz
tob
separación
launch
recuperados
caracol
apoyen
disparo
ciclón
pesados
Extremadura
lidiar
conecta
vall
DN
Médico
Coopera
PROTE
Brutal
Korea
Enc
INSTAGRAM
##toon
MAYOR
tales
Io
##anco
Houston
##éndum
Jaco
sci
##ésima
feito
lideres
Imaginate
Fant
suppos
Ak
Ross
reconocen
pulpo
melhores
##vedo
tasas
Imagino
vegan
30pm
##AJJAJA
deles
atractivo
aero
Aux
flojo
Buscando
UNOS
salvado
musul
unirse
mateix
ltimahora
generado
##abeth
##ead
enojan
PDV
Germán
CHAM
reclaman
##ITY
##guaya
minor
##caramanga
106
Magdalena
limpias
superliga
sofia
nay
elenco
Piden
gordita
maximo
Tv
alfombra
Eli
alentar
genocidio
poor
asilo
Chaco
arqui
##ADORA
Horacio
biodi
Hamil
individuales
rua
azar
toler
##tella
sacarlo
absurda
trapo
corbata
zaragoza
temos
pronos
drogadic
fijate
##tiga
Siria
##vestre
##bola
occi
##taduras
##duo
##mados
##tarán
caballeros
##tadoras
SERÁ
cuarent
Pleno
relacionados
##87
Inici
Prevención
gaga
##alas
Fujimori
##ULO
##chadas
jugadora
Movil
votes
chingados
semis
rie
kun
##izador
evangelio
Típico
isto
Médicos
femina
delegación
firmes
idolo
DESA
RIVER
infla
##ulu
Desta
relatos
##etes
##último
trebal
silencia
333
invitas
Hablo
Sucre
lau
##ctice
##zable
cheto
Roman
DUR
entendiendo
maricon
##mberto
sillas
##ÇÃO
uses
##ingue
##giar
Éxitos
##ENTENA
patriota
##timiento
cobi
sospechoso
##84
observ
wife
valgo
delin
pretexto
yogu
Tecnología
emocionalmente
Moy
##moso
##さん
Rab
Bastante
Ptm
##ienten
carnal
incluida
Americans
Geo
write
Varios
##hoenix
volve
SABES
unf
gim
ceder
##ancias
supuestos
leña
##dena
Simon
lesa
varón
empoder
##track
##ICIÓN
Tho
south
morbo
##icolor
##ÍAN
magistrados
Ans
quiser
##meda
muda
PERIOD
Roll
disculpar
Mona
##jour
##terres
otaku
##ORE
gama
Iniesta
2⃣
menuda
##bye
mantenga
Empresas
Ries
aprendió
BM
##charme
intervenir
Necesitas
demasiados
Campeones
dieran
enseñando
repudio
##did
glad
##cuerdo
##chata
huge
latam
Buscamos
enfrentan
consumidor
PSUV
longe
##isse
##EED
reclamos
##mbres
catástro
afortunada
campan
pará
Roo
Pinto
##eiro
##larme
##mself
incumpli
Sosa
celoso
Abraham
##ORD
ARRE
chata
tenedor
señalar
Progra
CHICOS
ils
fáciles
rcde
sobrepas
exactly
lé
Mob
##세요
cosecha
##bucks
##ayay
odias
voleibol
sabrás
crecen
qlo
protestan
##orrupción
guayaquil
IMPORTA
nómina
antif
investigadores
##elves
canasta
algor
Florentino
##cles
##presa
descanse
pingo
Histórico
return
jalisco
rumor
MESSI
lechu
Ignor
reclamando
##RT
resentido
sueña
##CADO
##nacionales
pia
stress
amooor
locomo
RETW
##fest
corrientes
Católica
SUERTE
fabrica
##zzo
Rain
reivind
contestó
##usieron
obesidad
amiguito
criatura
##ads
grabación
automa
Régimen
##entamos
##tex
##cedo
Urgente
##icent
##mame
conformar
solicitudes
bipolar
Corr
abrazarte
##cesos
##ggy
Sem
sentarme
##vala
PROP
andu
sunday
##mora
##mentando
##ases
situation
nico
indicar
EDI
Cabal
agon
cuenca
macrista
##ESE
pilotos
##pay
refin
given
secret
kindle
##idia
YOONGI
Tell
TARDE
extender
##hits
RECO
아이
Law
romanti
FLA
Bernabéu
Group
GET
humanas
mermelada
hein
pn
Vc
económicamente
echaron
Telegram
divin
Fís
Mia
cancelado
Pinochet
Then
##pd
five
##TADOS
trolls
Intendente
inconstitucional
capricho
MUSIC
atr
Lloro
senadora
##OOM
explicó
forte
Rose
##GRAMA
##face
mismísimo
implementación
hoo
honesta
eche
fundador
chairo
##ㅠㅠ
##vity
naz
Sarmiento
studio
acondicionado
vere
Casta
##checo
prefieres
romántica
salgamos
channel
LM
burlan
Totten
saldrán
104
CUALQUI
volvimos
caía
Levante
HECHO
IDO
sorprendido
##quén
Guido
##quare
##ità
##mend
monarquía
teneis
Special
tirarme
esclavos
Pemex
##trich
HIM
quo
himself
temen
misericordia
lavan
##drían
rrhh
métodos
##haus
fascina
##TADA
pasadas
dramas
##RIBLE
##tier
Brin
bandidos
Prueba
##cede
Entradas
compañías
pion
agradecemos
Domínguez
menta
maría
Fernanda
##mentada
Sinton
ride
NCT
violín
##01
eth
expulsado
vení
boquita
Agencia
compañia
ofreció
dialogo
inferiores
Partida
legítimo
Ft
##base
ocio
##TIVOS
##ícate
ponete
redacción
und
retir
Disculpa
cedo
portadas
comerse
estética
##mplona
flipando
solitario
pañuelo
Tottenham
##iser
passando
descri
##atía
arra
Papel
aroma
Seminario
students
##OOOR
Morning
Queee
Moto
Innovación
bruta
mj
defun
Campos
forgot
primarias
Dulce
poses
1998
sehun
bajaron
atas
mamas
PAC
##sche
mista
##acá
FRI
Llegué
goleada
inconven
intr
missed
venceremos
Alexander
##sip
##ciados
pictures
exam
Lago
avatar
desub
capitan
basuras
Operación
comete
Triun
recomendamos
Directora
algum
afiliados
HACES
arque
mty
##dano
##mete
##colas
organizando
acumu
persigue
desemple
perpetua
CREER
##ibar
Das
Kam
greatest
astro
ubicada
higiénico
opri
asociaciones
yt
##may
contestas
##ret
fernando
sorprendió
Naruto
##cke
Vela
19h
comprobado
conoci
ayudará
toc
marcando
Manten
cerebral
humildes
115
existencial
Mínimo
GP
Tib
ilp
barriga
acuesto
Palacios
##teridad
##vey
caño
roles
dial
Cuánta
##mtv
Almería
taxistas
ordenó
derrotar
##tuk
##roll
Ponce
VIVIR
Sit
victim
irrele
gorila
meeting
formul
##eguridad
covid2019
modalidad
##terráneo
Eco
tomes
atrae
resuci
contaron
Revis
##IZAR
oir
##SION
##fy
decidieron
##úde
##peru
poemas
estadios
Legal
acogida
congresista
cortó
numa
obligaciones
directores
ways
##noticias
killing
ORO
##utas
##VOR
Igualdad
Moro
resur
decido
estudie
Generalitat
glas
Data
Monumental
PH
faltando
##ñamos
Luka
Coment
martillo
bolívar
Xiaomi
Dó
Jeff
Aí
desple
tarro
Ochoa
acabamos
quincena
Daddy
secuestrado
och
diar
##onados
Suf
referentes
milenio
DIO
##tuosa
hidra
insegura
karaoke
PROFES
##moslo
decor
repiten
Canción
IND
surge
##òria
##uh
vacunación
adicción
Anun
forros
pastilla
Talleres
latinos
TEM
SANTA
Adriana
Castell
nicol
Seokjin
Entrega
asinto
necesit
ATA
##hashtag
Fabi
Abr
career
indefendible
##UP
remil
Gonzalez
coac
ajenos
koala
##HAHAHA
Bolivar
create
Vengan
PDVSA
PIE
miento
Beto
##vídate
##omia
menospre
##inten
GC
être
calzones
educado
cajero
iné
Fajardo
STOP
bitches
PONER
alrededores
##break
berrin
asistencias
destinos
ENTIEN
##fta
pidi
abono
legalidad
ñoquis
지민
jajaa
Modelo
aprendemos
##onado
Carlitos
Barrios
생일
sobor
museos
##párate
voté
desesperado
subsidio
anuncian
##timar
TAEHYUNG
PRIAN
##uidas
##terno
peca
presenciales
miso
picada
reportar
##89
cost
Dona
cláu
Anna
Iniciamos
##ESTE
elegí
##zcas
hablaron
maya
STAN
disfrutan
jurídico
morrer
cook
Isidro
enmar
quarantine
Concl
Repos
hil
##tillos
##itada
defensas
pub
##gracias
torpe
distraer
liceo
Isco
##ughter
bárbaro
salvan
##dev
VEO
TIC
incorpora
culera
##rác
##vajal
duo
volvio
##isss
sacarse
destacado
mafioso
planificación
expresiones
MESES
##bile
publicando
moleste
forza
##lántico
##En
là
desarrollado
nevera
Hamilton
STAR
DORMIR
##ega
hacerlos
##1000
específico
dispositivo
added
Vinicius
evan
##รา
fujimor
Retweets
regula
Luci
comía
déjen
convierten
irregularidades
##uah
frustrado
centen
devalu
##tn
incredible
adicto
restring
creada
montado
##ístrate
actúan
destruido
falló
ruidos
Muse
estadounidenses
##pic
obligan
cagarme
ECU
AHRE
##STE
repita
##cario
extras
##ised
Seis
desmen
tamaulipas
##DATE
##QUEN
cria
tóxicas
lm
Todavia
sacaste
prós
irri
Vigo
tamb
tens
##GRE
xalapa
recital
Dicho
formado
sounds
cuiden
##chea
suiza
anticon
Mai
Dá
Galle
equivalente
##dxs
##kai
Scar
##rest
VOZ
extiende
conlle
desaparecida
NOTICIAS
mangas
Dolor
##iens
petardo
1a
Estrella
evas
prision
BUENAS
Valparaíso
##ctorado
Pese
debieron
Chihuahua
pantallas
Asunción
##pun
reflexion
camioneros
dejaría
gobernando
inviten
respalda
gn
Género
##çada
entendes
##mys
cagaste
MUERTE
rurales
arrancamos
##diga
problems
hehe
##kura
acredito
juveniles
racist
##arena
calvo
ayudarnos
flag
##omar
IZ
Felicidad
##ñones
Decime
Chicas
MTV
conveniencia
PARTICI
jai
jeans
TRUMP
fede
MEJORES
tradiciones
vecinas
##ARE
Malvinas
chingue
identificado
##trero
Pón
longer
MIENT
Boston
##like
vuln
psy
Avengers
engaños
Tercer
##camente
quejándose
Enorme
metá
LUGAR
ancla
materna
journal
##jet
##dosa
GOB
català
quisiste
##fel
##tox
caldo
ORI
##dell
GON
PRIN
Catedral
incrível
contención
díganme
##CITO
##poli
empezo
contraseña
##millon
##cheros
##ether
##legal
Fabio
glu
##VIE
compi
recorte
112
Pena
engra
##นี้
ligera
SUP
Saint
Klo
ker
usó
jump
piruleta
##GUA
cuestionar
Lugo
gonzalo
Tenia
Him
SUF
Pit
jug
Funcion
escapó
começar
recrea
coje
Cabrera
starts
amparo
defenderse
reapertura
ocupación
Shin
llamamos
##uenos
soltando
Seee
promociones
##dirá
tattoo
dentista
DISF
##dista
##La
##ст
Farma
CANCIÓN
Maluma
zapatilla
llevarme
blu
Thiago
##grana
eligen
Demos
Lay
Need
HON
Act
canchas
chupando
##레이
decencia
cangre
mortalidad
SERIO
island
caricias
Ésta
Morelia
##bai
mtvlastories
tear
##socia
Cerv
diccionario
marginal
Díganme
Pizarro
veia
Lozoya
Pereira
##tuve
##uder
CULO
##ORMAL
Girls
Táchira
medicos
tradicionales
pasarme
##PINK
serious
apartamento
Volvió
atravi
oler
cátedra
acordas
Ingresa
ciclista
Rosalía
Celta
tc
clin
CASO
orang
nuca
muebles
gubernamen
USTED
perdio
##dim
train
##fores
Cayet
méritos
Próximo
##AÑ
camera
japones
gozar
Naciones
Coach
Micho
##イン
fastidio
sanar
##uél
catálogo
castigar
BUR
sister
nec
próximamente
##ientan
##cidades
##tiana
describ
NUESTROS
puentes
supieran
##coli
adicta
Llá
Damn
vendieron
obligada
Limp
derbi
maravillosas
dogs
##imes
##vage
Vaticano
Estaremos
##tmund
peces
##uses
señaló
Hipó
Cuídate
##lit
acostar
peligrosos
ing
vería
hahah
gaste
##ksk
contemporán
defienda
quizas
perdone
Ejer
mexicanas
viver
##bidos
dimens
FUERZA
Oficina
Stephen
maaas
avanzado
nenhuma
canon
bosques
INDI
##No
demócrata
Gato
activista
cuidarte
tacón
##ctas
tinta
queman
jae
##tudo
Monta
mês
ampliación
Perdona
expansión
denom
entregando
consciencia
mision
freedom
Patrimonio
bigote
Tijuana
Cala
##pecu
mtvlainstaar
ciclistas
##スト
ensayos
##ör
Rueda
Ár
GOLA
atracción
Case
Florencia
##ด้
cambié
negligencia
##enato
panque
BIRTH
##gets
locooo
filo
titan
##ori
prohibición
chiquitos
##lus
trucos
ngm
calam
endeuda
Vergon
##ligo
flexibil
Oferta
ENCON
inal
Debes
Again
tratas
lecturas
##็น
tías
##éctate
promise
chamar
CUARENTENA
futuras
##cuy
tardan
existan
chorando
trafico
tenerife
##ppp
esperaban
ejercito
ACABO
merienda
desplie
eléctricos
Bitcoin
cash
CAD
Vente
gallinas
##distas
académica
realidades
mañanera
deportista
##vellaneda
llevarte
decora
Michelle
bobos
さん
decías
Comercial
##cue
##yar
Bot
replante
sap
bañarse
echen
##cording
vestida
Sas
jubilación
Romp
beis
Oz
aparición
consentimiento
consecutivo
mios
sop
causado
Heart
seren
trio
juegas
##brir
recoge
Martha
reza
feira
hus
frito
tq
Things
suscri
snte
##nosa
##mselves
actuando
restable
Constru
vandalismo
leales
volter
urna
##mark
mostrado
Aleg
Tabasco
tremendas
Creen
CNCO
terrenos
tubo
FIESTA
psicópata
##icienta
Bariloche
Bian
##uxe
##ORME
##्र
preparan
verdaderas
moralmente
##CLUSI
Vivi
##SIÓN
gastando
odie
##coming
pagarle
##ange
HR
estigma
marrón
##ecurity
##burg
excepcional
sud
lights
comments
##zzz
DID
##plus
everybody
proyección
450
Acapulco
FIS
informativa
cambias
naa
process
Bartomeu
nominado
##TTER
coso
catas
Polit
alguns
Hija
sharing
notificación
##itoria
Nuevamente
Expo
Ave
jas
legislatura
voce
mandarle
Medios
Monclo
tapi
Bebe
##ctic
Fiestas
SEGUR
COPA
clown
##uencia
Terri
extremadamente
harás
bailo
conservación
beba
ALERTA
experta
graciosa
Multi
abrí
Alme
cansados
baratos
ORTO
Marcela
memories
Merca
granito
Onda
##ecretario
seran
##ector
Meta
Everyone
murio
Profesor
Wanda
Sempre
livre
##úen
##WW
Coruña
##fits
Laguna
##ócalo
Bá
servil
program
Siglo
carbón
##elma
querendo
pronunciar
finca
maland
cursi
ése
notice
xdios
puntas
asamble
appreciate
##hshs
##minente
NIÑOS
double
##alta
##topher
BRAS
Quí
invo
##ัก
Veja
competitivo
##icioso
##peros
comenza
absor
daqui
infuma
trasno
inexplicable
enrollado
Peñal
suas
voluntario
YAAA
pancho
contagia
Med
auxilio
##TICOS
capricornio
##ROM
##VD
detective
CONCI
filóso
commit
Dictadura
pusimos
ein
SOLA
mecanismo
ganarse
tentando
subsidios
##varo
delicado
##itarismo
themselves
conveniente
RECU
talvez
crl
pretend
oigan
alegran
derra
##cters
assis
plays
pescar
Camacho
efectivos
Evan
farmacéut
illustra
Hablan
despren
intentos
aguantan
taxista
manía
##CHAS
##chef
Acompáñ
Sn
opcion
protegido
odiando
##iy
ARA
PARECE
Ávila
patrulla
batman
mogolico
##urinho
pecados
ingresa
reciba
criticas
limitar
##minio
trío
lenguas
homofobia
migración
##titude
levantas
alian
vacíos
LINK
Wed
unfollower
petic
##meria
padrino
cárceles
dejara
arriesgar
spon
##vem
engaña
broken
enfermería
negociaciones
ivoox
##wins10s
##jira
HABLAR
##TÉ
risk
separado
1h
culi
selfies
primas
Ferro
aleja
noma
eternos
derrotas
fallos
Canaria
Empleo
##onnn
incomoda
lies
CORRE
Increible
viram
metropol
Semi
tê
kas
sketch
announce
##ATRO
##nik
discapaci
Diseño
Infórmate
LIGA
BREAKING
##bull
comas
gastan
##เล
barri
enseñe
##jones
ends
acabará
Wen
antonio
entretenido
Primaria
##iem
##isimos
sooo
##tento
finish
PERDÓN
Oooo
Villarreal
Agro
hacete
broke
Bárbara
Sometimes
HS
YOUTU
anécdota
recientes
##HOR
MIREN
##vierten
ponele
scream
automo
##icidad
Futuro
##TIGO
hostias
presentaron
canciller
IGNOR
Oeste
LLEGAR
artists
##porta
afirmar
legends
##tique
##tereo
##ÍCU
1990
Acer
Villal
limpiando
kcaargentina
##bay
region
Canada
SABER
Aren
Cande
Rodolfo
Sul
suicidar
maletas
animalitos
TRO
SABEN
Cáncer
vacías
##salo
merendar
incau
##mese
fisio
##ariales
remake
paella
fua
Ocu
ultimamente
MENTIRA
Try
arrancó
babe
##utos
ahead
##93
Repito
aplican
cafecito
##هم
drag
Difun
##INAS
predi
Meet
##tifique
referencias
territorial
##toro
speed
Condu
##itaaa
usamos
Balvin
masacres
##BRA
locuras
blessed
encontras
túnel
abortar
convirtiendo
BENDI
ik
##tativa
Anima
Bec
jong
##BOL
JAJAJAJAJJA
acertado
toalla
PROGRAMA
NEWS
##ÑAS
Noruega
cheddar
esclavitud
zombie
Jay
conoc
strug
carmen
autorización
aproxima
##grados
músicos
paramilitares
Sher
desgar
##tecnia
Pira
##BAL
##unts
compramos
buf
Padres
HAVE
mantenido
##irez
Maca
changed
##rucho
Brus
Clausura
licu
##mérica
victima
pussy
prenda
Acto
variar
IU
reasons
##urbano
cuidas
referéndum
EMPEZ
##TIDO
##gieron
DIE
Alco
ESTÁS
engen
recuperado
##ears
##asca
mole
Base
quedara
busques
pretender
##ICIA
repaso
CIA
bandido
comience
chamuy
##drás
dulzura
condenados
lavarse
JOA
1ro
Biblioteca
escritores
cream
sociedades
JM
cuánta
daremos
potter
Cambia
pirata
Soledad
sumer
aseo
NOTA
Transporte
lacri
incluidos
Estrate
##sem
complete
conservadores
plancha
facho
##jdj
indefin
indol
##ância
Haw
obrero
alcanzan
entregaron
salu2
fds
yos
Colombiano
pesadillas
Zapata
##emo
MUCHOS
Cuarto
127
antiguos
Cuerpo
jean
##huac
##ست
##monte
argentinas
delgada
Comunista
fernandez
Arabia
medallas
balazos
##IRA
verda
ultimas
2030
PALAB
nostra
obtuvo
borregos
serena
Perdí
colgado
biber
##tiremos
##icentenario
obligados
resign
ambición
Cuesta
reveló
facts
Aragua
phys
rector
Geor
reclu
salch
autocrí
plate
Tron
TOM
Mae
jamais
cuid
SHA
contas
teleno
##fm
conozcan
directv
boyfriend
MORE
uribistas
ITS
acordarme
astrona
homosexuales
inventan
Televisa
mh
LITERAL
##tente
Davis
casero
EXPL
mientas
máis
Feste
sevil
echas
Abor
##quiero
espectadores
PARE
formula
Gratis
comenzado
impact
criptomone
VIH
##lose
reli
##91
##iaaa
Concierto
##íneas
Date
Tantos
jala
SÓLO
eman
dón
##esto
mandarme
Armani
permisos
##mail
##ganés
fanart
usurpación
BAJ
calent
acabou
slo
popula
maravillosos
navideño
rumba
##gén
##kitic
autismo
campamento
respondes
especialidad
delanteros
invitaron
##mael
trade
dat
noto
chabón
##hrs
Wacho
Ainda
##iendose
honestly
afectando
##gence
##ísta
Sau
ajenas
destinado
##mony
##dromo
estacionamiento
muchooo
Cecilia
##ifu
playoffs
speech
indirecta
pauta
Clarín
anular
merch
caricatura
Muito
llevarlo
sepul
##filos
supervivencia
led
autobus
coincido
Uyyy
sold
vendidos
Llevamos
prójimo
mortales
##ñetas
supervis
incompetente
Thor
telefónica
APREN
vasco
UMA
Toni
##Fi
mn
Denuncian
##ladimir
##UNIDAD
conste
Know
inquie
inesperado
atenció
Volvi
##xos
##ingo
##trange
SÁBADO
##ornal
4th
##wie
Capítulo
Oportun
autó
quedarnos
nadar
revoca
anden
Suspen
hearts
##urdes
encontrarte
racional
dobles
##grafos
estupen
##USA
Negra
##ença
##menez
violence
Ultra
insin
greys
tóxicos
economista
trono
tenerlos
sufrimos
ladron
sucursal
inventado
ofensivo
##giado
##joz
levar
chapa
traslada
disfrutarlo
publicada
castell
cambiará
kap
INTEN
##teto
##ax
Checa
pagados
Gü
entregas
Milán
vei
##catecas
Pros
cette
caguen
zanahoria
Crí
##ucho
bebiendo
gastado
##gged
##PAL
aplaude
crezca
Murillo
tapas
##foros
Micro
punk
Ganar
##tata
depi
FBI
Globo
Chico
barrera
##tick
gives
mosca
loto
Niña
Pachuca
invitada
##ventar
BIRTHDAY
##ardi
##alud
foram
CONSE
rama
confunde
portavoz
Photos
##iya
grada
volte
belle
mess
someter
machos
probabilidad
clásica
distur
fotografia
##HER
dignos
agusto
Manolo
prór
##mejor
Bildu
engordar
##tems
importo
Alo
##vato
acús
shots
EMB
##dei
músico
CABR
##ñita
l6
##uild
##enz
##pulos
controlado
Zapatero
joyas
contará
Arg
town
##ごい
minute
tinto
station
kak
##IMA
2a
rus
Earth
##venture
chingona
tiver
##elho
AIRE
##hoso
completos
##ividad
comentan
reirme
##kins
##ggio
MENTIR
IDIO
rather
Llegue
##orables
separados
válida
descanses
rtve
dada
DEM
perfeito
ln
BEBÉ
##tiste
Sofia
comenzaron
notable
ont
CORRUPTOS
impecable
exol
Máximo
ENAM
Defens
##empos
##UNCIA
andes
lucky
tomaba
abandonados
articulo
Serán
##teme
motores
pasillo
leemos
language
MAIS
Battle
acusar
persever
Ciclo
motivation
joga
ADOP
chato
Book
##dargentina
agredir
Tira
mans
GIF
molde
engañan
Venez
Ea
##àn
Pedazo
presume
Oliver
suenan
operativos
Historias
COSA
##moral
hara
twite
Cana
Casas
aques
clarito
##istemas
Haga
Made
churros
sueltos
avisas
peques
WON
##redi
CABEZA
JAJAJAJAJAJAJAJAJAJAJA
Bandera
spanish
##tivismo
Death
Carol
##64
recordé
policias
##tland
partió
desesperados
bloqueada
popularidad
desle
##asuna
##ENDA
cortina
##dest
haria
cordial
Francis
intenté
##ifique
retire
goo
habré
firmo
abas
pobrecito
desm
##ballos
capas
Bril
hack
mudan
ret
recientemente
PRON
FERN
nono
conversando
lazos
tuite
Road
asfal
Vene
acusan
bbb20
Land
wp
recomiendan
conseguí
cumplimos
Pacífico
##informa
encargar
rp
dancing
bulos
##trales
worse
Cauca
##57
incans
teams
fauna
Island
text
deriva
##rear
belgrano
Cárdenas
##elente
tocará
advan
singing
ciru
rodeada
##soo
regresan
respos
##usivo
dah
aquela
colgada
reinici
inglesa
detuvo
subvenciones
rdargentina
##eropuertos
Adoro
discute
정국
##each
Intro
PIEN
coaching
Pris
enquanto
Prác
Diz
##AJES
fare
windo
##ándwich
Chab
##etarios
juntarse
recordaba
Dias
WHO
wu
Expres
Terra
televisa
SR
Water
ending
Palmas
##้อง
zan
##picos
venían
trabajaba
##urite
##ganlo
tsunami
cannabis
Particip
swe
Goles
Games
jueza
Encuentra
##loga
concejales
Idio
Vení
bby
Breaking
Box
resguar
##mpara
voltereta
explicas
favorecer
vatos
Querida
Enlace
enamorarse
Ayúdanos
ciuta
LMA
descarado
Jud
ajá
fallando
TAMBIEN
finished
ALMA
chismes
despertado
##trante
Pasó
known
##arriors
quieto
trash
##human
haberle
LOU
mgma
resfri
insulta
##tagonia
Mono
estudian
domina
muestro
Melo
Espacio
porfis
tive
Store
tota
##inga
proceder
##wick
GB
##51
deberán
masas
##GIO
acordado
##rap
reh
irnos
destruyen
Aprender
convocado
SORP
##tarle
Responde
fs
FUERTE
JUEVES
fibra
demuestre
cristiana
eramos
expulsar
Kun
plenamente
AAAH
##NOW
aparentemente
Cham
Accidente
Quiénes
indignada
vagina
equivoqué
bern
Empecé
espanyol
##renalina
condenar
demagogia
lumin
Revi
Falso
Maravilloso
Pio
Parra
sucediendo
Timo
agarrando
##kjaja
cerve
atraer
felicitación
adelga
jugos
FFAA
cumpleañ
##brados
powerful
Uuu
vínculo
Modric
##TENCIA
VUELVE
olvidas
conducción
##lis
SD
nana
Dura
sagrado
Queres
Nop
Kara
##GUAY
Obras
involucrados
Mant
canadá
juzgados
##RIL
##esis
##lup
##haa
corrido
##ен
eléctricas
aseguran
Vuelvo
construido
pavi
NU
mundos
bros
cus
previsto
##canes
convence
ANC
HAGO
voted
Beso
felicita
##PUTA
##mentaria
ofer
Pasen
Sip
merito
moverse
2024
##craft
sancionar
carnavales
ancho
nido
##itmo
constitucion
##arro
##RIS
##IGA
Integral
1994
biología
Calidad
comenten
llegues
sebastian
ofreciendo
States
##vice
##atre
pertene
intermin
Flu
Juz
gobernadora
satu
##daria
andaluz
perdáis
transferencia
yatra
Cabo
gratuitos
Xd
Joaquin
baix
NOMBRE
Beach
cronómetro
bieber
Energía
Fur
##tc
lr
Paro
perderme
despacio
preocupaciones
Noel
DEBER
Cartel
LINDA
laca
cod
temática
viajeros
acompañamiento
pasarán
##คร
kis
fichas
ACO
##istán
##IZACIÓN
PEDO
normativa
Liam
##gba
Conser
Sabéis
juli
QUED
Hat
depto
Adolfo
aprendi
Sound
armadas
zayn
inundaciones
PRÓ
##ไม่
sanos
corpor
MIO
##sider
Represent
contaba
sucios
món
##rador
##abilidades
Magic
traía
aura
breath
Político
clasificar
extraños
hech
aglomera
probé
##lese
acess
reacciona
justas
ove
##male
camita
monster
nacidos
valladolid
##emi
colorado
bater
##GÓ
boletín
grano
ERTE
##popular
reactivar
apr
##games
tini
lembro
HAGAN
juntada
sti
haciéndolo
sospechosos
líquido
efemérides
##ediencia
##inidad
industry
repetición
##்க
lanzan
BLACKPINK
Corrupción
difference
##fren
PANDEM
perfectas
Reno
##tenta
ii
historial
Recien
##IENCIA
movistar
billion
rango
##quir
Posible
Ajá
antemano
selena
ácido
Debido
sas
##later
loving
esooo
1989
freno
apariencia
vintage
após
auxiliar
NOTICIA
Pocas
escucharon
afortunado
cuñada
Pizza
subas
##ianas
posee
hug
utilidad
cés
optimismo
nn
americana
##curio
Kicillof
##SES
sema
evidencias
inmue
middle
Tomar
candy
##taza
tentación
##lana
SHE
impuls
reven
anticoncep
##ffic
mamavote
ofrecemos
##hee
Actualmente
austeridad
##DIÓ
CERO
Paloma
##jojo
vándalos
especula
showing
épica
##kipedia
##isiquiera
suffer
Yucatán
saludables
encontrarme
chun
##govia
Conmigo
iniciamos
adoctrin
miramos
wasnt
simul
##írus
Reportan
semillas
##GRESO
chantaje
ocupan
interactuar
details
Estou
Trabajando
APA
Nac
ponerla
oscuras
cocodri
##ellow
parche
lanzado
##coy
SIENTO
paid
##adajoz
##dt
Kit
parlamentarios
demente
localizar
GOOD
senior
CAMBIO
Str
Health
angeles
pfff
Carvajal
Llegamos
Pet
peluquería
##ें
screens
evitarlo
equipazo
Mm
wen
granos
Inclu
incompetencia
Alvaro
lgt
forzar
excepciones
##JAJ
madrina
michael
disputa
Hell
BOM
##rinos
Querer
osito
##photography
oscuros
chupo
FORMA
dejarnos
##าก
November
Darío
##500
##ullo
##ering
3x
Hop
marico
hostel
denunciando
Puerta
mgmavote
Portu
##ICACIÓN
##crita
yun
habita
Allah
lentejas
pepino
##erie
liverpool
##cron
##แล
espantos
Raul
XIX
Chapo
george
comiste
lucir
reprimir
DIGO
##ีย
yoon
realista
MACRI
operan
##rese
brasileño
escritura
jersey
doblaje
diente
hambr
professional
Sentir
DESCU
Fuen
durmió
Alvarado
Mejores
##ricamente
magnífico
Méndez
italiana
##enó
trabalhar
Cres
bordo
instan
insultando
Evid
empanada
Heres
Which
locomotora
##iario
##cele
EXTRAÑO
author
lliber
peruana
preciosos
CENT
diálogos
cuarenta
Frances
ofenden
sudamericana
conces
adicional
noti
franquismo
respondido
ajedrez
videojuego
wash
Volvemos
nutricion
ABI
achar
debi
##coo
##mpaoli
somebody
Quilmes
mares
Ferre
suspiro
Rivas
sufra
sonidos
oportunista
fortalece
reencuentro
Femenino
TRISTE
estallido
esteril
generó
##mtvmiaw
insisto
mínimos
alemanes
hartos
aceptado
Precios
decoración
##izales
Hill
nacen
viz
perpetu
aceptación
decadencia
##bow
posts
Casual
active
IMB
##อก
Yall
trataba
infinitas
cintur
doctores
##diando
PONE
manifiesta
trick
justos
##hine
Vosotros
##ibus
llegarán
Dip
disfrazado
##ESA
xDD
caute
RESPETO
religiosa
##cers
##onazo
##ámica
otorga
elevado
Lomas
feet
Tokio
##ILER
MIC
Municipalidad
Twit
##gies
##hl
##ñaste
gratitud
paseando
cierro
salís
favore
IC
ABO
inicios
90s
tardado
burlarse
##ésimo
sudamer
chiapas
##quarelli
ruggero
writing
rigor
capi
olas
##malte
##than
citiz
intentas
aqu
tenim
##challenge
Arch
##papel
MENS
sinceros
retroceso
hunde
characters
incidencia
TOMAR
##heimer
VIDE
probando
fallan
Vicepresidente
##idan
ayudamos
1M
INTERNACIONAL
210
empiezas
##ómicas
##olio
conoció
escalera
Bahía
##mr
extraterres
Wood
##lata
##quisición
armó
recibirá
##าร
lluv
biberón
acaben
makeup
oy
TS
acostumbrada
cambiamos
considerando
lam
llamarse
yuta
Dinero
ÚNICO
macrismo
##dables
##icampe
Jugando
##tisima
Cont
Salvo
Arrancamos
treinta
saliera
internado
Error
leyendas
luc
JUEGA
limites
pelirro
miti
cargas
mediática
expediente
instancia
currently
Gimnasia
valiendo
cv
supp
centenario
##tién
##TABLE
tijeras
Pren
tous
corredor
protegen
havent
finalidad
incur
##ân
admirar
yaa
soporta
escondidas
blockchain
Orgulloso
bancada
abismo
Misa
catedral
price
##pedo
search
ilumina
##pical
##fanart
Olha
obrigado
pertenecen
ench
sacarte
LAB
respiradores
##jss
caniche
aceit
temblar
invicto
##vín
1995
acomple
RAM
reputación
manches
incapaces
capitales
crearon
listado
conserva
usurpador
Reporte
rup
##vens
##DEZ
##anga
nike
Cere
Corn
estabamos
##erados
británico
MAMÁ
##inares
VAYA
Listos
assas
Tun
ive
DEMOCRA
DRO
macha
shirt
lobos
Encan
reparar
triunfos
leyó
Tos
gens
prostitución
tardando
##ásticas
discord
hablarte
obstáculos
valida
pagará
##ços
Inicio
respondí
daria
labu
treasure
tiembla
##domen
thous
regalito
ALTO
Chap
Crónica
prepare
sensibles
aumentando
escrí
conseguirlo
Serrano
##bot
albañ
tendrías
Patricio
sao
inmobiliar
##zol
VISTO
federales
Beatles
Políticos
##andoval
pegarme
##스타
Anaya
profundi
lloraba
franja
componentes
##ctivos
juve
intui
hater
infraval
lockdown
faltado
asada
##tividades
finale
cemento
bondad
visitó
damas
##sian
THANK
Carajo
Oficialmente
PERU
boicot
##sexual
cit
sospecha
cami
ads
beer
aéreo
ALBUM
Lisa
premiosmtvmiaw
compartió
wala
Tinelli
INCREÍ
balazo
everywhere
##ро
europeas
prestan
Calvo
sutil
principiante
SEL
acepte
altamente
MEXICO
olvidaron
spring
provocado
quisieran
1997
quedarán
##AJAJAJAJAJAJA
##queños
navidades
podías
EMILIO
EXISTE
##copio
Work
Batalla
juris
farmacias
##Co
کی
terminará
pancar
hashtags
colla
Ryan
##xes
Paredes
Centros
realize
medical
##DIENDO
JSJSJ
##ให
contiene
yen
liguilla
##onar
Nosotras
##cería
ideologías
Virus
idiotez
FON
DIG
celebrará
Hobi
##meone
naco
##icanas
Vila
papeleta
##bula
brand
grupito
profesionalismo
meterte
sabores
aumentó
VII
Lou
##fast
prison
Cour
##leces
abrieron
rose
d2
Espanya
##PIDO
práctico
vendedor
##ótica
##ooor
LUIS
lector
borrado
RP
Directiva
##jw
##jokovic
##elec
lobby
##bren
scared
##jui
fria
laura
##mular
PREMI
matarife
##erador
trajes
desviar
Block
proponen
timeline
taxis
hacerlas
chegou
brutos
##pta
Kal
##itora
Velas
tives
##contra
ignoran
promis
decepcionado
cros
##ecera
possível
sacrif
Convocatoria
##vares
daña
##eal
ist
pequen
##vaza
Karina
cancelación
vendan
tricolor
##anero
Freddy
asa
legalmente
##yatra
##lymp
peligros
mejorado
Asegu
##jul
desocu
##tens
##eeen
cascarón
4000
cesar
##zade
Sabado
MIER
sabremos
##fw
falten
lindooo
##alco
callada
Miley
##fobo
Mane
supposed
mierdaaa
Correcto
belie
Marico
Colon
entramos
within
Huracán
##या
james
##idor
ascensor
pixel
pasajes
Empiezo
guiño
ufc
Américas
nula
##used
mecánica
escre
celebró
eligieron
##HATS
Entro
saqueos
arder
estupendo
actualiza
escabio
tirano
##cape
##vieja
lover
maa
avís
jardin
JSJ
comenzando
Pollo
hern
COMENT
ocup
##aaas
##AYS
Due
Ple
milen
Islas
##aden
Tenho
PANDEMIA
LLORO
##ificando
individuos
english
##piación
ances
##gono
DICEN
Polonia
reveal
paró
Precis
Dun
fotitos
##phoria
arreglado
crueldad
##AAAL
distribui
respetando
moviendo
Autóno
Does
Misiones
fide
essen
##pts
Andes
haven
nct127
Zor
mientan
realización
Deportiva
##ição
##ÑAR
Hostia
grues
forestales
copias
skabe
KING
agrado
resil
Find
GIVE
trasladar
HIJA
Bosque
Note
##viado
marque
created
##dak
Blin
dedique
Abierto
Horrible
soompi
gallos
uc
##rego
kms
##cimo
##viron
Gat
MUITO
entraba
paraguayo
acontecer
Conozca
btson
discrimina
##ctural
EXCEL
saltan
reconoció
explain
##online
desescalada
##émoc
papo
jaaa
Kids
123
ava
dimensión
cloacas
title
paisajes
Gara
mea
##enter
Área
autocrítica
remun
EXCLUSI
retrans
creerlo
optimi
sándwich
##mons
verbo
nostre
##tanera
objec
##ñol
nombrado
parir
Prado
divide
hung
##kra
##TINO
sna
prolon
AFA
recta
Podcast
##iday
DERECHO
escalo
##tricos
formando
apura
##cientos
Colombianos
##THING
##HAHAH
cncowners
librar
Carrillo
balones
PRESENTA
transport
Saab
##tait
detras
prepot
JUEGO
oil
##anova
atlético
often
apodo
billar
DEMASIADO
salte
artesanal
Bús
peeero
##enla
##rade
envas
Mancha
Bullrich
decided
के
SERVICIO
##JAJA
injusticias
experimento
vínculos
tuviese
obreros
huach
##itcher
kr
Luciano
FRENTE
entrego
Spring
Preciosa
chaqueta
Alcalá
##elito
pelada
##eca
##าม
Hizo
independentista
Chich
##ider
CANAL
desgra
SIR
agricultores
Gobiern
##Mad
##éndola
Comenzó
##FU
llenando
ombligo
analizando
##vres
mimo
SACAR
carrer
Deberíamos
6to
actualizado
Nono
coñazo
PIER
Casos
##seo
tobillo
##YEC
chava
gràcies
catástrofe
bailes
horizonte
mall
##ра
ponto
atrevida
morras
reemplazar
sustento
chorizo
aburridos
indicaciones
potenciar
asegurado
cochin
##gras
west
##eeno
Madero
##web
##inista
Sere
VOC
podio
largar
causan
Visto
irmã
HOW
Empezando
##adra
matrícula
procede
superficie
direito
recurrir
devuelva
Fru
malestar
intimidad
hobi
Fiel
Diputada
##mentó
spend
##quili
disparar
Stone
Inés
##MIGO
Women
Almagro
direct
elegancia
Eche
outras
jubil
##álvame
códigos
Humberto
divierte
##ので
problemática
Ideas
dari
##card
confiden
RESPONS
##As
##úr
atún
etiquetar
pessoal
esconden
Industria
##rente
vasos
brisa
Cúcuta
Mati
logré
independientemente
Gim
exijo
Alum
##centro
cómic
acompañarnos
muestre
##ได้
Macarena
confort
asistente
##canos
estereotipos
##utrición
clínicas
##tl
cambies
##ᴇʀ
##gaciones
Magistra
Salva
activistas
narrativa
##jusapol
estudiantil
confundido
Libertador
##cioso
barreras
homicidios
eating
equipa
inju
mitos
cambiarlo
Mourinho
Fuiste
debiera
correctas
amarillos
conduce
1D
continuo
Tag
reportes
##lights
##quest
repitiendo
ARRIBA
##zia
Would
ayuso
Child
intensos
##lins
##mino
manta
Everything
Salmos
1era
planet
BAIL
ruin
órgano
True
desgracias
Marian
##UNO
aussi
HAMBRE
YOUTUBE
moscas
acercarse
distinguir
acoge
##PAN
##PEC
Apre
sacaba
##hips
##losa
especially
mecanismos
##POR
jajsjaja
father
oculto
maquinaria
LADO
bioseguridad
inven
##ttle
masivos
Concejo
RED
concept
bochor
recl
mañanero
platic
multiplica
queríamos
razonable
mb
rir
##morando
Retweeted
averiguar
Gregorio
sars
##ited
prian
##BACK
tiny
##fle
investigue
Lanús
sabrán
practice
empodera
psiquiatra
Mau
colonias
limita
aeropuertos
religioso
questo
ilpjusapol
lv
oe
ausente
Llé
recogn
Edition
bichos
requisito
HELP
Propongo
desplo
Bebé
guapísima
wedding
pand
Cues
trató
##PEZ
cartu
bloquean
pup
bodega
jobs
criar
Alfred
búho
leido
European
effec
##ของ
0414
Dortmund
isa
Perfec
ciberseguridad
cinema
Trinidad
Business
sdv
preciosas
selca
##bour
josé
##SKS
mejilla
volvía
##83
niall
Tob
jadi
paradas
horny
rate
prudente
uru
armario
Alcaldesa
externa
dvd
recopi
numer
jisoo
cantantes
imagenes
Robo
despreciable
proporcional
##abella
Ciro
Tenéis
venis
retró
Loca
envenen
##vancia
Dign
cock
##้น
Mier
##ENE
agarren
consejero
estrenar
##util
golpea
##GANDO
desconoce
quejando
CIR
##éroe
Office
provi
Ry
Arn
informal
picas
difunde
nacionalismo
inoper
largue
adelantar
gobierne
aprop
Tomorrow
testimonios
building
Ósea
renueva
afirmación
tantito
abrigo
callan
diaaa
curas
##rik
##mbas
imbeciles
##ITAN
cachon
##mie
mayonesa
##daz
##quiel
##ende
##inde
regulación
Vent
loteria
##UDOS
obrera
##ertamente
cantado
frea
medie
POSI
##htémoc
CONFIRM
visualizando
prendo
Machado
peticiones
devuelvo
ws
acessos
##ínsula
hazme
rendirse
Serra
Baekhyun
monstruos
Willy
vagab
##mong
jennie
acabaram
NIC
Original
MUNICI
##دي
buscarlo
pasito
secreta
practicando
esclavo
##DIDA
egoísmo
##xis
military
##GADA
bestias
##biar
tirarle
Coord
falopa
corrector
vill
biodiversidad
##andoms
Amazonas
FUNCION
falsedad
sencillamente
##çando
jesu
##tinho
repudia
Núñez
ELN
##tay
##aths
Sube
turnos
despertando
preval
Recuerdan
##enle
image
embarazadas
hú
galletitas
establecimientos
##hai
firman
##four
##vira
##sados
##venidas
equis
CHOR
terceros
##trength
mixta
##pía
fabul
OPINIÓN
##angers
TUDO
Hala
REINA
subnormales
bolivar
##cts
CORRUPCIÓN
AMER
brothers
mueres
importaba
interese
enoje
Excl
Girona
reinas
casados
VES
##iris
totalidad
##56
GG
calientes
coordinador
##██
igualito
guadalajara
Hues
exagerado
Desgracia
água
chida
Nahuel
asesinada
##suras
##uil
preste
Tudo
paula
selecciones
Iris
creído
Catalina
extorsion
##76
PRUE
[...]
