{"version":"1.0","truncation":null,"padding":null,"added_tokens":[{"id":0,"special":true,"content":"[PAD]","single_word":false,"lstrip":false,"rstrip":false,"normalized":false},{"id":1,"special":true,"content":"[UNK]","single_word":false,"lstrip":false,"rstrip":false,"normalized":false},{"id":2,"special":true,"content":"[CLS]","single_word":false,"lstrip":false,"rstrip":false,"normalized":false},{"id":3,"special":true,"content":"[SEP]","single_word":false,"lstrip":false,"rstrip":false,"normalized":false},{"id":4,"special":true,"content":"[MASK]","single_word":false,"lstrip":false,"rstrip":false,"normalized":false},{"id":1126,"special":false,"content":"emoji","single_word":false,"lstrip":false,"rstrip":false,"normalized":true},{"id":1143,"special":false,"content":"url","single_word":false,"lstrip":false,"rstrip":false,"normalized":true},{"id":1159,"special":false,"content":"hashtag","single_word":false,"lstrip":false,"rstrip":false,"normalized":true},{"id":40000,"special":false,"content":"@usuario","single_word":false,"lstrip":false,"rstrip":false,"normalized":true}],"normalizer":{"type":"BertNormalizer","clean_text":true,"handle_chinese_chars":true,"strip_accents":true,"lowercase":true},"pre_tokenizer":{"type":"BertPreTokenizer"},"post_processor":null,"decoder":{"type":"WordPiece","prefix":"##","cleanup":true},"model":{"type":"WordPiece","unk_token":"[UNK]","continuing_subword_prefix":"##","max_input_chars_per_word":100,"vocab":{"[PAD]":0,"[UNK]":1,"[CLS]":2,"[SEP]":3,"[MASK]":4,"!":5,"\"":6,"#":7,"$":8,"%":9,"&":10,"'":11,"(":12,")":13,"*":14,"+":15,",":16,"-":17,".":18,"/":19,"0":20,"1":21,"2":22,"3":23,"4":24,"5":25,"6":26,"7":27,"8":28,"9":29,":":30,";":31,"=":32,"?":33,"@":34,"[":35,"\\":36,"]":37,"^":38,"_":39,"`":40,"a":41,"b":42,"c":43,"d":44,"e":45,"f":46,"g":47,"h":48,"i":49,"j":50,"k":51,"l":52,"m":53,"n":54,"o":55,"p":56,"q":57,"r":58,"s":59,"t":60,"u":61,"v":62,"w":63,"x":64,"y":65,"z":66,"{":67,"|":68,"}":69,"¡":70,"ª":71,"¬":72,"®":73,"¯":74,"²":75,"¿":76,"ø":77,"ı":78,"ł":79,"ɢ":80,"ɪ":81,"ɴ":82,"ʀ":83,"ʏ":84,"ʜ":85,"ʟ":86,"˚":87,"ˢ":88,"α":89,"ε":90,"η":91,"ι":92,"κ":93,"λ":94,"μ":95,"ν":96,"ο":97,"π":98,"ρ":99,"σ":100,"τ":101,"υ":102,"ω":103,"а":104,"б":105,"в":106,"г":107,"д":108,"е":109,"ж":110,"з":111,"и":112,"к":113,"л":114,"м":115,"н":116,"о":117,"п":118,"р":119,"с":120,"т":121,"у":122,"х":123,"ч":124,"ш":125,"ы":126,"ь":127,"я":128,"є":129,"ѕ":130,"ו":131,"י":132,"،":133,"ء":134,"ا":135,"ب":136,"ة":137,"ت":138,"ث":139,"ج":140,"ح":141,"خ":142,"د":143,"ذ":144,"ر":145,"ز":146,"س":147,"ش":148,"ص":149,"ض":150,"ط":151,"ظ":152,"ع":153,"غ":154,"ف":155,"ق":156,"ك":157,"ل":158,"م":159,"ن":160,"ه":161,"و":162,"ى":163,"ي":164,"پ":165,"چ":166,"ک":167,"گ":168,"ں":169,"ھ":170,"ہ":171,"ی":172,"ے":173,"۔":174,"अ":175,"आ":176,"ए":177,"क":178,"ग":179,"च":180,"ज":181,"ट":182,"ड":183,"त":184,"द":185,"न":186,"प":187,"ब":188,"भ":189,"म":190,"य":191,"र":192,"ल":193,"व":194,"श":195,"स":196,"ह":197,"ा":198,"ि":199,"ी":200,"ो":201,"।":202,"க":203,"ட":204,"த":205,"ன":206,"ப":207,"ம":208,"ர":209,"ல":210,"வ":211,"ா":212,"ி":213,"ு":214,"ก":215,"ข":216,"ค":217,"ง":218,"จ":219,"ช":220,"ซ":221,"ณ":222,"ด":223,"ต":224,"ถ":225,"ท":226,"น":227,"บ":228,"ป":229,"ผ":230,"พ":231,"ฟ":232,"ม":233,"ย":234,"ร":235,"ล":236,"ว":237,"ส":238,"ห":239,"อ":240,"ะ":241,"า":242,"ำ":243,"เ":244,"แ":245,"โ":246,"ใ":247,"ไ":248,"ๆ":249,"ᄀ":250,"ᄁ":251,"ᄂ":252,"ᄃ":253,"ᄄ":254,"ᄅ":255,"ᄆ":256,"ᄇ":257,"ᄈ":258,"ᄉ":259,"ᄊ":260,"ᄋ":261,"ᄌ":262,"ᄍ":263,"ᄎ":264,"ᄏ":265,"ᄐ":266,"ᄑ":267,"ᄒ":268,"ᅡ":269,"ᅢ":270,"ᅣ":271,"ᅥ":272,"ᅦ":273,"ᅧ":274,"ᅨ":275,"ᅩ":276,"ᅪ":277,"ᅬ":278,"ᅭ":279,"ᅮ":280,"ᅯ":281,"ᅱ":282,"ᅲ":283,"ᅳ":284,"ᅴ":285,"ᅵ":286,"ᆨ":287,"ᆫ":288,"ᆭ":289,"ᆮ":290,"ᆯ":291,"ᆷ":292,"ᆸ":293,"ᆺ":294,"ᆻ":295,"ᆼ":296,"ᆾ":297,"ᇀ":298,"ᇁ":299,"ᇂ":300,"ᥱ":301,"ᥲ":302,"ᴀ":303,"ᴄ":304,"ᴅ":305,"ᴇ":306,"ᴍ":307,"ᴏ":308,"ᴘ":309,"ᴛ":310,"ᴜ":311,"ᵃ":312,"ᵉ":313,"ᵒ":314,"›":315,"⃣":316,"→":317,"⋆":318,"⏱":319,"─":320,"━":321,"┃":322,"┈":323,"┊":324,"┏":325,"┓":326,"┗":327,"┛":328,"═":329,"╬":330,"╭":331,"╰":332,"╱":333,"╲":334,"█":335,"▪":336,"▶":337,"►":338,"☀":339,"☁":340,"★":341,"☆":342,"♪":343,"♫":344,"⚘":345,"⚠":346,"✍":347,"✏":348,"✔":349,"✧":350,"❄":351,"❝":352,"❞":353,"❣":354,"➡":355,"⠀":356,"⬇":357,"、":358,"。":359,"《":360,"》":361,"「":362,"」":363,"『":364,"』":365,"【":366,"】":367,"〜":368,"あ":369,"い":370,"う":371,"え":372,"お":373,"か":374,"き":375,"く":376,"け":377,"こ":378,"さ":379,"し":380,"す":381,"せ":382,"そ":383,"た":384,"ち":385,"っ":386,"つ":387,"て":388,"と":389,"な":390,"に":391,"ね":392,"の":393,"は":394,"ひ":395,"ふ":396,"へ":397,"ほ":398,"ま":399,"み":400,"め":401,"も":402,"ゃ":403,"や":404,"よ":405,"ら":406,"り":407,"る":408,"れ":409,"ろ":410,"わ":411,"を":412,"ん":413,"ァ":414,"ア":415,"ィ":416,"イ":417,"ウ":418,"ェ":419,"エ":420,"ォ":421,"オ":422,"カ":423,"キ":424,"ク":425,"ケ":426,"コ":427,"サ":428,"シ":429,"ス":430,"セ":431,"タ":432,"チ":433,"ッ":434,"ツ":435,"テ":436,"ト":437,"ナ":438,"ニ":439,"ノ":440,"ハ":441,"ヒ":442,"フ":443,"ヘ":444,"ホ":445,"マ":446,"ミ":447,"ム":448,"メ":449,"モ":450,"ャ":451,"ュ":452,"ョ":453,"ラ":454,"リ":455,"ル":456,"レ":457,"ロ":458,"ワ":459,"ン":460,"・":461,"ヽ":462,"ㅋ":463,"ㅠ":464,"ㅡ":465,"ㅤ":466,"一":467,"上":468,"中":469,"人":470,"今":471,"会":472,"作":473,"公":474,"出":475,"分":476,"大":477,"好":478,"子":479,"定":480,"年":481,"思":482,"描":483,"新":484,"方":485,"日":486,"時":487,"最":488,"月":489,"本":490,"楽":491,"気":492,"生":493,"画":494,"的":495,"見":496,"誕":497,"開":498,"間":499,"！":500,"（":501,"）":502,"／":503,"？":504,"＼":505,"＿":506,"ｅ":507,"～":508,"｡":509,"･":510,"ﾟ":511,"￣":512,"𝐀":513,"𝐄":514,"𝐈":515,"𝐍":516,"𝐎":517,"𝐑":518,"𝐒":519,"𝐓":520,"𝐚":521,"𝐜":522,"𝐝":523,"𝐞":524,"𝐢":525,"𝐥":526,"𝐦":527,"𝐧":528,"𝐨":529,"𝐫":530,"𝐬":531,"𝐭":532,"𝐮":533,"𝑎":534,"𝑒":535,"𝑖":536,"𝑛":537,"𝑜":538,"𝑟":539,"𝑠":540,"𝑡":541,"𝒂":542,"𝒅":543,"𝒆":544,"𝒊":545,"𝒍":546,"𝒏":547,"𝒐":548,"𝒓":549,"𝒔":550,"𝒕":551,"𝒖":552,"𝓮":553,"𝖾":554,"𝗔":555,"𝗘":556,"𝗜":557,"𝗡":558,"𝗢":559,"𝗥":560,"𝗦":561,"𝗧":562,"𝗮":563,"𝗰":564,"𝗱":565,"𝗲":566,"𝗶":567,"𝗹":568,"𝗻":569,"𝗼":570,"𝗿":571,"𝘀":572,"𝘁":573,"𝘂":574,"𝘢":575,"𝘦":576,"𝘪":577,"𝘭":578,"𝘯":579,"𝘰":580,"𝘳":581,"𝘴":582,"𝘵":583,"𝙖":584,"𝙚":585,"𝙞":586,"𝙣":587,"𝙤":588,"𝙨":589,"𝙩":590,"𝚊":591,"𝚎":592,"𝚘":593,"🌧":594,"🎙":595,"🎟":596,"🏟":597,"👁":598,"📽":599,"🕊":600,"🗓":601,"🗞":602,"🗣":603,"🗳":604,"##a":605,"##d":606,"##r":607,"##i":608,"##e":609,"##s":610,"##c":611,"##o":612,"##t":613,"##h":614,"##n":615,"##y":616,"##v":617,"##p":618,"##u":619,"##2":620,"##0":621,"##1":622,"##9":623,"##𝗲":624,"##𝘂":625,"##𝗹":626,"##𝗶":627,"##𝗰":628,"##𝗮":629,"##𝗻":630,"##𝗼":631,"##f":632,"##g":633,"##ᄆ":634,"##ᅡ":635,"##ᄏ":636,"##ᅦ":637,"##ᆺ":638,"##k":639,"##w":640,"##m":641,"##b":642,"##l":643,"##ᆷ":644,"##ᄋ":645,"##ᅳ":646,"##ᆯ":647,"##ᄄ":648,"##ᅢ":649,"##อ":650,"##บ":651,"##เ":652,"##ต":653,"##ร":654,"##ย":655,"##ม":656,"##ว":657,"##ด":658,"##ๆ":659,"##น":660,"##ะ":661,"##j":662,"##о":663,"##т":664,"##р":665,"##я":666,"##с":667,"##а":668,"##и":669,"##х":670,"##♪":671,"##е":672,"##л":673,"##q":674,"##x":675,"##z":676,"##7":677,"##5":678,"##ป":679,"##แ":680,"##ท":681,"##ก":682,"##す":683,"##は":684,"##ん":685,"##と":686,"##า":687,"##ค":688,"##ซ":689,"##र":690,"##य":691,"##ट":692,"##क":693,"##ह":694,"##ห":695,"##ไ":696,"##ส":697,"##ᄅ":698,"##ᅵ":699,"##ᄌ":700,"##ᆫ":701,"##8":702,"##⠀":703,"##ᄉ":704,"##ᅮ":705,"##ᅥ":706,"##ᄃ":707,"##ᅧ":708,"##3":709,"##ア":710,"##ク":711,"##ロ":712,"##イ":713,"##ル":714,"##る":715,"##よ":716,"##う":717,"##ら":718,"##み":719,"##ち":720,"##お":721,"##จ":722,"##ำ":723,"##ง":724,"##ข":725,"##か":726,"##カ":727,"##リ":728,"##ウ":729,"##ッ":730,"##テ":731,"##ィ":732,"##に":733,"##っ":734,"##て":735,"##あ":736,"##た":737,"##ᇀ":738,"##ᅯ":739,"##ᅣ":740,"##な":741,"##わ":742,"##𝑖":743,"##𝑛":744,"##𝑜":745,"##𝑠":746,"##4":747,"##ช":748,"##も":749,"##せ":750,"##タ":751,"##フ":752,"##し":753,"##🕊":754,"##ɪ":755,"##ᴅ":756,"##ᴏ":757,"##𝘰":758,"##𝘳":759,"##𝘯":760,"##𝘦":761,"##ι":762,"##ѕ":763,"##ᄇ":764,"##ᄁ":765,"##ス":766,"##を":767,"##6":768,"##𝐦":769,"##𝐞":770,"##𝐜":771,"##𝐢":772,"##𝐥":773,"##セ":774,"##さ":775,"##の":776,"##ن":777,"##ع":778,"##ش":779,"##き":780,"##ニ":781,"##メ":782,"##ワ":783,"##ト":784,"##ャ":785,"##ケ":786,"##ム":787,"##𝐬":788,"##𝐨":789,"##𝐚":790,"##𝐭":791,"##𝐮":792,"##ی":793,"##ر":794,"##ے":795,"##ک":796,"##─":797,"##ｅ":798,"##れ":799,"##い":800,"##𝗱":801,"##𝘀":802,"##म":803,"##ब":804,"##ल":805,"##स":806,"##ᄎ":807,"##ᆼ":808,"##ம":809,"##ு":810,"##ட":811,"##ன":812,"##н":813,"##ᇁ":814,"##ᄀ":815,"##ᅩ":816,"##ใ":817,"##ي":818,"##گ":819,"##ᆨ":820,"##த":821,"##க":822,"##λ":823,"##η":824,"##ρ":825,"##ο":826,"##ν":827,"##μ":828,"##α":829,"##𝖾":830,"##г":831,"##ま":832,"##り":833,"##ล":834,"##ʀ":835,"##ᴇ":836,"##ᴛ":837,"##𝘴":838,"##ı":839,"##ɴ":840,"##س":841,"##ب":842,"##ط":843,"##ه":844,"##ᄒ":845,"##ᄂ":846,"##ف":847,"##ض":848,"##ل":849,"##コ":850,"##ミ":851,"##ン":852,"##ق":853,"##و":854,"##σ":855,"##ε":856,"##や":857,"##へ":858,"##こ":859,"##б":860,"##ح":861,"##ひ":862,"##ณ":863,"##ถ":864,"##ュ":865,"##𝐫":866,"##ᆻ":867,"##ᅭ":868,"##д":869,"##ы":870,"##ナ":871,"##𝒓":872,"##𝒂":873,"##𝒕":874,"##𝒆":875,"##𝒔":876,"##𝙚":877,"##𝙣":878,"##𝗿":879,"##𝘢":880,"##𝘵":881,"##𝘪":882,"##ᵃ":883,"##व":884,"##ा":885,"##𝘁":886,"##ø":887,"##พ":888,"##ホ":889,"##ェ":890,"##ت":891,"##خ":892,"##ج":893,"##く":894,"##υ":895,"##⚠":896,"##𝑟":897,"##𝑒":898,"##チ":899,"##モ":900,"##м":901,"##𝘭":902,"##𝐎":903,"##𝐑":904,"##𝐒":905,"##𝐄":906,"##┈":907,"##ᄐ":908,"##ª":909,"##そ":910,"##け":911,"##⋆":912,"##ラ":913,"##ね":914,"##𝑎":915,"##𝑡":916,"##د":917,"##ᅱ":918,"##ᅪ":919,"##ハ":920,"##پ":921,"##ا":922,"##ᅴ":923,"##ி":924,"##⃣":925,"##ர":926,"##ᴜ":927,"##エ":928,"##ヒ":929,"##𝚎":930,"##𝚊":931,"##ノ":932,"##у":933,"##в":934,"##ь":935,"##𝒊":936,"##つ":937,"##ة":938,"##ᥱ":939,"##ו":940,"##ᄑ":941,"##ी":942,"##𝐝":943,"##━":944,"##م":945,"##ヘ":946,"##キ":947,"##オ":948,"##ผ":949,"##ฟ":950,"##𝓮":951,"##め":952,"##ز":953,"##ᴄ":954,"##ʜ":955,"##ᴀ":956,"##𝐧":957,"##ゃ":958,"##▪":959,"##ھ":960,"##シ":961,"##🗣":962,"##ㅋ":963,"##⬇":964,"##ᆸ":965,"##ㅠ":966,"##з":967,"##к":968,"##→":969,"##द":970,"##श":971,"##𝐍":972,"##𝐓":973,"##𝐈":974,"##𝐀":975,"##～":976,"##ᆭ":977,"##โ":978,"##ذ":979,"##ᵉ":980,"##ᵒ":981,"##ப":982,"##ா":983,"##ல":984,"##வ":985,"##▶":986,"##レ":987,"##🎙":988,"##ㅤ":989,"##❝":990,"##п":991,"##ч":992,"##➡":993,"##ɢ":994,"##ʟ":995,"##⚘":996,"##☆":997,"##ろ":998,"##マ":999,"##ツ":1000,"##サ":1001,"##ᇂ":1002,"##𝒐":1003,"##𝒖":1004,"##𝒍":1005,"##ᅲ":1006,"##ᄈ":1007,"##ł":1008,"##ص":1009,"##ہ":1010,"##ك":1011,"##❄":1012,"##ग":1013,"##न":1014,"##त":1015,"##♫":1016,"##𝒏":1017,"##𝒅":1018,"##ड":1019,"##👁":1020,"##ж":1021,"##ᅬ":1022,"##🌧":1023,"##╭":1024,"##𝚘":1025,"##𝗘":1026,"##𝗥":1027,"##ァ":1028,"##ء":1029,"##ᴍ":1030,"##²":1031,"##𝗡":1032,"##𝙨":1033,"##𝙤":1034,"##ョ":1035,"##ᆾ":1036,"##ふ":1037,"##ˢ":1038,"##✔":1039,"##𝗧":1040,"##𝗢":1041,"##𝗦":1042,"##𝗜":1043,"##𝗔":1044,"##ᄍ":1045,"##ᅨ":1046,"##☁":1047,"##च":1048,"##ि":1049,"##ш":1050,"##प":1051,"##®":1052,"##є":1053,"##❞":1054,"##►":1055,"##τ":1056,"##❣":1057,"##𝙞":1058,"##𝙩":1059,"##𝙖":1060,"##י":1061,"##ᄊ":1062,"##ω":1063,"##え":1064,"##ォ":1065,"##ほ":1066,"##κ":1067,"##ʏ":1068,"##ں":1069,"##✍":1070,"##ो":1071,"##╱":1072,"##★":1073,"##ى":1074,"##ज":1075,"##π":1076,"##ظ":1077,"##ﾟ":1078,"##غ":1079,"##ث":1080,"##ᥲ":1081,"##✏":1082,"##ㅡ":1083,"##ᆮ":1084,"##┃":1085,"##╰":1086,"##🗓":1087,"##⏱":1088,"##ᴘ":1089,"##چ":1090,"##☀":1091,"##🏟":1092,"##┓":1093,"##█":1094,"##═":1095,"##┏":1096,"##ヽ":1097,"##¯":1098,"##📽":1099,"##भ":1100,"##╲":1101,"##┊":1102,"##╬":1103,"##¬":1104,"##ए":1105,"##˚":1106,"##🗞":1107,"##🎟":1108,"##✧":1109,"##🗳":1110,"##┗":1111,"##┛":1112,"##आ":1113,"##￣":1114,"##अ":1115,"##ar":1116,"##io":1117,"##mo":1118,"de":1119,"##as":1120,"##en":1121,"##er":1122,"##an":1123,"##ji":1124,"emo":1125,"emoji":1126,"##on":1127,"##ario":1128,"##su":1129,"##ue":1130,"##os":1131,"usu":1132,"usuario":1133,"##or":1134,"##ta":1135,"##es":1136,"##do":1137,"es":1138,"que":1139,"la":1140,"##al":1141,"##rl":1142,"url":1143,"en":1144,"##in":1145,"##te":1146,"##ara":1147,"##is":1148,"el":1149,"##ic":1150,"##da":1151,"con":1152,"has":1153,"##ia":1154,"##ien":1155,"no":1156,"##tag":1157,"##htag":1158,"hashtag":1159,"##ra":1160,"##to":1161,"un":1162,"##re":1163,"me":1164,"se":1165,"##ac":1166,"##ol":1167,"##ion":1168,"cara":1169,"##ro":1170,"##ando":1171,"co":1172,"##le":1173,"por":1174,"re":1175,"##un":1176,"##mp":1177,"al":1178,"##de":1179,"##ti":1180,"##aj":1181,"si":1182,"##la":1183,"lo":1184,"los":1185,"to":1186,"per":1187,"in":1188,"##ch":1189,"##ab":1190,"##el":1191,"##us":1192,"##ui":1193,"mi":1194,"##ri":1195,"##mos":1196,"##am":1197,"##go":1198,"para":1199,"cu":1200,"te":1201,"##ora":1202,"su":1203,"##ci":1204,"an":1205,"##ad":1206,"man":1207,"##lo":1208,"del":1209,"##ma":1210,"##iendo":1211,"las":1212,"##ente":1213,"##il":1214,"esta":1215,"una":1216,"##ida":1217,"le":1218,"##it":1219,"##dos":1220,"##ec":1221,"son":1222,"mas":1223,"##ir":1224,"##tr":1225,"mu":1226,"##era":1227,"di":1228,"##cion":1229,"des":1230,"hac":1231,"##ca":1232,"ha":1233,"##gu":1234,"##res":1235,"yo":1236,"so":1237,"th":1238,"est":1239,"##co":1240,"como":1241,"##zon":1242,"ch":1243,"##cu":1244,"##ent":1245,"ll":1246,"##ada":1247,"##ues":1248,"##acion":1249,"cora":1250,"##me":1251,"corazon":1252,"##at":1253,"##ero":1254,"pro":1255,"ten":1256,"pero":1257,"##ga":1258,"##que":1259,"llor":1260,"##ran":1261,"##oy":1262,"ver":1263,"##mb":1264,"ex":1265,"##isa":1266,"##ie":1267,"##aja":1268,"ya":1269,"ap":1270,"tu":1271,"##id":1272,"as":1273,"pa":1274,"##ing":1275,"po":1276,"llorando":1277,"par":1278,"##ez":1279,"##ter":1280,"##tu":1281,"##iv":1282,"##lar":1283,"##uer":1284,"oj":1285,"ser":1286,"risa":1287,"##ana":1288,"##ono":1289,"##ica":1290,"pi":1291,"sonr":1292,"##tra":1293,"bu":1294,"##tes":1295,"ar":1296,"##ico":1297,"##cia":1298,"##tos":1299,"##iz":1300,"##ud":1301,"ca":1302,"##qui":1303,"##tas":1304,"ac":1305,"sol":1306,"qui":1307,"##ier":1308,"##ios":1309,"sal":1310,"ab":1311,"##idad":1312,"##ul":1313,"pas":1314,"the":1315,"am":1316,"va":1317,"##son":1318,"##ig":1319,"##tar":1320,"esp":1321,"pue":1322,"##av":1323,"sonriendo":1324,"ojos":1325,"todo":1326,"##ado":1327,"##se":1328,"ma":1329,"##dad":1330,"tra":1331,"##tor":1332,"pe":1333,"##ten":1334,"esto":1335,"com":1336,"ah":1337,"person":1338,"ro":1339,"pre":1340,"##ib":1341,"##ita":1342,"##jo":1343,"##ba":1344,"##vo":1345,"med":1346,"buen":1347,"este":1348,"##ajaj":1349,"##ina":1350,"tien":1351,"##lan":1352,"hab":1353,"##ur":1354,"sin":1355,"##so":1356,"mar":1357,"nos":1358,"cas":1359,"##ve":1360,"cuando":1361,"mis":1362,"dia":1363,"can":1364,"##ice":1365,"mano":1366,"tan":1367,"comp":1368,"hay":1369,"much":1370,"piel":1371,"sab":1372,"##tro":1373,"##gar":1374,"tono":1375,"##men":1376,"##der":1377,"mo":1378,"##ce":1379,"cre":1380,"##amb":1381,"##va":1382,"gra":1383,"##ru":1384,"clar":1385,"he":1386,"pen":1387,"cor":1388,"##di":1389,"##po":1390,"##za":1391,"##oo":1392,"##mas":1393,"##cha":1394,"claro":1395,"##ver":1396,"pu":1397,"res":1398,"ne":1399,"##tan":1400,"sen":1401,"##pa":1402,"porque":1403,"qu":1404,"men":1405,"##gun":1406,"ven":1407,"##ales":1408,"lle":1409,"hoy":1410,"car":1411,"todos":1412,"##das":1413,"asi":1414,"manos":1415,"mal":1416,"##las":1417,"mej":1418,"##tic":1419,"ho":1420,"ni":1421,"mejor":1422,"do":1423,"##ja":1424,"jaja":1425,"bo":1426,"##cias":1427,"##min":1428,"ent":1429,"eso":1430,"##ito":1431,"20":1432,"##ano":1433,"solo":1434,"for":1435,"##per":1436,"bien":1437,"dis":1438,"of":1439,"##des":1440,"##ras":1441,"go":1442,"##no":1443,"##les":1444,"##pe":1445,"fel":1446,"##and":1447,"##eces":1448,"##sa":1449,"##mente":1450,"##emp":1451,"fuer":1452,"fu":1453,"imp":1454,"sus":1455,"da":1456,"amo":1457,"cos":1458,"ju":1459,"##bre":1460,"##ha":1461,"##et":1462,"##los":1463,"col":1464,"##ias":1465,"rev":1466,"hacer":1467,"cal":1468,"ti":1469,"##ista":1470,"##emos":1471,"and":1472,"##ho":1473,"lu":1474,"persona":1475,"gran":1476,"pres":1477,"##ido":1478,"vo":1479,"nada":1480,"fr":1481,"pri":1482,"fue":1483,"##ena":1484,"don":1485,"##ores":1486,"muy":1487,"on":1488,"fin":1489,"les":1490,"##iento":1491,"##ian":1492,"tiene":1493,"be":1494,"vida":1495,"estoy":1496,"##tal":1497,"medio":1498,"##ino":1499,"##den":1500,"fav":1501,"vi":1502,"dor":1503,"##gan":1504,"##empre":1505,"emp":1506,"quiero":1507,"siempre":1508,"nues":1509,"ahora":1510,"gracias":1511,"ve":1512,"her":1513,"##fic":1514,"hace":1515,"ter":1516,"gente":1517,"##man":1518,"tengo":1519,"##du":1520,"san":1521,"deb":1522,"pol":1523,"ay":1524,"##ajo":1525,"##ren":1526,"ta":1527,"gu":1528,"is":1529,"##ble":1530,"ra":1531,"nue":1532,"##zo":1533,"##olv":1534,"##ts":1535,"you":1536,"##iste":1537,"fal":1538,"mun":1539,"fo":1540,"##che":1541,"quien":1542,"##gui":1543,"gan":1544,"pon":1545,"favor":1546,"##dose":1547,"##aa":1548,"hacia":1549,"##je":1550,"inf":1551,"ind":1552,"##gra":1553,"##ces":1554,"##enta":1555,"##uel":1556,"na":1557,"##tros":1558,"or":1559,"mad":1560,"dos":1561,"cer":1562,"gus":1563,"##im":1564,"fuerte":1565,"trab":1566,"##jaja":1567,"fe":1568,"us":1569,"##pues":1570,"##bl":1571,"##ke":1572,"##encia":1573,"min":1574,"anos":1575,"##00":1576,"inter":1577,"voy":1578,"##tras":1579,"##ados":1580,"##car":1581,"sobre":1582,"##ros":1583,"hu":1584,"##cho":1585,"viv":1586,"hasta":1587,"##eno":1588,"##van":1589,"##mar":1590,"##iendose":1591,"##jer":1592,"val":1593,"##qu":1594,"##mpo":1595,"tamb":1596,"feliz":1597,"quier":1598,"jo":1599,"cab":1600,"esc":1601,"##pon":1602,"##ven":1603,"##por":1604,"neces":1605,"revolv":1606,"real":1607,"revolviendose":1608,"nun":1609,"bes":1610,"dic":1611,"estar":1612,"mil":1613,"deci":1614,"vez":1615,"ir":1616,"quer":1617,"jjaja":1618,"hi":1619,"tambien":1620,"band":1621,"##ciones":1622,"algo":1623,"cam":1624,"nunca":1625,"##dor":1626,"ese":1627,"soy":1628,"conf":1629,"au":1630,"bandera":1631,"##gue":1632,"##mi":1633,"##ay":1634,"mucho":1635,"rec":1636,"du":1637,"li":1638,"##rar":1639,"prim":1640,"entre":1641,"we":1642,"mor":1643,"dej":1644,"puede":1645,"desde":1646,"##iente":1647,"pel":1648,"dias":1649,"##can":1650,"lin":1651,"pos":1652,"##tiv":1653,"via":1654,"casa":1655,"##ip":1656,"##erda":1657,"reg":1658,"toda":1659,"apla":1660,"##dio":1661,"##20":1662,"pr":1663,"estan":1664,"lib":1665,"esa":1666,"##ed":1667,"bar":1668,"ad":1669,"pla":1670,"os":1671,"tw":1672,"donde":1673,"##th":1674,"##aron":1675,"mes":1676,"cons":1677,"##mbre":1678,"##cial":1679,"##fer":1680,"aplaud":1681,"ano":1682,"dere":1683,"##be":1684,"exp":1685,"##ala":1686,"ins":1687,"##tir":1688,"##vid":1689,"eu":1690,"gob":1691,"##cer":1692,"vide":1693,"##ientes":1694,"tie":1695,"wh":1696,"jun":1697,"aplaudiendo":1698,"mus":1699,"##ola":1700,"era":1701,"cosas":1702,"pais":1703,"segui":1704,"##ly":1705,"dios":1706,"rep":1707,"algu":1708,"menos":1709,"##tin":1710,"tener":1711,"##ece":1712,"fle":1713,"##ador":1714,"##ismo":1715,"algun":1716,"ob":1717,"ce":1718,"dar":1719,"##ies":1720,"indice":1721,"bueno":1722,"alguien":1723,"##aba":1724,"verdad":1725,"his":1726,"##tiva":1727,"##ones":1728,"cada":1729,"sea":1730,"##nos":1731,"##bo":1732,"aqui":1733,"##mento":1734,"jus":1735,"##dar":1736,"##tido":1737,"mundo":1738,"10":1739,"mon":1740,"super":1741,"##if":1742,"##icion":1743,"contra":1744,"##ee":1745,"##ima":1746,"ami":1747,"uno":1748,"pues":1749,"mujer":1750,"estas":1751,"aun":1752,"vamos":1753,"vol":1754,"dorso":1755,"##icos":1756,"##ut":1757,"##ers":1758,"op":1759,"cono":1760,"##bol":1761,"pan":1762,"##ves":1763,"##iar":1764,"igu":1765,"##toria":1766,"##amente":1767,"##con":1768,"gen":1769,"nad":1770,"##lti":1771,"amor":1772,"##ante":1773,"hor":1774,"##mana":1775,"##istas":1776,"corazones":1777,"sac":1778,"##anos":1779,"jue":1780,"201":1781,"##ge":1782,"tiempo":1783,"cual":1784,"ol":1785,"mer":1786,"##ya":1787,"##ona":1788,"##ible":1789,"##uela":1790,"tar":1791,"escu":1792,"fac":1793,"publ":1794,"sa":1795,"tran":1796,"##imo":1797,"camb":1798,"##via":1799,"creo":1800,"igual":1801,"nadie":1802,"##par":1803,"ag":1804,"##ton":1805,"##ierno":1806,"##cio":1807,"##tando":1808,"personas":1809,"it":1810,"vos":1811,"manana":1812,"pal":1813,"lla":1814,"at":1815,"bas":1816,"video":1817,"ba":1818,"##ria":1819,"##orm":1820,"blan":1821,"cl":1822,"pun":1823,"##til":1824,"##ine":1825,"##fe":1826,"##cas":1827,"bus":1828,"equi":1829,"19":1830,"vis":1831,"impor":1832,"tanto":1833,"despues":1834,"##zando":1835,"##ment":1836,"##gua":1837,"mismo":1838,"##gas":1839,"##tado":1840,"mex":1841,"frente":1842,"pens":1843,"ganas":1844,"##rec":1845,"def":1846,"##ame":1847,"tr":1848,"jajaj":1849,"bol":1850,"##um":1851,"han":1852,"pes":1853,"cr":1854,"ulti":1855,"ci":1856,"ga":1857,"may":1858,"##olo":1859,"fam":1860,"rojo":1861,"van":1862,"af":1863,"puedo":1864,"##tion":1865,"##ision":1866,"lan":1867,"otro":1868,"ban":1869,"segu":1870,"decir":1871,"levan":1872,"mam":1873,"##ial":1874,"amig":1875,"mat":1876,"##ril":1877,"##ps":1878,"inc":1879,"otra":1880,"cuenta":1881,"##cuer":1882,"##duc":1883,"presid":1884,"cap":1885,"haciendo":1886,"tienen":1887,"##tivo":1888,"esper":1889,"##eza":1890,"cump":1891,"##na":1892,"venez":1893,"##tura":1894,"##tre":1895,"famil":1896,"final":1897,"cul":1898,"gobierno":1899,"##ck":1900,"##adas":1901,"grande":1902,"nuevo":1903,"plan":1904,"##ted":1905,"##aciones":1906,"abajo":1907,"beso":1908,"this":1909,"##ach":1910,"##arios":1911,"dice":1912,"vuel":1913,"tal":1914,"##pas":1915,"ja":1916,"##itar":1917,"my":1918,"##jos":1919,"##eria":1920,"##entes":1921,"##ieron":1922,"boca":1923,"##racion":1924,"polit":1925,"dan":1926,"ahi":1927,"mierda":1928,"##end":1929,"##inos":1930,"##rib":1931,"pod":1932,"##cal":1933,"den":1934,"sh":1935,"az":1936,"##aje":1937,"eres":1938,"##idades":1939,"todas":1940,"##gn":1941,"semana":1942,"bal":1943,"comun":1944,"foto":1945,"##illa":1946,"ale":1947,"pasa":1948,"##mir":1949,"gusta":1950,"inv":1951,"##mia":1952,"trabaj":1953,"gol":1954,"abra":1955,"antes":1956,"cir":1957,"##cel":1958,"estamos":1959,"##acional":1960,"derecha":1961,"segun":1962,"##mag":1963,"##ile":1964,"estos":1965,"je":1966,"poco":1967,"nuestro":1968,"sub":1969,"##tad":1970,"that":1971,"fut":1972,"##tada":1973,"##eros":1974,"arri":1975,"pin":1976,"poder":1977,"##ill":1978,"##miento":1979,"sonrientes":1980,"muer":1981,"##ith":1982,"vic":1983,"##guen":1984,"pregun":1985,"##eo":1986,"imag":1987,"##li":1988,"##mon":1989,"futbol":1990,"sera":1991,"mie":1992,"blanco":1993,"fun":1994,"rt":1995,"##br":1996,"camp":1997,"arg":1998,"##itos":1999,"dec":2000,"av":2001,"fa":2002,"clas":2003,"queda":2004,"mexico":2005,"sos":2006,"##ern":2007,"trabajo":2008,"perf":2009,"##una":2010,"termin":2011,"felic":2012,"tus":2013,"veces":2014,"##icia":2015,"parte":2016,"##sj":2017,"momento":2018,"parece":2019,"##don":2020,"##udad":2021,"temp":2022,"##haha":2023,"##dan":2024,"cele":2025,"##gia":2026,"##ite":2027,"falta":2028,"paso":2029,"##alo":2030,"##sul":2031,"##tante":2032,"tor":2033,"estud":2034,"em":2035,"##culo":2036,"##uda":2037,"somos":2038,"##ber":2039,"acab":2040,"##tel":2041,"bon":2042,"extr":2043,"##ds":2044,"arriba":2045,"argent":2046,"rad":2047,"trans":2048,"hermos":2049,"ciudad":2050,"##rob":2051,"are":2052,"noche":2053,"twit":2054,"##pp":2055,"##char":2056,"vas":2057,"fl":2058,"apoy":2059,"estado":2060,"music":2061,"azul":2062,"##lic":2063,"with":2064,"estaba":2065,"ellos":2066,"##aria":2067,"ojo":2068,"##able":2069,"colo":2070,"##xion":2071,"##icio":2072,"venezuela":2073,"fan":2074,"cri":2075,"pra":2076,"vio":2077,"hora":2078,"##tv":2079,"salud":2080,"ella":2081,"##pi":2082,"presidente":2083,"sor":2084,"quiere":2085,"ade":2086,"direc":2087,"covid":2088,"##ea":2089,"jug":2090,"madre":2091,"##ridad":2092,"buena":2093,"miedo":2094,"##igh":2095,"##irus":2096,"vien":2097,"##titu":2098,"pl":2099,"nao":2100,"cuar":2101,"##var":2102,"##ks":2103,"sec":2104,"respon":2105,"frio":2106,"##ist":2107,"##rr":2108,"##iso":2109,"nuestra":2110,"##pos":2111,"##ular":2112,"prof":2113,"oracion":2114,"fuego":2115,"##elo":2116,"amigos":2117,"estu":2118,"historia":2119,"##cuerdo":2120,"dormir":2121,"pelo":2122,"##adores":2123,"##yo":2124,"##idas":2125,"##orado":2126,"lanzando":2127,"pueb":2128,"##lante":2129,"##aran":2130,"senal":2131,"##icas":2132,"gt":2133,"##dia":2134,"##ub":2135,"muchas":2136,"proble":2137,"aca":2138,"##tual":2139,"mill":2140,"##izo":2141,"elec":2142,"espana":2143,"salir":2144,"fi":2145,"##ula":2146,"flecha":2147,"demas":2148,"tenemos":2149,"##ack":2150,"##rid":2151,"##sion":2152,"##aca":2153,"cuan":2154,"##ollo":2155,"nueva":2156,"partido":2157,"##ss":2158,"gri":2159,"puta":2160,"##ich":2161,"##trar":2162,"unos":2163,"mira":2164,"##ff":2165,"amp":2166,"30":2167,"ide":2168,"social":2169,"buenos":2170,"##eral":2171,"comer":2172,"bel":2173,"##gro":2174,"##zar":2175,"sabe":2176,"##idos":2177,"##vio":2178,"15":2179,"##ale":2180,"##rel":2181,"dol":2182,"##nes":2183,"homb":2184,"##ajajajaj":2185,"##ecto":2186,"cuer":2187,"##inando":2188,"fuera":2189,"compar":2190,"##illo":2191,"cualqui":2192,"##rado":2193,"##itas":2194,"##iera":2195,"amigo":2196,"##imos":2197,"ref":2198,"tele":2199,"##eando":2200,"equipo":2201,"##oles":2202,"ning":2203,"##gos":2204,"circulo":2205,"##ere":2206,"mtv":2207,"##dido":2208,"cier":2209,"pensa":2210,"seguir":2211,"##ulo":2212,"familia":2213,"dijo":2214,"marca":2215,"##pcion":2216,"##cos":2217,"##len":2218,"##mm":2219,"veo":2220,"poner":2221,"sigue":2222,"##ital":2223,"##lus":2224,"##use":2225,"##ii":2226,"vie":2227,"##cur":2228,"hecho":2229,"##ne":2230,"din":2231,"esos":2232,"mien":2233,"##uta":2234,"hacen":2235,"twitter":2236,"len":2237,"##mes":2238,"hablar":2239,"cabeza":2240,"siento":2241,"cha":2242,"amar":2243,"##gres":2244,"##eta":2245,"##ka":2246,"peor":2247,"##tica":2248,"recor":2249,"domin":2250,"sudor":2251,"cui":2252,"by":2253,"12":2254,"argentina":2255,"##eci":2256,"##ban":2257,"##ron":2258,"horas":2259,"##otros":2260,"cumple":2261,"xd":2262,"har":2263,"saber":2264,"che":2265,"ec":2266,"pul":2267,"dejar":2268,"necesito":2269,"##tru":2270,"##ticia":2271,"tienes":2272,"bab":2273,"debe":2274,"primera":2275,"##iceps":2276,"flexion":2277,"reci":2278,"estrel":2279,"biceps":2280,"##vil":2281,"##gado":2282,"flexionado":2283,"desa":2284,"nacional":2285,"auto":2286,"ben":2287,"##entro":2288,"##19":2289,"deja":2290,"chis":2291,"tenia":2292,"##pen":2293,"##cios":2294,"cosa":2295,"##osa":2296,"interes":2297,"ley":2298,"##iencia":2299,"encan":2300,"pensativa":2301,"##jas":2302,"primer":2303,"##ira":2304,"cru":2305,"lugar":2306,"colomb":2307,"espero":2308,"your":2309,"morado":2310,"pien":2311,"what":2312,"aten":2313,"##ior":2314,"aunque":2315,"##oria":2316,"pueblo":2317,"mientras":2318,"pueden":2319,"amb":2320,"uste":2321,"##tico":2322,"11":2323,"hombre":2324,"##kk":2325,"##inas":2326,"enten":2327,"triste":2328,"##zas":2329,"ojala":2330,"##fa":2331,"intern":2332,"ustedes":2333,"ev":2334,"##one":2335,"##tadas":2336,"bril":2337,"madrid":2338,"muchos":2339,"seria":2340,"##uego":2341,"lindo":2342,"mos":2343,"##op":2344,"##ucion":2345,"##ific":2346,"gru":2347,"habia":2348,"sho":2349,"##demos":2350,"##ura":2351,"disf":2352,"love":2353,"##ep":2354,"wor":2355,"##port":2356,"respe":2357,"apar":2358,"balon":2359,"##robacion":2360,"mama":2361,"##hh":2362,"##ys":2363,"unico":2364,"habla":2365,"coron":2366,"serv":2367,"amiga":2368,"fotos":2369,"pasar":2370,"apren":2371,"##ty":2372,"hizo":2373,"liber":2374,"new":2375,"fran":2376,"##eet":2377,"casi":2378,"ayer":2379,"otros":2380,"##ccion":2381,"gas":2382,"##ive":2383,"##rom":2384,"tarde":2385,"tec":2386,"encon":2387,"guinando":2388,"cur":2389,"luego":2390,"unas":2391,"like":2392,"haber":2393,"vac":2394,"hola":2395,"volver":2396,"##pm":2397,"rel":2398,"ele":2399,"profes":2400,"##gen":2401,"100":2402,"forma":2403,"digo":2404,"dicen":2405,"2020":2406,"##ger":2407,"perio":2408,"tipo":2409,"loco":2410,"##ight":2411,"all":2412,"tras":2413,"##entar":2414,"nosotros":2415,"agu":2416,"##ajaja":2417,"##izar":2418,"18":2419,"inform":2420,"bor":2421,"viene":2422,"partic":2423,"ur":2424,"sido":2425,"ante":2426,"##lando":2427,"not":2428,"##uu":2429,"##antes":2430,"cualquier":2431,"##avirus":2432,"acuerdo":2433,"sabes":2434,"cris":2435,"##ivers":2436,"odio":2437,"##all":2438,"visto":2439,"00":2440,"bts":2441,"##ento":2442,"empres":2443,"progra":2444,"notas":2445,"##entena":2446,"minu":2447,"mujeres":2448,"contr":2449,"defen":2450,"coronavirus":2451,"##ches":2452,"caso":2453,"bro":2454,"ayud":2455,"pad":2456,"one":2457,"tre":2458,"lado":2459,"econo":2460,"prox":2461,"desp":2462,"goo":2463,"tomar":2464,"vier":2465,"##eb":2466,"##ecta":2467,"difer":2468,"##brando":2469,"but":2470,"##ear":2471,"prop":2472,"##fas":2473,"cla":2474,"disfru":2475,"soci":2476,"sex":2477,"##eron":2478,"tend":2479,"##enos":2480,"lab":2481,"empez":2482,"encu":2483,"##king":2484,"##ila":2485,"prem":2486,"##ama":2487,"palab":2488,"fir":2489,"dinero":2490,"##ry":2491,"ped":2492,"quieren":2493,"razon":2494,"total":2495,"tro":2496,"##bar":2497,"blo":2498,"pac":2499,"##lu":2500,"chispas":2501,"enton":2502,"prin":2503,"##bas":2504,"reco":2505,"esas":2506,"cuarentena":2507,"comple":2508,"##endo":2509,"cho":2510,"##iado":2511,"##chos":2512,"lit":2513,"##ye":2514,"conse":2515,"nuev":2516,"##for":2517,"was":2518,"cel":2519,"alto":2520,"##und":2521,"##ollow":2522,"##gh":2523,"##tivos":2524,"sueno":2525,"entonces":2526,"viernes":2527,"buenas":2528,"period":2529,"##cra":2530,"llegar":2531,"fies":2532,"hue":2533,"mono":2534,"seguro":2535,"just":2536,"##mor":2537,"##iones":2538,"##ook":2539,"brillante":2540,"ges":2541,"necesita":2542,"inten":2543,"##ilidad":2544,"chile":2545,"celebrando":2546,"##mano":2547,"ej":2548,"gua":2549,"##orn":2550,"##ll":2551,"pulgar":2552,"llama":2553,"##cen":2554,"senor":2555,"tri":2556,"##imada":2557,"##rante":2558,"corru":2559,"pasado":2560,"come":2561,"##ting":2562,"compan":2563,"ai":2564,"pena":2565,"tema":2566,"##iante":2567,"##em":2568,"up":2569,"lengua":2570,"recib":2571,"##tis":2572,"calle":2573,"nuestros":2574,"salu":2575,"domingo":2576,"##ose":2577,"##para":2578,"mejores":2579,"##rados":2580,"have":2581,"amer":2582,"resul":2583,"lar":2584,"desan":2585,"um":2586,"##ual":2587,"policia":2588,"iba":2589,"##si":2590,"##fo":2591,"hos":2592,"agra":2593,"##tia":2594,"et":2595,"##ell":2596,"##wn":2597,"##erte":2598,"iz":2599,"sino":2600,"colombia":2601,"fis":2602,"euro":2603,"##zos":2604,"recu":2605,"##dores":2606,"##yas":2607,"##rio":2608,"##dicion":2609,"##gida":2610,"espan":2611,"vaya":2612,"sale":2613,"millones":2614,"tur":2615,"comida":2616,"infor":2617,"puedes":2618,"espe":2619,"mac":2620,"cen":2621,"oscu":2622,"##lado":2623,"hic":2624,"##ivel":2625,"tru":2626,"##uro":2627,"jul":2628,"tres":2629,"jugar":2630,"paz":2631,"aco":2632,"##eti":2633,"ens":2634,"guar":2635,"vale":2636,"verde":2637,"##mentos":2638,"abo":2639,"desanimada":2640,"levantadas":2641,"funcion":2642,"##atos":2643,"todavia":2644,"musicales":2645,"informacion":2646,"top":2647,"pensar":2648,"##amiento":2649,"##jar":2650,"meses":2651,"ases":2652,"emb":2653,"espera":2654,"##cri":2655,"##icar":2656,"problema":2657,"##taria":2658,"agua":2659,"##unes":2660,"##ientos":2661,"bl":2662,"negro":2663,"wo":2664,"produc":2665,"##resion":2666,"actual":2667,"nota":2668,"##tima":2669,"perdon":2670,"ama":2671,"##tencia":2672,"2019":2673,"romp":2674,"sup":2675,"victoria":2676,"##dez":2677,"##cado":2678,"gar":2679,"br":2680,"##ram":2681,"##migo":2682,"entra":2683,"##dida":2684,"ton":2685,"##enas":2686,"cambio":2687,"14":2688,"##iver":2689,"gana":2690,"tap":2691,"enco":2692,"parti":2693,"usted":2694,"hago":2695,"##ase":2696,"##icado":2697,"escrib":2698,"ves":2699,"misma":2700,"##menta":2701,"sig":2702,"simp":2703,"tweet":2704,"leg":2705,"##gamos":2706,"##dial":2707,"sabado":2708,"musica":2709,"dio":2710,"than":2711,"dejo":2712,"##ormal":2713,"ever":2714,"13":2715,"##ong":2716,"##ity":2717,"grupo":2718,"ang":2719,"##tif":2720,"pequ":2721,"nivel":2722,"##eras":2723,"ps":2724,"demo":2725,"importante":2726,"mara":2727,"hub":2728,"##ko":2729,"ru":2730,"ofic":2731,"vivir":2732,"##day":2733,"manera":2734,"llorar":2735,"nar":2736,"000":2737,"puer":2738,"ningun":2739,"grandes":2740,"##llo":2741,"enci":2742,"hijo":2743,"viol":2744,"##tamente":2745,"pobre":2746,"tir":2747,"proy":2748,"##ques":2749,"pier":2750,"ayuda":2751,"##cul":2752,"papa":2753,"sur":2754,"hombros":2755,"club":2756,"mucha":2757,"entr":2758,"incre":2759,"##ix":2760,"escuchar":2761,"podemos":2762,"mala":2763,"dific":2764,"organ":2765,"conta":2766,"##iza":2767,"viendo":2768,"extrano":2769,"izqui":2770,"from":2771,"##ocu":2772,"##inar":2773,"pelic":2774,"##cip":2775,"some":2776,"bra":2777,"tui":2778,"##dy":2779,"gato":2780,"##orada":2781,"ademas":2782,"##ant":2783,"##uso":2784,"enf":2785,"nav":2786,"tit":2787,"##oso":2788,"out":2789,"##isimo":2790,"##demia":2791,"exc":2792,"jam":2793,"baj":2794,"anda":2795,"prote":2796,"##aaa":2797,"##tigo":2798,"##cido":2799,"will":2800,"##vers":2801,"comprar":2802,"olv":2803,"exper":2804,"24":2805,"im":2806,"##rada":2807,"ren":2808,"play":2809,"importa":2810,"facil":2811,"pq":2812,"enfer":2813,"##ider":2814,"libertad":2815,"politica":2816,"entiendo":2817,"fil":2818,"encogida":2819,"cancion":2820,"##atro":2821,"##chas":2822,"mens":2823,"patr":2824,"ganar":2825,"flor":2826,"gor":2827,"day":2828,"16":2829,"##amo":2830,"17":2831,"pende":2832,"acabo":2833,"rap":2834,"##gio":2835,"they":2836,"mundial":2837,"plata":2838,"menti":2839,"pone":2840,"cruz":2841,"ultimo":2842,"suerte":2843,"queria":2844,"juego":2845,"siendo":2846,"##izacion":2847,"media":2848,"oscuro":2849,"saben":2850,"bail":2851,"##entos":2852,"especial":2853,"##acio":2854,"situ":2855,"pron":2856,"vir":2857,"tecn":2858,"quieres":2859,"depor":2860,"preocu":2861,"fra":2862,"nombre":2863,"##are":2864,"##ick":2865,"durante":2866,"if":2867,"lunes":2868,"vivo":2869,"fiesta":2870,"log":2871,"punto":2872,"juan":2873,"##rig":2874,"##ooo":2875,"camara":2876,"sta":2877,"sp":2878,"quedar":2879,"ninos":2880,"normal":2881,"ig":2882,"futu":2883,"gal":2884,"pid":2885,"encima":2886,"histor":2887,"##aro":2888,"justicia":2889,"##tific":2890,"joven":2891,"now":2892,"conmigo":2893,"cumpleanos":2894,"##dado":2895,"perfil":2896,"arre":2897,"minis":2898,"##uld":2899,"##guenza":2900,"realidad":2901,"primero":2902,"vs":2903,"##ace":2904,"##he":2905,"kkk":2906,"pie":2907,"##isto":2908,"deberia":2909,"##tral":2910,"aprobacion":2911,"more":2912,"programa":2913,"sigo":2914,"leer":2915,"ata":2916,"hijos":2917,"serio":2918,"dur":2919,"happ":2920,"##her":2921,"conc":2922,"babeando":2923,"guer":2924,"gafas":2925,"dificil":2926,"linda":2927,"mic":2928,"mayor":2929,"oc":2930,"cues":2931,"contin":2932,"num":2933,"human":2934,"##sus":2935,"tampo":2936,"atencion":2937,"##ind":2938,"encanta":2939,"inde":2940,"##ini":2941,"apoyo":2942,"nor":2943,"llego":2944,"##ificacion":2945,"roto":2946,"sentir":2947,"##uncia":2948,"quedo":2949,"##ional":2950,"serie":2951,"chav":2952,"pase":2953,"lpm":2954,"bomb":2955,"tranqui":2956,"confeti":2957,"tampoco":2958,"mtvla":2959,"desper":2960,"alguna":2961,"##fono":2962,"juntos":2963,"nat":2964,"chan":2965,"idea":2966,"quienes":2967,"bb":2968,"personal":2969,"apro":2970,"chu":2971,"ultima":2972,"pat":2973,"opin":2974,"radiante":2975,"##sos":2976,"cuanto":2977,"orgu":2978,"art":2979,"campe":2980,"llega":2981,"##din":2982,"25":2983,"glo":2984,"ok":2985,"anim":2986,"ago":2987,"200":2988,"cierto":2989,"21":2990,"mia":2991,"##ide":2992,"minutos":2993,"sele":2994,"get":2995,"simb":2996,"cans":2997,"##tores":2998,"##ms":2999,"inves":3000,"estrellas":3001,"##usa":3002,"izquierda":3003,"chin":3004,"celeb":3005,"meu":3006,"gre":3007,"volv":3008,"escuch":3009,"trabajar":3010,"gritando":3011,"hermosa":3012,"suf":3013,"##esta":3014,"dig":3015,"##puesta":3016,"democra":3017,"traves":3018,"lt":3019,"educ":3020,"follow":3021,"lleva":3022,"tenes":3023,"senti":3024,"confir":3025,"radio":3026,"##tina":3027,"univers":3028,"##itan":3029,"##st":3030,"haya":3031,"##gando":3032,"ros":3033,"cole":3034,"##ua":3035,"##titucion":3036,"aj":3037,"fui":3038,"##mil":3039,"excel":3040,"particip":3041,"cerrados":3042,"aque":3043,"50":3044,"ign":3045,"##tio":3046,"##ajes":3047,"fre":3048,"abrazo":3049,"mais":3050,"hermoso":3051,"respons":3052,"abrazando":3053,"##eca":3054,"olvid":3055,"sacar":3056,"abier":3057,"copa":3058,"##gada":3059,"##lla":3060,"aw":3061,"amarillo":3062,"enamo":3063,"verguenza":3064,"sep":3065,"##portun":3066,"nego":3067,"repres":3068,"luz":3069,"orden":3070,"mio":3071,"saludos":3072,"algunos":3073,"creer":3074,"ejemp":3075,"bebe":3076,"acaba":3077,"pregunta":3078,"##ecer":3079,"dra":3080,"libre":3081,"perder":3082,"imagen":3083,"perro":3084,"clase":3085,"##rir":3086,"##fi":3087,"extran":3088,"pren":3089,"movil":3090,"##my":3091,"pandemia":3092,"prue":3093,"estr":3094,"##vin":3095,"princip":3096,"##ung":3097,"junto":3098,"##icios":3099,"##fia":3100,"gusto":3101,"##tiendo":3102,"escri":3103,"sola":3104,"coment":3105,"presenta":3106,"sorp":3107,"pagar":3108,"toma":3109,"uma":3110,"investi":3111,"temporada":3112,"sir":3113,"##ler":3114,"##est":3115,"cine":3116,"voto":3117,"peop":3118,"pare":3119,"notic":3120,"##tur":3121,"publico":3122,"general":3123,"centro":3124,"haga":3125,"var":3126,"priv":3127,"otras":3128,"alta":3129,"acomp":3130,"canon":3131,"contigo":3132,"##ioridad":3133,"##cepcion":3134,"##cito":3135,"##gre":3136,"podria":3137,"seguridad":3138,"##vision":3139,"##erv":3140,"anti":3141,"people":3142,"chi":3143,"##yy":3144,"##ise":3145,"##arr":3146,"pop":3147,"##ens":3148,"corr":3149,"##now":3150,"oportun":3151,"##mando":3152,"time":3153,"mier":3154,"##tf":3155,"dicho":3156,"aud":3157,"##greso":3158,"boton":3159,"rico":3160,"cuernos":3161,"derecho":3162,"bras":3163,"##ror":3164,"int":3165,"cin":3166,"##mit":3167,"pelotu":3168,"##miendo":3169,"pedo":3170,"##macion":3171,"##ki":3172,"fueron":3173,"##arse":3174,"show":3175,"dije":3176,"siste":3177,"eh":3178,"rey":3179,"unica":3180,"ed":3181,"##rera":3182,"##gon":3183,"##ld":3184,"due":3185,"##cando":3186,"##tados":3187,"##imin":3188,"regres":3189,"##arme":3190,"hablando":3191,"hon":3192,"educacion":3193,"resp":3194,"aliv":3195,"culpa":3196,"##teg":3197,"got":3198,"hosp":3199,"when":3200,"queremos":3201,"hemos":3202,"how":3203,"##encias":3204,"america":3205,"##edad":3206,"activ":3207,"exis":3208,"precios":3209,"econom":3210,"dando":3211,"payas":3212,"cuad":3213,"star":3214,"dip":3215,"cabre":3216,"conv":3217,"##cimiento":3218,"emocion":3219,"##ancia":3220,"descu":3221,"##iana":3222,"dentro":3223,"palabras":3224,"##pel":3225,"##dito":3226,"agrade":3227,"hamb":3228,"conocer":3229,"##ans":3230,"##mer":3231,"ep":3232,"esperando":3233,"22":3234,"##taron":3235,"diciendo":3236,"liga":3237,"trump":3238,"jamas":3239,"far":3240,"##aco":3241,"ke":3242,"bir":3243,"##del":3244,"gro":3245,"##icip":3246,"char":3247,"nov":3248,"futuro":3249,"recono":3250,"##udo":3251,"casos":3252,"##jada":3253,"llevar":3254,"##tagram":3255,"entien":3256,"about":3257,"existe":3258,"##rible":3259,"fuerza":3260,"explic":3261,"##ares":3262,"respeto":3263,"bre":3264,"municip":3265,"fon":3266,"##ables":3267,"util":3268,"fes":3269,"increible":3270,"tier":3271,"##ign":3272,"public":3273,"##ph":3274,"control":3275,"##llos":3276,"acor":3277,"cambiar":3278,"cuerpo":3279,"situacion":3280,"er":3281,"llev":3282,"tv":3283,"servicio":3284,"##ins":3285,"sean":3286,"##entas":3287,"etc":3288,"ado":3289,"hermano":3290,"autor":3291,"mue":3292,"empie":3293,"santa":3294,"##tancia":3295,"haces":3296,"##ok":3297,"posible":3298,"tenga":3299,"##ciente":3300,"lig":3301,"##irl":3302,"fern":3303,"voz":3304,"##ticas":3305,"every":3306,"bajo":3307,"##quito":3308,"bonito":3309,"instagram":3310,"noticias":3311,"entender":3312,"ou":3313,"vec":3314,"verificacion":3315,"ef":3316,"libro":3317,"peru":3318,"puno":3319,"sacando":3320,"jajajajaj":3321,"cabreada":3322,"stre":3323,"dep":3324,"good":3325,"novio":3326,"sabor":3327,"realmente":3328,"##ugh":3329,"demasiado":3330,"der":3331,"##quer":3332,"##cor":3333,"##pez":3334,"##sjsj":3335,"simple":3336,"jueves":3337,"alla":3338,"##ecu":3339,"premios":3340,"querer":3341,"calor":3342,"##uestra":3343,"##aste":3344,"##mina":3345,"know":3346,"dif":3347,"vuelta":3348,"das":3349,"##dic":3350,"doc":3351,"sign":3352,"##ceso":3353,"corre":3354,"nu":3355,"unidos":3356,"gener":3357,"##rando":3358,"##ner":3359,"acep":3360,"##guay":3361,"siguen":3362,"##olucion":3363,"venezol":3364,"luna":3365,"who":3366,"segundo":3367,"beb":3368,"##unci":3369,"dev":3370,"manten":3371,"ejemplo":3372,"pesso":3373,"sistema":3374,"jose":3375,"mov":3376,"sentido":3377,"23":3378,"our":3379,"ka":3380,"gobern":3381,"max":3382,"padre":3383,"asco":3384,"anal":3385,"morir":3386,"llevo":3387,"pag":3388,"sabia":3389,"jaj":3390,"brasil":3391,"hice":3392,"alb":3393,"wa":3394,"##tacion":3395,"##mbo":3396,"##tt":3397,"estrella":3398,"ignor":3399,"invita":3400,"env":3401,"deber":3402,"dolor":3403,"mag":3404,"##ish":3405,"##lica":3406,"muerte":3407,"pele":3408,"xq":3409,"trata":3410,"enc":3411,"regal":3412,"luis":3413,"dale":3414,"happy":3415,"fas":3416,"pelicula":3417,"##tera":3418,"app":3419,"camino":3420,"##olog":3421,"##iro":3422,"coc":3423,"##ang":3424,"##ions":3425,"##ek":3426,"lopez":3427,"llu":3428,"##eis":3429,"excelente":3430,"lista":3431,"segunda":3432,"tem":3433,"culo":3434,"##teo":3435,"cob":3436,"reun":3437,"ple":3438,"mexic":3439,"##diendo":3440,"emple":3441,"bloque":3442,"malo":3443,"##iembre":3444,"agar":3445,"##aban":3446,"pense":3447,"desarr":3448,"redes":3449,"contes":3450,"##ard":3451,"red":3452,"##au":3453,"valor":3454,"##remos":3455,"##ologia":3456,"nac":3457,"##hor":3458,"nie":3459,"##erg":3460,"maduro":3461,"crisis":3462,"40":3463,"cumpl":3464,"puntos":3465,"angel":3466,"##tero":3467,"##ete":3468,"manda":3469,"##이":3470,"noches":3471,"deses":3472,"see":3473,"gui":3474,"nuestras":3475,"dejen":3476,"obl":3477,"abs":3478,"hahaha":3479,"carlos":3480,"pronto":3481,"covid19":3482,"##tivas":3483,"violencia":3484,"##ecen":3485,"buscar":3486,"usar":3487,"verga":3488,"secre":3489,"year":3490,"maria":3491,"payaso":3492,"2018":3493,"hagan":3494,"avan":3495,"moles":3496,"llamar":3497,"corrup":3498,"felicidades":3499,"hel":3500,"ans":3501,"atras":3502,"##tidad":3503,"##pera":3504,"comen":3505,"oficial":3506,"derechos":3507,"canal":3508,"ido":3509,"campana":3510,"pensando":3511,"vino":3512,"##tri":3513,"err":3514,"live":3515,"doy":3516,"sw":3517,"hombres":3518,"##dra":3519,"##tino":3520,"##istra":3521,"tanta":3522,"##iano":3523,"internacional":3524,"ejer":3525,"problemas":3526,"##ulos":3527,"gira":3528,"limp":3529,"salv":3530,"its":3531,"##uir":3532,"acos":3533,"##terio":3534,"cien":3535,"politicos":3536,"nino":3537,"relacion":3538,"proyecto":3539,"##dd":3540,"explo":3541,"partidos":3542,"encontrar":3543,"momentos":3544,"boliv":3545,"##arte":3546,"promo":3547,"##ural":3548,"rob":3549,"ee":3550,"tes":3551,"##201":3552,"best":3553,"cerv":3554,"##ther":3555,"ecu":3556,"publica":3557,"justo":3558,"##nn":3559,"mensaje":3560,"rato":3561,"cafe":3562,"alma":3563,"entrev":3564,"actu":3565,"##uito":3566,"##coles":3567,"##hib":3568,"impos":3569,"cuba":3570,"vuelve":3571,"##bu":3572,"##thing":3573,"opinion":3574,"pedir":3575,"mando":3576,"literal":3577,"reves":3578,"##ked":3579,"##sun":3580,"##lor":3581,"duda":3582,"nuevos":3583,"dispon":3584,"eno":3585,"martes":3586,"recuer":3587,"##igo":3588,"##ude":3589,"rac":3590,"prac":3591,"za":3592,"##imen":3593,"diga":3594,"##vel":3595,"toca":3596,"superioridad":3597,"gon":3598,"alcal":3599,"faceb":3600,"fer":3601,"##ink":3602,"abur":3603,"##rano":3604,"busca":3605,"##isco":3606,"mane":3607,"bene":3608,"sigu":3609,"videos":3610,"sociales":3611,"ing":3612,"facebook":3613,"obs":3614,"mascar":3615,"elecciones":3616,"entren":3617,"##izado":3618,"rod":3619,"##ole":3620,"##ris":3621,"habra":3622,"amlo":3623,"edu":3624,"desc":3625,"##quen":3626,"##yan":3627,"il":3628,"miercoles":3629,"##adora":3630,"amigas":3631,"ber":3632,"even":3633,"proximo":3634,"##ifica":3635,"cuatro":3636,"##sas":3637,"rapido":3638,"onda":3639,"sociedad":3640,"##iedad":3641,"##tw":3642,"##zan":3643,"jar":3644,"bur":3645,"aguan":3646,"jorn":3647,"repu":3648,"contag":3649,"ahor":3650,"##imiento":3651,"suel":3652,"hicieron":3653,"decision":3654,"numero":3655,"##iva":3656,"conoce":3657,"pud":3658,"rio":3659,"##tantes":3660,"comb":3661,"salio":3662,"##ak":3663,"prepara":3664,"cama":3665,"pienso":3666,"rosa":3667,"duele":3668,"##ines":3669,"acer":3670,"say":3671,"##uelo":3672,"usa":3673,"bailando":3674,"tremen":3675,"messi":3676,"dud":3677,"creciente":3678,"esperan":3679,"virus":3680,"##ivo":3681,"inclus":3682,"bet":3683,"martin":3684,"##rian":3685,"lider":3686,"basta":3687,"bru":3688,"conten":3689,"##cep":3690,"julio":3691,"desap":3692,"vin":3693,"puesto":3694,"##ure":3695,"##way":3696,"##puesto":3697,"##gacion":3698,"estados":3699,"ocu":3700,"seas":3701,"##vos":3702,"here":3703,"capac":3704,"esti":3705,"info":3706,"##tien":3707,"esperar":3708,"empezar":3709,"##alu":3710,"wat":3711,"mig":3712,"preocup":3713,"##ese":3714,"##torios":3715,"regalo":3716,"##cier":3717,"nomas":3718,"deben":3719,"candida":3720,"guerra":3721,"bil":3722,"pasando":3723,"silen":3724,"posi":3725,"hol":3726,"darle":3727,"team":3728,"quis":3729,"dro":3730,"##bles":3731,"ko":3732,"stream":3733,"descan":3734,"cd":3735,"alcan":3736,"votar":3737,"##duci":3738,"tuv":3739,"seman":3740,"world":3741,"idio":3742,"mayo":3743,"estudiar":3744,"enter":3745,"##ticos":3746,"fantas":3747,"back":3748,"ass":3749,"nic":3750,"clases":3751,"consegui":3752,"ninguna":3753,"arran":3754,"llegue":3755,"black":3756,"vive":3757,"##bal":3758,"faz":3759,"aus":3760,"cree":3761,"gesto":3762,"fuck":3763,"datos":3764,"puto":3765,"sk":3766,"agotada":3767,"cerca":3768,"hubiera":3769,"polic":3770,"mel":3771,"web":3772,"uso":3773,"dado":3774,"hambre":3775,"bola":3776,"noticia":3777,"##acer":3778,"nooo":3779,"chicos":3780,"lucha":3781,"##osicion":3782,"saboreando":3783,"##dencia":3784,"permi":3785,"meter":3786,"any":3787,"respuesta":3788,"hacerlo":3789,"corrupcion":3790,"she":3791,"recuerdo":3792,"hilo":3793,"republ":3794,"##xs":3795,"medios":3796,"repor":3797,"##xico":3798,"senora":3799,"##mientos":3800,"leon":3801,"##berto":3802,"orto":3803,"tierra":3804,"obje":3805,"pueda":3806,"barcel":3807,"##ric":3808,"hospital":3809,"cra":3810,"##art":3811,"##ings":3812,"fri":3813,"consu":3814,"jugadores":3815,"##ectos":3816,"jugador":3817,"quiera":3818,"lluvia":3819,"mayoria":3820,"##iales":3821,"##usion":3822,"local":3823,"aprove":3824,"decepcion":3825,"##lara":3826,"sto":3827,"acompan":3828,"mate":3829,"viva":3830,"hija":3831,"terror":3832,"ahre":3833,"##21":3834,"sens":3835,"sabemos":3836,"##sh":3837,"demos":3838,"protes":3839,"obra":3840,"deba":3841,"aaa":3842,"youtu":3843,"lim":3844,"papel":3845,"pab":3846,"##2019":3847,"desaprobacion":3848,"tren":3849,"seu":3850,"##andom":3851,"detal":3852,"vai":3853,"terminar":3854,"informa":3855,"oh":3856,"merece":3857,"signo":3858,"##uras":3859,"simbolo":3860,"pic":3861,"pequeno":3862,"vieja":3863,"spo":3864,"maes":3865,"ayudar":3866,"##tamos":3867,"viejo":3868,"seguimos":3869,"##ᅡᆫ":3870,"deje":3871,"##tie":3872,"quede":3873,"cad":3874,"##gal":3875,"win":3876,"cerveza":3877,"##up":3878,"obvio":3879,"sonro":3880,"memo":3881,"labor":3882,"boy":3883,"aleg":3884,"chil":3885,"comien":3886,"luces":3887,"##quis":3888,"aso":3889,"dir":3890,"navidad":3891,"mandar":3892,"mur":3893,"politico":3894,"aman":3895,"##mun":3896,"arte":3897,"intel":3898,"recuper":3899,"##inal":3900,"digan":3901,"blanca":3902,"minha":3903,"bastante":3904,"##villa":3905,"##paz":3906,"congreso":3907,"##ning":3908,"##dp":3909,"div":3910,"capital":3911,"quin":3912,"matar":3913,"entrar":3914,"directo":3915,"##entan":3916,"jor":3917,"paises":3918,"civ":3919,"podes":3920,"eran":3921,"ara":3922,"exig":3923,"resto":3924,"##ulas":3925,"##iada":3926,"internet":3927,"contar":3928,"##2020":3929,"desapar":3930,"##zco":3931,"tapados":3932,"##ime":3933,"resu":3934,"##mpos":3935,"solucion":3936,"equivo":3937,"##ianza":3938,"artic":3939,"him":3940,"militar":3941,"venir":3942,"musical":3943,"ase":3944,"rid":3945,"need":3946,"##osto":3947,"herman":3948,"##pend":3949,"verano":3950,"pedi":3951,"ilus":3952,"barcelona":3953,"queres":3954,"##rias":3955,"precio":3956,"##tran":3957,"sorpren":3958,"aire":3959,"kar":3960,"carrera":3961,"dicta":3962,"correc":3963,"quedate":3964,"sonrojada":3965,"##jan":3966,"##dura":3967,"durmiendo":3968,"nina":3969,"##gg":3970,"trofe":3971,"26":3972,"##erta":3973,"medidas":3974,"bic":3975,"novia":3976,"conven":3977,"##ioso":3978,"recien":3979,"golpe":3980,"28":3981,"entrevista":3982,"economia":3983,"electr":3984,"##pan":3985,"banda":3986,"consul":3987,"prome":3988,"escuela":3989,"##table":3990,"solid":3991,"##ique":3992,"##tito":3993,"fras":3994,"espanol":3995,"flo":3996,"europa":3997,"##ik":3998,"beca":3999,"foi":4000,"riv":4001,"bat":4002,"pp":4003,"##miaw":4004,"ital":4005,"benefic":4006,"fiscal":4007,"oro":4008,"pessoas":4009,"compra":4010,"manif":4011,"lor":4012,"edad":4013,"##10":4014,"##iel":4015,"color":4016,"empresa":4017,"celular":4018,"cop":4019,"hermana":4020,"cerrado":4021,"##leta":4022,"zona":4023,"jeje":4024,"diario":4025,"urg":4026,"##chez":4027,"##tarse":4028,"juega":4029,"ran":4030,"campeon":4031,"mol":4032,"felicidad":4033,"trofeo":4034,"##tarme":4035,"##curso":4036,"encuentro":4037,"palabra":4038,"27":4039,"mente":4040,"oportunidad":4041,"##kes":4042,"##ibles":4043,"profesional":4044,"dont":4045,"ensen":4046,"termino":4047,"##dando":4048,"##acho":4049,"ecuador":4050,"globo":4051,"expres":4052,"delin":4053,"jajajajajajaj":4054,"joder":4055,"prob":4056,"vacaciones":4057,"gestion":4058,"tuit":4059,"jajajaja":4060,"esperamos":4061,"fecha":4062,"##iga":4063,"##ator":4064,"oblig":4065,"absol":4066,"off":4067,"prohib":4068,"##tec":4069,"reac":4070,"gano":4071,"chec":4072,"medic":4073,"hin":4074,"feo":4075,"linea":4076,"##rido":4077,"champ":4078,"calidad":4079,"femin":4080,"sob":4081,"tiempos":4082,"telefono":4083,"exo":4084,"sector":4085,"china":4086,"empresas":4087,"ropa":4088,"juro":4089,"##zada":4090,"capit":4091,"pide":4092,"mach":4093,"mental":4094,"##hy":4095,"album":4096,"gustaria":4097,"pongo":4098,"abor":4099,"##mado":4100,"cultura":4101,"dese":4102,"contac":4103,"##ket":4104,"##line":4105,"constitucion":4106,"today":4107,"perd":4108,"stor":4109,"gil":4110,"##truc":4111,"did":4112,"recomen":4113,"##ker":4114,"##tle":4115,"algunas":4116,"varios":4117,"prepar":4118,"sanchez":4119,"##iti":4120,"micro":4121,"only":4122,"mtvmiaw":4123,"##fico":4124,"##dita":4125,"familiar":4126,"venta":4127,"##mad":4128,"##ire":4129,"die":4130,"##icamente":4131,"deten":4132,"inicia":4133,"partir":4134,"eleg":4135,"sil":4136,"vemos":4137,"comunidad":4138,"##unt":4139,"##abilidad":4140,"imposible":4141,"tenido":4142,"##hu":4143,"chica":4144,"muertos":4145,"##dem":4146,"nas":4147,"##anas":4148,"jornada":4149,"igles":4150,"atra":4151,"want":4152,"##ft":4153,"descar":4154,"naran":4155,"totalmente":4156,"extra":4157,"baja":4158,"intelig":4159,"lejos":4160,"estaria":4161,"apor":4162,"ching":4163,"##cheta":4164,"##isima":4165,"apre":4166,"isso":4167,"gratis":4168,"dr":4169,"corona":4170,"##gues":4171,"levantada":4172,"vc":4173,"feel":4174,"##eee":4175,"##ilo":4176,"dedo":4177,"##respon":4178,"##lash":4179,"cae":4180,"wey":4181,"refle":4182,"exac":4183,"youtube":4184,"##ull":4185,"penal":4186,"alivio":4187,"decirl":4188,"paro":4189,"tio":4190,"##ny":4191,"##quia":4192,"##tubre":4193,"loca":4194,"ridic":4195,"tantas":4196,"ses":4197,"game":4198,"ge":4199,"##cre":4200,"##iando":4201,"refer":4202,"doble":4203,"ron":4204,"hablo":4205,"##mental":4206,"##ficiente":4207,"colec":4208,"cont":4209,"lis":4210,"##rito":4211,"pil":4212,"hal":4213,"tin":4214,"chincheta":4215,"duer":4216,"viaje":4217,"conver":4218,"jugando":4219,"cic":4220,"falle":4221,"pelig":4222,"their":4223,"democracia":4224,"##turas":4225,"##amos":4226,"cielo":4227,"maravil":4228,"make":4229,"adelante":4230,"esf":4231,"eng":4232,"libros":4233,"please":4234,"tat":4235,"apa":4236,"delincu":4237,"##medad":4238,"##ju":4239,"bos":4240,"creen":4241,"##ducir":4242,"venga":4243,"disfrutar":4244,"because":4245,"ries":4246,"##eramente":4247,"distin":4248,"elimin":4249,"river":4250,"rus":4251,"lad":4252,"octubre":4253,"supon":4254,"ocur":4255,"them":4256,"preven":4257,"there":4258,"ponen":4259,"haz":4260,"quedan":4261,"om":4262,"frien":4263,"defender":4264,"##lada":4265,"##we":4266,"dem":4267,"acu":4268,"seleccion":4269,"olvida":4270,"natural":4271,"jovenes":4272,"colab":4273,"##oll":4274,"##ienta":4275,"##arlo":4276,"##yendo":4277,"concier":4278,"pinche":4279,"semanas":4280,"##mber":4281,"thank":4282,"over":4283,"mirar":4284,"##andez":4285,"aprender":4286,"sat":4287,"tuve":4288,"convers":4289,"macri":4290,"humor":4291,"##tivamente":4292,"provin":4293,"canciones":4294,"mismos":4295,"peda":4296,"oper":4297,"##sar":4298,"palo":4299,"pareja":4300,"recuerda":4301,"non":4302,"##ally":4303,"##amer":4304,"sent":4305,"agre":4306,"big":4307,"gab":4308,"##dj":4309,"##zz":4310,"##illas":4311,"abril":4312,"visita":4313,"pablo":4314,"prec":4315,"##imas":4316,"bonita":4317,"bend":4318,"pho":4319,"army":4320,"siii":4321,"aga":4322,"cub":4323,"chor":4324,"evitar":4325,"largo":4326,"life":4327,"aut":4328,"impues":4329,"seguidores":4330,"listo":4331,"funda":4332,"bron":4333,"mentira":4334,"automa":4335,"marcha":4336,"##lix":4337,"plaza":4338,"segura":4339,"giratorios":4340,"mata":4341,"##itor":4342,"##yn":4343,"desespera":4344,"banco":4345,"cat":4346,"lol":4347,"##torio":4348,"##uerzo":4349,"##talla":4350,"##lia":4351,"ot":4352,"subir":4353,"inver":4354,"fla":4355,"##damos":4356,"##amen":4357,"estra":4358,"tengan":4359,"cuestion":4360,"fondo":4361,"vote":4362,"repro":4363,"expresion":4364,"##nt":4365,"miles":4366,"##ley":4367,"##itario":4368,"comunic":4369,"jesus":4370,"##pol":4371,"##acao":4372,"cansada":4373,"ste":4374,"asegu":4375,"##val":4376,"##tiembre":4377,"pus":4378,"clima":4379,"##dente":4380,"##ate":4381,"temprano":4382,"critic":4383,"##quiera":4384,"robo":4385,"cuantos":4386,"ador":4387,"inicio":4388,"##roso":4389,"termine":4390,"civil":4391,"aplic":4392,"pasan":4393,"arro":4394,"marzo":4395,"estudian":4396,"silencio":4397,"version":4398,"prensa":4399,"despe":4400,"pruebas":4401,"disponible":4402,"##ave":4403,"##olas":4404,"repe":4405,"orgullo":4406,"rela":4407,"patria":4408,"cach":4409,"aband":4410,"feder":4411,"##sen":4412,"colegio":4413,"orgullos":4414,"animo":4415,"estudio":4416,"##olos":4417,"hacemos":4418,"compartir":4419,"reir":4420,"##taje":4421,"extre":4422,"debate":4423,"termina":4424,"##orme":4425,"compro":4426,"decia":4427,"##itaria":4428,"basura":4429,"uru":4430,"way":4431,"##quin":4432,"##ation":4433,"concha":4434,"defensa":4435,"junio":4436,"##iantina":4437,"too":4438,"independ":4439,"terra":4440,"post":4441,"dieron":4442,"eter":4443,"padres":4444,"inco":4445,"hipo":4446,"##ieran":4447,"reti":4448,"siente":4449,"nuevas":4450,"sel":4451,"##cada":4452,"stan":4453,"vista":4454,"trabajando":4455,"ultimos":4456,"condicion":4457,"rin":4458,"deseo":4459,"tiro":4460,"diferencia":4461,"flash":4462,"mercado":4463,"barrio":4464,"##sel":4465,"horrible":4466,"netf":4467,"war":4468,"presu":4469,"why":4470,"experiencia":4471,"duro":4472,"##enda":4473,"rat":4474,"mater":4475,"ofre":4476,"air":4477,"##ibilidad":4478,"costa":4479,"##ters":4480,"fans":4481,"90":4482,"arbol":4483,"naranja":4484,"pedro":4485,"historias":4486,"netflix":4487,"buscando":4488,"empieza":4489,"fab":4490,"millon":4491,"bad":4492,"##trando":4493,"despier":4494,"iden":4495,"cuentas":4496,"mode":4497,"septiembre":4498,"home":4499,"digital":4500,"jajaja":4501,"santia":4502,"##tres":4503,"really":4504,"first":4505,"tuvo":4506,"exa":4507,"torn":4508,"felices":4509,"podia":4510,"esse":4511,"vou":4512,"republica":4513,"dudas":4514,"arreg":4515,"refor":4516,"muero":4517,"been":4518,"ciudadanos":4519,"campo":4520,"adver":4521,"exito":4522,"desarrollo":4523,"##isas":4524,"mueca":4525,"minimo":4526,"puerto":4527,"##ect":4528,"never":4529,"presente":4530,"##monio":4531,"estuv":4532,"ud":4533,"##cap":4534,"##ilio":4535,"insul":4536,"poquito":4537,"popular":4538,"##wer":4539,"oye":4540,"curso":4541,"again":4542,"cuesta":4543,"leo":4544,"dav":4545,"jud":4546,"##eco":4547,"##sual":4548,"genial":4549,"hero":4550,"recordar":4551,"animal":4552,"corte":4553,"##ses":4554,"##jun":4555,"##vent":4556,"##ex":4557,"dejan":4558,"pob":4559,"baby":4560,"##mx":4561,"finde":4562,"500":4563,"lec":4564,"##came":4565,"insta":4566,"##mis":4567,"##tria":4568,"ultimas":4569,"##isis":4570,"cola":4571,"80":4572,"week":4573,"##ical":4574,"puso":4575,"mesa":4576,"europe":4577,"perfecto":4578,"tb":4579,"##iciones":4580,"trabajadores":4581,"dices":4582,"sim":4583,"vayan":4584,"##ws":4585,"##till":4586,"selec":4587,"clara":4588,"cualquiera":4589,"significa":4590,"reb":4591,"querido":4592,"goles":4593,"29":4594,"narco":4595,"##inda":4596,"puro":4597,"defini":4598,"pido":4599,"ingles":4600,"ana":4601,"continu":4602,"##lamacion":4603,"ellas":4604,"engan":4605,"voce":4606,"uruguay":4607,"##rero":4608,"##tora":4609,"garan":4610,"neta":4611,"##nas":4612,"##ense":4613,"##bi":4614,"hablan":4615,"##hs":4616,"##queo":4617,"cargo":4618,"##puestas":4619,"##tem":4620,"santiago":4621,"bienven":4622,"whatsa":4623,"##terior":4624,"##uido":4625,"salen":4626,"##ergia":4627,"calles":4628,"let":4629,"mascarilla":4630,"epo":4631,"cn":4632,"sirve":4633,"dul":4634,"##san":4635,"##leza":4636,"rock":4637,"admin":4638,"lea":4639,"enfada":4640,"encar":4641,"llena":4642,"##grafia":4643,"lamenta":4644,"realiz":4645,"pago":4646,"diver":4647,"choc":4648,"felicita":4649,"universidad":4650,"##cida":4651,"barca":4652,"muito":4653,"jajajajaja":4654,"constru":4655,"ligeramente":4656,"would":4657,"gustan":4658,"rodri":4659,"miguel":4660,"legal":4661,"nove":4662,"trib":4663,"perdi":4664,"after":4665,"siquiera":4666,"##gs":4667,"llen":4668,"31":4669,"opcion":4670,"comentarios":4671,"depen":4672,"calla":4673,"modo":4674,"lastima":4675,"discul":4676,"docu":4677,"pendejo":4678,"##ienda":4679,"deberian":4680,"##hol":4681,"solic":4682,"hojas":4683,"estuvo":4684,"oposicion":4685,"nomb":4686,"sar":4687,"capaz":4688,"rub":4689,"dirig":4690,"causa":4691,"##cura":4692,"ministro":4693,"##tilla":4694,"alli":4695,"incluso":4696,"diciembre":4697,"disco":4698,"dom":4699,"genero":4700,"carajo":4701,"##bit":4702,"##ky":4703,"##ze":4704,"##lec":4705,"admi":4706,"suce":4707,"proceso":4708,"whatsapp":4709,"##ding":4710,"mitad":4711,"bella":4712,"##ku":4713,"puse":4714,"sigan":4715,"pis":4716,"nin":4717,"metro":4718,"imagin":4719,"pregunto":4720,"convo":4721,"nacion":4722,"recur":4723,"eta":4724,"recha":4725,"ded":4726,"##tive":4727,"regimen":4728,"desesperada":4729,"eeuu":4730,"viento":4731,"60":4732,"necesitamos":4733,"agosto":4734,"##hi":4735,"##get":4736,"##pu":4737,"accion":4738,"##lin":4739,"##ianos":4740,"television":4741,"necesario":4742,"escribir":4743,"raro":4744,"tol":4745,"equipos":4746,"resultados":4747,"##tiz":4748,"declara":4749,"crea":4750,"crimin":4751,"##enci":4752,"##fon":4753,"##arias":4754,"##itch":4755,"mmm":4756,"##erio":4757,"##pre":4758,"##aso":4759,"besos":4760,"##entra":4761,"##alla":4762,"servicios":4763,"puerta":4764,"won":4765,"norte":4766,"muchisimo":4767,"##entando":4768,"##ela":4769,"pd":4770,"2017":4771,"alim":4772,"##uros":4773,"girl":4774,"exclamacion":4775,"villa":4776,"kcame":4777,"caer":4778,"espacio":4779,"bio":4780,"##jaj":4781,"ando":4782,"cuidar":4783,"gh":4784,"##xt":4785,"kcamexico":4786,"unf":4787,"central":4788,"##ded":4789,"honor":4790,"anoche":4791,"sou":4792,"##int":4793,"tac":4794,"##uca":4795,"trabaja":4796,"##tear":4797,"error":4798,"saco":4799,"estup":4800,"cata":4801,"piensa":4802,"caliente":4803,"ger":4804,"alco":4805,"victi":4806,"cuida":4807,"ech":4808,"entrada":4809,"multi":4810,"ate":4811,"amena":4812,"##ardo":4813,"familias":4814,"##hhh":4815,"sr":4816,"tig":4817,"##tm":4818,"especi":4819,"descub":4820,"denuncia":4821,"link":4822,"free":4823,"tab":4824,"##ello":4825,"##jes":4826,"representa":4827,"sha":4828,"playa":4829,"##bes":4830,"simplemente":4831,"conozco":4832,"sam":4833,"vienen":4834,"pesar":4835,"andar":4836,"##iosa":4837,"dano":4838,"cancer":4839,"siga":4840,"tho":4841,"##gle":4842,"##porte":4843,"apenas":4844,"maravillos":4845,"##ily":4846,"cordo":4847,"conte":4848,"humanos":4849,"siguiente":4850,"pagina":4851,"gr":4852,"##cera":4853,"45":4854,"escuchando":4855,"cagar":4856,"pm":4857,"##teria":4858,"mete":4859,"votos":4860,"suenos":4861,"think":4862,"##tian":4863,"propio":4864,"imb":4865,"vecinos":4866,"##jeron":4867,"##ways":4868,"##ᅡᆼ":4869,"tour":4870,"nam":4871,"alberto":4872,"argu":4873,"grogui":4874,"ph":4875,"dign":4876,"proxima":4877,"corriendo":4878,"colision":4879,"aleman":4880,"recla":4881,"vidas":4882,"anton":4883,"distancia":4884,"spe":4885,"pesos":4886,"lleno":4887,"mul":4888,"##bil":4889,"liv":4890,"ello":4891,"##encial":4892,"orig":4893,"online":4894,"arco":4895,"quem":4896,"ingres":4897,"stop":4898,"somb":4899,"sonrisa":4900,"revolucion":4901,"carcel":4902,"sangre":4903,"##ᅳᆫ":4904,"urgente":4905,"diferente":4906,"##tida":4907,"quisiera":4908,"essa":4909,"catal":4910,"cero":4911,"read":4912,"35":4913,"cuento":4914,"amista":4915,"salga":4916,"abierta":4917,"neu":4918,"##tions":4919,"##trado":4920,"frus":4921,"institu":4922,"suena":4923,"dialo":4924,"premio":4925,"els":4926,"pode":4927,"temas":4928,"wan":4929,"##cidos":4930,"##uno":4931,"dm":4932,"estadio":4933,"concierto":4934,"##gados":4935,"##sea":4936,"cuidado":4937,"estudiantes":4938,"viola":4939,"indus":4940,"tae":4941,"##voz":4942,"##od":4943,"huel":4944,"##itacion":4945,"mc":4946,"sexual":4947,"##ood":4948,"compl":4949,"asus":4950,"memoria":4951,"##ying":4952,"##erado":4953,"dura":4954,"japon":4955,"crees":4956,"stu":4957,"debemos":4958,"##ards":4959,"rica":4960,"huevo":4961,"jung":4962,"cone":4963,"chico":4964,"apun":4965,"##blo":4966,"esperanza":4967,"look":4968,"estaban":4969,"tom":4970,"carn":4971,"estara":4972,"into":4973,"##onas":4974,"##ania":4975,"##isla":4976,"verte":4977,"##ᅵᆫ":4978,"ideas":4979,"sem":4980,"##ecido":4981,"examen":4982,"consecu":4983,"champions":4984,"prueba":4985,"vomit":4986,"riesgo":4987,"capitulo":4988,"##ecio":4989,"enero":4990,"feste":4991,"##titud":4992,"empren":4993,"evid":4994,"miss":4995,"pobl":4996,"resultado":4997,"mantener":4998,"tantos":4999,"enfadada":5000,"ansiedad":5001,"panama":5002,"lograr":5003,"suspen":5004,"##onia":5005,"especta":5006,"fracas":5007,"triun":5008,"inte":5009,"quieras":5010,"alegria":5011,"##istemo":5012,"mencion":5013,"completo":5014,"vomitando":5015,"yes":5016,"latiendo":5017,"##dir":5018,"ras":5019,"interesante":5020,"moral":5021,"joda":5022,"tudo":5023,"avis":5024,"automatic":5025,"advertencia":5026,"tengas":5027,"right":5028,"##rones":5029,"same":5030,"contrario":5031,"seran":5032,"varias":5033,"##cular":5034,"paja":5035,"perdido":5036,"periodista":5037,"atle":5038,"##brero":5039,"pidiendo":5040,"##ney":5041,"muerto":5042,"venezolanos":5043,"imagina":5044,"celebra":5045,"preten":5046,"piz":5047,"energia":5048,"presion":5049,"prefi":5050,"vox":5051,"##resa":5052,"huevos":5053,"form":5054,"medica":5055,"diferentes":5056,"recibir":5057,"lic":5058,"elector":5059,"compe":5060,"saque":5061,"cantidad":5062,"km":5063,"fasc":5064,"##gri":5065,"provo":5066,"pobres":5067,"tia":5068,"##mision":5069,"comprom":5070,"70":5071,"still":5072,"gay":5073,"escucha":5074,"cuarto":5075,"administra":5076,"dibu":5077,"roman":5078,"propia":5079,"##fff":5080,"publicar":5081,"gobier":5082,"escon":5083,"dele":5084,"sevilla":5085,"cambia":5086,"humano":5087,"suficiente":5088,"##by":5089,"finan":5090,"cereb":5091,"hdp":5092,"##sjs":5093,"heart":5094,"ela":5095,"adul":5096,"##tara":5097,"febrero":5098,"negocio":5099,"tex":5100,"unfollow":5101,"besando":5102,"##vi":5103,"valencia":5104,"base":5105,"estres":5106,"##iversario":5107,"necesidad":5108,"encuen":5109,"dolares":5110,"hable":5111,"wow":5112,"##lio":5113,"ada":5114,"anto":5115,"##igu":5116,"bla":5117,"##teros":5118,"##ites":5119,"vamo":5120,"mega":5121,"sue":5122,"news":5123,"use":5124,"cc":5125,"juegos":5126,"##gi":5127,"lamentable":5128,"desta":5129,"##bia":5130,"director":5131,"aur":5132,"esco":5133,"garcia":5134,"alar":5135,"leche":5136,"americ":5137,"psic":5138,"alex":5139,"joh":5140,"epoca":5141,"confianza":5142,"gonz":5143,"companeros":5144,"tendria":5145,"partici":5146,"integ":5147,"##uncio":5148,"relo":5149,"alcalde":5150,"asis":5151,"imbeci":5152,"pocos":5153,"##cara":5154,"acciones":5155,"tapada":5156,"##uesta":5157,"nerv":5158,"nen":5159,"envid":5160,"sm":5161,"ces":5162,"entiende":5163,"crack":5164,"compren":5165,"dedos":5166,"##pira":5167,"parque":5168,"##olina":5169,"impresion":5170,"sala":5171,"perm":5172,"##quina":5173,"preguntas":5174,"verlo":5175,"esfuerzo":5176,"always":5177,"lon":5178,"bara":5179,"emerg":5180,"aniversario":5181,"pura":5182,"down":5183,"profesion":5184,"reto":5185,"##read":5186,"absoluta":5187,"tatu":5188,"flores":5189,"lee":5190,"articulo":5191,"##pla":5192,"vota":5193,"entrega":5194,"descon":5195,"derro":5196,"jorge":5197,"##alda":5198,"##uliantina":5199,"##orar":5200,"tirar":5201,"perfecta":5202,"brind":5203,"italia":5204,"years":5205,"minuto":5206,"prefiero":5207,"impuestos":5208,"defin":5209,"saca":5210,"comision":5211,"##inho":5212,"##pia":5213,"watch":5214,"organiz":5215,"##ᅧᆫ":5216,"##tador":5217,"were":5218,"##truir":5219,"viste":5220,"##zado":5221,"decepcionada":5222,"##dific":5223,"##quita":5224,"prefer":5225,"##vas":5226,"##rs":5227,"vea":5228,"market":5229,"episo":5230,"vig":5231,"recursos":5232,"alcohol":5233,"arbit":5234,"had":5235,"tira":5236,"papas":5237,"edicion":5238,"peliculas":5239,"detalles":5240,"salida":5241,"##tracion":5242,"wal":5243,"##12":5244,"##eas":5245,"alter":5246,"region":5247,"tl":5248,"##wa":5249,"existen":5250,"tuyo":5251,"frase":5252,"vender":5253,"franc":5254,"medico":5255,"jav":5256,"zo":5257,"poblacion":5258,"##unda":5259,"caca":5260,"##mada":5261,"acus":5262,"resid":5263,"deporte":5264,"##itales":5265,"nes":5266,"cumplir":5267,"altavoz":5268,"titular":5269,"bue":5270,"desay":5271,"parar":5272,"##gota":5273,"quizas":5274,"denunci":5275,"cinco":5276,"##uto":5277,"##gular":5278,"monton":5279,"loo":5280,"cerrar":5281,"tremendo":5282,"fron":5283,"toque":5284,"##mba":5285,"##vis":5286,"empleo":5287,"mtvlaf":5288,"chicas":5289,"bille":5290,"last":5291,"periodistas":5292,"propon":5293,"enfermedad":5294,"nem":5295,"proces":5296,"alum":5297,"##ey":5298,"vuelvo":5299,"##iese":5300,"bbmas":5301,"##ices":5302,"imagino":5303,"efec":5304,"dijeron":5305,"cerebro":5306,"retw":5307,"##ort":5308,"##pec":5309,"porta":5310,"lear":5311,"##ordin":5312,"apoyar":5313,"terrible":5314,"nause":5315,"estorn":5316,"hubo":5317,"##ral":5318,"burl":5319,"grave":5320,"##dk":5321,"echar":5322,"##oc":5323,"detras":5324,"ile":5325,"impac":5326,"##tiene":5327,"humil":5328,"##rantes":5329,"desgra":5330,"cro":5331,"ame":5332,"meta":5333,"dictadura":5334,"series":5335,"##ifa":5336,"pinta":5337,"muestra":5338,"great":5339,"coche":5340,"##ᅳᆯ":5341,"agui":5342,"torneo":5343,"rece":5344,"jimin":5345,"asu":5346,"prima":5347,"reunion":5348,"full":5349,"visit":5350,"quando":5351,"bomba":5352,"union":5353,"marco":5354,"##mpa":5355,"ray":5356,"sing":5357,"malas":5358,"decis":5359,"##timos":5360,"rafa":5361,"take":5362,"caus":5363,"##tita":5364,"birth":5365,"##cter":5366,"##iri":5367,"enfr":5368,"##fac":5369,"##endario":5370,"incon":5371,"piso":5372,"##viv":5373,"google":5374,"festiv":5375,"siesta":5376,"##sur":5377,"pudo":5378,"carino":5379,"romper":5380,"barb":5381,"pros":5382,"gl":5383,"regis":5384,"medicos":5385,"acabar":5386,"##ges":5387,"##gara":5388,"end":5389,"##kook":5390,"cancha":5391,"pend":5392,"nauseas":5393,"agora":5394,"grupos":5395,"jefe":5396,"juz":5397,"##ful":5398,"##ls":5399,"tas":5400,"hogar":5401,"ari":5402,"famos":5403,"rol":5404,"miser":5405,"conseguir":5406,"##abu":5407,"mm":5408,"olvidar":5409,"inic":5410,"photo":5411,"##unas":5412,"comunicacion":5413,"##xo":5414,"tecnologia":5415,"ejerc":5416,"objetivo":5417,"educa":5418,"##tui":5419,"##jue":5420,"diego":5421,"figu":5422,"harry":5423,"inu":5424,"##fans":5425,"chocola":5426,"mario":5427,"cent":5428,"##icid":5429,"tomando":5430,"abuela":5431,"##tana":5432,"cordoba":5433,"entera":5434,"mostrando":5435,"simbolos":5436,"ala":5437,"bri":5438,"resta":5439,"feria":5440,"ambos":5441,"luch":5442,"teniendo":5443,"##cy":5444,"pelotudo":5445,"estilo":5446,"##icular":5447,"##imp":5448,"encuentra":5449,"responsabilidad":5450,"ul":5451,"bib":5452,"defien":5453,"night":5454,"work":5455,"##oro":5456,"##mpre":5457,"##2018":5458,"##xi":5459,"redon":5460,"thanks":5461,"bailar":5462,"llevan":5463,"reloj":5464,"##olver":5465,"##pare":5466,"##mac":5467,"##cam":5468,"isla":5469,"asesin":5470,"obras":5471,"tomo":5472,"borra":5473,"tocar":5474,"esten":5475,"estupi":5476,"sun":5477,"participar":5478,"vil":5479,"##pro":5480,"dormi":5481,"interesa":5482,"abrir":5483,"bogota":5484,"##dian":5485,"##soe":5486,"reina":5487,"hagas":5488,"reme":5489,"fru":5490,"senci":5491,"llegan":5492,"mejorar":5493,"placer":5494,"adop":5495,"paj":5496,"imagenes":5497,"##ane":5498,"desas":5499,"diputa":5500,"influ":5501,"fernandez":5502,"bolsa":5503,"uri":5504,"embar":5505,"emergencia":5506,"dre":5507,"resop":5508,"pers":5509,"gracia":5510,"joa":5511,"pio":5512,"suma":5513,"##tillo":5514,"comentario":5515,"municipal":5516,"brindando":5517,"##self":5518,"dipu":5519,"sexo":5520,"going":5521,"hy":5522,"titulo":5523,"tarta":5524,"##urs":5525,"resoplando":5526,"santo":5527,"300":5528,"madru":5529,"disfruta":5530,"resca":5531,"gir":5532,"alej":5533,"faltan":5534,"pegar":5535,"solidar":5536,"being":5537,"##rica":5538,"rele":5539,"##11":5540,"##guez":5541,"omg":5542,"pc":5543,"##uera":5544,"consejo":5545,"responder":5546,"mirando":5547,"hones":5548,"does":5549,"##ush":5550,"camis":5551,"city":5552,"explotando":5553,"escucho":5554,"teclas":5555,"paga":5556,"tweets":5557,"afec":5558,"##tus":5559,"##media":5560,"##cao":5561,"reaccion":5562,"tendra":5563,"destru":5564,"bill":5565,"neg":5566,"##rita":5567,"lou":5568,"incl":5569,"birthday":5570,"recomenda":5571,"##idera":5572,"primeros":5573,"help":5574,"victimas":5575,"estornud":5576,"taller":5577,"bebida":5578,"provincia":5579,"clasico":5580,"bolivia":5581,"evento":5582,"aquel":5583,"##icana":5584,"mayores":5585,"conoci":5586,"rab":5587,"##han":5588,"proteccion":5589,"empezo":5590,"calendario":5591,"##jus":5592,"##ess":5593,"olvido":5594,"##lon":5595,"dam":5596,"##its":5597,"tam":5598,"animales":5599,"saludando":5600,"aparte":5601,"antonio":5602,"gotas":5603,"dolar":5604,"porq":5605,"peso":5606,"##tias":5607,"canta":5608,"terraqueo":5609,"univer":5610,"also":5611,"got7":5612,"##eratura":5613,"corruptos":5614,"##tidos":5615,"##dedor":5616,"bronca":5617,"mensajes":5618,"respecto":5619,"diria":5620,"##cados":5621,"enorme":5622,"noviembre":5623,"compromiso":5624,"##bon":5625,"ciencia":5626,"##fin":5627,"psoe":5628,"##tea":5629,"inclu":5630,"microfono":5631,"mediana":5632,"##mentar":5633,"##igan":5634,"god":5635,"under":5636,"salvar":5637,"##elas":5638,"##mamente":5639,"36":5640,"deus":5641,"ub":5642,"veh":5643,"acuer":5644,"##ecia":5645,"modelo":5646,"condiciones":5647,"##50":5648,"##ni":5649,"##tividad":5650,"confer":5651,"chiste":5652,"perros":5653,"##land":5654,"perez":5655,"sorry":5656,"debo":5657,"necesitan":5658,"bano":5659,"##tales":5660,"gala":5661,"cita":5662,"##daron":5663,"robar":5664,"most":5665,"presentacion":5666,"repar":5667,"##iii":5668,"coin":5669,"##rue":5670,"crear":5671,"carta":5672,"investigacion":5673,"preciosa":5674,"paraguay":5675,"definitivamente":5676,"mx":5677,"##sura":5678,"joy":5679,"pierde":5680,"compre":5681,"2016":5682,"33":5683,"mina":5684,"inno":5685,"oscar":5686,"##fica":5687,"vib":5688,"##dias":5689,"##didos":5690,"##duccion":5691,"##tamiento":5692,"well":5693,"##tique":5694,"##form":5695,"##pes":5696,"##40":5697,"personaje":5698,"consider":5699,"funciona":5700,"##cl":5701,"cocina":5702,"##tural":5703,"cago":5704,"camiseta":5705,"##tagon":5706,"ninguno":5707,"##col":5708,"llamado":5709,"sand":5710,"ilusion":5711,"hs":5712,"##ife":5713,"could":5714,"enhor":5715,"infan":5716,"cs":5717,"felicitaciones":5718,"sien":5719,"acto":5720,"afuera":5721,"chocolate":5722,"informe":5723,"posicion":5724,"planeta":5725,"cuantas":5726,"belleza":5727,"##quero":5728,"nose":5729,"hoje":5730,"maximo":5731,"should":5732,"negra":5733,"jungkook":5734,"hiciste":5735,"##iero":5736,"##ciar":5737,"cabron":5738,"cuales":5739,"##has":5740,"##dora":5741,"clave":5742,"vul":5743,"dignidad":5744,"resulta":5745,"pude":5746,"##iados":5747,"guay":5748,"sincer":5749,"##aragua":5750,"run":5751,"master":5752,"volvio":5753,"vean":5754,"carne":5755,"guste":5756,"femen":5757,"##dis":5758,"menor":5759,"##abuena":5760,"forta":5761,"actividades":5762,"quieran":5763,"comienza":5764,"responsable":5765,"teatro":5766,"recon":5767,"##ork":5768,"selector":5769,"peron":5770,"09":5771,"coca":5772,"miren":5773,"audio":5774,"htt":5775,"uribe":5776,"lei":5777,"##iler":5778,"kee":5779,"##tumb":5780,"esca":5781,"fol":5782,"alf":5783,"##acha":5784,"bolivar":5785,"corto":5786,"literalmente":5787,"camion":5788,"casas":5789,"compania":5790,"molesta":5791,"entro":5792,"mentiras":5793,"salvador":5794,"cdmx":5795,"lloro":5796,"bajar":5797,"these":5798,"direccion":5799,"ninas":5800,"pizza":5801,"##chi":5802,"##arez":5803,"francia":5804,"aliviada":5805,"verdadero":5806,"rodriguez":5807,"ao":5808,"estornudando":5809,"guaido":5810,"shit":5811,"saludo":5812,"complic":5813,"##rlo":5814,"electoral":5815,"##test":5816,"critica":5817,"##abil":5818,"checked":5819,"favorito":5820,"mons":5821,"##iris":5822,"fase":5823,"##eda":5824,"vuelva":5825,"osea":5826,"friends":5827,"ingen":5828,"##ture":5829,"hacerme":5830,"enhorabuena":5831,"open":5832,"continua":5833,"vues":5834,"hablamos":5835,"##tario":5836,"hara":5837,"volun":5838,"moto":5839,"gam":5840,"##ella":5841,"##bs":5842,"bang":5843,"mato":5844,"acci":5845,"sempre":5846,"##hahahaha":5847,"festival":5848,"tome":5849,"exitos":5850,"llam":5851,"posta":5852,"virtual":5853,"habria":5854,"##ditos":5855,"vid":5856,"automatically":5857,"sc":5858,"acon":5859,"facul":5860,"supuesto":5861,"##eccion":5862,"principal":5863,"cantar":5864,"cristi":5865,"escol":5866,"murio":5867,"##30":5868,"boo":5869,"abus":5870,"drama":5871,"ahhh":5872,"roja":5873,"##cero":5874,"noso":5875,"aprob":5876,"salgo":5877,"04":5878,"andalu":5879,"##ates":5880,"##trol":5881,"##teca":5882,"toy":5883,"digas":5884,"better":5885,"global":5886,"amen":5887,"##ciendo":5888,"##18":5889,"made":5890,"##jado":5891,"fandom":5892,"http":5893,"debes":5894,"daniel":5895,"ridiculo":5896,"##forma":5897,"hp":5898,"aparece":5899,"quita":5900,"manuel":5901,"##ym":5902,"atre":5903,"##ple":5904,"afic":5905,"##teando":5906,"part":5907,"llegado":5908,"david":5909,"dorm":5910,"vice":5911,"unidad":5912,"##uma":5913,"arru":5914,"##amientos":5915,"tratar":5916,"completa":5917,"latino":5918,"encontre":5919,"desarrol":5920,"acco":5921,"cerez":5922,"carre":5923,"autoridades":5924,"une":5925,"interior":5926,"aborto":5927,"piden":5928,"fic":5929,"abierto":5930,"199":5931,"viven":5932,"chavez":5933,"capacidad":5934,"vosotros":5935,"entero":5936,"tristeza":5937,"ali":5938,"##cales":5939,"tik":5940,"estuve":5941,"talento":5942,"irme":5943,"##ww":5944,"comiendo":5945,"cham":5946,"puedan":5947,"##gel":5948,"cancel":5949,"explicar":5950,"##iere":5951,"morena":5952,"learn":5953,"impul":5954,"desgracia":5955,"perdio":5956,"##aram":5957,"arm":5958,"##ipe":5959,"consulta":5960,"fazer":5961,"impres":5962,"elegir":5963,"explica":5964,"reflexion":5965,"tip":5966,"sube":5967,"ocas":5968,"little":5969,"sorteo":5970,"intentar":5971,"acaso":5972,"area":5973,"conce":5974,"inscri":5975,"importantes":5976,"francisco":5977,"##let":5978,"avion":5979,"indig":5980,"parecer":5981,"vengo":5982,"municipio":5983,"##istina":5984,"tarje":5985,"iglesia":5986,"proyectos":5987,"publicos":5988,"marketing":5989,"principio":5990,"ine":5991,"##segu":5992,"ocul":5993,"exclus":5994,"poniendo":5995,"##lea":5996,"meme":5997,"institucion":5998,"pongan":5999,"politicas":6000,"vengan":6001,"euros":6002,"economica":6003,"##duce":6004,"locura":6005,"mila":6006,"senores":6007,"##pres":6008,"visual":6009,"fich":6010,"lados":6011,"followed":6012,"perman":6013,"mtvlapare":6014,"##ped":6015,"hid":6016,"jajajajajaja":6017,"abri":6018,"criminal":6019,"mesmo":6020,"##ah":6021,"discu":6022,"caga":6023,"uds":6024,"estes":6025,"##anda":6026,"##log":6027,"##js":6028,"gobernador":6029,"##jin":6030,"afir":6031,"intento":6032,"ambiente":6033,"mates":6034,"muere":6035,"gane":6036,"2015":6037,"arcoiris":6038,"##iss":6039,"##ux":6040,"sois":6041,"##itando":6042,"##inha":6043,"##minacion":6044,"pies":6045,"manip":6046,"##idade":6047,"reno":6048,"##cad":6049,"horario":6050,"##quil":6051,"juvent":6052,"sad":6053,"regreso":6054,"analisis":6055,"tranquilo":6056,"estable":6057,"##vie":6058,"ola":6059,"hermanos":6060,"acerca":6061,"injus":6062,"botel":6063,"terri":6064,"song":6065,"diputados":6066,"##ibil":6067,"jajajaj":6068,"afecta":6069,"kid":6070,"tel":6071,"amazon":6072,"##tify":6073,"parla":6074,"chal":6075,"profe":6076,"transporte":6077,"independiente":6078,"##jajaj":6079,"said":6080,"correspon":6081,"judic":6082,"sopor":6083,"caracter":6084,"awards":6085,"##red":6086,"##cita":6087,"##dera":6088,"fuerzas":6089,"reforma":6090,"necesitas":6091,"ram":6092,"call":6093,"wait":6094,"candidato":6095,"##ics":6096,"##esa":6097,"##puta":6098,"##undo":6099,"pela":6100,"hotel":6101,"##aldo":6102,"laboral":6103,"pierdas":6104,"interven":6105,"clo":6106,"dulce":6107,"league":6108,"valle":6109,"fres":6110,"corta":6111,"favorita":6112,"correr":6113,"##ivos":6114,"inversion":6115,"positivo":6116,"high":6117,"culp":6118,"beau":6119,"productos":6120,"decirle":6121,"##ava":6122,"##rida":6123,"bom":6124,"victor":6125,"sao":6126,"ye":6127,"espalda":6128,"depende":6129,"levantar":6130,"md":6131,"celebrar":6132,"segundos":6133,"amistad":6134,"cabello":6135,"gig":6136,"dialogo":6137,"conden":6138,"pasion":6139,"aero":6140,"care":6141,"santos":6142,"2021":6143,"familiares":6144,"hope":6145,"qual":6146,"busque":6147,"##om":6148,"responde":6149,"abandon":6150,"piensan":6151,"dyn":6152,"##ipol":6153,"movimiento":6154,"turismo":6155,"ore":6156,"coj":6157,"uni":6158,"trae":6159,"very":6160,"invito":6161,"fc":6162,"fake":6163,"lagri":6164,"adios":6165,"incen":6166,"rusia":6167,"anuncia":6168,"logra":6169,"cantando":6170,"##the":6171,"party":6172,"##ham":6173,"sis":6174,"tranquila":6175,"lugares":6176,"brin":6177,"levante":6178,"##undir":6179,"##ieras":6180,"hand":6181,"entradas":6182,"actitud":6183,"fernando":6184,"dire":6185,"agus":6186,"original":6187,"defens":6188,"ahorita":6189,"promocion":6190,"alv":6191,"ira":6192,"vende":6193,"espanoles":6194,"infin":6195,"##tiles":6196,"tercera":6197,"##oos":6198,"periodismo":6199,"encer":6200,"##dela":6201,"##jando":6202,"sosten":6203,"gos":6204,"moda":6205,"cambios":6206,"motivo":6207,"##mel":6208,"##logia":6209,"##andro":6210,"##24":6211,"quitar":6212,"altura":6213,"rue":6214,"##tz":6215,"tecnico":6216,"cif":6217,"miemb":6218,"##fav":6219,"##mera":6220,"mana":6221,"##jis":6222,"enviar":6223,"delincuentes":6224,"##onos":6225,"##cun":6226,"estrate":6227,"ques":6228,"sueldo":6229,"asamb":6230,"cabal":6231,"aficion":6232,"haria":6233,"asocia":6234,"##capac":6235,"discurso":6236,"meto":6237,"tod":6238,"pensaba":6239,"apo":6240,"contacto":6241,"asun":6242,"ataque":6243,"##dimiento":6244,"other":6245,"auricular":6246,"vehic":6247,"##rea":6248,"autono":6249,"hablas":6250,"petro":6251,"pega":6252,"preguntar":6253,"##iles":6254,"protagon":6255,"cie":6256,"##cin":6257,"mez":6258,"then":6259,"hechos":6260,"jal":6261,"redonda":6262,"##wu":6263,"dame":6264,"gasolina":6265,"##ciales":6266,"neutral":6267,"tox":6268,"ego":6269,"recibiendo":6270,"coun":6271,"##tim":6272,"hugo":6273,"idiota":6274,"teneis":6275,"toco":6276,"ganado":6277,"##erno":6278,"bienes":6279,"dynam":6280,"colores":6281,"desastre":6282,"##hos":6283,"sesion":6284,"##rer":6285,"sitio":6286,"cristina":6287,"firma":6288,"alerta":6289,"bem":6290,"alemania":6291,"tenian":6292,"mim":6293,"##izada":6294,"where":6295,"volu":6296,"sober":6297,"tarea":6298,"importancia":6299,"ruta":6300,"conduc":6301,"errores":6302,"ori":6303,"profesionales":6304,"relig":6305,"voltaje":6306,"jer":6307,"solidaridad":6308,"cant":6309,"next":6310,"trebol":6311,"logro":6312,"homen":6313,"gordo":6314,"descono":6315,"imbecil":6316,"helado":6317,"plas":6318,"fort":6319,"medalla":6320,"extrana":6321,"frustracion":6322,"recuerdos":6323,"##rique":6324,"hot":6325,"valent":6326,"##ierte":6327,"elig":6328,"mami":6329,"progres":6330,"indi":6331,"##dios":6332,"##ns":6333,"ace":6334,"rombo":6335,"tardes":6336,"lav":6337,"keep":6338,"absolutamente":6339,"propos":6340,"solamente":6341,"wtf":6342,"llaman":6343,"princes":6344,"moder":6345,"trabajos":6346,"caracas":6347,"artista":6348,"spotify":6349,"poca":6350,"tercer":6351,"anterior":6352,"companero":6353,"destino":6354,"##rimonio":6355,"nega":6356,"agenda":6357,"estacion":6358,"mv":6359,"bun":6360,"##gala":6361,"aguante":6362,"argentino":6363,"gustado":6364,"##스":6365,"paciencia":6366,"colabor":6367,"represent":6368,"espiri":6369,"categ":6370,"abre":6371,"magn":6372,"malos":6373,"mexicanos":6374,"##itud":6375,"pelota":6376,"maestro":6377,"nicolas":6378,"pref":6379,"maldita":6380,"guardia":6381,"medida":6382,"##chu":6383,"concep":6384,"pobreza":6385,"juntas":6386,"##cle":6387,"antic":6388,"##duras":6389,"sepa":6390,"fiestas":6391,"##ct":6392,"planes":6393,"ministerio":6394,"formacion":6395,"##uuu":6396,"dema":6397,"##yos":6398,"justific":6399,"madres":6400,"compara":6401,"##mmer":6402,"portu":6403,"produccion":6404,"ainda":6405,"numeros":6406,"perdida":6407,"depar":6408,"carro":6409,"policias":6410,"cayo":6411,"rit":6412,"##sed":6413,"yan":6414,"ultimamente":6415,"desin":6416,"siglo":6417,"porfa":6418,"1000":6419,"##cla":6420,"rata":6421,"##ged":6422,"joaquin":6423,"estrategia":6424,"ene":6425,"##ajajajajajajajaj":6426,"mareo":6427,"jejeje":6428,"louis":6429,"ejecu":6430,"practic":6431,"##enario":6432,"dejado":6433,"hey":6434,"voces":6435,"dynamite":6436,"pibe":6437,"bay":6438,"embara":6439,"##uales":6440,"##bin":6441,"rode":6442,"opera":6443,"55":6444,"energ":6445,"decisiones":6446,"##jj":6447,"correcto":6448,"querida":6449,"##tto":6450,"record":6451,"acostumb":6452,"##tieron":6453,"probable":6454,"aquellos":6455,"peligro":6456,"ejercicio":6457,"##back":6458,"##ween":6459,"##row":6460,"##aas":6461,"bendiciones":6462,"venezolano":6463,"##erva":6464,"viajar":6465,"resis":6466,"##izando":6467,"maldito":6468,"stay":6469,"99":6470,"##ilos":6471,"##13":6472,"cruzados":6473,"impun":6474,"##ivid":6475,"perten":6476,"cac":6477,"ji":6478,"story":6479,"larga":6480,"olimp":6481,"##illos":6482,"pass":6483,"genera":6484,"##abon":6485,"alvar":6486,"partida":6487,"coger":6488,"libertadores":6489,"fuiste":6490,"sei":6491,"mostra":6492,"andres":6493,"##tiful":6494,"##aras":6495,"confusion":6496,"participa":6497,"agradecer":6498,"periodico":6499,"economico":6500,"alguno":6501,"inso":6502,"sorpresa":6503,"##lico":6504,"declar":6505,"##ents":6506,"profesor":6507,"pleno":6508,"merecen":6509,"escuche":6510,"mostrar":6511,"subs":6512,"tell":6513,"##uelos":6514,"##mestre":6515,"realizar":6516,"aven":6517,"cambie":6518,"actividad":6519,"deix":6520,"materia":6521,"dal":6522,"##hah":6523,"inau":6524,"fucking":6525,"pequena":6526,"cerezo":6527,"restau":6528,"things":6529,"##ezco":6530,"privado":6531,"privile":6532,"cultural":6533,"##istica":6534,"iglesias":6535,"universo":6536,"ponga":6537,"##avera":6538,"wil":6539,"inoc":6540,"corrupto":6541,"empat":6542,"bello":6543,"inaugu":6544,"dedic":6545,"llamo":6546,"nicaragua":6547,"leyendo":6548,"01":6549,"cuel":6550,"edific":6551,"volumen":6552,"pec":6553,"dona":6554,"##chada":6555,"rend":6556,"##소":6557,"falso":6558,"escribe":6559,"tao":6560,"yendo":6561,"##alez":6562,"pocas":6563,"##jito":6564,"perra":6565,"##cesto":6566,"retweet":6567,"aires":6568,"valores":6569,"power":6570,"uy":6571,"cristo":6572,"falto":6573,"##onato":6574,"aro":6575,"##yen":6576,"llo":6577,"##zca":6578,"acabe":6579,"formas":6580,"piedra":6581,"aviso":6582,"delito":6583,"##mio":6584,"##pal":6585,"##22":6586,"sobr":6587,"grab":6588,"pata":6589,"evolucion":6590,"doctor":6591,"##ficial":6592,"generacion":6593,"claramente":6594,"cobar":6595,"##respons":6596,"decre":6597,"esperaba":6598,"gloria":6599,"reyes":6600,"gim":6601,"deman":6602,"##ever":6603,"##als":6604,"presos":6605,"pacientes":6606,"funcionarios":6607,"set":6608,"##iamos":6609,"diz":6610,"devuel":6611,"##ute":6612,"pedazo":6613,"##uelas":6614,"despertar":6615,"repetir":6616,"##chan":6617,"##lip":6618,"crimen":6619,"##ving":6620,"##nd":6621,"queso":6622,"##iene":6623,"envia":6624,"espanola":6625,"mexicano":6626,"hoja":6627,"construccion":6628,"##uciones":6629,"individ":6630,"dime":6631,"billete":6632,"batalla":6633,"amooo":6634,"federal":6635,"asesino":6636,"culia":6637,"quero":6638,"tonto":6639,"etique":6640,"renuncia":6641,"beautiful":6642,"dejaron":6643,"bit":6644,"cobrar":6645,"##etas":6646,"conciencia":6647,"hern":6648,"jardin":6649,"##vacion":6650,"08":6651,"##esion":6652,"prevencion":6653,"yu":6654,"habit":6655,"##kaka":6656,"##rosa":6657,"##vera":6658,"interpre":6659,"prohibido":6660,"kim":6661,"ofen":6662,"permite":6663,"##phone":6664,"proteger":6665,"adiv":6666,"crush":6667,"finales":6668,"##jero":6669,"memes":6670,"separa":6671,"junta":6672,"##ence":6673,"entendi":6674,"fiel":6675,"baile":6676,"sali":6677,"ri":6678,"##pir":6679,"casual":6680,"nosotras":6681,"junior":6682,"ear":6683,"tuya":6684,"mues":6685,"dream":6686,"consejos":6687,"give":6688,"convoca":6689,"ak":6690,"habian":6691,"cierre":6692,"propuesta":6693,"material":6694,"adelan":6695,"##tizar":6696,"##tillas":6697,"martinez":6698,"playing":6699,"facultad":6700,"##uria":6701,"ganan":6702,"visitar":6703,"duque":6704,"sabias":6705,"account":6706,"##ivas":6707,"##har":6708,"participacion":6709,"obvia":6710,"cartel":6711,"indign":6712,"baloncesto":6713,"aceptar":6714,"32":6715,"viviendo":6716,"verla":6717,"##pop":6718,"irre":6719,"supongo":6720,"cle":6721,"cabo":6722,"##lace":6723,"##gt":6724,"##mica":6725,"jugo":6726,"fea":6727,"##try":6728,"enamorada":6729,"tenho":6730,"two":6731,"coming":6732,"##ilable":6733,"revis":6734,"tremenda":6735,"##ticion":6736,"##ingos":6737,"andan":6738,"irrespons":6739,"chau":6740,"buscan":6741,"rosario":6742,"##tifica":6743,"hit":6744,"diez":6745,"pones":6746,"jin":6747,"division":6748,"once":6749,"seguramente":6750,"lucas":6751,"punta":6752,"anuncio":6753,"hubiese":6754,"iban":6755,"##ija":6756,"superar":6757,"##itat":6758,"podrian":6759,"insu":6760,"06":6761,"gonzalez":6762,"disney":6763,"vieron":6764,"aprende":6765,"juicio":6766,"humanidad":6767,"##riendo":6768,"cerdo":6769,"masaje":6770,"05":6771,"##pat":6772,"esque":6773,"motiv":6774,"##ross":6775,"juez":6776,"gall":6777,"calavera":6778,"##km":6779,"costo":6780,"##gin":6781,"presencia":6782,"comparto":6783,"hayan":6784,"##led":6785,"##itado":6786,"tradicion":6787,"igualdad":6788,"hier":6789,"ponerme":6790,"jack":6791,"john":6792,"uu":6793,"chat":6794,"yoong":6795,"suda":6796,"##tric":6797,"aumento":6798,"##17":6799,"goool":6800,"##onica":6801,"##anza":6802,"##teras":6803,"suelo":6804,"king":6805,"personajes":6806,"echo":6807,"mirada":6808,"negocios":6809,"##vailable":6810,"planta":6811,"arena":6812,"dad":6813,"traid":6814,"##anto":6815,"sensacion":6816,"acordar":6817,"fisica":6818,"leido":6819,"##iche":6820,"##bert":6821,"##jera":6822,"retro":6823,"pot":6824,"acceso":6825,"inteligencia":6826,"embargo":6827,"ki":6828,"##dal":6829,"respuestas":6830,"bern":6831,"dato":6832,"##puer":6833,"etapa":6834,"gue":6835,"##gios":6836,"emilio":6837,"blog":6838,"ng":6839,"caj":6840,"proto":6841,"mande":6842,"melhor":6843,"puente":6844,"salido":6845,"salvo":6846,"muertes":6847,"##icano":6848,"##digo":6849,"pedido":6850,"##lesc":6851,"##uco":6852,"insegu":6853,"clin":6854,"gorda":6855,"militares":6856,"iran":6857,"registra":6858,"saliendo":6859,"pantalla":6860,"##cus":6861,"##melo":6862,"peores":6863,"rechazo":6864,"##vemos":6865,"contenido":6866,"caro":6867,"alterna":6868,"old":6869,"ty":6870,"days":6871,"##zamos":6872,"assim":6873,"superior":6874,"pico":6875,"##gol":6876,"cerro":6877,"##quez":6878,"imaginate":6879,"oferta":6880,"dejamos":6881,"pecho":6882,"pudiera":6883,"##bos":6884,"manifesta":6885,"##ilia":6886,"fm":6887,"box":6888,"though":6889,"dejando":6890,"expon":6891,"envidia":6892,"moreno":6893,"preso":6894,"ft":6895,"estare":6896,"aja":6897,"ilegal":6898,"conferencia":6899,"agradece":6900,"frances":6901,"olvide":6902,"calma":6903,"imper":6904,"198":6905,"##favor":6906,"franco":6907,"##isimas":6908,"pensamiento":6909,"alimentos":6910,"divers":6911,"bloqueo":6912,"proce":6913,"##ets":6914,"infantil":6915,"py":6916,"inteligente":6917,"clos":6918,"asamblea":6919,"contrato":6920,"reproducir":6921,"ejercito":6922,"arras":6923,"manifes":6924,"ey":6925,"long":6926,"javier":6927,"conversacion":6928,"##fore":6929,"puebla":6930,"oportunidades":6931,"supre":6932,"dd":6933,"##yyy":6934,"##ath":6935,"adolesc":6936,"##mez":6937,"yoongi":6938,"departa":6939,"ii":6940,"##torno":6941,"##arnos":6942,"##cs":6943,"usando":6944,"##iten":6945,"conjun":6946,"historico":6947,"seis":6948,"vivimos":6949,"resumen":6950,"##taciones":6951,"diaz":6952,"##ling":6953,"miro":6954,"traer":6955,"rompe":6956,"homenaje":6957,"colon":6958,"##orio":6959,"piern":6960,"cm":6961,"taehy":6962,"nena":6963,"cadena":6964,"libres":6965,"legisla":6966,"arch":6967,"armas":6968,"jarras":6969,"charla":6970,"34":6971,"##ness":6972,"##cast":6973,"coinci":6974,"##dre":6975,"zapa":6976,"someone":6977,"hard":6978,"stra":6979,"caja":6980,"encontra":6981,"trato":6982,"plena":6983,"giv":6984,"invierno":6985,"##izan":6986,"traicion":6987,"guatem":6988,"gracios":6989,"veia":6990,"something":6991,"pendejos":6992,"pasen":6993,"podido":6994,"propa":6995,"podra":6996,"mismas":6997,"tienda":6998,"melo":6999,"nuevamente":7000,"fb":7001,"uwu":7002,"comparte":7003,"##igar":7004,"deuda":7005,"escribiendo":7006,"##16":7007,"everyone":7008,"##less":7009,"probar":7010,"compa":7011,"comunista":7012,"nieve":7013,"rui":7014,"alumnos":7015,"support":7016,"mari":7017,"fuente":7018,"##abel":7019,"pasaron":7020,"##14":7021,"defend":7022,"diputado":7023,"ufff":7024,"aver":7025,"confin":7026,"sentimientos":7027,"##tible":7028,"##zi":7029,"pollo":7030,"diseno":7031,"entregar":7032,"aprue":7033,"monte":7034,"harta":7035,"##atorio":7036,"cuch":7037,"judicial":7038,"##fl":7039,"conoces":7040,"recomiendo":7041,"##eto":7042,"##este":7043,"quedado":7044,"##kers":7045,"##dieron":7046,"enrique":7047,"pate":7048,"tera":7049,"iniciativa":7050,"esposa":7051,"07":7052,"indepen":7053,"ku":7054,"trian":7055,"##itarios":7056,"bicic":7057,"catalan":7058,"##bilidad":7059,"gabri":7060,"alm":7061,"claud":7062,"abrazos":7063,"espac":7064,"duermo":7065,"veremos":7066,"asquer":7067,"ocup":7068,"contrib":7069,"cool":7070,"##arra":7071,"espectacular":7072,"##000":7073,"deportivo":7074,"##gulo":7075,"##dades":7076,"sua":7077,"cena":7078,"hate":7079,"amas":7080,"##gus":7081,"##mn":7082,"razones":7083,"##15":7084,"pagan":7085,"pija":7086,"##lez":7087,"consig":7088,"gym":7089,"cojones":7090,"temperatura":7091,"##iber":7092,"guitar":7093,"many":7094,"debido":7095,"eleccion":7096,"##mentacion":7097,"##acionales":7098,"pasada":7099,"ignorancia":7100,"ascen":7101,"asomb":7102,"before":7103,"##ald":7104,"brutal":7105,"odia":7106,"lideres":7107,"publicidad":7108,"saluda":7109,"importan":7110,"loren":7111,"intereses":7112,"##다":7113,"plus":7114,"##rey":7115,"impresionante":7116,"mg":7117,"obten":7118,"magia":7119,"virgen":7120,"##lados":7121,"guad":7122,"detec":7123,"quito":7124,"exten":7125,"tigre":7126,"maltra":7127,"sn":7128,"irse":7129,"##mmm":7130,"pendeja":7131,"##queta":7132,"2014":7133,"estaremos":7134,"partes":7135,"llamada":7136,"pour":7137,"bul":7138,"pelotuda":7139,"dejes":7140,"adentro":7141,"prime":7142,"ceja":7143,"bolas":7144,"obviamente":7145,"tratando":7146,"##quete":7147,"##abas":7148,"oficina":7149,"ole":7150,"concurso":7151,"encuesta":7152,"aeropuer":7153,"presentar":7154,"estima":7155,"##ken":7156,"transpar":7157,"##ᅮᆫ":7158,"peli":7159,"02":7160,"parecen":7161,"intens":7162,"guapo":7163,"fanat":7164,"id":7165,"kir":7166,"##ieve":7167,"##fes":7168,"locos":7169,"eras":7170,"spa":7171,"##rimiento":7172,"nomin":7173,"sombrero":7174,"gover":7175,"##ast":7176,"##pr":7177,"salva":7178,"hagamos":7179,"exactamente":7180,"ideal":7181,"##ueva":7182,"03":7183,"cup":7184,"##xto":7185,"luchar":7186,"bolson":7187,"fracaso":7188,"fifa":7189,"entienden":7190,"viejos":7191,"juventud":7192,"##ather":7193,"##하":7194,"supera":7195,"preocupa":7196,"deter":7197,"nariz":7198,"callate":7199,"friend":7200,"tarjeta":7201,"sonar":7202,"sorprende":7203,"acorde":7204,"##니":7205,"coisa":7206,"##mite":7207,"aclar":7208,"acompana":7209,"taehyung":7210,"##bus":7211,"milan":7212,"perdiendo":7213,"face":7214,"humo":7215,"ranking":7216,"self":7217,"demostrar":7218,"petrol":7219,"comercial":7220,"##andal":7221,"alas":7222,"cura":7223,"tomas":7224,"daba":7225,"##jon":7226,"requi":7227,"triunfo":7228,"poll":7229,"episodio":7230,"house":7231,"inutil":7232,"industria":7233,"herram":7234,"##kan":7235,"##ax":7236,"##amento":7237,"primar":7238,"##rael":7239,"manga":7240,"vent":7241,"lanz":7242,"##ism":7243,"guapa":7244,"piernas":7245,"barbar":7246,"beat":7247,"marido":7248,"tib":7249,"organizacion":7250,"sergio":7251,"mae":7252,"experien":7253,"48":7254,"gilipol":7255,"38":7256,"season":7257,"rema":7258,"verdadera":7259,"enserio":7260,"bs":7261,"pibes":7262,"victima":7263,"inm":7264,"pego":7265,"descanso":7266,"transform":7267,"hacerse":7268,"miran":7269,"vacuna":7270,"##iden":7271,"bec":7272,"nal":7273,"##ball":7274,"##eres":7275,"broma":7276,"disfra":7277,"chino":7278,"habil":7279,"sana":7280,"pantal":7281,"velo":7282,"tendencia":7283,"mora":7284,"menores":7285,"cristiano":7286,"thing":7287,"seres":7288,"confirma":7289,"##taba":7290,"paris":7291,"consecuencias":7292,"##리":7293,"hospitales":7294,"##ights":7295,"barr":7296,"pasara":7297,"ue":7298,"ultra":7299,"lazo":7300,"damos":7301,"##tti":7302,"felipe":7303,"kill":7304,"quedarse":7305,"exacto":7306,"##tao":7307,"##bra":7308,"cf":7309,"vaina":7310,"ayyy":7311,"cute":7312,"tranquil":7313,"##ore":7314,"##enar":7315,"gimnas":7316,"maravilloso":7317,"pusieron":7318,"inep":7319,"bac":7320,"vuelven":7321,"prision":7322,"nan":7323,"embaj":7324,"ciclo":7325,"horror":7326,"poke":7327,"inmedia":7328,"##ght":7329,"latin":7330,"escena":7331,"mereces":7332,"##diga":7333,"##trib":7334,"expul":7335,"leyes":7336,"putas":7337,"vision":7338,"##hua":7339,"relaciones":7340,"calder":7341,"lagrimas":7342,"##에":7343,"estreno":7344,"lac":7345,"latinoamer":7346,"veras":7347,"mames":7348,"dinam":7349,"##olazo":7350,"anime":7351,"ocurre":7352,"cuadrado":7353,"pequenos":7354,"prioridad":7355,"##guem":7356,"##ezca":7357,"arroz":7358,"##irse":7359,"diablo":7360,"tos":7361,"recuperar":7362,"israel":7363,"acho":7364,"delicios":7365,"hd":7366,"ricos":7367,"semi":7368,"naturaleza":7369,"##urar":7370,"lindas":7371,"conocido":7372,"##abo":7373,"rever":7374,"vuelto":7375,"habeis":7376,"vayas":7377,"pendiente":7378,"own":7379,"coordin":7380,"##ments":7381,"lectura":7382,"bebes":7383,"##mao":7384,"##quilla":7385,"sebas":7386,"##stan":7387,"gratui":7388,"summer":7389,"completamente":7390,"comenta":7391,"37":7392,"remo":7393,"##gb":7394,"botella":7395,"dispos":7396,"cortes":7397,"compras":7398,"socio":7399,"crecer":7400,"##ulacion":7401,"asesina":7402,"arranca":7403,"orgullosa":7404,"sacan":7405,"tun":7406,"tmb":7407,"##ced":7408,"##alth":7409,"criticar":7410,"apoya":7411,"fox":7412,"levanto":7413,"contagios":7414,"pinera":7415,"st":7416,"##box":7417,"bran":7418,"##tage":7419,"##mej":7420,"fuertes":7421,"chris":7422,"aran":7423,"independencia":7424,"argentinos":7425,"delante":7426,"colum":7427,"sanidad":7428,"fotogra":7429,"artist":7430,"sinto":7431,"bravo":7432,"financi":7433,"aper":7434,"later":7435,"##ruz":7436,"##zy":7437,"acaban":7438,"pez":7439,"busco":7440,"urib":7441,"##mero":7442,"pidio":7443,"##crib":7444,"boludo":7445,"alarma":7446,"lesion":7447,"##mbra":7448,"white":7449,"listen":7450,"fues":7451,"conme":7452,"campeonato":7453,"olor":7454,"gonna":7455,"programas":7456,"ach":7457,"soon":7458,"line":7459,"abrazar":7460,"ms":7461,"##list":7462,"envio":7463,"##lacion":7464,"fumar":7465,"instituciones":7466,"ramos":7467,"artistas":7468,"podran":7469,"agradez":7470,"dt":7471,"##key":7472,"paul":7473,"rein":7474,"desaf":7475,"comunicado":7476,"protesta":7477,"gobiernos":7478,"transmision":7479,"wit":7480,"thats":7481,"accidente":7482,"darte":7483,"turno":7484,"gustar":7485,"aguanto":7486,"escrito":7487,"novela":7488,"fraude":7489,"##ason":7490,"empeza":7491,"humana":7492,"andalucia":7493,"efecto":7494,"japones":7495,"llora":7496,"##tier":7497,"caminar":7498,"iphone":7499,"quiza":7500,"practica":7501,"sere":7502,"ocho":7503,"carmen":7504,"rivera":7505,"pelea":7506,"diri":7507,"##ologico":7508,"everything":7509,"recuerden":7510,"##elos":7511,"hipocri":7512,"tara":7513,"##jud":7514,"ofrece":7515,"estudios":7516,"##rillo":7517,"##어":7518,"##ecemos":7519,"llegando":7520,"##tano":7521,"sone":7522,"discri":7523,"hijue":7524,"ato":7525,"cnco":7526,"recibe":7527,"reconocer":7528,"##ller":7529,"presupuesto":7530,"birra":7531,"destin":7532,"##25":7533,"trop":7534,"capitan":7535,"mtvlafandom":7536,"conec":7537,"single":7538,"publicas":7539,"comprome":7540,"adap":7541,"oso":7542,"##far":7543,"darme":7544,"arma":7545,"hacerle":7546,"torre":7547,"precis":7548,"podcast":7549,"lorenzo":7550,"satis":7551,"vz":7552,"guatemala":7553,"hun":7554,"##ition":7555,"lavar":7556,"cy":7557,"mean":7558,"alre":7559,"odi":7560,"calderon":7561,"##iam":7562,"put":7563,"mr":7564,"centros":7565,"vel":7566,"falsa":7567,"dispar":7568,"fantasma":7569,"urb":7570,"##lano":7571,"ny":7572,"sancion":7573,"##rle":7574,"investig":7575,"jsjsj":7576,"revista":7577,"informar":7578,"##pool":7579,"madrugada":7580,"solos":7581,"intencion":7582,"##mpe":7583,"aques":7584,"tok":7585,"head":7586,"james":7587,"tuviera":7588,"mision":7589,"tot":7590,"sinceramente":7591,"##jeros":7592,"jen":7593,"reino":7594,"##achos":7595,"cuanta":7596,"medicina":7597,"demuestra":7598,"uc":7599,"##ueve":7600,"manejo":7601,"gatos":7602,"producto":7603,"unido":7604,"ayun":7605,"fur":7606,"bols":7607,"podeis":7608,"vulner":7609,"##low":7610,"respetar":7611,"anunci":7612,"aure":7613,"ciudadano":7614,"zara":7615,"##iosos":7616,"fortale":7617,"tribun":7618,"##dena":7619,"suarez":7620,"president":7621,"##time":7622,"fisico":7623,"desn":7624,"usuarios":7625,"gomez":7626,"mentir":7627,"##elli":7628,"volvi":7629,"rival":7630,"aristemo":7631,"constante":7632,"bolsonaro":7633,"cabe":7634,"apos":7635,"brazos":7636,"decirte":7637,"vergon":7638,"castro":7639,"rd":7640,"patrio":7641,"permiso":7642,"sexy":7643,"test":7644,"those":7645,"dragon":7646,"icon":7647,"urge":7648,"reconocimiento":7649,"abuso":7650,"azu":7651,"lap":7652,"mendo":7653,"hambur":7654,"##ierto":7655,"##fan":7656,"voluntad":7657,"##tira":7658,"destro":7659,"##dell":7660,"lima":7661,"estupida":7662,"##titos":7663,"maravilla":7664,"heroes":7665,"str":7666,"sobreviv":7667,"orien":7668,"mix":7669,"conflic":7670,"supone":7671,"##riz":7672,"##gether":7673,"protoc":7674,"poten":7675,"fija":7676,"trabajador":7677,"bach":7678,"pueblos":7679,"estais":7680,"atro":7681,"hare":7682,"particular":7683,"galle":7684,"aho":7685,"actuar":7686,"atletico":7687,"mire":7688,"vete":7689,"pessoa":7690,"bc":7691,"extranar":7692,"dejas":7693,"bye":7694,"nub":7695,"eco":7696,"anci":7697,"hur":7698,"publicado":7699,"morning":7700,"##icidio":7701,"vecino":7702,"##ming":7703,"ment":7704,"despertador":7705,"artes":7706,"ox":7707,"consid":7708,"bendiga":7709,"colaboracion":7710,"##quitos":7711,"ivan":7712,"deportiva":7713,"incor":7714,"primo":7715,"correo":7716,"ganador":7717,"impunidad":7718,"sty":7719,"##vip":7720,"sufrir":7721,"pasos":7722,"agres":7723,"nefas":7724,"aprendi":7725,"privada":7726,"actor":7727,"policy":7728,"##asion":7729,"##xa":7730,"family":7731,"kids":7732,"puertas":7733,"hrs":7734,"##요":7735,"lindos":7736,"desea":7737,"##ami":7738,"ml":7739,"400":7740,"197":7741,"##andose":7742,"alejandro":7743,"pur":7744,"giras":7745,"colectivo":7746,"mt":7747,"apoyando":7748,"confun":7749,"dark":7750,"onu":7751,"empece":7752,"##guas":7753,"princesa":7754,"agarrar":7755,"##해":7756,"##culos":7757,"challen":7758,"bicicleta":7759,"austral":7760,"atender":7761,"regla":7762,"copas":7763,"sara":7764,"##med":7765,"permitir":7766,"##osos":7767,"mind":7768,"empresarios":7769,"jan":7770,"##lle":7771,"codigo":7772,"sco":7773,"##gadas":7774,"tempo":7775,"thro":7776,"adic":7777,"design":7778,"##izados":7779,"75":7780,"avance":7781,"bolude":7782,"pokemon":7783,"realiza":7784,"##timo":7785,"audiencia":7786,"##zing":7787,"zur":7788,"##cks":7789,"##ost":7790,"zor":7791,"##iros":7792,"bienestar":7793,"exist":7794,"##body":7795,"incomo":7796,"frases":7797,"letra":7798,"##puestos":7799,"##fc":7800,"nombres":7801,"##ene":7802,"construir":7803,"##istes":7804,"lidera":7805,"decian":7806,"invitamos":7807,"sospe":7808,"latina":7809,"dela":7810,"wanna":7811,"ora":7812,"##teles":7813,"mtvlaparejaj":7814,"desemp":7815,"escal":7816,"verac":7817,"propuestas":7818,"aeropuerto":7819,"asesinos":7820,"sacri":7821,"##juliantina":7822,"##deces":7823,"tenis":7824,"sch":7825,"iguales":7826,"##kin":7827,"agric":7828,"##dria":7829,"##ary":7830,"##tumbre":7831,"mtvlafandomjuliantina":7832,"llegara":7833,"foro":7834,"another":7835,"mtvlaparejajuliantina":7836,"guarda":7837,"actos":7838,"##ifico":7839,"veni":7840,"contestar":7841,"conocimiento":7842,"presidencia":7843,"##23":7844,"ritmo":7845,"jajajajajajaja":7846,"zu":7847,"carnav":7848,"temb":7849,"despierta":7850,"doing":7851,"guys":7852,"limon":7853,"domic":7854,"operacion":7855,"limpie":7856,"hear":7857,"dejame":7858,"secreto":7859,"usan":7860,"sii":7861,"administracion":7862,"difundir":7863,"tendremos":7864,"compor":7865,"responsables":7866,"mtvlafandomjuliantinafans":7867,"##oot":7868,"sede":7869,"##tructura":7870,"instal":7871,"emocional":7872,"llevamos":7873,"plataforma":7874,"sl":7875,"desayun":7876,"matema":7877,"rea":7878,"estando":7879,"aprox":7880,"registro":7881,"##jitos":7882,"##iness":7883,"comentar":7884,"class":7885,"pato":7886,"valen":7887,"tipos":7888,"##tit":7889,"##enten":7890,"fuimos":7891,"##mex":7892,"ode":7893,"date":7894,"alzada":7895,"bajon":7896,"43":7897,"women":7898,"carga":7899,"chupa":7900,"unfollowed":7901,"##dig":7902,"trafico":7903,"jugue":7904,"caminando":7905,"##tain":7906,"identific":7907,"ordenador":7908,"genio":7909,"sui":7910,"directamente":7911,"##gaste":7912,"breve":7913,"sabiendo":7914,"ambas":7915,"pap":7916,"york":7917,"existir":7918,"castel":7919,"luci":7920,"ciudadania":7921,"##yu":7922,"fire":7923,"refu":7924,"rafael":7925,"fem":7926,"lleve":7927,"##idente":7928,"data":7929,"nig":7930,"intervencion":7931,"이":7932,"aureola":7933,"maxima":7934,"geno":7935,"firme":7936,"seamos":7937,"previa":7938,"##indo":7939,"ready":7940,"papi":7941,"nba":7942,"gasto":7943,"##ance":7944,"caball":7945,"indic":7946,"remember":7947,"falla":7948,"enlace":7949,"constitucional":7950,"fit":7951,"esperemos":7952,"enfo":7953,"simil":7954,"desperte":7955,"grand":7956,"mini":7957,"infierno":7958,"renunci":7959,"chance":7960,"encanto":7961,"agradezco":7962,"pases":7963,"##ele":7964,"parecido":7965,"ly":7966,"quise":7967,"##of":7968,"##bio":7969,"raza":7970,"ficar":7971,"##bor":7972,"ganando":7973,"empezamos":7974,"intentando":7975,"primeras":7976,"absur":7977,"haha":7978,"suje":7979,"vueltas":7980,"##gr":7981,"##vs":7982,"since":7983,"which":7984,"ingreso":7985,"aa":7986,"##ifi":7987,"aguantar":7988,"camila":7989,"together":7990,"simon":7991,"izquier":7992,"##서":7993,"tech":7994,"hacerte":7995,"yea":7996,"pit":7997,"ignorante":7998,"break":7999,"confirmo":8000,"carr":8001,"youre":8002,"cria":8003,"##lie":8004,"siete":8005,"##iu":8006,"official":8007,"posibilidad":8008,"recom":8009,"presidencial":8010,"##toso":8011,"44":8012,"rabia":8013,"nube":8014,"conejo":8015,"dead":8016,"oax":8017,"africa":8018,"carita":8019,"alguem":8020,"##ders":8021,"39":8022,"##uestas":8023,"malaga":8024,"##mal":8025,"##kas":8026,"liver":8027,"eterno":8028,"mood":8029,"likes":8030,"cus":8031,"proposito":8032,"angus":8033,"pelu":8034,"semestre":8035,"ceno":8036,"pay":8037,"espiritu":8038,"mich":8039,"anima":8040,"comercio":8041,"##alho":8042,"secretaria":8043,"hen":8044,"jos":8045,"times":8046,"entrenador":8047,"natal":8048,"lujo":8049,"defiende":8050,"estupido":8051,"labios":8052,"##dara":8053,"abuelo":8054,"##jajajajaj":8055,"dj":8056,"gif":8057,"##graph":8058,"boa":8059,"tendre":8060,"group":8061,"suyo":8062,"tuits":8063,"fiscalia":8064,"pilo":8065,"##wh":8066,"inspi":8067,"mir":8068,"acces":8069,"find":8070,"young":8071,"deser":8072,"jode":8073,"monoculo":8074,"##chner":8075,"reve":8076,"cesar":8077,"##rup":8078,"masco":8079,"pinches":8080,"ss":8081,"pisto":8082,"check":8083,"##ramos":8084,"alqui":8085,"##ificar":8086,"abro":8087,"##hael":8088,"cortar":8089,"choice":8090,"sentimiento":8091,"imple":8092,"enfrentar":8093,"clientes":8094,"ann":8095,"enamorar":8096,"sencillo":8097,"regional":8098,"##cula":8099,"generar":8100,"fondos":8101,"comi":8102,"blue":8103,"march":8104,"conclus":8105,"ney":8106,"echa":8107,"aprovech":8108,"crecimiento":8109,"away":8110,"##ijo":8111,"##sjaj":8112,"pensado":8113,"gradu":8114,"##enti":8115,"adoro":8116,"##aman":8117,"precioso":8118,"maf":8119,"##chool":8120,"##vic":8121,"##date":8122,"alegra":8123,"lead":8124,"prove":8125,"##lique":8126,"trailer":8127,"honduras":8128,"##erra":8129,"hallo":8130,"vestido":8131,"alcaldes":8132,"dueno":8133,"##aya":8134,"##cina":8135,"chef":8136,"palacio":8137,"##eada":8138,"edificio":8139,"cato":8140,"tax":8141,"lot":8142,"marcel":8143,"ris":8144,"consumo":8145,"xddd":8146,"##metro":8147,"venia":8148,"mostrador":8149,"##mix":8150,"##mados":8151,"##hyun":8152,"paral":8153,"encuentran":8154,"espacios":8155,"ghvip":8156,"imaginar":8157,"##rie":8158,"impacto":8159,"categoria":8160,"curr":8161,"##mart":8162,"negocia":8163,"tikto":8164,"propiedad":8165,"health":8166,"conocen":8167,"##dade":8168,"apple":8169,"##ips":8170,"sof":8171,"mendoza":8172,"gastar":8173,"deportes":8174,"alianza":8175,"##capacidad":8176,"mover":8177,"ministra":8178,"lives":8179,"##enme":8180,"miembros":8181,"pelotudos":8182,"##queria":8183,"daria":8184,"sumar":8185,"pana":8186,"presento":8187,"##dro":8188,"##rilla":8189,"caida":8190,"origen":8191,"pasaba":8192,"##ou":8193,"temporar":8194,"##jiste":8195,"wish":8196,"excusa":8197,"muriendo":8198,"##cano":8199,"descubre":8200,"ladrones":8201,"letras":8202,"beneficio":8203,"kilo":8204,"fight":8205,"##mu":8206,"##arla":8207,"hamburgues":8208,"##udes":8209,"coo":8210,"hincha":8211,"bi":8212,"alegro":8213,"arqui":8214,"sigues":8215,"queriendo":8216,"paras":8217,"infra":8218,"caras":8219,"abogado":8220,"racing":8221,"ia":8222,"soul":8223,"trendy":8224,"##cres":8225,"wacho":8226,"imagine":8227,"argumentos":8228,"boluda":8229,"campeones":8230,"ayudas":8231,"credito":8232,"retras":8233,"competencia":8234,"retiro":8235,"arreglar":8236,"popul":8237,"deberias":8238,"motor":8239,"##고":8240,"eventos":8241,"parcial":8242,"andro":8243,"chup":8244,"necesitaba":8245,"liverpool":8246,"lets":8247,"chabon":8248,"##지":8249,"llegaron":8250,"ciudades":8251,"geor":8252,"rumbo":8253,"done":8254,"##orias":8255,"amazing":8256,"kirchner":8257,"guia":8258,"banca":8259,"true":8260,"enfren":8261,"tt":8262,"##cien":8263,"bienvenido":8264,"ricar":8265,"##olu":8266,"filoso":8267,"cover":8268,"evan":8269,"respeta":8270,"##ari":8271,"posted":8272,"empiezo":8273,"##tienen":8274,"while":8275,"enfermo":8276,"arrepen":8277,"baila":8278,"homo":8279,"gent":8280,"##ides":8281,"##cidad":8282,"47":8283,"sebastian":8284,"empi":8285,"depresion":8286,"muchisimas":8287,"month":8288,"miserable":8289,"##ector":8290,"mexicana":8291,"morales":8292,"##ved":8293,"anon":8294,"permit":8295,"##teriores":8296,"vaso":8297,"vencer":8298,"idolo":8299,"coco":8300,"convir":8301,"toman":8302,"ponerse":8303,"##ᅧᆼ":8304,"violates":8305,"respir":8306,"##vida":8307,"salario":8308,"evo":8309,"promes":8310,"avent":8311,"concer":8312,"cliente":8313,"wonder":8314,"forever":8315,"distrib":8316,"veracruz":8317,"change":8318,"vera":8319,"beber":8320,"tay":8321,"metas":8322,"ocasion":8323,"cocinar":8324,"inci":8325,"venden":8326,"humedad":8327,"intro":8328,"##amentos":8329,"##ificado":8330,"angeles":8331,"pls":8332,"##60":8333,"femenino":8334,"tq":8335,"nothing":8336,"mandan":8337,"negar":8338,"conviv":8339,"caen":8340,"aplica":8341,"##cing":8342,"sobra":8343,"##hout":8344,"opciones":8345,"secretario":8346,"despierto":8347,"##가":8348,"wall":8349,"intelec":8350,"desesper":8351,"##ord":8352,"concre":8353,"departamento":8354,"empleados":8355,"congres":8356,"##segui":8357,"perrito":8358,"igualmente":8359,"tomor":8360,"sonre":8361,"hahahahaha":8362,"sna":8363,"##iao":8364,"wel":8365,"vine":8366,"salgan":8367,"fos":8368,"internacionales":8369,"##는":8370,"juegan":8371,"ff":8372,"bui":8373,"bala":8374,"confiar":8375,"socialismo":8376,"clau":8377,"happen":8378,"temporarily":8379,"##bel":8380,"alba":8381,"actualizacion":8382,"##fit":8383,"puedas":8384,"##terra":8385,"bangtan":8386,"girasol":8387,"psicolo":8388,"##zgo":8389,"hib":8390,"estupidez":8391,"##ᅥᆫ":8392,"multip":8393,"name":8394,"miami":8395,"candidatos":8396,"##come":8397,"unavailable":8398,"debut":8399,"##lib":8400,"##gem":8401,"dara":8402,"inseguridad":8403,"nah":8404,"##ars":8405,"marip":8406,"##cela":8407,"maquina":8408,"estrateg":8409,"descen":8410,"fundacion":8411,"desen":8412,"sanitaria":8413,"##vias":8414,"entreten":8415,"ham":8416,"plazo":8417,"comunistas":8418,"drogas":8419,"##pio":8420,"nervios":8421,"teoria":8422,"enferm":8423,"rique":8424,"##ng":8425,"chur":8426,"commun":8427,"stic":8428,"fundamental":8429,"ps4":8430,"alien":8431,"ajus":8432,"dudo":8433,"fuese":8434,"sienten":8435,"evidente":8436,"tigres":8437,"tendran":8438,"quiso":8439,"portada":8440,"##bb":8441,"##caron":8442,"chic":8443,"yourself":8444,"limpiar":8445,"beneficios":8446,"cohe":8447,"columna":8448,"llore":8449,"hecha":8450,"colombiano":8451,"biblio":8452,"locales":8453,"estudiando":8454,"child":8455,"raul":8456,"gabriel":8457,"matan":8458,"feminista":8459,"estabamos":8460,"cuaderno":8461,"tomorrow":8462,"grito":8463,"dile":8464,"dijiste":8465,"##clo":8466,"##ᅦ이":8467,"industri":8468,"hahahaha":8469,"lady":8470,"interac":8471,"hinchas":8472,"cali":8473,"jueces":8474,"conserv":8475,"regresar":8476,"socor":8477,"fechas":8478,"getting":8479,"convocatoria":8480,"hernandez":8481,"queen":8482,"salieron":8483,"orgulloso":8484,"detalle":8485,"##quista":8486,"instituto":8487,"vuestra":8488,"feminismo":8489,"dri":8490,"hues":8491,"esquina":8492,"nene":8493,"roberto":8494,"sono":8495,"##uch":8496,"salon":8497,"##thers":8498,"sinver":8499,"##jita":8500,"tuvieron":8501,"barbara":8502,"arrep":8503,"hicimos":8504,"agarra":8505,"regalar":8506,"##gers":8507,"limite":8508,"titulos":8509,"sindic":8510,"##ali":8511,"torres":8512,"colombianos":8513,"duran":8514,"quedas":8515,"uber":8516,"##ibe":8517,"torta":8518,"cuentan":8519,"abiertas":8520,"sit":8521,"quedaron":8522,"marc":8523,"ponte":8524,"resolver":8525,"##abe":8526,"estaran":8527,"megafono":8528,"demues":8529,"##ᅡᆯ":8530,"porra":8531,"school":8532,"listos":8533,"salsa":8534,"presta":8535,"##tendo":8536,"quedarme":8537,"reales":8538,"fria":8539,"escuelas":8540,"ken":8541,"jon":8542,"trabajan":8543,"##tty":8544,"##dedores":8545,"mueve":8546,"triangulo":8547,"aer":8548,"despre":8549,"granada":8550,"ayuntamiento":8551,"desayuno":8552,"respira":8553,"psico":8554,"importar":8555,"##taste":8556,"2013":8557,"guitarra":8558,"viz":8559,"##sp":8560,"vendo":8561,"##kw":8562,"dieta":8563,"quemar":8564,"##taro":8565,"puestos":8566,"juven":8567,"##dero":8568,"##daria":8569,"comienzo":8570,"monter":8571,"convertir":8572,"mantiene":8573,"preguntan":8574,"perre":8575,"cere":8576,"##28":8577,"ganamos":8578,"putos":8579,"prom":8580,"confor":8581,"formar":8582,"mafia":8583,"caos":8584,"playlist":8585,"ayudan":8586,"profesores":8587,"##rieron":8588,"curios":8589,"rich":8590,"porfavor":8591,"met":8592,"frun":8593,"cuello":8594,"##tadores":8595,"zoo":8596,"##play":8597,"cierra":8598,"evalu":8599,"epi":8600,"gilipollas":8601,"##ollon":8602,"michael":8603,"nacionales":8604,"zonas":8605,"distri":8606,"roma":8607,"jub":8608,"pt":8609,"amores":8610,"yall":8611,"logo":8612,"difun":8613,"testi":8614,"cobra":8615,"##dados":8616,"chingo":8617,"autoridad":8618,"nacio":8619,"##xx":8620,"empatia":8621,"vzla":8622,"comes":8623,"monu":8624,"##ismos":8625,"contagio":8626,"continuar":8627,"alrededor":8628,"kind":8629,"cerrada":8630,"tirando":8631,"droga":8632,"halloween":8633,"##ksks":8634,"govern":8635,"pelotas":8636,"confinamiento":8637,"light":8638,"renta":8639,"matando":8640,"levanta":8641,"virtu":8642,"compartimos":8643,"telefon":8644,"##ote":8645,"contando":8646,"bici":8647,"##aan":8648,"aux":8649,"cagada":8650,"entrenar":8651,"encantaria":8652,"ruido":8653,"espejo":8654,"##26":8655,"adv":8656,"aisla":8657,"incendio":8658,"##poche":8659,"rendir":8660,"complicado":8661,"bomberos":8662,"figura":8663,"money":8664,"infancia":8665,"sure":8666,"park":8667,"apertura":8668,"##reno":8669,"desco":8670,"fotografia":8671,"comenzo":8672,"##estima":8673,"escenario":8674,"ocurr":8675,"distra":8676,"presidenta":8677,"qe":8678,"competi":8679,"differ":8680,"regular":8681,"through":8682,"hermosas":8683,"preparado":8684,"ventana":8685,"huellas":8686,"##alia":8687,"vacio":8688,"cun":8689,"##27":8690,"podras":8691,"sigamos":8692,"flu":8693,"believe":8694,"##ports":8695,"pieza":8696,"yaaa":8697,"comba":8698,"bitch":8699,"asp":8700,"lamentablemente":8701,"ricardo":8702,"opos":8703,"asal":8704,"##unya":8705,"limpieza":8706,"nice":8707,"seguido":8708,"sra":8709,"okay":8710,"pep":8711,"olvides":8712,"try":8713,"barra":8714,"paciente":8715,"mecan":8716,"ire":8717,"##udos":8718,"viajes":8719,"start":8720,"tetas":8721,"65":8722,"##yente":8723,"ask":8724,"amenaza":8725,"cumplen":8726,"sorte":8727,"metio":8728,"activa":8729,"cataluna":8730,"uh":8731,"duerme":8732,"150":8733,"ladron":8734,"raj":8735,"tratamiento":8736,"mentiroso":8737,"alu":8738,"borrar":8739,"integra":8740,"ddhh":8741,"expertos":8742,"tenias":8743,"spain":8744,"##joon":8745,"od":8746,"transito":8747,"talk":8748,"46":8749,"switch":8750,"soledad":8751,"castillo":8752,"inmun":8753,"preocupada":8754,"tern":8755,"comenzar":8756,"zap":8757,"aprovechar":8758,"explicacion":8759,"metros":8760,"enj":8761,"##trui":8762,"denunciar":8763,"cour":8764,"gritar":8765,"ball":8766,"49":8767,"##minis":8768,"place":8769,"salimos":8770,"texto":8771,"propios":8772,"actualidad":8773,"adultos":8774,"recic":8775,"mascarillas":8776,"##dellin":8777,"conjunto":8778,"challenge":8779,"culpable":8780,"europea":8781,"espn":8782,"enemigo":8783,"united":8784,"descri":8785,"sky":8786,"enferma":8787,"vuestro":8788,"##ologica":8789,"saquen":8790,"##acia":8791,"recuperacion":8792,"empezando":8793,"grafica":8794,"sientes":8795,"lil":8796,"##ientas":8797,"justin":8798,"##ree":8799,"arbitro":8800,"escuchado":8801,"##dras":8802,"eliminar":8803,"normalidad":8804,"ax":8805,"poe":8806,"empiezan":8807,"asegura":8808,"observ":8809,"empu":8810,"belg":8811,"socialista":8812,"##game":8813,"golazo":8814,"obrador":8815,"impon":8816,"alcanza":8817,"anad":8818,"##enciales":8819,"pastel":8820,"##vez":8821,"eas":8822,"asociacion":8823,"contexto":8824,"nintendo":8825,"lobo":8826,"conexion":8827,"crean":8828,"mark":8829,"probablemente":8830,"800":8831,"demais":8832,"##sk":8833,"##bla":8834,"explico":8835,"laura":8836,"quejar":8837,"costumbre":8838,"##trono":8839,"preparando":8840,"companera":8841,"mutual":8842,"faltar":8843,"declaraciones":8844,"mtvlaic":8845,"##iaron":8846,"##sor":8847,"cana":8848,"without":8849,"cacer":8850,"##aking":8851,"contamos":8852,"present":8853,"android":8854,"##gad":8855,"primaria":8856,"seguira":8857,"podre":8858,"excep":8859,"acum":8860,"##tifico":8861,"logica":8862,"determin":8863,"beis":8864,"plato":8865,"##아":8866,"##년":8867,"bienvenida":8868,"tonight":8869,"##inen":8870,"around":8871,"fueran":8872,"plo":8873,"congra":8874,"##eso":8875,"positivos":8876,"gustavo":8877,"##ajajaja":8878,"gracioso":8879,"portatil":8880,"bot":8881,"cog":8882,"aveces":8883,"decirlo":8884,"moment":8885,"##ely":8886,"ilu":8887,"financia":8888,"cross":8889,"chr":8890,"novo":8891,"pau":8892,"##tly":8893,"guardar":8894,"canada":8895,"thread":8896,"cientific":8897,"fijo":8898,"sanitario":8899,"sofia":8900,"medellin":8901,"bole":8902,"proud":8903,"##tades":8904,"pareci":8905,"portugal":8906,"##zu":8907,"domingos":8908,"streaming":8909,"vivienda":8910,"fing":8911,"unicos":8912,"demonio":8913,"방":8914,"escla":8915,"pina":8916,"divertido":8917,"ensa":8918,"concent":8919,"subio":8920,"von":8921,"##nie":8922,"american":8923,"traje":8924,"callar":8925,"monterrey":8926,"oaxaca":8927,"##시":8928,"##titas":8929,"hig":8930,"australia":8931,"##ei":8932,"soluciones":8933,"esla":8934,"bah":8935,"flip":8936,"premier":8937,"##deras":8938,"##citos":8939,"bob":8940,"academ":8941,"##dencias":8942,"depo":8943,"distinto":8944,"rie":8945,"llegada":8946,"##ın":8947,"escolar":8948,"comunismo":8949,"56":8950,"amanecer":8951,"sirven":8952,"eb":8953,"girls":8954,"dictador":8955,"circo":8956,"pese":8957,"meet":8958,"fico":8959,"aaaa":8960,"valiente":8961,"pir":8962,"sv":8963,"encantan":8964,"etern":8965,"adecu":8966,"sle":8967,"stal":8968,"##vado":8969,"neymar":8970,"##hot":8971,"country":8972,"poss":8973,"tecnica":8974,"##rama":8975,"periodo":8976,"canto":8977,"##ᅩᆼ":8978,"##29":8979,"##atoria":8980,"decreto":8981,"namjoon":8982,"cansado":8983,"arquitec":8984,"manz":8985,"silla":8986,"rebel":8987,"##etica":8988,"nel":8989,"ajena":8990,"farc":8991,"##gir":8992,"##enj":8993,"lun":8994,"cobarde":8995,"hablen":8996,"quejan":8997,"aburrido":8998,"triple":8999,"asombrada":9000,"pacto":9001,"ciudadana":9002,"narcotra":9003,"bonitas":9004,"motivos":9005,"horarios":9006,"colabora":9007,"vuelo":9008,"decidir":9009,"aguas":9010,"##onico":9011,"paseo":9012,"exposicion":9013,"merda":9014,"impro":9015,"suscri":9016,"dormido":9017,"##ating":9018,"##dh":9019,"seras":9020,"territorio":9021,"bombon":9022,"denun":9023,"parecia":9024,"concepto":9025,"pasas":9026,"##dran":9027,"artis":9028,"ratas":9029,"socorro":9030,"feat":9031,"altos":9032,"crista":9033,"miseria":9034,"2000":9035,"##alidad":9036,"pich":9037,"cred":9038,"senador":9039,"lata":9040,"##dl":9041,"rompio":9042,"flaco":9043,"caballo":9044,"demanda":9045,"metal":9046,"sectores":9047,"vicepres":9048,"##udas":9049,"sound":9050,"huele":9051,"afort":9052,"amamos":9053,"controlar":9054,"boys":9055,"unif":9056,"##fr":9057,"cambiado":9058,"delincuente":9059,"hubieran":9060,"colonia":9061,"600":9062,"afortun":9063,"tonta":9064,"mejora":9065,"elite":9066,"remix":9067,"asunto":9068,"inven":9069,"existencia":9070,"against":9071,"##dona":9072,"patrimonio":9073,"estuviera":9074,"llegamos":9075,"angustia":9076,"arries":9077,"amplia":9078,"macho":9079,"guan":9080,"defendiendo":9081,"queja":9082,"subo":9083,"pario":9084,"casualidad":9085,"core":9086,"##com":9087,"identidad":9088,"medias":9089,"ner":9090,"asustada":9091,"arrancar":9092,"fall":9093,"##kkk":9094,"##pers":9095,"yeah":9096,"##ezas":9097,"maj":9098,"##ota":9099,"hala":9100,"ende":9101,"asesinato":9102,"consigo":9103,"emi":9104,"sacrific":9105,"tempor":9106,"situaciones":9107,"famoso":9108,"decide":9109,"##tua":9110,"dance":9111,"##polit":9112,"##esia":9113,"##oradas":9114,"divid":9115,"diplo":9116,"ill":9117,"aplicacion":9118,"##traron":9119,"practicas":9120,"levantarme":9121,"hum":9122,"state":9123,"chap":9124,"limites":9125,"olvidado":9126,"semej":9127,"autoestima":9128,"habitacion":9129,"resistencia":9130,"hermosos":9131,"##ready":9132,"polem":9133,"cifras":9134,"dl":9135,"95":9136,"estou":9137,"##acas":9138,"orte":9139,"##fs":9140,"astu":9141,"cigar":9142,"disfrutando":9143,"confia":9144,"must":9145,"muerta":9146,"block":9147,"carnaval":9148,"editor":9149,"sigueme":9150,"jugada":9151,"principios":9152,"water":9153,"altas":9154,"##ritos":9155,"pira":9156,"adqui":9157,"regu":9158,"utilizar":9159,"pasamos":9160,"59":9161,"##로":9162,"##icanos":9163,"secu":9164,"comunidades":9165,"##madre":9166,"##tismo":9167,"empollon":9168,"fallecidos":9169,"sano":9170,"##dable":9171,"laburo":9172,"moon":9173,"##ned":9174,"documental":9175,"descansar":9176,"darse":9177,"kan":9178,"looks":9179,"fila":9180,"neur":9181,"estudiante":9182,"##osas":9183,"food":9184,"vaquero":9185,"leal":9186,"lp":9187,"artific":9188,"nace":9189,"rm":9190,"followers":9191,"instru":9192,"autent":9193,"##ison":9194,"eslabon":9195,"docente":9196,"derrota":9197,"contesta":9198,"already":9199,"ptm":9200,"maravillosa":9201,"##ils":9202,"emer":9203,"delitos":9204,"tomate":9205,"ida":9206,"terroristas":9207,"estabas":9208,"gigante":9209,"taylor":9210,"190":9211,"senado":9212,"2012":9213,"pack":9214,"vina":9215,"proximos":9216,"coher":9217,"finalmente":9218,"mp":9219,"llevas":9220,"beisbol":9221,"ramon":9222,"evidencia":9223,"scre":9224,"pista":9225,"museo":9226,"##pero":9227,"##eld":9228,"lau":9229,"innovacion":9230,"pelear":9231,"masac":9232,"send":9233,"##sung":9234,"##urales":9235,"##arca":9236,"bie":9237,"##ajja":9238,"##fu":9239,"tranquilidad":9240,"robaron":9241,"criticas":9242,"liqui":9243,"barrios":9244,"mascul":9245,"dominicana":9246,"late":9247,"quedamos":9248,"catalunya":9249,"enterate":9250,"##ius":9251,"##deo":9252,"cuidate":9253,"crei":9254,"##mpl":9255,"##boy":9256,"queb":9257,"sentencia":9258,"protestas":9259,"note":9260,"opiniones":9261,"invitar":9262,"##tte":9263,"ov":9264,"iv":9265,"##yeron":9266,"mtvlaicono":9267,"##rp":9268,"enem":9269,"tulip":9270,"destruir":9271,"status":9272,"aprend":9273,"descuento":9274,"tumb":9275,"sy":9276,"57":9277,"clubes":9278,"pelos":9279,"##istico":9280,"flamen":9281,"recomendaciones":9282,"constitu":9283,"comparti":9284,"ideologia":9285,"interro":9286,"principales":9287,"##aces":9288,"convierte":9289,"matter":9290,"tiktok":9291,"violen":9292,"##ibo":9293,"##wl":9294,"licencia":9295,"##dres":9296,"reserva":9297,"cb":9298,"examenes":9299,"pach":9300,"secon":9301,"pretty":9302,"ubic":9303,"##monia":9304,"##ats":9305,"vais":9306,"##temos":9307,"##cusion":9308,"##yon":9309,"tambem":9310,"incomp":9311,"academia":9312,"42":9313,"alcaldia":9314,"fallo":9315,"pn":9316,"querian":9317,"##cis":9318,"debajo":9319,"sales":9320,"##mbia":9321,"vela":9322,"traged":9323,"lucia":9324,"cerra":9325,"##tanas":9326,"noo":9327,"sentar":9328,"personalidad":9329,"movie":9330,"vdd":9331,"ambien":9332,"produ":9333,"servir":9334,"cohete":9335,"andas":9336,"nova":9337,"ofer":9338,"##80":9339,"velocidad":9340,"daily":9341,"##bamos":9342,"resuel":9343,"sema":9344,"##rol":9345,"tulipan":9346,"reca":9347,"가":9348,"quar":9349,"imaginan":9350,"argumento":9351,"publicacion":9352,"rut":9353,"##een":9354,"##ᅥᆼ":9355,"jubila":9356,"porno":9357,"berenj":9358,"ratito":9359,"peticion":9360,"necesaria":9361,"canse":9362,"imaginas":9363,"##usas":9364,"soltar":9365,"ship":9366,"lean":9367,"reporte":9368,"pagando":9369,"##gaba":9370,"recibio":9371,"regala":9372,"##탄":9373,"depri":9374,"emociones":9375,"docentes":9376,"corea":9377,"##andome":9378,"##100":9379,"sd":9380,"sucede":9381,"friday":9382,"especialmente":9383,"deseos":9384,"bancos":9385,"sentia":9386,"diosss":9387,"presun":9388,"influen":9389,"viral":9390,"rios":9391,"아":9392,"coleccion":9393,"latest":9394,"##tern":9395,"disen":9396,"falar":9397,"desapareci":9398,"fruncido":9399,"montana":9400,"agricul":9401,"##terias":9402,"##cacion":9403,"apreton":9404,"making":9405,"enamorado":9406,"investigar":9407,"##real":9408,"##ties":9409,"lanza":9410,"terminan":9411,"discip":9412,"##2017":9413,"fuji":9414,"tipico":9415,"depois":9416,"##iendas":9417,"##uem":9418,"menudo":9419,"confio":9420,"alo":9421,"tormenta":9422,"##board":9423,"sport":9424,"fantasia":9425,"looking":9426,"opinar":9427,"secues":9428,"gallina":9429,"toler":9430,"##hing":9431,"##cons":9432,"audios":9433,"precisamente":9434,"agente":9435,"join":9436,"casti":9437,"toxica":9438,"extraordin":9439,"asia":9440,"enjoy":9441,"##ganda":9442,"solar":9443,"##igual":9444,"mios":9445,"verme":9446,"captura":9447,"##ap":9448,"sienta":9449,"vem":9450,"##direc":9451,"male":9452,"pilas":9453,"brazo":9454,"parlament":9455,"azucar":9456,"##tena":9457,"##leypoche":9458,"conmemo":9459,"grado":9460,"asado":9461,"coma":9462,"prometo":9463,"##logo":9464,"##jadas":9465,"subiendo":9466,"cuarta":9467,"censura":9468,"transformacion":9469,"vidal":9470,"correa":9471,"intenta":9472,"empan":9473,"##yor":9474,"muchachos":9475,"##dom":9476,"caiga":9477,"cause":9478,"socios":9479,"aument":9480,"barato":9481,"##ladas":9482,"gla":9483,"mmmm":9484,"alvaro":9485,"tribunal":9486,"vehiculo":9487,"mariposa":9488,"preca":9489,"##isimos":9490,"bull":9491,"claudia":9492,"##sey":9493,"terminado":9494,"dog":9495,"venezolana":9496,"##calleypoche":9497,"mediante":9498,"decimos":9499,"ester":9500,"##sss":9501,"declaracion":9502,"manejar":9503,"norma":9504,"acce":9505,"##liga":9506,"ingresos":9507,"haran":9508,"marcos":9509,"##andonos":9510,"##pto":9511,"rick":9512,"hes":9513,"sabeis":9514,"naaa":9515,"parlante":9516,"oficiales":9517,"piensas":9518,"ensenar":9519,"terapia":9520,"ib":9521,"fines":9522,"gel":9523,"##final":9524,"entrenamiento":9525,"##reta":9526,"##ervar":9527,"방탄":9528,"stand":9529,"racismo":9530,"##주":9531,"extrema":9532,"actuacion":9533,"creacion":9534,"coach":9535,"cubre":9536,"pentag":9537,"excepcion":9538,"cated":9539,"tava":9540,"espec":9541,"activo":9542,"garantizar":9543,"veas":9544,"mod":9545,"left":9546,"inn":9547,"cruel":9548,"mtvlaiconocalleypoche":9549,"kilos":9550,"caido":9551,"aquella":9552,"fernet":9553,"wri":9554,"entidad":9555,"sepan":9556,"chavista":9557,"acomo":9558,"inca":9559,"pesad":9560,"paco":9561,"exterior":9562,"cona":9563,"aguila":9564,"primavera":9565,"stories":9566,"repente":9567,"luchando":9568,"insopor":9569,"##ectar":9570,"terrorismo":9571,"##caba":9572,"cambian":9573,"41":9574,"habitantes":9575,"sev":9576,"##의":9577,"geo":9578,"atacar":9579,"rip":9580,"flaca":9581,"armar":9582,"tacos":9583,"maraton":9584,"reconoce":9585,"##ulado":9586,"pasta":9587,"sonreir":9588,"distintos":9589,"invitacion":9590,"pedimos":9591,"##gnos":9592,"##mante":9593,"aconte":9594,"##cher":9595,"hello":9596,"enfermos":9597,"##down":9598,"miente":9599,"nossa":9600,"tragedia":9601,"hom":9602,"historica":9603,"pistola":9604,"produce":9605,"asistencia":9606,"games":9607,"minima":9608,"##arial":9609,"##todo":9610,"medicamentos":9611,"cumpli":9612,"pague":9613,"##nite":9614,"gp":9615,"sudamer":9616,"##rin":9617,"contemp":9618,"rc":9619,"limpia":9620,"rapida":9621,"gustas":9622,"santan":9623,"##단":9624,"aquello":9625,"latinoamerica":9626,"murcia":9627,"##decer":9628,"tortura":9629,"aparecio":9630,"gustos":9631,"54":9632,"inmen":9633,"suben":9634,"hijueputa":9635,"dientes":9636,"separ":9637,"parado":9638,"ayuso":9639,"makes":9640,"85":9641,"uns":9642,"depos":9643,"click":9644,"##verde":9645,"##enses":9646,"eduardo":9647,"tomen":9648,"gustaba":9649,"pregunte":9650,"volviendo":9651,"semb":9652,"podrias":9653,"combin":9654,"acoso":9655,"meus":9656,"borre":9657,"case":9658,"special":9659,"ortega":9660,"chiqui":9661,"gros":9662,"clan":9663,"##xual":9664,"compu":9665,"##doni":9666,"##dimos":9667,"##fra":9668,"berenjena":9669,"consigue":9670,"fama":9671,"##uo":9672,"pierdo":9673,"poesia":9674,"necesidades":9675,"smart":9676,"gata":9677,"jarra":9678,"cry":9679,"gobernar":9680,"maca":9681,"boda":9682,"naz":9683,"guerrero":9684,"debil":9685,"##torial":9686,"pension":9687,"obsesion":9688,"meloco":9689,"coraje":9690,"aprovecha":9691,"trip":9692,"paquete":9693,"nick":9694,"considera":9695,"nis":9696,"isa":9697,"##fos":9698,"##icon":9699,"volvemos":9700,"sensible":9701,"##uita":9702,"encontrado":9703,"cansa":9704,"milagro":9705,"expecta":9706,"patron":9707,"sentirme":9708,"notific":9709,"prev":9710,"vigil":9711,"jimen":9712,"cuchillo":9713,"maestra":9714,"eles":9715,"##carra":9716,"palos":9717,"##sal":9718,"feeling":9719,"concej":9720,"##tiza":9721,"sonando":9722,"criminales":9723,"save":9724,"regalos":9725,"exigir":9726,"##peda":9727,"marcelo":9728,"##mitas":9729,"58":9730,"evangel":9731,"whats":9732,"llamas":9733,"lineas":9734,"pensamientos":9735,"##lig":9736,"deberiamos":9737,"betis":9738,"estatal":9739,"mimos":9740,"llame":9741,"##nic":9742,"##wo":9743,"humilde":9744,"report":9745,"idiotas":9746,"maestros":9747,"sum":9748,"supero":9749,"##dea":9750,"fica":9751,"thin":9752,"##dada":9753,"ponerle":9754,"proj":9755,"agarro":9756,"mulher":9757,"manzana":9758,"pared":9759,"##inete":9760,"nico":9761,"sweet":9762,"##vide":9763,"merecemos":9764,"reserv":9765,"reh":9766,"juntar":9767,"perfectamente":9768,"receta":9769,"verdes":9770,"twitch":9771,"uff":9772,"negros":9773,"cantante":9774,"digno":9775,"##turo":9776,"rr":9777,"melocoton":9778,"george":9779,"##vada":9780,"##monos":9781,"dama":9782,"53":9783,"cursos":9784,"piola":9785,"organizado":9786,"yang":9787,"lengu":9788,"puesta":9789,"oigan":9790,"##asa":9791,"circun":9792,"bff":9793,"pollito":9794,"ventas":9795,"olimpia":9796,"amistades":9797,"##gador":9798,"cicl":9799,"comprob":9800,"ramo":9801,"distintas":9802,"avenida":9803,"##igos":9804,"agro":9805,"##hon":9806,"sonido":9807,"##uerzos":9808,"ip":9809,"actually":9810,"anteriores":9811,"delant":9812,"##ward":9813,"enfermedades":9814,"jurid":9815,"##enio":9816,"##dere":9817,"estimado":9818,"##bur":9819,"ky":9820,"votaron":9821,"maybe":9822,"deu":9823,"bea":9824,"kkkk":9825,"caigo":9826,"rueda":9827,"lesb":9828,"impar":9829,"lid":9830,"pastor":9831,"atropel":9832,"##ᅮᆨ":9833,"escuchas":9834,"ocurrio":9835,"universal":9836,"##ries":9837,"liberal":9838,"perfect":9839,"calif":9840,"comand":9841,"ines":9842,"##트":9843,"meten":9844,"falsos":9845,"tuvimos":9846,"##eton":9847,"aguanta":9848,"jugado":9849,"aseguro":9850,"alber":9851,"##quill":9852,"favoritos":9853,"wea":9854,"##imientos":9855,"llevando":9856,"dou":9857,"marta":9858,"termo":9859,"violacion":9860,"alcanzar":9861,"roban":9862,"carretera":9863,"##ational":9864,"muuu":9865,"hablemos":9866,"crema":9867,"carabin":9868,"confirmado":9869,"biden":9870,"hierba":9871,"##소년":9872,"neol":9873,"##rich":9874,"gris":9875,"casado":9876,"revolo":9877,"favorite":9878,"##jam":9879,"##zados":9880,"##istir":9881,"ze":9882,"bunny":9883,"io":9884,"acepto":9885,"buenisimo":9886,"desac":9887,"fidel":9888,"religion":9889,"suic":9890,"##eran":9891,"radical":9892,"says":9893,"molt":9894,"moch":9895,"guadal":9896,"diagnos":9897,"##rez":9898,"sic":9899,"curioso":9900,"dels":9901,"roy":9902,"manu":9903,"##pping":9904,"sie":9905,"disculpa":9906,"##enomen":9907,"fuentes":9908,"referencia":9909,"##wor":9910,"apell":9911,"atentos":9912,"##fobia":9913,"acuerdan":9914,"edo":9915,"sacaron":9916,"bancar":9917,"tiran":9918,"##소년단":9919,"servid":9920,"lmao":9921,"에":9922,"requis":9923,"future":9924,"##itarias":9925,"##gaz":9926,"otor":9927,"karma":9928,"ctm":9929,"encab":9930,"pepe":9931,"mau":9932,"vehiculos":9933,"golp":9934,"##aros":9935,"##rla":9936,"semejante":9937,"reda":9938,"cagando":9939,"1er":9940,"sense":9941,"tach":9942,"damn":9943,"protec":9944,"##pink":9945,"mapa":9946,"squ":9947,"perspec":9948,"lxs":9949,"##ao":9950,"recibido":9951,"dibujo":9952,"pensiones":9953,"tengamos":9954,"lento":9955,"niveles":9956,"dificiles":9957,"falsas":9958,"cargar":9959,"trying":9960,"4t":9961,"noc":9962,"cientos":9963,"movilidad":9964,"olviden":9965,"hair":9966,"petroleo":9967,"revoloteando":9968,"cagan":9969,"secun":9970,"maur":9971,"teniamos":9972,"##gran":9973,"cristal":9974,"donald":9975,"promedio":9976,"##goza":9977,"##leo":9978,"seguiremos":9979,"farmac":9980,"sleep":9981,"preocupar":9982,"jiji":9983,"##rosos":9984,"kat":9985,"방탄소년단":9986,"transparencia":9987,"point":9988,"##triz":9989,"galicia":9990,"parada":9991,"pendientes":9992,"exhib":9993,"contento":9994,"iniciar":9995,"individual":9996,"peligroso":9997,"atien":9998,"##mus":9999,"tomado":10000,"chavismo":10001,"dirigentes":10002,"metido":10003,"glor":10004,"leyenda":10005,"conflicto":10006,"##camb":10007,"##rity":10008,"tucu":10009,"##itores":10010,"enamora":10011,"mister":10012,"woman":10013,"festejar":10014,"hibisco":10015,"escand":10016,"osorio":10017,"verlos":10018,"hostia":10019,"##ors":10020,"perjud":10021,"huelga":10022,"disculpas":10023,"quan":10024,"devolver":10025,"oms":10026,"capitulos":10027,"tapa":10028,"ema":10029,"especiales":10030,"both":10031,"coop":10032,"octa":10033,"gargan":10034,"plante":10035,"gn":10036,"##fir":10037,"pentagrama":10038,"lava":10039,"juliantina":10040,"vacun":10041,"mierdas":10042,"barco":10043,"descargar":10044,"##orro":10045,"##cies":10046,"jogo":10047,"crece":10048,"prete":10049,"delic":10050,"india":10051,"chill":10052,"transfor":10053,"efectos":10054,"paulo":10055,"extranaba":10056,"such":10057,"##cadillo":10058,"busqueda":10059,"##raron":10060,"incons":10061,"salta":10062,"ful":10063,"ajaja":10064,"sentirse":10065,"snap":10066,"##enca":10067,"##elia":10068,"parejas":10069,"profunda":10070,"fala":10071,"##rarse":10072,"gota":10073,"ninguem":10074,"regresa":10075,"##mann":10076,"chich":10077,"##racan":10078,"barran":10079,"##damente":10080,"gonzalo":10081,"robado":10082,"capaces":10083,"joe":10084,"activos":10085,"##jajaja":10086,"dc":10087,"indis":10088,"escribo":10089,"##ize":10090,"##cend":10091,"condena":10092,"##iter":10093,"mtvlafando":10094,"eva":10095,"##arro":10096,"debio":10097,"66":10098,"rutina":10099,"lanzamiento":10100,"californ":10101,"isabel":10102,"##oya":10103,"dani":10104,"empa":10105,"smi":10106,"preciso":10107,"green":10108,"##lab":10109,"##tren":10110,"##bete":10111,"respirar":10112,"jugamos":10113,"##tadora":10114,"proteg":10115,"lora":10116,"welcome":10117,"bende":10118,"grafico":10119,"##gam":10120,"manches":10121,"detes":10122,"fijate":10123,"cable":10124,"gole":10125,"##istar":10126,"##mito":10127,"detenido":10128,"distrito":10129,"relaj":10130,"tortu":10131,"consum":10132,"frontera":10133,"zapatos":10134,"labora":10135,"##cat":10136,"municipios":10137,"impuesto":10138,"realizo":10139,"actualmente":10140,"traidor":10141,"ejecutivo":10142,"##atra":10143,"hj":10144,"chiquito":10145,"feb":10146,"llevaba":10147,"aporte":10148,"##icidad":10149,"tag":10150,"duenos":10151,"cai":10152,"confirmar":10153,"requiere":10154,"recupera":10155,"wars":10156,"quinta":10157,"manifestacion":10158,"supermer":10159,"bn":10160,"patio":10161,"evita":10162,"quere":10163,"siguiendo":10164,"solicitud":10165,"beh":10166,"during":10167,"domicilio":10168,"ascenso":10169,"grados":10170,"table":10171,"lara":10172,"bondoni":10173,"diana":10174,"demon":10175,"discapacidad":10176,"saldra":10177,"entere":10178,"##ingo":10179,"book":10180,"sangu":10181,"hablame":10182,"veter":10183,"eyes":10184,"##ecucion":10185,"creia":10186,"ina":10187,"huracan":10188,"decirme":10189,"queridos":10190,"##graphy":10191,"matrimonio":10192,"rodrigo":10193,"talleres":10194,"whole":10195,"integral":10196,"tqm":10197,"exci":10198,"act":10199,"comite":10200,"reach":10201,"pierden":10202,"ako":10203,"esperas":10204,"vere":10205,"zoom":10206,"heroe":10207,"share":10208,"etica":10209,"objetivos":10210,"autos":10211,"mueren":10212,"rostro":10213,"196":10214,"manan":10215,"queden":10216,"ofrecer":10217,"policial":10218,"consen":10219,"sj":10220,"##grado":10221,"guy":10222,"contesto":10223,"metodo":10224,"formula":10225,"##icen":10226,"comeback":10227,"nct":10228,"solicita":10229,"reason":10230,"villar":10231,"experiencias":10232,"anything":10233,"entao":10234,"##ᅡᆷ":10235,"##ult":10236,"seok":10237,"sav":10238,"dil":10239,"fritas":10240,"hiper":10241,"##uk":10242,"tromp":10243,"marvel":10244,"lenguaje":10245,"semafor":10246,"##tula":10247,"ronda":10248,"admiro":10249,"##gest":10250,"abogados":10251,"ronaldo":10252,"luv":10253,"wifi":10254,"quedando":10255,"bienvenidos":10256,"vivido":10257,"##mita":10258,"##guar":10259,"caes":10260,"##wing":10261,"acha":10262,"until":10263,"woo":10264,"unfollowers":10265,"##camara":10266,"oce":10267,"coisas":10268,"vezes":10269,"sismo":10270,"atleti":10271,"##cr":10272,"##세":10273,"pegue":10274,"exter":10275,"acar":10276,"##ieren":10277,"shar":10278,"brown":10279,"comunicar":10280,"adivinen":10281,"autobus":10282,"##adre":10283,"##piro":10284,"garganta":10285,"piba":10286,"photos":10287,"rose":10288,"veran":10289,"ayude":10290,"depend":10291,"practicamente":10292,"having":10293,"lgb":10294,"rara":10295,"vizcarra":10296,"manija":10297,"64":10298,"##ectados":10299,"##laterra":10300,"prevenir":10301,"independent":10302,"update":10303,"##adi":10304,"fora":10305,"explique":10306,"film":10307,"##rill":10308,"ingenier":10309,"perdona":10310,"involu":10311,"##ione":10312,"volar":10313,"##tencias":10314,"lang":10315,"priva":10316,"podamos":10317,"chinos":10318,"##win":10319,"personales":10320,"##usos":10321,"cansan":10322,"burla":10323,"eee":10324,"retra":10325,"ive":10326,"abandono":10327,"mortal":10328,"seccion":10329,"pales":10330,"bell":10331,"machista":10332,"llenar":10333,"discusion":10334,"##tuvo":10335,"fenomen":10336,"gratuita":10337,"tela":10338,"tontos":10339,"##pora":10340,"quedara":10341,"vimos":10342,"jajajajajaj":10343,"acre":10344,"##ensa":10345,"canarias":10346,"##fal":10347,"taxi":10348,"herramientas":10349,"obtener":10350,"aplicar":10351,"cargos":10352,"inglaterra":10353,"##ben":10354,"explos":10355,"event":10356,"escudo":10357,"difusion":10358,"entran":10359,"barba":10360,"hell":10361,"combate":10362,"chilenos":10363,"lost":10364,"tamano":10365,"##ferencia":10366,"vein":10367,"gras":10368,"##tificado":10369,"apellido":10370,"##viendo":10371,"faltaba":10372,"posibles":10373,"facu":10374,"conviene":10375,"joya":10376,"rompiendo":10377,"quereis":10378,"novedades":10379,"merezco":10380,"##kak":10381,"entorno":10382,"besitos":10383,"ash":10384,"uf":10385,"ahh":10386,"correcta":10387,"ataques":10388,"dificul":10389,"avanza":10390,"jackson":10391,"sacado":10392,"perfor":10393,"travel":10394,"dismin":10395,"boletos":10396,"demostrado":10397,"pai":10398,"combatir":10399,"muera":10400,"##nia":10401,"nostal":10402,"represion":10403,"decada":10404,"antigu":10405,"bono":10406,"merida":10407,"indo":10408,"vuelvan":10409,"til":10410,"weon":10411,"dedicar":10412,"frank":10413,"desaparecer":10414,"aler":10415,"sintomas":10416,"divina":10417,"santander":10418,"##acate":10419,"##rigada":10420,"oficialmente":10421,"bayern":10422,"mica":10423,"vaca":10424,"cobran":10425,"amis":10426,"aislamiento":10427,"mori":10428,"##into":10429,"scar":10430,"##ajara":10431,"##eth":10432,"dun":10433,"##ining":10434,"indigenas":10435,"apuesta":10436,"eramos":10437,"##ficientes":10438,"##onga":10439,"inclui":10440,"liderazgo":10441,"##vir":10442,"jour":10443,"roll":10444,"mai":10445,"##90":10446,"llueve":10447,"law":10448,"terrorista":10449,"jornadas":10450,"psi":10451,"##lador":10452,"juvenil":10453,"enojo":10454,"jk":10455,"##tade":10456,"chel":10457,"entendido":10458,"##kis":10459,"inmig":10460,"sed":10461,"dies":10462,"coch":10463,"paraiso":10464,"tire":10465,"ambiental":10466,"denuncias":10467,"reciente":10468,"queee":10469,"pereza":10470,"enough":10471,"xbox":10472,"cuadro":10473,"aula":10474,"capo":10475,"##jeje":10476,"move":10477,"uk":10478,"salto":10479,"camaras":10480,"estao":10481,"##uesto":10482,"gun":10483,"inex":10484,"##atar":10485,"dormida":10486,"california":10487,"videocamara":10488,"avec":10489,"bendicion":10490,"hamburguesa":10491,"ponemos":10492,"aprendiz":10493,"espectaculo":10494,"##dible":10495,"biz":10496,"minas":10497,"lateral":10498,"thought":10499,"representantes":10500,"malditos":10501,"##ust":10502,"permanente":10503,"sla":10504,"##acan":10505,"기":10506,"zomb":10507,"camisa":10508,"rincon":10509,"mass":10510,"fatal":10511,"diste":10512,"risas":10513,"myself":10514,"masa":10515,"monstru":10516,"fortnite":10517,"##워":10518,"##xe":10519,"pino":10520,"##70":10521,"empate":10522,"mauricio":10523,"sufre":10524,"bonitos":10525,"##more":10526,"exige":10527,"sanciones":10528,"embarazada":10529,"recomp":10530,"elab":10531,"##itz":10532,"aburrida":10533,"ofrec":10534,"##ribles":10535,"##almente":10536,"patri":10537,"directiva":10538,"jalisco":10539,"oido":10540,"kk":10541,"celebracion":10542,"buy":10543,"##ules":10544,"##gones":10545,"chivas":10546,"##cked":10547,"ecuator":10548,"chingada":10549,"soporto":10550,"prio":10551,"metan":10552,"profundo":10553,"rojas":10554,"weather":10555,"pilar":10556,"pronos":10557,"tkm":10558,"##arlos":10559,"legiti":10560,"kara":10561,"troll":10562,"incu":10563,"land":10564,"vcs":10565,"ciertas":10566,"abuelos":10567,"##army":10568,"f1":10569,"##기":10570,"cartas":10571,"##lina":10572,"ordenes":10573,"seen":10574,"hacian":10575,"cooper":10576,"main":10577,"discutir":10578,"##hora":10579,"propone":10580,"pudieron":10581,"##ons":10582,"seguros":10583,"frag":10584,"##top":10585,"propaganda":10586,"penas":10587,"52":10588,"##dentes":10589,"##quillo":10590,"##inosa":10591,"##eok":10592,"mk":10593,"escandalo":10594,"propor":10595,"ambul":10596,"##adamente":10597,"romero":10598,"cientificos":10599,"eg":10600,"incend":10601,"rollo":10602,"infec":10603,"zaragoza":10604,"anyone":10605,"bocadillo":10606,"panza":10607,"##dn":10608,"perdieron":10609,"karol":10610,"##casa":10611,"##ists":10612,"gastos":10613,"oct":10614,"expor":10615,"maraca":10616,"##selo":10617,"hueco":10618,"recordamos":10619,"##izamos":10620,"avisa":10621,"##lying":10622,"chale":10623,"relevan":10624,"rei":10625,"##tela":10626,"asist":10627,"carreras":10628,"andre":10629,"different":10630,"defienden":10631,"luck":10632,"blackpink":10633,"lana":10634,"similar":10635,"apoyan":10636,"galax":10637,"choco":10638,"history":10639,"million":10640,"toro":10641,"pongas":10642,"bobo":10643,"abuel":10644,"##mmy":10645,"atta":10646,"repud":10647,"iii":10648,"pinto":10649,"creyendo":10650,"##ume":10651,"##asta":10652,"reducir":10653,"##ormales":10654,"ht":10655,"realizado":10656,"revisar":10657,"novios":10658,"dy":10659,"justificar":10660,"tareas":10661,"job":10662,"refiero":10663,"enamore":10664,"##ched":10665,"aprobar":10666,"huer":10667,"##atas":10668,"progreso":10669,"legend":10670,"jajajajajajajaja":10671,"patro":10672,"alan":10673,"ea":10674,"##hip":10675,"bring":10676,"tips":10677,"random":10678,"pintarse":10679,"##oney":10680,"international":10681,"subi":10682,"contribu":10683,"dedica":10684,"merito":10685,"aber":10686,"escribi":10687,"proximas":10688,"##live":10689,"corri":10690,"detener":10691,"wn":10692,"gimnasio":10693,"almo":10694,"cenar":10695,"51":10696,"temporadas":10697,"vous":10698,"comandante":10699,"##izon":10700,"universidades":10701,"##gor":10702,"gritos":10703,"apete":10704,"influencer":10705,"##hop":10706,"protocolo":10707,"descubrir":10708,"florida":10709,"riendo":10710,"##tisimo":10711,"78":10712,"##tire":10713,"favoritas":10714,"critico":10715,"rocio":10716,"microb":10717,"reglas":10718,"plane":10719,"guz":10720,"tratan":10721,"princi":10722,"grabar":10723,"##vana":10724,"infel":10725,"##rong":10726,"hipocrita":10727,"danos":10728,"##atura":10729,"##nya":10730,"frecu":10731,"rene":10732,"corresponde":10733,"mediocre":10734,"suya":10735,"consol":10736,"cade":10737,"restaurante":10738,"hip":10739,"margar":10740,"pain":10741,"capitalismo":10742,"mito":10743,"humildad":10744,"##mico":10745,"marcas":10746,"xx":10747,"hours":10748,"interrogacion":10749,"paginas":10750,"vargas":10751,"cumpliendo":10752,"inocente":10753,"jaime":10754,"marcar":10755,"estudia":10756,"generos":10757,"##entina":10758,"revel":10759,"canales":10760,"dans":10761,"diosito":10762,"match":10763,"##gl":10764,"suba":10765,"conclusion":10766,"caralho":10767,"2010":10768,"muchacho":10769,"##adoras":10770,"guadalajara":10771,"informo":10772,"lie":10773,"alternativa":10774,"llegas":10775,"##gencias":10776,"varon":10777,"desear":10778,"loz":10779,"##alos":10780,"feministas":10781,"ternura":10782,"diaria":10783,"noctur":10784,"europeo":10785,"incluye":10786,"fren":10787,"##olla":10788,"##ieres":10789,"atar":10790,"optim":10791,"alfon":10792,"velez":10793,"panico":10794,"convertido":10795,"criterio":10796,"adn":10797,"gi":10798,"gold":10799,"golden":10800,"hayas":10801,"custo":10802,"visitas":10803,"63":10804,"preocupes":10805,"##ᅡᄅ":10806,"pib":10807,"##tez":10808,"nacer":10809,"felicito":10810,"amado":10811,"police":10812,"quite":10813,"sueldos":10814,"pesimo":10815,"secundaria":10816,"##uidad":10817,"##quera":10818,"pdte":10819,"secuestra":10820,"cronica":10821,"organizar":10822,"vital":10823,"body":10824,"##hal":10825,"asign":10826,"firmar":10827,"parecio":10828,"memb":10829,"himno":10830,"equivoca":10831,"wrong":10832,"venido":10833,"jur":10834,"saying":10835,"x2":10836,"hoc":10837,"inutiles":10838,"##ᅢᆼ":10839,"acel":10840,"hipocres":10841,"rain":10842,"key":10843,"democratico":10844,"##uos":10845,"120":10846,"avanzar":10847,"vit":10848,"intelectual":10849,"disponibles":10850,"98":10851,"##fthe":10852,"reen":10853,"inflacion":10854,"decadas":10855,"side":10856,"electrico":10857,"heav":10858,"flechas":10859,"traigo":10860,"guaya":10861,"##wan":10862,"llevado":10863,"chupar":10864,"##uz":10865,"foot":10866,"volunt":10867,"##idor":10868,"causas":10869,"vill":10870,"mame":10871,"voten":10872,"patas":10873,"vita":10874,"tick":10875,"serian":10876,"hijas":10877,"organizaciones":10878,"##cc":10879,"amoo":10880,"afp":10881,"adorno":10882,"misa":10883,"oidos":10884,"antojo":10885,"##sjaja":10886,"business":10887,"chia":10888,"tic":10889,"manifies":10890,"alvarez":10891,"adolescentes":10892,"ilumin":10893,"portero":10894,"guiller":10895,"colegios":10896,"agustin":10897,"kca":10898,"complice":10899,"borracho":10900,"andaba":10901,"##iela":10902,"urban":10903,"##도":10904,"manden":10905,"ciru":10906,"nacho":10907,"alon":10908,"german":10909,"ausencia":10910,"##cala":10911,"maneras":10912,"emprendimiento":10913,"death":10914,"clinica":10915,"recorda":10916,"definicion":10917,"ampl":10918,"88":10919,"tapar":10920,"anillo":10921,"hil":10922,"als":10923,"aparecer":10924,"invento":10925,"asqueroso":10926,"atlan":10927,"literatura":10928,"chaval":10929,"obligacion":10930,"##dica":10931,"recons":10932,"transmi":10933,"##orra":10934,"caribe":10935,"68":10936,"understan":10937,"forget":10938,"limita":10939,"kpop":10940,"carabineros":10941,"clip":10942,"comprando":10943,"canso":10944,"gastrono":10945,"##bd":10946,"kon":10947,"cartag":10948,"techo":10949,"##xd":10950,"ayudo":10951,"##jen":10952,"mamita":10953,"watching":10954,"migra":10955,"repost":10956,"bases":10957,"maquill":10958,"plazas":10959,"pedia":10960,"intensa":10961,"jong":10962,"vicente":10963,"##inado":10964,"baje":10965,"rural":10966,"insoportable":10967,"vivos":10968,"contras":10969,"vandal":10970,"pique":10971,"nave":10972,"##ners":10973,"mareada":10974,"restric":10975,"escribio":10976,"##iara":10977,"nou":10978,"tinha":10979,"vivi":10980,"preparar":10981,"arres":10982,"##mago":10983,"actores":10984,"##ᅩᆫ":10985,"encuestas":10986,"votacion":10987,"baek":10988,"toxico":10989,"hipocresia":10990,"##redo":10991,"yet":10992,"##ます":10993,"potter":10994,"bolsillo":10995,"penales":10996,"acepta":10997,"paran":10998,"regga":10999,"comprarme":11000,"donar":11001,"mand":11002,"alcance":11003,"##rina":11004,"politi":11005,"##oli":11006,"dandole":11007,"burro":11008,"eff":11009,"racha":11010,"thrones":11011,"trajo":11012,"normas":11013,"factura":11014,"aumentar":11015,"##cimientos":11016,"##doras":11017,"##pado":11018,"unir":11019,"responsabil":11020,"mtvlapareja":11021,"salia":11022,"contratos":11023,"foda":11024,"representante":11025,"millonarios":11026,"dejemos":11027,"tope":11028,"##chon":11029,"csm":11030,"estuvieron":11031,"basicamente":11032,"borde":11033,"bona":11034,"##cilia":11035,"descarga":11036,"guion":11037,"##reros":11038,"robert":11039,"aparecen":11040,"vibra":11041,"idioma":11042,"sonora":11043,"##ppe":11044,"celebramos":11045,"colocar":11046,"cres":11047,"wi":11048,"bicho":11049,"each":11050,"concentracion":11051,"reemp":11052,"shawn":11053,"repito":11054,"700":11055,"especie":11056,"##arquia":11057,"##isiones":11058,"yg":11059,"vendiendo":11060,"dira":11061,"map":11062,"municipales":11063,"##tanos":11064,"efectivo":11065,"diputada":11066,"som":11067,"##eer":11068,"cubanos":11069,"##cind":11070,"##rona":11071,"##yd":11072,"pere":11073,"##vita":11074,"invitados":11075,"directora":11076,"enseno":11077,"darles":11078,"juzgar":11079,"rescate":11080,"span":11081,"bateria":11082,"##fk":11083,"pala":11084,"ganaron":11085,"##ot":11086,"minim":11087,"sufriendo":11088,"dulces":11089,"nutr":11090,"critican":11091,"ice":11092,"valio":11093,"piedras":11094,"mtvlafandomar":11095,"posibil":11096,"2011":11097,"ave":11098,"jim":11099,"imbeciles":11100,"caballero":11101,"resen":11102,"beco":11103,"esposo":11104,"intercamb":11105,"tendras":11106,"whis":11107,"##inge":11108,"##erias":11109,"##siones":11110,"desigual":11111,"batal":11112,"##chado":11113,"oir":11114,"flow":11115,"libra":11116,"valverde":11117,"cadiz":11118,"duel":11119,"sopa":11120,"estad":11121,"sufrimiento":11122,"##tics":11123,"provoca":11124,"ventaja":11125,"miembro":11126,"jj":11127,"coopera":11128,"descubri":11129,"conciertos":11130,"##ians":11131,"modific":11132,"llave":11133,"llamando":11134,"working":11135,"aku":11136,"##telo":11137,"cule":11138,"##core":11139,"seokjin":11140,"meji":11141,"bestia":11142,"##gano":11143,"community":11144,"equilib":11145,"##elle":11146,"herrera":11147,"chinga":11148,"tendencias":11149,"ahorrar":11150,"vives":11151,"diosa":11152,"oy":11153,"jodido":11154,"mutuals":11155,"ocasiones":11156,"tabla":11157,"indirec":11158,"bruno":11159,"caric":11160,"diferencias":11161,"adopcion":11162,"logrado":11163,"chara":11164,"homos":11165,"psg":11166,"compartiendo":11167,"hablaba":11168,"##laron":11169,"buscamos":11170,"conseguido":11171,"insulto":11172,"satisfac":11173,"chir":11174,"aixo":11175,"maneja":11176,"limpio":11177,"vacunas":11178,"pasaj":11179,"##nis":11180,"lui":11181,"naci":11182,"##unid":11183,"claves":11184,"##anes":11185,"eterna":11186,"##pciones":11187,"elementos":11188,"manual":11189,"extin":11190,"##zaron":11191,"insomn":11192,"fascista":11193,"decidi":11194,"##tta":11195,"gues":11196,"vege":11197,"quitan":11198,"sierra":11199,"ariana":11200,"pica":11201,"jefa":11202,"sobran":11203,"excusas":11204,"cercan":11205,"##bao":11206,"##ution":11207,"estre":11208,"electrica":11209,"ima":11210,"biblioteca":11211,"programacion":11212,"usurp":11213,"##게":11214,"##ticamente":11215,"sombra":11216,"irresponsable":11217,"pequenas":11218,"##olvida":11219,"apunta":11220,"##aar":11221,"logros":11222,"##ient":11223,"pcas":11224,"##36":11225,"precisa":11226,"areas":11227,"valora":11228,"ignorantes":11229,"##tha":11230,"literally":11231,"##irez":11232,"cuadra":11233,"##movil":11234,"eurovision":11235,"##tidas":11236,"##url":11237,"principe":11238,"moneda":11239,"estrena":11240,"inscrib":11241,"guayaquil":11242,"arranco":11243,"##ations":11244,"##didas":11245,"talent":11246,"persegui":11247,"enemigos":11248,"zul":11249,"decente":11250,"##gros":11251,"imperio":11252,"##algo":11253,"bis":11254,"complejo":11255,"##rista":11256,"##sin":11257,"propias":11258,"erra":11259,"aha":11260,"gallo":11261,"arsen":11262,"fiscales":11263,"combus":11264,"reciben":11265,"forro":11266,"##tc":11267,"chen":11268,"premi":11269,"sorpres":11270,"tropical":11271,"perpe":11272,"miel":11273,"supues":11274,"cierta":11275,"disfruten":11276,"laburar":11277,"breaking":11278,"americano":11279,"##irlo":11280,"cacas":11281,"##ajajajaja":11282,"silva":11283,"##aristemo":11284,"cober":11285,"##titudes":11286,"destruccion":11287,"##insta":11288,"escor":11289,"mtvlafandomaristemo":11290,"chay":11291,"ensena":11292,"descansa":11293,"maltrato":11294,"entrando":11295,"##lid":11296,"##lac":11297,"inventa":11298,"deseando":11299,"##chera":11300,"terreno":11301,"cis":11302,"certe":11303,"didnt":11304,"ais":11305,"kor":11306,"extranjero":11307,"namo":11308,"##mentales":11309,"agr":11310,"hpta":11311,"respec":11312,"delantero":11313,"gaga":11314,"ruben":11315,"mtvlaparejaaristemo":11316,"ruiz":11317,"77":11318,"weee":11319,"pelis":11320,"national":11321,"inmor":11322,"infraes":11323,"##ught":11324,"bolsas":11325,"volvera":11326,"chistes":11327,"dude":11328,"trabajamos":11329,"iria":11330,"rojos":11331,"lluvias":11332,"##tig":11333,"jodas":11334,"fie":11335,"mola":11336,"##cadas":11337,"shows":11338,"eri":11339,"creciendo":11340,"##hion":11341,"roba":11342,"marina":11343,"facha":11344,"##sy":11345,"ramirez":11346,"unidades":11347,"nieto":11348,"cambiemos":11349,"lenta":11350,"materias":11351,"desor":11352,"maradona":11353,"creemos":11354,"##ksk":11355,"preparados":11356,"mtvlafandomaristemofans":11357,"##iliar":11358,"##gante":11359,"grita":11360,"decidido":11361,"paren":11362,"porc":11363,"##zen":11364,"cepeda":11365,"subsid":11366,"trin":11367,"nerviosa":11368,"procesos":11369,"short":11370,"anun":11371,"potencia":11372,"merce":11373,"fia":11374,"guillermo":11375,"inneces":11376,"copia":11377,"alquiler":11378,"##47":11379,"todxs":11380,"plano":11381,"marchas":11382,"wach":11383,"amarilla":11384,"69":11385,"paula":11386,"direction":11387,"##times":11388,"word":11389,"saga":11390,"teen":11391,"##ridos":11392,"universitario":11393,"tasa":11394,"marx":11395,"narra":11396,"deliver":11397,"needs":11398,"ensal":11399,"n1":11400,"kay":11401,"##osco":11402,"mandando":11403,"conto":11404,"humanitaria":11405,"disposicion":11406,"cague":11407,"ath":11408,"used":11409,"##zquez":11410,"merecido":11411,"falando":11412,"##ience":11413,"preguntando":11414,"performan":11415,"suen":11416,"supuestamente":11417,"##field":11418,"complices":11419,"pendejadas":11420,"##zcan":11421,"barde":11422,"alcaldesa":11423,"##df":11424,"xxi":11425,"cuerpos":11426,"smile":11427,"tla":11428,"extremo":11429,"##linson":11430,"##andra":11431,"dimision":11432,"viejas":11433,"level":11434,"operativo":11435,"helico":11436,"industrial":11437,"funciones":11438,"intensidad":11439,"directa":11440,"vip":11441,"spoiler":11442,"##ently":11443,"vienes":11444,"descara":11445,"97":11446,"climatico":11447,"comparacion":11448,"##rene":11449,"barras":11450,"hoseok":11451,"meteor":11452,"sencilla":11453,"votando":11454,"bik":11455,"fiz":11456,"milit":11457,"ministros":11458,"tenerte":11459,"67":11460,"monica":11461,"colectivos":11462,"aliment":11463,"traen":11464,"afirma":11465,"equip":11466,"desayunar":11467,"pray":11468,"invis":11469,"aumenta":11470,"polla":11471,"homosex":11472,"miranda":11473,"perfeccion":11474,"ibas":11475,"##aal":11476,"documento":11477,"##guito":11478,"robando":11479,"ofertas":11480,"campos":11481,"pretende":11482,"##udar":11483,"sanitarios":11484,"inclusion":11485,"found":11486,"molestar":11487,"sabian":11488,"##cidas":11489,"mananas":11490,"wee":11491,"##ajajaj":11492,"batman":11493,"buscas":11494,"pav":11495,"##ulada":11496,"onde":11497,"potencial":11498,"##wood":11499,"lamento":11500,"luc":11501,"campes":11502,"##tone":11503,"harto":11504,"mom":11505,"efe":11506,"##ring":11507,"racista":11508,"##iberal":11509,"estadounid":11510,"filosofia":11511,"perfe":11512,"gian":11513,"space":11514,"julian":11515,"puras":11516,"escab":11517,"pezunas":11518,"##riles":11519,"cue":11520,"vontade":11521,"laborales":11522,"##hum":11523,"creado":11524,"cest":11525,"tomlinson":11526,"amable":11527,"weekend":11528,"ooo":11529,"entrego":11530,"diganme":11531,"nueve":11532,"instalaciones":11533,"narcos":11534,"intim":11535,"sujeto":11536,"chido":11537,"publique":11538,"south":11539,"equipara":11540,"##tial":11541,"legado":11542,"peronismo":11543,"poster":11544,"intendente":11545,"road":11546,"##ette":11547,"elige":11548,"##ging":11549,"aventura":11550,"##garse":11551,"else":11552,"maquillaje":11553,"suele":11554,"verdades":11555,"ridicula":11556,"odiar":11557,"##dies":11558,"kiss":11559,"concur":11560,"73":11561,"noite":11562,"finally":11563,"low":11564,"reempla":11565,"deri":11566,"estemos":11567,"castigo":11568,"solidario":11569,"##guera":11570,"pera":11571,"##cht":11572,"analizar":11573,"rif":11574,"delicia":11575,"desafio":11576,"sabados":11577,"bosque":11578,"96":11579,"vengas":11580,"presentamos":11581,"felix":11582,"awww":11583,"conversaciones":11584,"##rt":11585,"gosto":11586,"thinking":11587,"estafa":11588,"emprendedores":11589,"##bis":11590,"empo":11591,"diran":11592,"agencia":11593,"microbio":11594,"comprado":11595,"guap":11596,"huev":11597,"soo":11598,"delicioso":11599,"mtvhot":11600,"detenidos":11601,"##oz":11602,"trauma":11603,"seguidos":11604,"innov":11605,"empezaron":11606,"crimenes":11607,"arboles":11608,"trampa":11609,"colegas":11610,"hablado":11611,"plis":11612,"subn":11613,"consc":11614,"proporcion":11615,"continue":11616,"kit":11617,"revol":11618,"opina":11619,"lentes":11620,"simples":11621,"caba":11622,"2do":11623,"##hun":11624,"fallecio":11625,"ofens":11626,"reclamar":11627,"posibilidades":11628,"##ornio":11629,"empleos":11630,"aceite":11631,"##zadas":11632,"preocupacion":11633,"duelo":11634,"queretaro":11635,"sas":11636,"plastico":11637,"##tista":11638,"west":11639,"##arol":11640,"##ster":11641,"street":11642,"andrea":11643,"didn":11644,"sorprender":11645,"chiquita":11646,"pilla":11647,"gallar":11648,"hela":11649,"defensor":11650,"rug":11651,"acuerda":11652,"meo":11653,"nacido":11654,"enganar":11655,"close":11656,"extranjeros":11657,"pierdan":11658,"chingon":11659,"abr":11660,"profesora":11661,"mamas":11662,"equivocado":11663,"agentes":11664,"amanha":11665,"##나":11666,"unidas":11667,"urgencia":11668,"##tisima":11669,"##ladolid":11670,"voice":11671,"soft":11672,"conocemos":11673,"##ih":11674,"sinton":11675,"recorrido":11676,"nefasto":11677,"jimenez":11678,"listas":11679,"desv":11680,"venti":11681,"basico":11682,"ciego":11683,"paguen":11684,"quimica":11685,"##ianas":11686,"estomago":11687,"claqueta":11688,"room":11689,"##diales":11690,"omar":11691,"##coin":11692,"pure":11693,"ds":11694,"##tch":11695,"##cloud":11696,"lio":11697,"hector":11698,"alimentacion":11699,"verdaderos":11700,"miras":11701,"jean":11702,"amenazas":11703,"ic":11704,"creditos":11705,"rayo":11706,"temo":11707,"cifra":11708,"chileno":11709,"drop":11710,"educativa":11711,"parce":11712,"carpe":11713,"mtvhottest":11714,"abas":11715,"susten":11716,"alonso":11717,"preparada":11718,"decime":11719,"corn":11720,"##visa":11721,"duela":11722,"impo":11723,"relato":11724,"define":11725,"##tein":11726,"melilla":11727,"actriz":11728,"order":11729,"zar":11730,"piro":11731,"##etin":11732,"##ees":11733,"dedicado":11734,"decirles":11735,"ez":11736,"mamen":11737,"juju":11738,"valorar":11739,"simpson":11740,"fro":11741,"##ritas":11742,"scen":11743,"gabinete":11744,"empiece":11745,"polvo":11746,"peace":11747,"parlamento":11748,"00h":11749,"aprendiendo":11750,"##pin":11751,"aprecia":11752,"86":11753,"absurdo":11754,"vecina":11755,"sepas":11756,"socialistas":11757,"modern":11758,"##tuito":11759,"##fis":11760,"elo":11761,"##izas":11762,"presentes":11763,"transicion":11764,"biblia":11765,"mataron":11766,"arrepiento":11767,"cambiando":11768,"asesor":11769,"mezcla":11770,"speak":11771,"predic":11772,"style":11773,"##2016":11774,"tuiter":11775,"estupe":11776,"##45":11777,"unete":11778,"wu":11779,"pila":11780,"##queros":11781,"##ities":11782,"descor":11783,"##uitos":11784,"daddy":11785,"conh":11786,"sports":11787,"repri":11788,"desh":11789,"##iko":11790,"encontro":11791,"herramienta":11792,"desinf":11793,"pierna":11794,"penso":11795,"noel":11796,"tucuman":11797,"diarios":11798,"intenso":11799,"editorial":11800,"anno":11801,"estupefac":11802,"conn":11803,"encier":11804,"oran":11805,"suces":11806,"etiqueta":11807,"rs":11808,"pinas":11809,"circ":11810,"##letas":11811,"parro":11812,"polo":11813,"leave":11814,"democratica":11815,"porqueria":11816,"maldad":11817,"##rrr":11818,"considero":11819,"gem":11820,"veamos":11821,"inolvida":11822,"discriminacion":11823,"sexta":11824,"fus":11825,"balance":11826,"crazy":11827,"agregar":11828,"inac":11829,"##ormes":11830,"##vamos":11831,"arquero":11832,"protagonista":11833,"desblo":11834,"origin":11835,"seguire":11836,"cucu":11837,"250":11838,"##fj":11839,"graves":11840,"cruzar":11841,"pasear":11842,"##일":11843,"plantel":11844,"##rre":11845,"otgala":11846,"filtro":11847,"xdd":11848,"sisi":11849,"polemica":11850,"##frien":11851,"##arle":11852,"aval":11853,"mogol":11854,"narcotrafico":11855,"juarez":11856,"magistra":11857,"##sao":11858,"institucional":11859,"##izaciones":11860,"##pt":11861,"cano":11862,"varia":11863,"tn":11864,"piensen":11865,"tiros":11866,"##nal":11867,"londres":11868,"digamos":11869,"##hada":11870,"##fias":11871,"##ford":11872,"##sula":11873,"poderes":11874,"##38":11875,"insomnio":11876,"desse":11877,"fide":11878,"golpes":11879,"sys":11880,"natalia":11881,"reirme":11882,"despedida":11883,"views":11884,"##set":11885,"justamente":11886,"horizon":11887,"reiv":11888,"##erada":11889,"##48":11890,"##metros":11891,"boludeces":11892,"##ping":11893,"##tazo":11894,"patetico":11895,"lanzar":11896,"ganadores":11897,"bajos":11898,"##tine":11899,"pene":11900,"pandem":11901,"aline":11902,"jr":11903,"elegido":11904,"pierda":11905,"celu":11906,"navid":11907,"important":11908,"wha":11909,"suc":11910,"##directo":11911,"barbi":11912,"cristian":11913,"##sja":11914,"##tierrez":11915,"creas":11916,"experto":11917,"tristes":11918,"gio":11919,"skin":11920,"engor":11921,"##우":11922,"##ament":11923,"##ivamente":11924,"living":11925,"pick":11926,"hielo":11927,"seguis":11928,"jak":11929,"metiendo":11930,"talking":11931,"##した":11932,"##tizacion":11933,"medina":11934,"76":11935,"duelen":11936,"neoliberal":11937,"esqui":11938,"presidentes":11939,"delincuencia":11940,"chucha":11941,"earth":11942,"cuna":11943,"murci":11944,"fasti":11945,"plantas":11946,"dejara":11947,"reuniones":11948,"cloud":11949,"aclara":11950,"usd":11951,"sarcas":11952,"unic":11953,"convirtio":11954,"ricas":11955,"naturales":11956,"##ades":11957,"second":11958,"recortable":11959,"mantenimiento":11960,"increibles":11961,"abe":11962,"juegue":11963,"tocado":11964,"mercados":11965,"rajoy":11966,"ls":11967,"capric":11968,"recordando":11969,"flex":11970,"195":11971,"reproduccion":11972,"arsenal":11973,"plantilla":11974,"comenzamos":11975,"quedaba":11976,"vias":11977,"traidores":11978,"alienig":11979,"##entimiento":11980,"demand":11981,"zid":11982,"gratuito":11983,"valenci":11984,"proxim":11985,"dare":11986,"pqp":11987,"mail":11988,"##ird":11989,"alone":11990,"penarol":11991,"carl":11992,"abusos":11993,"acorda":11994,"peleando":11995,"##gela":11996,"olha":11997,"vergonzos":11998,"iron":11999,"cance":12000,"austria":12001,"##pidos":12002,"yas":12003,"intente":12004,"##ship":12005,"confes":12006,"gila":12007,"##อง":12008,"nudes":12009,"##pata":12010,"chavistas":12011,"brindar":12012,"stats":12013,"chao":12014,"digna":12015,"estupideces":12016,"christ":12017,"ota":12018,"jubilados":12019,"suave":12020,"2009":12021,"##abamos":12022,"semin":12023,"##ierta":12024,"matias":12025,"enojada":12026,"sobretodo":12027,"piense":12028,"##pazo":12029,"shot":12030,"incorpor":12031,"describ":12032,"porro":12033,"peter":12034,"subido":12035,"89":12036,"tecnicos":12037,"tocando":12038,"muse":12039,"##즈":12040,"decidio":12041,"impresenta":12042,"miserables":12043,"comparar":12044,"gur":12045,"conozca":12046,"##eng":12047,"copo":12048,"seguia":12049,"between":12050,"retos":12051,"siguientes":12052,"satur":12053,"might":12054,"consciente":12055,"cuide":12056,"partidazo":12057,"##rd":12058,"wear":12059,"aprendido":12060,"sobrevivir":12061,"##trans":12062,"mascotas":12063,"deseamos":12064,"goals":12065,"pij":12066,"gobierna":12067,"postura":12068,"invitado":12069,"llevaron":12070,"negativo":12071,"paloma":12072,"##hit":12073,"serp":12074,"presa":12075,"sostenible":12076,"faltas":12077,"##을":12078,"dispara":12079,"marihu":12080,"##ican":12081,"##formas":12082,"inscripcion":12083,"corrupta":12084,"##ieta":12085,"fib":12086,"mias":12087,"helicop":12088,"inspira":12089,"##licado":12090,"cuadros":12091,"sufri":12092,"infar":12093,"podriamos":12094,"positiva":12095,"aquest":12096,"bloquear":12097,"##oni":12098,"adu":12099,"colega":12100,"fronteras":12101,"raton":12102,"enchu":12103,"jajas":12104,"senorita":12105,"motivacion":12106,"sistemas":12107,"rou":12108,"vocal":12109,"words":12110,"##got":12111,"articulos":12112,"fede":12113,"tc":12114,"지":12115,"salarios":12116,"valladolid":12117,"##culacion":12118,"manchester":12119,"##pita":12120,"passa":12121,"disfrute":12122,"kas":12123,"pf":12124,"cuiden":12125,"mercedes":12126,"procura":12127,"##sia":12128,"##dr":12129,"bronce":12130,"dolio":12131,"tiendas":12132,"fortaleza":12133,"##ser":12134,"cancun":12135,"panel":12136,"impotencia":12137,"desma":12138,"jesu":12139,"##icao":12140,"cayendo":12141,"##ited":12142,"quedes":12143,"ino":12144,"tatuaje":12145,"productivo":12146,"deep":12147,"tierno":12148,"armys":12149,"##icidios":12150,"cose":12151,"##berg":12152,"palmera":12153,"deal":12154,"jura":12155,"agradecido":12156,"zidane":12157,"##lish":12158,"##anted":12159,"biggest":12160,"afron":12161,"aportar":12162,"##호":12163,"iva":12164,"87":12165,"lasti":12166,"dolores":12167,"equiparacion":12168,"efectivamente":12169,"sentado":12170,"lay":12171,"##inan":12172,"votado":12173,"empe":12174,"doesn":12175,"brother":12176,"teas":12177,"hermanas":12178,"##tarlo":12179,"arce":12180,"famosa":12181,"protege":12182,"riqueza":12183,"72":12184,"indica":12185,"##tarios":12186,"##pc":12187,"semaforo":12188,"encontramos":12189,"deport":12190,"##cieron":12191,"manipula":12192,"postu":12193,"soberania":12194,"saludable":12195,"yours":12196,"shin":12197,"fabrica":12198,"##lay":12199,"##wards":12200,"fiebre":12201,"absoluto":12202,"93":12203,"cuartos":12204,"incluido":12205,"certeza":12206,"pascu":12207,"reivind":12208,"afectados":12209,"##tant":12210,"center":12211,"riesgos":12212,"paredes":12213,"valentin":12214,"vial":12215,"baekhyun":12216,"reggaeton":12217,"quema":12218,"leccion":12219,"fez":12220,"hpa":12221,"oreja":12222,"votantes":12223,"billboard":12224,"gutierrez":12225,"ater":12226,"piscina":12227,"tesis":12228,"cobro":12229,"justa":12230,"##pul":12231,"capacitacion":12232,"spider":12233,"seo":12234,"inventar":12235,"##pso":12236,"dormirme":12237,"recol":12238,"rayados":12239,"few":12240,"rubio":12241,"instante":12242,"invertir":12243,"wpp":12244,"passar":12245,"mariano":12246,"alegre":12247,"exag":12248,"vuelos":12249,"plataformas":12250,"basica":12251,"##chito":12252,"safe":12253,"mateo":12254,"anual":12255,"exigimos":12256,"lagun":12257,"nucle":12258,"renunciar":12259,"orejas":12260,"serlo":12261,"lleguen":12262,"expo":12263,"adulto":12264,"avui":12265,"##ises":12266,"##diste":12267,"##tober":12268,"reviv":12269,"##too":12270,"##mbro":12271,"pymes":12272,"rindo":12273,"oiga":12274,"migrantes":12275,"occi":12276,"verdade":12277,"##tou":12278,"suman":12279,"ileg":12280,"efic":12281,"cruce":12282,"fine":12283,"pand":12284,"digitales":12285,"supe":12286,"perdiste":12287,"issu":12288,"revisa":12289,"tray":12290,"mandarina":12291,"nacimiento":12292,"84":12293,"respect":12294,"ceuta":12295,"llamadas":12296,"##99":12297,"##fort":12298,"dejaste":12299,"tranquilos":12300,"fascismo":12301,"vasco":12302,"ayuden":12303,"dure":12304,"lleven":12305,"recre":12306,"portugues":12307,"querias":12308,"disim":12309,"almuerzo":12310,"perspectiva":12311,"acabado":12312,"hinchada":12313,"##view":12314,"##nan":12315,"economicos":12316,"office":12317,"aprendizaje":12318,"respondio":12319,"carolina":12320,"fact":12321,"mandaron":12322,"contenta":12323,"pito":12324,"##gentina":12325,"pulmon":12326,"instruc":12327,"##aton":12328,"provincial":12329,"episode":12330,"tecnolog":12331,"catolica":12332,"cv":12333,"privados":12334,"##vandose":12335,"##landia":12336,"automaticamente":12337,"vd":12338,"tirado":12339,"requisitos":12340,"atrac":12341,"pantalones":12342,"logico":12343,"##riga":12344,"noble":12345,"modelos":12346,"privilegio":12347,"##븐":12348,"declaro":12349,"heridos":12350,"##sado":12351,"pesadilla":12352,"##ᅢᆨ":12353,"oficinas":12354,"explotar":12355,"pagamos":12356,"deno":12357,"cartagena":12358,"priori":12359,"niega":12360,"presentan":12361,"##guis":12362,"ibamos":12363,"leve":12364,"remon":12365,"##turb":12366,"lord":12367,"tron":12368,"jubil":12369,"desarrollar":12370,"tots":12371,"past":12372,"volta":12373,"volvieron":12374,"hables":12375,"lali":12376,"contamin":12377,"incendios":12378,"##pito":12379,"desf":12380,"##guenzas":12381,"concepcion":12382,"##tation":12383,"seg":12384,"cou":12385,"cobertura":12386,"fashion":12387,"mandas":12388,"cositas":12389,"oi":12390,"continuidad":12391,"track":12392,"felicitar":12393,"chelsea":12394,"tocan":12395,"falte":12396,"among":12397,"recuerdan":12398,"##gram":12399,"aburro":12400,"##pid":12401,"compos":12402,"##nel":12403,"94":12404,"xfa":12405,"promesas":12406,"bale":12407,"##yol":12408,"jodan":12409,"panda":12410,"entendio":12411,"reverencia":12412,"##여":12413,"promover":12414,"##grada":12415,"##mido":12416,"llenos":12417,"spi":12418,"lealtad":12419,"agricultura":12420,"##cendente":12421,"##uty":12422,"##oran":12423,"camina":12424,"##ᅡᆨ":12425,"previo":12426,"aaah":12427,"rodilla":12428,"cau":12429,"##cir":12430,"asumir":12431,"##py":12432,"despres":12433,"bandas":12434,"hueva":12435,"campanas":12436,"caminos":12437,"##quet":12438,"petar":12439,"pida":12440,"##iral":12441,"convencer":12442,"alejar":12443,"guzman":12444,"implica":12445,"actua":12446,"eus":12447,"llevara":12448,"prepa":12449,"impe":12450,"anuncios":12451,"##izadas":12452,"reactiv":12453,"tercero":12454,"construc":12455,"fortuna":12456,"tuyos":12457,"blancos":12458,"conecta":12459,"##iores":12460,"##yar":12461,"alienigena":12462,"kevin":12463,"hipocritas":12464,"japan":12465,"presentado":12466,"suspend":12467,"palmas":12468,"##carse":12469,"rig":12470,"permita":12471,"franqu":12472,"##chat":12473,"smo":12474,"suger":12475,"##deros":12476,"##acu":12477,"tole":12478,"darnos":12479,"curiosidad":12480,"##matica":12481,"##clas":12482,"ejemplar":12483,"uuu":12484,"performance":12485,"acuerdos":12486,"##ticias":12487,"saw":12488,"remin":12489,"ups":12490,"pensas":12491,"repara":12492,"imprescind":12493,"golf":12494,"palma":12495,"fortalecer":12496,"castilla":12497,"오":12498,"justice":12499,"##adera":12500,"vuestros":12501,"mona":12502,"votan":12503,"bajas":12504,"toros":12505,"list":12506,"trabal":12507,"went":12508,"##kit":12509,"##entre":12510,"portal":12511,"cuidados":12512,"cubrebo":12513,"vence":12514,"seca":12515,"muestran":12516,"ocurrido":12517,"hacienda":12518,"madril":12519,"idol":12520,"ciencias":12521,"##wi":12522,"escuchen":12523,"##icol":12524,"aplausos":12525,"mochila":12526,"gripe":12527,"sucio":12528,"estabilidad":12529,"psicologia":12530,"flamengo":12531,"##remo":12532,"##donos":12533,"magico":12534,"##gob":12535,"understand":12536,"##mble":12537,"##lim":12538,"gav":12539,"nalgas":12540,"dear":12541,"dob":12542,"discrimin":12543,"kam":12544,"remera":12545,"volve":12546,"perdidas":12547,"dejate":12548,"cfk":12549,"retirar":12550,"rn":12551,"##cracia":12552,"three":12553,"mutu":12554,"nostalgia":12555,"teach":12556,"diversidad":12557,"others":12558,"##mous":12559,"siguenos":12560,"pensamos":12561,"descorchada":12562,"reten":12563,"estructura":12564,"moro":12565,"inscripciones":12566,"muneco":12567,"oriente":12568,"profund":12569,"oo":12570,"##tp":12571,"vicepresidente":12572,"bloqueado":12573,"futbolista":12574,"wanted":12575,"fat":12576,"##은":12577,"##thon":12578,"##ied":12579,"mera":12580,"comerciales":12581,"colaborar":12582,"panor":12583,"estupefacta":12584,"garra":12585,"rebo":12586,"dicha":12587,"asegurar":12588,"##진":12589,"using":12590,"inocentes":12591,"ahorro":12592,"giro":12593,"ponia":12594,"acompanar":12595,"quilo":12596,"sincero":12597,"matematicas":12598,"sentimos":12599,"informes":12600,"alfredo":12601,"patada":12602,"descal":12603,"implic":12604,"##mobil":12605,"2da":12606,"agarre":12607,"asistir":12608,"##etti":12609,"selena":12610,"empresario":12611,"jae":12612,"beyon":12613,"gallardo":12614,"ruedas":12615,"##uilla":12616,"firmas":12617,"conductor":12618,"reporta":12619,"islas":12620,"pintar":12621,"##hue":12622,"funcionario":12623,"terminamos":12624,"pedirle":12625,"suelta":12626,"denuncian":12627,"##gy":12628,"##yoff":12629,"sair":12630,"##cana":12631,"lago":12632,"##35":12633,"infeliz":12634,"##madura":12635,"raja":12636,"vato":12637,"##ecera":12638,"##trales":12639,"tension":12640,"poronga":12641,"bitcoin":12642,"##riam":12643,"goes":12644,"imponer":12645,"waiting":12646,"aqu":12647,"penalti":12648,"merid":12649,"sinverguenza":12650,"yanke":12651,"mamon":12652,"cercano":12653,"basket":12654,"empezado":12655,"##mato":12656,"cache":12657,"respaldo":12658,"convenio":12659,"estaf":12660,"enojar":12661,"arranque":12662,"teclado":12663,"washing":12664,"significado":12665,"orgullosos":12666,"##37":12667,"temazo":12668,"bendito":12669,"solucionar":12670,"##db":12671,"fazendo":12672,"sufren":12673,"##bron":12674,"pecado":12675,"suiza":12676,"albert":12677,"llover":12678,"jajja":12679,"energy":12680,"levantarse":12681,"odebre":12682,"saludar":12683,"fly":12684,"##tely":12685,"vag":12686,"explicaciones":12687,"estrategias":12688,"culpables":12689,"sonrie":12690,"outro":12691,"muro":12692,"celos":12693,"rien":12694,"⠀⠀":12695,"tomamos":12696,"tapabo":12697,"abiertos":12698,"conting":12699,"sunday":12700,"despedir":12701,"bots":12702,"##itivo":12703,"tbm":12704,"haremos":12705,"adopta":12706,"insultar":12707,"psicologo":12708,"##video":12709,"armando":12710,"representacion":12711,"##edores":12712,"agresion":12713,"concert":12714,"##icto":12715,"2008":12716,"marica":12717,"cosita":12718,"massa":12719,"estupidos":12720,"temporal":12721,"civiles":12722,"revela":12723,"tribu":12724,"monitor":12725,"contagiados":12726,"casar":12727,"lavado":12728,"rest":12729,"supl":12730,"costado":12731,"integrantes":12732,"dinamica":12733,"dosis":12734,"mascaras":12735,"announ":12736,"manifestantes":12737,"favs":12738,"sitios":12739,"lisa":12740,"resolucion":12741,"bote":12742,"##plic":12743,"tierras":12744,"eche":12745,"maya":12746,"vergonzoso":12747,"xo":12748,"##ilar":12749,"menuda":12750,"galeria":12751,"pagado":12752,"oz":12753,"cierran":12754,"##juegos":12755,"lgbt":12756,"generaciones":12757,"certific":12758,"tibur":12759,"atual":12760,"habran":12761,"escuchan":12762,"##cent":12763,"2006":12764,"esfor":12765,"solas":12766,"half":12767,"jajajajajajajajajajaj":12768,"##idores":12769,"productores":12770,"stalke":12771,"seee":12772,"vestir":12773,"##isticas":12774,"tonterias":12775,"stickers":12776,"femenina":12777,"##torsion":12778,"pijama":12779,"clap":12780,"dessa":12781,"comprender":12782,"blin":12783,"escas":12784,"meterse":12785,"cabra":12786,"apetece":12787,"habido":12788,"spanish":12789,"stri":12790,"pade":12791,"embajador":12792,"vivan":12793,"wants":12794,"esq":12795,"odian":12796,"plays":12797,"model":12798,"vagos":12799,"banderas":12800,"ficha":12801,"gat":12802,"valer":12803,"horosco":12804,"mamar":12805,"economicas":12806,"chama":12807,"boludos":12808,"doesnt":12809,"uniforme":12810,"refiere":12811,"infinito":12812,"admira":12813,"tea":12814,"##drome":12815,"mine":12816,"hidalgo":12817,"usen":12818,"stars":12819,"firmo":12820,"valido":12821,"pesado":12822,"pregunten":12823,"exclusiva":12824,"battle":12825,"despla":12826,"essas":12827,"nome":12828,"arturo":12829,"tendrian":12830,"taco":12831,"##kar":12832,"divul":12833,"volcan":12834,"came":12835,"toledo":12836,"tenerlo":12837,"desbloque":12838,"##madas":12839,"##chita":12840,"axel":12841,"comunica":12842,"protestar":12843,"padr":12844,"##recia":12845,"circunstan":12846,"atardecer":12847,"##iadas":12848,"##tosa":12849,"seus":12850,"pute":12851,"perver":12852,"##tuario":12853,"conocia":12854,"bin":12855,"lupa":12856,"pibas":12857,"cheque":12858,"##iras":12859,"debia":12860,"oq":12861,"belen":12862,"escritor":12863,"##gna":12864,"##vol":12865,"hidro":12866,"rubia":12867,"##dum":12868,"boxeo":12869,"espere":12870,"metropolit":12871,"dn":12872,"acompanado":12873,"##민":12874,"cumpla":12875,"roo":12876,"simpat":12877,"santi":12878,"tou":12879,"obligatorio":12880,"##ingue":12881,"movimientos":12882,"anticip":12883,"tony":12884,"acceder":12885,"obliga":12886,"frenar":12887,"vistas":12888,"##lite":12889,"seremos":12890,"molesto":12891,"football":12892,"cubrebocas":12893,"agradecida":12894,"aspir":12895,"patrocin":12896,"movistar":12897,"##laje":12898,"strong":12899,"74":12900,"reproduc":12901,"##ditas":12902,"valga":12903,"monto":12904,"realizan":12905,"##hero":12906,"sia":12907,"chac":12908,"reclamo":12909,"hui":12910,"dedico":12911,"tradicional":12912,"told":12913,"barto":12914,"porcenta":12915,"easy":12916,"givea":12917,"irregular":12918,"spot":12919,"pintor":12920,"deve":12921,"piloto":12922,"pumas":12923,"choque":12924,"fallas":12925,"curvandose":12926,"balcon":12927,"consecuencia":12928,"convivencia":12929,"carden":12930,"retor":12931,"antigua":12932,"##ologo":12933,"misterio":12934,"roca":12935,"vega":12936,"##ift":12937,"cut":12938,"gara":12939,"venganza":12940,"aclarar":12941,"parab":12942,"dois":12943,"merecia":12944,"sobrino":12945,"comic":12946,"##chet":12947,"##mall":12948,"polar":12949,"escapar":12950,"entiendes":12951,"federacion":12952,"##vido":12953,"pareces":12954,"truco":12955,"explota":12956,"augus":12957,"infraestructura":12958,"sant":12959,"actitudes":12960,"pedidos":12961,"llenas":12962,"called":12963,"estadis":12964,"smith":12965,"##dumbre":12966,"necesitar":12967,"fruta":12968,"vernos":12969,"estren":12970,"small":12971,"##보":12972,"##iario":12973,"agradecemos":12974,"meti":12975,"materiales":12976,"chip":12977,"factor":12978,"crossing":12979,"utiliza":12980,"morra":12981,"parezco":12982,"supremo":12983,"##드":12984,"##ater":12985,"generales":12986,"advers":12987,"trago":12988,"ini":12989,"vr":12990,"egres":12991,"interno":12992,"italiano":12993,"pantalon":12994,"inepto":12995,"aparta":12996,"##edor":12997,"funny":12998,"project":12999,"coches":13000,"chon":13001,"pertenece":13002,"uribista":13003,"gremio":13004,"rota":13005,"influencia":13006,"pedazos":13007,"podian":13008,"##vieron":13009,"protocolos":13010,"##uig":13011,"manifestaciones":13012,"danilo":13013,"viviendas":13014,"##vd":13015,"itunes":13016,"stray":13017,"playas":13018,"##tones":13019,"insultos":13020,"seguirme":13021,"credibilidad":13022,"intoler":13023,"comido":13024,"urbano":13025,"##anado":13026,"stran":13027,"doler":13028,"equivoco":13029,"tak":13030,"##ule":13031,"##itaron":13032,"phone":13033,"jodiendo":13034,"loves":13035,"##esse":13036,"pronuncia":13037,"##ladores":13038,"porten":13039,"oscars":13040,"repite":13041,"##hen":13042,"latam":13043,"bode":13044,"##ᅳᆷ":13045,"cod":13046,"pior":13047,"jordan":13048,"encuentras":13049,"oxig":13050,"henry":13051,"refres":13052,"parezca":13053,"operaciones":13054,"referente":13055,"renov":13056,"victorias":13057,"nesse":13058,"children":13059,"inauguracion":13060,"tarda":13061,"blas":13062,"suspension":13063,"coal":13064,"action":13065,"##love":13066,"cajas":13067,"condo":13068,"pj":13069,"##alapa":13070,"cebol":13071,"casita":13072,"mba":13073,"dispuesto":13074,"congratula":13075,"corriente":13076,"tp":13077,"nubes":13078,"hiciera":13079,"24h":13080,"eje":13081,"paraguas":13082,"##ivia":13083,"confirmados":13084,"xeno":13085,"vara":13086,"kn":13087,"##vere":13088,"pagos":13089,"whisky":13090,"obama":13091,"leas":13092,"privilegios":13093,"chisme":13094,"bilbao":13095,"trasla":13096,"number":13097,"televis":13098,"verse":13099,"echando":13100,"monday":13101,"convic":13102,"four":13103,"##uren":13104,"build":13105,"deserve":13106,"horno":13107,"laugh":13108,"embarazo":13109,"manager":13110,"washington":13111,"consigu":13112,"aficionados":13113,"excepto":13114,"gets":13115,"trio":13116,"##ᆸ니":13117,"sonrisas":13118,"invad":13119,"silue":13120,"hetero":13121,"cientifico":13122,"##logico":13123,"fascistas":13124,"ligas":13125,"tone":13126,"seguimiento":13127,"fua":13128,"우":13129,"infer":13130,"coup":13131,"transpor":13132,"platos":13133,"simul":13134,"##girl":13135,"venis":13136,"##tibles":13137,"turn":13138,"quil":13139,"maso":13140,"##tinas":13141,"psiquia":13142,"##sjsjs":13143,"bellas":13144,"seguiran":13145,"##cones":13146,"mandato":13147,"llueva":13148,"sushi":13149,"kic":13150,"hacernos":13151,"##isme":13152,"tumba":13153,"andamos":13154,"##utista":13155,"famosos":13156,"estuvimos":13157,"sorpresas":13158,"contund":13159,"expectativas":13160,"temor":13161,"entiendan":13162,"crio":13163,"ucl":13164,"ain":13165,"fresa":13166,"avengers":13167,"##aves":13168,"energias":13169,"kal":13170,"fichaje":13171,"menu":13172,"epidem":13173,"##igue":13174,"adara":13175,"##trab":13176,"dais":13177,"reciclaje":13178,"selfie":13179,"arregla":13180,"electronico":13181,"tauro":13182,"compon":13183,"180":13184,"salas":13185,"sumo":13186,"educativo":13187,"creatividad":13188,"##heiro":13189,"volveremos":13190,"vulnerables":13191,"discre":13192,"ciber":13193,"apruebo":13194,"##truido":13195,"clasificacion":13196,"sospechos":13197,"question":13198,"##39":13199,"##cian":13200,"started":13201,"gringos":13202,"suga":13203,"##들":13204,"belgrano":13205,"esconder":13206,"ns":13207,"duo":13208,"infectados":13209,"mamada":13210,"empanadas":13211,"espiral":13212,"##dremos":13213,"##rara":13214,"caz":13215,"capa":13216,"sindical":13217,"videojuegos":13218,"construyendo":13219,"alfonso":13220,"llamen":13221,"susana":13222,"vistazo":13223,"valientes":13224,"crying":13225,"##usly":13226,"recomendacion":13227,"volando":13228,"##garme":13229,"esencia":13230,"suicidio":13231,"veneno":13232,"sexuales":13233,"hubies":13234,"usado":13235,"cristobal":13236,"store":13237,"quejas":13238,"pintura":13239,"diab":13240,"circunstancias":13241,"comportamiento":13242,"saberlo":13243,"seco":13244,"##entemente":13245,"meren":13246,"answer":13247,"contradic":13248,"representan":13249,"less":13250,"formato":13251,"opositores":13252,"invitan":13253,"nobel":13254,"carbon":13255,"entienda":13256,"ts":13257,"##friend":13258,"##icor":13259,"goal":13260,"bank":13261,"responden":13262,"locas":13263,"magic":13264,"qualquer":13265,"margarita":13266,"##etico":13267,"temblor":13268,"perrita":13269,"irl":13270,"electricidad":13271,"explor":13272,"otono":13273,"amplio":13274,"##doro":13275,"##tell":13276,"cancelar":13277,"##cate":13278,"jama":13279,"ferro":13280,"cante":13281,"##uit":13282,"guess":13283,"candidata":13284,"##mitar":13285,"##한":13286,"parto":13287,"aprueba":13288,"almor":13289,"interna":13290,"rts":13291,"hua":13292,"ficcion":13293,"viu":13294,"anato":13295,"pse":13296,"##대":13297,"##ilers":13298,"descenso":13299,"divino":13300,"ysi":13301,"defic":13302,"songs":13303,"claras":13304,"##amar":13305,"conquis":13306,"##terios":13307,"nutricion":13308,"asturias":13309,"solidaria":13310,"ocupa":13311,"behind":13312,"marihuana":13313,"violador":13314,"relax":13315,"##sable":13316,"shado":13317,"virtuales":13318,"caf":13319,"##rana":13320,"marin":13321,"gg":13322,"comis":13323,"eat":13324,"##rupcion":13325,"paleta":13326,"comento":13327,"##chis":13328,"clausura":13329,"serios":13330,"repos":13331,"##ᆨ소":13332,"##ierten":13333,"##ished":13334,"athle":13335,"stage":13336,"neuronas":13337,"soldados":13338,"leones":13339,"vao":13340,"perritos":13341,"borro":13342,"carton":13343,"allen":13344,"##eciendo":13345,"inqui":13346,"##tn":13347,"farm":13348,"nomina":13349,"##mill":13350,"vicio":13351,"ciertos":13352,"publicaciones":13353,"trap":13354,"##mple":13355,"nike":13356,"participo":13357,"##plan":13358,"alturas":13359,"despo":13360,"combo":13361,"trolo":13362,"platic":13363,"##ased":13364,"fli":13365,"nazi":13366,"colombiana":13367,"olla":13368,"##dental":13369,"producir":13370,"twice":13371,"##quel":13372,"laboratorio":13373,"mascota":13374,"alic":13375,"mamo":13376,"enfrenta":13377,"##hat":13378,"antiguo":13379,"##ᅡ이":13380,"elena":13381,"terminos":13382,"bombilla":13383,"##most":13384,"arquitectura":13385,"mensa":13386,"votamos":13387,"##met":13388,"recuerdas":13389,"sacas":13390,"cubano":13391,"birras":13392,"##itis":13393,"##unds":13394,"rena":13395,"conquista":13396,"recoger":13397,"documentos":13398,"pouco":13399,"admiracion":13400,"salidas":13401,"expresar":13402,"compas":13403,"injusto":13404,"ocultar":13405,"##militar":13406,"cuidando":13407,"chairos":13408,"loteria":13409,"lamb":13410,"900":13411,"##usias":13412,"english":13413,"##edas":13414,"irene":13415,"pidan":13416,"engano":13417,"##jk":13418,"puros":13419,"fenomeno":13420,"mike":13421,"enfrente":13422,"charlas":13423,"sometimes":13424,"elef":13425,"yuca":13426,"##gona":13427,"lm":13428,"##mporada":13429,"##ilas":13430,"collec":13431,"sauda":13432,"##won":13433,"supo":13434,"tama":13435,"recar":13436,"##llas":13437,"exista":13438,"##mani":13439,"lc":13440,"entrevistas":13441,"cron":13442,"pink":13443,"##isos":13444,"##quei":13445,"##oras":13446,"curva":13447,"almac":13448,"atacan":13449,"reply":13450,"fuga":13451,"antena":13452,"develo":13453,"susto":13454,"kno":13455,"superviv":13456,"puig":13457,"rompen":13458,"detesto":13459,"##astro":13460,"velas":13461,"##pho":13462,"pix":13463,"##ures":13464,"esencial":13465,"tenerife":13466,"moi":13467,"hold":13468,"inteligentes":13469,"##anal":13470,"violenta":13471,"##gat":13472,"garantia":13473,"##ᆸ니다":13474,"beach":13475,"##iduria":13476,"jugara":13477,"bbb":13478,"ignacio":13479,"donacion":13480,"dedi":13481,"marchar":13482,"comuna":13483,"##jajajaja":13484,"brasile":13485,"teaser":13486,"cuentos":13487,"ree":13488,"revie":13489,"locu":13490,"cansancio":13491,"##quetas":13492,"buenisima":13493,"pesa":13494,"robot":13495,"outfit":13496,"sentidos":13497,"anec":13498,"fair":13499,"esfuerzos":13500,"ae":13501,"tequi":13502,"kil":13503,"seja":13504,"tatuajes":13505,"lula":13506,"certo":13507,"pesada":13508,"jordi":13509,"distan":13510,"retui":13511,"nfl":13512,"cumplio":13513,"eli":13514,"##raste":13515,"tarjetas":13516,"jac":13517,"abrio":13518,"escra":13519,"cima":13520,"panam":13521,"player":13522,"##suales":13523,"violadores":13524,"abren":13525,"inevita":13526,"##tent":13527,"problem":13528,"poeta":13529,"retorno":13530,"perdonar":13531,"despertarme":13532,"##gate":13533,"chocol":13534,"roger":13535,"yer":13536,"btsarmy":13537,"inicial":13538,"##uato":13539,"bondi":13540,"##iba":13541,"lees":13542,"comedia":13543,"##tors":13544,"palomitas":13545,"interesantes":13546,"contaminacion":13547,"braz":13548,"idk":13549,"fabric":13550,"andate":13551,"discus":13552,"ove":13553,"multa":13554,"navarro":13555,"victim":13556,"role":13557,"vazquez":13558,"##tables":13559,"cuenca":13560,"suficientes":13561,"opinan":13562,"viaja":13563,"vuela":13564,"sacrificio":13565,"##raft":13566,"##polis":13567,"anecdo":13568,"##oooo":13569,"sintiendo":13570,"hands":13571,"camin":13572,"sai":13573,"sindrome":13574,"##zara":13575,"rinde":13576,"exigen":13577,"milagros":13578,"cumplido":13579,"styles":13580,"aspectos":13581,"trama":13582,"##cab":13583,"bich":13584,"taking":13585,"jamon":13586,"tentaciones":13587,"atodos":13588,"##ım":13589,"dispu":13590,"quiten":13591,"##ety":13592,"eme":13593,"geta":13594,"machismo":13595,"colmo":13596,"##comun":13597,"release":13598,"asesinado":13599,"reele":13600,"##tei":13601,"##izacao":13602,"foco":13603,"videolla":13604,"reportaje":13605,"ascendente":13606,"electorales":13607,"homem":13608,"vuelvas":13609,"##tofthe":13610,"ler":13611,"miriam":13612,"xa":13613,"otdirecto":13614,"larreta":13615,"britan":13616,"##yeol":13617,"comigo":13618,"sabiduria":13619,"arbitros":13620,"ganadora":13621,"tm":13622,"hazlo":13623,"gib":13624,"uv":13625,"messa":13626,"wsp":13627,"rumo":13628,"##tuales":13629,"depres":13630,"guantes":13631,"79":13632,"windo":13633,"cagon":13634,"##hope":13635,"##ache":13636,"quinto":13637,"juve":13638,"llan":13639,"bate":13640,"tbt":13641,"adelanto":13642,"sugar":13643,"parabens":13644,"fmi":13645,"piece":13646,"hogares":13647,"voting":13648,"prefieren":13649,"##asco":13650,"ayudando":13651,"taaan":13652,"boliche":13653,"solicitar":13654,"vago":13655,"deixa":13656,"clic":13657,"titulares":13658,"ensu":13659,"jabon":13660,"contagiar":13661,"##uevo":13662,"males":13663,"kg":13664,"eusk":13665,"##die":13666,"vamp":13667,"outra":13668,"almost":13669,"nessa":13670,"copy":13671,"cne":13672,"encierro":13673,"##fob":13674,"##enciar":13675,"defensores":13676,"yung":13677,"redac":13678,"ingenieria":13679,"##deria":13680,"clear":13681,"desperto":13682,"melan":13683,"pride":13684,"companeras":13685,"nervioso":13686,"placa":13687,"obsta":13688,"##ilan":13689,"unicamente":13690,"bahia":13691,"running":13692,"##mentado":13693,"bieber":13694,"apprecia":13695,"gorra":13696,"##dit":13697,"mother":13698,"julia":13699,"justifica":13700,"benito":13701,"sill":13702,"##fm":13703,"gatito":13704,"devo":13705,"coincido":13706,"prefiere":13707,"kh":13708,"poderoso":13709,"enoja":13710,"##els":13711,"##cierto":13712,"##rote":13713,"##ajas":13714,"lev":13715,"respondo":13716,"##mela":13717,"##piracion":13718,"giveaway":13719,"##turales":13720,"##ology":13721,"personalmente":13722,"jugaba":13723,"ordin":13724,"detiene":13725,"domes":13726,"apres":13727,"##matico":13728,"rugby":13729,"remedio":13730,"##tures":13731,"##zones":13732,"richard":13733,"##where":13734,"td":13735,"persecucion":13736,"caduca":13737,"##현":13738,"espon":13739,"incluyendo":13740,"indef":13741,"estupen":13742,"vesti":13743,"denle":13744,"camilo":13745,"hombro":13746,"serpiente":13747,"porto":13748,"carnet":13749,"opon":13750,"least":13751,"chofer":13752,"zero":13753,"1st":13754,"diversion":13755,"contactos":13756,"encantado":13757,"six":13758,"ernes":13759,"coracao":13760,"naciones":13761,"soportar":13762,"hahahahahahaha":13763,"desigualdad":13764,"##ably":13765,"false":13766,"espar":13767,"##46":13768,"ataca":13769,"emocionada":13770,"fanaticos":13771,"##chen":13772,"##yeon":13773,"aporta":13774,"sul":13775,"##gancia":13776,"##andia":13777,"##new":13778,"competir":13779,"dru":13780,"hubieras":13781,"gracies":13782,"adoptar":13783,"camas":13784,"nadal":13785,"bullying":13786,"inspiracion":13787,"sucia":13788,"barata":13789,"mallor":13790,"miso":13791,"sendo":13792,"imperial":13793,"guadalu":13794,"##qj":13795,"##cic":13796,"ensalada":13797,"marquez":13798,"artificial":13799,"odebrecht":13800,"peronista":13801,"delivery":13802,"precaucion":13803,"avo":13804,"adolescente":13805,"squad":13806,"cabrones":13807,"gigantes":13808,"maiz":13809,"ventan":13810,"tribuna":13811,"##otas":13812,"df":13813,"semifinal":13814,"##hes":13815,"83":13816,"##mania":13817,"4ta":13818,"kun":13819,"##mig":13820,"plen":13821,"coordinacion":13822,"millonario":13823,"floyd":13824,"ducha":13825,"guev":13826,"niego":13827,"heridas":13828,"jsjs":13829,"oeste":13830,"soc":13831,"insol":13832,"##asure":13833,"##ooor":13834,"oscuridad":13835,"nobody":13836,"veinte":13837,"agradable":13838,"ejercicios":13839,"christmas":13840,"monstruo":13841,"rusa":13842,"##adero":13843,"comio":13844,"##cess":13845,"ocupar":13846,"sigas":13847,"premia":13848,"virgo":13849,"vivas":13850,"perfume":13851,"terremo":13852,"culero":13853,"ricky":13854,"yooo":13855,"reportan":13856,"guita":13857,"##cesion":13858,"celeste":13859,"teu":13860,"ensayo":13861,"permiten":13862,"zamo":13863,"reality":13864,"torne":13865,"##jeras":13866,"aba":13867,"recibo":13868,"asuntos":13869,"patricia":13870,"talla":13871,"invite":13872,"retur":13873,"age":13874,"zulia":13875,"zapatillas":13876,"diabe":13877,"##ech":13878,"apagar":13879,"titan":13880,"discur":13881,"corpor":13882,"senadores":13883,"aff":13884,"negras":13885,"sientas":13886,"ajeno":13887,"rendimiento":13888,"promesa":13889,"privadas":13890,"recetas":13891,"armado":13892,"mostro":13893,"##itada":13894,"unan":13895,"pergun":13896,"sate":13897,"hr":13898,"empresarial":13899,"ohhh":13900,"wol":13901,"##trico":13902,"vente":13903,"intent":13904,"samsung":13905,"aragon":13906,"prender":13907,"##iria":13908,"paola":13909,"antio":13910,"honesto":13911,"nigeria":13912,"funcionar":13913,"##lfo":13914,"catalanes":13915,"malv":13916,"cumplo":13917,"ingresa":13918,"tachira":13919,"horoscopo":13920,"fallar":13921,"zel":13922,"nga":13923,"panorama":13924,"bai":13925,"apocal":13926,"zay":13927,"medicinas":13928,"##kg":13929,"coti":13930,"maior":13931,"participantes":13932,"took":13933,"matematica":13934,"suspender":13935,"lose":13936,"olvidate":13937,"prioridades":13938,"gosta":13939,"clandes":13940,"amix":13941,"nono":13942,"cobardes":13943,"quintana":13944,"artistofthe":13945,"shock":13946,"universe":13947,"reparto":13948,"dioses":13949,"fix":13950,"##ctr":13951,"tooo":13952,"necesitando":13953,"siglos":13954,"contratar":13955,"anar":13956,"christian":13957,"yt":13958,"guardo":13959,"##wich":13960,"92":13961,"pose":13962,"##guer":13963,"cremall":13964,"rav":13965,"##nar":13966,"demasiada":13967,"bias":13968,"##demo":13969,"##tinho":13970,"stud":13971,"formal":13972,"gimnasia":13973,"ehhh":13974,"desperd":13975,"actuales":13976,"2x":13977,"autop":13978,"cabeca":13979,"necesarias":13980,"reit":13981,"acabas":13982,"##his":13983,"clasicos":13984,"nestor":13985,"pasaria":13986,"stupid":13987,"lgt":13988,"voluntarios":13989,"monumental":13990,"##irle":13991,"adulta":13992,"##torias":13993,"esteban":13994,"populismo":13995,"rosas":13996,"##guita":13997,"##onde":13998,"opino":13999,"podremos":14000,"inunda":14001,"barranquilla":14002,"besar":14003,"##uza":14004,"masiva":14005,"bares":14006,"murciela":14007,"escandal":14008,"cremallera":14009,"##cade":14010,"chanyeol":14011,"sag":14012,"aprobado":14013,"quo":14014,"relaja":14015,"comodo":14016,"preocupado":14017,"absolute":14018,"apasion":14019,"jajajajajajajajaja":14020,"holly":14021,"##amanca":14022,"seminario":14023,"lyric":14024,"detencion":14025,"denuncio":14026,"estadisticas":14027,"##truccion":14028,"animos":14029,"premium":14030,"preparacion":14031,"82":14032,"federico":14033,"criticando":14034,"##yl":14035,"fresco":14036,"masacre":14037,"xav":14038,"falo":14039,"casco":14040,"candidatura":14041,"liberacion":14042,"secretos":14043,"picture":14044,"constituyente":14045,"supp":14046,"##anca":14047,"insumos":14048,"tapabocas":14049,"goleador":14050,"sobres":14051,"hahah":14052,"espiritual":14053,"podem":14054,"camioneta":14055,"ingresar":14056,"recomienda":14057,"vendido":14058,"populares":14059,"mienten":14060,"supi":14061,"##itorio":14062,"##utacion":14063,"김":14064,"reclama":14065,"daran":14066,"proximamente":14067,"weeks":14068,"inspec":14069,"30h":14070,"desempleo":14071,"alle":14072,"suprema":14073,"##tice":14074,"tvn":14075,"aquellas":14076,"terminando":14077,"resulto":14078,"plac":14079,"finanzas":14080,"email":14081,"chiapas":14082,"dejarlo":14083,"marcado":14084,"엑소":14085,"bless":14086,"toluca":14087,"abc":14088,"trau":14089,"##sions":14090,"##ᅮᆯ":14091,"##bers":14092,"montero":14093,"##bro":14094,"alfaro":14095,"##finales":14096,"lecciones":14097,"disfruto":14098,"tios":14099,"satelite":14100,"agrada":14101,"carros":14102,"redu":14103,"promete":14104,"papeles":14105,"##tente":14106,"dejare":14107,"escenas":14108,"##mbe":14109,"##ints":14110,"mentales":14111,"##chando":14112,"prosper":14113,"platica":14114,"festejo":14115,"clasific":14116,"msj":14117,"sobrina":14118,"infinita":14119,"pajaro":14120,"force":14121,"3d":14122,"##igado":14123,"chilena":14124,"##bc":14125,"escriben":14126,"hous":14127,"##tuoso":14128,"##ixa":14129,"exager":14130,"levantando":14131,"##gp":14132,"berlin":14133,"##adita":14134,"gin":14135,"##irio":14136,"91":14137,"habitual":14138,"##well":14139,"concejal":14140,"inmediato":14141,"chamu":14142,"madera":14143,"js":14144,"##idar":14145,"piano":14146,"government":14147,"contingencia":14148,"##arena":14149,"cancela":14150,"restaurantes":14151,"avisar":14152,"##unch":14153,"mud":14154,"kin":14155,"belo":14156,"aprendan":14157,"ensenan":14158,"mou":14159,"cagado":14160,"dizer":14161,"residencia":14162,"##itaciones":14163,"neo":14164,"pfff":14165,"atentado":14166,"##meo":14167,"##pus":14168,"##trada":14169,"injusticia":14170,"plu":14171,"mango":14172,"unam":14173,"imaginacion":14174,"cia":14175,"desorden":14176,"estarian":14177,"weathercloud":14178,"conocimientos":14179,"seem":14180,"condenado":14181,"invent":14182,"##jillo":14183,"mencionar":14184,"##undan":14185,"mocion":14186,"sabido":14187,"brillo":14188,"agradecimiento":14189,"mandame":14190,"##hab":14191,"##tines":14192,"lion":14193,"luce":14194,"ejemplos":14195,"inolvidable":14196,"available":14197,"perque":14198,"##trio":14199,"irres":14200,"cientifica":14201,"vertic":14202,"embajada":14203,"code":14204,"boe":14205,"violento":14206,"curs":14207,"giving":14208,"##iment":14209,"catastro":14210,"excited":14211,"manzan":14212,"cuenten":14213,"caidas":14214,"##oon":14215,"protagonistas":14216,"becas":14217,"##diola":14218,"vacia":14219,"volante":14220,"consultas":14221,"rights":14222,"marti":14223,"azules":14224,"epic":14225,"sold":14226,"trate":14227,"pasajeros":14228,"62":14229,"lice":14230,"avances":14231,"##ooos":14232,"quase":14233,"##colo":14234,"mereci":14235,"sang":14236,"agree":14237,"aguacate":14238,"funcionan":14239,"##enco":14240,"verdaderamente":14241,"##ipas":14242,"signific":14243,"carinos":14244,"senales":14245,"##rivel":14246,"bry":14247,"ciento":14248,"chavales":14249,"universitaria":14250,"aburrimiento":14251,"raiz":14252,"pelotudeces":14253,"##gru":14254,"falcon":14255,"afan":14256,"ww":14257,"스":14258,"william":14259,"cadaver":14260,"cringe":14261,"cav":14262,"circulacion":14263,"unida":14264,"dit":14265,"culpar":14266,"##giados":14267,"obrigada":14268,"guadalupe":14269,"descripcion":14270,"informate":14271,"works":14272,"amorcito":14273,"enterar":14274,"congratulations":14275,"haceis":14276,"adoctr":14277,"porcentaje":14278,"wild":14279,"aquesta":14280,"colaps":14281,"##ille":14282,"page":14283,"sucedio":14284,"definitiva":14285,"saudade":14286,"정":14287,"pasaje":14288,"##dador":14289,"resaca":14290,"pretenden":14291,"primos":14292,"entusias":14293,"mariana":14294,"escap":14295,"castellano":14296,"admir":14297,"montar":14298,"nasa":14299,"content":14300,"adicion":14301,"disciplina":14302,"forca":14303,"concen":14304,"acostada":14305,"pois":14306,"##bile":14307,"ㅤㅤ":14308,"renovacion":14309,"especific":14310,"manipulacion":14311,"means":14312,"equivoque":14313,"sigui":14314,"마":14315,"nazis":14316,"##dientes":14317,"##pete":14318,"##tecas":14319,"bache":14320,"revision":14321,"infarto":14322,"##ministro":14323,"shop":14324,"##jano":14325,"infil":14326,"miedos":14327,"joel":14328,"amante":14329,"circular":14330,"cubrir":14331,"peruanos":14332,"campus":14333,"edit":14334,"bosta":14335,"bolso":14336,"semifinales":14337,"tecnicas":14338,"2007":14339,"aren":14340,"subes":14341,"weno":14342,"regrese":14343,"habiendo":14344,"combinacion":14345,"france":14346,"masculino":14347,"sour":14348,"encuentre":14349,"asesinatos":14350,"todes":14351,"adri":14352,"fest":14353,"##ici":14354,"##calo":14355,"fuegos":14356,"mtvlainsta":14357,"ojitos":14358,"maz":14359,"monsta":14360,"juventus":14361,"##cedentes":14362,"canci":14363,"ortiz":14364,"months":14365,"aviones":14366,"aconse":14367,"##jados":14368,"hai":14369,"##bir":14370,"propongo":14371,"##quinas":14372,"worth":14373,"financiera":14374,"apps":14375,"fet":14376,"expro":14377,"##oracion":14378,"desaparecido":14379,"##radas":14380,"##esome":14381,"tini":14382,"deudas":14383,"##donado":14384,"loved":14385,"##atri":14386,"lenin":14387,"inevitable":14388,"consultar":14389,"##net":14390,"probado":14391,"##49":14392,"derru":14393,"inmobil":14394,"esperanzas":14395,"teresa":14396,"chiring":14397,"##suv":14398,"impuls":14399,"paper":14400,"tanga":14401,"seguidas":14402,"mism":14403,"nde":14404,"superado":14405,"##mosa":14406,"born":14407,"salamanca":14408,"poema":14409,"nature":14410,"vat":14411,"extranas":14412,"organiza":14413,"insisto":14414,"outs":14415,"coman":14416,"estruc":14417,"##how":14418,"##43":14419,"frutas":14420,"quejo":14421,"definir":14422,"preocupante":14423,"oficio":14424,"claudio":14425,"sumate":14426,"##mont":14427,"encen":14428,"mero":14429,"ocurra":14430,"##rus":14431,"peleas":14432,"cuyo":14433,"jazz":14434,"descubr":14435,"emociona":14436,"abel":14437,"incer":14438,"regiones":14439,"chab":14440,"bota":14441,"dimen":14442,"ita":14443,"citas":14444,"mantienen":14445,"jefes":14446,"##2015":14447,"afer":14448,"armada":14449,"##itados":14450,"autonomos":14451,"continuan":14452,"antoja":14453,"apara":14454,"compran":14455,"quieb":14456,"socia":14457,"##istan":14458,"dibujar":14459,"inside":14460,"##adito":14461,"##renda":14462,"chicago":14463,"##tional":14464,"##chile":14465,"boom":14466,"cr7":14467,"investiga":14468,"##encasa":14469,"vamooos":14470,"focus":14471,"festeja":14472,"enano":14473,"recurso":14474,"casilla":14475,"morirme":14476,"vales":14477,"mascara":14478,"xv":14479,"##ᅥᆷ":14480,"jonas":14481,
[...]
