[PAD]
[UNK]
[CLS]
[SEP]
[MASK]
!
"
#
$
%
&
'
(
)
*
+
,
-
.
/
0
1
2
3
4
5
6
7
8
9
:
;
=
?
@
[
\
]
^
_
`
a
b
c
d
e
f
g
h
i
j
k
l
m
n
o
p
q
r
s
t
u
v
w
x
y
z
{
|
}
¡
ª
¬
®
¯
²
¿
ø
ı
ł
ɢ
ɪ
ɴ
ʀ
ʏ
ʜ
ʟ
˚
ˢ
α
ε
η
ι
κ
λ
μ
ν
ο
π
ρ
σ
τ
υ
ω
а
б
в
г
д
е
ж
з
и
к
л
м
н
о
п
р
с
т
у
х
ч
ш
ы
ь
я
є
ѕ
ו
י
،
ء
ا
ب
ة
ت
ث
ج
ح
خ
د
ذ
ر
ز
س
ش
ص
ض
ط
ظ
ع
غ
ف
ق
ك
ل
م
ن
ه
و
ى
ي
پ
چ
ک
گ
ں
ھ
ہ
ی
ے
۔
अ
आ
ए
क
ग
च
ज
ट
ड
त
द
न
प
ब
भ
म
य
र
ल
व
श
स
ह
ा
ि
ी
ो
।
க
ட
த
ன
ப
ம
ர
ல
வ
ா
ி
ு
ก
ข
ค
ง
จ
ช
ซ
ณ
ด
ต
ถ
ท
น
บ
ป
ผ
พ
ฟ
ม
ย
ร
ล
ว
ส
ห
อ
ะ
า
ำ
เ
แ
โ
ใ
ไ
ๆ
ᄀ
ᄁ
ᄂ
ᄃ
ᄄ
ᄅ
ᄆ
ᄇ
ᄈ
ᄉ
ᄊ
ᄋ
ᄌ
ᄍ
ᄎ
ᄏ
ᄐ
ᄑ
ᄒ
ᅡ
ᅢ
ᅣ
ᅥ
ᅦ
ᅧ
ᅨ
ᅩ
ᅪ
ᅬ
ᅭ
ᅮ
ᅯ
ᅱ
ᅲ
ᅳ
ᅴ
ᅵ
ᆨ
ᆫ
ᆭ
ᆮ
ᆯ
ᆷ
ᆸ
ᆺ
ᆻ
ᆼ
ᆾ
ᇀ
ᇁ
ᇂ
ᥱ
ᥲ
ᴀ
ᴄ
ᴅ
ᴇ
ᴍ
ᴏ
ᴘ
ᴛ
ᴜ
ᵃ
ᵉ
ᵒ
›
⃣
→
⋆
⏱
─
━
┃
┈
┊
┏
┓
┗
┛
═
╬
╭
╰
╱
╲
█
▪
▶
►
☀
☁
★
☆
♪
♫
⚘
⚠
✍
✏
✔
✧
❄
❝
❞
❣
➡
⠀
⬇
、
。
《
》
「
」
『
』
【
】
〜
あ
い
う
え
お
か
き
く
け
こ
さ
し
す
せ
そ
た
ち
っ
つ
て
と
な
に
ね
の
は
ひ
ふ
へ
ほ
ま
み
め
も
ゃ
や
よ
ら
り
る
れ
ろ
わ
を
ん
ァ
ア
ィ
イ
ウ
ェ
エ
ォ
オ
カ
キ
ク
ケ
コ
サ
シ
ス
セ
タ
チ
ッ
ツ
テ
ト
ナ
ニ
ノ
ハ
ヒ
フ
ヘ
ホ
マ
ミ
ム
メ
モ
ャ
ュ
ョ
ラ
リ
ル
レ
ロ
ワ
ン
・
ヽ
ㅋ
ㅠ
ㅡ
ㅤ
一
上
中
人
今
会
作
公
出
分
大
好
子
定
年
思
描
新
方
日
時
最
月
本
楽
気
生
画
的
見
誕
開
間
！
（
）
／
？
＼
＿
ｅ
～
｡
･
ﾟ
￣
𝐀
𝐄
𝐈
𝐍
𝐎
𝐑
𝐒
𝐓
𝐚
𝐜
𝐝
𝐞
𝐢
𝐥
𝐦
𝐧
𝐨
𝐫
𝐬
𝐭
𝐮
𝑎
𝑒
𝑖
𝑛
𝑜
𝑟
𝑠
𝑡
𝒂
𝒅
𝒆
𝒊
𝒍
𝒏
𝒐
𝒓
𝒔
𝒕
𝒖
𝓮
𝖾
𝗔
𝗘
𝗜
𝗡
𝗢
𝗥
𝗦
𝗧
𝗮
𝗰
𝗱
𝗲
𝗶
𝗹
𝗻
𝗼
𝗿
𝘀
𝘁
𝘂
𝘢
𝘦
𝘪
𝘭
𝘯
𝘰
𝘳
𝘴
𝘵
𝙖
𝙚
𝙞
𝙣
𝙤
𝙨
𝙩
𝚊
𝚎
𝚘
🌧
🎙
🎟
🏟
👁
📽
🕊
🗓
🗞
🗣
🗳
##a
##d
##r
##i
##e
##s
##c
##o
##t
##h
##n
##y
##v
##p
##u
##2
##0
##1
##9
##𝗲
##𝘂
##𝗹
##𝗶
##𝗰
##𝗮
##𝗻
##𝗼
##f
##g
##ᄆ
##ᅡ
##ᄏ
##ᅦ
##ᆺ
##k
##w
##m
##b
##l
##ᆷ
##ᄋ
##ᅳ
##ᆯ
##ᄄ
##ᅢ
##อ
##บ
##เ
##ต
##ร
##ย
##ม
##ว
##ด
##ๆ
##น
##ะ
##j
##о
##т
##р
##я
##с
##а
##и
##х
##♪
##е
##л
##q
##x
##z
##7
##5
##ป
##แ
##ท
##ก
##す
##は
##ん
##と
##า
##ค
##ซ
##र
##य
##ट
##क
##ह
##ห
##ไ
##ส
##ᄅ
##ᅵ
##ᄌ
##ᆫ
##8
##⠀
##ᄉ
##ᅮ
##ᅥ
##ᄃ
##ᅧ
##3
##ア
##ク
##ロ
##イ
##ル
##る
##よ
##う
##ら
##み
##ち
##お
##จ
##ำ
##ง
##ข
##か
##カ
##リ
##ウ
##ッ
##テ
##ィ
##に
##っ
##て
##あ
##た
##ᇀ
##ᅯ
##ᅣ
##な
##わ
##𝑖
##𝑛
##𝑜
##𝑠
##4
##ช
##も
##せ
##タ
##フ
##し
##🕊
##ɪ
##ᴅ
##ᴏ
##𝘰
##𝘳
##𝘯
##𝘦
##ι
##ѕ
##ᄇ
##ᄁ
##ス
##を
##6
##𝐦
##𝐞
##𝐜
##𝐢
##𝐥
##セ
##さ
##の
##ن
##ع
##ش
##き
##ニ
##メ
##ワ
##ト
##ャ
##ケ
##ム
##𝐬
##𝐨
##𝐚
##𝐭
##𝐮
##ی
##ر
##ے
##ک
##─
##ｅ
##れ
##い
##𝗱
##𝘀
##म
##ब
##ल
##स
##ᄎ
##ᆼ
##ம
##ு
##ட
##ன
##н
##ᇁ
##ᄀ
##ᅩ
##ใ
##ي
##گ
##ᆨ
##த
##க
##λ
##η
##ρ
##ο
##ν
##μ
##α
##𝖾
##г
##ま
##り
##ล
##ʀ
##ᴇ
##ᴛ
##𝘴
##ı
##ɴ
##س
##ب
##ط
##ه
##ᄒ
##ᄂ
##ف
##ض
##ل
##コ
##ミ
##ン
##ق
##و
##σ
##ε
##や
##へ
##こ
##б
##ح
##ひ
##ณ
##ถ
##ュ
##𝐫
##ᆻ
##ᅭ
##д
##ы
##ナ
##𝒓
##𝒂
##𝒕
##𝒆
##𝒔
##𝙚
##𝙣
##𝗿
##𝘢
##𝘵
##𝘪
##ᵃ
##व
##ा
##𝘁
##ø
##พ
##ホ
##ェ
##ت
##خ
##ج
##く
##υ
##⚠
##𝑟
##𝑒
##チ
##モ
##м
##𝘭
##𝐎
##𝐑
##𝐒
##𝐄
##┈
##ᄐ
##ª
##そ
##け
##⋆
##ラ
##ね
##𝑎
##𝑡
##د
##ᅱ
##ᅪ
##ハ
##پ
##ا
##ᅴ
##ி
##⃣
##ர
##ᴜ
##エ
##ヒ
##𝚎
##𝚊
##ノ
##у
##в
##ь
##𝒊
##つ
##ة
##ᥱ
##ו
##ᄑ
##ी
##𝐝
##━
##م
##ヘ
##キ
##オ
##ผ
##ฟ
##𝓮
##め
##ز
##ᴄ
##ʜ
##ᴀ
##𝐧
##ゃ
##▪
##ھ
##シ
##🗣
##ㅋ
##⬇
##ᆸ
##ㅠ
##з
##к
##→
##द
##श
##𝐍
##𝐓
##𝐈
##𝐀
##～
##ᆭ
##โ
##ذ
##ᵉ
##ᵒ
##ப
##ா
##ல
##வ
##▶
##レ
##🎙
##ㅤ
##❝
##п
##ч
##➡
##ɢ
##ʟ
##⚘
##☆
##ろ
##マ
##ツ
##サ
##ᇂ
##𝒐
##𝒖
##𝒍
##ᅲ
##ᄈ
##ł
##ص
##ہ
##ك
##❄
##ग
##न
##त
##♫
##𝒏
##𝒅
##ड
##👁
##ж
##ᅬ
##🌧
##╭
##𝚘
##𝗘
##𝗥
##ァ
##ء
##ᴍ
##²
##𝗡
##𝙨
##𝙤
##ョ
##ᆾ
##ふ
##ˢ
##✔
##𝗧
##𝗢
##𝗦
##𝗜
##𝗔
##ᄍ
##ᅨ
##☁
##च
##ि
##ш
##प
##®
##є
##❞
##►
##τ
##❣
##𝙞
##𝙩
##𝙖
##י
##ᄊ
##ω
##え
##ォ
##ほ
##κ
##ʏ
##ں
##✍
##ो
##╱
##★
##ى
##ज
##π
##ظ
##ﾟ
##غ
##ث
##ᥲ
##✏
##ㅡ
##ᆮ
##┃
##╰
##🗓
##⏱
##ᴘ
##چ
##☀
##🏟
##┓
##█
##═
##┏
##ヽ
##¯
##📽
##भ
##╲
##┊
##╬
##¬
##ए
##˚
##🗞
##🎟
##✧
##🗳
##┗
##┛
##आ
##￣
##अ
##ar
##io
##mo
de
##as
##en
##er
##an
##ji
emo
emoji
##on
##ario
##su
##ue
##os
usu
usuario
##or
##ta
##es
##do
es
que
la
##al
##rl
url
en
##in
##te
##ara
##is
el
##ic
##da
con
has
##ia
##ien
no
##tag
##htag
hashtag
##ra
##to
un
##re
me
se
##ac
##ol
##ion
cara
##ro
##ando
co
##le
por
re
##un
##mp
al
##de
##ti
##aj
si
##la
lo
los
to
per
in
##ch
##ab
##el
##us
##ui
mi
##ri
##mos
##am
##go
para
cu
te
##ora
su
##ci
an
##ad
man
##lo
del
##ma
##iendo
las
##ente
##il
esta
una
##ida
le
##it
##dos
##ec
son
mas
##ir
##tr
mu
##era
di
##cion
des
hac
##ca
ha
##gu
##res
yo
so
th
est
##co
como
##zon
ch
##cu
##ent
ll
##ada
##ues
##acion
cora
##me
corazon
##at
##ero
pro
ten
pero
##ga
##que
llor
##ran
##oy
ver
##mb
ex
##isa
##ie
##aja
ya
ap
tu
##id
as
pa
##ing
po
llorando
par
##ez
##ter
##tu
##iv
##lar
##uer
oj
ser
risa
##ana
##ono
##ica
pi
sonr
##tra
bu
##tes
ar
##ico
##cia
##tos
##iz
##ud
ca
##qui
##tas
ac
sol
qui
##ier
##ios
sal
ab
##idad
##ul
pas
the
am
va
##son
##ig
##tar
esp
pue
##av
sonriendo
ojos
todo
##ado
##se
ma
##dad
tra
##tor
pe
##ten
esto
com
ah
person
ro
pre
##ib
##ita
##jo
##ba
##vo
med
buen
este
##ajaj
##ina
tien
##lan
hab
##ur
sin
##so
mar
nos
cas
##ve
cuando
mis
dia
can
##ice
mano
tan
comp
hay
much
piel
sab
##tro
##gar
tono
##men
##der
mo
##ce
cre
##amb
##va
gra
##ru
clar
he
pen
cor
##di
##po
##za
##oo
##mas
##cha
claro
##ver
pu
res
ne
##tan
sen
##pa
porque
qu
men
##gun
ven
##ales
lle
hoy
car
todos
##das
asi
manos
mal
##las
mej
##tic
ho
ni
mejor
do
##ja
jaja
bo
##cias
##min
ent
eso
##ito
20
##ano
solo
for
##per
bien
dis
of
##des
##ras
go
##no
##les
##pe
fel
##and
##eces
##sa
##mente
##emp
fuer
fu
imp
sus
da
amo
cos
ju
##bre
##ha
##et
##los
col
##ias
rev
hacer
cal
ti
##ista
##emos
and
##ho
lu
persona
gran
pres
##ido
vo
nada
fr
pri
fue
##ena
don
##ores
muy
on
fin
les
##iento
##ian
tiene
be
vida
estoy
##tal
medio
##ino
##den
fav
vi
dor
##gan
##empre
emp
quiero
siempre
nues
ahora
gracias
ve
her
##fic
hace
ter
gente
##man
tengo
##du
san
deb
pol
ay
##ajo
##ren
ta
gu
is
##ble
ra
nue
##zo
##olv
##ts
you
##iste
fal
mun
fo
##che
quien
##gui
gan
pon
favor
##dose
##aa
hacia
##je
inf
ind
##gra
##ces
##enta
##uel
na
##tros
or
mad
dos
cer
gus
##im
fuerte
trab
##jaja
fe
us
##pues
##bl
##ke
##encia
min
anos
##00
inter
voy
##tras
##ados
##car
sobre
##ros
hu
##cho
viv
hasta
##eno
##van
##mar
##iendose
##jer
val
##qu
##mpo
tamb
feliz
quier
jo
cab
esc
##pon
##ven
##por
neces
revolv
real
revolviendose
nun
bes
dic
estar
mil
deci
vez
ir
quer
jjaja
hi
tambien
band
##ciones
algo
cam
nunca
##dor
ese
soy
conf
au
bandera
##gue
##mi
##ay
mucho
rec
du
li
##rar
prim
entre
we
mor
dej
puede
desde
##iente
pel
dias
##can
lin
pos
##tiv
via
casa
##ip
##erda
reg
toda
apla
##dio
##20
pr
estan
lib
esa
##ed
bar
ad
pla
os
tw
donde
##th
##aron
mes
cons
##mbre
##cial
##fer
aplaud
ano
dere
##be
exp
##ala
ins
##tir
##vid
eu
gob
##cer
vide
##ientes
tie
wh
jun
aplaudiendo
mus
##ola
era
cosas
pais
segui
##ly
dios
rep
algu
menos
##tin
tener
##ece
fle
##ador
##ismo
algun
ob
ce
dar
##ies
indice
bueno
alguien
##aba
verdad
his
##tiva
##ones
cada
sea
##nos
##bo
aqui
##mento
jus
##dar
##tido
mundo
10
mon
super
##if
##icion
contra
##ee
##ima
ami
uno
pues
mujer
estas
aun
vamos
vol
dorso
##icos
##ut
##ers
op
cono
##bol
pan
##ves
##iar
igu
##toria
##amente
##con
gen
nad
##lti
amor
##ante
hor
##mana
##istas
corazones
sac
##anos
jue
201
##ge
tiempo
cual
ol
mer
##ya
##ona
##ible
##uela
tar
escu
fac
publ
sa
tran
##imo
camb
##via
creo
igual
nadie
##par
ag
##ton
##ierno
##cio
##tando
personas
it
vos
manana
pal
lla
at
bas
video
ba
##ria
##orm
blan
cl
pun
##til
##ine
##fe
##cas
bus
equi
19
vis
impor
tanto
despues
##zando
##ment
##gua
mismo
##gas
##tado
mex
frente
pens
ganas
##rec
def
##ame
tr
jajaj
bol
##um
han
pes
cr
ulti
ci
ga
may
##olo
fam
rojo
van
af
puedo
##tion
##ision
lan
otro
ban
segu
decir
levan
mam
##ial
amig
mat
##ril
##ps
inc
otra
cuenta
##cuer
##duc
presid
cap
haciendo
tienen
##tivo
esper
##eza
cump
##na
venez
##tura
##tre
famil
final
cul
gobierno
##ck
##adas
grande
nuevo
plan
##ted
##aciones
abajo
beso
this
##ach
##arios
dice
vuel
tal
##pas
ja
##itar
my
##jos
##eria
##entes
##ieron
boca
##racion
polit
dan
ahi
mierda
##end
##inos
##rib
pod
##cal
den
sh
az
##aje
eres
##idades
todas
##gn
semana
bal
comun
foto
##illa
ale
pasa
##mir
gusta
inv
##mia
trabaj
gol
abra
antes
cir
##cel
estamos
##acional
derecha
segun
##mag
##ile
estos
je
poco
nuestro
sub
##tad
that
fut
##tada
##eros
arri
pin
poder
##ill
##miento
sonrientes
muer
##ith
vic
##guen
pregun
##eo
imag
##li
##mon
futbol
sera
mie
blanco
fun
rt
##br
camp
arg
##itos
dec
av
fa
clas
queda
mexico
sos
##ern
trabajo
perf
##una
termin
felic
tus
veces
##icia
parte
##sj
momento
parece
##don
##udad
temp
##haha
##dan
cele
##gia
##ite
falta
paso
##alo
##sul
##tante
tor
estud
em
##culo
##uda
somos
##ber
acab
##tel
bon
extr
##ds
arriba
argent
rad
trans
hermos
ciudad
##rob
are
noche
twit
##pp
##char
vas
fl
apoy
estado
music
azul
##lic
with
estaba
ellos
##aria
ojo
##able
colo
##xion
##icio
venezuela
fan
cri
pra
vio
hora
##tv
salud
ella
##pi
presidente
sor
quiere
ade
direc
covid
##ea
jug
madre
##ridad
buena
miedo
##igh
##irus
vien
##titu
pl
nao
cuar
##var
##ks
sec
respon
frio
##ist
##rr
##iso
nuestra
##pos
##ular
prof
oracion
fuego
##elo
amigos
estu
historia
##cuerdo
dormir
pelo
##adores
##yo
##idas
##orado
lanzando
pueb
##lante
##aran
senal
##icas
gt
##dia
##ub
muchas
proble
aca
##tual
mill
##izo
elec
espana
salir
fi
##ula
flecha
demas
tenemos
##ack
##rid
##sion
##aca
cuan
##ollo
nueva
partido
##ss
gri
puta
##ich
##trar
unos
mira
##ff
amp
30
ide
social
buenos
##eral
comer
bel
##gro
##zar
sabe
##idos
##vio
15
##ale
##rel
dol
##nes
homb
##ajajajaj
##ecto
cuer
##inando
fuera
compar
##illo
cualqui
##rado
##itas
##iera
amigo
##imos
ref
tele
##eando
equipo
##oles
ning
##gos
circulo
##ere
mtv
##dido
cier
pensa
seguir
##ulo
familia
dijo
marca
##pcion
##cos
##len
##mm
veo
poner
sigue
##ital
##lus
##use
##ii
vie
##cur
hecho
##ne
din
esos
mien
##uta
hacen
twitter
len
##mes
hablar
cabeza
siento
cha
amar
##gres
##eta
##ka
peor
##tica
recor
domin
sudor
cui
by
12
argentina
##eci
##ban
##ron
horas
##otros
cumple
xd
har
saber
che
ec
pul
dejar
necesito
##tru
##ticia
tienes
bab
debe
primera
##iceps
flexion
reci
estrel
biceps
##vil
##gado
flexionado
desa
nacional
auto
ben
##entro
##19
deja
chis
tenia
##pen
##cios
cosa
##osa
interes
ley
##iencia
encan
pensativa
##jas
primer
##ira
cru
lugar
colomb
espero
your
morado
pien
what
aten
##ior
aunque
##oria
pueblo
mientras
pueden
amb
uste
##tico
11
hombre
##kk
##inas
enten
triste
##zas
ojala
##fa
intern
ustedes
ev
##one
##tadas
bril
madrid
muchos
seria
##uego
lindo
mos
##op
##ucion
##ific
gru
habia
sho
##demos
##ura
disf
love
##ep
wor
##port
respe
apar
balon
##robacion
mama
##hh
##ys
unico
habla
coron
serv
amiga
fotos
pasar
apren
##ty
hizo
liber
new
fran
##eet
casi
ayer
otros
##ccion
gas
##ive
##rom
tarde
tec
encon
guinando
cur
luego
unas
like
haber
vac
hola
volver
##pm
rel
ele
profes
##gen
100
forma
digo
dicen
2020
##ger
perio
tipo
loco
##ight
all
tras
##entar
nosotros
agu
##ajaja
##izar
18
inform
bor
viene
partic
ur
sido
ante
##lando
not
##uu
##antes
cualquier
##avirus
acuerdo
sabes
cris
##ivers
odio
##all
visto
00
bts
##ento
empres
progra
notas
##entena
minu
mujeres
contr
defen
coronavirus
##ches
caso
bro
ayud
pad
one
tre
lado
econo
prox
desp
goo
tomar
vier
##eb
##ecta
difer
##brando
but
##ear
prop
##fas
cla
disfru
soci
sex
##eron
tend
##enos
lab
empez
encu
##king
##ila
prem
##ama
palab
fir
dinero
##ry
ped
quieren
razon
total
tro
##bar
blo
pac
##lu
chispas
enton
prin
##bas
reco
esas
cuarentena
comple
##endo
cho
##iado
##chos
lit
##ye
conse
nuev
##for
was
cel
alto
##und
##ollow
##gh
##tivos
sueno
entonces
viernes
buenas
period
##cra
llegar
fies
hue
mono
seguro
just
##mor
##iones
##ook
brillante
ges
necesita
inten
##ilidad
chile
celebrando
##mano
ej
gua
##orn
##ll
pulgar
llama
##cen
senor
tri
##imada
##rante
corru
pasado
come
##ting
compan
ai
pena
tema
##iante
##em
up
lengua
recib
##tis
calle
nuestros
salu
domingo
##ose
##para
mejores
##rados
have
amer
resul
lar
desan
um
##ual
policia
iba
##si
##fo
hos
agra
##tia
et
##ell
##wn
##erte
iz
sino
colombia
fis
euro
##zos
recu
##dores
##yas
##rio
##dicion
##gida
espan
vaya
sale
millones
tur
comida
infor
puedes
espe
mac
cen
oscu
##lado
hic
##ivel
tru
##uro
jul
tres
jugar
paz
aco
##eti
ens
guar
vale
verde
##mentos
abo
desanimada
levantadas
funcion
##atos
todavia
musicales
informacion
top
pensar
##amiento
##jar
meses
ases
emb
espera
##cri
##icar
problema
##taria
agua
##unes
##ientos
bl
negro
wo
produc
##resion
actual
nota
##tima
perdon
ama
##tencia
2019
romp
sup
victoria
##dez
##cado
gar
br
##ram
##migo
entra
##dida
ton
##enas
cambio
14
##iver
gana
tap
enco
parti
usted
hago
##ase
##icado
escrib
ves
misma
##menta
sig
simp
tweet
leg
##gamos
##dial
sabado
musica
dio
than
dejo
##ormal
ever
13
##ong
##ity
grupo
ang
##tif
pequ
nivel
##eras
ps
demo
importante
mara
hub
##ko
ru
ofic
vivir
##day
manera
llorar
nar
000
puer
ningun
grandes
##llo
enci
hijo
viol
##tamente
pobre
tir
proy
##ques
pier
ayuda
##cul
papa
sur
hombros
club
mucha
entr
incre
##ix
escuchar
podemos
mala
dific
organ
conta
##iza
viendo
extrano
izqui
from
##ocu
##inar
pelic
##cip
some
bra
tui
##dy
gato
##orada
ademas
##ant
##uso
enf
nav
tit
##oso
out
##isimo
##demia
exc
jam
baj
anda
prote
##aaa
##tigo
##cido
will
##vers
comprar
olv
exper
24
im
##rada
ren
play
importa
facil
pq
enfer
##ider
libertad
politica
entiendo
fil
encogida
cancion
##atro
##chas
mens
patr
ganar
flor
gor
day
16
##amo
17
pende
acabo
rap
##gio
they
mundial
plata
menti
pone
cruz
ultimo
suerte
queria
juego
siendo
##izacion
media
oscuro
saben
bail
##entos
especial
##acio
situ
pron
vir
tecn
quieres
depor
preocu
fra
nombre
##are
##ick
durante
if
lunes
vivo
fiesta
log
punto
juan
##rig
##ooo
camara
sta
sp
quedar
ninos
normal
ig
futu
gal
pid
encima
histor
##aro
justicia
##tific
joven
now
conmigo
cumpleanos
##dado
perfil
arre
minis
##uld
##guenza
realidad
primero
vs
##ace
##he
kkk
pie
##isto
deberia
##tral
aprobacion
more
programa
sigo
leer
ata
hijos
serio
dur
happ
##her
conc
babeando
guer
gafas
dificil
linda
mic
mayor
oc
cues
contin
num
human
##sus
tampo
atencion
##ind
encanta
inde
##ini
apoyo
nor
llego
##ificacion
roto
sentir
##uncia
quedo
##ional
serie
chav
pase
lpm
bomb
tranqui
confeti
tampoco
mtvla
desper
alguna
##fono
juntos
nat
chan
idea
quienes
bb
personal
apro
chu
ultima
pat
opin
radiante
##sos
cuanto
orgu
art
campe
llega
##din
25
glo
ok
anim
ago
200
cierto
21
mia
##ide
minutos
sele
get
simb
cans
##tores
##ms
inves
estrellas
##usa
izquierda
chin
celeb
meu
gre
volv
escuch
trabajar
gritando
hermosa
suf
##esta
dig
##puesta
democra
traves
lt
educ
follow
lleva
tenes
senti
confir
radio
##tina
univers
##itan
##st
haya
##gando
ros
cole
##ua
##titucion
aj
fui
##mil
excel
particip
cerrados
aque
50
ign
##tio
##ajes
fre
abrazo
mais
hermoso
respons
abrazando
##eca
olvid
sacar
abier
copa
##gada
##lla
aw
amarillo
enamo
verguenza
sep
##portun
nego
repres
luz
orden
mio
saludos
algunos
creer
ejemp
bebe
acaba
pregunta
##ecer
dra
libre
perder
imagen
perro
clase
##rir
##fi
extran
pren
movil
##my
pandemia
prue
estr
##vin
princip
##ung
junto
##icios
##fia
gusto
##tiendo
escri
sola
coment
presenta
sorp
pagar
toma
uma
investi
temporada
sir
##ler
##est
cine
voto
peop
pare
notic
##tur
publico
general
centro
haga
var
priv
otras
alta
acomp
canon
contigo
##ioridad
##cepcion
##cito
##gre
podria
seguridad
##vision
##erv
anti
people
chi
##yy
##ise
##arr
pop
##ens
corr
##now
oportun
##mando
time
mier
##tf
dicho
aud
##greso
boton
rico
cuernos
derecho
bras
##ror
int
cin
##mit
pelotu
##miendo
pedo
##macion
##ki
fueron
##arse
show
dije
siste
eh
rey
unica
ed
##rera
##gon
##ld
due
##cando
##tados
##imin
regres
##arme
hablando
hon
educacion
resp
aliv
culpa
##teg
got
hosp
when
queremos
hemos
how
##encias
america
##edad
activ
exis
precios
econom
dando
payas
cuad
star
dip
cabre
conv
##cimiento
emocion
##ancia
descu
##iana
dentro
palabras
##pel
##dito
agrade
hamb
conocer
##ans
##mer
ep
esperando
22
##taron
diciendo
liga
trump
jamas
far
##aco
ke
bir
##del
gro
##icip
char
nov
futuro
recono
##udo
casos
##jada
llevar
##tagram
entien
about
existe
##rible
fuerza
explic
##ares
respeto
bre
municip
fon
##ables
util
fes
increible
tier
##ign
public
##ph
control
##llos
acor
cambiar
cuerpo
situacion
er
llev
tv
servicio
##ins
sean
##entas
etc
ado
hermano
autor
mue
empie
santa
##tancia
haces
##ok
posible
tenga
##ciente
lig
##irl
fern
voz
##ticas
every
bajo
##quito
bonito
instagram
noticias
entender
ou
vec
verificacion
ef
libro
peru
puno
sacando
jajajajaj
cabreada
stre
dep
good
novio
sabor
realmente
##ugh
demasiado
der
##quer
##cor
##pez
##sjsj
simple
jueves
alla
##ecu
premios
querer
calor
##uestra
##aste
##mina
know
dif
vuelta
das
##dic
doc
sign
##ceso
corre
nu
unidos
gener
##rando
##ner
acep
##guay
siguen
##olucion
venezol
luna
who
segundo
beb
##unci
dev
manten
ejemplo
pesso
sistema
jose
mov
sentido
23
our
ka
gobern
max
padre
asco
anal
morir
llevo
pag
sabia
jaj
brasil
hice
alb
wa
##tacion
##mbo
##tt
estrella
ignor
invita
env
deber
dolor
mag
##ish
##lica
muerte
pele
xq
trata
enc
regal
luis
dale
happy
fas
pelicula
##tera
app
camino
##olog
##iro
coc
##ang
##ions
##ek
lopez
llu
##eis
excelente
lista
segunda
tem
culo
##teo
cob
reun
ple
mexic
##diendo
emple
bloque
malo
##iembre
agar
##aban
pense
desarr
redes
contes
##ard
red
##au
valor
##remos
##ologia
nac
##hor
nie
##erg
maduro
crisis
40
cumpl
puntos
angel
##tero
##ete
manda
##이
noches
deses
see
gui
nuestras
dejen
obl
abs
hahaha
carlos
pronto
covid19
##tivas
violencia
##ecen
buscar
usar
verga
secre
year
maria
payaso
2018
hagan
avan
moles
llamar
corrup
felicidades
hel
ans
atras
##tidad
##pera
comen
oficial
derechos
canal
ido
campana
pensando
vino
##tri
err
live
doy
sw
hombres
##dra
##tino
##istra
tanta
##iano
internacional
ejer
problemas
##ulos
gira
limp
salv
its
##uir
acos
##terio
cien
politicos
nino
relacion
proyecto
##dd
explo
partidos
encontrar
momentos
boliv
##arte
promo
##ural
rob
ee
tes
##201
best
cerv
##ther
ecu
publica
justo
##nn
mensaje
rato
cafe
alma
entrev
actu
##uito
##coles
##hib
impos
cuba
vuelve
##bu
##thing
opinion
pedir
mando
literal
reves
##ked
##sun
##lor
duda
nuevos
dispon
eno
martes
recuer
##igo
##ude
rac
prac
za
##imen
diga
##vel
toca
superioridad
gon
alcal
faceb
fer
##ink
abur
##rano
busca
##isco
mane
bene
sigu
videos
sociales
ing
facebook
obs
mascar
elecciones
entren
##izado
rod
##ole
##ris
habra
amlo
edu
desc
##quen
##yan
il
miercoles
##adora
amigas
ber
even
proximo
##ifica
cuatro
##sas
rapido
onda
sociedad
##iedad
##tw
##zan
jar
bur
aguan
jorn
repu
contag
ahor
##imiento
suel
hicieron
decision
numero
##iva
conoce
pud
rio
##tantes
comb
salio
##ak
prepara
cama
pienso
rosa
duele
##ines
acer
say
##uelo
usa
bailando
tremen
messi
dud
creciente
esperan
virus
##ivo
inclus
bet
martin
##rian
lider
basta
bru
conten
##cep
julio
desap
vin
puesto
##ure
##way
##puesto
##gacion
estados
ocu
seas
##vos
here
capac
esti
info
##tien
esperar
empezar
##alu
wat
mig
preocup
##ese
##torios
regalo
##cier
nomas
deben
candida
guerra
bil
pasando
silen
posi
hol
darle
team
quis
dro
##bles
ko
stream
descan
cd
alcan
votar
##duci
tuv
seman
world
idio
mayo
estudiar
enter
##ticos
fantas
back
ass
nic
clases
consegui
ninguna
arran
llegue
black
vive
##bal
faz
aus
cree
gesto
fuck
datos
puto
sk
agotada
cerca
hubiera
polic
mel
web
uso
dado
hambre
bola
noticia
##acer
nooo
chicos
lucha
##osicion
saboreando
##dencia
permi
meter
any
respuesta
hacerlo
corrupcion
she
recuerdo
hilo
republ
##xs
medios
repor
##xico
senora
##mientos
leon
##berto
orto
tierra
obje
pueda
barcel
##ric
hospital
cra
##art
##ings
fri
consu
jugadores
##ectos
jugador
quiera
lluvia
mayoria
##iales
##usion
local
aprove
decepcion
##lara
sto
acompan
mate
viva
hija
terror
ahre
##21
sens
sabemos
##sh
demos
protes
obra
deba
aaa
youtu
lim
papel
pab
##2019
desaprobacion
tren
seu
##andom
detal
vai
terminar
informa
oh
merece
signo
##uras
simbolo
pic
pequeno
vieja
spo
maes
ayudar
##tamos
viejo
seguimos
##ᅡᆫ
deje
##tie
quede
cad
##gal
win
cerveza
##up
obvio
sonro
memo
labor
boy
aleg
chil
comien
luces
##quis
aso
dir
navidad
mandar
mur
politico
aman
##mun
arte
intel
recuper
##inal
digan
blanca
minha
bastante
##villa
##paz
congreso
##ning
##dp
div
capital
quin
matar
entrar
directo
##entan
jor
paises
civ
podes
eran
ara
exig
resto
##ulas
##iada
internet
contar
##2020
desapar
##zco
tapados
##ime
resu
##mpos
solucion
equivo
##ianza
artic
him
militar
venir
musical
ase
rid
need
##osto
herman
##pend
verano
pedi
ilus
barcelona
queres
##rias
precio
##tran
sorpren
aire
kar
carrera
dicta
correc
quedate
sonrojada
##jan
##dura
durmiendo
nina
##gg
trofe
26
##erta
medidas
bic
novia
conven
##ioso
recien
golpe
28
entrevista
economia
electr
##pan
banda
consul
prome
escuela
##table
solid
##ique
##tito
fras
espanol
flo
europa
##ik
beca
foi
riv
bat
pp
##miaw
ital
benefic
fiscal
oro
pessoas
compra
manif
lor
edad
##10
##iel
color
empresa
celular
cop
hermana
cerrado
##leta
zona
jeje
diario
urg
##chez
##tarse
juega
ran
campeon
mol
felicidad
trofeo
##tarme
##curso
encuentro
palabra
27
mente
oportunidad
##kes
##ibles
profesional
dont
ensen
termino
##dando
##acho
ecuador
globo
expres
delin
jajajajajajaj
joder
prob
vacaciones
gestion
tuit
jajajaja
esperamos
fecha
##iga
##ator
oblig
absol
off
prohib
##tec
reac
gano
chec
medic
hin
feo
linea
##rido
champ
calidad
femin
sob
tiempos
telefono
exo
sector
china
empresas
ropa
juro
##zada
capit
pide
mach
mental
##hy
album
gustaria
pongo
abor
##mado
cultura
dese
contac
##ket
##line
constitucion
today
perd
stor
gil
##truc
did
recomen
##ker
##tle
algunas
varios
prepar
sanchez
##iti
micro
only
mtvmiaw
##fico
##dita
familiar
venta
##mad
##ire
die
##icamente
deten
inicia
partir
eleg
sil
vemos
comunidad
##unt
##abilidad
imposible
tenido
##hu
chica
muertos
##dem
nas
##anas
jornada
igles
atra
want
##ft
descar
naran
totalmente
extra
baja
intelig
lejos
estaria
apor
ching
##cheta
##isima
apre
isso
gratis
dr
corona
##gues
levantada
vc
feel
##eee
##ilo
dedo
##respon
##lash
cae
wey
refle
exac
youtube
##ull
penal
alivio
decirl
paro
tio
##ny
##quia
##tubre
loca
ridic
tantas
ses
game
ge
##cre
##iando
refer
doble
ron
hablo
##mental
##ficiente
colec
cont
lis
##rito
pil
hal
tin
chincheta
duer
viaje
conver
jugando
cic
falle
pelig
their
democracia
##turas
##amos
cielo
maravil
make
adelante
esf
eng
libros
please
tat
apa
delincu
##medad
##ju
bos
creen
##ducir
venga
disfrutar
because
ries
##eramente
distin
elimin
river
rus
lad
octubre
supon
ocur
them
preven
there
ponen
haz
quedan
om
frien
defender
##lada
##we
dem
acu
seleccion
olvida
natural
jovenes
colab
##oll
##ienta
##arlo
##yendo
concier
pinche
semanas
##mber
thank
over
mirar
##andez
aprender
sat
tuve
convers
macri
humor
##tivamente
provin
canciones
mismos
peda
oper
##sar
palo
pareja
recuerda
non
##ally
##amer
sent
agre
big
gab
##dj
##zz
##illas
abril
visita
pablo
prec
##imas
bonita
bend
pho
army
siii
aga
cub
chor
evitar
largo
life
aut
impues
seguidores
listo
funda
bron
mentira
automa
marcha
##lix
plaza
segura
giratorios
mata
##itor
##yn
desespera
banco
cat
lol
##torio
##uerzo
##talla
##lia
ot
subir
inver
fla
##damos
##amen
estra
tengan
cuestion
fondo
vote
repro
expresion
##nt
miles
##ley
##itario
comunic
jesus
##pol
##acao
cansada
ste
asegu
##val
##tiembre
pus
clima
##dente
##ate
temprano
critic
##quiera
robo
cuantos
ador
inicio
##roso
termine
civil
aplic
pasan
arro
marzo
estudian
silencio
version
prensa
despe
pruebas
disponible
##ave
##olas
repe
orgullo
rela
patria
cach
aband
feder
##sen
colegio
orgullos
animo
estudio
##olos
hacemos
compartir
reir
##taje
extre
debate
termina
##orme
compro
decia
##itaria
basura
uru
way
##quin
##ation
concha
defensa
junio
##iantina
too
independ
terra
post
dieron
eter
padres
inco
hipo
##ieran
reti
siente
nuevas
sel
##cada
stan
vista
trabajando
ultimos
condicion
rin
deseo
tiro
diferencia
flash
mercado
barrio
##sel
horrible
netf
war
presu
why
experiencia
duro
##enda
rat
mater
ofre
air
##ibilidad
costa
##ters
fans
90
arbol
naranja
pedro
historias
netflix
buscando
empieza
fab
millon
bad
##trando
despier
iden
cuentas
mode
septiembre
home
digital
jajaja
santia
##tres
really
first
tuvo
exa
torn
felices
podia
esse
vou
republica
dudas
arreg
refor
muero
been
ciudadanos
campo
adver
exito
desarrollo
##isas
mueca
minimo
puerto
##ect
never
presente
##monio
estuv
ud
##cap
##ilio
insul
poquito
popular
##wer
oye
curso
again
cuesta
leo
dav
jud
##eco
##sual
genial
hero
recordar
animal
corte
##ses
##jun
##vent
##ex
dejan
pob
baby
##mx
finde
500
lec
##came
insta
##mis
##tria
ultimas
##isis
cola
80
week
##ical
puso
mesa
europe
perfecto
tb
##iciones
trabajadores
dices
sim
vayan
##ws
##till
selec
clara
cualquiera
significa
reb
querido
goles
29
narco
##inda
puro
defini
pido
ingles
ana
continu
##lamacion
ellas
engan
voce
uruguay
##rero
##tora
garan
neta
##nas
##ense
##bi
hablan
##hs
##queo
cargo
##puestas
##tem
santiago
bienven
whatsa
##terior
##uido
salen
##ergia
calles
let
mascarilla
epo
cn
sirve
dul
##san
##leza
rock
admin
lea
enfada
encar
llena
##grafia
lamenta
realiz
pago
diver
choc
felicita
universidad
##cida
barca
muito
jajajajaja
constru
ligeramente
would
gustan
rodri
miguel
legal
nove
trib
perdi
after
siquiera
##gs
llen
31
opcion
comentarios
depen
calla
modo
lastima
discul
docu
pendejo
##ienda
deberian
##hol
solic
hojas
estuvo
oposicion
nomb
sar
capaz
rub
dirig
causa
##cura
ministro
##tilla
alli
incluso
diciembre
disco
dom
genero
carajo
##bit
##ky
##ze
##lec
admi
suce
proceso
whatsapp
##ding
mitad
bella
##ku
puse
sigan
pis
nin
metro
imagin
pregunto
convo
nacion
recur
eta
recha
ded
##tive
regimen
desesperada
eeuu
viento
60
necesitamos
agosto
##hi
##get
##pu
accion
##lin
##ianos
television
necesario
escribir
raro
tol
equipos
resultados
##tiz
declara
crea
crimin
##enci
##fon
##arias
##itch
mmm
##erio
##pre
##aso
besos
##entra
##alla
servicios
puerta
won
norte
muchisimo
##entando
##ela
pd
2017
alim
##uros
girl
exclamacion
villa
kcame
caer
espacio
bio
##jaj
ando
cuidar
gh
##xt
kcamexico
unf
central
##ded
honor
anoche
sou
##int
tac
##uca
trabaja
##tear
error
saco
estup
cata
piensa
caliente
ger
alco
victi
cuida
ech
entrada
multi
ate
amena
##ardo
familias
##hhh
sr
tig
##tm
especi
descub
denuncia
link
free
tab
##ello
##jes
representa
sha
playa
##bes
simplemente
conozco
sam
vienen
pesar
andar
##iosa
dano
cancer
siga
tho
##gle
##porte
apenas
maravillos
##ily
cordo
conte
humanos
siguiente
pagina
gr
##cera
45
escuchando
cagar
pm
##teria
mete
votos
suenos
think
##tian
propio
imb
vecinos
##jeron
##ways
##ᅡᆼ
tour
nam
alberto
argu
grogui
ph
dign
proxima
corriendo
colision
aleman
recla
vidas
anton
distancia
spe
pesos
lleno
mul
##bil
liv
ello
##encial
orig
online
arco
quem
ingres
stop
somb
sonrisa
revolucion
carcel
sangre
##ᅳᆫ
urgente
diferente
##tida
quisiera
essa
catal
cero
read
35
cuento
amista
salga
abierta
neu
##tions
##trado
frus
institu
suena
dialo
premio
els
pode
temas
wan
##cidos
##uno
dm
estadio
concierto
##gados
##sea
cuidado
estudiantes
viola
indus
tae
##voz
##od
huel
##itacion
mc
sexual
##ood
compl
asus
memoria
##ying
##erado
dura
japon
crees
stu
debemos
##ards
rica
huevo
jung
cone
chico
apun
##blo
esperanza
look
estaban
tom
carn
estara
into
##onas
##ania
##isla
verte
##ᅵᆫ
ideas
sem
##ecido
examen
consecu
champions
prueba
vomit
riesgo
capitulo
##ecio
enero
feste
##titud
empren
evid
miss
pobl
resultado
mantener
tantos
enfadada
ansiedad
panama
lograr
suspen
##onia
especta
fracas
triun
inte
quieras
alegria
##istemo
mencion
completo
vomitando
yes
latiendo
##dir
ras
interesante
moral
joda
tudo
avis
automatic
advertencia
tengas
right
##rones
same
contrario
seran
varias
##cular
paja
perdido
periodista
atle
##brero
pidiendo
##ney
muerto
venezolanos
imagina
celebra
preten
piz
energia
presion
prefi
vox
##resa
huevos
form
medica
diferentes
recibir
lic
elector
compe
saque
cantidad
km
fasc
##gri
provo
pobres
tia
##mision
comprom
70
still
gay
escucha
cuarto
administra
dibu
roman
propia
##fff
publicar
gobier
escon
dele
sevilla
cambia
humano
suficiente
##by
finan
cereb
hdp
##sjs
heart
ela
adul
##tara
febrero
negocio
tex
unfollow
besando
##vi
valencia
base
estres
##iversario
necesidad
encuen
dolares
hable
wow
##lio
ada
anto
##igu
bla
##teros
##ites
vamo
mega
sue
news
use
cc
juegos
##gi
lamentable
desta
##bia
director
aur
esco
garcia
alar
leche
americ
psic
alex
joh
epoca
confianza
gonz
companeros
tendria
partici
integ
##uncio
relo
alcalde
asis
imbeci
pocos
##cara
acciones
tapada
##uesta
nerv
nen
envid
sm
ces
entiende
crack
compren
dedos
##pira
parque
##olina
impresion
sala
perm
##quina
preguntas
verlo
esfuerzo
always
lon
bara
emerg
aniversario
pura
down
profesion
reto
##read
absoluta
tatu
flores
lee
articulo
##pla
vota
entrega
descon
derro
jorge
##alda
##uliantina
##orar
tirar
perfecta
brind
italia
years
minuto
prefiero
impuestos
defin
saca
comision
##inho
##pia
watch
organiz
##ᅧᆫ
##tador
were
##truir
viste
##zado
decepcionada
##dific
##quita
prefer
##vas
##rs
vea
market
episo
vig
recursos
alcohol
arbit
had
tira
papas
edicion
peliculas
detalles
salida
##tracion
wal
##12
##eas
alter
region
tl
##wa
existen
tuyo
frase
vender
franc
medico
jav
zo
poblacion
##unda
caca
##mada
acus
resid
deporte
##itales
nes
cumplir
altavoz
titular
bue
desay
parar
##gota
quizas
denunci
cinco
##uto
##gular
monton
loo
cerrar
tremendo
fron
toque
##mba
##vis
empleo
mtvlaf
chicas
bille
last
periodistas
propon
enfermedad
nem
proces
alum
##ey
vuelvo
##iese
bbmas
##ices
imagino
efec
dijeron
cerebro
retw
##ort
##pec
porta
lear
##ordin
apoyar
terrible
nause
estorn
hubo
##ral
burl
grave
##dk
echar
##oc
detras
ile
impac
##tiene
humil
##rantes
desgra
cro
ame
meta
dictadura
series
##ifa
pinta
muestra
great
coche
##ᅳᆯ
agui
torneo
rece
jimin
asu
prima
reunion
full
visit
quando
bomba
union
marco
##mpa
ray
sing
malas
decis
##timos
rafa
take
caus
##tita
birth
##cter
##iri
enfr
##fac
##endario
incon
piso
##viv
google
festiv
siesta
##sur
pudo
carino
romper
barb
pros
gl
regis
medicos
acabar
##ges
##gara
end
##kook
cancha
pend
nauseas
agora
grupos
jefe
juz
##ful
##ls
tas
hogar
ari
famos
rol
miser
conseguir
##abu
mm
olvidar
inic
photo
##unas
comunicacion
##xo
tecnologia
ejerc
objetivo
educa
##tui
##jue
diego
figu
harry
inu
##fans
chocola
mario
cent
##icid
tomando
abuela
##tana
cordoba
entera
mostrando
simbolos
ala
bri
resta
feria
ambos
luch
teniendo
##cy
pelotudo
estilo
##icular
##imp
encuentra
responsabilidad
ul
bib
defien
night
work
##oro
##mpre
##2018
##xi
redon
thanks
bailar
llevan
reloj
##olver
##pare
##mac
##cam
isla
asesin
obras
tomo
borra
tocar
esten
estupi
sun
participar
vil
##pro
dormi
interesa
abrir
bogota
##dian
##soe
reina
hagas
reme
fru
senci
llegan
mejorar
placer
adop
paj
imagenes
##ane
desas
diputa
influ
fernandez
bolsa
uri
embar
emergencia
dre
resop
pers
gracia
joa
pio
suma
##tillo
comentario
municipal
brindando
##self
dipu
sexo
going
hy
titulo
tarta
##urs
resoplando
santo
300
madru
disfruta
resca
gir
alej
faltan
pegar
solidar
being
##rica
rele
##11
##guez
omg
pc
##uera
consejo
responder
mirando
hones
does
##ush
camis
city
explotando
escucho
teclas
paga
tweets
afec
##tus
##media
##cao
reaccion
tendra
destru
bill
neg
##rita
lou
incl
birthday
recomenda
##idera
primeros
help
victimas
estornud
taller
bebida
provincia
clasico
bolivia
evento
aquel
##icana
mayores
conoci
rab
##han
proteccion
empezo
calendario
##jus
##ess
olvido
##lon
dam
##its
tam
animales
saludando
aparte
antonio
gotas
dolar
porq
peso
##tias
canta
terraqueo
univer
also
got7
##eratura
corruptos
##tidos
##dedor
bronca
mensajes
respecto
diria
##cados
enorme
noviembre
compromiso
##bon
ciencia
##fin
psoe
##tea
inclu
microfono
mediana
##mentar
##igan
god
under
salvar
##elas
##mamente
36
deus
ub
veh
acuer
##ecia
modelo
condiciones
##50
##ni
##tividad
confer
chiste
perros
##land
perez
sorry
debo
necesitan
bano
##tales
gala
cita
##daron
robar
most
presentacion
repar
##iii
coin
##rue
crear
carta
investigacion
preciosa
paraguay
definitivamente
mx
##sura
joy
pierde
compre
2016
33
mina
inno
oscar
##fica
vib
##dias
##didos
##duccion
##tamiento
well
##tique
##form
##pes
##40
personaje
consider
funciona
##cl
cocina
##tural
cago
camiseta
##tagon
ninguno
##col
llamado
sand
ilusion
hs
##ife
could
enhor
infan
cs
felicitaciones
sien
acto
afuera
chocolate
informe
posicion
planeta
cuantas
belleza
##quero
nose
hoje
maximo
should
negra
jungkook
hiciste
##iero
##ciar
cabron
cuales
##has
##dora
clave
vul
dignidad
resulta
pude
##iados
guay
sincer
##aragua
run
master
volvio
vean
carne
guste
femen
##dis
menor
##abuena
forta
actividades
quieran
comienza
responsable
teatro
recon
##ork
selector
peron
09
coca
miren
audio
htt
uribe
lei
##iler
kee
##tumb
esca
fol
alf
##acha
bolivar
corto
literalmente
camion
casas
compania
molesta
entro
mentiras
salvador
cdmx
lloro
bajar
these
direccion
ninas
pizza
##chi
##arez
francia
aliviada
verdadero
rodriguez
ao
estornudando
guaido
shit
saludo
complic
##rlo
electoral
##test
critica
##abil
checked
favorito
mons
##iris
fase
##eda
vuelva
osea
friends
ingen
##ture
hacerme
enhorabuena
open
continua
vues
hablamos
##tario
hara
volun
moto
gam
##ella
##bs
bang
mato
acci
sempre
##hahahaha
festival
tome
exitos
llam
posta
virtual
habria
##ditos
vid
automatically
sc
acon
facul
supuesto
##eccion
principal
cantar
cristi
escol
murio
##30
boo
abus
drama
ahhh
roja
##cero
noso
aprob
salgo
04
andalu
##ates
##trol
##teca
toy
digas
better
global
amen
##ciendo
##18
made
##jado
fandom
http
debes
daniel
ridiculo
##forma
hp
aparece
quita
manuel
##ym
atre
##ple
afic
##teando
part
llegado
david
dorm
vice
unidad
##uma
arru
##amientos
tratar
completa
latino
encontre
desarrol
acco
cerez
carre
autoridades
une
interior
aborto
piden
fic
abierto
199
viven
chavez
capacidad
vosotros
entero
tristeza
ali
##cales
tik
estuve
talento
irme
##ww
comiendo
cham
puedan
##gel
cancel
explicar
##iere
morena
learn
impul
desgracia
perdio
##aram
arm
##ipe
consulta
fazer
impres
elegir
explica
reflexion
tip
sube
ocas
little
sorteo
intentar
acaso
area
conce
inscri
importantes
francisco
##let
avion
indig
parecer
vengo
municipio
##istina
tarje
iglesia
proyectos
publicos
marketing
principio
ine
##segu
ocul
exclus
poniendo
##lea
meme
institucion
pongan
politicas
vengan
euros
economica
##duce
locura
mila
senores
##pres
visual
fich
lados
followed
perman
mtvlapare
##ped
hid
jajajajajaja
abri
criminal
mesmo
##ah
discu
caga
uds
estes
##anda
##log
##js
gobernador
##jin
afir
intento
ambiente
mates
muere
gane
2015
arcoiris
##iss
##ux
sois
##itando
##inha
##minacion
pies
manip
##idade
reno
##cad
horario
##quil
juvent
sad
regreso
analisis
tranquilo
estable
##vie
ola
hermanos
acerca
injus
botel
terri
song
diputados
##ibil
jajajaj
afecta
kid
tel
amazon
##tify
parla
chal
profe
transporte
independiente
##jajaj
said
correspon
judic
sopor
caracter
awards
##red
##cita
##dera
fuerzas
reforma
necesitas
ram
call
wait
candidato
##ics
##esa
##puta
##undo
pela
hotel
##aldo
laboral
pierdas
interven
clo
dulce
league
valle
fres
corta
favorita
correr
##ivos
inversion
positivo
high
culp
beau
productos
decirle
##ava
##rida
bom
victor
sao
ye
espalda
depende
levantar
md
celebrar
segundos
amistad
cabello
gig
dialogo
conden
pasion
aero
care
santos
2021
familiares
hope
qual
busque
##om
responde
abandon
piensan
dyn
##ipol
movimiento
turismo
ore
coj
uni
trae
very
invito
fc
fake
lagri
adios
incen
rusia
anuncia
logra
cantando
##the
party
##ham
sis
tranquila
lugares
brin
levante
##undir
##ieras
hand
entradas
actitud
fernando
dire
agus
original
defens
ahorita
promocion
alv
ira
vende
espanoles
infin
##tiles
tercera
##oos
periodismo
encer
##dela
##jando
sosten
gos
moda
cambios
motivo
##mel
##logia
##andro
##24
quitar
altura
rue
##tz
tecnico
cif
miemb
##fav
##mera
mana
##jis
enviar
delincuentes
##onos
##cun
estrate
ques
sueldo
asamb
cabal
aficion
haria
asocia
##capac
discurso
meto
tod
pensaba
apo
contacto
asun
ataque
##dimiento
other
auricular
vehic
##rea
autono
hablas
petro
pega
preguntar
##iles
protagon
cie
##cin
mez
then
hechos
jal
redonda
##wu
dame
gasolina
##ciales
neutral
tox
ego
recibiendo
coun
##tim
hugo
idiota
teneis
toco
ganado
##erno
bienes
dynam
colores
desastre
##hos
sesion
##rer
sitio
cristina
firma
alerta
bem
alemania
tenian
mim
##izada
where
volu
sober
tarea
importancia
ruta
conduc
errores
ori
profesionales
relig
voltaje
jer
solidaridad
cant
next
trebol
logro
homen
gordo
descono
imbecil
helado
plas
fort
medalla
extrana
frustracion
recuerdos
##rique
hot
valent
##ierte
elig
mami
progres
indi
##dios
##ns
ace
rombo
tardes
lav
keep
absolutamente
propos
solamente
wtf
llaman
princes
moder
trabajos
caracas
artista
spotify
poca
tercer
anterior
companero
destino
##rimonio
nega
agenda
estacion
mv
bun
##gala
aguante
argentino
gustado
##스
paciencia
colabor
represent
espiri
categ
abre
magn
malos
mexicanos
##itud
pelota
maestro
nicolas
pref
maldita
guardia
medida
##chu
concep
pobreza
juntas
##cle
antic
##duras
sepa
fiestas
##ct
planes
ministerio
formacion
##uuu
dema
##yos
justific
madres
compara
##mmer
portu
produccion
ainda
numeros
perdida
depar
carro
policias
cayo
rit
##sed
yan
ultimamente
desin
siglo
porfa
1000
##cla
rata
##ged
joaquin
estrategia
ene
##ajajajajajajajaj
mareo
jejeje
louis
ejecu
practic
##enario
dejado
hey
voces
dynamite
pibe
bay
embara
##uales
##bin
rode
opera
55
energ
decisiones
##jj
correcto
querida
##tto
record
acostumb
##tieron
probable
aquellos
peligro
ejercicio
##back
##ween
##row
##aas
bendiciones
venezolano
##erva
viajar
resis
##izando
maldito
stay
99
##ilos
##13
cruzados
impun
##ivid
perten
cac
ji
story
larga
olimp
##illos
pass
genera
##abon
alvar
partida
coger
libertadores
fuiste
sei
mostra
andres
##tiful
##aras
confusion
participa
agradecer
periodico
economico
alguno
inso
sorpresa
##lico
declar
##ents
profesor
pleno
merecen
escuche
mostrar
subs
tell
##uelos
##mestre
realizar
aven
cambie
actividad
deix
materia
dal
##hah
inau
fucking
pequena
cerezo
restau
things
##ezco
privado
privile
cultural
##istica
iglesias
universo
ponga
##avera
wil
inoc
corrupto
empat
bello
inaugu
dedic
llamo
nicaragua
leyendo
01
cuel
edific
volumen
pec
dona
##chada
rend
##소
falso
escribe
tao
yendo
##alez
pocas
##jito
perra
##cesto
retweet
aires
valores
power
uy
cristo
falto
##onato
aro
##yen
llo
##zca
acabe
formas
piedra
aviso
delito
##mio
##pal
##22
sobr
grab
pata
evolucion
doctor
##ficial
generacion
claramente
cobar
##respons
decre
esperaba
gloria
reyes
gim
deman
##ever
##als
presos
pacientes
funcionarios
set
##iamos
diz
devuel
##ute
pedazo
##uelas
despertar
repetir
##chan
##lip
crimen
##ving
##nd
queso
##iene
envia
espanola
mexicano
hoja
construccion
##uciones
individ
dime
billete
batalla
amooo
federal
asesino
culia
quero
tonto
etique
renuncia
beautiful
dejaron
bit
cobrar
##etas
conciencia
hern
jardin
##vacion
08
##esion
prevencion
yu
habit
##kaka
##rosa
##vera
interpre
prohibido
kim
ofen
permite
##phone
proteger
adiv
crush
finales
##jero
memes
separa
junta
##ence
entendi
fiel
baile
sali
ri
##pir
casual
nosotras
junior
ear
tuya
mues
dream
consejos
give
convoca
ak
habian
cierre
propuesta
material
adelan
##tizar
##tillas
martinez
playing
facultad
##uria
ganan
visitar
duque
sabias
account
##ivas
##har
participacion
obvia
cartel
indign
baloncesto
aceptar
32
viviendo
verla
##pop
irre
supongo
cle
cabo
##lace
##gt
##mica
jugo
fea
##try
enamorada
tenho
two
coming
##ilable
revis
tremenda
##ticion
##ingos
andan
irrespons
chau
buscan
rosario
##tifica
hit
diez
pones
jin
division
once
seguramente
lucas
punta
anuncio
hubiese
iban
##ija
superar
##itat
podrian
insu
06
gonzalez
disney
vieron
aprende
juicio
humanidad
##riendo
cerdo
masaje
05
##pat
esque
motiv
##ross
juez
gall
calavera
##km
costo
##gin
presencia
comparto
hayan
##led
##itado
tradicion
igualdad
hier
ponerme
jack
john
uu
chat
yoong
suda
##tric
aumento
##17
goool
##onica
##anza
##teras
suelo
king
personajes
echo
mirada
negocios
##vailable
planta
arena
dad
traid
##anto
sensacion
acordar
fisica
leido
##iche
##bert
##jera
retro
pot
acceso
inteligencia
embargo
ki
##dal
respuestas
bern
dato
##puer
etapa
gue
##gios
emilio
blog
ng
caj
proto
mande
melhor
puente
salido
salvo
muertes
##icano
##digo
pedido
##lesc
##uco
insegu
clin
gorda
militares
iran
registra
saliendo
pantalla
##cus
##melo
peores
rechazo
##vemos
contenido
caro
alterna
old
ty
days
##zamos
assim
superior
pico
##gol
cerro
##quez
imaginate
oferta
dejamos
pecho
pudiera
##bos
manifesta
##ilia
fm
box
though
dejando
expon
envidia
moreno
preso
ft
estare
aja
ilegal
conferencia
agradece
frances
olvide
calma
imper
198
##favor
franco
##isimas
pensamiento
alimentos
divers
bloqueo
proce
##ets
infantil
py
inteligente
clos
asamblea
contrato
reproducir
ejercito
arras
manifes
ey
long
javier
conversacion
##fore
puebla
oportunidades
supre
dd
##yyy
##ath
adolesc
##mez
yoongi
departa
ii
##torno
##arnos
##cs
usando
##iten
conjun
historico
seis
vivimos
resumen
##taciones
diaz
##ling
miro
traer
rompe
homenaje
colon
##orio
piern
cm
taehy
nena
cadena
libres
legisla
arch
armas
jarras
charla
34
##ness
##cast
coinci
##dre
zapa
someone
hard
stra
caja
encontra
trato
plena
giv
invierno
##izan
traicion
guatem
gracios
veia
something
pendejos
pasen
podido
propa
podra
mismas
tienda
melo
nuevamente
fb
uwu
comparte
##igar
deuda
escribiendo
##16
everyone
##less
probar
compa
comunista
nieve
rui
alumnos
support
mari
fuente
##abel
pasaron
##14
defend
diputado
ufff
aver
confin
sentimientos
##tible
##zi
pollo
diseno
entregar
aprue
monte
harta
##atorio
cuch
judicial
##fl
conoces
recomiendo
##eto
##este
quedado
##kers
##dieron
enrique
pate
tera
iniciativa
esposa
07
indepen
ku
trian
##itarios
bicic
catalan
##bilidad
gabri
alm
claud
abrazos
espac
duermo
veremos
asquer
ocup
contrib
cool
##arra
espectacular
##000
deportivo
##gulo
##dades
sua
cena
hate
amas
##gus
##mn
razones
##15
pagan
pija
##lez
consig
gym
cojones
temperatura
##iber
guitar
many
debido
eleccion
##mentacion
##acionales
pasada
ignorancia
ascen
asomb
before
##ald
brutal
odia
lideres
publicidad
saluda
importan
loren
intereses
##다
plus
##rey
impresionante
mg
obten
magia
virgen
##lados
guad
detec
quito
exten
tigre
maltra
sn
irse
##mmm
pendeja
##queta
2014
estaremos
partes
llamada
pour
bul
pelotuda
dejes
adentro
prime
ceja
bolas
obviamente
tratando
##quete
##abas
oficina
ole
concurso
encuesta
aeropuer
presentar
estima
##ken
transpar
##ᅮᆫ
peli
02
parecen
intens
guapo
fanat
id
kir
##ieve
##fes
locos
eras
spa
##rimiento
nomin
sombrero
gover
##ast
##pr
salva
hagamos
exactamente
ideal
##ueva
03
cup
##xto
luchar
bolson
fracaso
fifa
entienden
viejos
juventud
##ather
##하
supera
preocupa
deter
nariz
callate
friend
tarjeta
sonar
sorprende
acorde
##니
coisa
##mite
aclar
acompana
taehyung
##bus
milan
perdiendo
face
humo
ranking
self
demostrar
petrol
comercial
##andal
alas
cura
tomas
daba
##jon
requi
triunfo
poll
episodio
house
inutil
industria
herram
##kan
##ax
##amento
primar
##rael
manga
vent
lanz
##ism
guapa
piernas
barbar
beat
marido
tib
organizacion
sergio
mae
experien
48
gilipol
38
season
rema
verdadera
enserio
bs
pibes
victima
inm
pego
descanso
transform
hacerse
miran
vacuna
##iden
bec
nal
##ball
##eres
broma
disfra
chino
habil
sana
pantal
velo
tendencia
mora
menores
cristiano
thing
seres
confirma
##taba
paris
consecuencias
##리
hospitales
##ights
barr
pasara
ue
ultra
lazo
damos
##tti
felipe
kill
quedarse
exacto
##tao
##bra
cf
vaina
ayyy
cute
tranquil
##ore
##enar
gimnas
maravilloso
pusieron
inep
bac
vuelven
prision
nan
embaj
ciclo
horror
poke
inmedia
##ght
latin
escena
mereces
##diga
##trib
expul
leyes
putas
vision
##hua
relaciones
calder
lagrimas
##에
estreno
lac
latinoamer
veras
mames
dinam
##olazo
anime
ocurre
cuadrado
pequenos
prioridad
##guem
##ezca
arroz
##irse
diablo
tos
recuperar
israel
acho
delicios
hd
ricos
semi
naturaleza
##urar
lindas
conocido
##abo
rever
vuelto
habeis
vayas
pendiente
own
coordin
##ments
lectura
bebes
##mao
##quilla
sebas
##stan
gratui
summer
completamente
comenta
37
remo
##gb
botella
dispos
cortes
compras
socio
crecer
##ulacion
asesina
arranca
orgullosa
sacan
tun
tmb
##ced
##alth
criticar
apoya
fox
levanto
contagios
pinera
st
##box
bran
##tage
##mej
fuertes
chris
aran
independencia
argentinos
delante
colum
sanidad
fotogra
artist
sinto
bravo
financi
aper
later
##ruz
##zy
acaban
pez
busco
urib
##mero
pidio
##crib
boludo
alarma
lesion
##mbra
white
listen
fues
conme
campeonato
olor
gonna
programas
ach
soon
line
abrazar
ms
##list
envio
##lacion
fumar
instituciones
ramos
artistas
podran
agradez
dt
##key
paul
rein
desaf
comunicado
protesta
gobiernos
transmision
wit
thats
accidente
darte
turno
gustar
aguanto
escrito
novela
fraude
##ason
empeza
humana
andalucia
efecto
japones
llora
##tier
caminar
iphone
quiza
practica
sere
ocho
carmen
rivera
pelea
diri
##ologico
everything
recuerden
##elos
hipocri
tara
##jud
ofrece
estudios
##rillo
##어
##ecemos
llegando
##tano
sone
discri
hijue
ato
cnco
recibe
reconocer
##ller
presupuesto
birra
destin
##25
trop
capitan
mtvlafandom
conec
single
publicas
comprome
adap
oso
##far
darme
arma
hacerle
torre
precis
podcast
lorenzo
satis
vz
guatemala
hun
##ition
lavar
cy
mean
alre
odi
calderon
##iam
put
mr
centros
vel
falsa
dispar
fantasma
urb
##lano
ny
sancion
##rle
investig
jsjsj
revista
informar
##pool
madrugada
solos
intencion
##mpe
aques
tok
head
james
tuviera
mision
tot
sinceramente
##jeros
jen
reino
##achos
cuanta
medicina
demuestra
uc
##ueve
manejo
gatos
producto
unido
ayun
fur
bols
podeis
vulner
##low
respetar
anunci
aure
ciudadano
zara
##iosos
fortale
tribun
##dena
suarez
president
##time
fisico
desn
usuarios
gomez
mentir
##elli
volvi
rival
aristemo
constante
bolsonaro
cabe
apos
brazos
decirte
vergon
castro
rd
patrio
permiso
sexy
test
those
dragon
icon
urge
reconocimiento
abuso
azu
lap
mendo
hambur
##ierto
##fan
voluntad
##tira
destro
##dell
lima
estupida
##titos
maravilla
heroes
str
sobreviv
orien
mix
conflic
supone
##riz
##gether
protoc
poten
fija
trabajador
bach
pueblos
estais
atro
hare
particular
galle
aho
actuar
atletico
mire
vete
pessoa
bc
extranar
dejas
bye
nub
eco
anci
hur
publicado
morning
##icidio
vecino
##ming
ment
despertador
artes
ox
consid
bendiga
colaboracion
##quitos
ivan
deportiva
incor
primo
correo
ganador
impunidad
sty
##vip
sufrir
pasos
agres
nefas
aprendi
privada
actor
policy
##asion
##xa
family
kids
puertas
hrs
##요
lindos
desea
##ami
ml
400
197
##andose
alejandro
pur
giras
colectivo
mt
apoyando
confun
dark
onu
empece
##guas
princesa
agarrar
##해
##culos
challen
bicicleta
austral
atender
regla
copas
sara
##med
permitir
##osos
mind
empresarios
jan
##lle
codigo
sco
##gadas
tempo
thro
adic
design
##izados
75
avance
bolude
pokemon
realiza
##timo
audiencia
##zing
zur
##cks
##ost
zor
##iros
bienestar
exist
##body
incomo
frases
letra
##puestos
##fc
nombres
##ene
construir
##istes
lidera
decian
invitamos
sospe
latina
dela
wanna
ora
##teles
mtvlaparejaj
desemp
escal
verac
propuestas
aeropuerto
asesinos
sacri
##juliantina
##deces
tenis
sch
iguales
##kin
agric
##dria
##ary
##tumbre
mtvlafandomjuliantina
llegara
foro
another
mtvlaparejajuliantina
guarda
actos
##ifico
veni
contestar
conocimiento
presidencia
##23
ritmo
jajajajajajaja
zu
carnav
temb
despierta
doing
guys
limon
domic
operacion
limpie
hear
dejame
secreto
usan
sii
administracion
difundir
tendremos
compor
responsables
mtvlafandomjuliantinafans
##oot
sede
##tructura
instal
emocional
llevamos
plataforma
sl
desayun
matema
rea
estando
aprox
registro
##jitos
##iness
comentar
class
pato
valen
tipos
##tit
##enten
fuimos
##mex
ode
date
alzada
bajon
43
women
carga
chupa
unfollowed
##dig
trafico
jugue
caminando
##tain
identific
ordenador
genio
sui
directamente
##gaste
breve
sabiendo
ambas
pap
york
existir
castel
luci
ciudadania
##yu
fire
refu
rafael
fem
lleve
##idente
data
nig
intervencion
이
aureola
maxima
geno
firme
seamos
previa
##indo
ready
papi
nba
gasto
##ance
caball
indic
remember
falla
enlace
constitucional
fit
esperemos
enfo
simil
desperte
grand
mini
infierno
renunci
chance
encanto
agradezco
pases
##ele
parecido
ly
quise
##of
##bio
raza
ficar
##bor
ganando
empezamos
intentando
primeras
absur
haha
suje
vueltas
##gr
##vs
since
which
ingreso
aa
##ifi
aguantar
camila
together
simon
izquier
##서
tech
hacerte
yea
pit
ignorante
break
confirmo
carr
youre
cria
##lie
siete
##iu
official
posibilidad
recom
presidencial
##toso
44
rabia
nube
conejo
dead
oax
africa
carita
alguem
##ders
39
##uestas
malaga
##mal
##kas
liver
eterno
mood
likes
cus
proposito
angus
pelu
semestre
ceno
pay
espiritu
mich
anima
comercio
##alho
secretaria
hen
jos
times
entrenador
natal
lujo
defiende
estupido
labios
##dara
abuelo
##jajajajaj
dj
gif
##graph
boa
tendre
group
suyo
tuits
fiscalia
pilo
##wh
inspi
mir
acces
find
young
deser
jode
monoculo
##chner
reve
cesar
##rup
masco
pinches
ss
pisto
check
##ramos
alqui
##ificar
abro
##hael
cortar
choice
sentimiento
imple
enfrentar
clientes
ann
enamorar
sencillo
regional
##cula
generar
fondos
comi
blue
march
conclus
ney
echa
aprovech
crecimiento
away
##ijo
##sjaj
pensado
gradu
##enti
adoro
##aman
precioso
maf
##chool
##vic
##date
alegra
lead
prove
##lique
trailer
honduras
##erra
hallo
vestido
alcaldes
dueno
##aya
##cina
chef
palacio
##eada
edificio
cato
tax
lot
marcel
ris
consumo
xddd
##metro
venia
mostrador
##mix
##mados
##hyun
paral
encuentran
espacios
ghvip
imaginar
##rie
impacto
categoria
curr
##mart
negocia
tikto
propiedad
health
conocen
##dade
apple
##ips
sof
mendoza
gastar
deportes
alianza
##capacidad
mover
ministra
lives
##enme
miembros
pelotudos
##queria
daria
sumar
pana
presento
##dro
##rilla
caida
origen
pasaba
##ou
temporar
##jiste
wish
excusa
muriendo
##cano
descubre
ladrones
letras
beneficio
kilo
fight
##mu
##arla
hamburgues
##udes
coo
hincha
bi
alegro
arqui
sigues
queriendo
paras
infra
caras
abogado
racing
ia
soul
trendy
##cres
wacho
imagine
argumentos
boluda
campeones
ayudas
credito
retras
competencia
retiro
arreglar
popul
deberias
motor
##고
eventos
parcial
andro
chup
necesitaba
liverpool
lets
chabon
##지
llegaron
ciudades
geor
rumbo
done
##orias
amazing
kirchner
guia
banca
true
enfren
tt
##cien
bienvenido
ricar
##olu
filoso
cover
evan
respeta
##ari
posted
empiezo
##tienen
while
enfermo
arrepen
baila
homo
gent
##ides
##cidad
47
sebastian
empi
depresion
muchisimas
month
miserable
##ector
mexicana
morales
##ved
anon
permit
##teriores
vaso
vencer
idolo
coco
convir
toman
ponerse
##ᅧᆼ
violates
respir
##vida
salario
evo
promes
avent
concer
cliente
wonder
forever
distrib
veracruz
change
vera
beber
tay
metas
ocasion
cocinar
inci
venden
humedad
intro
##amentos
##ificado
angeles
pls
##60
femenino
tq
nothing
mandan
negar
conviv
caen
aplica
##cing
sobra
##hout
opciones
secretario
despierto
##가
wall
intelec
desesper
##ord
concre
departamento
empleados
congres
##segui
perrito
igualmente
tomor
sonre
hahahahaha
sna
##iao
wel
vine
salgan
fos
internacionales
##는
juegan
ff
bui
bala
confiar
socialismo
clau
happen
temporarily
##bel
alba
actualizacion
##fit
puedas
##terra
bangtan
girasol
psicolo
##zgo
hib
estupidez
##ᅥᆫ
multip
name
miami
candidatos
##come
unavailable
debut
##lib
##gem
dara
inseguridad
nah
##ars
marip
##cela
maquina
estrateg
descen
fundacion
desen
sanitaria
##vias
entreten
ham
plazo
comunistas
drogas
##pio
nervios
teoria
enferm
rique
##ng
chur
commun
stic
fundamental
ps4
alien
ajus
dudo
fuese
sienten
evidente
tigres
tendran
quiso
portada
##bb
##caron
chic
yourself
limpiar
beneficios
cohe
columna
llore
hecha
colombiano
biblio
locales
estudiando
child
raul
gabriel
matan
feminista
estabamos
cuaderno
tomorrow
grito
dile
dijiste
##clo
##ᅦ이
industri
hahahaha
lady
interac
hinchas
cali
jueces
conserv
regresar
socor
fechas
getting
convocatoria
hernandez
queen
salieron
orgulloso
detalle
##quista
instituto
vuestra
feminismo
dri
hues
esquina
nene
roberto
sono
##uch
salon
##thers
sinver
##jita
tuvieron
barbara
arrep
hicimos
agarra
regalar
##gers
limite
titulos
sindic
##ali
torres
colombianos
duran
quedas
uber
##ibe
torta
cuentan
abiertas
sit
quedaron
marc
ponte
resolver
##abe
estaran
megafono
demues
##ᅡᆯ
porra
school
listos
salsa
presta
##tendo
quedarme
reales
fria
escuelas
ken
jon
trabajan
##tty
##dedores
mueve
triangulo
aer
despre
granada
ayuntamiento
desayuno
respira
psico
importar
##taste
2013
guitarra
viz
##sp
vendo
##kw
dieta
quemar
##taro
puestos
juven
##dero
##daria
comienzo
monter
convertir
mantiene
preguntan
perre
cere
##28
ganamos
putos
prom
confor
formar
mafia
caos
playlist
ayudan
profesores
##rieron
curios
rich
porfavor
met
frun
cuello
##tadores
zoo
##play
cierra
evalu
epi
gilipollas
##ollon
michael
nacionales
zonas
distri
roma
jub
pt
amores
yall
logo
difun
testi
cobra
##dados
chingo
autoridad
nacio
##xx
empatia
vzla
comes
monu
##ismos
contagio
continuar
alrededor
kind
cerrada
tirando
droga
halloween
##ksks
govern
pelotas
confinamiento
light
renta
matando
levanta
virtu
compartimos
telefon
##ote
contando
bici
##aan
aux
cagada
entrenar
encantaria
ruido
espejo
##26
adv
aisla
incendio
##poche
rendir
complicado
bomberos
figura
money
infancia
sure
park
apertura
##reno
desco
fotografia
comenzo
##estima
escenario
ocurr
distra
presidenta
qe
competi
differ
regular
through
hermosas
preparado
ventana
huellas
##alia
vacio
cun
##27
podras
sigamos
flu
believe
##ports
pieza
yaaa
comba
bitch
asp
lamentablemente
ricardo
opos
asal
##unya
limpieza
nice
seguido
sra
okay
pep
olvides
try
barra
paciente
mecan
ire
##udos
viajes
start
tetas
65
##yente
ask
amenaza
cumplen
sorte
metio
activa
cataluna
uh
duerme
150
ladron
raj
tratamiento
mentiroso
alu
borrar
integra
ddhh
expertos
tenias
spain
##joon
od
transito
talk
46
switch
soledad
castillo
inmun
preocupada
tern
comenzar
zap
aprovechar
explicacion
metros
enj
##trui
denunciar
cour
gritar
ball
49
##minis
place
salimos
texto
propios
actualidad
adultos
recic
mascarillas
##dellin
conjunto
challenge
culpable
europea
espn
enemigo
united
descri
sky
enferma
vuestro
##ologica
saquen
##acia
recuperacion
empezando
grafica
sientes
lil
##ientas
justin
##ree
arbitro
escuchado
##dras
eliminar
normalidad
ax
poe
empiezan
asegura
observ
empu
belg
socialista
##game
golazo
obrador
impon
alcanza
anad
##enciales
pastel
##vez
eas
asociacion
contexto
nintendo
lobo
conexion
crean
mark
probablemente
800
demais
##sk
##bla
explico
laura
quejar
costumbre
##trono
preparando
companera
mutual
faltar
declaraciones
mtvlaic
##iaron
##sor
cana
without
cacer
##aking
contamos
present
android
##gad
primaria
seguira
podre
excep
acum
##tifico
logica
determin
beis
plato
##아
##년
bienvenida
tonight
##inen
around
fueran
plo
congra
##eso
positivos
gustavo
##ajajaja
gracioso
portatil
bot
cog
aveces
decirlo
moment
##ely
ilu
financia
cross
chr
novo
pau
##tly
guardar
canada
thread
cientific
fijo
sanitario
sofia
medellin
bole
proud
##tades
pareci
portugal
##zu
domingos
streaming
vivienda
fing
unicos
demonio
방
escla
pina
divertido
ensa
concent
subio
von
##nie
american
traje
callar
monterrey
oaxaca
##시
##titas
hig
australia
##ei
soluciones
esla
bah
flip
premier
##deras
##citos
bob
academ
##dencias
depo
distinto
rie
llegada
##ın
escolar
comunismo
56
amanecer
sirven
eb
girls
dictador
circo
pese
meet
fico
aaaa
valiente
pir
sv
encantan
etern
adecu
sle
stal
##vado
neymar
##hot
country
poss
tecnica
##rama
periodo
canto
##ᅩᆼ
##29
##atoria
decreto
namjoon
cansado
arquitec
manz
silla
rebel
##etica
nel
ajena
farc
##gir
##enj
lun
cobarde
hablen
quejan
aburrido
triple
asombrada
pacto
ciudadana
narcotra
bonitas
motivos
horarios
colabora
vuelo
decidir
aguas
##onico
paseo
exposicion
merda
impro
suscri
dormido
##ating
##dh
seras
territorio
bombon
denun
parecia
concepto
pasas
##dran
artis
ratas
socorro
feat
altos
crista
miseria
2000
##alidad
pich
cred
senador
lata
##dl
rompio
flaco
caballo
demanda
metal
sectores
vicepres
##udas
sound
huele
afort
amamos
controlar
boys
unif
##fr
cambiado
delincuente
hubieran
colonia
600
afortun
tonta
mejora
elite
remix
asunto
inven
existencia
against
##dona
patrimonio
estuviera
llegamos
angustia
arries
amplia
macho
guan
defendiendo
queja
subo
pario
casualidad
core
##com
identidad
medias
ner
asustada
arrancar
fall
##kkk
##pers
yeah
##ezas
maj
##ota
hala
ende
asesinato
consigo
emi
sacrific
tempor
situaciones
famoso
decide
##tua
dance
##polit
##esia
##oradas
divid
diplo
ill
aplicacion
##traron
practicas
levantarme
hum
state
chap
limites
olvidado
semej
autoestima
habitacion
resistencia
hermosos
##ready
polem
cifras
dl
95
estou
##acas
orte
##fs
astu
cigar
disfrutando
confia
must
muerta
block
carnaval
editor
sigueme
jugada
principios
water
altas
##ritos
pira
adqui
regu
utilizar
pasamos
59
##로
##icanos
secu
comunidades
##madre
##tismo
empollon
fallecidos
sano
##dable
laburo
moon
##ned
documental
descansar
darse
kan
looks
fila
neur
estudiante
##osas
food
vaquero
leal
lp
artific
nace
rm
followers
instru
autent
##ison
eslabon
docente
derrota
contesta
already
ptm
maravillosa
##ils
emer
delitos
tomate
ida
terroristas
estabas
gigante
taylor
190
senado
2012
pack
vina
proximos
coher
finalmente
mp
llevas
beisbol
ramon
evidencia
scre
pista
museo
##pero
##eld
lau
innovacion
pelear
masac
send
##sung
##urales
##arca
bie
##ajja
##fu
tranquilidad
robaron
criticas
liqui
barrios
mascul
dominicana
late
quedamos
catalunya
enterate
##ius
##deo
cuidate
crei
##mpl
##boy
queb
sentencia
protestas
note
opiniones
invitar
##tte
ov
iv
##yeron
mtvlaicono
##rp
enem
tulip
destruir
status
aprend
descuento
tumb
sy
57
clubes
pelos
##istico
flamen
recomendaciones
constitu
comparti
ideologia
interro
principales
##aces
convierte
matter
tiktok
violen
##ibo
##wl
licencia
##dres
reserva
cb
examenes
pach
secon
pretty
ubic
##monia
##ats
vais
##temos
##cusion
##yon
tambem
incomp
academia
42
alcaldia
fallo
pn
querian
##cis
debajo
sales
##mbia
vela
traged
lucia
cerra
##tanas
noo
sentar
personalidad
movie
vdd
ambien
produ
servir
cohete
andas
nova
ofer
##80
velocidad
daily
##bamos
resuel
sema
##rol
tulipan
reca
가
quar
imaginan
argumento
publicacion
rut
##een
##ᅥᆼ
jubila
porno
berenj
ratito
peticion
necesaria
canse
imaginas
##usas
soltar
ship
lean
reporte
pagando
##gaba
recibio
regala
##탄
depri
emociones
docentes
corea
##andome
##100
sd
sucede
friday
especialmente
deseos
bancos
sentia
diosss
presun
influen
viral
rios
아
coleccion
latest
##tern
disen
falar
desapareci
fruncido
montana
agricul
##terias
##cacion
apreton
making
enamorado
investigar
##real
##ties
lanza
terminan
discip
##2017
fuji
tipico
depois
##iendas
##uem
menudo
confio
alo
tormenta
##board
sport
fantasia
looking
opinar
secues
gallina
toler
##hing
##cons
audios
precisamente
agente
join
casti
toxica
extraordin
asia
enjoy
##ganda
solar
##igual
mios
verme
captura
##ap
sienta
vem
##direc
male
pilas
brazo
parlament
azucar
##tena
##leypoche
conmemo
grado
asado
coma
prometo
##logo
##jadas
subiendo
cuarta
censura
transformacion
vidal
correa
intenta
empan
##yor
muchachos
##dom
caiga
cause
socios
aument
barato
##ladas
gla
mmmm
alvaro
tribunal
vehiculo
mariposa
preca
##isimos
bull
claudia
##sey
terminado
dog
venezolana
##calleypoche
mediante
decimos
ester
##sss
declaracion
manejar
norma
acce
##liga
ingresos
haran
marcos
##andonos
##pto
rick
hes
sabeis
naaa
parlante
oficiales
piensas
ensenar
terapia
ib
fines
gel
##final
entrenamiento
##reta
##ervar
방탄
stand
racismo
##주
extrema
actuacion
creacion
coach
cubre
pentag
excepcion
cated
tava
espec
activo
garantizar
veas
mod
left
inn
cruel
mtvlaiconocalleypoche
kilos
caido
aquella
fernet
wri
entidad
sepan
chavista
acomo
inca
pesad
paco
exterior
cona
aguila
primavera
stories
repente
luchando
insopor
##ectar
terrorismo
##caba
cambian
41
habitantes
sev
##의
geo
atacar
rip
flaca
armar
tacos
maraton
reconoce
##ulado
pasta
sonreir
distintos
invitacion
pedimos
##gnos
##mante
aconte
##cher
hello
enfermos
##down
miente
nossa
tragedia
hom
historica
pistola
produce
asistencia
games
minima
##arial
##todo
medicamentos
cumpli
pague
##nite
gp
sudamer
##rin
contemp
rc
limpia
rapida
gustas
santan
##단
aquello
latinoamerica
murcia
##decer
tortura
aparecio
gustos
54
inmen
suben
hijueputa
dientes
separ
parado
ayuso
makes
85
uns
depos
click
##verde
##enses
eduardo
tomen
gustaba
pregunte
volviendo
semb
podrias
combin
acoso
meus
borre
case
special
ortega
chiqui
gros
clan
##xual
compu
##doni
##dimos
##fra
berenjena
consigue
fama
##uo
pierdo
poesia
necesidades
smart
gata
jarra
cry
gobernar
maca
boda
naz
guerrero
debil
##torial
pension
obsesion
meloco
coraje
aprovecha
trip
paquete
nick
considera
nis
isa
##fos
##icon
volvemos
sensible
##uita
encontrado
cansa
milagro
expecta
patron
sentirme
notific
prev
vigil
jimen
cuchillo
maestra
eles
##carra
palos
##sal
feeling
concej
##tiza
sonando
criminales
save
regalos
exigir
##peda
marcelo
##mitas
58
evangel
whats
llamas
lineas
pensamientos
##lig
deberiamos
betis
estatal
mimos
llame
##nic
##wo
humilde
report
idiotas
maestros
sum
supero
##dea
fica
thin
##dada
ponerle
proj
agarro
mulher
manzana
pared
##inete
nico
sweet
##vide
merecemos
reserv
reh
juntar
perfectamente
receta
verdes
twitch
uff
negros
cantante
digno
##turo
rr
melocoton
george
##vada
##monos
dama
53
cursos
piola
organizado
yang
lengu
puesta
oigan
##asa
circun
bff
pollito
ventas
olimpia
amistades
##gador
cicl
comprob
ramo
distintas
avenida
##igos
agro
##hon
sonido
##uerzos
ip
actually
anteriores
delant
##ward
enfermedades
jurid
##enio
##dere
estimado
##bur
ky
votaron
maybe
deu
bea
kkkk
caigo
rueda
lesb
impar
lid
pastor
atropel
##ᅮᆨ
escuchas
ocurrio
universal
##ries
liberal
perfect
calif
comand
ines
##트
meten
falsos
tuvimos
##eton
aguanta
jugado
aseguro
alber
##quill
favoritos
wea
##imientos
llevando
dou
marta
termo
violacion
alcanzar
roban
carretera
##ational
muuu
hablemos
crema
carabin
confirmado
biden
hierba
##소년
neol
##rich
gris
casado
revolo
favorite
##jam
##zados
##istir
ze
bunny
io
acepto
buenisimo
desac
fidel
religion
suic
##eran
radical
says
molt
moch
guadal
diagnos
##rez
sic
curioso
dels
roy
manu
##pping
sie
disculpa
##enomen
fuentes
referencia
##wor
apell
atentos
##fobia
acuerdan
edo
sacaron
bancar
tiran
##소년단
servid
lmao
에
requis
future
##itarias
##gaz
otor
karma
ctm
encab
pepe
mau
vehiculos
golp
##aros
##rla
semejante
reda
cagando
1er
sense
tach
damn
protec
##pink
mapa
squ
perspec
lxs
##ao
recibido
dibujo
pensiones
tengamos
lento
niveles
dificiles
falsas
cargar
trying
4t
noc
cientos
movilidad
olviden
hair
petroleo
revoloteando
cagan
secun
maur
teniamos
##gran
cristal
donald
promedio
##goza
##leo
seguiremos
farmac
sleep
preocupar
jiji
##rosos
kat
방탄소년단
transparencia
point
##triz
galicia
parada
pendientes
exhib
contento
iniciar
individual
peligroso
atien
##mus
tomado
chavismo
dirigentes
metido
glor
leyenda
conflicto
##camb
##rity
tucu
##itores
enamora
mister
woman
festejar
hibisco
escand
osorio
verlos
hostia
##ors
perjud
huelga
disculpas
quan
devolver
oms
capitulos
tapa
ema
especiales
both
coop
octa
gargan
plante
gn
##fir
pentagrama
lava
juliantina
vacun
mierdas
barco
descargar
##orro
##cies
jogo
crece
prete
delic
india
chill
transfor
efectos
paulo
extranaba
such
##cadillo
busqueda
##raron
incons
salta
ful
ajaja
sentirse
snap
##enca
##elia
parejas
profunda
fala
##rarse
gota
ninguem
regresa
##mann
chich
##racan
barran
##damente
gonzalo
robado
capaces
joe
activos
##jajaja
dc
indis
escribo
##ize
##cend
condena
##iter
mtvlafando
eva
##arro
debio
66
rutina
lanzamiento
californ
isabel
##oya
dani
empa
smi
preciso
green
##lab
##tren
##bete
respirar
jugamos
##tadora
proteg
lora
welcome
bende
grafico
##gam
manches
detes
fijate
cable
gole
##istar
##mito
detenido
distrito
relaj
tortu
consum
frontera
zapatos
labora
##cat
municipios
impuesto
realizo
actualmente
traidor
ejecutivo
##atra
hj
chiquito
feb
llevaba
aporte
##icidad
tag
duenos
cai
confirmar
requiere
recupera
wars
quinta
manifestacion
supermer
bn
patio
evita
quere
siguiendo
solicitud
beh
during
domicilio
ascenso
grados
table
lara
bondoni
diana
demon
discapacidad
saldra
entere
##ingo
book
sangu
hablame
veter
eyes
##ecucion
creia
ina
huracan
decirme
queridos
##graphy
matrimonio
rodrigo
talleres
whole
integral
tqm
exci
act
comite
reach
pierden
ako
esperas
vere
zoom
heroe
share
etica
objetivos
autos
mueren
rostro
196
manan
queden
ofrecer
policial
consen
sj
##grado
guy
contesto
metodo
formula
##icen
comeback
nct
solicita
reason
villar
experiencias
anything
entao
##ᅡᆷ
##ult
seok
sav
dil
fritas
hiper
##uk
tromp
marvel
lenguaje
semafor
##tula
ronda
admiro
##gest
abogados
ronaldo
luv
wifi
quedando
bienvenidos
vivido
##mita
##guar
caes
##wing
acha
until
woo
unfollowers
##camara
oce
coisas
vezes
sismo
atleti
##cr
##세
pegue
exter
acar
##ieren
shar
brown
comunicar
adivinen
autobus
##adre
##piro
garganta
piba
photos
rose
veran
ayude
depend
practicamente
having
lgb
rara
vizcarra
manija
64
##ectados
##laterra
prevenir
independent
update
##adi
fora
explique
film
##rill
ingenier
perdona
involu
##ione
volar
##tencias
lang
priva
podamos
chinos
##win
personales
##usos
cansan
burla
eee
retra
ive
abandono
mortal
seccion
pales
bell
machista
llenar
discusion
##tuvo
fenomen
gratuita
tela
tontos
##pora
quedara
vimos
jajajajajaj
acre
##ensa
canarias
##fal
taxi
herramientas
obtener
aplicar
cargos
inglaterra
##ben
explos
event
escudo
difusion
entran
barba
hell
combate
chilenos
lost
tamano
##ferencia
vein
gras
##tificado
apellido
##viendo
faltaba
posibles
facu
conviene
joya
rompiendo
quereis
novedades
merezco
##kak
entorno
besitos
ash
uf
ahh
correcta
ataques
dificul
avanza
jackson
sacado
perfor
travel
dismin
boletos
demostrado
pai
combatir
muera
##nia
nostal
represion
decada
antigu
bono
merida
indo
vuelvan
til
weon
dedicar
frank
desaparecer
aler
sintomas
divina
santander
##acate
##rigada
oficialmente
bayern
mica
vaca
cobran
amis
aislamiento
mori
##into
scar
##ajara
##eth
dun
##ining
indigenas
apuesta
eramos
##ficientes
##onga
inclui
liderazgo
##vir
jour
roll
mai
##90
llueve
law
terrorista
jornadas
psi
##lador
juvenil
enojo
jk
##tade
chel
entendido
##kis
inmig
sed
dies
coch
paraiso
tire
ambiental
denuncias
reciente
queee
pereza
enough
xbox
cuadro
aula
capo
##jeje
move
uk
salto
camaras
estao
##uesto
gun
inex
##atar
dormida
california
videocamara
avec
bendicion
hamburguesa
ponemos
aprendiz
espectaculo
##dible
biz
minas
lateral
thought
representantes
malditos
##ust
permanente
sla
##acan
기
zomb
camisa
rincon
mass
fatal
diste
risas
myself
masa
monstru
fortnite
##워
##xe
pino
##70
empate
mauricio
sufre
bonitos
##more
exige
sanciones
embarazada
recomp
elab
##itz
aburrida
ofrec
##ribles
##almente
patri
directiva
jalisco
oido
kk
celebracion
buy
##ules
##gones
chivas
##cked
ecuator
chingada
soporto
prio
metan
profundo
rojas
weather
pilar
pronos
tkm
##arlos
legiti
kara
troll
incu
land
vcs
ciertas
abuelos
##army
f1
##기
cartas
##lina
ordenes
seen
hacian
cooper
main
discutir
##hora
propone
pudieron
##ons
seguros
frag
##top
propaganda
penas
52
##dentes
##quillo
##inosa
##eok
mk
escandalo
propor
ambul
##adamente
romero
cientificos
eg
incend
rollo
infec
zaragoza
anyone
bocadillo
panza
##dn
perdieron
karol
##casa
##ists
gastos
oct
expor
maraca
##selo
hueco
recordamos
##izamos
avisa
##lying
chale
relevan
rei
##tela
asist
carreras
andre
different
defienden
luck
blackpink
lana
similar
apoyan
galax
choco
history
million
toro
pongas
bobo
abuel
##mmy
atta
repud
iii
pinto
creyendo
##ume
##asta
reducir
##ormales
ht
realizado
revisar
novios
dy
justificar
tareas
job
refiero
enamore
##ched
aprobar
huer
##atas
progreso
legend
jajajajajajajaja
patro
alan
ea
##hip
bring
tips
random
pintarse
##oney
international
subi
contribu
dedica
merito
aber
escribi
proximas
##live
corri
detener
wn
gimnasio
almo
cenar
51
temporadas
vous
comandante
##izon
universidades
##gor
gritos
apete
influencer
##hop
protocolo
descubrir
florida
riendo
##tisimo
78
##tire
favoritas
critico
rocio
microb
reglas
plane
guz
tratan
princi
grabar
##vana
infel
##rong
hipocrita
danos
##atura
##nya
frecu
rene
corresponde
mediocre
suya
consol
cade
restaurante
hip
margar
pain
capitalismo
mito
humildad
##mico
marcas
xx
hours
interrogacion
paginas
vargas
cumpliendo
inocente
jaime
marcar
estudia
generos
##entina
revel
canales
dans
diosito
match
##gl
suba
conclusion
caralho
2010
muchacho
##adoras
guadalajara
informo
lie
alternativa
llegas
##gencias
varon
desear
loz
##alos
feministas
ternura
diaria
noctur
europeo
incluye
fren
##olla
##ieres
atar
optim
alfon
velez
panico
convertido
criterio
adn
gi
gold
golden
hayas
custo
visitas
63
preocupes
##ᅡᄅ
pib
##tez
nacer
felicito
amado
police
quite
sueldos
pesimo
secundaria
##uidad
##quera
pdte
secuestra
cronica
organizar
vital
body
##hal
asign
firmar
parecio
memb
himno
equivoca
wrong
venido
jur
saying
x2
hoc
inutiles
##ᅢᆼ
acel
hipocres
rain
key
democratico
##uos
120
avanzar
vit
intelectual
disponibles
98
##fthe
reen
inflacion
decadas
side
electrico
heav
flechas
traigo
guaya
##wan
llevado
chupar
##uz
foot
volunt
##idor
causas
vill
mame
voten
patas
vita
tick
serian
hijas
organizaciones
##cc
amoo
afp
adorno
misa
oidos
antojo
##sjaja
business
chia
tic
manifies
alvarez
adolescentes
ilumin
portero
guiller
colegios
agustin
kca
complice
borracho
andaba
##iela
urban
##도
manden
ciru
nacho
alon
german
ausencia
##cala
maneras
emprendimiento
death
clinica
recorda
definicion
ampl
88
tapar
anillo
hil
als
aparecer
invento
asqueroso
atlan
literatura
chaval
obligacion
##dica
recons
transmi
##orra
caribe
68
understan
forget
limita
kpop
carabineros
clip
comprando
canso
gastrono
##bd
kon
cartag
techo
##xd
ayudo
##jen
mamita
watching
migra
repost
bases
maquill
plazas
pedia
intensa
jong
vicente
##inado
baje
rural
insoportable
vivos
contras
vandal
pique
nave
##ners
mareada
restric
escribio
##iara
nou
tinha
vivi
preparar
arres
##mago
actores
##ᅩᆫ
encuestas
votacion
baek
toxico
hipocresia
##redo
yet
##ます
potter
bolsillo
penales
acepta
paran
regga
comprarme
donar
mand
alcance
##rina
politi
##oli
dandole
burro
eff
racha
thrones
trajo
normas
factura
aumentar
##cimientos
##doras
##pado
unir
responsabil
mtvlapareja
salia
contratos
foda
representante
millonarios
dejemos
tope
##chon
csm
estuvieron
basicamente
borde
bona
##cilia
descarga
guion
##reros
robert
aparecen
vibra
idioma
sonora
##ppe
celebramos
colocar
cres
wi
bicho
each
concentracion
reemp
shawn
repito
700
especie
##arquia
##isiones
yg
vendiendo
dira
map
municipales
##tanos
efectivo
diputada
som
##eer
cubanos
##cind
##rona
##yd
pere
##vita
invitados
directora
enseno
darles
juzgar
rescate
span
bateria
##fk
pala
ganaron
##ot
minim
sufriendo
dulces
nutr
critican
ice
valio
piedras
mtvlafandomar
posibil
2011
ave
jim
imbeciles
caballero
resen
beco
esposo
intercamb
tendras
whis
##inge
##erias
##siones
desigual
batal
##chado
oir
flow
libra
valverde
cadiz
duel
sopa
estad
sufrimiento
##tics
provoca
ventaja
miembro
jj
coopera
descubri
conciertos
##ians
modific
llave
llamando
working
aku
##telo
cule
##core
seokjin
meji
bestia
##gano
community
equilib
##elle
herrera
chinga
tendencias
ahorrar
vives
diosa
oy
jodido
mutuals
ocasiones
tabla
indirec
bruno
caric
diferencias
adopcion
logrado
chara
homos
psg
compartiendo
hablaba
##laron
buscamos
conseguido
insulto
satisfac
chir
aixo
maneja
limpio
vacunas
pasaj
##nis
lui
naci
##unid
claves
##anes
eterna
##pciones
elementos
manual
extin
##zaron
insomn
fascista
decidi
##tta
gues
vege
quitan
sierra
ariana
pica
jefa
sobran
excusas
cercan
##bao
##ution
estre
electrica
ima
biblioteca
programacion
usurp
##게
##ticamente
sombra
irresponsable
pequenas
##olvida
apunta
##aar
logros
##ient
pcas
##36
precisa
areas
valora
ignorantes
##tha
literally
##irez
cuadra
##movil
eurovision
##tidas
##url
principe
moneda
estrena
inscrib
guayaquil
arranco
##ations
##didas
talent
persegui
enemigos
zul
decente
##gros
imperio
##algo
bis
complejo
##rista
##sin
propias
erra
aha
gallo
arsen
fiscales
combus
reciben
forro
##tc
chen
premi
sorpres
tropical
perpe
miel
supues
cierta
disfruten
laburar
breaking
americano
##irlo
cacas
##ajajajaja
silva
##aristemo
cober
##titudes
destruccion
##insta
escor
mtvlafandomaristemo
chay
ensena
descansa
maltrato
entrando
##lid
##lac
inventa
deseando
##chera
terreno
cis
certe
didnt
ais
kor
extranjero
namo
##mentales
agr
hpta
respec
delantero
gaga
ruben
mtvlaparejaaristemo
ruiz
77
weee
pelis
national
inmor
infraes
##ught
bolsas
volvera
chistes
dude
trabajamos
iria
rojos
lluvias
##tig
jodas
fie
mola
##cadas
shows
eri
creciendo
##hion
roba
marina
facha
##sy
ramirez
unidades
nieto
cambiemos
lenta
materias
desor
maradona
creemos
##ksk
preparados
mtvlafandomaristemofans
##iliar
##gante
grita
decidido
paren
porc
##zen
cepeda
subsid
trin
nerviosa
procesos
short
anun
potencia
merce
fia
guillermo
inneces
copia
alquiler
##47
todxs
plano
marchas
wach
amarilla
69
paula
direction
##times
word
saga
teen
##ridos
universitario
tasa
marx
narra
deliver
needs
ensal
n1
kay
##osco
mandando
conto
humanitaria
disposicion
cague
ath
used
##zquez
merecido
falando
##ience
preguntando
performan
suen
supuestamente
##field
complices
pendejadas
##zcan
barde
alcaldesa
##df
xxi
cuerpos
smile
tla
extremo
##linson
##andra
dimision
viejas
level
operativo
helico
industrial
funciones
intensidad
directa
vip
spoiler
##ently
vienes
descara
97
climatico
comparacion
##rene
barras
hoseok
meteor
sencilla
votando
bik
fiz
milit
ministros
tenerte
67
monica
colectivos
aliment
traen
afirma
equip
desayunar
pray
invis
aumenta
polla
homosex
miranda
perfeccion
ibas
##aal
documento
##guito
robando
ofertas
campos
pretende
##udar
sanitarios
inclusion
found
molestar
sabian
##cidas
mananas
wee
##ajajaj
batman
buscas
pav
##ulada
onde
potencial
##wood
lamento
luc
campes
##tone
harto
mom
efe
##ring
racista
##iberal
estadounid
filosofia
perfe
gian
space
julian
puras
escab
pezunas
##riles
cue
vontade
laborales
##hum
creado
cest
tomlinson
amable
weekend
ooo
entrego
diganme
nueve
instalaciones
narcos
intim
sujeto
chido
publique
south
equipara
##tial
legado
peronismo
poster
intendente
road
##ette
elige
##ging
aventura
##garse
else
maquillaje
suele
verdades
ridicula
odiar
##dies
kiss
concur
73
noite
finally
low
reempla
deri
estemos
castigo
solidario
##guera
pera
##cht
analizar
rif
delicia
desafio
sabados
bosque
96
vengas
presentamos
felix
awww
conversaciones
##rt
gosto
thinking
estafa
emprendedores
##bis
empo
diran
agencia
microbio
comprado
guap
huev
soo
delicioso
mtvhot
detenidos
##oz
trauma
seguidos
innov
empezaron
crimenes
arboles
trampa
colegas
hablado
plis
subn
consc
proporcion
continue
kit
revol
opina
lentes
simples
caba
2do
##hun
fallecio
ofens
reclamar
posibilidades
##ornio
empleos
aceite
##zadas
preocupacion
duelo
queretaro
sas
plastico
##tista
west
##arol
##ster
street
andrea
didn
sorprender
chiquita
pilla
gallar
hela
defensor
rug
acuerda
meo
nacido
enganar
close
extranjeros
pierdan
chingon
abr
profesora
mamas
equivocado
agentes
amanha
##나
unidas
urgencia
##tisima
##ladolid
voice
soft
conocemos
##ih
sinton
recorrido
nefasto
jimenez
listas
desv
venti
basico
ciego
paguen
quimica
##ianas
estomago
claqueta
room
##diales
omar
##coin
pure
ds
##tch
##cloud
lio
hector
alimentacion
verdaderos
miras
jean
amenazas
ic
creditos
rayo
temo
cifra
chileno
drop
educativa
parce
carpe
mtvhottest
abas
susten
alonso
preparada
decime
corn
##visa
duela
impo
relato
define
##tein
melilla
actriz
order
zar
piro
##etin
##ees
dedicado
decirles
ez
mamen
juju
valorar
simpson
fro
##ritas
scen
gabinete
empiece
polvo
peace
parlamento
00h
aprendiendo
##pin
aprecia
86
absurdo
vecina
sepas
socialistas
modern
##tuito
##fis
elo
##izas
presentes
transicion
biblia
mataron
arrepiento
cambiando
asesor
mezcla
speak
predic
style
##2016
tuiter
estupe
##45
unete
wu
pila
##queros
##ities
descor
##uitos
daddy
conh
sports
repri
desh
##iko
encontro
herramienta
desinf
pierna
penso
noel
tucuman
diarios
intenso
editorial
anno
estupefac
conn
encier
oran
suces
etiqueta
rs
pinas
circ
##letas
parro
polo
leave
democratica
porqueria
maldad
##rrr
considero
gem
veamos
inolvida
discriminacion
sexta
fus
balance
crazy
agregar
inac
##ormes
##vamos
arquero
protagonista
desblo
origin
seguire
cucu
250
##fj
graves
cruzar
pasear
##일
plantel
##rre
otgala
filtro
xdd
sisi
polemica
##frien
##arle
aval
mogol
narcotrafico
juarez
magistra
##sao
institucional
##izaciones
##pt
cano
varia
tn
piensen
tiros
##nal
londres
digamos
##hada
##fias
##ford
##sula
poderes
##38
insomnio
desse
fide
golpes
sys
natalia
reirme
despedida
views
##set
justamente
horizon
reiv
##erada
##48
##metros
boludeces
##ping
##tazo
patetico
lanzar
ganadores
bajos
##tine
pene
pandem
aline
jr
elegido
pierda
celu
navid
important
wha
suc
##directo
barbi
cristian
##sja
##tierrez
creas
experto
tristes
gio
skin
engor
##우
##ament
##ivamente
living
pick
hielo
seguis
jak
metiendo
talking
##した
##tizacion
medina
76
duelen
neoliberal
esqui
presidentes
delincuencia
chucha
earth
cuna
murci
fasti
plantas
dejara
reuniones
cloud
aclara
usd
sarcas
unic
convirtio
ricas
naturales
##ades
second
recortable
mantenimiento
increibles
abe
juegue
tocado
mercados
rajoy
ls
capric
recordando
flex
195
reproduccion
arsenal
plantilla
comenzamos
quedaba
vias
traidores
alienig
##entimiento
demand
zid
gratuito
valenci
proxim
dare
pqp
mail
##ird
alone
penarol
carl
abusos
acorda
peleando
##gela
olha
vergonzos
iron
cance
austria
##pidos
yas
intente
##ship
confes
gila
##อง
nudes
##pata
chavistas
brindar
stats
chao
digna
estupideces
christ
ota
jubilados
suave
2009
##abamos
semin
##ierta
matias
enojada
sobretodo
piense
##pazo
shot
incorpor
describ
porro
peter
subido
89
tecnicos
tocando
muse
##즈
decidio
impresenta
miserables
comparar
gur
conozca
##eng
copo
seguia
between
retos
siguientes
satur
might
consciente
cuide
partidazo
##rd
wear
aprendido
sobrevivir
##trans
mascotas
deseamos
goals
pij
gobierna
postura
invitado
llevaron
negativo
paloma
##hit
serp
presa
sostenible
faltas
##을
dispara
marihu
##ican
##formas
inscripcion
corrupta
##ieta
fib
mias
helicop
inspira
##licado
cuadros
sufri
infar
podriamos
positiva
aquest
bloquear
##oni
adu
colega
fronteras
raton
enchu
jajas
senorita
motivacion
sistemas
rou
vocal
words
##got
articulos
fede
tc
지
salarios
valladolid
##culacion
manchester
##pita
passa
disfrute
kas
pf
cuiden
mercedes
procura
##sia
##dr
bronce
dolio
tiendas
fortaleza
##ser
cancun
panel
impotencia
desma
jesu
##icao
cayendo
##ited
quedes
ino
tatuaje
productivo
deep
tierno
armys
##icidios
cose
##berg
palmera
deal
jura
agradecido
zidane
##lish
##anted
biggest
afron
aportar
##호
iva
87
lasti
dolores
equiparacion
efectivamente
sentado
lay
##inan
votado
empe
doesn
brother
teas
hermanas
##tarlo
arce
famosa
protege
riqueza
72
indica
##tarios
##pc
semaforo
encontramos
deport
##cieron
manipula
postu
soberania
saludable
yours
shin
fabrica
##lay
##wards
fiebre
absoluto
93
cuartos
incluido
certeza
pascu
reivind
afectados
##tant
center
riesgos
paredes
valentin
vial
baekhyun
reggaeton
quema
leccion
fez
hpa
oreja
votantes
billboard
gutierrez
ater
piscina
tesis
cobro
justa
##pul
capacitacion
spider
seo
inventar
##pso
dormirme
recol
rayados
few
rubio
instante
invertir
wpp
passar
mariano
alegre
exag
vuelos
plataformas
basica
##chito
safe
mateo
anual
exigimos
lagun
nucle
renunciar
orejas
serlo
lleguen
expo
adulto
avui
##ises
##diste
##tober
reviv
##too
##mbro
pymes
rindo
oiga
migrantes
occi
verdade
##tou
suman
ileg
efic
cruce
fine
pand
digitales
supe
perdiste
issu
revisa
tray
mandarina
nacimiento
84
respect
ceuta
llamadas
##99
##fort
dejaste
tranquilos
fascismo
vasco
ayuden
dure
lleven
recre
portugues
querias
disim
almuerzo
perspectiva
acabado
hinchada
##view
##nan
economicos
office
aprendizaje
respondio
carolina
fact
mandaron
contenta
pito
##gentina
pulmon
instruc
##aton
provincial
episode
tecnolog
catolica
cv
privados
##vandose
##landia
automaticamente
vd
tirado
requisitos
atrac
pantalones
logico
##riga
noble
modelos
privilegio
##븐
declaro
heridos
##sado
pesadilla
##ᅢᆨ
oficinas
explotar
pagamos
deno
cartagena
priori
niega
presentan
##guis
ibamos
leve
remon
##turb
lord
tron
jubil
desarrollar
tots
past
volta
volvieron
hables
lali
contamin
incendios
##pito
desf
##guenzas
concepcion
##tation
seg
cou
cobertura
fashion
mandas
cositas
oi
continuidad
track
felicitar
chelsea
tocan
falte
among
recuerdan
##gram
aburro
##pid
compos
##nel
94
xfa
promesas
bale
##yol
jodan
panda
entendio
reverencia
##여
promover
##grada
##mido
llenos
spi
lealtad
agricultura
##cendente
##uty
##oran
camina
##ᅡᆨ
previo
aaah
rodilla
cau
##cir
asumir
##py
despres
bandas
hueva
campanas
caminos
##quet
petar
pida
##iral
convencer
alejar
guzman
implica
actua
eus
llevara
prepa
impe
anuncios
##izadas
reactiv
tercero
construc
fortuna
tuyos
blancos
conecta
##iores
##yar
alienigena
kevin
hipocritas
japan
presentado
suspend
palmas
##carse
rig
permita
franqu
##chat
smo
suger
##deros
##acu
tole
darnos
curiosidad
##matica
##clas
ejemplar
uuu
performance
acuerdos
##ticias
saw
remin
ups
pensas
repara
imprescind
golf
palma
fortalecer
castilla
오
justice
##adera
vuestros
mona
votan
bajas
toros
list
trabal
went
##kit
##entre
portal
cuidados
cubrebo
vence
seca
muestran
ocurrido
hacienda
madril
idol
ciencias
##wi
escuchen
##icol
aplausos
mochila
gripe
sucio
estabilidad
psicologia
flamengo
##remo
##donos
magico
##gob
understand
##mble
##lim
gav
nalgas
dear
dob
discrimin
kam
remera
volve
perdidas
dejate
cfk
retirar
rn
##cracia
three
mutu
nostalgia
teach
diversidad
others
##mous
siguenos
pensamos
descorchada
reten
estructura
moro
inscripciones
muneco
oriente
profund
oo
##tp
vicepresidente
bloqueado
futbolista
wanted
fat
##은
##thon
##ied
mera
comerciales
colaborar
panor
estupefacta
garra
rebo
dicha
asegurar
##진
using
inocentes
ahorro
giro
ponia
acompanar
quilo
sincero
matematicas
sentimos
informes
alfredo
patada
descal
implic
##mobil
2da
agarre
asistir
##etti
selena
empresario
jae
beyon
gallardo
ruedas
##uilla
firmas
conductor
reporta
islas
pintar
##hue
funcionario
terminamos
pedirle
suelta
denuncian
##gy
##yoff
sair
##cana
lago
##35
infeliz
##madura
raja
vato
##ecera
##trales
tension
poronga
bitcoin
##riam
goes
imponer
waiting
aqu
penalti
merid
sinverguenza
yanke
mamon
cercano
basket
empezado
##mato
cache
respaldo
convenio
estaf
enojar
arranque
teclado
washing
significado
orgullosos
##37
temazo
bendito
solucionar
##db
fazendo
sufren
##bron
pecado
suiza
albert
llover
jajja
energy
levantarse
odebre
saludar
fly
##tely
vag
explicaciones
estrategias
culpables
sonrie
outro
muro
celos
rien
⠀⠀
tomamos
tapabo
abiertos
conting
sunday
despedir
bots
##itivo
tbm
haremos
adopta
insultar
psicologo
##video
armando
representacion
##edores
agresion
concert
##icto
2008
marica
cosita
massa
estupidos
temporal
civiles
revela
tribu
monitor
contagiados
casar
lavado
rest
supl
costado
integrantes
dinamica
dosis
mascaras
announ
manifestantes
favs
sitios
lisa
resolucion
bote
##plic
tierras
eche
maya
vergonzoso
xo
##ilar
menuda
galeria
pagado
oz
cierran
##juegos
lgbt
generaciones
certific
tibur
atual
habran
escuchan
##cent
2006
esfor
solas
half
jajajajajajajajajajaj
##idores
productores
stalke
seee
vestir
##isticas
tonterias
stickers
femenina
##torsion
pijama
clap
dessa
comprender
blin
escas
meterse
cabra
apetece
habido
spanish
stri
pade
embajador
vivan
wants
esq
odian
plays
model
vagos
banderas
ficha
gat
valer
horosco
mamar
economicas
chama
boludos
doesnt
uniforme
refiere
infinito
admira
tea
##drome
mine
hidalgo
usen
stars
firmo
valido
pesado
pregunten
exclusiva
battle
despla
essas
nome
arturo
tendrian
taco
##kar
divul
volcan
came
toledo
tenerlo
desbloque
##madas
##chita
axel
comunica
protestar
padr
##recia
circunstan
atardecer
##iadas
##tosa
seus
pute
perver
##tuario
conocia
bin
lupa
pibas
cheque
##iras
debia
oq
belen
escritor
##gna
##vol
hidro
rubia
##dum
boxeo
espere
metropolit
dn
acompanado
##민
cumpla
roo
simpat
santi
tou
obligatorio
##ingue
movimientos
anticip
tony
acceder
obliga
frenar
vistas
##lite
seremos
molesto
football
cubrebocas
agradecida
aspir
patrocin
movistar
##laje
strong
74
reproduc
##ditas
valga
monto
realizan
##hero
sia
chac
reclamo
hui
dedico
tradicional
told
barto
porcenta
easy
givea
irregular
spot
pintor
deve
piloto
pumas
choque
fallas
curvandose
balcon
consecuencia
convivencia
carden
retor
antigua
##ologo
misterio
roca
vega
##ift
cut
gara
venganza
aclarar
parab
dois
merecia
sobrino
comic
##chet
##mall
polar
escapar
entiendes
federacion
##vido
pareces
truco
explota
augus
infraestructura
sant
actitudes
pedidos
llenas
called
estadis
smith
##dumbre
necesitar
fruta
vernos
estren
small
##보
##iario
agradecemos
meti
materiales
chip
factor
crossing
utiliza
morra
parezco
supremo
##드
##ater
generales
advers
trago
ini
vr
egres
interno
italiano
pantalon
inepto
aparta
##edor
funny
project
coches
chon
pertenece
uribista
gremio
rota
influencia
pedazos
podian
##vieron
protocolos
##uig
manifestaciones
danilo
viviendas
##vd
itunes
stray
playas
##tones
insultos
seguirme
credibilidad
intoler
comido
urbano
##anado
stran
doler
equivoco
tak
##ule
##itaron
phone
jodiendo
loves
##esse
pronuncia
##ladores
porten
oscars
repite
##hen
latam
bode
##ᅳᆷ
cod
pior
jordan
encuentras
oxig
henry
refres
parezca
operaciones
referente
renov
victorias
nesse
children
inauguracion
tarda
blas
suspension
coal
action
##love
cajas
condo
pj
##alapa
cebol
casita
mba
dispuesto
congratula
corriente
tp
nubes
hiciera
24h
eje
paraguas
##ivia
confirmados
xeno
vara
kn
##vere
pagos
whisky
obama
leas
privilegios
chisme
bilbao
trasla
number
televis
verse
echando
monday
convic
four
##uren
build
deserve
horno
laugh
embarazo
manager
washington
consigu
aficionados
excepto
gets
trio
##ᆸ니
sonrisas
invad
silue
hetero
cientifico
##logico
fascistas
ligas
tone
seguimiento
fua
우
infer
coup
transpor
platos
simul
##girl
venis
##tibles
turn
quil
maso
##tinas
psiquia
##sjsjs
bellas
seguiran
##cones
mandato
llueva
sushi
kic
hacernos
##isme
tumba
andamos
##utista
famosos
estuvimos
sorpresas
contund
expectativas
temor
entiendan
crio
ucl
ain
fresa
avengers
##aves
energias
kal
fichaje
menu
epidem
##igue
adara
##trab
dais
reciclaje
selfie
arregla
electronico
tauro
compon
180
salas
sumo
educativo
creatividad
##heiro
volveremos
vulnerables
discre
ciber
apruebo
##truido
clasificacion
sospechos
question
##39
##cian
started
gringos
suga
##들
belgrano
esconder
ns
duo
infectados
mamada
empanadas
espiral
##dremos
##rara
caz
capa
sindical
videojuegos
construyendo
alfonso
llamen
susana
vistazo
valientes
crying
##usly
recomendacion
volando
##garme
esencia
suicidio
veneno
sexuales
hubies
usado
cristobal
store
quejas
pintura
diab
circunstancias
comportamiento
saberlo
seco
##entemente
meren
answer
contradic
representan
less
formato
opositores
invitan
nobel
carbon
entienda
ts
##friend
##icor
goal
bank
responden
locas
magic
qualquer
margarita
##etico
temblor
perrita
irl
electricidad
explor
otono
amplio
##doro
##tell
cancelar
##cate
jama
ferro
cante
##uit
guess
candidata
##mitar
##한
parto
aprueba
almor
interna
rts
hua
ficcion
viu
anato
pse
##대
##ilers
descenso
divino
ysi
defic
songs
claras
##amar
conquis
##terios
nutricion
asturias
solidaria
ocupa
behind
marihuana
violador
relax
##sable
shado
virtuales
caf
##rana
marin
gg
comis
eat
##rupcion
paleta
comento
##chis
clausura
serios
repos
##ᆨ소
##ierten
##ished
athle
stage
neuronas
soldados
leones
vao
perritos
borro
carton
allen
##eciendo
inqui
##tn
farm
nomina
##mill
vicio
ciertos
publicaciones
trap
##mple
nike
participo
##plan
alturas
despo
combo
trolo
platic
##ased
fli
nazi
colombiana
olla
##dental
producir
twice
##quel
laboratorio
mascota
alic
mamo
enfrenta
##hat
antiguo
##ᅡ이
elena
terminos
bombilla
##most
arquitectura
mensa
votamos
##met
recuerdas
sacas
cubano
birras
##itis
##unds
rena
conquista
recoger
documentos
pouco
admiracion
salidas
expresar
compas
injusto
ocultar
##militar
cuidando
chairos
loteria
lamb
900
##usias
english
##edas
irene
pidan
engano
##jk
puros
fenomeno
mike
enfrente
charlas
sometimes
elef
yuca
##gona
lm
##mporada
##ilas
collec
sauda
##won
supo
tama
recar
##llas
exista
##mani
lc
entrevistas
cron
pink
##isos
##quei
##oras
curva
almac
atacan
reply
fuga
antena
develo
susto
kno
superviv
puig
rompen
detesto
##astro
velas
##pho
pix
##ures
esencial
tenerife
moi
hold
inteligentes
##anal
violenta
##gat
garantia
##ᆸ니다
beach
##iduria
jugara
bbb
ignacio
donacion
dedi
marchar
comuna
##jajajaja
brasile
teaser
cuentos
ree
revie
locu
cansancio
##quetas
buenisima
pesa
robot
outfit
sentidos
anec
fair
esfuerzos
ae
tequi
kil
seja
tatuajes
lula
certo
pesada
jordi
distan
retui
nfl
cumplio
eli
##raste
tarjetas
jac
abrio
escra
cima
panam
player
##suales
violadores
abren
inevita
##tent
problem
poeta
retorno
perdonar
despertarme
##gate
chocol
roger
yer
btsarmy
inicial
##uato
bondi
##iba
lees
comedia
##tors
palomitas
interesantes
contaminacion
braz
idk
fabric
andate
discus
ove
multa
navarro
victim
role
vazquez
##tables
cuenca
suficientes
opinan
viaja
vuela
sacrificio
##raft
##polis
anecdo
##oooo
sintiendo
hands
camin
sai
sindrome
##zara
rinde
exigen
milagros
cumplido
styles
aspectos
trama
##cab
bich
taking
jamon
tentaciones
atodos
##ım
dispu
quiten
##ety
eme
geta
machismo
colmo
##comun
release
asesinado
reele
##tei
##izacao
foco
videolla
reportaje
ascendente
electorales
homem
vuelvas
##tofthe
ler
miriam
xa
otdirecto
larreta
britan
##yeol
comigo
sabiduria
arbitros
ganadora
tm
hazlo
gib
uv
messa
wsp
rumo
##tuales
depres
guantes
79
windo
cagon
##hope
##ache
quinto
juve
llan
bate
tbt
adelanto
sugar
parabens
fmi
piece
hogares
voting
prefieren
##asco
ayudando
taaan
boliche
solicitar
vago
deixa
clic
titulares
ensu
jabon
contagiar
##uevo
males
kg
eusk
##die
vamp
outra
almost
nessa
copy
cne
encierro
##fob
##enciar
defensores
yung
redac
ingenieria
##deria
clear
desperto
melan
pride
companeras
nervioso
placa
obsta
##ilan
unicamente
bahia
running
##mentado
bieber
apprecia
gorra
##dit
mother
julia
justifica
benito
sill
##fm
gatito
devo
coincido
prefiere
kh
poderoso
enoja
##els
##cierto
##rote
##ajas
lev
respondo
##mela
##piracion
giveaway
##turales
##ology
personalmente
jugaba
ordin
detiene
domes
apres
##matico
rugby
remedio
##tures
##zones
richard
##where
td
persecucion
caduca
##현
espon
incluyendo
indef
estupen
vesti
denle
camilo
hombro
serpiente
porto
carnet
opon
least
chofer
zero
1st
diversion
contactos
encantado
six
ernes
coracao
naciones
soportar
hahahahahahaha
desigualdad
##ably
false
espar
##46
ataca
emocionada
fanaticos
##chen
##yeon
aporta
sul
##gancia
##andia
##new
competir
dru
hubieras
gracies
adoptar
camas
nadal
bullying
inspiracion
sucia
barata
mallor
miso
sendo
imperial
guadalu
##qj
##cic
ensalada
marquez
artificial
odebrecht
peronista
delivery
precaucion
avo
adolescente
squad
cabrones
gigantes
maiz
ventan
tribuna
##otas
df
semifinal
##hes
83
##mania
4ta
kun
##mig
plen
coordinacion
millonario
floyd
ducha
guev
niego
heridas
jsjs
oeste
soc
insol
##asure
##ooor
oscuridad
nobody
veinte
agradable
ejercicios
christmas
monstruo
rusa
##adero
comio
##cess
ocupar
sigas
premia
virgo
vivas
perfume
terremo
culero
ricky
yooo
reportan
guita
##cesion
celeste
teu
ensayo
permiten
zamo
reality
torne
##jeras
aba
recibo
asuntos
patricia
talla
invite
retur
age
zulia
zapatillas
diabe
##ech
apagar
titan
discur
corpor
senadores
aff
negras
sientas
ajeno
rendimiento
promesa
privadas
recetas
armado
mostro
##itada
unan
pergun
sate
hr
empresarial
ohhh
wol
##trico
vente
intent
samsung
aragon
prender
##iria
paola
antio
honesto
nigeria
funcionar
##lfo
catalanes
malv
cumplo
ingresa
tachira
horoscopo
fallar
zel
nga
panorama
bai
apocal
zay
medicinas
##kg
coti
maior
participantes
took
matematica
suspender
lose
olvidate
prioridades
gosta
clandes
amix
nono
cobardes
quintana
artistofthe
shock
universe
reparto
dioses
fix
##ctr
tooo
necesitando
siglos
contratar
anar
christian
yt
guardo
##wich
92
pose
##guer
cremall
rav
##nar
demasiada
bias
##demo
##tinho
stud
formal
gimnasia
ehhh
desperd
actuales
2x
autop
cabeca
necesarias
reit
acabas
##his
clasicos
nestor
pasaria
stupid
lgt
voluntarios
monumental
##irle
adulta
##torias
esteban
populismo
rosas
##guita
##onde
opino
podremos
inunda
barranquilla
besar
##uza
masiva
bares
murciela
escandal
cremallera
##cade
chanyeol
sag
aprobado
quo
relaja
comodo
preocupado
absolute
apasion
jajajajajajajajaja
holly
##amanca
seminario
lyric
detencion
denuncio
estadisticas
##truccion
animos
premium
preparacion
82
federico
criticando
##yl
fresco
masacre
xav
falo
casco
candidatura
liberacion
secretos
picture
constituyente
supp
##anca
insumos
tapabocas
goleador
sobres
hahah
espiritual
podem
camioneta
ingresar
recomienda
vendido
populares
mienten
supi
##itorio
##utacion
김
reclama
daran
proximamente
weeks
inspec
30h
desempleo
alle
suprema
##tice
tvn
aquellas
terminando
resulto
plac
finanzas
email
chiapas
dejarlo
marcado
엑소
bless
toluca
abc
trau
##sions
##ᅮᆯ
##bers
montero
##bro
alfaro
##finales
lecciones
disfruto
tios
satelite
agrada
carros
redu
promete
papeles
##tente
dejare
escenas
##mbe
##ints
mentales
##chando
prosper
platica
festejo
clasific
msj
sobrina
infinita
pajaro
force
3d
##igado
chilena
##bc
escriben
hous
##tuoso
##ixa
exager
levantando
##gp
berlin
##adita
gin
##irio
91
habitual
##well
concejal
inmediato
chamu
madera
js
##idar
piano
government
contingencia
##arena
cancela
restaurantes
avisar
##unch
mud
kin
belo
aprendan
ensenan
mou
cagado
dizer
residencia
##itaciones
neo
pfff
atentado
##meo
##pus
##trada
injusticia
plu
mango
unam
imaginacion
cia
desorden
estarian
weathercloud
conocimientos
seem
condenado
invent
##jillo
mencionar
##undan
mocion
sabido
brillo
agradecimiento
mandame
##hab
##tines
lion
luce
ejemplos
inolvidable
available
perque
##trio
irres
cientifica
vertic
embajada
code
boe
violento
curs
giving
##iment
catastro
excited
manzan
cuenten
caidas
##oon
protagonistas
becas
##diola
vacia
volante
consultas
rights
marti
azules
epic
sold
trate
pasajeros
62
lice
avances
##ooos
quase
##colo
mereci
sang
agree
aguacate
funcionan
##enco
verdaderamente
##ipas
signific
carinos
senales
##rivel
bry
ciento
chavales
universitaria
aburrimiento
raiz
pelotudeces
##gru
falcon
afan
ww
스
william
cadaver
cringe
cav
circulacion
unida
dit
culpar
##giados
obrigada
guadalupe
descripcion
informate
works
amorcito
enterar
congratulations
haceis
adoctr
porcentaje
wild
aquesta
colaps
##ille
page
sucedio
definitiva
saudade
정
pasaje
##dador
resaca
pretenden
primos
entusias
mariana
escap
castellano
admir
montar
nasa
content
adicion
disciplina
forca
concen
acostada
pois
##bile
ㅤㅤ
renovacion
especific
manipulacion
means
equivoque
sigui
마
nazis
##dientes
##pete
##tecas
bache
revision
infarto
##ministro
shop
##jano
infil
miedos
joel
amante
circular
cubrir
peruanos
campus
edit
bosta
bolso
semifinales
tecnicas
2007
aren
subes
weno
regrese
habiendo
combinacion
france
masculino
sour
encuentre
asesinatos
todes
adri
fest
##ici
##calo
fuegos
mtvlainsta
ojitos
maz
monsta
juventus
##cedentes
canci
ortiz
months
aviones
aconse
##jados
hai
##bir
propongo
##quinas
worth
financiera
apps
fet
expro
##oracion
desaparecido
##radas
##esome
tini
deudas
##donado
loved
##atri
lenin
inevitable
consultar
##net
probado
##49
derru
inmobil
esperanzas
teresa
chiring
##suv
impuls
paper
tanga
seguidas
mism
nde
superado
##mosa
born
salamanca
poema
nature
vat
extranas
organiza
insisto
outs
coman
estruc
##how
##43
frutas
quejo
definir
preocupante
oficio
claudio
sumate
##mont
encen
mero
ocurra
##rus
peleas
cuyo
jazz
descubr
emociona
abel
incer
regiones
chab
bota
dimen
ita
citas
mantienen
jefes
##2015
afer
armada
##itados
autonomos
continuan
antoja
apara
compran
quieb
socia
##istan
dibujar
inside
##adito
##renda
chicago
##tional
##chile
boom
cr7
investiga
##encasa
vamooos
focus
festeja
enano
recurso
casilla
morirme
vales
mascara
xv
##ᅥᆷ
jonas
posiblemente
sinverguenzas
wooo
##ffee
mary
exceso
munoz
ideolog
##ibal
postre
aliados
##mundo
##gico
##ulla
izquierdas
blood
##ineo
cuota
##tinto
cardio
pronostico
destrui
busquen
logre
zan
##trados
kilometros
##you
shak
exponer
comerci
prov
cit
cursar
playoff
ayudanos
fabr
encabez
confies
spin
winter
ostia
maldicion
madreee
##iers
izquierdo
galaxy
coro
doce
##pher
walk
butter
cobrando
valla
turquia
sarcasmo
parra
##ires
bardo
morelos
ecos
##ecraft
tolerancia
olvi
pegando
descui
hyun
antro
combustible
legis
presi
scor
mancha
realizara
campa
daban
feriado
dimos
comment
incomodo
minutes
dizque
##guin
jajsj
respetan
expan
magis
obses
indec
sentada
nosso
farmacia
testigo
##aaaa
rehabil
subven
apunto
principalmente
culiao
besito
provincias
nee
ganara
prestar
fast
demuestran
lola
prende
ontem
incapaz
normalmente
inmigrantes
softw
coalicion
grow
escala
cabelo
suegra
bigo
express
##mites
realizando
belgica
ceo
debatir
arana
mezc
conversar
parroquia
rayos
ik
##iciar
saf
declarar
cher
experience
monta
traigan
vayanse
opinas
referen
aries
##cci
suecia
solito
gotta
valida
misiones
##ango
cinismo
sindica
tramp
##tyle
##tidumbre
hitler
pares
devolv
보
kel
perdono
nojo
pagas
zayn
feed
ivo
cadenas
##lanos
mandado
sinalo
mani
##illera
violar
azteca
vendra
fen
bamb
mania
hahahah
demago
almacen
distribucion
apuestas
bendita
almen
impulsar
##wal
alcanzo
impresentable
alicante
diu
desar
##dka
##zard
sumando
ayy
colapso
ache
permitido
veterin
deixar
mds
bajando
haberme
vuestras
eclip
##lito
rodillas
desagra
##rlos
tratado
candado
distinta
tomarme
mentalidad
inscribete
renovar
helicoptero
holaaa
follar
creando
##kel
race
sf
##gido
posiciones
itu
informan
tf
passion
reflexionar
olvidemos
pretemporada
metieron
##tead
##mare
recuerde
##jec
incondicion
construi
bocas
##unta
tiemb
##eek
possible
ones
notar
visitantes
xiao
coherencia
##arela
pegado
apoyamos
valentia
montaje
##mida
beauty
pizar
expos
boba
pozo
motos
mallorca
senala
comienzan
system
instalar
perreo
##자
##diente
jsj
ayo
basquet
visa
plate
conociendo
haberlo
ahr
naman
tarif
amaneci
##gasta
bande
irresponsables
recompensa
masss
oni
desbor
conclu
espanyol
obe
hobi
boleto
camise
phil
salinas
feos
become
muchisima
sandra
orques
honestidad
homosexual
emble
divor
carajos
trust
ojete
adrian
naa
largas
reformas
doctora
oral
##yentes
acento
north
normales
disse
maric
company
##rendo
cobre
prud
alexis
lloran
millen
disting
achaga
ghdu
acompane
outros
bowl
urnas
satisfaccion
##orts
dirigido
pou
##rite
liter
clavo
responsabilidades
ayudarte
maracaibo
teta
cuente
liz
violaciones
view
세
##ıs
buff
generan
sindicato
##desa
##ibre
basicos
peruano
revo
software
ejercer
ker
hour
##eees
fp
sufrido
torno
ponerte
fosse
salvaje
##ress
cnn
##33
mj
elle
walls
olvidan
genia
##maticos
mamadas
btw
gdl
##ory
abran
awesome
traduccion
갓
##ols
necesarios
emprendedor
encerrado
patriar
##cker
inspir
llenan
theres
tuviste
dibujos
rechaza
extraordinario
cambiaron
sentimental
pedos
nation
abandonar
prian
##djdj
##ixo
arias
sabiamos
chihua
contenidos
##iencias
transformar
##oline
astr
cement
mati
calvo
sinon
resal
vu
murieron
giles
primeiro
quilombo
guanaj
herida
theyre
descanse
##gou
walking
aint
camisetas
mao
alias
bt
wins
bud
oxigeno
nit
secuestro
##tress
##tinos
aprovechando
constantemente
##unk
winner
##wei
della
jas
2022
##putas
intenciones
valentina
conocidos
billetes
##ました
diabetes
##junior
gerente
encerrada
aburre
sanitarias
##hoo
pesima
sofa
supermercado
avila
perdimos
matric
##anta
61
investigaciones
##tandose
ferrar
course
mueran
##ambo
lamp
marcador
serena
avia
press
program
cooperacion
malpar
demostrando
convencion
lebron
estudie
probably
hong
pia
abascal
interesados
cartera
impulso
fantasy
moviles
sesiones
reservas
filme
user
posso
perfec
##tarte
estim
participando
meio
educar
iniciamos
dirigir
##work
buro
gone
aprobo
gral
cumplimiento
mak
##dadas
organizada
sacarme
subnormal
##fam
explosion
circuito
arde
hacerla
grey
exclusivo
escen
archivo
biel
lactea
estadounidense
genocida
borolas
chorro
comunes
hem
attack
##jaba
zamora
afecto
ironia
##ᅥᆯ
led
cortesia
paramilitar
catedra
emocionante
muuuy
censu
espal
##fil
enamoro
##cil
meridianos
imped
##trac
fueras
trozo
##kos
burbu
leerlo
imaginense
gastronomia
gustando
jurado
pusiste
##deu
trabajado
bonos
##bts
major
arrancamos
maris
unicas
soldado
##not
radia
dni
calaba
podrida
diooos
filho
solita
kai
nap
niall
##eramos
celebro
conocerte
tortas
sorete
alimentar
obligatoria
obri
ani
##ander
comparten
##ecre
##세븐
envie
tito
nop
continuamos
ingeniero
mercen
congrats
##لي
##타
evil
novedad
caprich
sabra
karen
bruto
multiplic
cumbia
seriamente
negociar
hueso
paque
afa
lozano
entras
jara
anunciar
preju
fallecido
precar
sexto
##epd
jajsjsj
almeria
boletin
presumir
jane
volvere
bajan
pseudo
afric
catedral
##zema
snow
caravana
mudar
hermo
disparo
esperado
terminal
##ulan
cantera
arbitra
senoras
esses
epocas
##ious
coreo
island
suban
refugio
##wj
campan
sensual
coge
shes
endgame
anys
reduccion
mercad
mlb
gb
imprescindible
갓세븐
minhas
recomien
##inga
##44
costar
##copa
maricon
##abra
##wat
cambias
##entino
sies
pelado
vivio
bata
flojera
pingu
00pm
arrepentir
suicid
pidieron
liam
vergas
televisa
3er
bise
vinieron
touch
conocida
absten
aulas
tamaul
aplauso
controles
ambito
texas
danza
mundiales
joker
parques
entidades
alegrar
inversiones
marico
sirva
usas
llegaste
rp
cojer
##dula
confirmen
javi
corrientes
corpora
fallecimiento
retraso
dudes
##ectoria
vegan
comprension
angustiada
escobar
gm
nombra
tomarse
##sible
higiene
kiero
atento
exces
honey
residencias
##guero
iny
cubana
mga
bombas
hehe
quisieron
##world
creador
naruto
##horario
fantastico
moo
oea
cometer
##woo
##iner
orl
quierooo
tuiteros
barbijo
llamaba
provocar
quererte
card
horribles
leonel
epidemio
shut
kong
trayectoria
maldonado
mago
ric
##zer
yester
turistas
evidentemente
abuelita
yen
anciano
tramite
encargado
guardiola
anne
eth
cagas
##ajar
tambe
add
jeito
glas
##iosas
orientada
excelentes
##isi
vendria
adorable
estaras
tala
tonteria
uci
truth
##band
indigena
recordemos
##vies
amando
sop
magdal
griez
jjaj
##tiu
trabalho
clarin
menciona
vereda
tomaron
acusa
egoista
lame
hermanito
dea
mesas
incompet
pareciera
involucra
##iguen
echen
deso
evaluacion
##america
ernesto
pescado
##acos
sentis
secund
fail
equilibrio
able
claros
ua
dms
ofender
festa
spread
informado
galletas
curar
##pear
gasta
reta
benzema
referia
##lita
votaciones
amantes
regale
gatell
71
abraz
##75
trabajadora
antihorario
fif
alza
povo
extrane
celulares
extincion
amarte
bellos
avanzando
pileta
##liquen
cervezas
clean
cinico
mediano
##iversary
triunf
llanto
round
andy
happened
frena
git
superliga
desconf
afe
시
rancho
descubierto
##light
getafe
artificiales
character
acompano
productor
##ury
##rit
##fel
saltar
ios
##lies
##tac
directv
maquil
##load
hered
trabaje
steph
ilegales
atrib
preguntale
destaca
tesoro
provecho
boico
cueva
cami
videocl
patadas
participan
ampliar
margen
rib
incertidumbre
nomes
hollywood
cierren
##cristo
dreams
##une
piscis
##istia
rana
##flores
##xit
devuelvan
sandwich
##った
drive
virgin
preventiva
amistoso
early
##teres
cueste
cachon
echan
parciales
ayu
qepd
anc
##zone
gale
studio
tnt
##ili
muita
##juana
conforme
esclav
estava
melon
recal
##ون
##mexico
aos
##라
violentos
testigos
##kd
andes
irresponsabilidad
serias
circu
walter
mare
sap
abdo
##abi
##ef
dei
##didad
msm
transmit
ateez
venceremos
##gement
jaaa
jejejeje
quitaron
##jaron
prol
hacke
guanajuato
##icul
reduce
zi
wacha
legales
ande
conmebol
ruso
aprovecho
microso
molina
extranando
##tee
armo
##zio
suscrib
acapul
##tirlo
farsa
estand
platano
july
sacamos
fideos
review
##cie
dirigente
##right
banos
vinos
isn
garantias
estaciones
thomas
##uf
grax
encantas
##bobo
teo
diagnostico
metes
coffee
mid
automovil
epico
cera
atraves
pape
lucho
enviado
presto
sinies
donaciones
regar
apaga
##zinho
365
vicepresid
medo
asesinados
##gadores
##etto
pasto
grav
##hahaha
vivia
joan
tutorial
sip
aspecto
front
futbolistas
diosdado
masivo
hernan
cejas
durar
tempera
##rete
concor
empiecen
من
eze
vole
juzgado
ruim
lob
##orados
canaria
terminaron
delegacion
murcielago
jhope
##war
invasion
zapato
entrado
corro
ofrecen
##mmys
##rump
atiende
athletic
jogar
camiones
diji
pee
fred
disgus
pts
dinheiro
orientacion
desmadre
##madrid
nec
nut
soto
2005
modos
instead
desaho
primeira
necesite
ocurren
comidas
##lantes
prohibir
ancianos
afro
prorro
##bac
subida
microsoft
parasitos
extraordinaria
##mori
pasame
heard
bachelet
##prisiones
indignacion
spring
elim
contentos
cabezas
yesterday
putin
caracteristicas
discor
haiti
techn
recibimos
desprecia
ug
##paraiso
##eren
ati
mit
ridiculos
gays
odeio
##dam
assis
##cena
transfer
tamaulipas
daniela
uruguayo
##77
desesperacion
april
coincidencia
objeto
crono
inda
terremoto
lanzo
swift
twee
paramos
##iesta
##icales
telegram
vulgar
johnn
kirchnerismo
epidemia
##trica
##trices
regalan
burgos
atualizacao
members
macr
escucharlo
repas
##tud
reflejo
combat
fear
pronta
chocolates
mtvbr
taza
unha
divertida
tequila
deta
improvis
presencial
consiste
ks
derra
persi
respeten
coord
afil
##inada
elas
##rant
excelencia
tiburon
controla
politicamente
ovie
##kele
afrontar
##tate
hat
seeing
pierdes
huawei
##anan
conducir
cuadras
explicando
distanciamiento
##ticiones
eliminacion
amg
despid
pacifico
camarada
echarle
habias
empleado
##gale
##icacion
perci
alimento
suyos
nombrar
competencias
guante
##izaron
##jajajaj
##minar
cumbre
listening
81
##esco
##raneo
netw
130
heter
idola
ventajas
##ezcan
fisicamente
ere
padrino
armadas
boste
oe
kst
calen
tierna
##nh
macarena
chamo
##dais
tuitear
##zie
conteste
##ials
ignorar
##gica
enterado
allan
##teado
passe
##dinho
2002
##tsal
pacific
referendum
picante
urbana
##95
irte
mediodia
emilia
##ين
110
patatas
interactu
intercambio
instan
anciana
fijar
bikini
##bern
##ills
conch
suelen
##book
chapo
novelas
quanto
##tella
muestras
indio
pastillas
pedof
lente
desaparicion
mention
2001
teorias
wont
payasos
apreciar
neuro
windows
fino
torra
respetos
aproximada
boss
grandeza
juga
cambien
jijiji
edition
sony
sehun
##endas
isnt
europeos
sinaloa
cande
genoci
##てす
heavy
acapulco
evangelio
faj
conversa
near
esconde
electro
bernabe
delgado
facilmente
rivales
convertirse
soltera
##sol
encontraron
bendecido
diciendole
ortografia
##esp
peje
여
renuncie
compens
rutas
spoilers
creeme
xi
contado
lomas
financiero
##enteen
venimos
asustado
visualiz
salve
pasaran
laguna
transforma
##acoes
costos
jess
ome
##rosas
fighting
##tistas
##acidad
sobreval
##lp
plana
botas
chihuahua
spam
calabaza
jodida
ambulancia
##rillos
kur
##인
retira
montevideo
elegi
senior
contral
##earch
productiva
knows
sensa
corregir
soberbia
atreve
azo
plomo
caballos
sorteos
chus
discos
sufrio
negociacion
##itiendo
pancho
derechas
##meu
jimmy
perdidos
saturday
leen
rules
##share
##yer
brilla
arruinar
colle
alab
impide
vaaa
##와
sabio
mea
ilusiones
nana
vincu
facundo
notificaciones
mide
prd
cuotas
##opol
cebolla
##ego
llegaba
lock
##ggg
escoger
alternativas
tirania
invisible
gave
hada
celosa
3000
nenes
chart
copiar
staff
quejarse
piezas
legends
##garon
compartan
##ᅡ랑
fina
vibras
mayus
hoteles
##atorias
steve
keiko
mauro
cinta
fanatismo
enve
elefante
edgar
ajuste
ciclon
litros
bolivariana
bando
informativo
maluma
streams
sudamericana
sillon
hbo
intra
dinosa
##uls
auxilio
##tiran
ninez
destruye
players
angela
manipular
webinar
june
ble
deseas
colectiva
montes
mamer
gonor
cuido
##lares
london
semanal
anadido
aplaudir
videocons
respal
cacho
felt
anniversary
valparaiso
multiples
retweets
##allas
demonios
borracha
##lama
protect
##aderia
termometro
cines
aleja
lloviendo
alca
descend
##ani
vomitar
dejad
seventeen
sientan
consta
almas
esperen
cirugia
impu
permis
manejan
asusta
experi
pavo
pdv
barro
fichajes
##olin
learning
##etch
funcionamiento
knew
instrucciones
##31
entendemos
incremento
toc
aragua
tortuga
habilidades
fier
fuma
callado
pizzas
##ᅢᆫ
mty
videoconsola
enlo
##verse
grammys
##aju
ero
aves
avise
joao
##dilla
aparezca
responda
following
tambor
espada
##ulario
traten
rell
##istente
cumplan
mb
prestamo
feels
eman
manada
arreglo
gaste
chv
sars
posesion
impri
efemer
benjam
fait
rescatar
kra
records
##chor
auriculares
movilizacion
##มา
##ass
pandemic
inmediata
recibieron
##mantes
ofende
reirse
disa
piu
acabando
ps4share
johnny
ferrari
##turar
tired
acusado
especialistas
draw
##leto
##lain
monarquia
bbc
cintura
success
frutos
misericor
lesiones
jojo
carabobo
brazil
incumpl
rusia2018
dejarme
robin
##jitas
antofa
aka
medir
hype
reconocido
##88
mija
##nicaragua
mensual
##igra
##tat
##ither
micho
entendes
deliciosa
alicia
trein
begin
sell
##entin
intentan
escapa
colorado
cuidan
eclipse
emergencias
chaco
monumento
rosalia
escape
interpretacion
transmite
sindicatos
##mira
reper
accep
superiores
mentes
bm
alegrias
##udades
##kpop
dedicacion
expreso
tarifa
vicky
madrugar
##bria
integracion
ganancias
considerar
って
oviedo
golpista
maquin
torm
asquerosa
##dri
incomoda
barbaridad
##원
cactus
pisa
demostro
arau
preguntado
eugen
climate
seguirnos
fingir
##ancha
##zooo
lograron
##tour
hierro
pillar
calific
autopista
##티
offer
charles
directos
tramites
aunq
photography
acordas
atlas
resena
hall
salame
mediocres
cocaina
chavo
defra
herencia
conclusiones
forman
soporte
obligado
asique
##tense
congresistas
psicologa
coherente
##bang
comec
desinform
treat
##americana
##dimientos
concreto
##poli
saint
grecia
proteja
localidad
morro
revuel
pacifica
bruja
jsjsjs
infiel
pronunci
filas
restricciones
mesma
genios
gnb
afirmo
##yes
sincera
perdemos
##star
crow
ineptos
wes
prisa
quick
aceptan
lew
exquis
publicamente
rodo
volvamos
tabasco
romance
diversos
saldremos
sosnicaragua
silencios
masajes
debates
2004
shakira
##yun
deportivos
##tona
mosquitos
##midos
obrigado
abriendo
lanus
arrib
101
sama
step
varela
siguio
elimina
cese
##야
sirvio
exped
inh
rencor
duros
ensenanza
utilizando
diablos
recibi
type
destruc
culturales
chub
allow
##dah
contundente
confirman
dijera
apuesto
ql
##tup
aprendo
estatua
magica
apagon
lapiz
terraza
rioja
autores
taek
dirige
##tiemp
venda
gobernadores
mh
debilidad
caza
edificios
cala
wake
johnson
directivos
##bat
##trabajo
yte
throw
##erse
reafir
trol
incluir
moy
diversas
dejaba
brian
aflo
peak
quedaria
vald
dejalo
companer
kiko
experim
sever
encara
guerrill
slow
stuff
##tention
bautista
septe
desaparecidos
insis
complac
tout
vendran
variedad
bustos
magal
prepo
serve
##arito
chota
tua
loro
##eles
minecraft
pegan
mintiendo
equ
estereo
militan
fitness
##dese
##oor
fij
##house
disso
extorsion
bau
##gger
emocionado
##tl
gobernantes
aguirre
testimonio
romantico
##americanos
##tizado
##ader
canas
brillar
140
existia
##filo
imm
garanti
agradeceria
choto
maten
regalado
barilo
servidor
released
jalo
##uli
catalana
##2021
rem
desafios
aproximadamente
grasa
culito
suspende
firmado
manejando
videollamada
vainas
podrido
rally
xalapa
ordena
cagaron
jesucristo
eficiente
largos
science
impedir
admitir
pet
willia
hechas
hilos
comerme
##ecito
##micos
iber
vuelves
toneladas
enojado
idiomas
carrito
rompo
##pedia
##sub
higado
depre
disculpen
prohibida
electronica
##izarse
stock
talentos
raras
emis
cp
culiado
##zzi
##amba
##yal
neglig
abu
supuesta
rifa
##grama
aliento
##tuvieron
expresidente
mejorando
collab
##tream
antofagasta
##ianca
conge
continente
sporting
cruda
service
##human
carteles
ilic
##deci
vodka
##tik
sick
interesado
mercan
utiles
recomendar
##tivar
cocin
channel
aplas
enfermeria
##old
titere
cof
reques
svgala
independientes
trad
nous
factores
presentando
asked
hus
##ᅥᆨ
orlando
confundir
dinosaur
gc
apes
##erdo
parad
##www
puntual
dana
cerrando
##iquen
bh
caray
fachas
liberar
edomex
porfi
devuelve
##ᅦᆫ
magnitud
cann
takes
buf
saudades
repartir
partid
duena
nublado
malvinas
identificar
videoclip
hoo
organismo
8m
viejito
estat
sombras
##ermo
mendes
autonomia
irma
##urez
##jona
playstation
##igas
ral
miradas
surf
fancam
especialista
trending
maxi
pub
meg
respete
sintio
##ray
##iego
##laria
pdvsa
dsp
completar
coloca
yi
apuntes
##reras
##cista
plaga
tortilla
brinda
chiringuito
arth
abandona
fumo
pillo
genu
vidrio
vibes
relation
hablarle
liberen
competicion
meterme
detienen
uva
rumores
perse
passo
##irla
##geo
regalaron
ted
caracol
inmediatamente
##tory
balas
mutuo
testa
colaboradores
tamp
vinito
reglamento
cuerda
requer
appro
mijo
acabaron
gior
herido
##tney
bolsillos
procla
insuficiente
salis
dh
wonho
tarado
zas
supermercados
advierte
peligrosa
potable
logran
checa
poste
vigente
accidentes
##udi
amorrr
liked
culto
ring
quedarte
##rizo
yos
recortes
senadora
feas
zorro
bag
mdp
sacarle
##ない
encargo
misericordia
enfoque
dario
abeja
heladera
diciendome
pagaran
##사
##ulando
##wide
infantiles
indie
obser
aburri
4to
reeleccion
⠀⠀⠀
divertir
fati
lovel
lacra
mvp
nag
representar
reventar
satan
asesores
##aver
ubicacion
traduc
vamonos
encerrados
monster
ponete
miraflores
psuv
navarra
kr
vegas
explotacion
##tech
vacas
ciega
##sio
peo
##queno
##onna
glad
salarial
##ezuela
propie
conmemora
patriotas
isid
kita
adam
debu
alergia
profundamente
rola
conscientes
##ceu
traiga
buses
transmitir
duas
##mara
dudar
##pada
dps
lena
##teee
exijo
escolares
dick
mocos
facturas
procu
##taran
tatuar
لم
centenario
samuel
correos
sirvo
compres
couple
##sito
ell
pv
cua
##mbar
recorrer
magdalena
leaders
bizar
pcr
mentalmente
tirada
discursos
especies
epa
profile
calmar
fim
encub
narcotrafic
ficou
hijueputas
homicidio
##ox
robos
hits
considerado
benjamin
deficit
ganen
pendejada
tipica
carla
ong
hisp
desaparecio
consuelo
coah
rua
bros
##aks
##wk
episodios
holanda
kobe
jep
pemex
anitos
griezmann
entire
dai
2003
comisiones
recontra
sonado
txt
vayamos
chas
quarentena
research
terminas
compatrio
juntamos
huella
blancas
fumando
bei
visitante
happiness
##tron
cond
brus
servidores
importo
culos
aplicaciones
dero
trac
opening
templo
tragar
zen
respiro
comme
##yi
figuras
joyita
quemo
5to
tipa
cmg
timo
worst
confron
pudimos
gestionar
pondria
pesca
##teur
##zaba
lyrics
estariamos
conductores
autentico
pasaste
categorias
universitarios
inferior
unen
caramelo
indispen
piedad
secret
marte
acondicion
uribismo
visualizado
inclusive
anymore
fiquei
dificultades
luto
mentirosa
ajo
350
##━━
camar
##reria
pld
asuncion
proyector
frac
ovarios
chorros
josep
grabado
intentado
pedor
vapor
message
zurdos
##irt
decenas
alban
labores
##jaa
harina
domingue
foo
scene
vall
##무
egip
transparente
hazard
torneos
embole
##cking
aprecio
forward
indones
cagadas
ant
computadora
habitos
##cine
twittear
impec
tiras
##sante
achei
iu
pensarlo
##ids
loc
##tives
jm
resf
quince
desprecio
gta
chega
batallas
comerciantes
carras
##terapia
funciono
##mper
pum
bucara
extremadura
consume
deportistas
logramos
mimir
esooo
funcionando
williams
vientos
ced
realizada
medioc
vei
cojo
futuros
barre
##gins
##rles
##jd
mante
policiales
asiento
tata
desfile
peta
whate
permitira
illus
jeta
closet
trabajadoras
##camp
agarran
leonardo
descomp
descul
siria
defiendo
psicolog
planet
propiedades
pano
watched
juguetes
##lee
golpistas
nau
cementerio
plebis
individuo
centrales
futsal
nay
suelto
beta
callo
heterose
brain
hij
pequen
gaby
tevez
higien
carril
##さい
states
port
award
equival
signos
ideales
iniciativas
mercur
comercios
psy
##국
ignora
##tter
barbaro
##ized
revolucionario
idolos
##uelan
brava
tlax
gaming
##hando
diva
angulo
thre
amada
sucedido
chingar
chamba
xdxd
guapos
##러
emision
nom
##ganes
importe
site
absolutely
despro
tarada
comics
bernabeu
aspira
utilizan
seung
jaco
estatu
tendriamos
presupuestos
ator
imperdible
ayudenme
harian
reconozco
hamburguesas
todooo
##kita
##kal
asesinar
cooperativa
invo
mazo
flas
asf
bed
mamarra
bartomeu
##ener
##ange
parano
##hara
puls
hoyo
triangular
##uila
##ız
acredita
basa
##acy
lam
acuario
acordaba
pienses
enfermar
dece
five
vocacion
##encio
wine
perfectos
montanas
retroce
brothers
polonia
certa
ane
errado
ayudemos
bcn
espaldas
slo
uvas
holy
shoo
inmunidad
yatra
##uerza
##ibol
americas
alimentaria
##undiendo
visualizaram
wis
hacete
celta
concentra
buee
##heim
cedula
subieron
##rou
pasarla
retwit
##یں
jis
quand
seriedad
silvia
carlo
cucara
##ata
gobernadora
segue
##torado
##pias
suenan
sapo
lastimar
beyond
ceremonia
complicidad
arra
compartido
##dicar
suceder
reparacion
##크
oculta
gordito
vigilancia
puneta
maravillas
lauren
supiera
norue
##wen
##ais
hno
vendio
pides
lemb
colas
##ري
zorra
recomendable
haciendose
atte
recauda
delfin
renuncio
coctel
sensibilidad
averigu
bios
democratas
##lazo
acercar
gabriela
##ln
##gana
relacionado
efectiva
apaix
noto
suis
pausa
mudo
##jsj
traslado
rede
whatever
quilmes
posterior
trimestre
##etes
alejandra
cachor
michel
futura
ultradere
chapar
aclaro
fomentar
quitado
dvd
banar
cuchara
##yp
abundan
visitaram
escoria
resol
consiguio
diarias
contactar
cuestiones
sucre
eligio
##dium
incapacidad
emma
quitando
adjun
teres
##오
bane
picar
desarrolla
train
dengue
##98
##ecos
extension
##bala
juridica
##fab
modal
haberse
violin
ford
bebo
wonderful
speed
angelito
capriles
negri
vidaaa
##izos
ferre
dominio
pacos
조
##uly
cases
prevision
candy
involuc
ayudame
abraham
volveria
terren
desconocido
bariloche
psicopata
##gne
pajero
aeroline
##igna
guardado
nietos
cofra
##tini
proyec
varones
desaparece
flan
nefasta
tsj
tues
subtitu
september
##head
hop
enre
##pide
campera
blu
##iled
inocencia
matanza
magnifico
shopping
desierto
cay
jajsjaj
municipalidad
vestidos
في
alive
abandonado
reune
dejaran
diera
moderna
##americano
##키
volveran
tijuana
wed
##ville
rean
webs
enormes
realizamos
sacerdo
jai
##mino
jajaa
glu
mentirosos
trujillo
peste
respondan
education
##hahah
negativa
bastar
duerma
canciller
extien
mirad
count
chupe
##tories
chulo
bles
cordobes
tickets
enrol
libertades
sarmiento
instalacion
ocupado
vla
graciasss
##──
voltar
fieles
mere
rompan
legislatura
##arch
progre
compadre
conmo
##66
subl
ster
expresa
carlitos
majes
hablara
peti
##ende
liberales
verduras
eps
vivis
cuya
hyung
careta
korea
organismos
tinder
sinonimo
garantiza
academico
##chero
##bai
mires
##blan
millonaria
lagar
sagitario
quiebra
discover
lakers
cantan
integridad
autentica
recordo
incul
ugh
inviten
ajax
misog
tabaco
poderosa
mbappe
consumir
cannot
##minio
##ficos
botellas
demi
##ware
jump
debat
armados
espadas
harias
2ª
pdf
##pil
leopol
russ
comando
##비
reading
emig
quaran
##له
temps
##lui
inespera
brig
sole
sher
##mbele
guarde
##arable
versiones
jay
antioquia
yucatan
weeey
fio
carpeta
auditorio
recomendado
celebran
jujuy
zapat
##10s
##pic
bisexual
conceptos
##pue
town
##ried
toi
acompanando
cuidarnos
sucur
cajon
burgues
acabamos
escucharla
ponerlo
##itec
##acete
dominguez
##with
actuaciones
almohada
##lme
tarifas
provid
comoda
expulsion
tenir
follower
decad
pobrecito
security
inmensa
sonrio
rom
yun
panas
luchan
llaves
arthur
construye
activar
everybody
enfermeras
##esas
practicar
fotografias
tx
attention
tribunales
##mms
##care
maquinas
charlie
muchisimos
2nd
vencio
ry
alejo
tota
abraza
matado
superfic
##ddle
cantabria
temperaturas
condolen
propagacion
calling
sentirte
##ppy
hume
convivir
##vv
desalo
그
##bata
llevarse
animacion
escorpio
mobile
ria
fs
alfaj
ansias
female
acumula
gentuza
##itely
fanatico
equidad
burbuja
calculo
##titucional
madura
caradura
favorrr
rezar
peaton
##tries
cyber
trompadas
##fran
dichos
##argentina
##tesis
admit
hidra
##zione
preguntarle
esquer
agresiones
ganaste
jonat
ucran
banana
exactly
mineria
micros
preferido
curro
acabara
perdoname
dirigencia
orgas
escar
plebiscito
esenciales
puigde
choose
acuerdas
esperes
disfraz
cuidamos
kaya
aliado
911
raya
erc
##bae
anh
tob
##monios
guerreros
##mic
##oke
chimba
adjud
jering
demen
barrera
irmao
violeta
##quitas
##gie
jajajajajajajajajaja
refin
bora
vehicular
octavos
rector
contestan
destruyendo
adecuado
advent
agrup
ehh
##ciando
ess
filtros
##comp
geminis
cometido
tune
flia
cash
gobernacion
alfo
fins
escuchaba
kis
##ciliacion
biologia
irrespe
suene
viera
relevante
reforzar
verle
veure
durango
traido
archivos
##mona
epn
##micas
ineptitud
umas
tramo
##kn
dumb
tocara
cortos
##tamientos
chegar
##마
amargo
ogt
indonesia
juana
preparate
cargado
##tiera
explican
quintero
jennie
genes
cold
bajen
bloquea
envios
folk
article
##sing
##lera
##って
sandia
screen
graduacion
rompieron
basado
##อน
elf
##tituir
aumentan
hurt
roda
encontraras
##ium
liceo
superjunior
necess
surp
cerve
##larse
lugo
ilustra
comodidad
erre
sticker
corpo
escuchamos
prepare
##iaria
porteria
repudio
resign
vestuario
gerardo
##hem
imss
alos
benede
net
jisoo
echado
monopol
guardias
tecnologias
october
amparo
emprender
encontraba
##미
quemado
viajando
oligar
##dear
magaz
preguntaron
brote
##ajs
gusten
crime
ix
goma
tatuarme
rapid
##icaz
##55
positive
estor
##hou
resolv
residuos
##ajajajajajajajajajajajajajajajaj
chula
sb
coahuila
모
수
lv
lema
cast
quel
cinema
spend
convencido
jones
thoughts
demasiadas
culture
##iago
antis
##qq
##estes
espiga
halla
moderno
missing
descaro
incondicional
corren
telefonica
comedor
gravedad
vejo
##ividad
##ık
fugaz
conducta
comenten
eric
saqueo
tsun
##zis
youtuber
chro
bostezo
hazte
assistir
cib
despido
despen
##ames
argentinas
reflexiones
##young
##itivos
##acios
어
raices
##taaa
telefonos
conectar
hung
auth
based
vinic
veis
achieve
tanque
##itez
refieres
grammy
snapchat
peri
turb
sosprisiones
suicida
chie
ciclismo
tup
##teos
chick
espanolas
lia
bebidas
pucha
##umina
straight
ruina
##shsh
desperdicio
##ells
nelson
turistico
abogada
elias
##guento
##fits
emelec
##cm
roque
racistas
allende
correctamente
##citas
libera
raros
scott
indirectas
acostumbrado
gobiernan
##2014
organos
played
amaba
riquelme
milanesa
eye
analiza
amigaaa
aupa
sexenio
##jeria
sufro
countries
aceler
apostar
reaccionar
urgencias
pisar
habilidad
quitarle
cook
apoyos
mapu
##hova
electron
modu
shadow
##mol
duras
pinguino
energetica
swe
adquirir
fusion
coronel
##logica
prince
desean
mendez
soltero
chevere
participaron
rach
enloque
indul
hein
palermo
noruega
basicas
1ª
ct
escriba
rompa
training
jodidos
investigadores
volvimos
refleja
legislativo
enven
##jido
##วา
degen
dimension
points
##digital
camera
##ientales
leopoldo
##sure
audif
tardo
caballeros
doo
avatar
coreano
alp
vila
editar
afectar
rellen
forza
vigo
##wers
expl
aportes
riber
juicios
##hay
capricornio
nunez
contro
##disimo
swing
choca
eternamente
noe
##ridge
bombar
hockey
verlas
faco
##alas
aje
lagrima
pisos
##egu
##toras
secta
arbitraje
yoga
godo
pedago
##elec
entretenimiento
ofend
response
puigdemont
habana
governo
5000
sampa
needed
inexplic
cruzadas
##pri
vulnerable
provida
oliv
##mbres
wolf
fara
killed
partidas
inmenso
cayeron
links
##kakakaka
prometio
fundamentales
similares
atr
acordo
eficiencia
enzo
reencu
militantes
ratos
frecuencia
politics
##arrior
definitivo
paisaje
caros
seguidor
contratacion
continuo
ponele
pidas
salu2
actualizar
gringo
complicada
terminen
letal
##poder
estadistica
sofi
tropa
alimenta
ticket
decile
starting
nd
reventa
brand
##zuela
hubiesen
distribui
jersey
textos
astro
wanda
journal
##cou
maga
double
escribes
dua
lights
abrimos
trabajas
ente
##ected
matern
descuentos
cansar
books
apareci
1ra
defectos
cuidarse
multas
encuentros
avisen
##diaco
bolo
scream
aguilar
refuerzo
elegante
##から
observar
mn
mirr
viajo
ariel
tertu
enfermera
lal
claridad
celebre
clav
promueve
##terial
diganle
militancia
np
enchuf
terribles
jueguen
cuero
escapo
notre
remate
##uru
faire
exploto
lentamente
xxx
lomo
gatitos
sosa
guardian
pics
kore
cargador
cucuta
incorrec
danna
quedaste
##chain
stranger
obrero
enga
campesinos
empoder
despidos
chayo
##ising
michoacan
edi
heres
unicornio
ocean
geral
macro
muneca
bou
establecer
hm
salvemos
adidas
demandas
tbh
implementar
habiamos
abon
##mpeon
160
creadores
democrata
seat
amiguitos
jah
mall
certificado
tokio
asamble
hister
guevara
twitt
##ᅮᆨ하
visibilidad
interesan
fijado
rrss
cela
hir
francesa
atacando
commis
reminder
pinochet
cripto
legitimo
influencers
zurdo
voluntar
fantasmas
xiaomi
opositor
##mpi
gamer
smas
##zal
isidro
proven
rapp
##amas
precip
##ika
caia
moria
##trara
grabo
conviccion
##inarias
tableta
aguento
##dillo
aglo
perras
matri
panto
vitoria
mcdon
marques
##mond
##andes
debera
jehova
luisa
resur
##bbmas
##djs
continuacion
##jae
converti
comemos
##irro
catch
talvez
lovely
reab
cuau
aci
##cemos
eur
dembele
##dev
estresa
##pados
resistir
costas
ensegui
caigan
jaen
##culas
objetos
turco
##34
preocupe
burra
##orios
##itter
##mentando
fujimori
monos
dedican
escola
aprenden
##manes
##imar
respondiendo
motiva
eliminado
huge
afectado
##hoy
fichar
miley
thor
baba
entregan
##상
miralo
sanguineo
cuidad
verda
financiamiento
gamb
슈
asume
##zinha
##life
montan
descontrol
xfavor
sello
ojeras
inquie
greys
suplente
bajado
fuen
repugn
desnudo
lionel
##cador
dirigida
satisf
valioso
murder
intentarlo
fracasado
##ipsis
prohibe
apel
##nah
fotografo
definitely
obes
cupo
restos
gonorrea
repon
exigiendo
##jjj
dial
rehabilitacion
balonmano
hermanita
lma
##iff
jeringuilla
disculpe
chim
ferias
geniales
aq
tormentas
medicamento
##iona
silenciar
salvacion
damas
enseguida
conspira
jajsjs
##vet
hermosura
brad
##brara
ih
mah
surviv
aguilas
30pm
crudo
territorial
uribistas
toquen
sepul
filo
election
joke
##logos
andu
originales
preocupados
alumno
trenes
chupame
pegarle
cogiendo
superan
palav
##gma
##bras
bizco
##tean
peluche
anden
##ai
duarte
study
nn
yoon
sug
noticiero
devas
mediocridad
ppl
ubicado
sooo
supremac
saldo
##usto
perdone
parana
mobil
meh
cigarro
##피
capacidades
afectadas
republic
warrior
vp
beto
odie
crl
##urb
parents
##oto
##enne
##umel
luchas
novias
##vich
##jak
festejando
marg
##とう
##vor
metropolitana
almorzar
traes
##dur
participe
equivocada
milenio
coordinador
incoher
##iliano
siembra
##ursday
laca
conde
presunto
nadaaa
aprenda
entrenamientos
rodea
mto
crecio
cielos
worldwide
terminara
beatriz
meterle
andando
aventuras
disminu
guido
roji
estereoti
reconstruccion
galleta
##boa
lacras
sonho
##itara
enteras
basada
pasaporte
remar
anche
perjudic
insiste
ganarle
seems
vinicius
##ented
chang
weas
sobrev
alguma
##lds
americana
grabando
magistrados
visibil
pondre
155
presentara
fisio
detectar
incendi
productividad
impulsa
deserves
superhero
voluntaria
llamaron
joaco
##trina
ampliacion
tuesday
alucin
consiguen
perform
mans
##vela
madero
disfrutes
rating
apoye
playera
borges
uefa
##titui
comunicaciones
dispuestos
recorde
klo
marino
amooor
papelon
imparcial
bucle
avel
conflictos
rot
atu
cabrona
outside
probe
zurda
##eless
comeco
##수
femina
efemerides
estuviste
conquistar
greg
proper
blanque
##itoria
ajuda
sinceridad
leader
tear
cabeci
cristianos
bander
vet
selva
candela
ansiosa
fruto
escaleras
##town
##def
진
surreal
amazonas
armen
guil
vergonha
ghost
##ibar
cotidi
apoyen
##some
anuncian
raquel
poor
sounds
mengu
ibar
modi
till
##lana
adolescencia
rebelde
populista
migracion
##melos
circula
entendia
menina
campeona
##iques
fute
nuclear
august
##camiento
tomara
intu
confid
entregado
conferencias
avisame
electo
cost
lobos
huir
##65
##market
cras
alz
##issa
seren
dw
nigga
##venezuela
dono
romantica
gubern
vra
corazoncito
yahoo
##andole
##97
suyas
nacionalidad
honra
paquetes
##tiempo
##itana
exting
tried
chances
teme
relleno
asalto
##irte
hearts
triunfar
##itaaa
chamb
abol
acudir
##mies
ganhar
mms
territorios
coincidir
calum
publican
merme
eficaz
aquele
accor
restr
acosta
insistir
indigna
vmas
malisimo
humill
atten
llegaran
satisfe
picas
residentes
lg
##jajajajaja
bailo
mantenerse
fascin
##rone
isto
guarden
expansion
##moso
bake
lectores
mile
funcione
juntan
menstru
entendiste
apartamento
##tore
partner
mess
baia
horacio
matricula
genocidio
sensaciones
nocturno
rossi
##dale
condolencias
##tizo
aposto
estric
##isticos
##edo
anillos
recupere
pomp
fals
station
royal
cruzo
subsecre
ends
##jez
marea
mask
vaga
sagrado
##200
audiovi
diccion
retomar
##acon
fachos
salgas
dong
##iem
sabras
anunciado
ecuatoriano
fabian
gift
x1
##tigio
resiste
audifonos
cum
temos
dividir
soles
##icaciones
weird
maleta
arque
tranquilamente
condu
quemando
##mate
morelia
palacios
magos
tardar
cerraron
##aaas
pudiste
acostado
classic
comia
constancia
mediter
##econ
##gura
coque
verticales
servil
tias
dat
lud
사랑
##bral
houston
chorar
anna
vers
##glo
militante
concejo
stone
mw
levantado
door
disenos
##morando
fores
campaign
incapac
monclo
다
escasez
galera
agarren
omb
sustitu
tlaxcala
gritan
hectar
exitoso
cardenas
cream
plantea
exitosa
ocupada
##digos
haras
paralelo
유
sau
langua
sostener
particulares
cracks
rtve
poli
ivoox
complica
desnuda
afectan
aprovechan
jugaron
##zaro
cosplay
oscura
damian
ponganse
descans
##uar
obis
lautaro
arabia
patriota
abaste
##ichi
dever
steam
impone
describe
ils
cercana
apocalipsis
##ically
ordenar
vaticano
limitado
upda
inmortal
pagaron
arroyo
##juego
procedimiento
khe
delan
resentimiento
congresista
cerradas
venas
atendiendo
desgraciado
drink
valdivia
00am
##して
tutti
along
catalogo
dedicada
atenta
##isma
cerezas
mandamos
jp
planificacion
truly
dorado
ahorros
saliste
haters
llene
muchacha
apoyemos
clavar
practico
##doso
dupla
hill
regionales
radicales
igualito
punk
hocico
disque
##trarse
boleta
emojis
##zul
btsx
muchach
consciencia
ingre
tunel
magnifica
aura
jenni
jugadas
below
otaku
contrar
cloro
radiacion
minoria
##tane
escenarios
balvin
legen
guerras
conform
##lands
##ilton
carreteras
mili
inaugura
##jol
besa
acusacion
lucky
agradecidos
hermandad
anthon
adminis
obligar
rex
ordeno
centa
##delos
bromas
reactivacion
billie
hicieran
cargando
denunciado
beneficiar
complete
contara
##aaal
drag
florencia
comprobar
codo
simpa
frida
madrilenos
platicar
##vre
permitan
infobae
##rios
descubren
regan
して
생
pipi
comete
tocaba
generando
##lore
kios
estamp
federer
presidenciales
niegan
##lr
despacho
lagi
harris
ganaba
mejore
belie
coruna
fujimor
lesbiana
furia
estatales
porteno
decias
political
hahahahahaha
##terror
##suel
colla
vih
repeti
##grafica
contener
questions
escritorio
tuvieran
usarlo
desmon
lmfa
ajudar
##luir
penit
rusos
bisa
##aren
invitas
clasica
rapidamente
nadando
tradu
dobl
##ceria
preocupan
##nat
incrivel
ander
borja
verso
permitio
mesias
sorprendente
narices
bipol
viniendo
popo
concien
cambiara
mejoras
ventanas
lesa
aprop
boston
usaba
honestly
interrump
investidura
futebol
105
magazine
btsbbmas
assas
tiren
amigues
1⃣
##master
sanz
luciano
aglomer
desagradable
fabio
traga
xavi
alcala
spar
##لم
moments
filip
pesame
##ases
##asis
compraron
asking
##room
piercing
fome
##zona
meeting
serrano
mexican
carc
##raria
escuchanos
refuerzos
##tenham
pelean
ecuatorianos
sabo
cuentame
psicologico
registrate
alme
belle
freedom
##inter
pondra
brexit
amorosa
jab
killing
##inaldo
reacciones
comentando
either
hazme
fraud
interv
impecable
yankee
comunicarse
bandeja
ink
desesta
##coes
encontras
##utas
##ceros
intelectuales
califica
cep
catala
zana
cacerolazo
##ᆻ어
##vidas
liquido
##hl
salazar
jeff
movida
guapisima
monedas
cid
farmace
sumamos
everyday
##gobierno
relatos
auxiliar
desinformacion
ps5
asiste
ligar
##berry
asociaciones
nojoda
##imi
progresista
destacar
extranjera
1500
ayudara
merecer
adiccion
servido
respondi
calenta
cruza
dialogos
aerea
asilo
interview
eln
##adar
lujos
causar
guiso
tales
##itu
florentino
redaccion
##alich
traspas
prosperidad
nmms
vlive
church
fallece
inhabil
##85
vamosss
tendrias
iremos
lograrlo
##mejor
directores
occidente
##면
ventilador
cholo
360
dogs
demora
legisladores
comprometidos
tinelli
##quenos
##ducto
ener
reu
tricol
neoliberalismo
desil
ensenaron
afortunadamente
latinos
##ives
3ra
motocic
##ellon
worry
fernanda
jerez
cabil
pasapal
cupon
mtvlakpop
privilegia
tenerla
haberte
##arado
intac
contribuir
chongo
capitalista
elijo
giovan
opportun
beneficia
tomada
court
diariamente
pulso
##hores
necesites
sexualidad
criticos
cuidense
pistas
##hin
taste
acusaciones
suscribete
mismisimo
anthony
##gaban
koala
##vantes
jodio
sabroso
awe
daleee
barsa
superman
cabida
tim
preferencia
simbol
##teto
gooolll
weones
cachorro
##ipa
millor
ultraderecha
marian
eternidad
teve
compromisos
permanecer
greatest
##ioni
miraba
exol
impune
anatomy
gallego
verificar
perce
produci
observa
ets
seven
indiferencia
estetica
automatico
citar
juridico
especifico
secundario
chistoso
##으
swan
thiago
##bed
machistas
vacunacion
pte
mentions
happens
nenhum
registrado
ufc
kindle
mirror
homofob
bastantes
sostenibilidad
doloroso
pachuca
peronistas
desperdic
nya
##quisimo
flag
ride
dejarte
croacia
dejenme
cancelado
gestos
aparentemente
traemos
##dkd
##nado
price
##dul
##dao
maa
orquesta
katy
resume
demasiados
asistentes
fajardo
solidarios
##reccion
egresados
jajajajja
coutinho
##peru
##alte
ejecucion
esteril
bow
oraciones
realizaron
mosquito
##fully
amigxs
happening
bernardo
remake
suceda
och
##photo
thursday
##tosos
manha
honestamente
##ymous
rise
태
karaoke
##zn
llores
forra
elche
villarreal
davis
jad
merca
ocurrir
middle
##grafico
mafiosos
chairo
informando
cuchar
maxim
extranamos
##mg
tremendas
instrumento
arc
enqu
boquita
molestia
teletrabajo
cheto
shhh
mediatico
celebrate
mars
sujetos
advir
habrian
ln
consa
morder
##ueven
##ects
inseguridades
paradise
phys
ecosiste
economista
##endible
rb
cannab
##person
salgamos
##sional
voso
proponer
##uts
lanzan
piru
stru
rar
##늘
depender
esm
고
portadas
wen
##icemos
adecuada
rrhh
valoren
apaixon
ciegos
resuelve
ayudarme
너
jonathan
information
leganes
perpetua
dejaria
##를
dejarse
cuent
jet
tottenham
barbie
noma
incredible
treinta
cierro
maaas
return
iqui
saldran
multiple
luka
caje
aces
dijimos
##fera
hawa
criterios
cuatri
uyyy
aprendio
quedaran
comprendo
anticor
alerg
timel
palm
treasure
jes
1d
desestabil
bajada
falou
tests
marcela
rodeado
gama
facilitar
issue
recuperados
hul
facilidad
basuras
iniesta
habre
ladilla
107
tant
debiles
##mesa
macrista
grabacion
##tum
educativos
preparo
smash
chingue
sung
sak
pirata
paliza
milanesas
consejero
prejuicios
bodas
inexplicable
machine
ws
legi
indispensable
raw
kings
cocino
drawing
dependencia
compartirlo
across
jobs
comente
lucero
emper
sont
playoffs
fanb
##party
##etera
desconocidos
estudiado
##ᆨ스
serra
perfiles
semis
ming
profundidad
charlar
advan
spon
ched
vegetar
##fla
##bri
inconsciente
innecesario
molestan
calcula
##boys
adel
##uding
rama
bombonera
isco
rompi
discord
nudo
debi
danar
detective
##radio
chif
deciden
flipa
winning
seva
ballena
entrenadores
salvame
finish
source
interme
actuan
gate
suppor
##ajal
separar
marchita
extremos
carpa
##patas
pam
buscaba
jugadora
partio
rumor
huesos
##rillas
hah
grite
eua
##mentan
betty
notable
rechazar
interpretar
llamados
##กน
importas
ayotz
nl
divierte
somebody
historicos
consumidor
##liz
willy
quiro
flipando
member
hahahahah
##divers
lagos
vero
cortan
dependiendo
bitches
##quisime
tube
indemn
financiacion
sud
preocuparse
nik
##yong
steven
maravilh
hormon
holo
##mitir
suspendido
loud
cabrera
##music
hostias
buzo
announce
evad
tv3
ensene
lumin
escul
dancing
arrepenti
autocri
orange
calce
usurpacion
mour
tiraron
collar
##fina
configu
barri
administrativo
tomes
offic
rastre
##67
valenciana
museos
adivina
##maduro
sentarse
bloo
peluqueria
##ント
trucos
##publ
judiciales
vendada
apoyado
villan
juli
##coo
##32
##eck
okey
costumb
bada
implan
ghvipgala
hamilton
lesionado
lr
##dendo
filha
ponernos
votes
perenne
##thes
kinda
locooo
##cilla
acabou
gameof
create
inclusivo
##อย
devalu
barriga
privacidad
marron
toto
albacete
toxicas
##ultimo
breath
kap
bosques
escrita
valoran
coje
memories
camioneros
peeero
litro
##fre
plural
##super
expuls
##atlan
guaran
perfeita
mafias
musico
banquillo
suministro
funeral
balear
##vard
db
##pj
hech
alfa
##ction
estimada
juniors
siluetas
calam
graciaaas
infeccion
adoctrin
silves
tai
jajs
##utos
cocinando
grieta
pasapalabra
cortas
manta
contarle
antecedentes
movies
aguantando
legion
producen
girona
finaliza
presentaciones
rang
##dece
##iant
americans
taken
duermen
lies
##portivo
ecolog
facts
##lista
##miga
jajajajajajajaj
libertador
entrenando
prostitu
azar
exclu
pine
barquisime
apri
tattoo
faciles
voleibol
##ato
##hd
deberes
operar
##ipu
trou
##cazo
trade
하
envuel
##haa
ape
##ucho
##bando
retwee
##caa
##under
trolls
adaptacion
cow
alcor
acostumbrados
academica
delir
apura
rebelion
develop
tiembla
llevame
supercopa
defecto
coaching
##urando
feelings
##imon
cunado
integrante
protestan
##onto
##prise
sumer
visito
reunio
auster
insolito
mugre
refugiados
pictures
olimpico
sostiene
elemento
consideran
acepte
##ficas
aaahhh
correccion
poemas
meteorito
llib
enamorados
blessed
epica
olvidamos
muda
inesta
pulpo
legitima
##adisimo
##gut
champion
pion
gli
eliz
##manga
##eceria
pildora
##wski
witch
calienta
##trxs
difunde
icono
##kout
##alba
forros
escondido
metodos
dah
menguante
independentistas
promise
adora
encuentren
armani
##ير
creeis
fum
lozoya
hablarme
nak
madurez
dates
avisan
descer
##lit
nyc
marlas
died
bruta
##าร
merci
temer
mosca
deportivas
francis
pagara
quarantine
##kus
maestria
cuidemos
companias
bana
disputa
conformo
busto
esmad
comprobado
tang
babe
economicamente
diar
premiere
menta
quejandose
##oyo
metida
##gable
##eel
oculto
comisaria
protector
gene
entraron
coyo
2x1
elimino
qlo
##pur
lechu
repita
bacha
indignante
recog
separacion
venus
favores
prorroga
russia
tapi
tav
##dil
beatles
toques
adquis
contraria
juveniles
wearing
active
yankees
##ور
snte
uhhh
amiguita
##dimir
halsey
juguete
oveja
rivas
inacep
aseguran
revancha
hob
zombie
daqui
toni
ei
iquique
maracay
##illerato
saul
##web
##inapa
banarme
scri
complejos
desinteres
##vy
perderte
retar
wiki
##licos
calcu
##bella
given
reaper
maaal
independientemente
concept
college
##iendonos
drogad
##delas
disimular
20h
##break
prison
워
barquisimeto
mensuales
anadir
eun
anoto
huelva
비
fach
ucrania
capturas
##ggi
tronos
parasito
karina
aparato
cuarenta
acogida
ways
##td
veja
visible
swee
exal
ahorra
lecturas
conduccion
dilema
anonymous
##lad
teor
aroma
justificacion
vicepresidenta
dominicano
penin
pereira
papo
suficientemente
##tindo
##ppp
manteniendo
comerte
reconocen
conservacion
##hn
recomendamos
##sela
medioamb
##ery
##bido
##ajada
politic
chamar
perseguir
fantastica
missed
heaven
replies
##fle
extranan
##ambre
carto
supieras
##sjsjsjsj
##tay
##nesday
father
talaga
##iende
despide
##cky
sime
duty
yogu
canasta
##mbos
##porta
negativos
internos
##ibus
cauca
sister
solicito
jd
rogar
monda
mtvlas
protagonismo
mitre
##uri
incluida
nata
suicido
prefieres
matarife
navidades
alt
acnh
tuyas
engana
##cable
##utados
rotos
informatica
##izara
patriarcado
declarado
appe
agran
cangre
cecilia
##zam
bird
leyendas
terape
aficionado
5g
percepcion
170
enquanto
##ᅥᆺ
acredito
concejales
onlyfans
passando
remil
sumamente
beer
ول
##quillas
yuta
suav
equipazo
elev
bukele
cordero
187
##iculum
billetera
kick
rabo
nenas
consenso
balanza
##าย
crecen
violan
coac
simpsons
commit
##nac
acerco
zapata
atlanta
ponce
injusta
alexander
direct
##hood
tve
holida
silencia
temen
envian
compatriotas
desempeno
bipolar
tusa
creativo
caceres
cope
##guardia
eventual
notice
bundes
placas
relationship
ochoa
establece
illustra
##uy
colgar
##ltivo
dedique
manolo
refri
finalizar
4k
우리
prometido
xix
vencido
trick
regalando
manio
ingenieros
coe
##127
clown
kak
higienico
##rlas
pipa
nano
flojo
asso
opri
benitez
entusiasmo
cacha
aterri
sobrinos
mueven
chiv
##moc
insist
inferio
olvidarte
healthy
write
acusan
atienden
##quio
precauciones
gs
##gni
tacon
frustra
gordos
enamorarme
aprendes
zamb
wife
hectareas
jamais
regalen
bandidos
medical
chun
5ta
topo
##hoes
curriculum
mada
acostarme
funcional
martha
poche
##acias
tens
pestanas
canel
chol
punal
ava
##lot
exam
carceles
prado
provision
musicos
anota
olvidarme
tuer
##ients
purple
artists
trompeta
wala
mixta
golpear
##ول
estran
##alina
freno
bam
impact
##디
rumba
finca
##hei
silueta
andaluz
diaaa
loving
botar
confiable
oil
access
marginal
clarito
##rarme
firmes
reza
##ube
michelle
chata
esquema
agustina
society
jb
lover
financiar
vii
blockchain
rugg
desvel
clinicas
altera
##tnam
bachillerato
entrena
students
tenta
alfombra
leales
assu
erradicar
escabiar
##campo
salah
ahuevo
comenzando
positivas
##guei
diccionario
manalich
perche
tempran
robe
##orte
jeans
recordado
##icias
shame
enfrentamiento
petr
tiv
jubilacion
decoracion
modric
insign
potente
algor
scal
queman
goleada
honestos
ciro
aristo
##ead
shel
joden
ciclista
tratamientos
agrego
##ır
ayudado
denomin
decides
neuquen
pongamos
##mbol
mermelada
autonoma
fcb
og
condon
explicado
deposito
campamento
##ug
##스트
adriana
gul
christo
chee
kingdom
heat
##carme
regula
porte
martina
##haus
taxistas
telling
details
##kh
invas
fresca
mogolico
##ezer
enfado
zocalo
cortado
##galo
consolida
dada
reduci
menospre
zapatero
broken
mpn
informativa
##huma
agen
pluma
discutiendo
dylan
##gao
jueza
corredor
forte
##may
aixi
오늘
##loy
lavan
ads
oly
##준
disculp
syn
lq
bear
##kwkw
probando
gabi
correspondiente
reduc
chinguen
acido
atencio
senalo
yam
##ちゃ
6pm
bid
cagarla
aplauden
##tform
alert
heterosexual
ipad
나
ife
estudias
roben
goya
##ppo
surge
##eds
parrilla
brigada
nc
julieta
friendly
tentar
debieron
marcan
intr
entendiendo
##djd
franca
##tox
##าน
billion
destruido
##만
minor
##jajajajajajajajaj
demostra
darlo
##정
##non
teams
fds
setien
##guitos
aitana
##ake
congel
odias
yor
recepcion
recordatorio
queme
##ecas
chapa
##night
ruin
trajeron
stephen
ocupo
virtud
##utica
carnal
jala
proyeccion
ensenado
prova
brecha
equivocas
ouvir
##tish
sospechoso
suspiro
atlantico
cumplimos
##jica
mafioso
##kerman
venian
ross
##화
elenco
expulsado
##watch
almag
pesas
promociones
ocio
##side
becer
implementacion
colchon
reclaman
enfadado
mins
##iller
sudamerica
casino
##fortun
difundan
sketch
diamantes
desub
chingados
musul
horizonte
corne
forgot
pasados
tricolor
vietnam
flavio
modalidad
mista
##enty
eve
transla
josh
unimos
##chal
costaba
evaluar
alentar
##psi
quir
melhores
quie
puc
##ayay
aww
##inf
##itimo
perrear
felicitamos
fundador
veria
##dista
seduc
sencillamente
impre
mantenga
aereo
nominado
vacias
salvando
automo
cristiana
##zura
organo
entregando
wp
murillo
1999
meritos
##fano
rendi
##fest
vacios
stress
emborra
trasero
findes
currently
sres
##tment
maru
panque
##fren
sembrar
sonic
dilo
##ruecos
##chef
mecanica
anticorrupcion
cosecha
etapas
search
desm
calentar
novel
consumidores
ek
sava
levantan
##lyn
1h
##래
lgtbi
intriga
ena
amn
estupidas
mena
wooow
ys
sept
explain
alguns
agregue
feito
funes
cadete
cordial
biodivers
risk
caldo
##anero
mierdaaa
preve
aaaah
podias
reasons
resentido
ultimate
##terna
atraccion
##cco
pilotos
yol
franja
gordita
acompanan
##연
llamamos
##ground
inferiores
prohibicion
ceu
garden
tsunami
linares
borrachos
ajaj
##millas
vintage
##tori
ocupacion
sustan
including
puentes
ofensiva
##lero
casero
enfrentan
asfal
expone
avellan
napoli
fore
##ᅮᆨ하해
mayusculas
ejec
aportan
reynos
finlandia
acompanada
issues
numa
tail
##kt
amos
vandalos
acordei
##glio
describir
contas
##entura
trafic
wednesday
bonaer
asfix
peque
##tepec
iso
disfrutado
indu
envidio
##demy
discapac
pabellon
bieeen
##disima
##tifique
contemporan
3rd
bandido
denig
incompe
bolivariano
quejando
desqu
ayotzinapa
push
logrando
clarisimo
tasas
nm
ordinaria
##mps
anuel
##vem
escucharte
asistente
parados
pendejas
baix
trinidad
sillas
limpias
##menos
pesados
simula
cortarme
##democra
salvado
almagro
naf
perfeito
carol
alfred
125
comprometido
lazaro
##kovic
navideno
culiacan
ㅤㅤㅤ
costumbres
미
merch
longe
calmate
poderosos
camacho
citiz
pussy
dialogar
amiguito
marruecos
yaa
etre
asse
reunir
##orno
unirse
abono
logistica
nicole
pizarro
buho
complacer
estal
matarme
serious
##려
wos
solitario
##pf
mf
sims
adelantado
##mora
homofobia
##onesa
hindi
muebles
indicado
##ernos
conozcan
agujero
durmio
godoy
analfab
hermosillo
destacado
enfrent
egipto
indefin
subsidio
pascua
miento
pincha
manifiesto
ubica
indignada
deterio
essen
desafortun
1a
valgo
abordar
suas
estudiantil
madurar
vecin
faltando
pik
admite
reclamando
oli
midn
soluciona
supuestos
hacerles
ensenando
ofrecio
primarias
taur
##irs
deles
##lho
xdios
carnavales
frias
image
marcando
rodean
kicillo
haciendome
##enix
cigarrillo
photoshop
sdv
##queras
alian
sociedades
patear
hmmm
##phy
pool
##버
hostel
conectate
planeado
##instein
##ental
toxicos
recital
paraguayo
arn
trapo
obesidad
pixel
jik
miga
despierte
maje
spiderman
incan
##jn
trebal
nahuel
tentacion
rurales
cuarent
##iron
esclavos
sharing
babu
##41
atun
codigos
mug
claim
afortunada
galan
estadios
causo
dispositivos
##iches
anecdota
##abeth
gorila
casillas
maland
anaya
pingo
tributaria
anonimo
##vero
solicitudes
##ooon
adicto
dificultad
##ㅋㅋ
sorprendio
amaia
atas
##ार
escucharon
wang
network
vendidos
euskadi
##teen
derbi
enoje
expliquen
exclusivamente
aprendemos
doblete
ist
pudieran
huach
necesariamente
##utico
llorado
estupendo
haciendolo
##92
##millon
ending
traslada
##gil
##ني
kinder
ilustracion
더
chicken
##news
galar
pots
humanas
questo
zacate
trono
##cora
repaso
##vr
##gantes
entenderlo
kang
destinos
facho
##aten
tango
absurda
invol
##iciado
engra
##hrs
dallas
ofrecemos
pillado
negacion
aparicion
inal
ambicion
jardines
cannabis
deca
negligencia
civico
porf
chorando
pegada
##reditar
dormia
morbo
celoso
##uerdo
defun
mole
crecido
liguilla
pill
lenguas
ajedre
bajaron
creencias
salvan
recoge
encuentres
persones
echaron
saude
rae
##topia
suspenden
download
menciono
conservar
queriamos
torpe
confund
mangas
parejo
ono
##mberto
silver
aki
##jara
##gata
cov
glob
fare
##lanta
fichas
##peo
broke
wer
farand
##vante
##iarios
roles
objec
autismo
indifer
rcde
cafecito
allah
jhon
muchooo
tiny
infum
##toriales
sabanas
caricatura
barbosa
banarse
fundo
storm
notificacion
autocritica
desaparecida
voluntario
requieren
reclamos
recordad
##asi
##oi
stark
kung
entramos
taekook
suho
##brio
amanece
noquis
career
##inista
##econo
##tificar
##todos
##itio
malditas
kris
mexicanas
##rek
electricos
cure
uses
orang
bildu
grem
てす
calzon
patricio
fbi
figh
teleno
capas
sacarlo
desesperado
materna
##erem
hablaron
capricho
##gging
atropello
cogido
gallos
kicillof
cros
toyo
jjajas
und
hospita
cercanos
peruana
##acar
contencion
aburrir
brisa
perdo
individuales
espa
criatura
disp
mula
fud
yyy
ches
poz
midnight
inspeccion
wedd
corbata
racist
asistencias
alemana
gad
jajajja
viking
##ologos
##iest
cerebral
conformar
vali
##isse
sorprendido
##pun
reven
constan
comenzaron
infinitas
seme
surpris
nido
afiliados
bodega
##jimo
ryan
beba
demagogia
##tornos
cortina
ajedrez
nenhuma
asinto
aplican
border
proponen
entier
diras
jeon
##colombia
secuestrado
honesta
evol
##chitos
paramilitares
##chin
soria
appreciate
##chados
godin
drake
thous
ruggero
soberano
ironico
anyway
deme
worlds
bia
reapertura
vinculo
buscado
divide
corner
nia
gang
habita
bobos
convocar
visualizar
senalar
livre
##jsjs
persigue
oceano
estuvieran
cale
boyfriend
asesinan
veronica
morrer
alem
marlaska
platform
##aderos
dispuesta
##96
supervis
situation
agil
inaceptable
libremente
emocionalmente
goku
fragil
faro
fresh
lidiar
exemp
##enes
decida
cuern
juegas
dise
asesoria
obligaciones
dod
juris
magistral
infla
cronicas
desgas
lucifer
tapas
##adisima
porfis
ily
##track
##quistas
dramas
supere
reportar
extrem
abrazarte
encap
##ffic
efectivos
lembro
denme
nv
enmar
##vedo
vandalismo
locomo
meteo
##ghan
echale
pete
atractivo
chato
ruf
pertenecer
prestamos
cerramos
mell
##taduras
recorte
acondicionado
repiten
astrono
algum
enojan
cambiaria
##kia
boyaca
carb
102
entregas
private
convirtiendo
preciosos
recientemente
building
sobrepas
descarado
momo
patetica
rodolfo
soda
magallan
insens
cagaste
transferencia
kook
##identes
organizando
feira
animalitos
fibra
fallado
legalidad
##86
##ups
pelle
comerse
##fem
desgar
thousand
comas
minute
humilla
simulac
borregos
esmeral
cette
restring
avanzado
astrona
added
exer
comecar
participado
confie
galapa
conche
obv
decep
chubut
cambiamos
collection
sabran
m²
desgraciadamente
preste
##taneo
derrotar
ngm
desple
speech
sentarme
desplie
mananera
caidos
contestas
##vote
enamorarse
birrete
sacaste
largue
corral
tinta
profun
jajaaj
starts
armonia
siganme
chinese
perla
##terres
hundir
anibal
##rales
italiana
##cedente
pretexto
dispositivo
revelo
decencia
inventan
##seguridad
##xos
##reo
tecnologico
uuuu
expresiones
bigote
##avote
oasis
picada
shots
hund
merienda
libreria
##itooo
##grafo
moren
panuelo
lavarse
contrasena
mls
tradiciones
modificar
olymp
himself
bundesliga
flashe
computa
aquela
indol
catalina
ubicada
##42
gola
utilizado
##tarias
##shs
infografia
desmen
##etta
licu
flexibil
extras
sans
powerful
considerando
farmacias
##pd
kenia
##세요
bucaramanga
arms
reinas
moleste
dobles
quiser
experta
britney
miller
contagia
martillo
resil
##zin
activista
##trich
defensas
disminuir
humildes
retire
paella
intellig
process
romano
gallinas
cock
burn
generalitat
listado
vinotinto
holi
chiri
pasadas
pola
brujas
usurpador
espacial
arabe
tamo
##tenible
mares
peces
ensayos
taxista
putear
##gestion
ich
compramos
limpiando
joyas
masacres
desemple
incluidos
##timahora
lavo
chupen
mateix
##jal
patag
##altres
medicas
odiando
valeria
sisis
fierro
adicta
interesting
##eli
irrele
##kat
reencuentro
##bull
##iance
lov
extremada
ofreciendo
tirarme
##cket
credit
acostar
relacionados
emociono
referentes
quisiste
decido
contrac
vecinas
publicando
btc
##영
m2
chad
ciclistas
cajero
qatar
pasqu
consola
saya
valoro
103
##tidor
joga
despertando
##deno
drin
##bn
quincena
cinemato
intervenir
pampl
##soo
concesion
obligan
gobernando
tematica
indefendible
macrismo
tenedor
traia
canela
arme
cansados
gastando
dang
pedofilo
##tuosa
jejejejeje
leiste
vendieron
progress
lpmmm
trasno
respalda
caricias
guille
escritores
generado
atrae
persever
management
realidades
acompanamos
##meno
haw
romeo
asisten
chila
deportista
escalo
repeticion
haganse
##rion
##wners
projimo
afirmar
promocionar
problems
lorca
language
maravillosas
##구
##iantes
busques
despejar
zarate
sego
##ated
tene
probabilidad
tears
##kai
moron
eternos
tyler
caguen
kien
odon
extiende
sche
rees
주
text
identificado
decidieron
lour
##noticias
##roll
plancha
comments
regresan
##bucks
blus
pastilla
anticon
##diario
olimpicos
eligen
fauna
gimen
mitos
iconic
tous
publicada
##hte
replante
coso
palme
chiquitos
##sche
promis
tamos
infinity
gratitud
puma
##umb
cake
##ulin
admito
freddy
rober
pauta
corin
munich
doctores
jueputa
phoenix
tratas
title
##eiro
recrea
##anova
industry
##jour
educado
identifica
esclavitud
foresta
##lt
berrin
daremos
yay
portavoz
##follow
##cue
cba
estadounidenses
tive
##dosa
judas
prostitucion
bby
cedo
##horia
nich
estall
technology
garzon
jajsjaja
thel
ceder
reacciona
dieran
ligera
salch
disfrutan
felicitacion
sacarse
tenim
gia
violence
##gias
ltimahora
ein
electricas
vigna
siren
nevera
regulacion
##zcas
aseo
profu
mecanismo
106
november
coqui
##izador
mediatica
valiendo
##teccion
banc
cabildo
chegou
cintu
inconven
tinto
seriously
alrededores
endeuda
cord
possivel
presentaron
creada
##hanna
catastrofe
disculpar
modulo
valles
almir
conduce
pantallas
##과
sonaba
replica
calzones
##さん
##anne
selfies
presenciales
boicot
##87
practice
cuidas
guino
referencias
##형
sente
sutil
irregularidades
tokyo
descereb
hablaremos
fastidio
granja
marque
mortalidad
canchas
philip
federales
lul
selca
oliver
occidental
scoo
##loga
trascen
tradicionales
333
인
actualiza
singing
nuca
longer
sarah
makeup
parlamentarios
juzgados
restable
extremadamente
deco
desculpa
##ised
reciba
fec
especialidad
pessoal
##entenario
##84
existencial
pretender
britanico
##geous
ludo
trash
chupo
conveniencia
acordate
##isss
current
##tsu
piratas
carv
hug
c5
soccer
##zarse
devol
##유
##ilios
##miro
especially
##ori
sucursal
uta
contaron
autorizacion
peligrosos
##oros
estigma
arr
mimi
##cenas
escritura
dioss
broad
musicas
ahead
frustrado
##mtv
sanar
tirano
##mbers
guaji
juliana
atmos
cuestionar
conservadores
apoco
tubo
rapidos
depto
pim
conversando
opres
dentista
아이
2⃣
##plus
##erais
emitir
diffic
aplaudo
tentando
austeridad
aprovechen
incompetente
vestida
actualizado
resuci
petardo
##chea
haciendole
aguero
trece
milen
ruego
esperaban
pusimos
ajenos
sufrimos
maravillosos
remedios
condenados
target
dinamarca
perry
entreno
pao
torr
apr
##cino
subsidios
##fun
subas
pretend
vallena
perpetu
##bye
alexa
tarro
charly
expediente
rakit
zombies
##tam
##essa
dignos
acercan
slp
amazonia
intox
insegura
frito
isma
twite
machos
desconec
##sjsjsj
verdaderas
1m
huerta
operativos
obrera
finished
riquis
cagarme
gear
rate
##aving
quebrar
##레이
soltando
llevarte
incompetencia
paseando
sane
amy
hacerlos
gand
ffaa
##igne
graciosa
dante
domination
acoste
lance
ayudarnos
toxic
meno
mudan
cuidarte
kl
cao
invitada
##trero
jennifer
##icienta
copi
recipro
convierten
##itta
hartos
adren
clausula
medallas
##bie
visitando
ville
fanart
hashtags
##zable
##uxe
demente
criptomon
preparan
pobrecita
semillas
protegido
inesperado
skam
formado
antar
oportunista
agarrando
competitivo
supervivencia
bsc
defe
revivir
desmo
replic
moralmente
saab
amnistia
canad
grabe
defenderse
lus
lacri
vomito
tardan
actuando
leyo
finale
foram
confieso
montado
recep
corp
destruyen
##dme
##city
strugg
oui
##tuk
antiguos
entende
104
molde
selecciones
transport
usamos
explicame
analizando
consentimiento
prover
##ister
osas
rakitic
fortalece
nazar
jsk
quina
mintio
egoismo
concuerdo
concentrar
##tillos
devil
##ificados
entregaron
nadar
isab
alegran
avellaneda
##andote
##cible
##gay
oooo
casal
defienda
botan
pamp
quedateencasa
verbo
oku
creido
pedis
prieto
acuesto
ska
comprue
##idra
explora
commission
tremendos
estacionamiento
urna
maite
##ibi
youth
starbucks
zon
inglesa
desarrollado
dpto
pecados
animals
quality
mientas
bloqueada
medie
##01
bullrich
##tecnia
valdes
generalmente
brun
##peta
casta
eval
estimados
diferenciar
8pm
deberan
##iser
despren
moco
subvencion
terrenos
madrina
##iertos
porn
potos
reveal
##zzo
bebiendo
audiovisual
##ไม
separados
amateur
equivalente
commer
##ield
##calada
correg
camaron
##ㅠㅠ
1998
##dsm
grada
acertado
pame
destruyo
accoun
pk
bancada
inser
instancia
kalo
19h
kms
abortar
##tmund
enviando
alvarado
copias
##baste
kes
##udito
irlanda
##aturas
montt
rather
afortunado
futuras
absor
vendedor
changed
diploma
##marketing
rent
electric
##vale
##adio
yon
billy
chach
pasarme
##zzz
creci
locuras
##amarca
faith
jjj
separado
##bul
european
row
crash
querendo
derrotas
acompanamiento
padilla
levantas
sucios
covid2019
author
##calle
cerati
carvajal
alineacion
leia
escuchalo
115
##msel
iris
sume
erte
third
pasillo
reputacion
##bot
legalmente
##lock
zapatilla
barreras
insin
ingrese
zanahoria
placeres
depu
##hao
ench
comunitaria
mejia
##┃┃
##distas
actue
hermosaaa
volves
llevarme
mandarle
catolico
pagarle
##석
bordo
romantic
cheddar
brasileiro
captain
metropolitano
obligados
minimos
화
acero
prenda
negociaciones
crec
##etero
conlle
d2
cocodri
culera
해
espino
comience
preli
motores
naco
kep
animar
noti
engine
##eguridad
glorioso
supieran
empanada
shirt
gastan
stf
website
bulos
delta
tete
iker
lockdown
delicado
anular
gooo
artesanal
altar
protegen
##cke
sena
quieto
arabes
losing
tul
##aaar
informamos
loto
satu
metia
##uh
mundos
##adra
desesperados
cinicos
convence
2a
frios
presume
invers
stadium
screens
insulta
burger
baratos
ost
moyano
##urt
guard
asesinaron
maipu
##like
aplaude
fallos
susur
##hashtag
recupero
balazos
##itarismo
##alco
salo
inundaciones
##ivar
lalo
admirable
생일
##ст
##89
carrillo
finalista
##daaa
primas
granito
alemanes
##dae
confunde
obligada
forestal
##ughter
##pet
maletas
mui
everywhere
arriesgar
fatima
cursi
domina
construido
brutos
camaradas
cicpc
military
##훈
haceme
cartu
lobby
arrecho
respos
cantv
churros
recomiendan
comentan
##vam
investigue
morre
french
difference
singular
cupula
dortmund
matas
soros
permisos
acusar
acuerden
colos
##isti
writing
arjona
arregle
estallido
acier
comence
entretenido
respondes
millenn
##tuve
contraloria
modera
existan
lux
##성
beyonce
osito
completos
plot
haven
oler
evidencias
eliminatorias
##minente
lindooo
blues
canton
handsome
homosexuales
tristemente
abrace
perifer
incidencia
ciberseguridad
caute
perdais
palestina
lgtb
kok
##운
abandonados
satel
##ajajajajaja
##hahahahahahahaha
puntas
##zamiento
themsel
aaron
##juan
princess
wedding
pesadillas
desle
demuestre
kirchnerista
volo
chupando
지민
korean
consecutivo
debiera
wwe
ignoran
conveniente
prendio
gain
ahgas
racional
diadel
zone
favou
sueltos
marbella
bian
sintonia
kab
piruleta
##xuales
dulzura
causado
gives
peu
auditoria
##ficiencia
pescar
posts
##pie
echas
##alds
##mier
delanteros
toalla
leemos
johan
chingona
turistica
##heimer
nostra
huesca
rita
boomer
jajajajajajajajaj
##maria
estrenar
calm
aproveche
recuperado
encontrarte
yoo
gozar
vladimir
portra
laser
obtuvo
feet
viajeros
experimento
##toro
mortales
dybala
##rud
insur
lazos
##ering
subvenciones
gaston
callen
term
fiera
totales
##mens
gregorio
adolfo
sonidos
wuhan
vocab
##yak
juntarse
contrata
honda
preciosas
##elf
##tex
##ientan
agusto
exhibicion
##diera
alcanzan
dress
##ullo
intentos
pagados
wilson
##ilater
conocio
empecemos
taxis
temon
##거
monas
redondo
estela
moviendo
jadi
diente
gratuitos
venite
franquismo
##titlan
aguantan
indirecta
ideologias
compet
mantenido
colgado
##bour
parche
##icha
tecnologica
desviar
contact
teacher
maza
ganarse
##piacion
112
##ttt
volter
olas
##idio
enganan
whos
academy
##aded
taquilla
paid
sabores
recientes
ancho
insultando
certificacion
ucv
invicto
associa
rihanna
etiquetar
bochor
vamooo
activistas
rango
sina
##dc
capitales
masterchef
religiosa
chantaje
despacio
mtvlastories
vagina
samb
british
valia
isaac
hunter
##bow
controlado
coste
3x
numer
eden
envej
tentada
quedarnos
##모
##alta
##geno
bruce
qq
colonias
rush
caritas
alcantar
소
##าก
youtubers
yuri
equis
escalera
castigar
##titude
worse
themselves
##coli
sabrina
cancelacion
carnic
aceptacion
optimismo
##erie
caridad
bday
decadencia
assange
racion
##humano
mercenarios
merendar
delgada
putaaa
4th
pog
##ean
##umes
##gens
forestales
difam
saudi
jef
strateg
catolicos
mostrado
##pra
##tiste
miti
mandarme
within
espanya
##elente
honorable
circuns
tere
tati
fabul
voley
acercate
##coco
##urbano
eslo
launch
vanguardia
inmue
##atico
##pecu
hambr
historial
jaz
irri
lentejas
##mamos
fifi
favooor
islam
paolo
visite
engordar
nacidos
hacias
cabez
##cania
convocado
praia
provoco
bbva
mtvlainstaar
motivation
zoe
##urin
원
jornal
tocas
crew
brasileno
extraterres
falling
judios
djo
titanic
##acks
acomodar
prior
##querias
notes
cargas
aes
espectadores
extranos
journey
espectaculos
lex
##スト
##cato
graci
rape
asiii
according
##crip
trabalhar
menciones
destinado
trasladar
neto
sek
voted
exhor
pepino
altamente
##abal
burlan
oliva
facilita
masas
multin
ofensivo
lote
kro
##patria
trabajen
さん
homicidios
##cters
campeche
avisas
shrek
versa
timeline
cars
cancelo
##hahahah
##press
disfrutarlo
retrato
weverse
ibiza
cemento
tributo
ayudamos
doritos
endu
##bay
patagonia
kala
ocupan
grace
analista
regalito
descansen
miramos
mont
acordarme
unfollower
charts
nisi
anonima
normativa
havent
grano
viram
##lear
jason
##cuenta
machado
caver
residente
vagab
llevarlo
juntada
gov
agrupacion
radios
atencao
invitaron
##club
cupos
europeas
contiene
##tlan
formo
robles
popularidad
nisman
##online
##mbas
totally
rodeada
nula
안
에이
vatos
##tang
sacud
450
delegado
sion
sorr
pasito
doctrina
intentas
wasnt
incapaces
resguar
##tens
gerard
abrieron
monstruos
##dice
dollar
descargue
##craft
elegancia
mec
doub
anecdotas
nach
pegas
horny
2k
podio
cats
interino
gaz
janeiro
verdu
##anera
comenzado
agrado
tenerlos
galaxia
trabajaba
##gged
grup
enrollado
maine
obstaculos
doctorado
agricultores
empiezas
reido
rastro
saludables
perfectas
escuchaste
afectando
##grafias
##열
nacen
maia
calv
crypto
diamante
santana
##fw
twt
aceit
carrer
goodbye
known
apague
desme
singa
crearon
university
olvidas
##lenge
surprise
chorizo
##ariales
mourinho
iluminacion
bonus
muestre
lliberta
##께
inferno
jessica
lmaooo
mamarracho
saqueos
acc
showing
despar
comiste
predi
crezca
cherno
##베
pff
##acito
##adilla
##분
sufra
hater
devolucion
jikook
nancy
comunicate
##charme
scared
aprobada
peques
board
##vani
##monte
pup
dolia
robots
##imes
##joz
1ro
dinamicas
vicentin
##mony
##andolo
##cup
sti
fallando
frozen
sahara
standar
##tenos
peninsula
##igno
ajenas
##posito
limitar
soundtrack
maquinaria
preview
savage
quedense
pantoja
biodiversidad
sospechosos
inventado
higua
respetando
ahogo
lyon
guarani
retrans
colgada
chismes
detuvo
paisajes
americanos
expectativa
justos
joon
tengais
conmemoracion
##santes
##ins10s
zac
##หน
educada
##cedo
dari
eating
##vey
registrar
##djsj
suffer
jaque
podiamos
##idamente
llevate
burlarse
simulacro
condenar
recta
desmante
##istic
expect
chanta
marro
odonto
shooting
carib
agropecu
cloacas
discute
famous
##cron
##boo
recordaba
sovie
tomaba
chape
animas
scien
internado
##games
professor
utilidad
aclaracion
spirit
##rucho
granos
##ligo
librar
parlamentaria
##bien
disturb
##bios
sanos
macron
l6
acostumbre
hamp
divorcio
jajajajajja
fv
##ash
educativas
asta
muestro
##oral
perderme
emergen
##itza
problematica
tha
inician
deli
confirmacion
operan
jajajajajajajajajajaja
plenamente
rup
escriban
descanses
reactivar
entregue
celia
variar
prendo
repugnante
psicologica
kcaargentina
coja
descubrio
yello
utilizo
ediciones
habilita
doblaje
ronal
warner
1990
dila
##dromo
##ucha
higuain
italy
acta
matt
amoroso
##tems
tlal
bestias
cuauhte
bae
psiquiatra
##93
##ıl
endo
corrido
obreros
zapo
ances
sento
dub
testimonios
##eri
ont
##popular
nocturna
secreta
peligros
entertain
femenil
imparable
volviste
melancol
##iarse
common
gastado
gates
shi
salmos
recibira
intermin
loja
donut
##versa
caretas
##inero
disfrutalo
labu
acomple
entregamos
tiii
##yang
ibarra
score
bioseguridad
celebrara
tente
remun
curiosidades
puebl
inbox
chava
vl
conversatorio
##เล
aid
conser
sabana
##pone
teamo
guau
dg
confesion
growing
lourdes
erro
climatica
justas
##ifique
restaurant
bicentenario
billones
enl
singer
desinfec
pity
nanana
congress
haberle
auda
putisima
acompananos
expri
oscuras
vendan
anestes
wt
##lem
sucediendo
backs
interactuar
##quir
abismo
letter
##venir
supervivientes
##lement
pavon
madonna
outfits
adelga
uba
127
hunde
esplen
genetica
yeon
baro
pamplona
leandro
soporta
toyota
##ست
vinculos
preval
families
2030
reee
rh
sida
entiendas
conserva
cuauhtemoc
mgma
explicas
apago
ponle
##wick
consell
characters
videojuego
puri
practicando
afirmacion
superacion
infraval
viver
destaco
##91
direito
moverse
acaben
titi
lok
compartio
recreo
##tare
##yne
hamster
flamenco
formando
rappi
pancar
bub
cartelera
##minas
majo
hormig
dramatica
reinv
##istencia
##aasss
decepcionado
##cto
reparar
humberto
albums
irnos
realista
precious
custom
tria
proprio
ohh
oscuros
##peros
##enter
excepcional
pasala
misterios
chul
memori
sando
cunada
denunciando
reconocio
lolla
armario
shine
seul
levar
contaba
escre
tijeras
euph
ejecutiva
involucrados
dorada
taba
talca
retroceso
atrevida
sdds
xenofobia
bernal
adicional
sort
bailes
##คน
inoper
balones
creden
exilio
accesorios
morris
radar
ugly
swear
multitud
ceb
aeropuertos
loko
curry
apariencia
estro
embo
acordado
triunfos
petrolera
elevado
mansion
muerde
burros
marie
sabria
amiguis
ods
vallenato
hc
fish
poble
aras
bondad
indiscu
aerolineas
silvestre
mural
bbb20
procede
bica
preocupaciones
##dedora
israeli
##rap
carin
luke
gentle
duracion
##tivan
##lah
algorit
espin
camita
encontrarme
dina
karla
torcida
bichos
bolu
warriors
realizacion
inval
creyo
reportes
pajar
confirmamos
angie
##teno
saliera
restriccion
llegues
oriental
suppos
sponsor
pajaros
##grados
jajajajajajajajajajajajajajaj
##คร
solcito
requisito
gf
casados
localizar
ingredientes
desilusion
arrob
##pts
dejarnos
capi
cronometro
##olio
trend
despertado
sete
##aga
bostero
generation
ponerla
hispan
custodia
tape
expand
laboratorios
chaqueta
dora
##avel
conference
defa
sospecha
##atre
salvajes
atletas
villas
elizabeth
filial
ideia
fill
posee
amarillos
haver
moving
someter
respiradores
##legal
favourite
bielsa
modes
liar
eligieron
gak
##dm
uruguayos
tesla
excepciones
resist
nisiquiera
mimo
previsto
사
anticoncep
grues
voltereta
vaig
crueldad
##eu
sampaoli
semilla
disfrazado
virginia
engend
despreciable
##idora
penitenci
adrenalina
seba
##trante
vain
gustara
nefastos
morras
cortando
zelanda
lloraba
finalistas
##rem
creerlo
ramb
balazo
otorga
asada
renueva
indicar
diagnostic
##dargentina
trueno
##ev
cantantes
square
##metra
mayonesa
observatorio
maternidad
subje
parodia
rocket
##fh
repitiendo
deriva
atin
trajes
autocon
rendirse
##dkdk
monaco
copar
lanzado
##shine
apto
ambientales
olvidaron
maro
alcorcon
stans
externa
ops
procurador
minus
##glia
fantastic
pasajes
clash
##uan
desocu
cosme
##cursion
##cadores
greta
pijam
created
contactanos
mananero
folklore
##riel
##64
evite
admirar
zacatecas
mercadona
malu
derri
ars
panaderia
fofo
manifiesta
profesionalismo
emiliano
pelirro
recover
invia
7pm
forzar
mouth
ian
perico
mabel
vendi
bloquean
pelada
ensenas
있
cruci
sg
spoile
volvia
ganes
tactica
rcn
manzanas
lips
fallan
compositor
haganlo
achar
##isten
tapia
conazo
rir
enor
moncloa
aceptado
gameplay
razonable
curas
patern
##ен
recommen
cervantes
animate
pocho
pita
clausu
preocupo
bua
aiuda
cinturon
demons
pateticos
nominados
rdargentina
meterte
saldria
mone
정국
hbd
senhor
ausente
perri
evitarlo
##57
preco
papito
hurtado
pertenecen
incompren
intimida
buenooo
casting
aldo
rigor
malestar
memora
acostumbrada
llames
백
geografia
sublime
simply
fotitos
##quias
qro
retweeted
##fn
estarias
llamarse
callan
##itora
ultimahora
sacarte
narrativa
guerrilla
##moros
erick
inicios
sensibles
ancla
traffic
##วน
idiotez
evacu
apolog
pelicul
enamoran
antemano
lluv
caye
biberon
cagu
recompens
continuara
mapuche
ofenden
gasolin
##ify
rinon
callese
hispano
sabremos
mend
wak
supos
desinfor
inj
aumentando
comenzara
ponian
wikipedia
falten
##loe
##cn
diadela
ascensor
##inidad
##rain
grie
gobierne
cesped
locomotora
calientes
contesten
##vant
boc
intimidad
heal
septimo
nacionalismo
##manuel
ilumina
destroy
mueres
economy
piojo
simulacion
trataba
aprobe
sirena
soja
alzheimer
reyna
entendieron
velvet
ponto
remontada
ayala
mientan
inmigracion
homero
##iol
respondido
dim
atravies
conspiracion
completely
subnormales
cerdos
confort
decima
temuco
claus
felicidade
janu
##퍼
escondidas
tuite
vendedores
##toy
desmayo
supposed
nai
##mentada
panales
extender
habito
tecno
ibero
disparar
cometio
croquetas
10k
drunk
obre
##rest
ardu
agricola
platon
chetos
nude
desescalada
ligue
avanzamos
yep
##kj
turnos
ramiro
carrasco
tenen
chela
artistica
esfuer
##moral
recogn
bryant
tiver
영
##อก
barbarie
##mmerce
detuvieron
sustentable
caud
conectados
wood
gatita
borrado
recorriendo
##jor
everton
##tap
caniche
termica
oxxo
exteriores
hptas
esclavo
boris
experimen
saltan
liquida
##rak
##51
arenas
presiento
upd
individuos
2024
falda
arreglado
##frica
jua
componentes
campeonatos
lanata
documentacion
##nik
##riado
anabel
vor
superficie
##drian
ignore
##arelli
1994
oleee
martir
lacrimo
nutri
torreon
##iberales
manes
lipa
osasuna
aya
##데
visitanos
soberana
##tivismo
cec
##uentes
lorena
realize
sinceros
canelo
##atlon
appar
criar
mercurio
solto
dida
tardando
naval
cncowners
perdedor
envianos
ofrezco
independentista
padel
romo
holding
bater
##matic
kul
workers
injusticias
entraba
quisieran
matters
##amental
dna
intensos
amenazan
fomento
llenando
##fone
abstencion
callada
agredir
##tanea
stereo
blinda
##pedo
octava
xk
adelantar
infinitamente
mojar
asesinada
moned
emin
예
##larme
meee
pizz
solv
talks
crianca
sail
apodo
field
devuelva
babies
falopa
preocupen
nct127
##diar
grazie
miii
##vres
##zla
cruzado
pegarme
ete
portuguesa
huevon
moscas
joseph
##erna
seguras
dejense
departamentos
autora
sudad
guac
multimillon
paradas
limit
luca
desearia
jimena
preguntame
asquerosos
stro
##zia
vasos
##hom
espectaculares
lindaaa
demostracion
comparado
##ciado
kami
carry
abrigo
hq
acuna
1989
##gente
mamavote
incorpora
##icoes
faltes
tooodo
##생
loma
dras
reprimir
##amin
aurora
dictaduras
hablarte
ombligo
##fg
tampico
트
pasalo
gaza
stalin
pinte
operadores
paypal
##าง
arquitecto
tuuu
decided
ocurri
bocha
violando
##ро
tardado
despierten
falsedad
hege
grupito
lake
hubieramos
noal
##idi
depa
jota
perdia
impedi
sustento
saa
plans
ilpj
sagrada
indico
atraer
pampa
morata
escabio
biennn
republicano
fero
pitch
size
decimo
hw
##roy
icar
defendio
terceros
pedofilia
seconds
##vato
amigooo
patrulla
klopp
renovables
soompi
finalidad
often
nur
lewis
taeyong
inconstitucional
usaron
mecanismos
##dano
90s
##ondo
moltes
##atia
submar
guns
atletismo
mantequilla
empen
##grana
simeone
##tecn
peticiones
golpea
##iving
apelli
programar
##anga
papeleta
diesel
habitat
mgmavote
##teful
quisieras
incongru
llibertat
galletitas
shazam
establecimientos
desconoce
andra
temblar
arder
##base
places
asegurado
blind
milicos
supporting
christopher
##xia
leelo
fueramos
##jajajajajaj
patrias
milhoes
planea
oppos
besarte
principiante
##500
anita
cascaron
conseguirlo
##uns
piens
arrechera
disculpame
distraer
##avaca
esconden
esss
adje
instantes
trampas
##rell
architec
facial
esther
amanecio
##inten
bv
former
einstein
##raid
sergi
brindo
##kee
abdomen
nora
emocione
regresen
amigui
silence
favorecer
indicaciones
daw
provocado
kelly
mejorado
wasn
fases
postal
##hae
##mark
derre
vegano
aburridos
##izales
religioso
planos
##fobo
disponibilidad
micaela
fortalecimiento
changes
acoge
desplo
etico
poc
euphoria
##fare
instrumentos
##mtvmiaw
banfield
nombrado
impeach
##papel
##ening
versos
asesora
sunset
insos
acuerdate
pasate
dlv
hacerlas
exagerado
development
bebito
gijon
huachicol
racism
reo
acariciar
##taza
lesbianas
bout
estereotipos
sandoval
bellisima
siestita
strange
desnu
pintan
larry
devuelvo
wr
##alan
desinfeccion
reser
consideracion
cultivo
fascina
resident
roble
##guense
gorgeous
suscrip
knowing
desaparecen
llamanos
sensibil
cev
indios
imaginen
divin
premiosmtvmiaw
##fri
masivos
##fast
##nen
tantito
##stic
legitim
flower
dones
causan
내
algodon
paaa
islandia
agencias
ilove
acabei
cambies
djokovic
gnt
cantado
cok
lamentamos
##dle
bangbang
##kaj
210
reporto
ronaldinho
faltado
presentarse
desgraciados
perr
industriales
tuiteando
disenador
paty
rebaja
tiemp
results
cacao
patrones
rare
peregr
sacaba
wind
##andoms
volverte
outras
alboro
##urion
tropas
gucci
indes
##hehe
emite
tolima
cil
salado
jongdae
confirmed
conservador
alves
trob
ruidos
meade
##any
republicana
bendecida
tobillo
reitero
guapas
ordinario
skabe
session
##leces
suso
##たい
##alobos
ilpjusa
nissan
univ
creible
dus
conci
a3
##ret
recl
desgracias
corrida
nacieron
confundido
danny
blda
tronco
corrector
reconciliacion
##แล
##bita
certain
cangrejo
temblando
bancaria
juntando
trilogia
##ciende
guajira
tds
##maciones
1995
formulario
gallegos
espert
찬
print
wings
villano
##phones
tirarle
##uba
fallido
aless
desahu
##timas
estandar
acess
paranormal
despil
acercarse
embarazadas
posadas
wachin
corina
vejez
celulas
reducido
mota
tuitero
esports
##스타
hyunjin
audi
##icada
perverso
veterinario
desvia
durant
##virus
rolling
parir
apellidos
##som
##ceta
ansioso
parchis
obel
incansable
pablito
falei
invierte
legislativa
turbio
envenen
##onon
verific
jc
manso
paisa
ting
ping
##cional
##ramer
descubrimiento
pg
opportunity
bright
hh
exce
talented
optimista
conectado
largar
##used
لا
nostre
##abilidades
##ategui
segre
##four
antifa
ministerios
brook
##plas
morirse
economic
expulsar
##sip
ccs
##tipo
amenazar
revolucionaria
nulo
criti
alumb
linke
permanencia
sms
##quiel
andaluces
recinto
cortaron
malandros
quote
estrategico
tino
sensacional
clubs
existio
neca
apoder
함
hondur
boletas
somo
neurona
vola
loop
elegidos
comparando
quemaron
file
##ayo
aprueban
scio
aml
dignas
manito
btson
1997
##idia
##rerias
curiosa
sugerencias
mts
##sab
cuernavaca
##제
cambiarlo
ident
buat
##inde
ingleses
atrevido
joo
##rum
polines
painting
testing
rule
memorias
##rupulos
prudente
juntarme
lastimos
calls
caera
lector
morte
6to
gela
etiquetas
advirtio
clon
کی
prod
summ
figure
araucania
mepa
cenizas
preventivas
rech
##uses
nafta
odios
desastres
##fy
scu
acompanarnos
sinfon
acessos
cuz
billar
millos
##ได
luisito
##rear
distribu
rosales
financieros
disfrutamos
graph
bartle
##decir
veian
inminente
##ienten
monar
vanessa
frita
rosca
ignoren
investigado
champin
safa
arruino
##ปน
bose
##uring
##ᅳᆯᄅ
adi
magallanes
llamame
chida
aznar
##tificacion
choro
penoso
gago
escritora
virtudes
mxn
quest
antifas
cargan
esperabas
##antha
kyung
correctas
adventure
4000
infame
##cante
incidente
weak
arreba
desal
perdonen
##oosss
oriana
kyu
magistrado
totes
intolerancia
chicle
gimenez
cultivos
kamu
comieron
tragos
baez
tacones
fdp
lunar
culturas
desespero
progresar
##या
usb
pepa
##rao
cobrado
bingo
tivesse
제
exacta
turned
soph
adjunto
lloron
##rants
##pain
muertas
segovia
cadu
18h
##nam
##دي
imposibles
jee
teleton
obed
calificacion
interese
forum
##sexual
graba
natacion
baron
penaltis
##domin
vano
##our
1era
labura
thril
reproducciones
aussi
pandilla
##dent
faltaron
fed
manjar
bueee
dolido
confiamos
badajoz
##traran
italian
##limite
licitacion
coto
anotar
japonesa
##informa
escog
##ック
altamira
sabem
caben
##indus
carinoso
inmoral
mecanico
pakis
##pando
restauracion
pacheco
royale
yellow
celes
papitas
insuper
inserv
centre
dres
menino
cantaba
##kins
observacion
buscarlo
emotivo
conseguimos
seda
adonde
sumado
fuaaa
totalidad
pasquarelli
globos
matamoros
catar
guayana
homes
buah
##까
canje
masculina
echamos
passou
filtra
##kir
chavos
lloras
##iaaa
miaw
123
olivos
##hr
avergon
##ictos
corran
lyn
##burg
twiter
##cuy
doug
flequillo
seguid
instinto
burocra
cito
dimin
decidimos
espion
meant
##dest
racial
pelotudez
normalizar
##bic
leaving
quererme
psicologicamente
##ag
saiu
satanas
aguac
congru
##cheros
comunitario
jajsja
busquets
vigencia
mejilla
몬
quirur
recomendada
mamando
copyright
rolo
##لى
verbal
dao
abundancia
nombramiento
indicadores
empobre
refineria
lovers
bryan
bangbangcon
divisas
aterra
100m
conste
##pina
coll
gilada
mulheres
llano
metete
asignatura
##ulaciones
##mat
cate
agresivo
annoy
santrich
dejarla
illa
millions
feminicidios
colonial
henrique
seno
jsjsjsjs
d1
dying
walmart
dineros
##conf
acabaram
thelma
iman
cerquita
##papa
registros
superando
rebano
averiguar
escritos
tablas
ritual
##ength
##gc
##pila
artistico
saltillo
bruselas
interpreta
explicarle
viceversa
sintoniza
lasso
cables
wena
orilla
nord
neigh
pull
##ット
sunshine
egg
organizamos
investigan
quitas
nicara
##playing
도
flipo
civica
neoliberales
consumen
##fanart
enviamos
preservar
pote
resuelto
consigna
##ᴇʀ
smil
##ра
##lak
lactancia
alac
shoot
recurrir
amore
galo
smartphone
##dupar
##photography
incorporacion
fucked
pepsi
gordas
copio
cafes
##のて
mazatlan
decirnos
augusto
guate
pedian
recoleccion
##ᅧᆨ
cell
cidade
flui
goza
emiliaco
sedes
estresada
alice
centurion
chats
aviacion
callados
desve
odiaba
tablet
casada
imitar
jsjaja
discoteca
proponemos
sugerencia
alch
visualizando
paulina
nb
destitucion
math
##pac
oreo
labio
habras
##こさい
cercania
##seo
pascual
##cillo
acaric
explicamos
parecida
importaba
ligero
riquisimo
besame
extraord
ecologica
abuelas
driver
bj
제이
tuviese
consiga
##age
perisco
lots
jamaica
5m
##dazo
septima
vosss
bengala
jajajjaja
cabecita
enju
valde
tuca
tomemos
abiertamente
mambo
##quilib
##ของ
environ
dictadores
##chia
haik
ventiladores
fotito
voluntariado
ald
##celo
digame
plasma
mediterraneo
musculos
##ralo
sonia
##days
nine
atp
##zes
antibio
crucero
viejita
4x
chapu
##더
##achu
destacados
contagiado
acontecer
##idel
killer
industrias
eliminatoria
fantasias
sucesos
##وم
ilpjusapol
ojito
ciclos
coordinadora
mirame
##simo
pudiendo
dinosaurios
toronto
oposiciones
##guro
lejano
##iat
controvers
merced
none
##ienen
maio
duki
flight
juntarnos
filosofo
aviles
obispo
acude
producido
prestan
##quena
sier
repartiendo
loa
torturas
manizales
##atu
rescato
0414
collabora
anzo
strength
pintado
apoyas
licor
##senger
desconozco
preguntaba
##xtos
onc
bigh
animes
##83
##iety
respiracion
bombero
deriv
aplique
dados
biografia
decisivo
##kah
##iens
##erous
castellon
grana
incluyo
youll
##team
##grade
##pag
albumes
##pl
kend
botto
permanece
lcd
##بي
pensaron
confirme
alarmas
branca
manifestarse
decano
##hooo
prometi
yum
comunas
sordo
emisora
##onazo
democrats
obtiene
ghviplimite
mossos
espuma
navas
peleo
narcotraficantes
prestigio
derrib
periodicos
cuentes
samantha
coral
fuckin
sku
secuencia
##week
yn
sentados
##chadas
mastur
helados
sobremesa
planeando
riendose
despertarse
##elho
preferida
e3
magnific
##tata
favorece
pactar
centra
##hyuk
orar
kanye
qie
##tten
##portes
estooo
palmeiras
ground
drones
halo
##djaj
pederas
creativa
ciuta
floja
coreografia
compare
함께
barcos
와
##ckets
woke
##atones
##vieja
safety
victorios
caracteres
vam
raiva
한
relevantes
ninja
##장
##arron
##ieros
misogino
luan
critique
sorprenden
guias
announced
atreven
necesitados
exclusive
pyme
taemin
yerba
yara
##sof
regresiva
desastros
negrito
simpatico
populistas
rox
empeno
sentira
taiwan
chulada
##tivity
fraudul
jui
saxo
##valdo
siniestro
llegaria
injer
disparos
franceses
exagerada
bulo
clava
porem
grandisimo
piensalo
souls
alevin
procesion
east
##りか
##alar
puerco
operador
interaccion
celebrarlo
chik
infante
mujica
yar
anak
speaking
autobuses
suscripcion
velar
trist
ccaa
experimentar
mecha
credo
##██
acontece
investigador
jacob
cosi
##56
##ilco
caprichos
potenciar
tertulia
poker
manifestar
startup
pedacito
##garia
ganitas
conteo
revisando
lave
##hits
##76
##ciencia
irracion
secuaces
presiones
los40
gps
##ให
expe
querem
justificando
gilipolleces
compasion
nayib
eeee
##pot
##то
consegu
##ivaza
cobardia
inun
preventivo
inmune
jx
telehit
suicide
##onnn
planteo
escondidos
cucaracha
carrio
nope
waste
cass
ciao
interested
dominar
arcan
##yorum
muela
##cafe
cucurucho
##aths
untuk
celda
##홉
sobrevalorado
apan
##point
reis
afectada
renun
catalans
orale
sentindo
bueeeno
##uste
revolution
escoba
위
puntu
슈퍼
tsu
##dash
##utbol
viable
##acoa
venezolanas
##ured
lloradita
taquitos
verrr
perdes
monde
bardear
identificada
##cris
##eroa
huyendo
##fly
##card
infumable
twist
llevaban
olvidare
segur
##zel
##accion
infern
triunfa
subte
cruces
ayudaron
##04
tipe
##eart
traba
fume
##ksj
masters
socialmedia
elegimos
lf
tumblr
##재
objetividad
aplicando
exigencia
empata
pille
propuesto
bren
auge
covers
determinacion
gender
mission
youuu
condes
enterarme
ccoo
tamal
스트
tarados
espionaje
adelanta
valiosa
##bara
festejos
cereal
buque
alianzas
fertil
pern
saques
morire
aguinaldo
anzoategui
value
erika
meli
mensaj
tigo
sabina
1984
jair
exprop
sobresal
dubai
veterinaria
mangos
cocodrilo
punch
gustaron
irak
desgobierno
agob
proceder
osa
abandonada
##iempre
delcy
pelas
combustibles
guas
booo
propuso
excuse
sacate
retrasado
upon
patata
aldu
##ajadas
precariedad
payasa
##94
comecou
molestias
poses
tornado
cadaveres
reynosa
financial
amon
hallan
certamen
olivia
perde
ayuntamientos
convierta
asesinadas
paridad
tutto
roland
quebra
rapidas
##calientes
##suras
encarga
dominicanos
creyeron
sancionar
##dadores
defunciones
desab
750
bonilla
rufian
capita
january
##cripcion
##chav
trastorno
quej
acamp
mandale
encore
##tza
##dinha
asiq
franquicia
sicarios
udah
terrazas
esparta
nro
doncs
arrastrado
prestado
alejarse
##tudes
cenas
autonomo
coa
olga
multic
youngjae
jinyoung
##hamed
##udita
estem
postres
singles
calzada
volverme
aida
simpatiz
bohem
descubriendo
skills
##vista
above
navidena
tum
anex
grateful
facultades
zasca
cofradias
hds
insultan
fms
minho
##ᅧᆯ
existido
preferible
rechazan
minister
protest
astros
ansu
subsecretario
llevaran
##copio
mtvlakpopbts
afraid
##ystal
achando
preguntes
cajita
picos
##но
criptomonedas
jeong
##イト
odiooo
kits
gases
legislacion
##buena
academicos
##sales
2023
dee
chancho
pervers
##eracion
tazon
couldn
distancias
deton
idon
##instag
reaction
morgan
##zao
fraccion
##ytes
veio
cities
##rik
dormimos
contreras
directivo
elisa
determinar
atalanta
pulmones
enganche
zh
vientre
jejej
metemos
looked
caseros
inters
comarca
despacito
guardando
negativas
sdd
solte
contacta
helada
draft
obstaculo
ended
alis
invir
rl
position
##huac
predio
ot18
analo
tapon
tommy
wue
presionar
header
bolita
sopla
brasileira
viii
tamales
calentamiento
cumplas
lujan
##athe
##rador
alge
##에서
comeca
melodia
peinado
mandatario
buscara
jake
linkedin
callas
gossip
imaginando
ciu
autopro
maquilla
##tenta
actuo
atado
subtitulos
valorant
##iertan
##xis
aportacion
quitarse
##poner
kena
tragico
투
frontal
quitarme
museum
lik
sudafrica
december
partit
arruin
rial
winners
fisicas
humillacion
posada
becky
psc
fundamento
##dog
##ibu
renato
jerarquia
zambrano
mamertos
malisima
##elin
##guista
arent
revise
creamos
investigando
##dance
seriamos
yop
emblema
abrazote
trola
##bebe
intentaron
rodar
##coming
immedia
##간
internas
tinc
verdura
oigo
sequia
morta
delantera
eficacia
recaudacion
##meee
clube
denis
ndea
##gles
##milenio
volte
lucir
1992
inhumano
camisas
cancelan
dup
esponja
coyun
contador
inspirado
perto
hablaban
cacerol
putting
diputacion
dandome
111
provocando
indefen
demencia
dormirrr
beginning
deluxe
laburando
tanda
polv
patrull
obelisco
increiblemente
cresta
panamenos
burocracia
establecido
necaxa
plasticos
accesible
cj
morimos
hipismo
deteccion
공
periscope
repitan
shor
colors
carisma
org
unio
##psia
corrio
terg
escribenos
holiday
##valle
graca
##위
tannn
host
pedas
disappo
estructuras
qnd
pava
shein
relacionadas
pasarlo
flowers
imprud
##anito
berg
almeida
panameno
scenes
personita
sincron
##fue
lesionados
pak
casarse
arito
insoportables
##bx
30am
mtvlainstag
##ojos
pays
ecommerce
acierto
runner
##fire
xl
lectora
puestas
encerrar
orgulho
republicanos
worked
posar
primor
solicitamos
conjunta
estilos
efectu
brill
otto
carece
##mear
revelacion
quad
narcoterror
innecesaria
##duria
puts
tarra
reformar
timbre
##동
mezclar
intentare
semaforos
cuentanos
##icida
slip
faca
nab
mew
##daste
##iin
cansas
adquiere
enla
cuban
culeros
crespo
festivales
##caciones
mino
blm
valledupar
vrg
##utla
keeps
cabece
##eball
strike
pintas
reunen
pavadas
##challenge
##amica
ilusa
informados
prendas
minimizar
adoctrinamiento
reconstruir
molts
aplico
cagamos
hurts
##중
dejarlos
reche
##키즈
chiques
taa
desprestig
sugi
desobed
##ipo
queens
bbs
defensiva
heroico
castan
pesim
##ject
franquista
contempla
invitando
distinguir
western
constantes
mamb
lechuga
grata
mamona
cordon
limitada
##kota
vena
##irlos
##itismo
buey
provocan
notado
maluco
comentado
zelda
ismael
entendo
partners
zab
mantuvo
mimitos
wend
churras
jisung
warm
pandora
wei
##tene
pasaban
tina
spent
salian
mtvlainstamx
cuestan
mune
espos
conocimos
lama
coz
edades
quemada
clinton
ridicul
domiciliar
revelan
estic
apoyaron
ideologica
chelas
imaginaba
empre
edward
omggg
registran
arrodilla
rainbow
tomadas
feminicidio
ariste
cordura
encontrarse
gripa
alcantarilla
funcionaria
luchador
dangerous
margin
kisses
seb
ricooo
alfajor
mee
suplentes
estufa
elsa
velasco
##ddie
mandal
##monial
peatonal
convocados
religiosos
mela
bibliotecas
haciamos
disper
idols
##uxa
gendar
corinth
patrona
couldnt
obligo
bighit
weare
apesta
bartlett
##ficado
daughter
##ancias
ark
cafeteria
marley
scioli
trigo
realizadas
propositos
abracen
##olor
##vira
imprimir
paint
admision
clasista
celebrado
##moo
pig
surpas
gerencia
sorteamos
turista
echaba
penalosa
##lent
debuta
decentes
moises
antiv
##ajajja
linux
buitres
nicki
ganancia
vibe
keb
durisimo
ebria
metodologia
caramelos
##mendi
encantada
molo
angelo
gostei
molec
proveedores
sacerdote
alucinante
amster
votas
cldo
visitan
erario
yesss
corporal
saba
adan
compraste
cazar
mandaste
##jajajajajaja
parlamentario
dejala
salmon
tuvieras
noah
yaman
btsat
hacelo
##peso
carinosa
hed
retirada
tongo
##data
contame
finals
vulnerabilidad
##dec
recorre
##osss
preventa
votaste
youve
madridista
impresentables
ebrio
costando
##ived
chivo
insignific
cachorros
##tituido
perderse
arreme
guide
mang
##celona
clips
exatlon
deaths
visitamos
imperf
cabina
##kwk
espinoza
apart
30hs
rebrote
rao
generoso
tractor
streets
pegaron
chayanne
##rono
너무
arepa
lastimosamente
exor
exportaciones
lore
yolanda
horrivel
ozuna
chapter
preguntarme
rumb
##신
segundas
pelotudas
folla
donas
##alle
##eeer
hn
fazem
degus
pregon
villanueva
##adavia
##ilado
##than
entenderias
novena
muel
##alud
sila
defiendes
gobernante
스트레이
officially
##cesos
allowed
anderson
##entado
licencias
calorias
##fb
rentable
impactante
eleva
quarto
keee
cuartel
integrar
vigor
santisima
recesion
acessaram
portar
madur
xar
wy
##titi
plantar
anitta
##perci
genere
picha
##lete
urgentemente
dirian
diabol
##tanera
salte
introduccion
descendente
##politica
robarle
devuelta
vn
##presidente
##iesen
felizzz
panistas
inad
cdo
rim
intimo
illegal
ان
conchetu
eibar
valoracion
delirio
bruh
japanese
ilim
bolivianos
meninas
arv
correspondientes
adh
recomendo
##gis
quejes
aldea
garchar
holaa
##ddd
##manos
minero
avanzada
altres
quoi
request
uniste
indiferente
lain
estabil
contestando
##mena
trail
aguascalientes
envien
bloqueos
alcanzado
magna
quejarme
lixo
dp
judge
diarrea
lucio
##uerte
tumbar
##tuv
estuvieras
sabelo
brave
ladrona
juzga
##cioso
tibio
sabrosa
sending
estero
aji
visitado
moots
calcetines
vosotras
##asss
promoviendo
sobor
despliegue
nowplaying
##sei
##melon
##izade
aburren
llamara
##icious
humillar
##ologicos
farsante
cordiales
niggas
hipote
rostros
cardenal
completas
equal
##bex
##ants
sugg
desequilib
falcao
##oa
##centro
omn
ceci
samp
tocaron
80s
estupenda
ambicios
naciste
pensei
festejan
sora
nomino
zombi
1996
lomb
##ンク
##gato
graficos
negando
##yout
##cles
reform
enamorarte
cualidades
sumarse
competitividad
##vial
fenix
vitamina
vasquez
colau
conlleva
spr
rejas
honest
adele
cagarse
aconteceu
administraciones
traumas
##ristas
cuidemonos
cuid
pear
laptop
iniciando
##xxx
##rive
##atorios
simplesmente
liberalismo
##tiche
comunal
roupa
loona
papu
conhece
mostramos
##byl
mojado
rul
1x
##chil
hna
3ª
abdomin
ponencia
ratifica
caminata
repudia
ppk
mear
fresquito
acting
rapaz
subca
tiraba
lamer
didac
##내
##cut
culiaos
barril
по
daa
bf
##틴
aislado
inmobiliaria
contabilidad
coses
patrick
peaky
skuad
optico
suck
arts
##cistas
pota
coordinar
##dee
moja
reemplazar
estancia
decora
boliviano
subesti
duplic
consegue
##tadura
huerf
cantidades
discusiones
tantita
##jsjsj
soretes
ruptura
posture
hang
pajeros
guerrilleros
disenar
videocon
##ixen
maps
bailan
fronter
extradicion
amenazando
malparido
relevancia
caramba
genesis
casemiro
00hs
##max
osvaldo
mogolica
previs
lleves
##joles
jogador
llorona
comprarlo
##jia
traera
hmm
aparecieron
brillan
boric
confesar
hood
identificacion
distorsion
venezuelan
seguiria
hembra
lacalle
desapro
reencon
tenha
peg
ofensa
penita
daener
kah
bldo
pnv
##よう
amsterdam
brenda
niv
egoistas
entrara
democraticos
cuarteto
peatones
##andola
suscriptores
altre
creative
violo
alejarme
constitucionales
##erate
humans
coloco
asociados
jaehyun
suscribo
giovanni
##shit
dich
cardi
currar
jodo
##undin
derroto
libero
latinoamericano
servira
##tricos
abusar
maletin
reconocida
vampiro
pimienta
##anco
defense
triunfando
comprate
kpo
casualmente
mejoro
##limited
durara
baleares
gentes
wave
rocky
pajera
coinciden
necio
potosi
seguida
enm
orgasmo
panamericanos
escocia
emperador
daenerys
quino
services
estrada
1980
elaboracion
##gobern
existiera
cuestiona
##papeles
##aved
librerias
tontas
feli
mirate
efectividad
antor
ejemplares
alumnado
bug
##riada
peluca
pulsera
tub
amizade
pope
sozinha
ut
##เร
mencionado
##andida
revienta
veto
passado
buscarte
urbanos
##lific
##iense
rincones
seremi
mirarte
cogen
punetas
arroba
wrote
cumb
mort
embol
tomaste
basketball
##got7
att
inigual
talentoso
aislados
##porto
permitas
deveria
##macia
habitaciones
ordenado
centroamerica
descarta
##arda
sensato
representando
##dplay
##وي
redo
igualitario
##thy
##jung
ruinas
##mand
promueven
##eder
telefe
paradig
patente
laterales
oportuno
rendicion
mineros
suspendio
##ieri
previas
##uting
balde
estrenos
##antino
belinda
petit
pavos
comodoro
##부
asap
reportero
skz
madridistas
gestiones
repeat
ladies
banho
rivadavia
asumio
##lata
protegidos
reais
statement
##inte
uniformes
doblada
morat
banque
dependen
germany
민
##quier
carajooo
demuestren
pony
revoca
##주니
inolvidables
serbia
##alv
agarraron
theory
charlo
quee
sacara
pedofilos
lisboa
hipp
uniform
##urro
sebin
##osidad
existiendo
especificamente
estuviese
monopolio
desconfianza
ugt
contarte
recuperando
entretenida
audiencias
ballet
providencia
recent
lloren
##음
کر
conocerlo
grises
##sue
rias
ow
pasivo
12h
sudamericano
monedero
##mentaria
corten
##chio
arya
choreo
##ether
bela
cumplieron
championship
ocultas
administrar
peras
loss
##alll
bike
evans
x3
regue
disenado
ganaderia
##mial
atraso
casarme
intervenciones
gamba
manifesto
narcotraficante
complacen
9pm
esk
newells
comprarle
qp
olvidaste
chorra
mamerto
##82
##tiremos
tortillas
edge
##tegui
mii
protests
traeme
gour
inyec
inmobiliario
default
firman
destruyeron
jajajajjaja
perooo
merkel
1975
laliga
jogando
thalia
ignoro
trino
pensara
creian
cutest
atreves
##으로
encabeza
tril
anx
estructural
sintoma
fracasos
siri
jajajs
cules
boludes
devuelven
hagais
bacan
##dream
perturb
emisiones
##antia
salut
revive
flota
##baj
rigu
##cac
kw
stegen
administrativa
desol
ubicar
bp
destinados
bicicletas
fate
reia
numbers
cotor
decepciones
mandaba
selling
ambitos
localidades
##tx
shower
guerrera
##방
olvidaba
ezequiel
querais
reunirse
inventando
mab
##iertas
##utions
obse
empezaba
gratuitas
impossible
##giado
arrancando
##perio
220
electronicos
pleas
procedimientos
towards
jira
##garte
nevada
aere
ingenio
buying
5k
5pm
pintando
tirarse
manteca
acusados
maximos
toa
regio
coquimbo
arruina
reunido
rbd
envidiosa
##espana
culpas
democracy
lands
hermosooo
resentidos
1993
regina
لي
chernobyl
documentales
dk
crown
##urage
apuntate
caldas
##nnn
dion
conductas
purpos
enganado
lampara
advo
##tuosos
kasi
##rico
path
artesan
##case
russo
revistas
##bida
belong
obsession
quedaban
dejarle
acal
lah
execu
rayado
##ators
abusador
ecologico
shamp
cincuenta
tolerar
suspendieron
birrita
magicos
##rores
friki
ibu
turbo
##ectara
legitimidad
impuso
weibo
raid
##tups
horse
##wel
asimil
antigue
##tricas
rancio
cachetes
ined
pentagon
rezando
##logias
urgentes
##터
fratern
galac
identifico
informarse
indican
regalas
student
sumas
mirado
empatar
chollo
##ान
tvtime
horitas
nights
carlota
##litas
pertin
davila
amei
cobraron
despejado
encender
##zaran
quiet
acordando
ecosistema
##yuu
gobernado
anni
baboso
breves
##aland
bd
confunden
vuelan
eugenia
stron
ruth
manita
arti
podcas
pogba
criaturas
smh
buzon
##hai
suer
##りかとう
##tge
sabre
arresto
만
connec
corporacion
muuucho
sugiero
kardash
nalga
kol
gase
walker
kenned
visca
bera
convin
copado
allo
pada
razonamiento
cuadernos
bmw
fuertemente
elites
##grapher
ciertamente
aster
##gang
ejecutar
establecimiento
##tiven
pakistan
composicion
empezara
silvio
despilfar
guapisimo
gringa
acepten
vocero
cuevas
mots
potro
pensais
higher
indignado
agach
plantear
alc
jol
apoio
pasarse
sonriente
proc
mlk
turisticos
lgbti
caviar
cherry
massive
democratic
gw
barbijos
##ер
aser
senda
세븐
chiva
fideico
retirado
noi
coldplay
agradecen
cuerdas
mensagem
arcangel
optica
gd
##meria
sobornos
events
sembla
torna
opine
limos
participamos
udi
irani
##cidades
gigi
##gli
vivian
semanita
suspir
transgen
insuperable
anaju
##osamente
ladra
brillantes
종
esclar
##imb
agos
thanos
##telli
##plante
marcho
##ᆻ다
andorra
hercu
108
propietarios
##ibly
vicios
##습니다
escanos
nutella
respetuoso
dnd
ridiculas
became
cambiaste
bought
coba
##68
##بر
##ization
twenty
dejaban
cientificas
rezo
chorip
grin
olho
bottom
server
feto
fractura
usada
mongol
regalamos
russian
##ttle
gustaban
ignorando
biolog
banget
bond
accionar
terapias
riquezas
candelaria
amargura
onvres
pongase
##itica
instag
comprometida
subimos
arancel
defendemos
votaria
buda
##05
interesada
oooh
##pica
acontecimientos
tailandia
palta
costara
estate
##unca
mueras
conocerlos
cards
pergam
tecnicamente
benedetti
partiendo
elija
farandula
groups
berni
comprende
weed
##tzen
##xtla
##ndo
aforo
orienta
##ledge
asuste
inicie
greet
existo
128
から
##주니어
centime
buong
##titis
reunimos
recogida
etar
##quismo
acuso
effort
entrevistar
1200
bodegas
genialidad
oggi
marce
santuario
vergara
bgt
twd
ocurriendo
anula
queer
solia
dolorosa
##zacion
apretar
organizo
##izing
sleeping
feia
telecomun
presupues
estresante
anteriormente
movement
##ifo
##cientos
mapas
##piece
bernie
topic
##mour
fuenlab
sci
arrastra
mlg
precision
porras
2b
guin
tibios
leb
unes
ummm
##iega
##andy
weona
##inted
jogos
brooklyn
teruel
steel
huye
wing
##mine
glee
ord
##etana
busy
좋
analizamos
afecte
##tun
cantos
respeito
cogio
eternal
슈퍼주니어
##aad
esperare
griego
biologico
##ciste
entrep
frees
jaa
poniente
encaja
liberado
tratados
intensas
##idan
##mayor
##camos
indiscutible
fool
migrante
ies
preguntamos
exponiendo
maravilhosa
holoca
celebrity
precedentes
slam
##uss
investiguen
aborda
bronco
##tooo
evening
dell
apure
fandoms
combina
7am
inviable
agon
defensora
##usieron
lego
nombro
alame
parking
gomitas
liderar
세븐틴
##rei
funk
brought
##inea
reemplazo
apod
trading
organizan
gemelas
##ariamos
##minado
shy
temita
diplomado
##ige
saltando
salcedo
golpeo
rebas
tennis
eddie
registrada
##74
debian
twits
conforman
apostando
silent
fent
ie
merry
guarico
empod
##mund
tmbn
tau
moun
usarla
##icanas
guarderia
cuatrimestre
##bey
naranjas
pilares
bigger
opuesto
temazos
kle
cocido
graciass
##nacion
austin
clasificar
emira
falacia
revolucionarios
corinthians
parran
crystal
##gul
instala
planific
mmg
##mila
abrira
fund
##loro
inexistente
lunch
##daz
nacionalista
flujo
##ensive
##flas
refran
comedi
brc
mufa
mute
##flo
perspectivas
questa
ataco
dilig
nicolasmaduro
##iola
figueroa
padece
sabios
prudencia
unit
10am
paez
##69
circunstancia
ggg
##sary
luchamos
chispa
alaves
quique
##lett
##ᅳᆼ
twin
guardan
amber
productivos
dirty
generosidad
graciosos
improve
accidental
##fora
weyyy
chuck
obregon
##anya
proje
protegiendo
apreciacion
kennedy
trid
vallar
catalo
matu
anatomia
acuerdense
domino
womens
comodos
boas
olimpica
##══
##wish
ashley
##out
لع
fabricar
khal
fundamentos
##cav
##entu
porros
nonono
gring
nucleo
alertas
0mm
creep
latinoamericana
addres
cinica
brigh
saxofon
bak
movilizaciones
regalarle
indignados
anhelo
##millones
escrupulos
hotw
decepciona
beir
##guitas
beltran
inclusiva
sexualmente
disfraces
##tov
impression
lat
genocidas
fuesen
revisen
##atural
botin
prospero
##치
pactos
inauguro
bod
yix
encantaba
##ᆼ크
coyoacan
abuelito
portapapeles
elevar
viniste
leerte
cremas
cruzando
tibia
fascinante
bato
basur
bridge
crian
olhar
pajas
bese
piojos
blinders
rogando
literario
gine
rud
marchan
kaka
gozo
invertido
provide
prisiones
encend
aragones
##pis
kaw
##organ
##dema
feijo
innovation
conspir
lily
zumba
llamarlo
##bran
##usta
##backs
panic
asens
##iorno
tejido
anormal
gordi
mamado
gostar
necesiten
sets
callao
afortunados
postar
spurs
grandioso
vini
280
bonaerense
barbaridades
inktober
plazos
psicopatas
comunicador
depil
confundas
##ecuador
##elly
##jet
pole
polemico
deshacer
paa
muerooo
extranarte
kroos
terres
kyungsoo
mack
creed
difundiendo
recibiran
atendido
##idita
hdl
imprescindibles
ofendido
vocabulario
pamela
opresion
quarta
##ytesigo
##incha
jsjsjsj
fuenlabrada
sapos
##xon
puertor
planear
censo
peliculon
leva
cagad
escual
valore
##ไป
flora
##anti
presuntos
##ᅢᆷ
10pm
packs
##uieron
dakota
denuncie
gens
##kok
champa
basic
brocoli
arreglan
##eeen
contrabando
villalobos
320
floricienta
vencida
lonely
disturbios
superficial
insistiendo
compi
slim
xiu
cares
norona
culpo
trates
assass
angry
presunta
indicada
resurreccion
vainilla
canter
donos
morada
fachero
images
exportacion
stuck
pnp
unique
solido
fell
cancelaron
unpopular
##ivi
mouse
1991
ourense
limited
alam
infectado
foreign
##clos
genteee
##sm
viajan
guerrillero
algumas
cordova
menem
enig
convicciones
mercenario
persigu
evitando
huh
conos
mulan
wc
asumi
agoney
ezeiza
duermes
##けと
jajajajajajja
bebita
tatua
exclusion
atleta
##inary
estandares
simpatica
valley
##tricion
surprised
ximen
kad
caracteriza
pelao
pitu
##force
##misos
lite
pris
mtvlac
eugenio
aparentar
estrellada
araujo
abuse
contenedores
vacil
izq
empato
asin
tree
melen
regalame
vene
frijoles
entendimiento
citizens
##porn
barinas
pinter
sss
##orando
2m
aris
steal
incompetentes
guach
floor
disfrazar
contarles
opinando
desvio
invitame
morale
suegro
jugaran
pump
rebote
##caban
unirnos
##yola
solem
nadamas
desayunando
jup
hoxe
chicharron
##olves
gamers
professional
##allo
acojon
selfi
0424
moreira
encapuch
calumn
recordarles
egocen
puertos
insane
mauri
스트레이키즈
denuncien
urgen
dany
digale
##torta
modificacion
##엘
raz
aia
delete
brooo
mido
volveras
derby
deliciosos
dilu
migo
analy
parlar
esmeralda
conurbano
dinosaurio
violada
##arrones
##tois
duerman
doido
arrimadas
dinner
respetable
eligiendo
##cheras
##made
medieval
fidelidad
helping
montajes
무
##ditional
enfermeros
concretas
symp
beneficiarios
infiltrados
victory
petare
tique
desinsta
douglas
definen
ayn
jueguito
emm
hack
tk
fave
armenia
b2
ovejas
laughing
##브
##itats
لله
sinte
amarill
desgaste
##월
tranca
convocan
scra
baseball
defendido
240
desver
accounts
aceptamos
campea
dengan
highl
pto
lala
updates
##てい
##mates
##هم
nh
encaj
##こと
##tius
participara
solicitado
g2
blabla
saludamos
twitteros
##cribe
manuela
signed
tsss
doliendo
yesung
cica
tena
corrob
##dep
allup
apesar
##imidad
##jista
##gulle
casan
pikachu
macristas
histerica
##ologa
mariposas
leadership
fifis
##kea
jugas
manifiestan
creerse
##sive
##alona
maton
##quino
dormire
baru
smoke
sordos
freddie
tercio
amigue
ejerce
matenme
acerque
pregu
##esi
organica
##bell
exatamente
##tid
hungria
pompeo
##turizo
inventaron
inspired
aglomeraciones
##iamo
patriotismo
skype
##rien
periodistica
brito
compleja
##imetro
standing
##pion
##unters
lembra
##123
feminazis
genius
##tudo
##marco
cuerpazo
plum
princesas
colu
continues
lante
3a
##frio
plastic
##maquia
sene
gorro
imposicion
jugadoras
enterrar
especulacion
muros
enterarse
embria
jubilado
##จะ
##entales
antiguas
nece
captu
congo
desee
pipo
cebal
confian
aproxima
nepo
dictamen
amanda
dimelo
niebla
ganso
abortos
##vit
decade
solari
cet
layout
andrade
utopia
yel
chipa
deliciosas
quen
pitbull
pandemias
procedente
pollos
destruida
confirmaron
carter
gifs
##mbat
machito
agonia
##mbts
cavani
oportunistas
firm
oligarquia
engran
##adia
encontrando
lien
atm
alfajores
mediados
suponer
levantarte
reciban
rapi
calzado
vito
primi
forces
supreme
andaluza
desacuerdo
reputa
produjo
zav
culiada
tons
confundi
yy
##cola
mma
nio
पर
alitas
resposta
desarrollando
shampoo
btsin
justifican
##개
gary
molestando
salude
tough
caps
agresiva
rodaje
pincho
example
capilla
festejamos
satura
116
difficult
jy
celso
chupas
comeria
##icks
palito
favorable
vieras
violentas
pirotecnia
acompanante
febru
##charse
##moon
prevent
detenida
##maron
ouvin
orgullosamente
petrolero
sheeran
stun
fallon
preliminar
rodando
conqu
harvard
##dbt
shu
andrew
##cui
crowd
levanten
##엑스
opa
##alah
dramatico
siguemeytesigo
aim
##labios
maman
imita
basto
villegas
사랑해
cagones
probarlo
papers
incluyen
##kakak
personalidades
##bate
kayo
intelligence
cota
growth
travis
meditacion
libano
emily
cuela
fermin
creyente
##ffle
permitiendo
anteojos
transmiten
aumentos
moderado
tops
practicos
bk
invente
на
disciplin
##undinamarca
fgr
mandarte
aportando
casamiento
relajo
encantar
articulado
surrealista
##tento
juguemos
ribera
##iev
##イン
acostumbra
sudden
obsessed
sakura
##vina
reconozca
portrait
135
enganando
peralta
expresidentes
rateros
##verso
feio
chusma
aceptas
crucial
likely
mtvhits
namas
varan
bip
large
muscular
century
counter
pasajero
bogo
economistas
rolando
influenza
concursos
##합니다
estalla
delicias
lembrar
quiniela
c5n
palestinos
enviaron
maril
aguita
intratable
apuntar
empujon
fallen
yal
##용
nominacion
platino
qlia
maestras
enana
dediquen
##ajajajajajaja
irrelevante
despista
##zol
atacado
deseado
lifes
comparta
desaperci
licenciado
eil
##tieran
anyways
watermelon
colita
prestaciones
infal
ultras
rosada
consultorio
concluye
promos
hanno
jail
##sem
implement
##jja
festivo
tatto
perdeu
llamarme
##ョン
##วย
prm
companies
messenger
proporcional
laun
empleada
aspirantes
bulto
chop
##izer
bizarro
##tinha
escribia
agresor
daras
##cro
##101
bers
petalo
palco
animado
##selos
##marca
##jana
650
guey
techno
questao
brownie
prepotente
donate
defores
gostosa
lavate
aleje
yemen
weyes
robinson
coincidimos
especifica
aumentado
incrementar
patitas
しい
cambiarme
cubierto
##투
ceballos
##aster
##นน
cachete
pintalabios
##zno
lesbian
21h
chatarra
charlatan
gilberto
benedetto
cadera
##unding
##urita
esplendor
musi
destrozar
##iseo
talentosa
##alal
glass
diplomacia
stalkear
fotoco
burlas
##quedo
gis
dave
heroina
찬열
tantooo
chain
##ajjaja
##hima
cumples
frustrante
chinas
최
nisso
##mbras
turns
anses
italianos
1985
gubernamental
lolo
reflex
lenceria
asientos
accept
bombo
lloramos
aumentaron
##lam
cigarros
ciutat
perjudicar
fizer
indices
vue
espia
ondas
angelica
psicologos
actualizo
##rim
elimine
##ential
julie
ocupados
لن
yixing
adore
livro
thinks
engracado
jajajajajajajajajajajaja
faltaria
jaula
abrazame
goodnight
predicciones
meza
##patia
institucionalidad
marxista
##enz
270
volverse
menys
adivinar
comico
chayote
##jul
alright
kos
##oleon
##petegui
gy
bebeee
doubt
wao
박
pensaban
milei
peguen
ausp
##tol
##ranza
##zosa
##quiero
acostarse
umb
merino
##mbur
spiri
jangan
influencias
dex
cercanas
mogolicos
debito
kre
pelito
cuadran
schedu
##hac
apues
convencida
unlimited
reservar
minimas
##eries
##cagua
emotional
##pass
nayar
votante
meaning
conversation
consecutiva
refriger
cops
wouldnt
chadwick
iniciado
##ett
abejas
pichetto
##prof
franklin
aguanten
transmilenio
##vedra
relajate
cometa
avoid
aquests
recurr
laaa
ilegalmente
desl
transmitiendo
haberla
terminaba
garros
aaay
nacionalistas
embajadora
##kov
medioambiente
nadia
tregua
cantin
ramas
ensenanzas
tothom
reported
##hir
##aderas
remis
tuitazo
berga
pechos
pusiera
##como
##mentary
judio
caught
editado
##kno
##match
fusil
##ffin
portenos
jaure
mueble
producciones
##mismo
1986
temprana
tornar
kart
##ejo
extranooo
nominada
alejado
ghvipdbt
##んな
lopetegui
mirador
breakfast
inva
breathe
setmana
terere
edwin
강
asturi
cornudo
apartado
acustico
isaias
giladas
balo
remaster
context
caleta
##tele
famosas
kike
explote
antojos
전
cloaca
acreditar
colima
enorgulle
matador
namorado
##0⃣
patin
maaa
forzada
meva
gorre
milk
desarrollan
pubg
parale
rompiste
wouldn
embora
fresas
bass
wide
##78
bloquee
##reste
atentados
convirtieron
pergamino
confeso
instruccion
monagas
arequi
##elito
lleida
homosexualidad
##jah
neumonia
evadir
suplic
inscribir
0412
sucks
##sons
penalty
encargada
aguantas
dedicas
##eze
huy
intenten
obstante
telecomunicaciones
##leros
hot100
departamental
ackerman
mitico
drug
tian
despegando
startups
seoul
asfalto
escasos
upa
##qi
casanova
faaa
ose
rebajas
silic
separatistas
introduc
agrega
afines
traiciona
resentida
perso
cardona
roses
sentencias
##63
entes
kaj
##itia
instrumental
unu
benav
tiron
ferrocar
boludez
psycho
chief
jure
casera
analistas
impeachment
holland
personitas
estrategica
##lis
afirman
hercules
junte
webcam
atrevo
beirut
skins
comentarista
monitoreo
tengu
mantengan
coincide
capito
assistindo
retail
##ティ
learned
mcdonalds
acompanados
##qjqj
thera
camuf
##lant
tomare
stgo
##acaf
clasifica
millennials
selectiva
pasao
olvidando
##portuna
rafaga
reached
avecina
잘
espinosa
whether
##contin
pucho
metele
aplicado
compartida
tauromaquia
gap
[...]
