{"version":"1.0","truncation":null,"padding":null,"added_tokens":[{"id":0,"special":true,"content":"<s>","single_word":false,"lstrip":false,"rstrip":false,"normalized":false},{"id":1,"special":true,"content":"<pad>","single_word":false,"lstrip":false,"rstrip":false,"normalized":false},{"id":2,"special":true,"content":"</s>","single_word":false,"lstrip":false,"rstrip":false,"normalized":false},{"id":3,"special":true,"content":"<unk>","single_word":false,"lstrip":false,"rstrip":false,"normalized":false},{"id":4,"special":true,"content":"<mask>","single_word":false,"lstrip":false,"rstrip":false,"normalized":false}],"normalizer":{"type":"Sequence","normalizers":[{"type":"NFKC"},{"type":"BertNormalizer","clean_text":true,"handle_chinese_chars":true,"strip_accents":false,"lowercase":true},{"type":"Replace","pattern":{"Regex":"(\\W)?@usuario(\\W)"},"content":" @usuario "},{"type":"Replace","pattern":{"String":"hashtag"},"content":" hashtag "},{"type":"Replace","pattern":{"Regex":"(\\W)url(\\W)"},"content":" url "},{"type":"Replace","pattern":{"String":"http://url"},"content":" url "}]},"pre_tokenizer":{"type":"Metaspace","replacement":"▁","add_prefix_space":true},"post_processor":{"type":"RobertaProcessing","sep":["</s>",2],"cls":["<s>",0],"trim_offsets":true,"add_prefix_space":true},"decoder":{"type":"Metaspace","replacement":"▁","add_prefix_space":true},"model":{"type":"BPE","dropout":null,"unk_token":null,"continuing_subword_prefix":null,"end_of_word_suffix":null,"fuse_unk":false,"vocab":{"<s>":0,"<pad>":1,"</s>":2,"<unk>":3,"<mask>":4,"!":5,"\"":6,"#":7,"$":8,"%":9,"&":10,"'":11,"(":12,")":13,"*":14,"+":15,",":16,"-":17,".":18,"/":19,"0":20,"1":21,"2":22,"3":23,"4":24,"5":25,"6":26,"7":27,"8":28,"9":29,":":30,";":31,"=":32,"?":33,"@":34,"[":35,"\\":36,"]":37,"^":38,"_":39,"`":40,"a":41,"b":42,"c":43,"d":44,"e":45,"f":46,"g":47,"h":48,"i":49,"j":50,"k":51,"l":52,"m":53,"n":54,"o":55,"p":56,"q":57,"r":58,"s":59,"t":60,"u":61,"v":62,"w":63,"x":64,"y":65,"z":66,"|":67,"¡":68,"¿":69,"à":70,"á":71,"â":72,"ã":73,"ä":74,"ç":75,"è":76,"é":77,"ê":78,"ì":79,"í":80,"ï":81,"ñ":82,"ò":83,"ó":84,"ô":85,"õ":86,"ö":87,"ù":88,"ú":89,"ü":90,"ğ":91,"ı":92,"ş":93,"ɪ":94,"ɴ":95,"ʀ":96,"ʟ":97,"̄":98,"̇":99,"̶":100,"α":101,"ι":102,"а":103,"б":104,"в":105,"г":106,"д":107,"е":108,"з":109,"и":110,"к":111,"л":112,"м":113,"н":114,"о":115,"п":116,"р":117,"с":118,"т":119,"у":120,"я":121,"أ":122,"ب":123,"ة":124,"ت":125,"ج":126,"ح":127,"خ":128,"د":129,"ر":130,"ز":131,"س":132,"ش":133,"ص":134,"ط":135,"ع":136,"ف":137,"ق":138,"ك":139,"ل":140,"م":141,"ن":142,"ه":143,"و":144,"ي":145,"ک":146,"ہ":147,"ی":148,"ے":149,"ं":150,"क":151,"त":152,"न":153,"प":154,"म":155,"य":156,"र":157,"ल":158,"स":159,"ह":160,"ा":161,"ि":162,"ी":163,"े":164,"ो":165,"्":166,"க":167,"த":168,"ி":169,"ு":170,"்":171,"ก":172,"ข":173,"ค":174,"ง":175,"จ":176,"ช":177,"ด":178,"ต":179,"ท":180,"น":181,"บ":182,"ป":183,"พ":184,"ม":185,"ย":186,"ร":187,"ล":188,"ว":189,"ส":190,"ห":191,"อ":192,"ะ":193,"ั":194,"า":195,"ิ":196,"ี":197,"ื":198,"ุ":199,"ู":200,"เ":201,"แ":202,"ใ":203,"ไ":204,"็":205,"่":206,"้":207,"ᄏ":208,"ᅠ":209,"ᅲ":210,"ᥱ":211,"ᴀ":212,"ᴅ":213,"ᴇ":214,"ᴏ":215,"ᴛ":216,"⃣":217,"→":218,"⏱":219,"─":220,"━":221,"│":222,"┃":223,"┓":224,"═":225,"▁":226,"█":227,"▶":228,"►":229,"☁":230,"★":231,"☆":232,"♪":233,"♫":234,"⚠":235,"✔":236,"❣":237,"➡":238,"⠀":239,"⬇":240,"、":241,"。":242,"「":243,"」":244,"【":245,"】":246,"あ":247,"い":248,"う":249,"え":250,"お":251,"か":252,"が":253,"き":254,"く":255,"け":256,"こ":257,"ご":258,"さ":259,"し":260,"す":261,"そ":262,"た":263,"だ":264,"ち":265,"っ":266,"つ":267,"て":268,"で":269,"と":270,"ど":271,"な":272,"に":273,"ね":274,"の":275,"は":276,"ま":277,"み":278,"め":279,"も":280,"ゃ":281,"や":282,"よ":283,"ら":284,"り":285,"る":286,"れ":287,"わ":288,"を":289,"ん":290,"゚":291,"ア":292,"イ":293,"カ":294,"キ":295,"ク":296,"コ":297,"シ":298,"ジ":299,"ス":300,"タ":301,"チ":302,"ッ":303,"テ":304,"ト":305,"ド":306,"フ":307,"プ":308,"マ":309,"ミ":310,"メ":311,"ャ":312,"ラ":313,"リ":314,"ル":315,"レ":316,"ロ":317,"ン":318,"・":319,"一":320,"人":321,"大":322,"日":323,"月":324,"本":325,"生":326,"가":327,"갓":328,"강":329,"게":330,"고":331,"기":332,"김":333,"나":334,"년":335,"는":336,"니":337,"다":338,"단":339,"대":340,"더":341,"도":342,"드":343,"들":344,"라":345,"랑":346,"레":347,"로":348,"리":349,"마":350,"만":351,"무":352,"민":353,"방":354,"보":355,"븐":356,"블":357,"사":358,"생":359,"서":360,"세":361,"소":362,"수":363,"스":364,"시":365,"아":366,"어":367,"에":368,"엑":369,"엘":370,"여":371,"오":372,"요":373,"우":374,"원":375,"은":376,"을":377,"의":378,"이":379,"인":380,"일":381,"자":382,"정":383,"제":384,"주":385,"즈":386,"지":387,"진":388,"크":389,"키":390,"타":391,"탄":392,"태":393,"트":394,"하":395,"한":396,"해":397,"현":398,"호":399,"🌧":400,"🎙":401,"🏟":402,"👁":403,"🗣":404,"▁e":405,"ar":406,"▁d":407,"▁c":408,"mo":409,"▁p":410,"▁l":411,"▁a":412,"▁de":413,"io":414,"▁s":415,"er":416,"as":417,"en":418,"▁m":419,"us":420,"an":421,"ji":422,"▁emo":423,"▁emoji":424,"▁t":425,"os":426,"ario":427,"usu":428,"usuario":429,"@usuario":430,"▁@usuario":431,"ue":432,"or":433,"on":434,"▁h":435,"▁u":436,"ta":437,"es":438,"▁q":439,"▁n":440,"do":441,"▁es":442,"▁que":443,"in":444,"▁y":445,"▁la":446,"▁v":447,"re":448,"rl":449,"al":450,"▁url":451,"▁en":452,"▁f":453,"ci":454,"te":455,"▁b":456,"ara":457,"is":458,"▁el":459,"da":460,"▁con":461,"▁has":462,"ra":463,"tag":464,"▁no":465,"▁hash":466,"▁hashtag":467,"to":468,"ic":469,"▁g":470,"▁un":471,"..":472,"ien":473,"▁me":474,"▁se":475,"ro":476,"▁o":477,"ón":478,"ol":479,"ja":480,"▁cara":481,"▁ha":482,"ando":483,"le":484,"ti":485,"la":486,"▁co":487,"mp":488,"▁por":489,"de":490,"▁re":491,"un":492,"▁al":493,"ch":494,"▁r":495,"▁los":496,"▁lo":497,"▁to":498,"el":499,"▁i":500,"▁per":501,"▁si":502,"ui":503,"ri":504,"▁in":505,"mos":506,"▁mi":507,"▁j":508,"ma":509,"ora":510,"ia":511,"▁.":512,"▁para":513,"go":514,"▁cu":515,"▁te":516,"ía":517,"lo":518,"ca":519,"dos":520,"▁ca":521,"▁est":522,"▁su":523,"ción":524,"▁del":525,"ion":526,"ente":527,"ba":528,"▁las":529,"jaja":530,"di":531,"▁una":532,"vi":533,"▁ma":534,"▁man":535,"▁le":536,"ás":537,"era":538,"mb":539,"...":540,"iendo":541,"dad":542,"▁mu":543,"▁son":544,"cu":545,"mi":546,"▁w":547,"▁des":548,"ga":549,"res":550,"ec":551,"▁an":552,"me":553,"ent":554,"▁di":555,"co":556,"!!":557,"▁vi":558,"gu":559,"▁th":560,"cia":561,"▁so":562,"▁yo":563,"▁pa":564,"▁ch":565,"▁mo":566,"tr":567,"que":568,"▁ll":569,"ica":570,"ce":571,"▁\"":572,"▁cora":573,"it":574,"▁coraz":575,"ero":576,"▁1":577,"▁ten":578,"▁esta":579,"jo":580,"▁qu":581,"▁na":582,"▁como":583,"tu":584,"za":585,"▁pero":586,"▁pro":587,"▁pi":588,"▁más":589,"▁llor":590,"isa":591,"oy":592,"▁ser":593,"lar":594,"▁ver":595,"ter":596,"ran":597,"▁as":598,"tra":599,"ab":600,"▁ap":601,"▁2":602,"▁ya":603,"▁ex":604,"▁ar":605,"ues":606,"cion":607,"ing":608,"tos":609,"▁corazón":610,"▁po":611,"il":612,"▁par":613,"▁llorando":614,"pa":615,"▁risa":616,"tes":617,"va":618,"▁sonr":619,"jos":620,"tas":621,"tar":622,"▁qui":623,"▁tu":624,"▁bu":625,"ve":626,"ico":627,"▁va":628,"ul":629,"▁fa":630,"ana":631,"das":632,"ono":633,"ir":634,"se":635,"án":636,"▁sal":637,"▁the":638,"dio":639,"én":640,"▁fu":641,"▁pas":642,"son":643,"ina":644,"vo":645,"▁pue":646,"ez":647,"tor":648,"▁k":649,"▁ni":650,"▁sonriendo":651,"ten":652,"qui":653,"▁pe":654,"▁sol":655,"▁ro":656,"dor":657,"▁todo":658,"▁ojos":659,"men":660,"cha":661,"cer":662,"ver":663,"▁ti":664,"▁tra":665,"tro":666,"▁person":667,"▁ah":668,"der":669,"▁ta":670,"sa":671,"▁esto":672,"li":673,"▁li":674,"▁jaja":675,"so":676,"emp":677,"no":678,"▁tien":679,"mente":680,"▁pre":681,"▁ac":682,"lan":683,"▁buen":684,"gar":685,"▁hab":686,"▁ab":687,"▁res":688,"▁cas":689,"▁sin":690,"▁mar":691,"▁da":692,"ur":693,"▁mis":694,"▁nos":695,"▁piel":696,"▁este":697,"ble":698,"▁mano":699,"▁tan":700,"ño":701,"cho":702,"ha":703,"si":704,"▁hay":705,"per":706,"▁comp":707,"ud":708,"▁tono":709,"▁cuando":710,"▁(":711,"ru":712,"iz":713,"▁pu":714,"ios":715,"▁-":716,"▁clar":717,"▁com":718,"▁¿":719,"▁cre":720,"▁he":721,"pe":722,"▁can":723,"qu":724,"tan":725,"▁claro":726,"cias":727,"po":728,"▁ra":729,"bre":730,"▁gra":731,"▁ne":732,"▁go":733,"▁pen":734,"▁cor":735,"▁men":736,"ice":737,"▁sa":738,"idad":739,"▁sab":740,"las":741,"ier":742,"les":743,"ales":744,"▁hoy":745,"den":746,"▁todos":747,"min":748,"▁lle":749,"!!!":750,"▁ven":751,"je":752,"des":753,"00":754,"és":755,"▁do":756,"▁manos":757,"▁porque":758,"▁está":759,"▁bo":760,"jor":761,"ños":762,"los":763,"▁mal":764,"man":765,"▁car":766,"??":767,"▁ba":768,"▁ho":769,"▁mejor":770,"▁eso":771,"▁ent":772,"be":773,"▁for":774,"ita":775,"▁mas":776,"▁dis":777,"▁of":778,"mas":779,"▁bien":780,"erte":781,"ones":782,"▁día":783,"ici":784,"du":785,"mar":786,"eces":787,"ras":788,"ín":789,"▁ju":790,"▁imp":791,"▁pres":792,"▁be":793,"▁ban":794,"ciones":795,"▁persona":796,"▁sus":797,"▁qué":798,"▁cos":799,"ren":800,"▁fel":801,"▁3":802,"▁col":803,"▁amo":804,"▁hacer":805,"▁¡":806,"▁and":807,"ts":808,"▁medio":809,"gun":810,"▁cal":811,"▁lu":812,"oo":813,"▁rev":814,"ista":815,"ún":816,"▁vo":817,"▁nada":818,"▁pri":819,"▁gran":820,"▁así":821,"▁or":822,"ña":823,"ber":824,"▁us":825,"▁fue":826,"na":827,"gan":828,"▁on":829,"▁fr":830,"ho":831,"▁muy":832,"▁hace":833,"ión":834,"▁les":835,"▁fin":836,"iento":837,"▁tiene":838,"ere":839,"▁vida":840,"car":841,"▁ami":842,"▁x":843,"▁ve":844,"ces":845,"empre":846,"mbi":847,"▁solo":848,"ías":849,"▁estoy":850,"▁nues":851,"▁20":852,"▁pr":853,"▁quiero":854,"▁siempre":855,"▁dor":856,"▁gente":857,"tal":858,"▁ahora":859,"▁emp":860,"por":861,"▁san":862,"ito":863,"▁tengo":864,"▁fav":865,"et":866,"ado":867,"gui":868,"▁pol":869,"gra":870,"▁is":871,"▁ter":872,"id":873,"che":874,"▁ay":875,"▁gracias":876,"o,":877,"ena":878,"▁you":879,"▁fal":880,"ven":881,"▁nue":882,"dera":883,"▁gan":884,"▁don":885,"pu":886,"▁fo":887,"▁mun":888,"▁favor":889,"▁hi":890,"▁inf":891,"dose":892,"uel":893,"zo":894,"▁pon":895,"▁her":896,"20":897,"ís":898,"at":899,"iste":900,"con":901,"▁fuerte":902,"▁:":903,"▁deci":904,"▁dos":905,"tros":906,"▁gu":907,"▁,":908,"aa":909,"▁hacia":910,"ck":911,"olvi":912,"▁esp":913,"▁é":914,"endo":915,"▁gus":916,"▁traba":917,"mer":918,"encia":919,"▁sobre":920,"ona":921,"enta":922,"▁fe":923,"▁hu":924,"▁años":925,"jer":926,"ll":927,"▁voy":928,"emos":929,"th":930,"▁ir":931,"▁estar":932,"▁4":933,"van":934,"▁au":935,"▁hasta":936,"bo":937,"ke":938,"▁inter":939,"ros":940,"▁du":941,"éndose":942,"▁ja":943,"dar":944,"jar":945,"ido":946,"▁val":947,"▁real":948,"can":949,"▁neces":950,"rar":951,"▁cer":952,"▁bandera":953,"mbre":954,"▁vez":955,"▁jjaja":956,"▁feliz":957,"▁5":958,"olviéndose":959,"▁revolviéndose":960,"tic":961,"▁parti":962,"▁pla":963,"unca":964,"pon":965,"▁min":966,"if":967,"▁ga":968,"ya":969,"▁algo":970,"▁bes":971,"o.":972,"ee":973,"ig":974,"▁mucho":975,"▁conf":976,"▁mad":977,"▁ese":978,"▁nunca":979,"tiva":980,"▁casa":981,"▁ins":982,"cial":983,"ante":984,"▁puede":985,"▁desde":986,"▁soy":987,"▁entre":988,"▁pel":989,"dr":990,"lla":991,"gue":992,"▁much":993,"▁apla":994,"▁os":995,"▁pos":996,"erda":997,"gos":998,"▁esc":999,"▁jo":1000,"▁toda":1001,"tras":1002,"▁ob":1003,"ed":1004,"par":1005,"▁esa":1006,"▁quien":1007,"mbién":1008,"bl":1009,"▁ci":1010,"guien":1011,"▁también":1012,"▁tw":1013,"miento":1014,"gua":1015,"19":1016,"▁bar":1017,"▁sen":1018,"cio":1019,"▁aplaud":1020,"▁exp":1021,"▁señ":1022,"▁vol":1023,"▁dere":1024,"ino":1025,"nos":1026,"▁aplaudiendo":1027,"fer":1028,"▁eu":1029,"bi":1030,"ment":1031,"ly":1032,"eron":1033,"▁mes":1034,"▁menos":1035,"ciendo":1036,"as,":1037,"▁reg":1038,"▁dar":1039,"▁fle":1040,"▁cons":1041,"▁quer":1042,"mento":1043,"▁jun":1044,"pi":1045,"cep":1046,"es,":1047,"ola":1048,"▁lin":1049,"\".":1050,"ut":1051,"tir":1052,"bier":1053,"▁tiemp":1054,"▁era":1055,"▁ce":1056,"▁his":1057,"▁we":1058,"tando":1059,"▁tener":1060,"índ":1061,"▁ad":1062,"ala":1063,"▁segui":1064,"cen":1065,"▁sea":1066,"▁aca":1067,"▁cr":1068,"▁verdad":1069,"▁op":1070,"▁jus":1071,"ece":1072,"ão":1073,"bol":1074,"índice":1075,"▁días":1076,"▁cosas":1077,"▁estu":1078,"▁sí":1079,"▁dic":1080,"▁cada":1081,"▁contra":1082,"▁mundo":1083,"gas":1084,"▁mujer":1085,"▁alguien":1086,"▁at":1087,"▁índice":1088,"toria":1089,"die":1090,"lti":1091,"▁mon":1092,"ismo":1093,"▁fi":1094,"▁están":1095,"ada":1096,"▁có":1097,"cas":1098,"es.":1099,"▁dios":1100,"▁espa":1101,"▁dorso":1102,"▁pues":1103,"tica":1104,"▁vis":1105,"os,":1106,"▁igu":1107,"▁mañ":1108,"ientes":1109,"▁tr":1110,"▁vamos":1111,"mana":1112,"▁corazones":1113,"ge":1114,"rado":1115,"▁jue":1116,"gi":1117,"ío":1118,"▁hor":1119,"tado":1120,"▁uno":1121,"?.":1122,"▁rec":1123,"▁país":1124,"ano":1125,"uela":1126,"▁amor":1127,"▁it":1128,"▁tar":1129,"tion":1130,"▁donde":1131,"▁han":1132,"tin":1133,"ie":1134,"▁gen":1135,"cional":1136,"▁igual":1137,"dores":1138,"istas":1139,"▁nadie":1140,"▁escu":1141,"▁lla":1142,"▁mañana":1143,"iza":1144,"▁gobier":1145,"▁cha":1146,"▁equi":1147,"▁tran":1148,"to,":1149,"▁am":1150,"vir":1151,"deo":1152,"▁impor":1153,"▁blan":1154,"▁mismo":1155,"▁af":1156,"▁def":1157,"br":1158,"▁cono":1159,"▁z":1160,"▁dia":1161,"▁personas":1162,"▁frente":1163,"ves":1164,"▁año":1165,"os.":1166,"▁mé":1167,"zando":1168,"lu":1169,"▁rep":1170,"quí":1171,"aron":1172,"dia":1173,"▁10":1174,"▁van":1175,"▁6":1176,"▁creo":1177,"▁super":1178,"▁...":1179,"▁ganas":1180,"rec":1181,"▁may":1182,"▁bus":1183,"▁segu":1184,"▁bol":1185,"gen":1186,"▁#":1187,"▁rojo":1188,"bajo":1189,"do,":1190,"tura":1191,"???":1192,"▁pasa":1193,"▁tanto":1194,"s.":1195,"do.":1196,"▁otro":1197,"!.":1198,"más":1199,"▁mer":1200,"cuer":1201,"▁vos":1202,"▁decir":1203,"▁lan":1204,"▁pal":1205,"var":1206,"▁ol":1207,"ad":1208,"xico":1209,"▁tienen":1210,"▁puedo":1211,"culo":1212,"▁otra":1213,"▁mus":1214,"▁pan":1215,"▁aquí":1216,"▁pens":1217,"mil":1218,"ias":1219,"▁levan":1220,"▁cump":1221,"▁pes":1222,"▁cuenta":1223,"tivo":1224,"cre":1225,"▁gobierno":1226,"ine":1227,"▁mil":1228,"▁bueno":1229,"dic":1230,"vid":1231,"▁bas":1232,"via":1233,"▁plan":1234,"▁cual":1235,"▁7":1236,"▁this":1237,"fe":1238,"gent":1239,"▁camp":1240,"▁haciendo":1241,"cal":1242,"ima":1243,"▁tiempo":1244,"▁venez":1245,"to.":1246,"▁final":1247,"▁cómo":1248,"▁grande":1249,"ted":1250,"gn":1251,"tó":1252,"▁quier":1253,"▁dice":1254,"▁boca":1255,"▁8":1256,"pués":1257,"pas":1258,"má":1259,"jajajaja":1260,"▁abajo":1261,"▁vuel":1262,"ern":1263,"ír":1264,"▁my":1265,"una":1266,"▁algun":1267,"▁después":1268,"▁nuevo":1269,"t;":1270,"▁tal":1271,"▁ú":1272,"orma":1273,"▁cul":1274,"▁mierda":1275,"▁prim":1276,"bu":1277,"▁az":1278,"am":1279,"tre":1280,"tri":1281,"ían":1282,"vos":1283,"ban":1284,"iente":1285,"pues":1286,"▁beso":1287,"▁den":1288,"▁todas":1289,"▁bal":1290,"▁esper":1291,"pen":1292,"cel":1293,"fa":1294,"arios":1295,"▁semana":1296,"▁chi":1297,"▁dan":1298,"▁gol":1299,"as.":1300,"ores":1301,"▁nuestro":1302,"tbol":1303,"js":1304,"dan":1305,"mir":1306,"▁9":1307,"tada":1308,"▁gusta":1309,"▁poco":1310,"▁antes":1311,"cil":1312,"ea":1313,"▁eres":1314,"▁ale":1315,"▁só":1316,"▁ag":1317,"▁pensa":1318,"▁derecha":1319,"▁arri":1320,"▁uni":1321,"▁últi":1322,"ril":1323,"tico":1324,"blo":1325,"▁poder":1326,"▁gi":1327,"▁abra":1328,"▁sh":1329,"▁sé":1330,"▁sonrientes":1331,"▁estamos":1332,"▁wh":1333,"▁temp":1334,"▁rt":1335,"icio":1336,"entes":1337,"▁fun":1338,"▁estos":1339,"▁extra":1340,"▁reci":1341,"▁wit":1342,"esta":1343,"▁mie":1344,"iones":1345,"vio":1346,"▁presid":1347,"▁polí":1348,"▁that":1349,"ne":1350,"haha":1351,"▁blanco":1352,"▁pregun":1353,"ds":1354,"mal":1355,"▁&":1356,"udad":1357,"'s":1358,"▁all":1359,"ér":1360,"▁ri":1361,"gh":1362,"olo":1363,"imo":1364,"▁veces":1365,"▁dej":1366,"zar":1367,"▁parte":1368,"▁momento":1369,"▁sos":1370,"▁foto":1371,"ay":1372,"▁pun":1373,"▁trabajo":1374,"vis":1375,"▁argent":1376,"▁ún":1377,"▁tus":1378,"▁parece":1379,"tante":1380,"mes":1381,"▁sue":1382,"▁perf":1383,"oración":1384,"icos":1385,"char":1386,"▁vía":1387,"vel":1388,"▁falta":1389,"▁gui":1390,"▁tú":1391,"▁comun":1392,"▁ima":1393,"▁har":1394,"▁cele":1395,"▁tor":1396,"▁ciudad":1397,"▁somos":1398,"ral":1399,"uda":1400,":.":1401,"ible":1402,").":1403,"▁with":1404,"rá":1405,"▁arriba":1406,"cl":1407,"▁noche":1408,"▁apoy":1409,"▁ahí":1410,"▁twit":1411,"▁hermos":1412,"▁hora":1413,"a,":1414,"yo":1415,"bar":1416,"▁cap":1417,"cción":1418,"▁..":1419,"ta,":1420,"cri":1421,"▁azul":1422,"▁0":1423,"▁ojo":1424,"▁apro":1425,"▁presidente":1426,"▁pin":1427,"▁via":1428,"▁estas":1429,"▁ellos":1430,"icar":1431,"▁bon":1432,"▁queda":1433,"ff":1434,"▁vio":1435,"▁video":1436,"▁music":1437,"llo":1438,"▁sub":1439,"ctor":1440,"úbl":1441,"vas":1442,"▁vas":1443,"▁ben":1444,"ta.":1445,"a.":1446,"▁cuar":1447,"▁nueva":1448,"▁quiere":1449,"▁direc":1450,"titu":1451,"▁respon":1452,"▁?":1453,"lor":1454,"▁ade":1455,"▁201":1456,"▁salud":1457,"mis":1458,"tad":1459,"iene":1460,"▁debe":1461,"▁aun":1462,"▁venezuela":1463,"▁covid":1464,"pp":1465,"▁ella":1466,"mina":1467,"▁colo":1468,"ridad":1469,"▁dejar":1470,"▁sor":1471,"lante":1472,"▁madre":1473,"▁nuestra":1474,"ill":1475,"▁mí":1476,"▁mill":1477,"cur":1478,"▁estaba":1479,"▁estado":1480,"trar":1481,"▁prof":1482,"▁fan":1483,"tual":1484,"▁dormir":1485,"▁je":1486,"da,":1487,"▁|":1488,"▁proble":1489,"▁señal":1490,"▁!":1491,"▁termin":1492,"útbol":1493,"▁cabe":1494,"▁19":1495,"▁clas":1496,"▁será":1497,"▁amigos":1498,"▁trans":1499,"▁fuego":1500,"▁deja":1501,"▁buena":1502,"ionado":1503,"ian":1504,"▁seguir":1505,"▁flecha":1506,"▁pelo":1507,"ks":1508,"icación":1509,"▁oración":1510,"ich":1511,"qué":1512,"▁salir":1513,"gún":1514,"pos":1515,"▁fútbol":1516,"▁historia":1517,"rr":1518,"▁primer":1519,"▁tenemos":1520,"len":1521,"▁bel":1522,"▁gri":1523,"tif":1524,"▁escri":1525,"mon":1526,"▁lanzando":1527,"▁social":1528,"▁unos":1529,"ac":1530,"rid":1531,"....":1532,"gres":1533,"▁camb":1534,"tón":1535,"▁á":1536,"one":1537,"▁nor":1538,"da.":1539,"▁cent":1540,"tv":1541,"mia":1542,"▁muchas":1543,"▁miedo":1544,"▁corona":1545,"▁ide":1546,"cos":1547,"▁comer":1548,"▁vic":1549,"▁méxico":1550,"▁perd":1551,"jas":1552,"▁españa":1553,"gt;":1554,"gro":1555,"▁cír":1556,"▁amigo":1557,"s,":1558,"itar":1559,"▁are":1560,"▁compar":1561,"▁ref":1562,"▁círculo":1563,"use":1564,"▁flex":1565,"▁homb":1566,"ka":1567,"▁equipo":1568,"milia":1569,"▁cri":1570,"anos":1571,"▁cl":1572,"▁cualqui":1573,"cuerdo":1574,"dir":1575,"op":1576,"▁argentina":1577,"▁marca":1578,"low":1579,"▁desa":1580,"y.":1581,"▁dijo":1582,"▁estre":1583,"▁cuer":1584,"▁segun":1585,"▁cá":1586,"▁él":1587,"eando":1588,"val":1589,"▁sabe":1590,"▁não":1591,"▁felici":1592,"▁fuera":1593,"▁puta":1594,"▁cier":1595,"▁amar":1596,"▁hablar":1597,"▁twitter":1598,"ger":1599,"▁bí":1600,"▁hecho":1601,"▁peor":1602,"ñando":1603,"▁lib":1604,"▁hacen":1605,"▁che":1606,"▁elec":1607,"▁vie":1608,"eros":1609,"▁comi":1610,"▁dif":1611,"000":1612,"▁asi":1613,"ceps":1614,"▁bíceps":1615,"lea":1616,"otros":1617,"ss":1618,"▁frío":1619,"ticia":1620,"▁ru":1621,"▁esos":1622,"▁sólo":1623,"▁familia":1624,"▁flexionado":1625,"▁forma":1626,"▁ros":1627,"▁siento":1628,"▁deber":1629,"▁saber":1630,"▁mira":1631,"▁pasar":1632,"vil":1633,"▁mien":1634,"▁informa":1635,"▁poner":1636,"bil":1637,"▁ning":1638,"▁juga":1639,"dido":1640,"▁públ":1641,"▁len":1642,"▁pra":1643,"▁cabeza":1644,"▁tri":1645,"▁sudor":1646,"eo":1647,"▁pul":1648,"▁din":1649,"▁buenos":1650,"▁wha":1651,"tru":1652,"▁by":1653,"▁[":1654,"▁nacional":1655,"▁conse":1656,"▁partido":1657,"▁primera":1658,"▁xd":1659,"▁domin":1660,"▁br":1661,"▁veo":1662,"ús":1663,"kk":1664,"ale":1665,"▁sigue":1666,"▁medi":1667,"▁madrid":1668,"▁lugar":1669,"▁chis":1670,"▁ví":1671,"▁necesito":1672,"rir":1673,"itos":1674,"tido":1675,"ii":1676,"antes":1677,"▁invi":1678,"▁tro":1679,"demos":1680,"▁olvi":1681,"dades":1682,"añ":1683,"ist":1684,"▁pueblo":1685,"mm":1686,"ción.":1687,"izo":1688,"ior":1689,"tadas":1690,"▁your":1691,"alo":1692,"▁cru":1693,"port":1694,"▁ley":1695,"eral":1696,"ecto":1697,"ty":1698,"▁pueden":1699,"▁bab":1700,"bles":1701,"▁pensativa":1702,"▁enten":1703,"rup":1704,"hh":1705,"▁ali":1706,"uego":1707,"▁15":1708,"dre":1709,"▁aten":1710,"▁mayor":1711,"▁/":1712,"▁triste":1713,"▁defen":1714,"▁wor":1715,"tedes":1716,"▁cui":1717,"▁podr":1718,"▁oj":1719,"ton":1720,"▁morado":1721,"▁'":1722,"▁mientras":1723,"▁encan":1724,"▁new":1725,"para":1726,"ida":1727,"tados":1728,"um":1729,"▁produ":1730,"▁edu":1731,"▁gana":1732,"▁pien":1733,"bación":1734,"▁recor":1735,"ual":1736,"▁nar":1737,"▁sho":1738,"▁imag":1739,"▁espe":1740,"▁mos":1741,"▁hombre":1742,"ys":1743,"t.":1744,"▁volver":1745,"▁gar":1746,"til":1747,"▁espero":1748,"e.":1749,"▁tienes":1750,"icas":1751,"\",":1752,"▁respe":1753,"sab":1754,"▁llega":1755,"▁auto":1756,"ital":1757,"mu":1758,"▁aunque":1759,"▁apren":1760,"cando":1761,"hi":1762,"guen":1763,"▁love":1764,"▁apar":1765,"▁fotos":1766,"▁ustedes":1767,"olu":1768,"onces":1769,"▁fran":1770,"elo":1771,"bas":1772,"▁pap":1773,"▁ani":1774,"uu":1775,"▁bril":1776,"▁guiñando":1777,"tua":1778,"▁gas":1779,"▁muchos":1780,"▁liber":1781,"vers":1782,"▁ayer":1783,"bal":1784,"▁cambi":1785,"▁tarde":1786,"▁what":1787,"▁amiga":1788,"▁otros":1789,"▁encon":1790,"▁disf":1791,"▁:(":1792,"eta":1793,"▁muer":1794,"amp":1795,"▁*":1796,"entar":1797,"don":1798,"▁luego":1799,"▁horas":1800,"sión":1801,"▁llama":1802,"▁profes":1803,"ísi":1804,"tamente":1805,"lica":1806,"▁hizo":1807,"▁rela":1808,"ción,":1809,"▁casi":1810,"▁mor":1811,"▁like":1812,"illo":1813,"▁ele":1814,"▁polic":1815,"▁tras":1816,"ting":1817,"▁ren":1818,"▁dicen":1819,"▁digo":1820,"▁lindo":1821,"▁aún":1822,"▁tipo":1823,"bado":1824,"▁12":1825,"▁haber":1826,"▁ante":1827,"▁deb":1828,"▁loco":1829,"erra":1830,"ers":1831,"▁fuer":1832,"m.":1833,"▁gru":1834,"▁not":1835,"▁mtv":1836,"▁habla":1837,"▁cur":1838,"chos":1839,"▁espera":1840,"entena":1841,"▁em":1842,"▁viene":1843,"tis":1844,"▁cosa":1845,"▁gua":1846,"▁bor":1847,"bra":1848,"lando":1849,"▁estás":1850,"▁nosotros":1851,"▁llegar":1852,"▁amb":1853,"▁vir":1854,"cía":1855,"▁ur":1856,"mor":1857,"cuent":1858,"▁!!!":1859,"virus":1860,"esti":1861,"▁progra":1862,"▁sido":1863,"▁cualquier":1864,"fi":1865,"comp":1866,"ular":1867,"ura":1868,"▁come":1869,"cis":1870,"▁pró":1871,"te.":1872,"ear":1873,"▁odio":1874,"▁notas":1875,"pro":1876,"amp;":1877,"e,":1878,"mien":1879,"gando":1880,"▁ama":1881,"pera":1882,"▁minu":1883,"d.":1884,"▁paso":1885,"y,":1886,"▁estudi":1887,"▁raz":1888,"▁but":1889,"▁tomar":1890,"▁mucha":1891,"ció":1892,"uso":1893,"▁+":1894,"mentos":1895,"▁hola":1896,"▁cris":1897,"▁difer":1898,"▁bro":1899,"ial":1900,"▁había":1901,"▁interes":1902,"brando":1903,"dica":1904,"cido":1905,"▁coronavirus":1906,"▁cuarentena":1907,"mbia":1908,"▁chile":1909,"▁empres":1910,"dió":1911,"cie":1912,"▁sex":1913,"▁was":1914,"▁lengua":1915,"▁11":1916,"ándo":1917,"▁dol":1918,"te,":1919,"▁suf":1920,"▁publ":1921,"pm":1922,"cor":1923,"llas":1924,"cul":1925,"▁human":1926,"ria":1927,"▁balón":1928,"▁chispas":1929,"▁comple":1930,"cip":1931,"fo":1932,"▁up":1933,"mara":1934,"alá":1935,"▁quieren":1936,"fas":1937,"▁no,":1938,"vin":1939,"▁total":1940,"▁único":1941,"▁palab":1942,"éis":1943,"có":1944,"▁dinero":1945,"▁art":1946,"king":1947,"ió":1948,"▁cla":1949,"▁goo":1950,"▁one":1951,"▁brillante":1952,"vía":1953,"&gt;":1954,"▁viern":1955,"▁fir":1956,"ícu":1957,"▁corrup":1958,"dos.":1959,"▁educa":1960,"▁just":1961,"▁pulgar":1962,"▁visto":1963,"▁sueño":1964,"▁esas":1965,"itas":1966,"▁ai":1967,"▁calle":1968,"▁um":1969,"izar":1970,"▁seguro":1971,"col":1972,"▁agu":1973,"▁señor":1974,"▁have":1975,"▁pasado":1976,"▁herman":1977,"▁tele":1978,"▁salu":1979,"▁resul":1980,"▁hue":1981,"▁unas":1982,"▁celebrando":1983,"▁jugar":1984,"rante":1985,"▁necesita":1986,"dida":1987,"▁blo":1988,"▁pod":1989,"cn":1990,"▁domingo":1991,"té":1992,"menta":1993,"▁inten":1994,"▁serv":1995,"▁cho":1996,"▁alto":1997,"▁agra":1998,"▁tema":1999,"▁millones":2000,"▁quién":2001,"▁mujeres":2002,"▁tenía":2003,"▁cel":2004,"▁lit":2005,"▁prin":2006,"▁lar":2007,"▁nuestros":2008,"▁caso":2009,"ches":2010,"gía":2011,"▁camin":2012,"▁pare":2013,"▁disfru":2014,"▁2020":2015,"▁agua":2016,"idades":2017,"▁18":2018,"for":2019,"eti":2020,"▁encuent":2021,"▁jajajaja":2022,"▁pensar":2023,"▁entonces":2024,"▁wa":2025,"▁abo":2026,"ps":2027,"cios":2028,"▁empez":2029,"ms":2030,"imada":2031,"▁acuerdo":2032,"▁quedar":2033,"▁guar":2034,"and":2035,"▁tre":2036,"▁ojalá":2037,"est":2038,"▁$":2039,"▁euro":2040,"lub":2041,"ant":2042,"▁verde":2043,"gida":2044,"▁acá":2045,"▁tru":2046,"icial":2047,"▁romp":2048,"▁hici":2049,"▁hos":2050,"▁bts":2051,"ini":2052,"▁reco":2053,"ollow":2054,"30":2055,"▁recu":2056,"▁desan":2057,"▁próx":2058,"▁prop":2059,"▁iz":2060,"▁inte":2061,"iado":2062,"inos":2063,"▁fro":2064,"wn":2065,"jes":2066,"lo.":2067,"ye":2068,"ciales":2069,"gó":2070,"▁paz":2071,"▁posi":2072,"▁sino":2073,"eet":2074,"▁jul":2075,"yas":2076,"▁negro":2077,"10":2078,"pre":2079,"▁levantadas":2080,"dos,":2081,"▁tur":2082,"▁musicales":2083,"▁victoria":2084,"▁iba":2085,"▁vaya":2086,"'t":2087,"▁colombia":2088,"▁sabes":2089,"migo":2090,"dial":2091,"▁ps":2092,"▁cuan":2093,"▁av":2094,"▁ases":2095,"▁mara":2096,"▁ayud":2097,"aria":2098,"vidad":2099,"▁ji":2100,"▁actual":2101,"▁wo":2102,"▁oscu":2103,"lado":2104,"▁&amp;":2105,"▁pl":2106,"dez":2107,"▁entr":2108,"chas":2109,"▁gal":2110,"▁puedes":2111,"▁sale":2112,"gado":2113,"▁et":2114,"tencia":2115,"▁viernes":2116,"▁jor":2117,"▁cerra":2118,"▁puer":2119,"▁desanimada":2120,"▁enci":2121,"▁nota":2122,"▁club":2123,"▁sig":2124,"▁tres":2125,"▁comida":2126,"igh":2127,"ook":2128,"▁out":2129,"ell":2130,"▁mejores":2131,"▁dio":2132,"▁problema":2133,"he":2134,"▁ej":2135,"▁due":2136,"▁chu":2137,"lo,":2138,"▁lun":2139,"▁enco":2140,"cado":2141,"▁simp":2142,"▁100":2143,"gre":2144,"zas":2145,"▁lado":2146,"▁misma":2147,"▁importante":2148,"ite":2149,"gal":2150,"▁buenas":2151,"▁lab":2152,"▁hago":2153,"▁proy":2154,"▁mamá":2155,"▁compañ":2156,"▁capa":2157,"▁podemos":2158,"▁vivir":2159,"▁usted":2160,"tel":2161,"▁nivel":2162,"cra":2163,"▁ever":2164,"▁perio":2165,"bir":2166,"ry":2167,"▁sá":2168,"▁grupo":2169,"▁programa":2170,"▁top":2171,"jaj":2172,"▁lleva":2173,"diendo":2174,"tima":2175,"▁from":2176,"▁chin":2177,"gia":2178,"▁manera":2179,"illa":2180,"▁more":2181,"▁sur":2182,"usa":2183,"▁flor":2184,"▁mono":2185,"▁fami":2186,"▁hijo":2187,"▁entra":2188,"tivos":2189,"▁llorar":2190,"st":2191,"▁grandes":2192,"▁il":2193,"iden":2194,"▁má":2195,"▁trabaja":2196,"ocu":2197,"▁hombros":2198,"▁ton":2199,"▁than":2200,"▁30":2201,"▁opin":2202,"tos,":2203,"▁algún":2204,"▁ganar":2205,"cono":2206,"ñas":2207,"▁peque":2208,"▁policía":2209,"demia":2210,"▁cambio":2211,"▁some":2212,"▁tui":2213,"▁extraño":2214,"mpo":2215,"▁pobre":2216,"▁incre":2217,"zos":2218,"▁pier":2219,"▁!!":2220,"tia":2221,"▁mundial":2222,"iencia":2223,"▁izqui":2224,"▁comprar":2225,"▁bla":2226,"▁consi":2227,"ok":2228,"▁sería":2229,"▁enfer":2230,"▁és":2231,"dal":2232,"gü":2233,"gel":2234,"▁pq":2235,"▁información":2236,"▁vale":2237,"eno":2238,"gio":2239,"▁encogida":2240,"▁they":2241,"tos.":2242,"▁ayuda":2243,"▁mensa":2244,"▁depor":2245,"▁will":2246,"▁sacar":2247,"▁interna":2248,"▁escuchar":2249,"▁nombre":2250,"▁bra":2251,"▁gor":2252,"▁entiendo":2253,"▁nu":2254,"▁funcion":2255,"ticos":2256,"day":2257,"▁leer":2258,"tina":2259,"dy":2260,"▁dur":2261,"▁prote":2262,"tamos":2263,"▁demo":2264,"▁fiesta":2265,"▁viendo":2266,"▁juego":2267,"▁siendo":2268,"▁2019":2269,"▁ig":2270,"▁fil":2271,"ung":2272,"pres":2273,"▁exper":2274,"▁kkk":2275,"▁enf":2276,"▁var":2277,"ex":2278,"bla":2279,"▁niños":2280,"tigo":2281,"▁cumplea":2282,"▁tapa":2283,"uld":2284,"▁meses":2285,"▁sta":2286,"ñar":2287,"▁minis":2288,"▁demas":2289,"▁menti":2290,"▁justicia":2291,"ong":2292,"ase":2293,"▁futu":2294,"ctu":2295,"▁int":2296,"inas":2297,"▁if":2298,"▁durante":2299,"▁encima":2300,"▁im":2301,"▁preocu":2302,"▁prem":2303,"ki":2304,"▁realidad":2305,"dado":2306,"▁gato":2307,"▁especial":2308,"rea":2309,"▁suerte":2310,"▁pron":2311,"▁vivo":2312,"▁saben":2313,"▁aque":2314,"ional":2315,"▁sentir":2316,"▁pone":2317,"aña":2318,"▁mús":2319,"▁tendr":2320,"▁españ":2321,"▁organ":2322,"▁política":2323,"▁repres":2324,"▁14":2325,"▁hijos":2326,"her":2327,"▁edi":2328,"▁anda":2329,"▁haga":2330,"▁fra":2331,"▁pende":2332,"▁todavía":2333,"▁period":2334,"▁cumpleaños":2335,"▁play":2336,"vent":2337,"▁perfil":2338,"▁juan":2339,"▁conmigo":2340,"▁primero":2341,"▁oscuro":2342,"ix":2343,"▁i'":2344,"▁sigo":2345,"▁normal":2346,"▁viol":2347,"▁cues":2348,"ick":2349,"ría":2350,"▁situa":2351,"▁orgu":2352,"▁campe":2353,"mpoco":2354,"▁partici":2355,"cidad":2356,"ecer":2357,"▁za":2358,"uncia":2359,"diante":2360,"ciente":2361,"▁gafas":2362,"18":2363,"ard":2364,"rio":2365,"▁trabajar":2366,"▁24":2367,"▁emb":2368,"▁ata":2369,":00":2370,"▁contro":2371,"▁contin":2372,"fono":2373,"▁aprobación":2374,"taron":2375,"▁tempora":2376,"▁tampoco":2377,"▁bras":2378,"ican":2379,"▁now":2380,"▁ano":2381,"▁¿qué":2382,"▁arre":2383,"▁expres":2384,"dora":2385,"▁sola":2386,"▁media":2387,"▁ago":2388,"ça":2389,"tá":2390,"▁inves":2391,"▁inde":2392,"▁meu":2393,"▁dé":2394,"mando":2395,"güen":2396,"ko":2397,"▁mic":2398,"▁fer":2399,"▁chan":2400,"▁si,":2401,"▁confeti":2402,"▁babeando":2403,"▁sele":2404,"ese":2405,"tación":2406,"▁radiante":2407,"▁plata":2408,"▁precio":2409,"ght":2410,"▁serio":2411,"▁tranqui":2412,"▁copa":2413,"▁además":2414,"▁ena":2415,"▁tir":2416,"▁jajajajajaja":2417,"▁mala":2418,"▁estrellas":2419,"▁personal":2420,"tagra":2421,"▁bb":2422,"▁13":2423,"▁glo":2424,"▁cámara":2425,"▁bi":2426,"▁confir":2427,"▁desper":2428,"▁importa":2429,"▁dec":2430,"▁famili":2431,"▁beb":2432,"▁day":2433,"ticas":2434,"▁demás":2435,"▁anti":2436,"ler":2437,"sos":2438,"ál":2439,"▁razón":2440,"▁cua":2441,"tt":2442,"▁izquierda":2443,"▁roto":2444,"▁fá":2445,"▁amarillo":2446,"ró":2447,"ser":2448,"▁conta":2449,"cimiento":2450,"▁punto":2451,"esto":2452,"▁toma":2453,"▁creer":2454,"▁uma":2455,"ar,":2456,"iso":2457,"▁gritando":2458,"▁acaba":2459,"mba":2460,"▁mais":2461,"ar.":2462,"▁haya":2463,"▁última":2464,"ador":2465,"del":2466,"▁16":2467,"tiendo":2468,"▁ef":2469,"▁desp":2470,"▁coment":2471,"▁pagar":2472,"m,":2473,"portun":2474,"▁investi":2475,"icia":2476,"▁face":2477,"gada":2478,"▁lpm":2479,"mó":2480,"▁lis":2481,"▁permi":2482,"▁17":2483,"▁ok":2484,"▁pandemia":2485,"▁get":2486,"▁música":2487,"▁evi":2488,"▁apoyo":2489,"▁ejemp":2490,"ph":2491,"chi":2492,"ición":2493,"▁serie":2494,"▁fui":2495,"ifica":2496,"▁expl":2497,"▁incl":2498,"▁lunes":2499,"▁quere":2500,"ris":2501,"▁encanta":2502,"ct":2503,"▁fis":2504,"▁luz":2505,"▁alguna":2506,"▁cole":2507,"▁got":2508,"▁pelícu":2509,"▁perder":2510,"▁libre":2511,"▁linda":2512,"▁hubi":2513,"▁orden":2514,"▁ke":2515,"vés":2516,"▁movi":2517,"dito":2518,"▁infor":2519,"▁aw":2520,"▁compro":2521,"▁responsab":2522,"▁gre":2523,"▁ves":2524,"▁debería":2525,"ificación":2526,"jada":2527,"▁200":2528,"▁contigo":2529,"▁jos":2530,"ror":2531,"▁acomp":2532,"▁acabo":2533,"▁excel":2534,"ento":2535,"▁abier":2536,"▁follow":2537,"pan":2538,"▁\"el":2539,"usión":2540,"▁dicho":2541,"ónde":2542,"lt;":2543,"au":2544,"▁canción":2545,"▁presenta":2546,"ies":2547,"und":2548,"▁pena":2549,"▁último":2550,"▁otras":2551,"now":2552,"ju":2553,"dando":2554,"▁cerrados":2555,"▁símb":2556,"dios":2557,"▁centro":2558,"▁vs":2559,"▁abs":2560,"cito":2561,"▁cañ":2562,"▁abrazando":2563,"▁general":2564,"▁dra":2565,"ity":2566,"▁tenga":2567,"ioridad":2568,"bel":2569,"▁perro":2570,"▁liga":2571,"cla":2572,"▁junto":2573,"▁tweet":2574,"▁llevar":2575,"ia,":2576,"▁tamb":2577,"▁difí":2578,"▁:)":2579,"▁algunos":2580,"▁pren":2581,"▁quienes":2582,"▁seguridad":2583,"ancia":2584,"ecta":2585,"▁noti":2586,"güenza":2587,"▁escuch":2588,"dó":2589,"▁pelotu":2590,"▁dig":2591,"▁oportun":2592,"▁abrazo":2593,"▁siste":2594,"pido":2595,"▁prue":2596,"▁través":2597,"▁derecho":2598,"▁fueron":2599,"▁sir":2600,"▁peop":2601,"▁far":2602,"pero":2603,"▁log":2604,"▁ka":2605,"fu":2606,"pol":2607,"icios":2608,"▁idea":2609,"▁resp":2610,"▁conver":2611,"▁acti":2612,"▁tí":2613,"▁exis":2614,"▁1.":2615,"tw":2616,"eras":2617,"▁how":2618,"osa":2619,"▁when":2620,"ld":2621,"ciar":2622,"▁princip":2623,"▁gober":2624,"▁people":2625,"▁univer":2626,"▁dije":2627,"▁autor":2628,"▁indi":2629,"▁culpa":2630,"bilidad":2631,"ísimo":2632,"▁ign":2633,"icip":2634,"óg":2635,"▁about":2636,"jsjs":2637,"t,":2638,"-19":2639,"▁trump":2640,"▁show":2641,"▁agrade":2642,"arro":2643,"trás":2644,"gente":2645,"ins":2646,"▁mtvla":2647,"▁cuernos":2648,"▁hemos":2649,"hu":2650,"▁fre":2651,"▁nego":2652,"▁time":2653,"puesta":2654,"▁radio":2655,"▁voto":2656,"▁pasó":2657,"▁payas":2658,"▁municip":2659,"yy":2660,"dí":2661,"la,":2662,"▁rico":2663,"▁sabor":2664,"▁enamo":2665,"▁juntos":2666,"▁bai":2667,"▁quieres":2668,"▁hosp":2669,"▁futuro":2670,"eza":2671,"▁tel":2672,"▁hablando":2673,"taría":2674,"tural":2675,"llos":2676,"ia.":2677,"▁conocer":2678,"▁botón":2679,"mientos":2680,"▁gro":2681,"▁madu":2682,"▁minutos":2683,"▁cabre":2684,"▁senti":2685,"▁25":2686,"▁\"la":2687,"▁cañón":2688,"▁fuerza":2689,"▁queremos":2690,"▁palabras":2691,"▁regres":2692,"▁corr":2693,"pez":2694,"mica":2695,"▁brasil":2696,"tf":2697,"▁char":2698,"▁dentro":2699,"▁libertad":2700,"▁recono":2701,"▁hermoso":2702,"la.":2703,"▁envi":2704,"rible":2705,"▁pase":2706,"▁alta":2707,"su":2708,"▁mex":2709,"▁posible":2710,"▁hermosa":2711,"▁sábado":2712,"jan":2713,"▁eh":2714,"rada":2715,"▁vec":2716,"▁clase":2717,"sidad":2718,"▁estan":2719,"mero":2720,"▁patri":2721,"jando":2722,".000":2723,"2020":2724,"▁existe":2725,"érica":2726,"▁fon":2727,"ink":2728,"▁esperando":2729,"▁entien":2730,"▁our":2731,"▁happ":2732,"▁entender":2733,"▁voz":2734,"ther":2735,"uestra":2736,"▁acos":2737,"▁star":2738,"▁sean":2739,"▁hon":2740,"▁única":2741,"▁nú":2742,"tera":2743,"▁cansa":2744,"ización":2745,"vista":2746,"▁\"no":2747,"▁luna":2748,"▁instagra":2749,"gencia":2750,"▁án":2751,"▁español":2752,"▁der":2753,"▁conci":2754,"miendo":2755,"▁bir":2756,"rera":2757,"▁cine":2758,"ight":2759,"),":2760,"ía,":2761,"▁acor":2762,"yan":2763,"▁alma":2764,"tancia":2765,"▁pesso":2766,"embre":2767,"▁servicio":2768,"▁know":2769,"▁21":2770,"▁cir":2771,"▁vergüenza":2772,"▁quis":2773,"▁fácil":2774,"▁every":2775,"isión":2776,"▁lí":2777,"c.":2778,"cto":2779,"▁querer":2780,"▁regal":2781,"▁bueno,":2782,"▁fern":2783,"▁cambiar":2784,"▁no.":2785,"book":2786,"▁cabreada":2787,"este":2788,"tran":2789,"▁stre":2790,"▁calor":2791,"ess":2792,"▁cuerpo":2793,"mbo":2794,"enas":2795,"▁vídeo":2796,"▁venezol":2797,"▁puño":2798,"imos":2799,"▁who":2800,"dencia":2801,"21":2802,"▁podría":2803,"▁mue":2804,"▁bonito":2805,"▁difícil":2806,"▁comen":2807,"▁morir":2808,"▁noticias":2809,"▁padre":2810,"▁estrella":2811,"▁dejo":2812,"▁temporada":2813,"aro":2814,"▁perdón":2815,"▁santa":2816,"▁aqui":2817,"▁simple":2818,"tener":2819,"▁no?":2820,"▁atención":2821,"▁econo":2822,"mena":2823,"▁see":2824,"▁haces":2825,"▁dolor":2826,"▁casos":2827,"▁ense":2828,"tero":2829,"▁cien":2830,"ef":2831,"▁saludos":2832,"▁sign":2833,"▁fla":2834,"▁er":2835,"▁50":2836,"das.":2837,"▁luis":2838,"▁ou":2839,"▁hice":2840,"▁ado":2841,"▁tv":2842,"▁realmente":2843,"▁dias":2844,"▁según":2845,"▁novio":2846,"▁diga":2847,"▁libro":2848,"aaa":2849,"san":2850,"rez":2851,"▁muerte":2852,"▁fas":2853,"▁rá":2854,"▁congres":2855,"▁sacando":2856,"net":2857,"▁lista":2858,"▁asco":2859,"▁xq":2860,"▁rey":2861,"my":2862,"bro":2863,"arse":2864,"▁cruz":2865,"▁cuent":2866,"▁dónde":2867,"▁i'm":2868,"▁cin":2869,"▁desarro":2870,"2019":2871,"▁black":2872,"▁\"a":2873,"▁increí":2874,"▁das":2875,"▁acep":2876,"▁sistema":2877,"ni":2878,"▁priva":2879,"das,":2880,"▁bloque":2881,"edad":2882,"▁público":2883,"encias":2884,"torio":2885,"uir":2886,"▁bail":2887,"▁busca":2888,"▁ignor":2889,"▁buscar":2890,"▁solu":2891,"▁proces":2892,"▁salva":2893,"▁usar":2894,"▁sep":2895,"dico":2896,"voca":2897,"▁nada,":2898,"▁good":2899,"▁aj":2900,"rando":2901,"▁llamar":2902,"▁ningún":2903,"ção":2904,"▁oficial":2905,"▁redes":2906,"▁toca":2907,"▁here":2908,"▁crisis":2909,"dis":2910,"▁sú":2911,"▁gira":2912,"gran":2913,"▁diciendo":2914,"terio":2915,"▁covid19":2916,"▁valor":2917,"▁nada.":2918,"▁pregunta":2919,"eramente":2920,"▁excelente":2921,"▁té":2922,"▁cumple":2923,"tter":2924,"▁ayudar":2925,"▁amer":2926,"▁contes":2927,"▁hahaha":2928,"▁encontrar":2929,"ices":2930,"ecen":2931,"▁deba":2932,"▁violencia":2933,"▁canal":2934,"fico":2935,"▁covid-19":2936,"▁sw":2937,"▁bajo":2938,"ish":2939,"▁trata":2940,"ooo":2941,"▁maduro":2942,"▁eli":2943,"d,":2944,"▁verga":2945,"▁live":2946,"▁vide":2947,"ía.":2948,"&gt;&gt;":2949,"tur":2950,"▁cuba":2951,"▁agar":2952,"▁dando":2953,"ques":2954,"▁cama":2955,"▁happy":2956,"cin":2957,"▁alcal":2958,"▁verificación":2959,"ep":2960,"▁ple":2961,"▁problemas":2962,"12":2963,"▁hel":2964,"▁sí,":2965,"▁off":2966,"ra,":2967,"▁its":2968,"thing":2969,"▁pana":2970,"▁demasiado":2971,"erto":2972,"▁cerve":2973,"▁obli":2974,"ados":2975,"▁secre":2976,"▁mater":2977,"dita":2978,"▁err":2979,"▁pedo":2980,"▁nuestras":2981,"▁vida.":2982,"▁segunda":2983,"▁siguen":2984,"▁histor":2985,"▁tanta":2986,"▁descu":2987,"▁lucha":2988,"ra.":2989,"▁bien,":2990,"▁mama":2991,"quito":2992,"sion":2993,"din":2994,"▁moles":2995,"▁internacional":2996,"▁dale":2997,"▁quería":2998,"▁hombres":2999,"▁mensaje":3000,"ieron":3001,"ác":3002,"▁pensando":3003,"vera":3004,"▁segundo":3005,"▁deses":3006,"▁avan":3007,"ág":3008,"▁doy":3009,"▁papá":3010,"▁reun":3011,"i,":3012,"▁jueves":3013,"▁aman":3014,"▁cli":3015,"▁year":3016,"▁viv":3017,"rió":3018,"▁vuelta":3019,"sas":3020,"▁limp":3021,"ner":3022,"▁llu":3023,"▁elecciones":3024,"▁gon":3025,"lación":3026,"oso":3027,"▁pedir":3028,"▁payaso":3029,"are":3030,"go,":3031,"tas,":3032,"mun":3033,"ículo":3034,"▁sk":3035,"▁situación":3036,"▁impos":3037,"▁socie":3038,"dé":3039,"▁unidos":3040,"▁vaca":3041,"▁22":3042,"▁sentido":3043,"istra":3044,"▁facebook":3045,"▁eno":3046,"▁martes":3047,"11":3048,"▁sent":3049,"▁econ":3050,"▁instagram":3051,"▁ep":3052,"▁carlos":3053,"▁julio":3054,"▁constitu":3055,"ang":3056,"▁manda":3057,"▁crea":3058,"▁niño":3059,"tantes":3060,"▁corre":3061,"▁increíble":3062,"▁institu":3063,"▁superioridad":3064,"▁dipu":3065,"▁jugador":3066,"▁premios":3067,"r.":3068,"▁red":3069,"▁jamás":3070,"way":3071,"▁recuer":3072,"▁mó":3073,"▁brin":3074,"▁explo":3075,"▁ahor":3076,"▁ing":3077,"▁&lt;":3078,"▁sociales":3079,"▁vuelve":3080,"▁mandar":3081,"▁tit":3082,"dd":3083,"cómo":3084,"▁hicieron":3085,"▁sector":3086,"▁literal":3087,"▁educación":3088,"▁abur":3089,"▁jajaj":3090,"▁tem":3091,"▁revés":3092,"▁ener":3093,"▁back":3094,"▁vac":3095,"rate":3096,"taciones":3097,"▁suel":3098,"▁econó":3099,"▁derechos":3100,"▁wee":3101,"▁proyecto":3102,"fica":3103,"▁2.":3104,"▁cuad":3105,"▁even":3106,"▁contag":3107,"▁ocur":3108,"▁creciente":3109,"idos":3110,"▁aguan":3111,"brar":3112,"▁respeto":3113,"▁indepen":3114,"torios":3115,"▁exa":3116,"ses":3117,"tas.":3118,"▁campaña":3119,"visión":3120,"▁tren":3121,"▁candida":3122,"ído":3123,"▁dispon":3124,"dres":3125,"▁lea":3126,"▁bur":3127,"▁saboreando":3128,"ales.":3129,"quen":3130,"all":3131,"▁ped":3132,"▁promo":3133,"▁termina":3134,"▁enter":3135,"▁duele":3136,"▁ki":3137,"me,":3138,"tidad":3139,"▁econom":3140,"▁best":3141,"▁onda":3142,"▁matar":3143,"gación":3144,"tral":3145,"▁nie":3146,"pren":3147,"nada":3148,"▁mane":3149,"▁tremen":3150,"teo":3151,"▁cierto":3152,"▁caf":3153,"▁bomb":3154,"▁pienso":3155,"▁aus":3156,"tador":3157,"▁empezar":3158,"cir":3159,"udo":3160,"como":3161,"▁faz":3162,"▁deben":3163,"em":3164,"▁dejen":3165,"▁bil":3166,"▁votar":3167,"▁esperan":3168,"▁23":3169,"▁messi":3170,"able":3171,"bes":3172,"dente":3173,"▁hermano":3174,"▁bailando":3175,"table":3176,"▁hagan":3177,"cr":3178,"▁ber":3179,"15":3180,"▁justo":3181,"▁nuevos":3182,"ales,":3183,"▁impres":3184,"▁ré":3185,"▁sociedad":3186,"▁cuatro":3187,"▁súper":3188,"▁culo":3189,"hora":3190,"▁2018":3191,"▁tenes":3192,"▁genera":3193,"▁vino":3194,"ning":3195,"▁usa":3196,"date":3197,"uno":3198,"▁decep":3199,"▁app":3200,"▁pis":3201,"▁terminar":3202,"▁democra":3203,"coles":3204,"▁bru":3205,"▁virus":3206,"-0":3207,"tió":3208,"▁esperar":3209,"▁desapro":3210,"▁guerra":3211,"▁acer":3212,"▁vive":3213,"▁hol":3214,"▁nic":3215,"art":3216,"▁darle":3217,"celona":3218,"▁más.":3219,"▁vien":3220,"▁alcan":3221,"tivas":3222,"▁win":3223,"▁mel":3224,"▁40":3225,"uito":3226,"▁obje":3227,"▁any":3228,"▁próximo":3229,"▁diri":3230,"▁cuanto":3231,"▁cerca":3232,"▁imagen":3233,"sar":3234,"▁ejemplo":3235,"lidad":3236,"mite":3237,"▁mín":3238,"cina":3239,"erta":3240,"▁cra":3241,"▁agotada":3242,"ología":3243,"▁color":3244,"▁partidos":3245,"diente":3246,"▁pronto":3247,"▁puntos":3248,"▁bola":3249,"▁silen":3250,"▁avis":3251,"▁viejo":3252,"iro":3253,"guay":3254,"▁fuck":3255,"▁;":3256,"ude":3257,"nn":3258,"▁pública":3259,"▁pasando":3260,"▁//":3261,"▁produc":3262,"▁estados":3263,"▁rosa":3264,"io,":3265,"▁hambre":3266,"tino":3267,"▁\"s":3268,"▁signo":3269,"▁ninguna":3270,"▁camino":3271,"villa":3272,"ugh":3273,"▁militar":3274,"▁descan":3275,"▁team":3276,"▁sup":3277,"▁she":3278,"▁contar":3279,"▁ecu":3280,"▁vin":3281,"▁tierra":3282,"▁ó":3283,"orn":3284,"▁seman":3285,"▁boy":3286,"▁ara":3287,"▁¿por":3288,"!!!.":3289,"▁seas":3290,"▁seu":3291,"▁meter":3292,"▁arran":3293,"▁repor":3294,"▁sabemos":3295,"▁quedo":3296,"▁beca":3297,"▁sto":3298,"the":3299,"▁momentos":3300,"▁vai":3301,"mente,":3302,"▁puesto":3303,"▁dro":3304,"▁aso":3305,"▁cari":3306,"▁world":3307,"▁esté":3308,"▁entrar":3309,"▁llevo":3310,"tí":3311,"gon":3312,"▁prepara":3313,"al.":3314,"▁allá":3315,"▁bebé":3316,"▁minha":3317,"▁cerveza":3318,"▁quiera":3319,"▁conoce":3320,"▁fiscal":3321,"graf":3322,"▁idio":3323,"▁joven":3324,"gué":3325,"▁terror":3326,"▁dado":3327,"▁aaa":3328,"ieza":3329,"▁conten":3330,"me.":3331,"▁vivi":3332,"▁datos":3333,"▁noticia":3334,"▁protes":3335,"▁vida,":3336,"▁chil":3337,"▁amigas":3338,"▁hubiera":3339,"▁preocupa":3340,"▁jes":3341,"▁hija":3342,"▁malo":3343,"▁consegui":3344,"aste":3345,"▁desaprobación":3346,"▁alber":3347,"p.":3348,"▁insta":3349,"▁defini":3350,"▁opera":3351,"▁puto":3352,"▁vieja":3353,"ben":3354,"zan":3355,"dieron":3356,"▁futbol":3357,"tín":3358,"▁felicidad":3359,"▁merece":3360,"▁gesto":3361,"▁sec":3362,"▁papel":3363,"▁local":3364,"▁cuán":3365,"mn":3366,"▁felicidades":3367,"50":3368,"▁fri":3369,"▁labor":3370,"▁seguimos":3371,"▁&gt;":3372,"\"..":3373,"▁zona":3374,"lin":3375,"ctura":3376,"▁noches":3377,"▁demos":3378,"▁rato":3379,"▁tambien":3380,"▁stream":3381,"▁pueda":3382,"▁américa":3383,"▁señora":3384,"▁hoy,":3385,"▁nooo":3386,"cent":3387,"cida":3388,"17":3389,"▁mando":3390,"▁oportunidad":3391,"▁mari":3392,"▁luces":3393,"io.":3394,"quis":3395,"▁desespera":3396,"▁ahre":3397,":30":3398,"▁eran":3399,"▁trofe":3400,"▁habrá":3401,"▁barcelona":3402,"ero,":3403,"▁pais":3404,"▁escuela":3405,"itan":3406,"▁detal":3407,"▁aprove":3408,"icado":3409,"ding":3410,"▁voc":3411,"respon":3412,"▁spo":3413,"▁bastante":3414,"▁obra":3415,"▁perfec":3416,"▁web":3417,"hs":3418,"▁ala":3419,"mos.":3420,"al,":3421,"▁conven":3422,"▁basta":3423,"▁blanca":3424,"ach":3425,"▁ulti":3426,"▁foi":3427,"▁mascar":3428,"mental":3429,"▁need":3430,"▁navidad":3431,"ions":3432,"arme":3433,"bia":3434,"▁exig":3435,"▁aleg":3436,"ying":3437,"▁sonro":3438,"▁venir":3439,"▁youtu":3440,"ero.":3441,"z,":3442,"▁ár":3443,"▁presiden":3444,"mos,":3445,"▁internet":3446,"pare":3447,"▁prome":3448,"▁cd":3449,"▁ee":3450,"forma":3451,"dura":3452,"▁dev":3453,"▁fecha":3454,"ianza":3455,"▁uso":3456,"▁todo,":3457,"▁recuerdo":3458,"▁película":3459,"▁manif":3460,"▁pensé":3461,"▁gusto":3462,"▁opinión":3463,"▁maes":3464,"▁ase":3465,"▁tecn":3466,"▁tuvi":3467,"éndo":3468,"▁comien":3469,"▁obvio":3470,"▁consul":3471,"▁lig":3472,"▁diario":3473,"▁opos":3474,"▁trofeo":3475,"▁bri":3476,"i.":3477,"tili":3478,"▁ge":3479,"ans":3480,"áis":3481,"up":3482,"icó":3483,"ak":3484,"▁siga":3485,"▁mate":3486,"bres":3487,"▁símbolo":3488,"▁tapados":3489,"tarse":3490,"▁lluvia":3491,"▁número":3492,"curso":3493,"▁esti":3494,"▁medidas":3495,"▁musical":3496,"▁telé":3497,"ete":3498,"▁encuentro":3499,"▁ko":3500,"▁hermana":3501,"ár":3502,"▁amlo":3503,"▁fras":3504,"▁)":3505,"co,":3506,"▁golpe":3507,"▁sha":3508,"xs":3509,".\"":3510,"hor":3511,"▁sorpren":3512,"mación":3513,"▁durmiendo":3514,"▁pessoas":3515,"▁rápido":3516,"alu":3517,"▁sonrojada":3518,"▁correc":3519,"▁juega":3520,"▁llegó":3521,"▁stor":3522,"▁hin":3523,"▁duda":3524,"▁escucha":3525,"▁die":3526,"▁café":3527,"▁info":3528,"▁cree":3529,"▁denun":3530,"▁estudiar":3531,"▁empi":3532,"▁josé":3533,"line":3534,"▁edad":3535,"▁aga":3536,"▁éx":3537,"▁conoz":3538,"▁champ":3539,"▁paci":3540,"▁dó":3541,"▁memo":3542,"▁europa":3543,"ma,":3544,"ares":3545,"▁constru":3546,"▁rid":3547,"▁profesional":3548,"▁medios":3549,"unt":3550,"▁provin":3551,"▁ingres":3552,"gues":3553,"ile":3554,"▁significa":3555,"▁did":3556,"▁diver":3557,"▁depen":3558,"rano":3559,"▁comunidad":3560,"cle":3561,"▁celular":3562,"ua":3563,"▁mexic":3564,"▁carrera":3565,"▁pé":3566,"▁llen":3567,"jun":3568,"▁viva":3569,"chez":3570,"▁acu":3571,"▁macri":3572,"▁móvil":3573,"▁dont":3574,"▁bien.":3575,"▁mur":3576,"▁cerrado":3577,"hy":3578,"▁lín":3579,"▁hospital":3580,"▁globo":3581,"dp":3582,"▁apa":3583,"▁hilo":3584,"▁apor":3585,"▁todo.":3586,"gor":3587,"▁aire":3588,"▁entrevista":3589,"▁vc":3590,"▁ropa":3591,"pular":3592,"▁resto":3593,"izado":3594,"▁only":3595,"▁vacaciones":3596,"icion":3597,"▁china":3598,"go.":3599,"▁clases":3600,"▁respuesta":3601,"diciones":3602,"▁kar":3603,"▁jeje":3604,"▁quin":3605,"▁femin":3606,"▁refle":3607,"▁imagin":3608,"gura":3609,"tarme":3610,"▁lor":3611,"▁pele":3612,"▁isso":3613,"fuer":3614,"inal":3615,"▁joder":3616,"▁político":3617,"lix":3618,"▁inicia":3619,",.":3620,"▁capital":3621,"▁gil":3622,"▁mente":3623,"▁moren":3624,"ste":3625,"ving":3626,"▁goberna":3627,"▁solid":3628,"▁calidad":3629,"▁because":3630,"▁baja":3631,"gir":3632,"▁esperamos":3633,"món":3634,"▁orto":3635,"▁orig":3636,"▁absolu":3637,"▁leg":3638,"▁bos":3639,"lash":3640,"▁atrás":3641,"▁jugadores":3642,"▁nas":3643,"▁cumpl":3644,"▁oh":3645,"▁their":3646,"▁cere":3647,"▁patr":3648,"▁novia":3649,"▁want":3650,"ré":3651,"▁niña":3652,"▁pequeño":3653,"▁ran":3654,"▁você":3655,"▁juro":3656,"▁regalo":3657,"▁l'":3658,"▁delin":3659,"▁sil":3660,"▁alivio":3661,"taje":3662,"▁admi":3663,"cheta":3664,"▁bre":3665,"▁deje":3666,"▁arte":3667,"▁mag":3668,"damos":3669,"▁viola":3670,"▁igles":3671,"ilidad":3672,"usi":3673,"▁inteli":3674,"▁feel":3675,"ctubre":3676,"▁partir":3677,"▁maravil":3678,"▁non":3679,"▁salió":3680,"▁mexico":3681,"▁make":3682,"▁imposible":3683,"▁recomen":3684,"iciente":3685,"▁colec":3686,"▁despe":3687,"▁técn":3688,"▁pongo":3689,"▁pp":3690,"zada":3691,"▁tenido":3692,"▁rob":3693,"ectos":3694,"!!.":3695,"▁participa":3696,"▁¿cu":3697,"▁boli":3698,"▁cultura":3699,"▁ido":3700,"ándose":3701,"▁catal":3702,"▁lejos":3703,"ker":3704,"▁amp":3705,"▁ejer":3706,"▁máx":3707,"▁rus":3708,"▁decepcion":3709,"▁refer":3710,"ens":3711,"▁decirl":3712,"tulo":3713,"▁eso,":3714,"andom":3715,"▁chica":3716,"▁ind":3717,"▁uru":3718,"▁fl":3719,"▁loca":3720,"▁defender":3721,"▁teléfono":3722,"▁algunas":3723,"▁años,":3724,"puesto":3725,"bli":3726,"▁control":3727,"▁pide":3728,"end":3729,"▁???":3730,"▁kca":3731,"▁levantada":3732,"▁distin":3733,"▁atra":3734,"▁dólar":3735,"▁it's":3736,"mber":3737,"▁olvidar":3738,"cola":3739,"▁adelante":3740,"▁sp":3741,"▁arro":3742,"▁neu":3743,"▁esca":3744,"▁uri":3745,"▁vomi":3746,"▁viaje":3747,"ket":3748,"▁benef":3749,"▁mayo":3750,"▁preven":3751,"▁etc":3752,"▁big":3753,"ull":3754,"▁mayoría":3755,"▁dese":3756,"bió":3757,"▁naran":3758,"▁hal":3759,"▁don't":3760,"▁compartir":3761,"an,":3762,"ure":3763,"pira":3764,"16":3765,"▁perú":3766,"▁ponen":3767,"▁chincheta":3768,"▁there":3769,"▁aprender":3770,"▁más,":3771,"▁paga":3772,"▁dani":3773,"▁varios":3774,"ming":3775,"▁funda":3776,"▁vemos":3777,"▁ofre":3778,"día":3779,"▁tá":3780,"▁natural":3781,"▁venga":3782,"▁congreso":3783,"mg":3784,"13":3785,"▁apre":3786,"▁octubre":3787,"▁subir":3788,"▁fantas":3789,"▁giratorios":3790,"▁falle":3791,"▁river":3792,"▁saca":3793,"ará":3794,"▁consu":3795,"cti":3796,"▁humor":3797,"▁anun":3798,"▁frien":3799,"▁anal":3800,"▁abor":3801,"▁abril":3802,"▁mirar":3803,"▁banda":3804,"▁democracia":3805,"ked":3806,"▁orgullo":3807,"▁políticos":3808,"▁colab":3809,"▁creen":3810,"▁way":3811,"quer":3812,"ustra":3813,"▁tin":3814,"ma.":3815,"▁exac":3816,"▁over":3817,"▁impues":3818,"▁duer":3819,"▁celebra":3820,"▁doble":3821,"sen":3822,"▁¿cómo":3823,"lada":3824,"▁já":3825,"▁adver":3826,"▁emple":3827,"zz":3828,"▁llev":3829,"▁silencio":3830,"▁youtube":3831,"de.":3832,"▁marcha":3833,"▁ste":3834,"itario":3835,"▁ron":3836,"▁barrio":3837,"▁tuve":3838,"▁pelig":3839,"de,":3840,"▁quedan":3841,"cara":3842,"▁thank":3843,"rido":3844,"▁chor":3845,"▁disfrutar":3846,"▁utili":3847,"▁vista":3848,"▁totalmente":3849,"▁llegue":3850,"▁lol":3851,"▁chicos":3852,"▁tengan":3853,"▁cae":3854,"▁supon":3855,"ira":3856,"▁padres":3857,"▁tantas":3858,"▁seria":3859,"gle":3860,"▁repro":3861,"▁plaza":3862,"tions":3863,"an.":3864,"▁agre":3865,"▁miér":3866,"▁jugando":3867,"▁canciones":3868,"▁pic":3869,"▁descar":3870,"quiera":3871,"miso":3872,"▁evitar":3873,"biendo":3874,"▁puerto":3875,"sito":3876,"tito":3877,"▁sabía":3878,"▁pho":3879,"▁siguien":3880,"▁bonita":3881,"2.":3882,"▁cam":3883,"yendo":3884,"▁quiz":3885,"ópez":3886,"▁iden":3887,"▁pablo":3888,"▁acuer":3889,"▁chec":3890,"▁empresa":3891,"rito":3892,"▁pedi":3893,"▁escuchando":3894,"mx":3895,"▁ries":3896,"▁esfuer":3897,"▁directo":3898,"▁26":3899,"tio":3900,"▁verano":3901,"▁prensa":3902,"ings":3903,"▁pareja":3904,"▁jornada":3905,"▁santia":3906,"▁vou":3907,"▁¿y":3908,"▁compra":3909,"▁war":3910,"▁gratis":3911,"▁peda":3912,"jd":3913,"▁lópez":3914,"▁historias":3915,"▁estudio":3916,"zado":3917,"▁gab":3918,"bida":3919,"▁oro":3920,"▁trabajando":3921,"▁28":3922,"tea":3923,"▁ahi":3924,"▁=":3925,"▁digan":3926,"▁orgullos":3927,"kes":3928,"▁llena":3929,"▁ocu":3930,"▁miles":3931,"▁ecuador":3932,"▁visita":3933,"nt":3934,"▁prepar":3935,"▁dedo":3936,"ón,":3937,"▁bron":3938,"▁(?":3939,"▁cami":3940,"ina.":3941,"▁mig":3942,"▁concha":3943,"▁feo":3944,"▁defensa":3945,"bamos":3946,"▁&lt;3":3947,"▁life":3948,"▁wat":3949,"xi":3950,"co.":3951,"▁27":3952,"▁hacerlo":3953,"▁flash":3954,"▁exo":3955,"▁been":3956,"ey":3957,"?!":3958,"uras":3959,"▁libros":3960,"olución":3961,"mexico":3962,"▁recuerda":3963,"▁him":3964,"ico,":3965,"▁recha":3966,"▁venta":3967,"tiembre":3968,"▁ner":3969,"▁dieron":3970,"▁excla":3971,"▁tiempos":3972,"▁líder":3973,"▁tuit":3974,"▁prohi":3975,"▁siii":3976,"▁cabr":3977,"▁emer":3978,"▁cansada":3979,"óven":3980,"ro,":3981,"▁repe":3982,"▁afec":3983,"till":3984,"▁enga":3985,"▁papa":3986,"▁3.":3987,"▁really":3988,"▁pus":3989,"▁week":3990,"▁error":3991,"▁palabra":3992,"14":3993,"▁años.":3994,"/0":3995,"ric":3996,"▁colegio":3997,"▁expresión":3998,"get":3999,"▁horrible":4000,"▁ses":4001,"▁diferencia":4002,"▁gr":4003,"▁suspen":4004,"terna":4005,"▁sala":4006,"▁¡¡":4007,"rica":4008,"▁js":4009,"ny":4010,"▁cola":4011,"tivamente":4012,"bum":4013,"ft":4014,"▁así,":4015,"▁insul":4016,"ku":4017,"▁recur":4018,"▁paro":4019,"▁siente":4020,"▁tuvo":4021,"▁jóven":4022,"▁hacemos":4023,"▁segura":4024,"▁esse":4025,"terior":4026,"▁países":4027,"▁oli":4028,"za,":4029,"▁caer":4030,"▁fís":4031,"▁dise":4032,"▁ministro":4033,"mado":4034,"eee":4035,"▁animal":4036,"iar":4037,"umen":4038,"logo":4039,"▁recordar":4040,"▁mental":4041,"▁crí":4042,"▁sel":4043,"▁tec":4044,"▁docu":4045,"▁stan":4046,"▁¿qui":4047,"▁masa":4048,"▁presente":4049,"▁despues":4050,"▁never":4051,"ciona":4052,"ón.":4053,"mán":4054,"tilla":4055,"▁empresas":4056,"▁would":4057,"▁again":4058,"clu":4059,"cí":4060,"▁basura":4061,"▁game":4062,"▁gh":4063,"▁país.":4064,"▁dicta":4065,"▁why":4066,"▁explica":4067,"▁exclamación":4068,"▁first":4069,"▁empieza":4070,"clara":4071,"▁reti":4072,"mé":4073,"▁desarrollo":4074,"▁netf":4075,"isis":4076,"▁histó":4077,"▁volvi":4078,"▁solici":4079,"▁extre":4080,"uelo":4081,"ole":4082,"▁cielo":4083,"▁sar":4084,"▁mueca":4085,"ally":4086,"onas":4087,"▁cala":4088,"vor":4089,"▁mani":4090,"▁universidad":4091,"▁europe":4092,",,":4093,"▁despier":4094,"▁ligeramente":4095,"cidos":4096,"▁netflix":4097,"ducir":4098,"miaw":4099,"▁nuevas":4100,"▁ellas":4101,"▁naranja":4102,"▁querido":4103,"▁disponible":4104,"▁after":4105,"▁post":4106,"▁experiencia":4107,"▁palo":4108,"▁jajaja":4109,"▁tb":4110,"▁convi":4111,"▁critic":4112,"anti":4113,"▁hablan":4114,"h,":4115,"▁mode":4116,"ós":4117,"mbra":4118,"tale":4119,"sapp":4120,"lle":4121,"ca,":4122,"2018":4123,"pia":4124,"▁intent":4125,"▁clara":4126,"▁ana":4127,"▁agos":4128,"▁septiembre":4129,"tiv":4130,"▁bl":4131,"▁please":4132,"cionar":4133,"iera":4134,"_de":4135,"▁jar":4136,"▁genial":4137,"▁ansi":4138,"▁gener":4139,"▁quedó":4140,"▁sou":4141,"▁cualquiera":4142,"sel":4143,"▁sirve":4144,"ro.":4145,"tle":4146,"▁amena":4147,"▁cic":4148,"▁recién":4149,"▁delincu":4150,"▁pasan":4151,"▁gustaría":4152,"▁repu":4153,"▁salga":4154,"ciembre":4155,"▁conversa":4156,"▁dejan":4157,"▁resultados":4158,"talla":4159,"▁llego":4160,"pec":4161,"mentar":4162,"▁vent":4163,"▁jajajajaja":4164,"▁suce":4165,"▁popular":4166,"▁recla":4167,"_de_":4168,"▁enfada":4169,"▁buscando":4170,"▁d'":4171,"▁contr":4172,"▁amaz":4173,"▁presu":4174,"▁muertos":4175,"▁escribir":4176,"▁siquiera":4177,"▁salen":4178,"▁cuesta":4179,"▁admin":4180,"▁asesina":4181,"▁sán":4182,"▁necesario":4183,"▁dul":4184,"▁puso":4185,"▁\"es":4186,"▁look":4187,"pla":4188,"▁muito":4189,"▁rock":4190,"▁dormi":4191,"▁corte":4192,"1.":4193,"▁miércoles":4194,"▁diciembre":4195,"▁costa":4196,"▁curso":4197,"▁ál":4198,"trando":4199,"▁legal":4200,"▁bienven":4201,"▁encar":4202,"▁mismos":4203,"▁marzo":4204,"▁them":4205,"iantina":4206,"tien":4207,"▁calles":4208,"▁today":4209,"▁declara":4210,"by":4211,"xa":4212,"▁banco":4213,"ula":4214,"▁whatsapp":4215,"▁pinche":4216,"▁capaz":4217,"▁cuidar":4218,"▁villa":4219,"▁relación":4220,"▁pido":4221,"mel":4222,"▁estaría":4223,"▁deseo":4224,"▁semanas":4225,"fel":4226,"▁sui":4227,"eres":4228,"▁estuvo":4229,"▁maría":4230,"▁línea":4231,"▁eeuu":4232,"wer":4233,"gs":4234,"▁gustan":4235,"za.":4236,"▁pobla":4237,"▁debate":4238,"▁entrena":4239,"▁env":4240,"▁trai":4241,"ezo":4242,"▁economía":4243,"ista,":4244,"xt":4245,"▁lamenta":4246,"▁crimin":4247,"▁podes":4248,"▁tes":4249,"▁puse":4250,"▁participar":4251,"▁videos":4252,"isla":4253,"▁arreg":4254,"ico.":4255,"k.":4256,"▁mitad":4257,"ron":4258,"▁mío":4259,"ctr":4260,"arte":4261,"▁flo":4262,"▁corrupción":4263,"▁causa":4264,"tifica":4265,"ulo":4266,"▁rin":4267,"▁muero":4268,"▁pala":4269,"▁disco":4270,"ky":4271,"▁caga":4272,"▁apl":4273,"▁univers":4274,"▁home":4275,"▁nove":4276,"▁andar":4277,"▁entrega":4278,"3.":4279,"chu":4280,"▁desesperada":4281,"▁espacio":4282,"ley":4283,"has":4284,"▁think":4285,"h.":4286,"▁digital":4287,"▁largo":4288,"24":4289,"▁prác":4290,"5.":4291,"ina,":4292,"ze":4293,"▁famos":4294,"ble.":4295,"tales":4296,"▁miguel":4297,"▁sien":4298,"▁representa":4299,"▁fondo":4300,"▁bio":4301,"▁penal":4302,"▁santiago":4303,"▁won":4304,"▁deten":4305,"▁porfa":4306,"▁wan":4307,"▁kcamexico":4308,"ws":4309,"▁mia":4310,"▁mundo.":4311,"▁mascarilla":4312,"int":4313,"▁girl":4314,"orme":4315,"▁próxima":4316,"rés":4317,"▁cagar":4318,"▁gén":4319,"▁acompañ":4320,"▁estren":4321,"▁mtvmiaw":4322,"gus":4323,"tiene":4324,"▁día,":4325,"zó":4326,"▁carajo":4327,"tró":4328,"▁estuvi":4329,"▁haz":4330,"mente.":4331,"u.":4332,"▁denuncia":4333,"▁temprano":4334,"'re":4335,"▁recibir":4336,"▁pedro":4337,"zados":4338,"▁essa":4339,"▁fic":4340,"▁bella":4341,"jeron":4342,"▁últimos":4343,"▁news":4344,"tear":4345,"▁central":4346,"▁yo,":4347,"▁pesar":4348,"▁nomas":4349,"▁polit":4350,"males":4351,"▁mata":4352,"▁poquito":4353,"▁pendejo":4354,"▁acabar":4355,"40":4356,"▁tenia":4357,"queo":4358,"gracias":4359,"7.":4360,"▁consecu":4361,"crip":4362,"bido":4363,"▁proba":4364,"▁cabal":4365,"▁mol":4366,"▁mercado":4367,"▁maravillos":4368,"▁anoche":4369,"▁ando":4370,"▁director":4371,"▁vienen":4372,"▁novi":4373,"▁inicio":4374,"hol":4375,"▁finde":4376,"monio":4377,"▁online":4378,"▁tae":4379,"▁urgente":4380,"idad.":4381,"▁hojas":4382,"▁vea":4383,"▁miss":4384,"▁pruebas":4385,"▁televisión":4386,"vez":4387,"▁??":4388,"▁dem":4389,"▁cuentas":4390,"c,":4391,"▁servicios":4392,"▁discul":4393,"▁inver":4394,"▁ger":4395,"turas":4396,"▁sueños":4397,"cular":4398,"▁mínimo":4399,"▁wey":4400,"cta":4401,"▁arco":4402,"▁mier":4403,"▁playa":4404,"▁baj":4405,"▁campo":4406,"▁link":4407,"▁stu":4408,"▁pág":4409,"ista.":4410,"ila":4411,"▁martín":4412,"▁grogui":4413,"erva":4414,"▁present":4415,"▁90":4416,"▁piensa":4417,"▁apenas":4418,"ana.":4419,"▁incluso":4420,"lia":4421,"▁too":4422,"▁metro":4423,"▁gesti":4424,"▁resultado":4425,"▁sangre":4426,"▁guer":4427,"cus":4428,"▁alco":4429,"▁distancia":4430,"▁arma":4431,"tem":4432,"▁camis":4433,"jus":4434,"ca.":4435,"▁pd":4436,"▁cn":4437,"▁base":4438,"▁acces":4439,"▁army":4440,"todo":4441,"▁caus":4442,"porte":4443,"gg":4444,"▁sexual":4445,"ters":4446,"▁decía":4447,"tui":4448,"▁mmm":4449,"▁recuper":4450,"▁vayan":4451,"ñe":4452,"▁sánchez":4453,"medad":4454,"itch":4455,":(":4456,"▁bajar":4457,"▁mul":4458,"▁árbol":4459,"mate":4460,"rero":4461,"▁narco":4462,"▁necesitamos":4463,"▁jóvenes":4464,"▁elector":4465,"▁éxito":4466,"▁medic":4467,"▁tea":4468,"pul":4469,"ga,":4470,"▁huel":4471,"cons":4472,"▁tho":4473,"ate":4474,"▁estadio":4475,"pó":4476,"cionales":4477,"▁daño":4478,"mática":4479,"▁spe":4480,"▁torne":4481,"▁reac":4482,"▁hy":4483,"voz":4484,"cera":4485,"▁prefi":4486,"▁eso.":4487,"ciones.":4488,"▁comentarios":4489,"▁à":4490,"▁moral":4491,"▁let":4492,"▁lograr":4493,"▁organiza":4494,"▁80":4495,"▁ot":4496,"▁destru":4497,"ney":4498,"▁diferente":4499,"▁dign":4500,"▁tiro":4501,"▁rica":4502,"▁ciudadanos":4503,"▁trabajadores":4504,"ública":4505,"▁conden":4506,"ways":4507,"▁incen":4508,"▁temas":4509,"gna":4510,"▁día.":4511,"▁seguidores":4512,"▁capí":4513,"gimen":4514,"▁argu":4515,"▁empren":4516,"▁tex":4517,"tes,":4518,"▁stop":4519,"erno":4520,"▁vote":4521,"▁goles":4522,"▁dejó":4523,"▁mantener":4524,"▁vomitando":4525,"unta":4526,"▁puro":4527,"▁debemos":4528,"bio":4529,"▁into":4530,"__":4531,"▁estaban":4532,"▁cuál":4533,"▁enfadada":4534,"▁advertencia":4535,"▁eje":4536,"▁sonrisa":4537,"roso":4538,"▁últimas":4539,"▁mach":4540,"▁bás":4541,"▁sigan":4542,"▁quede":4543,"▁caliente":4544,"▁¿no":4545,"▁yo:":4546,"▁mesa":4547,"▁que,":4548,"▁mía":4549,"▁ud":4550,"▁colombi":4551,"▁leo":4552,"puestas":4553,"▁corriendo":4554,"▁casa,":4555,"▁fracas":4556,"▁feder":4557,"▁asus":4558,"teros":4559,"▁inv":4560,"▁preci":4561,"remos":4562,"▁wal":4563,"▁imb":4564,"▁simplemente":4565,"▁dices":4566,"▁condu":4567,"▁mete":4568,"▁adul":4569,"ards":4570,"▁modo":4571,"▁equipos":4572,"ciones,":4573,"wa":4574,"▁puerta":4575,"▁feste":4576,"-1":4577,"▁bici":4578,"▁bad":4579,"▁dura":4580,"▁huevo":4581,"▁ras":4582,"▁actu":4583,"▁proceso":4584,"▁felices":4585,"dilla":4586,"mera":4587,"pes":4588,"ines":4589,"▁anivers":4590,"▁triun":4591,"▁adop":4592,"arias":4593,"▁cab":4594,"cura":4595,"▁baby":4596,"▁extraña":4597,"▁económ":4598,"▁ador":4599,"▁gonz":4600,"▁ansiedad":4601,"▁selección":4602,"▁deberían":4603,"enos":4604,"dri":4605,"▁zapa":4606,"▁gasol":4607,"▁república":4608,"▁spa":4609,"▁cai":4610,"▁eta":4611,"▁cargo":4612,"▁ed":4613,"▁paja":4614,"▁viento":4615,"eets":4616,"▁épo":4617,"truir":4618,"▁4.":4619,"▁ass":4620,"chando":4621,"▁todos.":4622,"▁juegos":4623,"▁amista":4624,"▁ná":4625,"▁tantos":4626,"▁fab":4627,"hhh":4628,"cien":4629,"▁esco":4630,"▁chocola":4631,"olos":4632,"▁junio":4633,"▁estudiantes":4634,"▁parque":4635,"▁casa.":4636,"4.":4637,"▁alar":4638,"▁still":4639,"▁cár":4640,"ded":4641,"gados":4642,"▁pobres":4643,"eran":4644,"cente":4645,"ily":4646,"▁contrario":4647,"ana,":4648,"▁sevilla":4649,"▁prueba":4650,"▁dibu":4651,"buena":4652,"cita":4653,"▁interesante":4654,"tm":4655,"▁els":4656,"ández":4657,"▁petro":4658,"▁jaja.":4659,"▁efec":4660,"▁cuándo":4661,"ga.":4662,"chan":4663,"▁siguiente":4664,"▁latiendo":4665,"▁a.":4666,"▁29":4667,"lito":4668,"▁régimen":4669,"▁administra":4670,"▁suficiente":4671,"olver":4672,"▁tengas":4673,"▁quisiera":4674,"▁asis":4675,"▁necesidad":4676,"▁fans":4677,"▁rea":4678,"▁conte":4679,"▁vecinos":4680,"▁indus":4681,"▁sensa":4682,"▁cumplir":4683,"talia":4684,"uros":4685,"▁60":4686,"▁read":4687,"tes.":4688,"se.":4689,"▁febr":4690,"▁ofen":4691,"taria":4692,"▁mentira":4693,"fff":4694,"▁ela":4695,"▁neta":4696,"z.":4697,"25":4698,"▁entrada":4699,"▁há":4700,"▁angel":4701,"▁publi":4702,"▁tour":4703,"▁unf":4704,"ditos":4705,"▁coño":4706,"▁derro":4707,"▁tudo":4708,"▁pago":4709,"▁listo":4710,"▁uruguay":4711,"▁enc":4712,"▁estupi":4713,"▁propio":4714,"inho":4715,"▁manten":4716,"jue":4717,"▁hablo":4718,"inda":4719,"▁tapada":4720,"ismo.":4721,"▁got7":4722,"▁queria":4723,"▁tirar":4724,"▁tol":4725,"▁dudas":4726,"▁confianza":4727,"een":4728,"ológ":4729,"▁were":4730,"▁robo":4731,"▁dele":4732,"▁piz":4733,"▁apoyar":4734,"▁ganó":4735,"▁gos":4736,"▁leche":4737,"▁allí":4738,"▁represent":4739,"llar":4740,"▁vender":4741,"ismo,":4742,"▁podía":4743,"▁ada":4744,"▁desta":4745,"▁patria":4746,"▁nin":4747,"▁mami":4748,"cada":4749,"▁anton":4750,"▁alberto":4751,"is,":4752,"▁¿a":4753,"▁publicar":4754,"▁tab":4755,"▁visit":4756,"▁decisión":4757,"▁varias":4758,"▁lear":4759,"▁honor":4760,"▁take":4761,"▁escon":4762,"▁preten":4763,"▁say":4764,"▁ángel":4765,"▁quem":4766,"▁wow":4767,"ería":4768,"▁difun":4769,"▁clás":4770,"ose":4771,"▁mal,":4772,"▁enfr":4773,"▁cambia":4774,"ónica":4775,"▁conozco":4776,"▁lleno":4777,"▁campeón":4778,"▁realiz":4779,"▁belle":4780,"▁cerrar":4781,"tres":4782,"▁sera":4783,"▁precios":4784,"▁mc":4785,"▁cuento":4786,"▁compren":4787,"▁relo":4788,"▁nomb":4789,"▁cristi":4790,"bor":4791,"▁tira":4792,"▁neg":4793,"dición":4794,"▁sof":4795,"▁termine":4796,"▁acab":4797,"▁abierta":4798,"▁muchísimo":4799,"▁ojala":4800,"▁cumpli":4801,"▁aur":4802,"back":4803,"on,":4804,"▁cantidad":4805,"▁tocar":4806,"tores":4807,"▁watch":4808,"▁ladr":4809,"▁familias":4810,"p:":4811,"▁down":4812,"han":4813,"yó":4814,"▁dy":4815,"▁nem":4816,"▁cro":4817,"▁pidiendo":4818,"▁médica":4819,"▁hdp":4820,"ign":4821,"▁caca":4822,"▁defien":4823,"▁decepcionada":4824,"▁same":4825,"▁agora":4826,"zo,":4827,"od":4828,"▁estará":4829,"▁emocion":4830,"dedor":4831,"▁bomba":4832,"▁deman":4833,"▁100%":4834,"▁jung":4835,"▁quando":4836,"▁civil":4837,"▁anto":4838,"▁jorge":4839,"ip":4840,"▁free":4841,"mo.":4842,"▁crack":4843,"▁finan":4844,"▁lon":4845,"▁pie":4846,"ture":4847,"we":4848,"▁imagina":4849,"tora":4850,"▁cate":4851,"▁gestión":4852,"▁fron":4853,"▁pudi":4854,"▁yu":4855,"▁rui":4856,"mí":4857,"6.":4858,"▁progres":4859,"▁bille":4860,"▁responsabilidad":4861,"▁last":4862,"uesta":4863,"▁always":4864,"▁market":4865,"▁bara":4866,"misión":4867,"unda":4868,"▁reto":4869,"▁fres":4870,"eco":4871,"ísima":4872,"im":4873,"ela":4874,"▁confirma":4875,"▁sena":4876,"▁echar":4877,"▁dijeron":4878,"▁dm":4879,"on.":4880,"▁multi":4881,"▁mario":4882,"▁gala":4883,"▁raro":4884,"ba.":4885,"▁ene":4886,"kook":4887,"▁hubo":4888,"so,":4889,"▁besando":4890,"▁altavoz":4891,"▁besos":4892,"tillo":4893,"▁sua":4894,"▁concierto":4895,"▁existen":4896,"mo,":4897,"▁pied":4898,"▁vox":4899,"▁retw":4900,"▁prefiero":4901,"bran":4902,"▁romper":4903,"lip":4904,"▁verte":4905,"▁objetivo":4906,"▁duro":4907,"▁actitu":4908,"▁alf":4909,"entos":4910,"▁colisión":4911,"dina":4912,"▁regis":4913,"vie":4914,"▁perdi":4915,"▁explicar":4916,"▁esto,":4917,"▁equivo":4918,"▁premio":4919,"gular":4920,"amb":4921,"▁conseguir":4922,"▁provincia":4923,"▁cerebro":4924,"▁veh":4925,"▁concep":4926,"idad,":4927,"ense":4928,"▁votos":4929,"n't":4930,"▁avi":4931,"▁loo":4932,"ders":4933,"▁terrible":4934,"▁deus":4935,"itaria":4936,"▁champions":4937,"▁fru":4938,"▁volv":4939,"▁pesos":4940,"▁alum":4941,"▁burl":4942,"▁grave":4943,"-2":4944,"▁obras":4945,"▁coche":4946,"▁right":4947,"segu":4948,"ah":4949,"ush":4950,"▁vuelvo":4951,"jado":4952,"▁serán":4953,"▁símbolos":4954,"ce.":4955,"hab":4956,"uliantina":4957,"▁omg":4958,"aso":4959,"ba,":4960,"▁cancha":4961,"▁hable":4962,"▁hacía":4963,"▁funciona":4964,"▁realizar":4965,"▁titular":4966,"▁repar":4967,"▁toque":4968,"▁bogo":4969,"▁ris":4970,"▁nen":4971,"▁reír":4972,"▁negocio":4973,"▁riesgo":4974,"▁dedos":4975,"▁racis":4976,"▁estrate":4977,"gentes":4978,"▁cuarto":4979,"aban":4980,"▁perfecto":4981,"▁detalles":4982,"▁abrir":4983,"▁ejerci":4984,"▁google":4985,"dremos":4986,"timos":4987,"▁mio":4988,"▁medal":4989,"▁periodistas":4990,"cy":4991,"▁going":4992,"▁full":4993,"▁bbmas":4994,"▁descon":4995,"▁pega":4996,"▁muestra":4997,"▁crees":4998,"ramos":4999,"▁ile":5000,"▁comentario":5001,"orar":5002,"▁bailar":5003,"▁esfuerzo":5004,"▁propia":5005,"▁siesta":5006,"▁ل":5007,"▁ev":5008,"▁embar":5009,"▁tó":5010,"▁humil":5011,"▁trib":5012,"▁estorn":5013,"▁give":5014,"▁calend":5015,"▁bote":5016,"▁had":5017,"▁rio":5018,"▁adi":5019,"▁agen":5020,"▁sorpres":5021,"▁aud":5022,"▁hogar":5023,"▁juz":5024,"▁viste":5025,"▁prefer":5026,"▁saque":5027,"▁lou":5028,"▁frustra":5029,"▁espal":5030,"capa":5031,"▁mundo,":5032,"▁lee":5033,"▁reloj":5034,"▁industri":5035,"▁heart":5036,"▁verdad,":5037,"▁minuto":5038,"▁glor":5039,"cate":5040,"▁abuela":5041,"▁semp":5042,"▁birth":5043,"siones":5044,"▁lamentable":5045,"▁siempre.":5046,"iva":5047,"en,":5048,"▁suena":5049,"▁terri":5050,"vidades":5051,"▁opción":5052,"▁consejo":5053,"▁ph":5054,"▁quero":5055,"▁propi":5056,"▁pura":5057,"rue":5058,"▁jefe":5059,"▁médic":5060,"▁agosto":5061,"▁frase":5062,"▁cero":5063,"ide":5064,"▁norte":5065,"cian":5066,"▁desas":5067,"ts.":5068,"▁pocos":5069,"▁aniversario":5070,"bit":5071,"▁recupera":5072,"minar":5073,"▁propon":5074,"▁pinta":5075,"▁cen":5076,"▁being":5077,"▁chico":5078,"▁ino":5079,"▁calla":5080,"itales":5081,"▁madru":5082,"▁esperanza":5083,"▁ching":5084,"▁publica":5085,"▁joda":5086,"▁parar":5087,"▁taller":5088,"▁desay":5089,"▁tas":5090,"mpa":5091,"▁oye":5092,"▁encontra":5093,"▁bue":5094,"▁calendario":5095,"▁asegu":5096,"?\"":5097,"▁does":5098,"▁acciones":5099,"▁sing":5100,"▁placer":5101,"▁comb":5102,"cun":5103,"lic":5104,"▁responder":5105,"▁perdon":5106,"▁unfollow":5107,"▁brindando":5108,"▁reunión":5109,"jj":5110,"▁alre":5111,"udando":5112,"▁cita":5113,"media":5114,"▁acompaña":5115,"sor":5116,"▁valencia":5117,"▁gracia":5118,"vamos":5119,"▁diferentes":5120,"▁encontr":5121,"ionales":5122,"▁borra":5123,"▁amor,":5124,"uma":5125,"ful":5126,"▁comba":5127,"pri":5128,"▁afu":5129,"▁emergencia":5130,"▁país,":5131,"▁investiga":5132,"▁rele":5133,"▁teclas":5134,"ifa":5135,"▁mejorar":5136,"▁alegría":5137,"▁llegan":5138,"▁pm":5139,"▁perdido":5140,"▁cariño":5141,"▁menor":5142,"▁tl":5143,"tto":5144,"ço":5145,"▁energía":5146,"▁km":5147,"▁dr":5148,"▁recursos":5149,"▁entiende":5150,"▁viven":5151,"▁trá":5152,"cing":5153,"▁periodista":5154,"▁artículo":5155,"▁tarta":5156,"▁pudo":5157,"▁70":5158,"▁lic":5159,"▁así.":5160,"▁imagino":5161,"en.":5162,"▁reme":5163,"era,":5164,"tú":5165,"icular":5166,"▁crear":5167,"▁photo":5168,"▁salvar":5169,"▁pegar":5170,"▁obliga":5171,"▁end":5172,"▁tenés":5173,"▁chiste":5174,"jaa":5175,"genes":5176,"▁episo":5177,"▁odi":5178,"▁\"si":5179,"▁encuentra":5180,"ls":5181,"▁teniendo":5182,"▁ciudadan":5183,"is.":5184,"▁desapar":5185,"▁cuida":5186,"▁enca":5187,"▁enero":5188,"▁llevan":5189,"▁inclu":5190,"▁pros":5191,"▁inici":5192,"▁joh":5193,"▁impac":5194,"▁festi":5195,"▁rece":5196,"jajajajajajajaja":5197,"▁noviembre":5198,"tive":5199,"eas":5200,"▁aleman":5201,"tch":5202,"▁días,":5203,"▁tomando":5204,"bri":5205,"▁hones":5206,"▁part":5207,"▁huevos":5208,"▁prima":5209,"▁sem":5210,"useas":5211,"▁ideas":5212,"▁cuidado":5213,"▁2017":5214,"▁alcalde":5215,"▁cinco":5216,"so.":5217,"tern":5218,"hahahaha":5219,"▁sempre":5220,"▁andalu":5221,"tagon":5222,"▁distri":5223,"▁gay":5224,"▁robar":5225,"lez":5226,"▁si.":5227,"▁necesitan":5228,"▁gobernador":5229,"▁preguntas":5230,"lé":5231,"vios":5232,"elli":5233,"▁jimin":5234,"vier":5235,"quin":5236,".0":5237,"▁pija":5238,"▁interesa":5239,"▁resop":5240,"▁alcohol":5241,"▁quedate":5242,"k,":5243,"▁salida":5244,"▁humanos":5245,"▁daniel":5246,"▁continu":5247,"iana":5248,"ical":5249,"▁gracias.":5250,"grafía":5251,"▁sun":5252,"▁solidar":5253,"▁years":5254,"▁ingen":5255,"bs":5256,"22":5257,"--":5258,"▁resoplando":5259,"lés":5260,"▁escol":5261,"▁francis":5262,"▁somb":5263,"▁recomenda":5264,"▁compe":5265,"▁well":5266,"▁salvador":5267,"▁esto.":5268,"▁venezolanos":5269,"▁redon":5270,"▁div":5271,"▁imá":5272,"matic":5273,"▁alex":5274,"urs":5275,"▁tremendo":5276,"orado":5277,"▁resta":5278,"p,":5279,"quina":5280,"▁fol":5281,"▁ejecu":5282,"▁náuseas":5283,"▁pso":5284,"▁faltan":5285,"*.":5286,"▁dre":5287,"▁ges":5288,"▁night":5289,"▁supera":5290,"u,":5291,"▁santo":5292,"kd":5293,"▁tweets":5294,"rs":5295,"▁grupos":5296,"▁micró":5297,"cán":5298,"▁plen":5299,"▁joa":5300,"▁could":5301,"▁parecer":5302,"▁responsable":5303,"▁versión":5304,"▁should":5305,"▁¡no":5306,"▁hoje":5307,"dra":5308,"▁¡a":5309,"▁vamo":5310,"▁compañeros":5311,"▁influ":5312,"viada":5313,"▁porq":5314,"ardo":5315,"ctores":5316,"▁barça":5317,"▁fren":5318,"los.":5319,"rlo":5320,"▁cdmx":5321,"▁muerto":5322,"▁caí":5323,"dent":5324,"rida":5325,"hay":5326,"quilla":5327,"▁claro,":5328,"ort":5329,"▁reflex":5330,"▁cré":5331,"▁gobern":5332,"▁detrás":5333,"▁celebrar":5334,"▁most":5335,"▁vul":5336,"ood":5337,"▁verlo":5338,"▁desgra":5339,"▁cocina":5340,"▁explotando":5341,"▁conce":5342,"ever":5343,"▁pregunto":5344,"▁mostrando":5345,"▁oi":5346,"istas,":5347,"▁confer":5348,"▁learn":5349,"▁suma":5350,"of":5351,"illas":5352,"▁ciencia":5353,"▁gir":5354,"icul":5355,"ww":5356,"meric":5357,"▁río":5358,"▁comunicación":5359,"▁these":5360,"▁éste":5361,"▁coin":5362,"▁memoria":5363,"▁(a":5364,"▁primeros":5365,"▁limi":5366,"▁¿que":5367,"▁vidas":5368,"▁cárcel":5369,"▁cc":5370,"gol":5371,"▁gracias,":5372,"▁es,":5373,"horabuena":5374,"▁municipal":5375,"▁personaje":5376,"gido":5377,"▁america":5378,"▁perros":5379,"▁tendría":5380,"▁acción":5381,"gy":5382,"▁lopez":5383,"▁quieras":5384,"▁excl":5385,"▁común":5386,"ce,":5387,"tida":5388,"▁mina":5389,"▁kid":5390,"▁harry":5391,"quita":5392,"▁informe":5393,"▁voltaje":5394,"▁correspon":5395,"▁cs":5396,"cter":5397,"▁joy":5398,"9.":5399,"▁mediana":5400,"éctr":5401,"▁diego":5402,"los,":5403,"▁médico":5404,"▁yes":5405,"▁tratar":5406,"▁great":5407,"▁judi":5408,"▁cán":5409,"▁chav":5410,"▁bang":5411,"▁bolsa":5412,"▁micro":5413,"▁vende":5414,"▁quizás":5415,"▁ánimo":5416,"ráqueo":5417,"▁ao":5418,"▁rafa":5419,"▁selector":5420,"▁work":5421,"se,":5422,"▁maf":5423,"▁porqué":5424,"▁also":5425,"aragua":5426,"▁acon":5427,"▁ic":5428,"tional":5429,"▁fazer":5430,"▁negra":5431,"▁tecnología":5432,"iler":5433,"▁baño":5434,"▁humano":5435,"▁fortale":5436,"▁micrófono":5437,"▁carne":5438,"ncia":5439,"▁vuelva":5440,"▁inglés":5441,"▁hagas":5442,"▁pode":5443,"▁gente,":5444,"▁ul":5445,"▁debo":5446,"rita":5447,"▁uribe":5448,"▁acto":5449,"▁francia":5450,"▁preciosa":5451,"jero":5452,"▁flores":5453,"▁vues":5454,"▁complica":5455,"▁;)":5456,"mas,":5457,"▁curio":5458,"▁intentar":5459,"▁ofic":5460,"▁coca":5461,"▁diputados":5462,"▁deporte":5463,"▁help":5464,"▁lá":5465,"▁femen":5466,"▁carre":5467,"▁tarje":5468,"▁reina":5469,"▁refu":5470,"▁kee":5471,"estas":5472,"▁capacidad":5473,"▁ub":5474,"▁zo":5475,"▁brea":5476,"iti":5477,"land":5478,"▁imper":5479,"▁clave":5480,"▁realiza":5481,"▁nega":5482,"▁piden":5483,"▁canta":5484,"ges":5485,"▁vice":5486,"▁bebe":5487,"▁elegir":5488,"tario":5489,"▁run":5490,"▁inno":5491,"▁ens":5492,"dientes":5493,"itor":5494,"▁compromiso":5495,"▁entera":5496,"▁completo":5497,"▁roja":5498,"▁oposición":5499,"▁shit":5500,"▁mons":5501,"▁mentiras":5502,"▁todos,":5503,"▁pendeja":5504,"▁llamado":5505,"uta":5506,"▁puedan":5507,"▁torneo":5508,"▁febrero":5509,"▁cont":5510,"▁resulta":5511,"▁películas":5512,"▁saludando":5513,"▁queres":5514,"▁global":5515,"▁vícti":5516,"dere":5517,"▁hé":5518,"▁interior":5519,"▁estú":5520,"▁htt":5521,"▁call":5522,"icos,":5523,"▁pelotudo":5524,"▁económica":5525,"▁pio":5526,"▁tendrá":5527,"teando":5528,"ind":5529,"▁hiciste":5530,"▁parla":5531,"▁caden":5532,"▁terráqueo":5533,"tividad":5534,"queros":5535,"].":5536,"▁rober":5537,"▁interés":5538,"▁malas":5539,"ire":5540,"▁dedica":5541,"esa":5542,"guez":5543,"▁aliviada":5544,"▁pude":5545,"▁fascis":5546,"cé":5547,"▁unión":5548,"▁puebla":5549,"▁hp":5550,"▁tiempo,":5551,"▁afir":5552,"▁chicas":5553,"▁valen":5554,"▁gotas":5555,"▁fase":5556,"tus":5557,"▁agus":5558,"lados":5559,"álisis":5560,"▁asocia":5561,"▁better":5562,"▁hacerme":5563,"▁favor,":5564,"▁población":5565,"▁premi":5566,"▁estornudando":5567,"▁500":5568,"▁mirando":5569,"▁impul":5570,"▁grá":5571,"dade":5572,"▁thanks":5573,"kan":5574,"▁hoy.":5575,"tería":5576,"p:/":5577,"▁\"me":5578,"▁región":5579,"▁vel":5580,"▁siempre,":5581,"▁(?)":5582,"ble,":5583,"▁valle":5584,"▁tiempo.":5585,"▁protección":5586,"▁bebida":5587,"▁tío":5588,"▁ambos":5589,"▁hid":5590,"▁の":5591,"▁facul":5592,"▁cantar":5593,"▁discu":5594,"ple":5595,"drá":5596,"quero":5597,"▁época":5598,"▁said":5599,"▁mayores":5600,"▁empeza":5601,"▁31":5602,"▁aparece":5603,"▁importantes":5604,"▁toy":5605,"test":5606,"▁noso":5607,"▁\"de":5608,"▁clima":5609,"▁particip":5610,"▁aplica":5611,"▁other":5612,"8.":5613,"▁aparte":5614,"▁bolivia":5615,"▁mismo.":5616,"▁definitivamente":5617,"▁series":5618,"▁montón":5619,"▁emi":5620,"▁arru":5621,"▁acostu":5622,"deos":5623,"▁teatro":5624,"▁reforma":5625,"anas":5626,"▁¿quién":5627,"▁visual":5628,"▁acci":5629,"▁birthday":5630,"▁reli":5631,"▁página":5632,"▁estilo":5633,"▁acco":5634,"fin":5635,"▁vá":5636,"▁entren":5637,"▁condiciones":5638,"▁crist":5639,"eratura":5640,"▁volun":5641,"▁lg":5642,"▁sopor":5643,"▁eléctr":5644,"leta":5645,"▁lugares":5646,"▁virtual":5647,"▁manuel":5648,"▁1,":5649,"▁levantar":5650,"▁ascen":5651,"▁coun":5652,"▁piso":5653,"bin":5654,"▁perman":5655,"▁mal.":5656,"▁edición":5657,"▁actividades":5658,"▁fc":5659,"▁aban":5660,"▁ahhh":5661,"▁justif":5662,"▁mensajes":5663,"▁reno":5664,"▁hincha":5665,"▁marco":5666,"▁dictadura":5667,"▁http:/":5668,"todos":5669,"▁estuve":5670,"▁bronca":5671,"▁little":5672,"▁audio":5673,"▁verdadero":5674,"23":5675,"▁chal":5676,"▁event":5677,"▁antonio":5678,"yos":5679,"▁cuantos":5680,"▁cabel":5681,"▁evento":5682,"ñan":5683,"mmer":5684,"▁kil":5685,"▁olvid":5686,"▁cuánto":5687,"▁garcía":5688,"ing.":5689,"▁obser":5690,"▁felicitaciones":5691,"▁league":5692,"▁(y":5693,"▁modelo":5694,"▁ello":5695,"▁favorito":5696,"▁peru":5697,"▁principal":5698,"▁convoca":5699,"mano":5700,"▁impresion":5701,"▁nose":5702,"bos":5703,"▁saco":5704,"tique":5705,"▁días.":5706,"▁perió":5707,"▁isla":5708,"▁escucho":5709,"▁afuera":5710,"▁wait":5711,"▁vean":5712,"er,":5713,"aram":5714,"ns":5715,"▁aut":5716,"▁jaj":5717,"▁ocul":5718,"▁made":5719,"fan":5720,"udia":5721,"self":5722,"centes":5723,"▁rí":5724,"▁hit":5725,"▁lanza":5726,"tec":5727,"bur":5728,"rán":5729,"▁respecto":5730,"▁millon":5731,"▁diá":5732,"▁miren":5733,"▁león":5734,"cciones":5735,"rí":5736,"▁coor":5737,"▁2021":5738,"▁ti,":5739,"▁jer":5740,"minación":5741,"▁italia":5742,"▁vosotros":5743,"▁arcoír":5744,"igu":5745,"ect":5746,"▁bill":5747,"▁meta":5748,"▁ilus":5749,"▁desgracia":5750,"▁campeona":5751,"▁interven":5752,"▁garanti":5753,"ane":5754,"▁estén":5755,"er.":5756,"▁irme":5757,"inar":5758,"▁empezó":5759,"▁sinc":5760,"▁martin":5761,"▁independiente":5762,"▁god":5763,"▁belleza":5764,"▁impuestos":5765,"gios":5766,"▁actividad":5767,"▁vengan":5768,"▁ocas":5769,"▁impun":5770,"▁ambiente":5771,"▁arcoíris":5772,"▁comiendo":5773,"ica,":5774,"▁comienza":5775,"les.":5776,"▁open":5777,"▁inau":5778,"om":5779,"▁tik":5780,"▁cif":5781,"▁vivien":5782,"▁imágenes":5783,"nes":5784,"ando.":5785,"tita":5786,"ele":5787,"crá":5788,"▁mostra":5789,"▁sexo":5790,"gala":5791,"▁positivo":5792,"▁colon":5793,"▁apo":5794,"▁etc.":5795,"▁muere":5796,"▁injus":5797,"▁carta":5798,"▁debes":5799,"g.":5800,"▁ahora,":5801,"▁capit":5802,"▁atre":5803,"▁high":5804,"▁moment":5805,"▁habría":5806,"▁qual":5807,"▁presentación":5808,"▁camiseta":5809,"tán":5810,"▁beau":5811,"▁\"en":5812,"ons":5813,"▁asu":5814,"▁pierde":5815,"didos":5816,"dero":5817,"▁salgo":5818,"mas.":5819,"▁medalla":5820,"oos":5821,"▁literalmente":5822,"ella":5823,"▁id":5824,"▁cant":5825,"▁mez":5826,"▁rue":5827,"tti":5828,"▁dona":5829,"▁discurso":5830,"▁piensan":5831,"▁llegado":5832,"▁hipo":5833,"har":5834,"▁digas":5835,"▁asun":5836,"eria":5837,"▁enorme":5838,"▁where":5839,"▁tercera":5840,"▁altura":5841,"▁motivo":5842,"▁vengo":5843,"▁anuncia":5844,"▁cach":5845,"▁autoridades":5846,"▁tuyo":5847,"▁merca":5848,"▁juvent":5849,"▁panamá":5850,"▁logra":5851,"▁friends":5852,"▁hun":5853,"icamente":5854,"▁revis":5855,"▁cambios":5856,"row":5857,"gin":5858,"▁solución":5859,"▁pela":5860,"▁investigación":5861,"tadores":5862,"▁desastre":5863,"▁molesta":5864,"les,":5865,"▁ataque":5866,"▁leí":5867,"▁género":5868,"▁quitar":5869,"▁peron":5870,"▁concent":5871,"▁preguntar":5872,"▁usuario":5873,"▁hablamos":5874,"isco":5875,"dela":5876,"▁mejor.":5877,"▁guardia":5878,"▁sube":5879,"vic":5880,"▁anterior":5881,"▁especta":5882,"▁5.":5883,"ged":5884,"▁miemb":5885,"▁cientí":5886,"ime":5887,"▁(s":5888,"▁viajar":5889,"▁cór":5890,"▁magn":5891,"▁culp":5892,"▁edif":5893,"ueva":5894,"▁very":5895,"▁maria":5896,"tali":5897,"▁dema":5898,"▁abue":5899,"▁dios,":5900,"▁excep":5901,"▁encer":5902,"▁decirle":5903,"▁olvida":5904,"▁35":5905,"jera":5906,"▁ace":5907,"▁confun":5908,"▁hier":5909,"▁david":5910,"▁guste":5911,"▁estable":5912,"▁rombo":5913,"teca":5914,"▁festival":5915,"▁alej":5916,"▁extran":5917,"▁feria":5918,"▁lava":5919,"▁ponga":5920,"mula":5921,"lón":5922,"meros":5923,"▁proyectos":5924,"nd":5925,"ando,":5926,"▁examen":5927,"▁amigos,":5928,"▁verdad.":5929,"▁isa":5930,"▁bogotá":5931,"▁animales":5932,"▁moto":5933,"▁considera":5934,"▁profe":5935,"ándole":5936,"60":5937,"riendo":5938,"▁agradecer":5939,"▁cocin":5940,"▁candidato":5941,"▁power":5942,"▁ear":5943,"▁bendi":5944,"▁\"los":5945,"jajaja":5946,"ándome":5947,"▁gy":5948,"▁comisión":5949,"▁nicol":5950,"▁familiar":5951,"▁profesor":5952,"▁asamb":5953,"▁mila":5954,"▁latino":5955,"▁acerca":5956,"▁presentar":5957,"▁auricular":5958,"▁jesús":5959,"▁jajajaj":5960,"▁sorteo":5961,"▁neutral":5962,"▁transporte":5963,"▁redu":5964,"l.":5965,"▁mtvlaf":5966,"▁cáncer":5967,"▁....":5968,"▁pizza":5969,"mático":5970,"▁sois":5971,"▁productos":5972,"▁sim":5973,"▁¡fel":5974,"▁infan":5975,"▁alerta":5976,"jeros":5977,"▁capítulo":5978,"%.":5979,"▁peso":5980,"▁coj":5981,"▁empleo":5982,"x.":5983,"▁thre":5984,"▁vota":5985,"▁volvió":5986,"estar":5987,"99":5988,"▁infin":5989,"▁consulta":5990,"let":5991,"▁horario":5992,"udas":5993,"dor.":5994,"▁fake":5995,"le.":5996,"▁bom":5997,"▁movimiento":5998,"▁mostrar":5999,"**":6000,"é,":6001,"ork":6002,"▁completa":6003,"▁bolson":6004,"anto":6005,"▁peña":6006,"hoy":6007,"▁mm":6008,"▁estima":6009,"▁:d":6010,"▁fuerzas":6011,"▁tod":6012,"▁cago":6013,"▁mierda.":6014,"▁ahorita":6015,"▁spotif":6016,"▁máximo":6017,"pal":6018,"zo.":6019,"▁ninguno":6020,"▁song":6021,"\":":6022,"▁protagon":6023,"▁stra":6024,"▁absolutamente":6025,"▁infec":6026,"▁sí.":6027,"▁oscar":6028,"ór":6029,"▁pibe":6030,"pl":6031,"▁\"n":6032,"tieron":6033,"▁cantando":6034,"▁hope":6035,"▁rit":6036,"▁agres":6037,"rique":6038,"idas":6039,"▁carga":6040,"▁saludo":6041,"le,":6042,"mic":6043,"n.":6044,"doba":6045,"▁sorry":6046,"▁orien":6047,"▁semi":6048,"▁apoya":6049,"▁automatic":6050,"▁fea":6051,"tz":6052,"▁termino":6053,"&gt;&gt;&gt;&gt;":6054,"▁murió":6055,"▁princes":6056,"▁disney":6057,"\"...":6058,"▁querés":6059,"▁jungkook":6060,"▁bibl":6061,"istas.":6062,"▁mesmo":6063,"responsab":6064,"▁ti.":6065,"80":6066,"▁culia":6067,"▁cultural":6068,"▁recibiendo":6069,"dor,":6070,"▁cata":6071,"▁abierto":6072,"jito":6073,"▁depende":6074,"▁gasolina":6075,"▁posta":6076,"ito,":6077,"▁sobr":6078,"▁sis":6079,"▁wil":6080,"▁then":6081,"▁hablas":6082,"▁sober":6083,"▁cone":6084,"▁consider":6085,"▁diría":6086,"▁rodr":6087,"▁tarea":6088,"eso":6089,"▁aven":6090,"▁desin":6091,"▁apun":6092,"▁poca":6093,"▁integ":6094,"ts,":6095,"▁chupa":6096,"▁mismo,":6097,"▁aero":6098,"▁poniendo":6099,"▁invito":6100,"▁jard":6101,"▁médicos":6102,"▁análisis":6103,"colo":6104,"▁dólares":6105,"quia":6106,"tiful":6107,"▁francisco":6108,"▁cuestion":6109,"▁misera":6110,"▁psoe":6111,"▁automatically":6112,"▁renun":6113,"▁histór":6114,"▁jubi":6115,"▁alv":6116,"bón":6117,"▁iglesia":6118,"▁elig":6119,"▁valent":6120,"▁importancia":6121,"▁pierdas":6122,"▁niñas":6123,"▁unidad":6124,"▁hotel":6125,"ante.":6126,"cón":6127,"dimiento":6128,"▁enfermedad":6129,"▁¡el":6130,"▁cancel":6131,"▁care":6132,"▁fernández":6133,"▁mucho,":6134,"▁quita":6135,"▁chocolate":6136,"▁declar":6137,"vile":6138,"▁pongan":6139,"▁trabajos":6140,"▁mini":6141,"cula":6142,"▁favorita":6143,"▁deix":6144,"▁compara":6145,"ccion":6146,"▁sei":6147,"guém":6148,",000":6149,"▁wtf":6150,"▁next":6151,"puta":6152,"▁tercer":6153,"▁yoon":6154,"▁keep":6155,"▁desapare":6156,"▁fernando":6157,"▁hará":6158,"▁une":6159,"▁awards":6160,"▁descono":6161,"▁ocupa":6162,"▁quédate":6163,"▁quieran":6164,"▁mates":6165,"▁perten":6166,"▁cobrar":6167,"▁jejeje":6168,"ats":6169,"▁py":6170,"▁checked":6171,"▁ministerio":6172,"▁p.":6173,"yen":6174,"▁abre":6175,"▁producción":6176,"ica.":6177,"▁casas":6178,"▁vacuna":6179,"▁juicio":6180,"▁cop":6181,"jsj":6182,"▁bern":6183,"▁siglo":6184,"▁ficha":6185,"▁marketing":6186,"▁cub":6187,"▁permitir":6188,"▁gustó":6189,"andro":6190,"▁madres":6191,"▁aires":6192,"▁municipio":6193,"▁merecen":6194,"▁resis":6195,"▁republ":6196,"▁plena":6197,"ente,":6198,"▁bem":6199,"▁dignidad":6200,"fans":6201,"enario":6202,"▁2016":6203,"▁sepa":6204,"▁perdió":6205,"▁políticas":6206,"bus":6207,"▁periódico":6208,"▁ya.":6209,"▁y,":6210,"ibles":6211,"▁ainda":6212,"▁\"se":6213,"▁party":6214,"▁planeta":6215,"▁stay":6216,"▁práctica":6217,"tión":6218,"...\"":6219,"▁superar":6220,"▁fort":6221,"▁dejado":6222,"▁víctimas":6223,"▁city":6224,"▁ans":6225,"▁extrañar":6226,"oli":6227,"▁ruta":6228,"inha":6229,"ek":6230,"▁jur":6231,"gón":6232,"▁nao":6233,"▁depar":6234,"ñera":6235,"▁espec":6236,"iere":6237,"▁llaman":6238,"des,":6239,"▁responde":6240,"▁proyec":6241,"▁balonces":6242,"▁corruptos":6243,"▁enhorabuena":6244,"▁maestro":6245,"enti":6246,"▁tenho":6247,"▁aco":6248,"▁sensi":6249,"óme":6250,"▁cierto,":6251,"▁ame":6252,"mestre":6253,"▁habit":6254,"▁¿te":6255,"▁nicaragua":6256,"▁construcción":6257,"▁lloro":6258,"▁fuiste":6259,"▁continú":6260,"▁fandom":6261,"▁ejercicio":6262,"pel":6263,"▁dedic":6264,"▁constitución":6265,"sed":6266,"wu":6267,"seguridad":6268,"▁aquellos":6269,"▁trae":6270,"▁followed":6271,"▁decre":6272,"▁aguante":6273,"▁haha":6274,"▁electoral":6275,"▁exclusi":6276,"▁¿sab":6277,"logía":6278,"▁inú":6279,"▁cobar":6280,"▁repetir":6281,"▁ola":6282,"▁portu":6283,"▁tell":6284,"▁carro":6285,"ross":6286,"▁assi":6287,"▁homena":6288,"lie":6289,"▁mv":6290,"▁pensaba":6291,"vaila":6292,"▁dame":6293,"vidu":6294,"ente.":6295,"▁acordar":6296,"▁sabado":6297,"▁hot":6298,"▁artista":6299,"▁estrategia":6300,"▁45":6301,"▁gente.":6302,"▁louis":6303,"▁mareo":6304,"&amp;":6305,"▁planes":6306,"▁calavera":6307,"▁ultima":6308,"▁até":6309,"▁maca":6310,"▁mucho.":6311,"▁contacto":6312,"▁ms":6313,"&lt;":6314,"▁aver":6315,"▁proteger":6316,"▁cosas,":6317,"▁dyna":6318,"▁cruzados":6319,"▁empa":6320,"aas":6321,"▁!.":6322,"ipe":6323,"▁fiel":6324,"▁saliendo":6325,"▁jap":6326,"▁monta":6327,"▁embara":6328,"jin":6329,"▁coger":6330,"ística":6331,"▁diz":6332,"▁firma":6333,"▁privile":6334,"▁igualdad":6335,"dá":6336,"▁principio":6337,"▁española":6338,"▁redonda":6339,"▁sueldo":6340,"?,":6341,"▁mierda,":6342,"▁pc":6343,"▁título":6344,"▁pedazo":6345,"▁correr":6346,"rle":6347,"▁dulce":6348,"ced":6349,"100":6350,"▁rodrí":6351,"iii":6352,"▁cana":6353,"▁talento":6354,"▁criminal":6355,"▁aband":6356,"▁euros":6357,"tillas":6358,"ém":6359,"▁precisa":6360,"▁hs":6361,"▁aceptar":6362,"▁tom":6363,"▁profesionales":6364,"▁pocas":6365,"ller":6366,"mpl":6367,"▁billete":6368,"▁amigo,":6369,"▁abri":6370,"▁melhor":6371,"é.":6372,"▁abandon":6373,"▁ego":6374,"▁ye":6375,"▁rap":6376,"▁irresponsab":6377,"▁rusia":6378,"▁trabajo,":6379,"▁medida":6380,"gl":6381,"▁junta":6382,"▁yo.":6383,"▁jaja,":6384,"▁tristeza":6385,"ó,":6386,"▁ganado":6387,"▁cristina":6388,"▁doctor":6389,"▁beautiful":6390,"▁visitar":6391,"▁confusión":6392,"▁turismo":6393,"▁barr":6394,"▁gracias!":6395,"▁maldita":6396,"chen":6397,"b.":6398,"▁traer":6399,"/10":6400,"▁presencia":6401,"▁llo":6402,"▁dirección":6403,"▁solamente":6404,"▁vera":6405,"▁disfruta":6406,"▁renuncia":6407,"▁inso":6408,"ezco":6409,"▁bun":6410,"▁caracas":6411,"▁entradas":6412,"kin":6413,"▁fucking":6414,"▁u.":6415,"▁sosten":6416,"▁profun":6417,"▁mi,":6418,"torno":6419,"liza":6420,"vailable":6421,"anda":6422,"▁adelan":6423,"▁dí":6424,"▁electr":6425,"▁prohibido":6426,"▁nes":6427,"▁acabe":6428,"▁indica":6429,"▁lastima":6430,"▁paciencia":6431,"▁caja":6432,"▁amooo":6433,"▁democrá":6434,"▁frustración":6435,"▁pleno":6436,"▁separa":6437,"▁presión":6438,"▁mere":6439,"▁cerezo":6440,"▁dejaron":6441,"▁hayan":6442,"▁fiestas":6443,"▁depres":6444,"▁account":6445,"phone":6446,"sh":6447,"dicion":6448,"▁manifesta":6449,"▁innova":6450,"▁material":6451,"▁punta":6452,"▁master":6453,"▁corto":6454,"▁javier":6455,"▁pref":6456,"▁despertar":6457,"▁supre":6458,"sal":6459,"▁yendo":6460,"▁dal":6461,"▁viviendo":6462,"▁tré":6463,"▁funcionarios":6464,"▁individu":6465,"70":6466,"gá":6467,"pida":6468,"▁demasia":6469,"▁you're":6470,"▁necesitas":6471,"▁audiencia":6472,"hos":6473,"ari":6474,"▁conciencia":6475,"menes":6476,"▁hola,":6477,"▁maldito":6478,"/2":6479,"▁dd":6480,"▁echa":6481,"▁judicial":6482,"▁transforma":6483,"▁cierre":6484,"▁probable":6485,"▁nosotras":6486,"ciéndo":6487,"▁rosario":6488,"▁diputado":6489,"▁anima":6490,"▁(o":6491,"▁pasión":6492,"▁baloncesto":6493,"▁actitud":6494,"▁adent":6495,"aldo":6496,"▁ore":6497,"▁rata":6498,"45":6499,"▁también.":6500,"▁bole":6501,"▁pesa":6502,"▁tuya":6503,"▁merec":6504,"▁abus":6505,"dores,":6506,"▁regreso":6507,"▁sobrevi":6508,"▁uds":6509,"▁legisla":6510,"ado,":6511,"▁acaso":6512,"▁pelota":6513,"▁acceso":6514,"▁¡gracias":6515,"▁album":6516,"▁sesión":6517,"▁trébol":6518,"▁clo":6519,"uelas":6520,"▁salido":6521,"isas":6522,"▁hermanos":6523,"cemos":6524,"▁pantal":6525,"▁irre":6526,"▁hubiese":6527,"▁pies":6528,"blos":6529,"▁facultad":6530,"▁esque":6531,"▁cuel":6532,"▁loc":6533,"▁aro":6534,"▁usu":6535,"▁ku":6536,"▁mega":6537,"▁psic":6538,"▁duque":6539,"▁entregar":6540,"▁nomás":6541,"▁leyendo":6542,"uuu":6543,"▁categor":6544,"▁2015":6545,"▁\"yo":6546,"▁emba":6547,"'.":6548,"▁jarras":6549,"▁andan":6550,"▁cabo":6551,"▁story":6552,"▁consejos":6553,"▁john":6554,"opera":6555,"vs":6556,"▁pequeña":6557,"melo":6558,"▁aquel":6559,"▁cie":6560,"▁infantil":6561,"▁mich":6562,"▁helado":6563,"▁gordo":6564,"▁ver,":6565,"▁mues":6566,"▁casual":6567,"▁deuda":6568,"udes":6569,"▁incon":6570,"▁motiva":6571,"▁larga":6572,"/20":6573,"▁vez,":6574,"▁conjun":6575,"▁oc":6576,"▁coinci":6577,"▁resca":6578,"any":6579,"▁things":6580,"▁deli":6581,"▁paraguay":6582,"▁aprue":6583,"▁inteligencia":6584,"ó.":6585,"▁amor.":6586,"▁pa'":6587,"▁chris":6588,"▁can't":6589,"▁llora":6590,"▁agenda":6591,"▁two":6592,"▁juez":6593,"▁lóg":6594,"▁clásico":6595,"▁cuestión":6596,"▁jal":6597,"isimo":6598,"▁unico":6599,"▁rodri":6600,"▁american":6601,"▁comunica":6602,"jajaj":6603,"▁junior":6604,"▁entero":6605,"▁dr.":6606,"▁gustado":6607,"mmm":6608,"▁recon":6609,"▁atle":6610,"▁support":6611,"tty":6612,"grantes":6613,"▁interpre":6614,"▁devuel":6615,"▁199":6616,"▁encontré":6617,"ppen":6618,"imas":6619,"ux":6620,"▁reproducir":6621,"▁hubier":6622,"▁recuerdos":6623,"▁hern":6624,"▁\"re":6625,"▁ponerme":6626,"▁escribe":6627,"▁perdí":6628,"▁señores":6629,"▁instru":6630,"▁envidia":6631,"istemo":6632,"▁senta":6633,"video":6634,"▁permite":6635,"▁monte":6636,"▁nadie.":6637,"▁buscan":6638,"ved":6639,"▁mej":6640,"fic":6641,"▁tenían":6642,"yn":6643,"▁tremenda":6644,"▁ilegal":6645,"▁vieron":6646,"▁oa":6647,"▁laboral":6648,"33":6649,"▁adoles":6650,"▁use":6651,"▁obvia":6652,"▁sitio":6653,"▁nadie,":6654,"▁moda":6655,"▁locura":6656,"▁teor":6657,"mita":6658,"▁prac":6659,"▁espalda":6660,"▁sabia":6661,"▁yan":6662,"▁perse":6663,"ken":6664,"lina":6665,"▁ya,":6666,"pink":6667,"▁set":6668,"▁segundos":6669,"▁hechos":6670,"▁acus":6671,"▁partida":6672,"med":6673,"▁corta":6674,"▁sea,":6675,"▁contenido":6676,"tulos":6677,"mio":6678,"▁:'":6679,"▁mejor,":6680,"▁volumen":6681,"▁morena":6682,"▁bello":6683,"▁moder":6684,"▁probar":6685,"▁aborto":6686,"▁cle":6687,"▁rode":6688,"▁proto":6689,"cks":6690,"▁chab":6691,"▁etapa":6692,"▁dream":6693,"▁م":6694,"▁homenaje":6695,"▁original":6696,"▁diji":6697,"▁pones":6698,"gante":6699,"▁propa":6700,"▁300":6701,"▁bay":6702,"▁estres":6703,"▁razones":6704,"terno":6705,"▁melo":6706,"▁supuesto":6707,"▁propuesta":6708,"▁primar":6709,"▁white":6710,"▁testi":6711,"▁mana":6712,"ado.":6713,"▁bicicle":6714,"▁rar":6715,"▁inteligente":6716,"▁hac":6717,"▁vz":6718,"▁servi":6719,"▁familiares":6720,"ración":6721,"▁alterna":6722,"▁coming":6723,"▁conoci":6724,"▁consecuencias":6725,"▁pérez":6726,"▁cena":6727,"▁claramente":6728,"▁delito":6729,":0":6730,"gas,":6731,"▁lucas":6732,"▁invierno":6733,"▁something":6734,"bt":6735,"▁são":6736,"▁expos":6737,"▁pecho":6738,"▁hoja":6739,"▁compañero":6740,"▁decisiones":6741,"ipol":6742,"▁periodismo":6743,"▁osea":6744,"▁conec":6745,"▁españoles":6746,"▁lás":6747,"▁pensamiento":6748,"▁thing":6749,"▁transpar":6750,"árez":6751,"▁arras":6752,"▁long":6753,"▁tomo":6754,"26":6755,"ñado":6756,"▁iglesias":6757,"lita":6758,"▁negocios":6759,"ivo":6760,"▁air":6761,"▁perra":6762,"▁estaremos":6763,"uido":6764,"zamos":6765,"▁peti":6766,"▁jack":6767,"▁es.":6768,"▁iban":6769,"gers":6770,"▁crush":6771,"▁dejes":6772,"▁héro":6773,"▁cabello":6774,"▁\"f":6775,"ículos":6776,"▁sencil":6777,"iciones":6778,"▁1000":6779,"olucion":6780,"▁asqueros":6781,"doras":6782,"▁ment":6783,"▁intento":6784,"▁identif":6785,"red":6786,"led":6787,"▁zara":6788,"▁pagan":6789,"▁aí":6790,"rael":6791,"▁cerdo":6792,"jen":6793,"▁ue":6794,"ei":6795,"▁conferencia":6796,"▁habia":6797,"▁solidaridad":6798,"▁⠀":6799,"cidio":6800,"▁iv":6801,"▁befor":6802,"yyy":6803,"▁masaje":6804,"▁nieve":6805,"▁uñas":6806,"▁ellos.":6807,"▁gratui":6808,"▁participación":6809,"▁arena":6810,"▁insu":6811,"▁elimina":6812,"▁pedido":6813,"▁pacientes":6814,"▁dominic":6815,"▁favor.":6816,"mada":6817,"▁hamb":6818,"▁malos":6819,"cs":6820,"▁iniciativa":6821,"rt":6822,"▁alemania":6823,"▁año,":6824,"▁disfra":6825,"▁tribun":6826,"tará":6827,"▁departa":6828,"▁enviar":6829,"bara":6830,"▁spotify":6831,"27":6832,"▁enamorada":6833,"▁libres":6834,"▁amistad":6835,"▁superior":6836,"torial":6837,"▁diez":6838,"▁naz":6839,"dencias":6840,"▁ox":6841,"idente":6842,"▁coisa":6843,"▁comparto":6844,"▁jin":6845,"ast":6846,"ise":6847,"▁rompe":6848,"▁bit":6849,"vemos":6850,"▁hahahaha":6851,"kaka":6852,"▁podcas":6853,"▁c.":6854,"▁facil":6855,"▁clos":6856,"▁boo":6857,"▁policías":6858,"▁álbum":6859,"era.":6860,"▁someone":6861,"▁pasaron":6862,"▁contri":6863,"▁è":6864,"lec":6865,"fon":6866,"▁haría":6867,"▁expon":6868,"▁ésta":6869,"▁more.":6870,"tant":6871,"leo":6872,"udar":6873,"▁luchar":6874,"▁debido":6875,"▁etique":6876,"▁presos":6877,"iciales":6878,"▁mtvlapare":6879,"sa,":6880,"jate":6881,"▁recuperar":6882,"▁tranquila":6883,"▁everyone":6884,"gether":6885,"▁tenéis":6886,"ló":6887,"▁alumnos":6888,"▁sr":6889,"▁desea":6890,"▁querida":6891,"▁pasada":6892,"▁fm":6893,"▁mx":6894,"▁juntas":6895,"▁contac":6896,"▁santos":6897,"dona":6898,"▁seguramente":6899,"▁maltra":6900,"▁gane":6901,"dillo":6902,"ics":6903,"▁emil":6904,"ante,":6905,"jo,":6906,"▁revista":6907,"▁planta":6908,"▁delincuentes":6909,"▁año.":6910,"▁medica":6911,"▁matan":6912,"▁sana":6913,"▁ghvi":6914,"▁invita":6915,"hyun":6916,"▁hugo":6917,"▁guad":6918,"▁ques":6919,"ald":6920,"▁capaci":6921,"▁piern":6922,"digo":6923,"▁many":6924,"▁veremos":6925,"▁demostrar":6926,"▁ganan":6927,"lace":6928,"▁bull":6929,"28":6930,"▁comercial":6931,"▁enser":6932,"▁ordenador":6933,"▁ridículo":6934,"▁happen":6935,"▁necesit":6936,"try":6937,"▁mora":6938,"▁chic":6939,"▁recomiendo":6940,"▁smi":6941,"▁guapo":6942,"▁aler":6943,"▁ty":6944,"▁\"o":6945,"▁deter":6946,"▁provo":6947,"▁imbé":6948,"▁chá":6949,"▁colores":6950,"▁aumento":6951,"▁kir":6952,"▁viejos":6953,"▁cool":6954,"▁tiran":6955,"ught":6956,"▁dime":6957,"rer":6958,"▁ufff":6959,"▁aprende":6960,"▁suda":6961,"▁poe":6962,"▁cojones":6963,"uña":6964,"▁?.":6965,"▁apare":6966,"▁equivoca":6967,"▁formas":6968,"▁asamblea":6969,"\"?":6970,"▁st":6971,"▁tratando":6972,"▁dejamos":6973,"▁fraude":6974,"▁alguno":6975,"▁pendejos":6976,"▁king":6977,"▁materia":6978,"▁podido":6979,"▁pez":6980,"▁finales":6981,"▁tendencia":6982,"▁diseño":6983,"tar.":6984,"gil":6985,"▁playing":6986,"▁peligro":6987,"▁lados":6988,"▁quedado":6989,"▁supongo":6990,"nera":6991,"▁ignorancia":6992,"▁concl":6993,"▁restau":6994,"▁divi":6995,"▁confina":6996,"▁\"i":6997,"▁put":6998,"less":6999,"▁piedra":7000,"▁invent":7001,"▁leon":7002,"▁prioridad":7003,"▁hear":7004,"ped":7005,"▁atras":7006,"▁israel":7007,"▁costu":7008,"▁tía":7009,"▁habían":7010,"):":7011,"▁aclar":7012,"▁adic":7013,"▁tigre":7014,"▁it.":7015,"▁bolsonaro":7016,"▁pata":7017,"▁técnico":7018,"▁ces":7019,"▁exten":7020,"con_":7021,"rosa":7022,"án,":7023,"▁requi":7024,"▁usando":7025,"ja,":7026,"▁lidera":7027,"▁entro":7028,"▁ang":7029,"▁herra":7030,"uro":7031,"▁venezolano":7032,"▁pá":7033,"▁charla":7034,"▁parecen":7035,"▁coordina":7036,"▁fb":7037,"▁idiota":7038,"▁deportivo":7039,"▁meme":7040,"▁ill":7041,"▁reyes":7042,"▁pers":7043,"▁posted":7044,"mad":7045,"▁públicos":7046,"▁compañía":7047,"ticular":7048,"cru":7049,"rias":7050,"▁pelu":7051,"tar,":7052,"▁emplea":7053,"▁jen":7054,"▁(no":7055,"donos":7056,"▁dynamite":7057,"▁tão":7058,"▁actua":7059,"▁hospitales":7060,"▁alba":7061,"▁seis":7062,"▁concurso":7063,"▁に":7064,"fil":7065,"▁refor":7066,"▁competi":7067,"▁escribiendo":7068,"▁nariz":7069,"▁goool":7070,"▁revolución":7071,"▁entienden":7072,"cela":7073,"▁avión":7074,"▁algo,":7075,"▁blackpink":7076,"▁marido":7077,"▁centros":7078,"▁sad":7079,"▁chau":7080,"▁ora":7081,"▁diálogo":7082,"▁labu":7083,"▁destino":7084,"▁exactamente":7085,"ife":7086,"▁nena":7087,"▁vuelven":7088,"▁gilipol":7089,"▁president":7090,"▁cayó":7091,"▁tô":7092,"tidos":7093,"▁sé,":7094,"▁torre":7095,"▁odia":7096,"▁magia":7097,"dores.":7098,"▁friend":7099,"torias":7100,"▁habil":7101,"▁\"in":7102,"▁cosas.":7103,"des.":7104,"▁argentino":7105,"▁adió":7106,"▁gabri":7107,"▁assim":7108,"▁pur":7109,"pue":7110,"ifi":7111,"▁colum":7112,"▁sergio":7113,"▁pusieron":7114,"▁seres":7115,"▁gover":7116,"▁own":7117,"▁prime":7118,"▁aeropu":7119,"ueve":7120,"▁errores":7121,"▁cadena":7122,"▁gobiernos":7123,"▁¿al":7124,"eda":7125,"▁ocurre":7126,"▁cuch":7127,"▁apos":7128,"▁pelea":7129,"▁inmedia":7130,"▁6.":7131,"cuando":7132,"las.":7133,"▁sombrero":7134,"▁crecer":7135,")..":7136,"ificar":7137,"graph":7138,"▁acho":7139,"▁experien":7140,"▁tranquilo":7141,"▁estés":7142,"▁gonna":7143,"▁proce":7144,"▁expul":7145,"▁reve":7146,"▁batalla":7147,"▁pobreza":7148,"▁queso":7149,"joy":7150,"▁compa":7151,"▁jajajajaj":7152,"▁kill":7153,"km":7154,"▁roman":7155,"▁federal":7156,"▁before":7157,"▁gonzá":7158,"▁forever":7159,"▁bran":7160,"▁herramien":7161,"▁activa":7162,"mino":7163,"▁hipó":7164,"▁podrían":7165,"▁challen":7166,"▁psicó":7167,"▁pendiente":7168,"iche":7169,"▁enrique":7170,"▁rival":7171,"cá":7172,"¡¡":7173,"▁naturaleza":7174,"▁\"con":7175,"▁defin":7176,"ja.":7177,"▁tome":7178,"▁mexicanos":7179,"▁memes":7180,"mnas":7181,"▁remo":7182,"▁pudiera":7183,"▁eras":7184,"▁franco":7185,"sin":7186,"teras":7187,"▁echo":7188,"ões":7189,"▁util":7190,"▁inven":7191,"▁supues":7192,"▁num":7193,"timi":7194,"tric":7195,"úl":7196,"▁horror":7197,"mmy":7198,"▁し":7199,"▁lástima":7200,"▁orgullosa":7201,"▁habita":7202,"come":7203,"-3":7204,"▁peores":7205,"▁escena":7206,"▁once":7207,"▁pequeños":7208,"▁espectacular":7209,"▁mismas":7210,"▁¿es":7211,"▁asesin":7212,"vida":7213,"▁universo":7214,"▁hacerse":7215,"▁saluda":7216,"▁militares":7217,"igna":7218,"▁house":7219,"▁daba":7220,"▁reconocer":7221,"▁guitar":7222,"▁md":7223,"▁deportiva":7224,"▁conme":7225,"▁sorpresa":7226,"▁plus":7227,"tely":7228,"pir":7229,"▁dispos":7230,"▁libertadores":7231,"▁rechazo":7232,"▁papas":7233,"▁bec":7234,"▁enfrentar":7235,"▁%":7236,"▁qué?":7237,"▁humana":7238,"▁quedé":7239,"ham":7240,"▁2020.":7241,"▁corazon":7242,"▁bala":7243,"▁armas":7244,"▁beat":7245,"ciles":7246,"▁alas":7247,"▁acaban":7248,"▁uwu":7249,"▁hey":7250,"▁lazo":7251,"▁olor":7252,"▁posición":7253,"▁gobierno,":7254,"▁tarjeta":7255,"▁yoongi":7256,"▁vos,":7257,"▁hate":7258,"▁pour":7259,"▁formación":7260,"▁virgen":7261,"▁comprome":7262,"▁eval":7263,"▁tatua":7264,"ik":7265,"▁pop":7266,"pico":7267,"ducción":7268,"/7":7269,"ance":7270,"ieve":7271,"▁continua":7272,"▁harta":7273,"nal":7274,"▁paul":7275,"▁everything":7276,"▁adap":7277,"▁duermo":7278,"▁hard":7279,"▁esperaba":7280,"▁rever":7281,"▁decís":7282,"▁peli":7283,"iss":7284,"▁cuadrado":7285,"encial":7286,"timo":7287,"▁verdadera":7288,"▁perdiendo":7289,"▁turno":7290,"▁fumar":7291,"f.":7292,"▁lavar":7293,"▁generación":7294,"▁ultimo":7295,"_con_":7296,"▁respuestas":7297,"▁tonto":7298,"quete":7299,"▁gorda":7300,"▁verla":7301,"▁puente":7302,"▁andrés":7303,"▁you.":7304,"▁eva":7305,"▁cuader":7306,"▁piñera":7307,"▁vídeos":7308,"▁ultra":7309,"▁ceja":7310,"▁together":7311,"▁existir":7312,"▁oferta":7313,"▁actor":7314,"▁vivimos":7315,"nic":7316,"▁felipe":7317,"▁emilio":7318,"90":7319,"▁36":7320,"▁roba":7321,"▁informar":7322,"cia.":7323,"▁chiqui":7324,"▁ejér":7325,"▁acostumb":7326,"▁satis":7327,"▁boa":7328,"▁manga":7329,"▁\"que":7330,"▁suelo":7331,"▁later":7332,"▁llamada":7333,"▁7.":7334,"▁sit":7335,"ano,":7336,"▁sinceramente":7337,"fir":7338,"ball":7339,"▁asomb":7340,"▁prevención":7341,"dical":7342,"▁completamente":7343,"▁drama":7344,"▁dejando":7345,"xo":7346,"▁brutal":7347,"tiza":7348,"▁nuevamente":7349,"▁mañana,":7350,"▁diablo":7351,"▁tera":7352,"▁fifa":7353,"▁figu":7354,"▁heal":7355,"iona":7356,"▁sufri":7357,"izando":7358,"▁sufrir":7359,"▁hero":7360,"▁jjaja,":7361,"viendo":7362,"▁frio":7363,"▁botella":7364,"▁cat":7365,"temala":7366,"▁sensación":7367,"▁ny":7368,"gías":7369,"▁zor":7370,"▁ng":7371,"▁mix":7372,"▁ken":7373,"▁sacan":7374,"▁pantalla":7375,"▁corrupto":7376,"▁imagín":7377,"▁mereces":7378,"as?":7379,"▁máxima":7380,"▁cura":7381,"▁coopera":7382,"ling":7383,"uales":7384,"...y":7385,"▁incomp":7386,"▁baile":7387,"▁japon":7388,"▁under":7389,"▁gimnas":7390,"▁fues":7391,"▁hijue":7392,"▁construir":7393,"▁venezuela.":7394,"▁compras":7395,"▁agradez":7396,"▁contagios":7397,"▁todavia":7398,"2,":7399,"kw":7400,"▁ilu":7401,"▁ey":7402,"▁madrid.":7403,"▁inep":7404,"▁empiez":7405,"▁alimentos":7406,"▁abrazar":7407,"▁ideal":7408,"▁cens":7409,"▁thro":7410,"▁arranca":7411,"▁ciclo":7412,"▁damos":7413,"▁tendremos":7414,"▁¿se":7415,"▁velo":7416,"▁igual,":7417,"▁posibilidad":7418,"▁vergon":7419,"pop":7420,"how":7421,"▁llegando":7422,"▁mentir":7423,"▁pollo":7424,"▁morning":7425,"▁monó":7426,"▁calder":7427,"▁perfecta":7428,"▁box":7429,"▁voluntad":7430,"▁terminó":7431,"▁gue":7432,"▁aure":7433,"▁podrá":7434,"▁\"h":7435,"ones,":7436,"▁oportunidades":7437,"▁aviso":7438,"▁resumen":7439,"▁constante":7440,"▁quedarse":7441,"▁fuente":7442,"▁vulnera":7443,"▁gobierno.":7444,"▁personajes":7445,"▁hacerle":7446,"clar":7447,"▁:/":7448,"▁desayun":7449,"miento.":7450,"▁discri":7451,"▁reserva":7452,"▁pico":7453,"▁vez.":7454,"▁musica":7455,"▁tama":7456,"▁sebas":7457,"▁von":7458,"▁trabajo.":7459,"▁aper":7460,"▁esposa":7461,"hyung":7462,"▁españa.":7463,"▁pelotuda":7464,"▁episodio":7465,"▁tmb":7466,"▁él.":7467,"▁guapa":7468,"▁área":7469,"▁mirada":7470,"list":7471,"▁atender":7472,"▁¡qué":7473,"▁juventud":7474,"▁mim":7475,"▁ellos,":7476,"▁galle":7477,"▁aprendi":7478,"▁pit":7479,"▁domi":7480,"▁:v":7481,"▁muertes":7482,"▁accidente":7483,"▁ficar":7484,"▁thats":7485,"iados":7486,"▁days":7487,"▁eso?":7488,"arlo":7489,"▁ghvip":7490,"▁emoción":7491,"pula":7492,"▁castro":7493,"igual":7494,"▁cartel":7495,"▁publicidad":7496,"▁descen":7497,"▁2,":7498,"gulo":7499,"gica":7500,"él":7501,"▁dió":7502,"ali":7503,"▁jose":7504,"duras":7505,"ath":7506,"▁:3":7507,"▁recibe":7508,"ágri":7509,"▁fox":7510,"▁old":7511,"▁tot":7512,"▁jajs":7513,"▁kids":7514,"▁registra":7515,"▁acusa":7516,"▁mg":7517,"uri":7518,"▁socio":7519,"▁sospe":7520,"_a":7521,"▁#1":7522,"▁blog":7523,"▁incor":7524,"▁relaciones":7525,"mpe":7526,"▁valores":7527,"in.":7528,"▁oaxa":7529,"▁historia.":7530,"▁comenzar":7531,"▁miro":7532,"las,":7533,"nas":7534,"▁met":7535,"icando":7536,"▁tanto,":7537,"▁guay":7538,"▁rodríguez":7539,"▁those":7540,"▁darme":7541,"itarios":7542,"▁edificio":7543,"▁loren":7544,"▁conejo":7545,"mul":7546,"▁lágri":7547,"▁¡¡¡":7548,"taba":7549,"urar":7550,"▁privado":7551,"▁nación":7552,"▁veía":7553,"box":7554,"44":7555,"▁zur":7556,"▁plataforma":7557,"▁uy":7558,"▁tier":7559,"ports":7560,"▁kan":7561,"izada":7562,"tivo.":7563,"▁demuestra":7564,"▁pero,":7565,"▁evan":7566,"hua":7567,"tion.":7568,"▁vuelto":7569,"▁ine":7570,"▁dispar":7571,"▁bols":7572,"▁m.":7573,"▁cf":7574,"▁temperatura":7575,"▁rein":7576,"▁bolas":7577,"▁invitamos":7578,"▁inversión":7579,"-.":7580,"▁urib":7581,"▁particular":7582,"deces":7583,"▁nefas":7584,"▁programas":7585,"▁intera":7586,"tienen":7587,"cieron":7588,"▁poten":7589,"▁encuesta":7590,"▁doing":7591,"▁empec":7592,"▁maravilla":7593,"▁disponible!":7594,"▁ayyy":7595,"▁carna":7596,"▁mencion":7597,"▁summer":7598,"▁temb":7599,"▁olvido":7600,"▁emocional":7601,"/3":7602,"29":7603,"▁falso":7604,"▁rol":7605,"▁retro":7606,"trado":7607,"▁mato":7608,"▁irse":7609,"▁sna":7610,"dible":7611,"▁fli":7612,"▁pessoa":7613,"▁hd":7614,"▁olimp":7615,"▁pidió":7616,"sa.":7617,"culos":7618,"▁\"te":7619,"▁contrato":7620,"▁\"¿":7621,"▁nervio":7622,"500":7623,"án.":7624,"▁quar":7625,"▁tara":7626,"▁atro":7627,"▁mexicano":7628,"▁pag":7629,"▁oy":7630,"▁enseñar":7631,"bles.":7632,"▁despertador":7633,"▁bendiciones":7634,"▁gustar":7635,"▁guatemala":7636,"▁-.":7637,"▁retweet":7638,"ones.":7639,"▁polític":7640,"▁lectura":7641,"▁exc":7642,"▁personas,":7643,"▁miran":7644,"▁amazon":7645,"▁mt":7646,"pool":7647,"▁gracio":7648,"▁cute":7649,"▁aho":7650,"últi":7651,"▁rendir":7652,"▁tos":7653,"▁mat":7654,"▁giras":7655,"▁evid":7656,"▁semana.":7657,"▁agarrar":7658,"aa,":7659,"▁test":7660,"▁pibes":7661,"▁dato":7662,"talidad":7663,"▁né":7664,"lano":7665,"▁supone":7666,"madre":7667,"▁nal":7668,"▁desaf":7669,"ñé":7670,"▁\"lo":7671,"▁més":7672,"rados":7673,"▁reconocimiento":7674,"▁plane":7675,"▁criticar":7676,"▁últimamente":7677,"its":7678,"▁tienda":7679,"gr":7680,"▁guaid":7681,"▁gola":7682,"fes":7683,"bras":7684,"iness":7685,"cripción":7686,"▁regalar":7687,"▁preso":7688,"crí":7689,"▁¿cuál":7690,"ione":7691,"▁ps4":7692,"▁itali":7693,"▁andro":7694,"ano.":7695,"▁constitucional":7696,"▁inci":7697,"▁enserio":7698,"▁bravo":7699,"▁ddhh":7700,"▁nombres":7701,"▁kim":7702,"▁taehyung":7703,"▁soon":7704,"▁intereses":7705,"▁miercoles":7706,"▁gym":7707,"ito.":7708,"▁spi":7709,"pto":7710,"▁infier":7711,"body":7712,"ritu":7713,"▁tatu":7714,"ita,":7715,"mentación":7716,"▁ocho":7717,"▁destro":7718,"▁unido":7719,"▁infra":7720,"▁parec":7721,"queta":7722,"▁escrib":7723,"▁max":7724,"▁wanna":7725,"oro":7726,"cies":7727,"▁sco":7728,"ctora":7729,"▁mac":7730,"▁menores":7731,"▁estaré":7732,"kers":7733,"▁darte":7734,"▁conocimiento":7735,"▁which":7736,":3":7737,"▁reino":7738,"cia,":7739,"▁triunfo":7740,"▁sr.":7741,"▁conflic":7742,"▁caro":7743,"▁residen":7744,"▁recuerden":7745,"ísimas":7746,"▁hur":7747,"▁económico":7748,"▁humo":7749,"▁cus":7750,"▁millón":7751,"▁qe":7752,"▁iphone":7753,"▁física":7754,"chner":7755,"▁¿de":7756,"▁imple":7757,"▁cercan":7758,"▁hagamos":7759,"▁another":7760,"▁suje":7761,"▁bienestar":7762,"▁descub":7763,"▁manifes":7764,"▁sába":7765,"iel":7766,"▁ii":7767,"vision":7768,"▁presupuesto":7769,"chool":7770,"▁austral":7771,"▁sanidad":7772,"▁leído":7773,"▁:((":7774,"▁\"un":7775,"tado.":7776,"ibilidad":7777,"morrow":7778,"▁inspira":7779,"bieron":7780,"▁salud,":7781,"plo":7782,"▁insis":7783,"▁gloria":7784,"▁comercio":7785,"▁latin":7786,"ezca":7787,"▁dejas":7788,"▁temporar":7789,"',":7790,"▁that's":7791,"▁sacri":7792,"▁compor":7793,"▁él,":7794,"als":7795,"▁amas":7796,"▁reca":7797,"▁yea":7798,"▁nam":7799,"▁young":7800,"tud":7801,"▁¿ya":7802,"▁gent":7803,"tiz":7804,"lera":7805,"▁llevamos":7806,"orada":7807,"▁mexican":7808,"▁desemp":7809,"▁breve":7810,"▁ningun":7811,"▁cafe":7812,"▁trato":7813,"▁tardes":7814,"▁pasen":7815,"boy":7816,"enda":7817,"wh":7818,"▁dela":7819,"▁libera":7820,"v.":7821,"▁ec":7822,"▁comentar":7823,"▁sorprende":7824,"▁hambur":7825,"▁generar":7826,"mus":7827,"▁usan":7828,"▁listen":7829,"▁biblio":7830,"fc":7831,"▁motor":7832,"▁asesino":7833,"▁lindas":7834,"▁check":7835,"▁ensa":7836,"▁transmi":7837,"▁fire":7838,"▁extrema":7839,"▁salí":7840,"▁tax":7841,"quez":7842,"▁convertir":7843,"dría":7844,"▁data":7845,"▁bat":7846,"in,":7847,"▁putas":7848,"▁(+":7849,"▁ayunta":7850,"▁debut":7851,"ylor":7852,"▁venezuela,":7853,"▁ts":7854,"▁(1":7855,"▁letra":7856,"encia.":7857,"▁campeonato":7858,"▁away":7859,"▁indí":7860,"quista":7861,"▁financi":7862,"▁sobra":7863,"iero":7864,"▁que?":7865,"▁contex":7866,"▁respetar":7867,"▁since":7868,"▁colabora":7869,"▁vaina":7870,"▁aliment":7871,"▁single":7872,"cord":7873,"illos":7874,"▁droga":7875,"▁directamente":7876,"▁adentro":7877,"jo.":7878,"200":7879,"▁obviamente":7880,"▁tér":7881,"▁bolude":7882,"▁日":7883,"tivo,":7884,"ario.":7885,"▁comis":7886,"viene":7887,"▁ramos":7888,"miento,":7889,"▁porta":7890,"▁estando":7891,"chada":7892,"▁urge":7893,"▁me.":7894,"▁copas":7895,"▁personas.":7896,"▁2019.":7897,"▁actualización":7898,"▁water":7899,"▁amiga,":7900,"▁afecta":7901,"▁aquí,":7902,"▁family":7903,"á,":7904,"▁familia,":7905,"▁histórico":7906,"▁violates":7907,"▁angus":7908,"▁también,":7909,"▁ilusión":7910,"cui":7911,"▁tomorrow":7912,"▁ب":7913,"▁regional":7914,"ness":7915,"cher":7916,"▁pési":7917,"milar":7918,"▁córdoba":7919,"▁decir,":7920,"▁consumo":7921,"▁foo":7922,"▁leyes":7923,"tiles":7924,"▁inmun":7925,"▁transmisión":7926,"▁tok":7927,"▁cy":7928,"▁wacho":7929,"maron":7930,"▁eterno":7931,"▁caracter":7932,"hip":7933,"dable":7934,"▁sede":7935,"▁pilo":7936,"▁infierno":7937,"▁mean":7938,"▁salvo":7939,"▁confor":7940,"▁conversación":7941,"▁mtvlaparejaj":7942,"tage":7943,"dias":7944,"time":7945,"▁conserva":7946,"▁bene":7947,"▁10.":7948,"ñez":7949,"tado,":7950,"▁mtvlaparejajuliantina":7951,"▁cuantas":7952,"▁ode":7953,"▁pense":7954,"▁comunista":7955,"gri":7956,"▁cau":7957,"▁critica":7958,"▁matri":7959,"▁conoces":7960,"▁seme":7961,"▁relacion":7962,"exual":7963,"▁ñ":7964,"▁encuentran":7965,"▁estru":7966,"▁habéis":7967,"▁bic":7968,"▁policy.":7969,"▁beneficios":7970,"▁anci":7971,"▁deser":7972,"▁deportes":7973,"▁ór":7974,"ctima":7975,"▁dj":7976,"▁podrán":7977,"▁exist":7978,"▁epi":7979,"iales":7980,"▁aguanto":7981,"▁andalucía":7982,"▁partes":7983,"▁espacios":7984,"▁temporarily":7985,"▁bicicleta":7986,"▁lma":7987,"▁compre":7988,"▁wel":7989,"▁beneficio":7990,"eada":7991,"mico":7992,":5":7993,"l,":7994,"▁comparte":7995,"▁persona,":7996,"pris":7997,"mart":7998,"▁youre":7999,"▁mtvlafandom":8000,"encia,":8001,"▁guarda":8002,"ani":8003,"▁unavailable":8004,"▁absur":8005,"juliantina":8006,"monos":8007,"▁cuales":8008,"▁¿en":8009,"▁ly":8010,"▁vete":8011,"▁tap":8012,"▁nba":8013,"▁famoso":8014,"▁kirchner":8015,"▁nacional.":8016,"▁bolí":8017,"▁girasol":8018,"▁liver":8019,"▁sentimientos":8020,"▁artistas":8021,"▁conocido":8022,"nor":8023,"▁tipos":8024,"▁esperemos":8025,"lon":8026,"▁caminando":8027,"▁foro":8028,"▁fuimos":8029,"▁locos":8030,"▁line":8031,"▁mtvlafandomjuliantina":8032,"▁caminar":8033,"▁tun":8034,"iam":8035,"▁sabiendo":8036,"▁delicio":8037,"▁independencia":8038,"▁while":8039,"▁izquier":8040,"▁alzada":8041,"▁oficina":8042,"▁sara":8043,"▁bolu":8044,"▁actuar":8045,"▁ambien":8046,"▁acha":8047,"tico.":8048,"▁primeras":8049,"▁dead":8050,"▁matter":8051,"▁tuviera":8052,"▁escuelas":8053,"▁lider":8054,"▁víctima":8055,"▁obses":8056,"jara":8057,"▁nomina":8058,"▁dire":8059,"▁instituciones":8060,"▁difundir":8061,"▁remember":8062,"▁nicolás":8063,"cero":8064,"▁cup":8065,"▁controlar":8066,"uk":8067,"hout":8068,"▁empat":8069,"▁ate":8070,"▁hand":8071,"▁vacun":8072,"▁comunicado":8073,"▁dueño":8074,"▁aureola":8075,"▁desn":8076,"▁protesta":8077,"ables":8078,"▁producto":8079,"▁pep":8080,"▁ministra":8081,"▁impresionante":8082,"▁escrito":8083,"▁rafael":8084,"▁tóx":8085,"▁atlé":8086,"▁empresarios":8087,"▁puertas":8088,"▁aburri":8089,"▁arroz":8090,"asa":8091,"▁mi.":8092,"vando":8093,"▁chino":8094,"▁group":8095,"▁presidencial":8096,"▁gestion":8097,"fal":8098,"tha":8099,"▁pud":8100,"▁marcel":8101,"▁nervios":8102,"ordin":8103,"2017":8104,"?...":8105,"▁clientes":8106,"quien":8107,"▁rivera":8108,"▁anime":8109,"▁str":8110,"▁gif":8111,"▁semestre":8112,"tana":8113,"▁falsa":8114,"▁quise":8115,"▁martínez":8116,"▁alejandro":8117,"▁cobra":8118,"wor":8119,"▁aña":8120,"▁aisla":8121,"▁alqui":8122,"▁organización":8123,"▁números":8124,"▁miembros":8125,"▁chel":8126,"mora":8127,"later":8128,"▁despre":8129,"▁cristiano":8130,"▁enti":8131,"/o":8132,"▁avent":8133,"▁legen":8134,"▁mover":8135,"▁ricar":8136,"jó":8137,"▁moreno":8138,"tate":8139,"▁ney":8140,"▁jueces":8141,"▁concre":8142,"▁pueblos":8143,"▁dir":8144,"▁dri":8145,"▁fuertes":8146,"▁publicado":8147,"▁crecimiento":8148,"▁efecto":8149,"▁artes":8150,"venil":8151,"▁0.":8152,"▁promes":8153,"▁división":8154,"▁además,":8155,"▁challenge":8156,"▁primo":8157,"▁frases":8158,"▁tech":8159,"▁cliente":8160,"▁pisto":8161,"▁pér":8162,"sea":8163,"▁enfo":8164,"▁competencia":8165,"fec":8166,"▁\"p":8167,"▁android":8168,"▁copi":8169,"▁méxico.":8170,"ique":8171,"▁mandan":8172,"▁find":8173,"▁tú,":8174,"▁ak":8175,"hael":8176,"▁tempo":8177,"▁adiós":8178,"▁james":8179,"▁manejo":8180,"▁ritmo":8181,"▁despi":8182,"▁beber":8183,"▁hacerte":8184,"▁regla":8185,"▁arreglar":8186,"▁seamos":8187,"▁alianza":8188,"▁hallow":8189,"▁logro":8190,"▁pasos":8191,"▁previa":8192,"▁mendo":8193,"▁hala":8194,"▁trop":8195,"▁mostrador":8196,"nie":8197,"▁eco":8198,"▁arqui":8199,"▁pac":8200,"▁bendiga":8201,"▁lima":8202,"▁carmen":8203,"xx":8204,"▁vayas":8205,"▁abrazos":8206,"á.":8207,"▁latina":8208,"▁이":8209,"▁industria":8210,"▁nothing":8211,"guas":8212,"taste":8213,"teriores":8214,"▁correo":8215,"▁provoca":8216,"▁familia.":8217,"▁alu":8218,"▁convir":8219,"▁propuestas":8220,"▁aguantar":8221,"▁ready":8222,"íz":8223,"▁contestar":8224,"▁boludo":8225,"▁women":8226,"▁month":8227,"▁198":8228,"▁resolver":8229,"▁xddd":8230,"▁fora":8231,"???.":8232,"▁arm":8233,"▁birra":8234,"tain":8235,"▁piernas":8236,"▁japonés":8237,"▁nube":8238,"▁amenaza":8239,"▁columna":8240,"▁humanidad":8241,"tte":8242,"lido":8243,"▁vesti":8244,"gamos":8245,"▁mamar":8246,"▁estreno":8247,"▁rosé":8248,"▁health":8249,"▁mañana.":8250,"▁doming":8251,"bon":8252,"▁aument":8253,"▁milit":8254,"▁fantasma":8255,"▁aja":8256,"▁agradezco":8257,"ios,":8258,"▁fit":8259,"clo":8260,"▁04":8261,"jal":8262,"▁fundamental":8263,"▁oso":8264,"▁retras":8265,"▁estudios":8266,"ias,":8267,"dell":8268,"▁papi":8269,"▁águi":8270,"ore":8271,"▁argentinos":8272,"▁denunciar":8273,"▁ejército":8274,"mex":8275,"▁ído":8276,"▁agui":8277,"▁jardín":8278,"▁esto?":8279,"desa":8280,"▁sexy":8281,"▁descanso":8282,"▁decirte":8283,"▁estad":8284,"▁salario":8285,"▁gano":8286,"mía":8287,"porque":8288,"▁podés":8289,"cres":8290,"▁dt":8291,"▁cuaderno":8292,"▁apelli":8293,"▁misión":8294,"wo":8295,"▁ella.":8296,"▁dark":8297,"▁resu":8298,"▁alegra":8299,"ary":8300,"▁ciudadano":8301,"▁correcto":8302,"▁alarma":8303,"▁palacio":8304,"▁monóculo":8305,"▁zu":8306,"capacidad":8307,"fr":8308,"▁juegan":8309,"▁sure":8310,"▁hecha":8311,"▁conocen":8312,"▁adivin":8313,"▁toman":8314,"▁muriendo":8315,"▁tikto":8316,"aj":8317,"▁2014":8318,"▁pica":8319,"▁sentí":8320,"▁madrugada":8321,"▁méxico,":8322,"▁¡bu":8323,"cas,":8324,"▁curr":8325,"_19":8326,"1,":8327,"▁álvar":8328,"▁noch":8329,"▁eliminar":8330,"▁empe":8331,"tiva.":8332,"▁pato":8333,"▁geor":8334,"▁soñar":8335,"▁estra":8336,"cturas":8337,"▁novela":8338,"▁ricos":8339,"▁indigna":8340,"▁permiso":8341,"▁self":8342,"▁bs":8343,"▁jjaja.":8344,"▁hen":8345,"ils":8346,"▁chance":8347,"▁cortar":8348,"▁switch":8349,"▁mande":8350,"▁venden":8351,"▁dá":8352,".00":8353,"▁propó":8354,"▁espí":8355,"▁fracaso":8356,"▁administración":8357,"▁s.":8358,"cua":8359,"(?":8360,"▁school":8361,"▁quejar":8362,"▁change":8363,"▁gastar":8364,"▁lindos":8365,"▁arrep":8366,"▁gradu":8367,"tamiento":8368,"▁momento,":8369,"g,":8370,"fl":8371,"▁vecino":8372,"▁delante":8373,"▁ina":8374,"▁acre":8375,"▁secretario":8376,"▁intentando":8377,"▁vivienda":8378,"far":8379,"▁sm":8380,"▁colaboración":8381,"▁و":8382,"▁cataluña":8383,"▁jan":8384,"game":8385,"pora":8386,"íos":8387,"▁carita":8388,"▁boluda":8389,"▁date":8390,"▁wr":8391,"▁maravilloso":8392,"▁alrededor":8393,"tara":8394,"▁lets":8395,"▁prove":8396,"lanes":8397,"▁abuso":8398,"▁fala":8399,"▁rema":8400,"▁mire":8401,"▁head":8402,"▁mejora":8403,"▁\"mi":8404,"derecha":8405,"▁transfor":8406,"▁55":8407,"▁negar":8408,"▁chat":8409,"▁wish":8410,"▁busco":8411,"cados":8412,"▁trabajan":8413,"ksks":8414,"▁blue":8415,"▁chávez":8416,"▁obs":8417,"▁podéis":8418,"▁elección":8419,"▁cali":8420,"▁renta":8421,"▁getting":8422,"▁amazing":8423,"▁33":8424,"tian":8425,"▁halloween":8426,"▁ella,":8427,"▁entendí":8428,"live":8429,"tico,":8430,"yu":8431,"▁castillo":8432,"gaste":8433,"¿¿":8434,"icos.":8435,"▁artist":8436,"▁through":8437,"▁mind":8438,"▁vencer":8439,"▁tuvieron":8440,"rie":8441,"rarse":8442,"▁dad":8443,"▁actos":8444,"▁princesa":8445,"▁inútil":8446,"▁salgan":8447,"▁passa":8448,"tendo":8449,"▁ah,":8450,"▁regresar":8451,"▁pau":8452,"entemente":8453,"▁ranking":8454,"▁llamo":8455,"▁patrio":8456,"▁sumar":8457,"▁empezamos":8458,"▁justin":8459,"▁bui":8460,"▁season":8461,"▁subi":8462,"▁incendio":8463,"▁subs":8464,"cho,":8465,"ficos":8466,"▁juvenil":8467,"▁empiezo":8468,"▁respira":8469,"▁salieron":8470,"dro":8471,"▁sonre":8472,"▁ml":8473,"▁lp":8474,"arnos":8475,"dimos":8476,"gico":8477,"▁intro":8478,"▁letras":8479,"▁pay":8480,"zy":8481,"▁hamburgues":8482,"neces":8483,"▁negocia":8484,"▁continuar":8485,"▁alien":8486,"▁fondos":8487,"▁pinches":8488,"▁clín":8489,"view":8490,"cau":8491,"▁actú":8492,"▁portá":8493,"▁empu":8494,"▁cuban":8495,"▁matando":8496,"▁alcanza":8497,"▁rut":8498,"▁amén":8499,"▁pass":8500,"▁observa":8501,"▁persona.":8502,"▁ia":8503,"▁cour":8504,"▁masco":8505,"▁artic":8506,"▁españa,":8507,"▁quizá":8508,"iano":8509,"...no":8510,"▁nis":8511,"▁regala":8512,"▁levante":8513,"▁extraordin":8514,"▁rei":8515,"-s":8516,"▁jon":8517,"▁dog":8518,"▁concer":8519,"▁infancia":8520,"▁podcast":8521,"ng":8522,"▁vuestra":8523,"▁respec":8524,"▁escal":8525,"▁parecido":8526,"▁ambas":8527,"▁final.":8528,"▁barbar":8529,"▁terra":8530,"▁ajus":8531,"▁sanitario":8532,"▁mantiene":8533,"▁ahí,":8534,"▁ciel":8535,"▁llegaron":8536,"/a":8537,"▁stic":8538,"íamos":8539,"▁amanecer":8540,"rey":8541,"▁light":8542,"▁(que":8543,"jud":8544,"▁true":8545,"▁maripos":8546,"▁ee.":8547,"▁sienten":8548,"pa.":8549,"▁lil":8550,"▁cover":8551,"▁fuese":8552,"emb":8553,"▁bús":8554,"guenza":8555,"▁expli":8556,"▁queriendo":8557,"▁geno":8558,"ioso":8559,"▁llevó":8560,"▁mood":8561,"▁chef":8562,"▁liverpool":8563,"▁despierta":8564,"▁inseguridad":8565,"▁ponerse":8566,"▁camara":8567,"pado":8568,"▁aplicar":8569,"gara":8570,"▁tio":8571,"titos":8572,"▁estrés":8573,"▁lives":8574,"s!":8575,"▁jode":8576,"▁ff":8577,"▁cerro":8578,"abo":8579,"▁firme":8580,"▁torres":8581,"▁fijo":8582,"▁8.":8583,"▁dios.":8584,"▁¡mu":8585,"▁policia":8586,"▁arrancar":8587,"▁quedaron":8588,"▁compu":8589,"tame":8590,"▁nova":8591,"▁defiende":8592,"▁queen":8593,"▁semana,":8594,"▁medicina":8595,"▁creí":8596,"final":8597,"pr":8598,"ché":8599,"▁tocó":8600,"▁amigui":8601,"iao":8602,"▁instituto":8603,"▁apoyando":8604,"▁guys":8605,"▁razon":8606,"▁ganando":8607,"▁avisa":8608,"▁tt":8609,"▁impe":8610,"unya":8611,"▁caen":8612,"orio":8613,"▁disc":8614,"▁parcial":8615,"▁decían":8616,"▁sín":8617,"▁tou":8618,"▁momento.":8619,"▁descri":8620,"▁break":8621,"▁tenis":8622,"iros":8623,"hasta":8624,"▁similar":8625,"entes.":8626,"▁hahahahaha":8627,"▁espi":8628,"▁pensado":8629,"▁pieza":8630,"itat":8631,"▁acabó":8632,"▁repos":8633,"▁ciudades":8634,"▁block":8635,"▁bolívar":8636,"▁autoridad":8637,"▁mínima":8638,"▁navar":8639,"▁compla":8640,"▁madrid,":8641,"▁terren":8642,"▁frun":8643,"▁oper":8644,"▁coronavirus.":8645,"▁ray":8646,"▁covid_19":8647,"▁\"al":8648,"▁rique":8649,"ías,":8650,"▁adoro":8651,"ios.":8652,"▁jesus":8653,"didas":8654,"▁roberto":8655,"▁regular":8656,"▁hipócri":8657,"▁yourself":8658,"▁estupidez":8659,"▁madre,":8660,"tias":8661,"▁siete":8662,"entes,":8663,"▁papás":8664,"ene":8665,"▁román":8666,"▁falla":8667,"▁lot":8668,"jitos":8669,"▁bolivar":8670,"▁engan":8671,"▁flu":8672,"▁alegro":8673,"▁gonzález":8674,"▁supermer":8675,"▁arrepen":8676,"▁compartimos":8677,"▁departamento":8678,"▁onu":8679,"▁chur":8680,"▁estáis":8681,"▁alla":8682,"▁mtvlafandomjuliantinafans":8683,"▁avance":8684,"-4":8685,"▁apertura":8686,"75":8687,"▁portátil":8688,"▁url.":8689,"▁ds":8690,"▁yall":8691,"teles":8692,"▁hues":8693,"▁servir":8694,"▁desen":8695,"▁mens":8696,"▁sigamos":8697,"ota":8698,"▁gatos":8699,"bd":8700,"ve.":8701,"▁experi":8702,"▁aeropuerto":8703,"▁depresión":8704,"▁crítica":8705,"▁igual.":8706,"▁sinver":8707,"ezas":8708,"▁cumplen":8709,"hd":8710,"ário":8711,"▁demues":8712,"▁guardar":8713,"▁ini":8714,"▁impon":8715,"lio":8716,"▁decidir":8717,"▁urban":8718,"gt":8719,"comun":8720,"▁farma":8721,"▁volví":8722,"▁nunca.":8723,"▁insi":8724,"▁soledad":8725,"▁colectivo":8726,"tly":8727,"uco":8728,"▁quiso":8729,"▁luci":8730,"▁choice":8731,"▁utilizar":8732,"guar":8733,"▁distra":8734,"▁ahora.":8735,"gem":8736,"▁respir":8737,"▁hicimos":8738,"▁enfren":8739,"jante":8740,"frica":8741,"▁pases":8742,"▁rumbo":8743,"▁cit":8744,"▁documental":8745,"▁indic":8746,"▁march":8747,"▁zoo":8748,"real":8749,"▁い":8750,"▁broma":8751,"▁abro":8752,"uestas":8753,"▁jorna":8754,"▁eas":8755,"▁estafa":8756,"▁dile":8757,"▁evolución":8758,"tible":8759,"▁depo":8760,"▁¡feliz":8761,"▁quedarme":8762,"▁¡que":8763,"▁cross":8764,"▁jajajajajajaja":8765,"▁banca":8766,"quía":8767,"▁escenario":8768,"▁mori":8769,"▁alguém":8770,"▁noche,":8771,"▁cohe":8772,"▁cómpl":8773,"va,":8774,"ady":8775,"▁dou":8776,"▁ganador":8777,"oor":8778,"▁borrar":8779,"plica":8780,"▁socor":8781,"▁mí,":8782,"▁portada":8783,"▁monu":8784,"▁imbe":8785,"▁difici":8786,"▁vuestro":8787,"▁camion":8788,"▁entrenador":8789,"▁secreto":8790,"▁00":8791,"kas":8792,"gos,":8793,"▁ofrece":8794,"▁rub":8795,"▁aprovecha":8796,"▁historia,":8797,"▁differ":8798,"▁cnco":8799,"▁cabron":8800,"▁demanda":8801,"▁paral":8802,"▁audi":8803,"▁wonder":8804,"▁proud":8805,"direc":8806,"▁bloqueo":8807,"▁trabal":8808,"n,":8809,"ario,":8810,"▁guaidó":8811,"▁]":8812,"bien":8813,"▁bueno.":8814,"ural":8815,"▁tempor":8816,"▁civi":8817,"indo":8818,"▁pea":8819,"▁ceño":8820,"cés":8821,"▁brazos":8822,"reo":8823,"▁llevas":8824,"▁poes":8825,"▁responsables":8826,"▁gabriel":8827,"▁tuits":8828,"▁preguntan":8829,"abe":8830,"▁tq":8831,"▁playlist":8832,"ão,":8833,"▁xa":8834,"▁bye":8835,"▁financia":8836,"▁excusa":8837,"▁porfavor":8838,"▁menos.":8839,"▁cortes":8840,"pio":8841,"ino.":8842,"but":8843,"▁puedas":8844,"▁formar":8845,"▁importar":8846,"▁sentimiento":8847,"▁pasaba":8848,"▁congra":8849,"▁miami":8850,"▁soul":8851,"▁zonas":8852,"gena":8853,"ino,":8854,"▁agric":8855,"ví":8856,"▁sky":8857,"▁archi":8858,"▁io":8859,"▁vil":8860,"▁calif":8861,"▁viajes":8862,"▁michael":8863,"▁diabe":8864,"▁fico":8865,"▁evo":8866,"▁sty":8867,"lóg":8868,"minis":8869,"▁americ":8870,"▁reba":8871,"▁asal":8872,"▁convocatoria":8873,"▁d.":8874,"▁culpable":8875,"▁lleve":8876,"ónico":8877,"▁thread":8878,"deras":8879,"jajajaj":8880,"▁commun":8881,"uesto":8882,"▁aa":8883,"tiva,":8884,"▁prisión":8885,"▁revolucion":8886,"ritos":8887,"▁gü":8888,"pa,":8889,"▁_":8890,"▁presidenta":8891,"▁santan":8892,"▁dl":8893,"zgo":8894,"ensa":8895,"▁vueltas":8896,"▁bis":8897,"▁laura":8898,"dados":8899,"▁anos":8900,"▁impacto":8901,"▁:.":8902,"▁líderes":8903,"▁believe":8904,"▁ss":8905,"▁cristo":8906,"▁hacer.":8907,"ctur":8908,"▁empol":8909,"kkk":8910,"▁empiezan":8911,"pping":8912,"▁nice":8913,"▁mark":8914,"▁metros":8915,"▁3,":8916,"▁bitch":8917,"▁comeback":8918,"▁ganamos":8919,"▁streaming":8920,"3,":8921,"tim":8922,"▁flamen":8923,"▁orgulloso":8924,"▁carol":8925,"▁empecé":8926,"▁remi":8927,"▁vue":8928,"▁estado.":8929,"▁impunidad":8930,"▁callar":8931,"▁cm":8932,"▁salimos":8933,"▁dormí":8934,"uto":8935,"tano":8936,"thers":8937,"▁dijiste":8938,"▁algo.":8939,"▁cuentan":8940,"adas":8941,"▁without":8942,"aan":8943,"▁identidad":8944,"▁190":8945,"tancias":8946,"may":8947,"▁memori":8948,"▁fiscalía":8949,"▁corazón.":8950,"▁asesinos":8951,"▁recibi":8952,"▁docente":8953,"▁popul":8954,"▁olvides":8955,"▁portugal":8956,"▁aristemo":8957,"▁rich":8958,"toso":8959,"▁unfollowed":8960,"bó":8961,"▁tic":8962,"▁influen":8963,"bando":8964,"zón":8965,"▁cierra":8966,"▁fing":8967,"▁amores":8968,"▁obri":8969,"!\"":8970,"cilla":8971,"▁york":8972,"ulos":8973,"onso":8974,"ibo":8975,"▁rebel":8976,"▁aprox":8977,"▁quedas":8978,"▁crimen":8979,"▁sirven":8980,"▁abuelo":8981,"tria":8982,"▁candidatos":8983,"▁ingles":8984,"▁feliz.":8985,"▁corea":8986,"▁sigues":8987,"▁fundación":8988,"alada":8989,"ments":8990,"▁hinchas":8991,"▁で":8992,"▁34":8993,"tell":8994,"▁animo":8995,"▁empleados":8996,"▁rabia":8997,"▁inscri":8998,"▁ricardo":8999,"▁origin":9000,"vol":9001,"talo":9002,"▁nan":9003,"grado":9004,"▁aprovechar":9005,"▁paciente":9006,"▁costumbre":9007,"▁inaugura":9008,"rillo":9009,"▁gla":9010,"trui":9011,"▁vestido":9012,"así":9013,"▁oí":9014,"▁cans":9015,"▁fueran":9016,"▁enemigo":9017,"▁\"the":9018,"▁sam":9019,"ladas":9020,"ertos":9021,"▁convo":9022,"▁9.":9023,"▁nació":9024,"▁el.":9025,"reas":9026,"▁traje":9027,"▁ayudan":9028,"▁agricul":9029,"ência":9030,"▁mames":9031,"▁start":9032,"hen":9033,"▁preocupada":9034,"▁ayudas":9035,"▁class":9036,"▁tigres":9037,"▁intervención":9038,"▁aux":9039,"▁despierto":9040,"▁haré":9041,"play":9042,"▁maraca":9043,"▁perspec":9044,"▁levanto":9045,"▁pelotudos":9046,"ética":9047,"▁taylor":9048,"▁aveces":9049,"▁(en":9050,"izan":9051,"▁envío":9052,"▁escla":9053,"▁abogado":9054,"▁vehículo":9055,"▁queja":9056,"▁enlace":9057,"▁vendo":9058,"dillas":9059,"ed.":9060,"65":9061,"▁atacar":9062,"oo,":9063,"▁gustavo":9064,"gera":9065,"▁estou":9066,"▁apple":9067,"▁tráfico":9068,"▁valiente":9069,"▁argentina.":9070,"▁pueblo.":9071,"temos":9072,"dedores":9073,"▁vidal":9074,"guiendo":9075,"▁\"las":9076,"▁investigar":9077,"▁hair":9078,"▁agro":9079,"▁antic":9080,"▁quí":9081,"▁mascarillas":9082,"▁feliz,":9083,"▁lado,":9084,"sible":9085,"▁aaaa":9086,"▁pack":9087,"dicional":9088,"▁gasto":9089,"▁caída":9090,"▁autoesti":9091,"▁--":9092,"▁presidencia":9093,"▁uc":9094,"▁hubieran":9095,"▁esla":9096,"▁75":9097,"quín":9098,"▁costo":9099,"▁okay":9100,"▁baila":9101,"▁soñé":9102,"▁vzla":9103,"▁impro":9104,"▁novo":9105,"▁destruir":9106,"▁tratamiento":9107,"▁neymar":9108,"▁orte":9109,"▁raya":9110,"▁united":9111,"▁child":9112,"▁exitos":9113,"▁estación":9114,"▁pris":9115,"▁excus":9116,"irnos":9117,"▁encantan":9118,"fit":9119,"▁granada":9120,"▁embaja":9121,"ita.":9122,"▁urb":9123,"▁asombrada":9124,"35":9125,"▁bienvenido":9126,"▁tava":9127,"▁operación":9128,"▁tortu":9129,"▁humedad":9130,"▁¿quieres":9131,"▁sentar":9132,"▁pese":9133,"▁sle":9134,"top":9135,"▁eterna":9136,"▁nel":9137,"▁crema":9138,"▁asegura":9139,"▁misa":9140,"▁lujo":9141,"▁name":9142,"américa":9143,"▁privada":9144,"▁territorio":9145,"visa":9146,"▁vaquero":9147,"▁pls":9148,"▁comenta":9149,"▁garantizar":9150,"▁limpieza":9151,"fra":9152,"▁putos":9153,"▁figura":9154,"▁desperté":9155,"?¿":9156,"▁nintendo":9157,"viste":9158,"▁despa":9159,"▁hea":9160,"▁autón":9161,"▁partido.":9162,"▁torta":9163,"▁triple":9164,"ith":9165,"▁around":9166,"▁menos,":9167,"▁camión":9168,"▁ajena":9169,"▁benefici":9170,"▁caball":9171,"▁imbécil":9172,"▁conjunto":9173,"▁38":9174,"▁talk":9175,"▁looks":9176,"▁demais":9177,"▁caras":9178,"▁llegada":9179,"laciones":9180,"▁cantv":9181,"▁place":9182,"▁fica":9183,"▁cancer":9184,"▁plu":9185,"bles,":9186,"▁empezando":9187,"▁declaraciones":9188,"▁autóno":9189,"▁n1":9190,"▁stal":9191,"citos":9192,"▁vicepres":9193,"▁jugue":9194,"▁madre.":9195,"▁perdona":9196,"▁deca":9197,"undar":9198,"▁hablemos":9199,"▁iron":9200,"▁against":9201,"▁verdad?":9202,"▁tendrán":9203,"▁atlético":9204,"▁veracru":9205,"▁hil":9206,"vide":9207,"zaron":9208,"▁modi":9209,"zi":9210,"com":9211,"▁sn":9212,"▁dictador":9213,"▁explicación":9214,"▁sch":9215,"grá":9216,"▁necesaria":9217,"▁genio":9218,"▁carnaval":9219,"▁plo":9220,"▁en:":9221,"▁done":9222,"▁defendiendo":9223,"▁try":9224,"lit":9225,"vada":9226,"▁logo":9227,"amos":9228,"▁note":9229,"▁comienzo":9230,"▁conex":9231,"▁you,":9232,"▁salud.":9233,"▁asociación":9234,"▁meet":9235,"▁gel":9236,"▁viz":9237,"▁profesores":9238,"▁blin":9239,"▁conocí":9240,"▁confiar":9241,"▁trián":9242,"▁espíritu":9243,"!?":9244,"▁código":9245,"▁catalunya":9246,"▁amen":9247,"▁mutual":9248,"▁alcanzar":9249,"metro":9250,"▁vaso":9251,"▁trán":9252,"▁aplicación":9253,"...a":9254,"▁^":9255,"▁male":9256,"▁fos":9257,"▁razón,":9258,"▁empollón":9259,"▁wi":9260,"ulas":9261,"▁tern":9262,"▁bañar":9263,"▁atleti":9264,"migos":9265,"▁prox":9266,"ías.":9267,"▁\"e":9268,"▁puestos":9269,"▁guitarra":9270,"▁japón":9271,"▁implica":9272,"▁tomas":9273,"▁neur":9274,"▁contribu":9275,"▁enseñ":9276,"▁fé":9277,"mitas":9278,"▁yaaa":9279,"▁lady":9280,"▁silla":9281,"istes":9282,"der.":9283,"▁perfor":9284,"▁sacrif":9285,"▁gráfica":9286,"▁merda":9287,"▁jamas":9288,"▁horas.":9289,"▁existencia":9290,"▁cifras":9291,"▁lorenzo":9292,"▁tranquilidad":9293,"▁propósito":9294,"▁mui":9295,"reras":9296,"▁garant":9297,"▁meloco":9298,"▁➡":9299,"▁precioso":9300,"▁registro":9301,"▁grados":9302,"tl":9303,"▁europea":9304,"▁tirando":9305,"cidas":9306,"▁---":9307,"▁deu":9308,"rla":9309,"▁\"ma":9310,"▁final,":9311,"▁recomien":9312,"us.":9313,"▁pego":9314,"tás":9315,"▁comenzó":9316,"▁fin,":9317,"yeron":9318,"▁ayuntamiento":9319,"▁estarán":9320,"▁unif":9321,"▁necesitaba":9322,"▁paz.":9323,"▁を":9324,"▁propios":9325,"▁tendencias":9326,"▁bob":9327,"▁porra":9328,"▁compré":9329,"tismo":9330,"46":9331,"▁sy":9332,"▁ole":9333,"▁beren":9334,"▁públicas":9335,"$.":9336,"▁pueblo,":9337,"▁consigo":9338,"▁usuarios":9339,"▁vuelo":9340,"▁contando":9341,"▁400":9342,"▁(19":9343,"▁paté":9344,"▁bienvenidos":9345,"▁escor":9346,"▁mueve":9347,"mes,":9348,"▁tribunal":9349,"▁censura":9350,"▁barra":9351,"ta?":9352,"▁continúa":9353,"▁times":9354,"sss":9355,"▁satisfa":9356,"▁faltó":9357,"▁crista":9358,"▁brasile":9359,"▁aconte":9360,"sidades":9361,"▁huele":9362,"▁arries":9363,"▁sientes":9364,"es?":9365,"▁triángulo":9366,"▁calma":9367,"▁preocup":9368,"▁wall":9369,"▁social.":9370,"▁biden":9371,"▁meus":9372,"▁macr":9373,"▁resistencia":9374,"▁eslabón":9375,"▁visión":9376,"▁escuche":9377,"▁escuchado":9378,"▁escolar":9379,"ísticas":9380,"estamos":9381,"▁promedio":9382,"▁pastel":9383,"▁pentagra":9384,"▁megá":9385,"▁afort":9386,"▁sound":9387,"▁ende":9388,"▁plás":9389,"▁asustada":9390,"decer":9391,"▁baek":9392,"▁ofer":9393,"▁manejar":9394,"▁podrás":9395,"▁limpiar":9396,"ason":9397,"▁mála":9398,"▁agarra":9399,"▁guía":9400,"dalo":9401,"▁maquilla":9402,"▁!!!.":9403,"to?":9404,"▁melocotón":9405,"▁perrito":9406,"▁pelotas":9407,"▁traged":9408,"▁robaron":9409,"▁design":9410,"yon":9411,"▁nosotros.":9412,"▁dará":9413,"▁mulher":9414,"▁scre":9415,"▁preparado":9416,"▁pentagrama":9417,"▁secon":9418,"▁\"ca":9419,"alajara":9420,"▁megáfono":9421,"ned":9422,"▁atien":9423,"▁soluciones":9424,"▁comes":9425,"dada":9426,"▁histórica":9427,"___":9428,"▁cuen":9429,"▁must":9430,"▁\"pro":9431,"▁faltar":9432,"▁rd":9433,"▁saquen":9434,"va.":9435,"▁state":9436,"rones":9437,"▁quedamos":9438,"▁tarde,":9439,"▁depri":9440,"▁sínto":9441,"temp":9442,"▁ech":9443,"casa":9444,"▁ax":9445,"▁debajo":9446,"▁solos":9447,"▁cigar":9448,"▁jsjsjs":9449,"▁revi":9450,"▁join":9451,"▁48":9452,"▁marcar":9453,"▁verás":9454,"▁agente":9455,"▁viral":9456,"▁traicion":9457,"▁convers":9458,"▁relig":9459,"▁pich":9460,"▁quie":9461,"▁camila":9462,"▁adultos":9463,"▁coco":9464,"down":9465,"▁concepto":9466,"▁reir":9467,"▁nacionales":9468,"▁estudiando":9469,"mites":9470,"▁contemp":9471,"▁looking":9472,"▁barbi":9473,"▁e.":9474,"▁cerrada":9475,"▁bangtan":9476,"▁ft":9477,"▁tempran":9478,"▁pasamos":9479,"▁coher":9480,"▁diplo":9481,"▁が":9482,"ou":9483,"▁propagan":9484,"▁adqui":9485,"▁ahí.":9486,"▁agradece":9487,"▁opciones":9488,"▁depois":9489,"'a":9490,"asure":9491,"▁nacional,":9492,"▁olvide":9493,"dónde":9494,"▁hablen":9495,"방탄":9496,"▁demonio":9497,"▁subo":9498,"▁jajajajajajajajajaja":9499,"bb":9500,"▁cuenta.":9501,"sí":9502,"▁ver.":9503,"▁park":9504,"-a":9505,"▁hack":9506,"▁core":9507,"▁miserable":9508,"▁smart":9509,"▁enamorado":9510,"▁decide":9511,"▁campeones":9512,"▁ball":9513,"▁interro":9514,"▁divers":9515,"▁ingreso":9516,"▁entrenar":9517,"▁quema":9518,"▁envia":9519,"▁(de":9520,"▁exhi":9521,"▁ira":9522,"▁fechas":9523,"▁let's":9524,"▁abiertas":9525,"▁sii":9526,"▁pacto":9527,"▁official":9528,"▁detec":9529,"▁xfa":9530,"ionar":9531,"▁domicil":9532,"▁aprendí":9533,"zadas":9534,"yatra":9535,"dw":9536,"▁hacer,":9537,"▁paz,":9538,"cos,":9539,"▁gritar":9540,"▁principales":9541,"▁recibió":9542,"▁status":9543,"▁racing":9544,"soo":9545,"cho.":9546,"▁hela":9547,"▁lobo":9548,"▁dialo":9549,"▁labios":9550,"hing":9551,"▁no...":9552,"▁pedimos":9553,"▁already":9554,"cc":9555,"▁feminista":9556,"▁licencia":9557,"▁actually":9558,"▁daily":9559,"▁socialismo":9560,"▁spain":9561,"▁veces,":9562,"▁contamos":9563,"▁ayú":9564,"▁deberías":9565,"▁bomberos":9566,"▁vais":9567,"sivo":9568,"▁respeta":9569,"▁\".":9570,"rilla":9571,"▁guy":9572,"▁violen":9573,"▁socios":9574,"▁morales":9575,"▁gros":9576,"▁||":9577,"▁24/7":9578,"▁demon":9579,"▁sindica":9580,"▁chinga":9581,"▁vos.":9582,"▁feeling":9583,"▁tendré":9584,"▁32":9585,"duca":9586,"key":9587,"▁combina":9588,"▁pasas":9589,"▁retiro":9590,"very":9591,"▁llegué":9592,"▁casti":9593,"▁grand":9594,"▁mascul":9595,"▁quemar":9596,"▁ponte":9597,"▁bea":9598,"▁golazo":9599,"▁regu":9600,"▁galax":9601,"dón":9602,"▁migra":9603,"▁estado,":9604,"▁nov":9605,"▁próximos":9606,"▁dieta":9607,"▁jajajajajaj":9608,"xd":9609,"▁\"per":9610,"▁credi":9611,"▁ventana":9612,"▁dudo":9613,"▁quito":9614,"▁resuel":9615,"▁bona":9616,"▁monter":9617,"nos.":9618,"▁enamorar":9619,"/2020":9620,"llado":9621,"▁socorro":9622,"▁uber":9623,"▁guadalajara":9624,"▁cruel":9625,"▁corri":9626,"▁barbara":9627,"▁ky":9628,"▁sismo":9629,"▁salio":9630,"??.":9631,"▁hermosas":9632,"▁practic":9633,"▁separ":9634,"▁dejé":9635,"▁mã":9636,"▁imaginan":9637,"▁feminismo":9638,"iones,":9639,"▁fen":9640,"▁betis":9641,"ties":9642,"▁pelear":9643,"▁mujer,":9644,"▁cagada":9645,"jita":9646,"▁caso,":9647,"▁oaxaca":9648,"▁artif":9649,"▁esquina":9650,"▁destin":9651,"▁seré":9652,"▁estabas":9653,"▁levantarme":9654,"turales":9655,"▁hes":9656,"▁pagando":9657,"▁cé":9658,"ros,":9659,"48":9660,"▁semb":9661,"▁sorte":9662,"▁enfermo":9663,"▁cuántos":9664,"▁ladrones":9665,"▁yang":9666,"▁acce":9667,"▁mafia":9668,"hat":9669,"estru":9670,"▁espejo":9671,"▁(2":9672,"▁secues":9673,"▁argumentos":9674,"▁compañera":9675,"▁desear":9676,"ño,":9677,"▁disfrutando":9678,"▁vem":9679,"▁intención":9680,"▁amo,":9681,"▁primaria":9682,"▁exigir":9683,"▁preparando":9684,"▁velocidad":9685,"triz":9686,"▁adri":9687,"éramos":9688,"▁report":9689,"▁amigos.":9690,"▁evidencia":9691,"▁horiz":9692,"▁mr":9693,"▁senador":9694,"▁verguenza":9695,"▁wri":9696,"▁duerme":9697,"▁lamentablemente":9698,"▁verme":9699,"▁subiendo":9700,"▁send":9701,"▁social,":9702,"▁recuperación":9703,"ame":9704,"▁texto":9705,"▁probablemente":9706,"▁yg":9707,"▁future":9708,"▁pretty":9709,"sta":9710,"▁(e":9711,"▁150":9712,"▁daría":9713,"▁solucion":9714,"hah":9715,"▁reacción":9716,"idade":9717,"▁barba":9718,"▁nave":9719,"▁asistencia":9720,"▁exterior":9721,"▁insopor":9722,"▁shin":9723,"fici":9724,"▁díaz":9725,"imiento":9726,"olas":9727,"▁darse":9728,"▁ciudadanía":9729,"▁listos":9730,"▁apretón":9731,"▁imagínate":9732,"▁habitantes":9733,"▁increible":9734,"▁jarra":9735,"▁km/":9736,"▁gris":9737,"▁luchando":9738,"▁iguales":9739,"▁pira":9740,"▁però":9741,"▁movilidad":9742,"▁andas":9743,"▁argumento":9744,"sey":9745,"▁ignorante":9746,"cadas":9747,"▁terminan":9748,"▁sport":9749,"▁elimin":9750,"▁drogas":9751,"▁plas":9752,"▁eventos":9753,"▁plazo":9754,"▁equipo.":9755,"▁función":9756,"▁sc":9757,"▁raza":9758,"ación":9759,"habil":9760,"▁petición":9761,"▁situaciones":9762,"▁espectá":9763,"38":9764,"▁flechas":9765,"▁scar":9766,"▁mirá":9767,"▁inmen":9768,"▁marvel":9769,"▁revolo":9770,"▁ser,":9771,"▁físico":9772,"▁naaa":9773,"▁claro.":9774,"▁money":9775,"소년":9776,"47":9777,"▁vine":9778,"▁me:":9779,"▁sectores":9780,"▁girls":9781,"▁octa":9782,"▁making":9783,"lara":9784,"▁nct":9785,"vado":9786,"teria":9787,"▁uh":9788,"▁mai":9789,"▁salsa":9790,"▁amo.":9791,"▁detalle":9792,"▁noche.":9793,"▁olvidado":9794,"▁2000":9795,"▁¿cuán":9796,"je,":9797,"▁aguas":9798,"ditas":9799,"▁comunistas":9800,"▁circun":9801,"▁nossa":9802,"▁llegamos":9803,"▁falar":9804,"yec":9805,"▁urugua":9806,"jena":9807,"▁hj":9808,"▁medell":9809,"▁sweet":9810,"ceso":9811,"▁amamos":9812,"arial":9813,"dea":9814,"▁crédito":9815,"▁manz":9816,"pers":9817,"▁grande.":9818,"bis":9819,"▁day.":9820,"▁propiedad":9821,"▁acomo":9822,"▁origen":9823,"▁contagio":9824,"▁convierte":9825,"▁\"des":9826,"▁í":9827,"ismos":9828,"▁:c":9829,"▁justificar":9830,"ática":9831,"ístico":9832,"▁aquí.":9833,"▁comunidades":9834,"▁hrs":9835,"marca":9836,"▁fruncido":9837,"ence":9838,"▁fuji":9839,"nya":9840,"▁cató":9841,"▁expertos":9842,"▁makes":9843,"▁devolver":9844,"▁voces":9845,"quitos":9846,"▁golp":9847,"anza":9848,"▁altos":9849,"▁mir":9850,"▁lgbt":9851,"liar":9852,"▁carabin":9853,"▁delitos":9854,"▁seguido":9855,"tuvo":9856,"▁uff":9857,"to!":9858,"▁sacó":9859,"▁museo":9860,"▁cacer":9861,"▁días!":9862,"cana":9863,",,,":9864,"▁cohete":9865,"▁cocinar":9866,"▁revoloteando":9867,"hã":9868,"bitro":9869,"rist":9870,"dad,":9871,"▁suárez":9872,"▁ofrecer":9873,"▁uns":9874,"▁pací":9875,"▁primavera":9876,"inte":9877,"▁metas":9878,"소년단":9879,"▁piña":9880,"▁ze":9881,"▁frances":9882,"▁coach":9883,"▁mediante":9884,"▁embargo":9885,"▁motivos":9886,"▁lau":9887,"hot":9888,"▁enferma":9889,"elle":9890,"▁both":9891,"▁seguirá":9892,"▁muchísimas":9893,"▁dientes":9894,"▁ida":9895,"▁presidente,":9896,"▁igualmente":9897,"▁twitter.":9898,"aca":9899,"▁は":9900,"▁lali":9901,"▁busque":9902,"▁positivos":9903,"▁chingo":9904,"lis":9905,"▁produce":9906,"▁mariposa":9907,"▁namjo":9908,"ter.":9909,"more":9910,"▁paseo":9911,"▁click":9912,"▁mapa":9913,"▁demás.":9914,"▁\"pa":9915,"ather":9916,"▁cargar":9917,"fen":9918,"cas.":9919,"▁suici":9920,"▁caral":9921,"▁pelos":9922,"방탄소년단":9923,"▁festejar":9924,"▁¡en":9925,"▁movie":9926,"▁llenar":9927,"▁hidal":9928,"áles":9929,"▁partido,":9930,"▁especialmente":9931,"▁estuviera":9932,"▁09":9933,"▁pib":9934,"▁cantante":9935,"vy":9936,"titas":9937,"▁asesor":9938,"▁domingos":9939,"▁pilar":9940,"▁huellas":9941,"▁equipara":9942,"▁ajaja":9943,"drán":9944,"bilidades":9945,"▁1-":9946,"▁parlament":9947,"▁gracioso":9948,"▁búsque":9949,"▁metió":9950,"▁friday":9951,"▁ser.":9952,"▁tetas":9953,"éisbol":9954,"▁imaginar":9955,"▁reflexión":9956,"▁fila":9957,"▁sentirme":9958,"▁sepan":9959,"▁paran":9960,"▁comparti":9961,"▁guaya":9962,"▁exá":9963,"▁zul":9964,"tente":9965,"▁locu":9966,"▁góme":9967,"▁caiga":9968,"66":9969,"jec":9970,"▁ruido":9971,"▁mica":9972,"▁béisbol":9973,"win":9974,"▁anuncio":9975,"▁sonido":9976,"▁confes":9977,"▁horarios":9978,"▁welcome":9979,"te?":9980,"▁twitter,":9981,"▁decreto":9982,"itos.":9983,"▁estábamos":9984,"▁cuarentena.":9985,"▁requiere":9986,"▁vé":9987,"hon":9988,"kf":9989,"▁altas":9990,"verde":9991,"▁aprobar":9992,"▁tribu":9993,"oliber":9994,"▁ᅠ":9995,"▁cubre":9996,"ars":9997,"ciando":9998,"tula":9999,"▁fich":10000,"▁abandona":10001,"tade":10002,"▁jugó":10003,"▁norma":10004,"▁tradu":10005,"▁donald":10006,"ta!":10007,"▁autos":10008,"▁ema":10009,"▁fines":10010,"iones.":10011,"▁george":10012,"eña":10013,"▁perfectamente":10014,"▁games":10015,"▁capaces":10016,"tadora":10017,"▁edo":10018,"▁enferme":10019,"ras,":10020,"▁homo":10021,"▁votaron":10022,"▁femenino":10023,"▁porno":10024,"▁ponerle":10025,"▁lágrimas":10026,"▁ridic":10027,"▁desayuno":10028,"tou":10029,"▁boys":10030,"▁pepe":10031,"▁hr":10032,"▁dificil":10033,"▁c'":10034,"ion.":10035,"▁estatal":10036,"dale":10037,"▁sales":10038,"o!":10039,"▁cambiado":10040,"ing,":10041,"▁merecemos":10042,"▁grup":10043,"mín":10044,"▁evangel":10045,"▁digno":10046,"▁maestros":10047,"kal":10048,"▁dies":10049,"▁asesinato":10050,"▁aquella":10051,"▁exposición":10052,"▁derrota":10053,"▁flow":10054,"▁respues":10055,"▁business":10056,"▁pared":10057,"▁acadé":10058,"inking":10059,"▁zarago":10060,"vias":10061,"▁anteriores":10062,"▁invers":10063,"▁astu":10064,"▁decimos":10065,"▁publicación":10066,"▁aix":10067,"▁leal":10068,"▁sentencia":10069,"board":10070,"▁nace":10071,"▁trabajador":10072,"cena":10073,"▁derech":10074,"▁integra":10075,"▁lata":10076,"tela":10077,"▁barri":10078,"▁entreten":10079,"▁poco,":10080,"rich":10081,"▁locales":10082,"▁autoestima":10083,"▁¡ya":10084,"▁pandemia.":10085,"▁otor":10086,"▁trying":10087,"▁damn":10088,"nar":10089,"▁unica":10090,"▁corazón,":10091,"▁¡es":10092,"▁flaco":10093,"▁restauran":10094,"▁preocupar":10095,"▁juntar":10096,"▁dormido":10097,"gest":10098,"▁muñ":10099,"▁bienvenida":10100,"pc":10101,"▁recibido":10102,"▁cientos":10103,"▁sono":10104,"▁stand":10105,"▁aquello":10106,"▁special":10107,"▁dep":10108,"77":10109,"▁rick":10110,"uevo":10111,"▁pero...":10112,"▁inmo":10113,"▁dina":10114,"usos":10115,"▁suben":10116,"▁during":10117,"▁grito":10118,"x,":10119,"▁pn":10120,"dad.":10121,"▁cuanta":10122,"▁virtu":10123,"▁internacionales":10124,"▁rena":10125,"▁cuello":10126,"▁crean":10127,"▁nah":10128,"▁mas,":10129,"▁suba":10130,"▁confinamiento":10131,"▁lxs":10132,"▁saludos.":10133,"▁jugada":10134,"▁consigue":10135,"orable":10136,"▁maravillosa":10137,"▁milagro":10138,"▁maybe":10139,"▁chill":10140,"aar":10141,"▁inmi":10142,"icante":10143,"▁:p":10144,"▁alguien,":10145,"ático":10146,"▁dificul":10147,"...\".":10148,"▁contigo.":10149,"▁pistola":10150,"▁ptm":10151,"▁afirma":10152,"▁bebés":10153,"▁acorde":10154,"▁maur":10155,"▁inclusi":10156,"▁ee.uu":10157,"▁kind":10158,"▁olimpia":10159,"dame":10160,"▁salón":10161,"▁ayer,":10162,"▁claudia":10163,"▁sanitaria":10164,"▁limón":10165,"▁nosotros,":10166,"▁miente":10167,"▁se,":10168,"▁aquí:":10169,"▁acuerdan":10170,"▁patrimonio":10171,"▁récord":10172,"▁mexicana":10173,"▁áfrica":10174,"'ll":10175,"▁recomendaciones":10176,"▁bc":10177,"▁clubes":10178,"▁icon":10179,"▁ademas":10180,"▁cansado":10181,"▁volviendo":10182,"▁\"por":10183,"▁amplia":10184,"▁trailer":10185,"dian":10186,"▁veter":10187,"▁docentes":10188,"▁empana":10189,"fs":10190,"mes.":10191,"▁dormir,":10192,"ábamos":10193,"▁invitar":10194,"▁circo":10195,"▁roma":10196,"▁madri":10197,"▁limpia":10198,"▁sangu":10199,"▁horas,":10200,"▁sacaron":10201,"f,":10202,"▁lora":10203,"▁capitán":10204,"▁woman":10205,"▁molt":10206,"▁nuevo,":10207,"bai":10208,"ched":10209,"zco":10210,"▁menudo":10211,"▁batal":10212,"▁homi":10213,"って":10214,"▁cuí":10215,"▁nunca,":10216,"insta":10217,"vó":10218,"reta":10219,"▁protestas":10220,"▁premier":10221,"ções":10222,"▁¿o":10223,"▁digo,":10224,"▁cuarta":10225,"graphy":10226,"▁australia":10227,"▁exci":10228,"py":10229,"▁capo":10230,"fle":10231,"▁compos":10232,"iosa":10233,"▁desaparecer":10234,"▁éxitos":10235,"▁country":10236,"tades":10237,"▁entorno":10238,"▁left":10239,"▁finalmente":10240,"▁únicos":10241,"▁enseñan":10242,"▁bancar":10243,"us,":10244,"▁imaginas":10245,"▁rompió":10246,"▁delant":10247,"máticas":10248,"▁frontera":10249,"je.":10250,"▁tuy":10251,"▁contexto":10252,"▁macho":10253,"▁expecta":10254,"))":10255,"ın":10256,"▁añ":10257,"▁cuchillo":10258,"▁parlante":10259,"▁necesidades":10260,"▁reales":10261,"▁fernet":10262,"▁prácticas":10263,"▁jurí":10264,"▁semejante":10265,"▁mame":10266,"▁captura":10267,"▁adecu":10268,"▁ask":10269,"▁malditos":10270,"giendo":10271,"▁\"y":10272,"▁reser":10273,"▁gargan":10274,"▁teoría":10275,"▁intendente":10276,"itos,":10277,"▁favorite":10278,"▁ysi":10279,"peda":10280,"▁aburrido":10281,"▁barrios":10282,"▁roban":10283,"▁sleep":10284,"pin":10285,"▁hermosos":10286,"▁llave":10287,"▁obrador":10288,"▁cuarentena,":10289,"▁tengamos":10290,"imp":10291,"▁version":10292,"▁ratas":10293,"▁cosa.":10294,"cris":10295,"▁imagine":10296,"▁recien":10297,"▁gp":10298,"▁estudiante":10299,"▁de...":10300,"lite":10301,"▁dance":10302,"tanos":10303,"▁sienta":10304,"▁gigante":10305,"▁subió":10306,"▁comunicar":10307,"▁🎙":10308,"▁sigui":10309,"▁chavista":10310,"▁unir":10311,"▁clan":10312,"▁equipa":10313,"▁such":10314,"▁cosa,":10315,"▁muuu":10316,"muy":10317,"▁caos":10318,"▁soltar":10319,"▁b.":10320,"▁fly":10321,"▁tiktok":10322,"▁lmao":10323,"▁dels":10324,"▁berenjena":10325,"▁indis":10326,"▁volunt":10327,"▁vocês":10328,"▁categoría":10329,"▁reporte":10330,"▁vela":10331,"rón":10332,"▁metal":10333,"▁eduardo":10334,"▁ive":10335,"▁save":10336,"▁police":10337,"▁consumi":10338,"▁having":10339,"▁1-0":10340,"▁ideología":10341,"▁enoja":10342,"▁meten":10343,"▁troll":10344,"▁cés":10345,"▁🗣":10346,"...!!!":10347,"taro":10348,"jón":10349,"▁eles":10350,"més":10351,"▁venía":10352,"gias":10353,"▁caza":10354,"▁assis":10355,"▁coma":10356,"ándote":10357,"▁tuvimos":10358,"▁colombianos":10359,"▁niñ":10360,"í,":10361,"▁colombiano":10362,"▁veas":10363,"▁pierdo":10364,"▁águila":10365,"▁bancos":10366,"▁toler":10367,"▁kilos":10368,"▁gilipollas":10369,"▁maneja":10370,"▁prometo":10371,"▁senado":10372,"▁tia":10373,"osos":10374,"▁cagan":10375,"t:":10376,"▁hernández":10377,"▁complicado":10378,"▁revisar":10379,"▁aplau":10380,"▁lado.":10381,"▁maestra":10382,"andez":10383,"▁cancion":10384,"▁i've":10385,"▁anything":10386,"▁pendientes":10387,"▁bah":10388,"▁querían":10389,"▁descubre":10390,"▁coisas":10391,"▁sencillo":10392,"▁¿me":10393,"iores":10394,"▁y...":10395,"▁(si":10396,"▁levanta":10397,"▁sanchez":10398,"▁kkkk":10399,"▁detenido":10400,"▁nene":10401,"▁faci":10402,"▁record":10403,"iu":10404,"▁shar":10405,"▁vigil":10406,"nos,":10407,"▁trendy":10408,"erzo":10409,"▁tomen":10410,"▁sentirse":10411,"tation":10412,"▁carretera":10413,"▁prefier":10414,"brado":10415,"iori":10416,"▁dueños":10417,"▁¡te":10418,"▁otro.":10419,"ológico":10420,"▁¿alguien":10421,"ction":10422,"isima":10423,"quil":10424,"▁cobarde":10425,"▁govern":10426,"▁cobran":10427,"▁50%":10428,"▁tortura":10429,"▁impar":10430,"▁xiao":10431,"▁seguiremos":10432,"▁joaquin":10433,"▁noctur":10434,"▁bonitas":10435,"ward":10436,"▁neoliber":10437,"pt":10438,"▁porte":10439,"▁reducir":10440,"▁ratito":10441,"▁grado":10442,"ya,":10443,"entando":10444,"▁move":10445,"▁perdida":10446,"der,":10447,"▁olviden":10448,"▁mmmm":10449,"love":10450,"▁cagando":10451,"jeje":10452,"▁combatir":10453,"▁nada...":10454,"▁until":10455,"▁suyo":10456,"▁facu":10457,"cámara":10458,"▁amig":10459,"ibil":10460,"▁99":10461,"▁liv":10462,"▁espan":10463,"▁defensor":10464,"▁hierba":10465,"▁precisamente":10466,"ímp":10467,"▁gata":10468,"▁empo":10469,"▁descansar":10470,"vió":10471,"/4":10472,"logos":10473,"▁repente":10474,"jas,":10475,"▁pastor":10476,"▁explos":10477,"▁sd":10478,"▁¿dónde":10479,"▁whats":10480,"▁principios":10481,"39":10482,"ño.":10483,"▁labora":10484,"▁armar":10485,"tencias":10486,"▁gonzalo":10487,"▁involu":10488,"damente":10489,"▁reda":10490,"▁encontrado":10491,"▁ramo":10492,"arios,":10493,"zca":10494,"▁oigan":10495,"▁academia":10496,"uv":10497,"▁inaugu":10498,"▁comand":10499,"▁institución":10500,"▁técnica":10501,"▁acoso":10502,"▁uno.":10503,"▁experiencias":10504,"36":10505,"▁coron":10506,"▁chabon":10507,"▁though":10508,"▁wifi":10509,"▁laburo":10510,"vencia":10511,"▁equipo,":10512,"▁sucede":10513,"w.":10514,"diar":10515,"ros.":10516,"▁miser":10517,"▁escán":10518,"▁ça":10519,"▁cacas":10520,"hacia":10521,"▁declaración":10522,"▁rr":10523,"ます":10524,"▁reaccion":10525,"▁requis":10526,"▁llegará":10527,"▁rt.":10528,"▁independent":10529,"▁pañ":10530,"▁gustaba":10531,"▁socialista":10532,"▁diaria":10533,"▁habló":10534,"▁avanza":10535,"▁llevando":10536,"▁quiero,":10537,"▁republic":10538,"▁bot":10539,"▁duran":10540,"▁metido":10541,"▁sali":10542,"▁pasará":10543,"▁gobernar":10544,"▁likes":10545,"▁sl":10546,"▁discutir":10547,"iten":10548,"▁mentiroso":10549,"▁aprendiza":10550,"asi":10551,"▁lean":10552,"▁nuevo.":10553,"▁covid-19.":10554,"telo":10555,"gencias":10556,"hue":10557,"mbres":10558,"▁irán":10559,"▁hombre,":10560,"▁divertido":10561,"▁espn":10562,"vistas":10563,"▁títulos":10564,"▁tormenta":10565,"ienta":10566,"▁i'll":10567,"▁ocurrió":10568,"▁barco":10569,"as...":10570,"▁energ":10571,"▁disculpa":10572,"▁tonight":10573,"▁paco":10574,"▁audios":10575,"▁(con":10576,"▁puesta":10577,"▁mañan":10578,"▁horizon":10579,"aa.":10580,"▁victor":10581,"▁amigo.":10582,"▁pollito":10583,"▁volvemos":10584,"▁huelga":10585,"▁enor":10586,"▁iniciar":10587,"▁xx":10588,"▁agua,":10589,"▁aparecer":10590,"▁usur":10591,"7,":10592,"▁pt":10593,"?\".":10594,"▁dete":10595,"to...":10596,"▁detes":10597,"▁cuenta,":10598,"▁mimos":10599,"▁unders":10600,"▁razón.":10601,"▁especiales":10602,"▁whole":10603,"▁muerta":10604,"▁poco.":10605,"yente":10606,"▁enamora":10607,"▁pasado,":10608,"▁says":10609,"▁prevenir":10610,"▁pista":10611,"▁lara":10612,"▁campa":10613,"▁rostro":10614,"wl":10615,"▁ecua":10616,"úcar":10617,"▁algu":10618,"cha,":10619,"hola":10620,"▁quejan":10621,"▁vdd":10622,"▁inglater":10623,"▁uno,":10624,"▁distintos":10625,"▁mone":10626,"cilia":10627,"▁antigu":10628,"▁क":10629,"as..":10630,"▁incons":10631,"▁sincer":10632,"riam":10633,"chito":10634,"▁rega":10635,"▁anyone":10636,"▁dismin":10637,"▁pierden":10638,".\".":10639,"▁ingenier":10640,"turo":10641,"▁book":10642,"▁intenta":10643,"▁tomado":10644,"▁discusión":10645,"▁pague":10646,"blan":10647,"▁estudia":10648,"▁auxil":10649,"▁logró":10650,"▁earth":10651,"▁mano,":10652,"ologia":10653,"▁persi":10654,"▁diosss":10655,"55":10656,"▁pino":10657,"▁sant":10658,"▁case":10659,"▁avenida":10660,"▁marcos":10661,"arios.":10662,"▁colonia":10663,"▁\"hay":10664,"▁gallina":10665,"▁y/o":10666,"▁serio,":10667,"izó":10668,"▁honduras":10669,"78":10670,"▁vuelvan":10671,"▁clausu":10672,"▁avanzar":10673,"ándolo":10674,"▁&gt;&gt;":10675,"▁também":10676,"▁circuns":10677,"▁ful":10678,"▁asp":10679,"▁institucional":10680,"▁ice":10681,"▁pereza":10682,"▁paquete":10683,"▁triunf":10684,"riz":10685,"▁denuncias":10686,"▁monstru":10687,"▁destina":10688,"▁parecía":10689,"▁obtener":10690,"▁mau":10691,"▁escribo":10692,"▁jajajajajajajaja":10693,"▁alcaldía":10694,"▁fallecidos":10695,"▁preciso":10696,"▁mendoza":10697,"▁enough":10698,"▁mas.":10699,"▁jefa":10700,"▁porquer":10701,"chado":10702,"▁terroristas":10703,"▁nick":10704,"▁rodrigo":10705,"▁jugamos":10706,"▁ea":10707,"▁universal":10708,"ter,":10709,"▁organizado":10710,"▁podamos":10711,"▁creación":10712,"▁mandó":10713,"▁presidente.":10714,"▁representantes":10715,"kar":10716,"ència":10717,"▁zar":10718,"-20":10719,"gadas":10720,"。.":10721,"siva":10722,"▁compañer":10723,"▁circu":10724,"jajs":10725,"▁jong":10726,"▁ach":10727,"▁vcs":10728,"▁rara":10729,"▁padr":10730,"▁cargos":10731,"▁caballo":10732,"pica":10733,"▁confia":10734,"▁jour":10735,"▁terminé":10736,"▁thought":10737,"▁realidad.":10738,"▁efectos":10739,"▁opinar":10740,"▁cicl":10741,"claro":10742,"//":10743,"▁día!":10744,"▁hello":10745,"▁quedando":10746,"▁xbox":10747,"▁fight":10748,"▁filoso":10749,"▁rueda":10750,"▁braz":10751,"▁secundar":10752,"▁jajsjs":10753,"▁valora":10754,"▁municipios":10755,"la_":10756,"▁caigo":10757,"cro":10758,"▁plato":10759,"▁til":10760,"▁ater":10761,"▁moon":10762,"▁palos":10763,"▁ciudadana":10764,"▁rm":10765,"▁aumentar":10766,"▁pandemia,":10767,"▁colocar":10768,"▁ambiental":10769,"tan.":10770,"▁veni":10771,"▁extrañaba":10772,"▁sugar":10773,"▁otro,":10774,"▁huev":10775,"▁decirme":10776,"▁he's":10777,"▁discip":10778,"▁ponemos":10779,"▁wea":10780,"▁trend":10781,"▁tumb":10782,"▁hecho,":10783,"▁joe":10784,"▁peligros":10785,"▁casualidad":10786,"trans":10787,"▁kor":10788,"▁videocámara":10789,"cipa":10790,"▁wrong":10791,"diste":10792,"▁cober":10793,"▁(es":10794,"▁pedí":10795,"▁mí.":10796,"▁patro":10797,"▁artis":10798,"ust":10799,"▁vezes":10800,"▁discapacidad":10801,"te!":10802,"▁jackson":10803,"▁guerrero":10804,"▁encu":10805,"세븐":10806,"▁conviene":10807,"▁cause":10808,"▁pilas":10809,"ya.":10810,"▁chaval":10811,"▁brazo":10812,"▁enfermedades":10813,"▁misterio":10814,"▁fuga":10815,"menos":10816,"▁tarde.":10817,"800":10818,"mericana":10819,"cala":10820,"▁hoy?":10821,"▁piensas":10822,"mela":10823,"▁bien?":10824,"ony":10825,"▁presun":10826,"▁sano":10827,"wing":10828,"▁etern":10829,"▁mauricio":10830,"unes":10831,"▁pasé":10832,"▁regresa":10833,"▁sv":10834,"▁noel":10835,"▁barran":10836,"▁baekhyun":10837,"▁gras":10838,"▁afición":10839,"▁grande,":10840,"▁sufre":10841,"▁expor":10842,"▁delincuente":10843,"▁piola":10844,"▁righ":10845,"▁policial":10846,"▁bring":10847,"▁californ":10848,"▁argentina,":10849,"▁realizó":10850,"▁propor":10851,"▁suprema":10852,"▁stray":10853,"▁terapia":10854,"▁encantaría":10855,"▁ambul":10856,"▁aha":10857,"nite":10858,"▁promoción":10859,"▁llamas":10860,"▁cambian":10861,"▁creciendo":10862,"▁medias":10863,"▁fantás":10864,"▁todos!":10865,"jon":10866,"army":10867,"▁loco,":10868,"▁bono":10869,"▁reprodu":10870,"▁perdieron":10871,"▁niveles":10872,"▁snap":10873,"4,":10874,"▁enseña":10875,"▁estão":10876,"mén":10877,"ners":10878,"▁incu":10879,"▁manches":10880,"▁camar":10881,"▁descargar":10882,"ap":10883,"▁profunda":10884,"érate":10885,"▁tonta":10886,"▁deseos":10887,"▁inex":10888,"▁rollo":10889,"▁hell":10890,"▁canarias":10891,"▁descubrir":10892,"▁ws":10893,"▁deberia":10894,"▁cansan":10895,"▁colombia.":10896,"ume":10897,"▁impo":10898,"▁grin":10899,"%,":10900,"▁pena.":10901,"49":10902,"▁puñ":10903,"▁irá":10904,"▁ilustra":10905,"▁borre":10906,"new":10907,"deros":10908,"▁verdes":10909,"▁namjoon":10910,"▁#방탄소년단":10911,"▁sacado":10912,"▁llueve":10913,"ticias":10914,"▁chama":10915,"▁pudieron":10916,"ciado":10917,"▁travel":10918,"▁bocadillo":10919,"▁factura":10920,"▁carác":10921,"ísimos":10922,"▁talleres":10923,"▁apareció":10924,"▁eri":10925,"▁indígen":10926,"▁o.":10927,"▁milan":10928,"▁asunto":10929,"▁margar":10930,"▁christ":10931,"▁eff":10932,"▁acompañar":10933,"▁med":10934,"pe,":10935,"▁enfermos":10936,"▁colegios":10937,"rin":10938,"▁saying":10939,"amer":10940,"▁squ":10941,"▁que...":10942,"▁operativo":10943,"ring":10944,"▁food":10945,"▁radical":10946,"▁h.":10947,"▁arquite":10948,"▁eee":10949,"▁manu":10950,"▁harán":10951,"▁demostrado":10952,"▁preparar":10953,"▁vizcar":10954,"▁j.":10955,"▁doña":10956,"▁seleccion":10957,"▁condena":10958,"▁disculpas":10959,"▁vs.":10960,"▁mierdas":10961,"hal":10962,"▁aval":10963,"▁federa":10964,"▁tránsito":10965,"▁noo":10966,"▁infel":10967,"▁camisa":10968,"▁sigueme":10969,"▁caes":10970,"▁referencia":10971,"▁medicamentos":10972,"/12":10973,"▁dun":10974,"tan,":10975,"▁million":10976,"▁jornadas":10977,"quillo":10978,"itarias":10979,"▁sentía":10980,"▁bár":10981,"▁luck":10982,"▁fatal":10983,"▁recomp":10984,"▁merezco":10985,"uad":10986,"▁bei":10987,"▁directora":10988,"▁2-":10989,"ganme":10990,"▁jugado":10991,"▁defienden":10992,"▁ن":10993,"▁tucu":10994,"▁ridícu":10995,"▁tanto.":10996,"▁isabel":10997,"▁asado":10998,"▁sense":10999,"▁retra":11000,"▁reconoce":11001,"▁secuestra":11002,"lectual":11003,"ely":11004,"▁avec":11005,"▁marcelo":11006,"▁famosos":11007,"▁gota":11008,"▁tron":11009,"▁photos":11010,"▁meteor":11011,"▁baje":11012,"▁comunismo":11013,"▁antes,":11014,"▁queee":11015,"▁secu":11016,"▁mentiros":11017,"▁es?":11018,"▁sla":11019,"▁elab":11020,"▁anunció":11021,"▁realizado":11022,"▁novedades":11023,"▁paisa":11024,"▁bayern":11025,"▁aporte":11026,"▁main":11027,"▁lesbi":11028,"▁watching":11029,"▁cara,":11030,"▁hura":11031,"▁serás":11032,"▁actuación":11033,"idi":11034,"▁aba":11035,"▁tú.":11036,"▁personalidad":11037,"▁deberíamos":11038,"▁hiper":11039,"máfor":11040,"jame":11041,"▁flaca":11042,"▁así?":11043,"▁cursos":11044,"ti,":11045,"▁pintarse":11046,"vales":11047,"▁jud":11048,"▁dama":11049,"▁claves":11050,"▁\"w":11051,"▁mujeres,":11052,"▁debió":11053,"▁1er":11054,"▁important":11055,"▁trauma":11056,"▁juzgar":11057,"▁lógica":11058,"▁emociones":11059,"▁transi":11060,"estoy":11061,"▁tag":11062,"▁haciéndo":11063,"▁calle,":11064,"▁chich":11065,"▁ok,":11066,"bé":11067,"quiero":11068,"▁digna":11069,"▁comité":11070,"▁gn":11071,"▁caribe":11072,"▁atta":11073,"▁domingo,":11074,"▁más...":11075,"▁figh":11076,"▁indo":11077,"▁sebasti":11078,"▁nacer":11079,"▁tragedia":11080,"▁bode":11081,"▁pai":11082,"oo.":11083,"▁ciudad.":11084,"▁montaña":11085,"▁organizar":11086,"▁acar":11087,"raron":11088,"▁share":11089,"▁apellido":11090,"▁opiniones":11091,"got":11092,"▁bunny":11093,"▁parejas":11094,"▁cb":11095,"▁contesta":11096,"ism":11097,"▁fuentes":11098,"▁contigo,":11099,"▁ctm":11100,"!...":11101,"▁distintas":11102,"▁ortega":11103,"ão.":11104,"▁rapido":11105,"▁verlos":11106,"▁gustas":11107,"▁oficiales":11108,"▁brown":11109,"▁bn":11110,"▁atar":11111,"▁bende":11112,"▁lana":11113,"▁semáfor":11114,"▁custo":11115,"▁different":11116,"▁piba":11117,"▁tene":11118,"▁tapar":11119,"▁decis":11120,"▁maric":11121,"ttle":11122,"▁procura":11123,"▁apuesta":11124,"▁acel":11125,"▁ataques":11126,"▁cance":11127,"▁potter":11128,"▁murcia":11129,"▁venti":11130,"▁me,":11131,"ve,":11132,"pe.":11133,"▁fotografía":11134,"▁convertido":11135,"▁2018.":11136,"▁pasta":11137,"▁cumpliendo":11138,"▁camina":11139,"▁llevaba":11140,"▁grabar":11141,"▁distrito":11142,"▁afortun":11143,"▁impuesto":11144,"mill":11145,"▁apete":11146,"▁clip":11147,"▁neuro":11148,"▁green":11149,"▁estúpido":11150,"▁autén":11151,"▁politi":11152,"gas.":11153,"▁alo":11154,"▁parada":11155,"▁mueren":11156,"▁manija":11157,"▁jiji":11158,"▁raúl":11159,"▁meto":11160,"▁cabeza,":11161,"▁más!":11162,"▁linea":11163,"▁embargo,":11164,"unque":11165,"▁remix":11166,"▁enjoy":11167,"éndome":11168,"▁donar":11169,"▁ventas":11170,"▁cabeza.":11171,"▁inclui":11172,"▁revel":11173,"▁vibra":11174,"dem":11175,"▁venido":11176,"▁hayas":11177,"▁eng":11178,"▁ya!":11179,"tivos.":11180,"▁criterio":11181,"▁cres":11182,"▁).":11183,"▁infer":11184,"▁►":11185,"▁vergonzos":11186,"tat":11187,"▁siguiendo":11188,"▁\"ha":11189,"▁transpor":11190,"▁joaquín":11191,"▁table":11192,"▁héroes":11193,"▁interca":11194,"▁negros":11195,"_hacia":11196,"▁terminado":11197,"▁comandante":11198,"▁seen":11199,"▁vimos":11200,"▁combus":11201,"▁gráfico":11202,"▁petró":11203,"▁romero":11204,"▁gold":11205,"▁public":11206,"▁adivinen":11207,"▁guiller":11208,"▁dirigentes":11209,"fiel":11210,"▁infraestru":11211,"▁sacas":11212,"será":11213,"tivos,":11214,"ada,":11215,"▁miseria":11216,"cos.":11217,"▁frecu":11218,"▁exi":11219,"▁ov":11220,"▁pcas":11221,"▁ubica":11222,"no,":11223,"onomía":11224,"mante":11225,"▁ayuso":11226,"▁normalidad":11227,"▁mareada":11228,"▁débil":11229,"▁málaga":11230,"▁chilenos":11231,"▁dibujo":11232,"85":11233,"▁poke":11234,"▁humilde":11235,"▁intensa":11236,"▁eléctrico":11237,"aría":11238,"...pero":11239,"▁ternura":11240,"▁chupar":11241,"▁decirlo":11242,"▁villar":11243,"▁geo":11244,"▁frí":11245,"▁farc":11246,"▁forget":11247,"▁fin.":11248,"tono":11249,"▁creyendo":11250,"▁regga":11251,"▁copia":11252,"▁almu":11253,"antes,":11254,"...que":11255,"tivar":11256,"▁update":11257,"▁\"ten":11258,"▁800":11259,"▁understan":11260,"jf":11261,"yor":11262,"▁certif":11263,"▁universitario":11264,"▁diciéndo":11265,"▁crece":11266,"▁fur":11267,"▁contras":11268,"▁cuadros":11269,"▁restric":11270,"▁rain":11271,"vistar":11272,"▁tocando":11273,"pho":11274,"▁detener":11275,"enio":11276,"▁manual":11277,"▁ustedes,":11278,"▁lanzamiento":11279,"▁poder.":11280,"▁psi":11281,"ge.":11282,";.":11283,"bios":11284,"▁!!.":11285,"▁brindar":11286,"▁tinha":11287,"▁gustos":11288,"▁manipula":11289,"▁tacos":11290,"chin":11291,"▁jogo":11292,"▁venezolana":11293,"▁pájar":11294,"▁toco":11295,"▁iran":11296,"▁\"so":11297,"▁literally":11298,"▁precau":11299,"▁conquista":11300,"▁trin":11301,"▁ocasión":11302,"▁galicia":11303,"▁exige":11304,"▁rou":11305,"▁word":11306,"▁disponibles":11307,"▁yet":11308,"▁beco":11309,"▁publico":11310,"▁viña":11311,"▁engañar":11312,"▁ética":11313,"cano":11314,"▁oficialmente":11315,"▁revisa":11316,"▁cuadro":11317,"duro":11318,"▁we're":11319,"▁oje":11320,"▁provincial":11321,"tez":11322,"▁bff":11323,"▁nico":11324,"▁exclusiva":11325,"dense":11326,"▁interrogación":11327,"▁colap":11328,"dentes":11329,"▁escuché":11330,"to..":11331,"▁azúcar":11332,"▁anillo":11333,"▁¡s":11334,"▁necesitar":11335,"polit":11336,"▁már":11337,"▁aguanta":11338,"▁caralho":11339,"chera":11340,"rieron":11341,"dería":11342,"ffee":11343,"▁diná":11344,"rome":11345,"▁reen":11346,"pita":11347,"▁dragon":11348,"▁amis":11349,"lico":11350,"▁aku":11351,"uniden":11352,"▁justifica":11353,"liz":11354,"▁ciertas":11355,"▁castel":11356,"▁entrenamiento":11357,"▁relevan":11358,"▁novios":11359,"▁portero":11360,"cales":11361,"▁homos":11362,"▁estuvieron":11363,"▁xd.":11364,"▁bajón":11365,"▁olímp":11366,"▁numero":11367,"▁peor.":11368,"guita":11369,"-)":11370,"▁certe":11371,"es..":11372,"▁osorio":11373,"cimientos":11374,"▁vital":11375,"▁queroirnos":11376,"howak":11377,"▁queroirnoshowak":11378,"▁almo":11379,"▁queroirnoshowakina.":11380,"aludos":11381,"▁43":11382,"▁consol":11383,"▁exagera":11384,"▁saldrá":11385,"▁ganaron":11386,"▁bobo":11387,"▁myself":11388,"wards":11389,"▁utiliza":11390,"pid":11391,"▁tla":11392,"▁(la":11393,"▁insoportable":11394,"▁subsi":11395,"mócra":11396,"▁dans":11397,"?!?!":11398,"▁no!":11399,"▁represión":11400,"▁peor,":11401,"eren":11402,"▁kon":11403,"▁mãe":11404,"piro":11405,"▁av.":11406,"▁tamaño":11407,"ingü":11408,"▁aparecen":11409,"cam":11410,"▁bul":11411,"dur":11412,"▁dinero,":11413,"▁37":11414,"▁desigual":11415,"▁guz":11416,"▁estimado":11417,"▁conexión":11418,"▁invitación":11419,"▁demás,":11420,"▁diputada":11421,"▁comí":11422,"▁escudo":11423,"ghts":11424,"man,":11425,"▁shock":11426,"moto":11427,"▁fué":11428,"▁ín":11429,"icen":11430,"dig":11431,"▁cálla":11432,"b,":11433,"tta":11434,"▁dormir.":11435,"▁sonreír":11436,"▁r.":11437,"▁india":11438,"▁difusión":11439,"▁bolsillo":11440,"▁diré":11441,"▁each":11442,"▁agentes":11443,"▁caba":11444,"▁cable":11445,"▁consen":11446,"▁analizar":11447,"▁intelectual":11448,"▁prom":11449,"▁amarilla":11450,"▁integral":11451,"girl":11452,"▁perfe":11453,"▁parado":11454,"▁gabine":11455,"▁fall":11456,"gela":11457,"▁sostenible":11458,"▁rompiendo":11459,"▁transparencia":11460,"ebre":11461,"▁scor":11462,"ieran":11463,"oney":11464,"ject":11465,"▁boda":11466,"▁manifestación":11467,"▁llegas":11468,"▁terrorismo":11469,"▁protocol":11470,"▁ahorrar":11471,"▁ejemplo,":11472,"▁2013":11473,"▁complejo":11474,"▁propone":11475,"▁65":11476,"_la_":11477,"▁(el":11478,"▁leyenda":11479,"▁pérdida":11480,"▁ciru":11481,"▁unidades":11482,"▁mujer.":11483,"▁innovación":11484,"▁onde":11485,"▁treasure":11486,"▁automática":11487,"▁plantas":11488,"▁cambie":11489,"▁burla":11490,"▁espectáculo":11491,"▁diferencias":11492,"▁presentó":11493,"zu":11494,"cion.":11495,"▁falsos":11496,"▁extin":11497,"▁fana":11498,"▁desarrollar":11499,"▁inva":11500,"▁✔":11501,"ites":11502,"▁andaba":11503,"▁aula":11504,"43":11505,"cd":11506,"antes.":11507,"ras.":11508,"▁decision":11509,"▁ingresos":11510,"▁admiro":11511,"▁xiaomi":11512,"▁ciber":11513,"▁lanzar":11514,"▁vecin":11515,"▁facha":11516,"▁real.":11517,"▁ت":11518,"▁golea":11519,"▁gastr":11520,"s:":11521,"▁plante":11522,"▁rápida":11523,"▁manzana":11524,"▁lenguaje":11525,"▁givea":11526,"▁paris":11527,"▁perpe":11528,"gí":11529,"▁paulo":11530,"▁moviliza":11531,"bada":11532,"▁regalos":11533,"▁próximas":11534,"▁política,":11535,"▁rell":11536,"▁diste":11537,"▁buy":11538,"▁cambiemos":11539,"▁¡buenos":11540,"▁gigan":11541,"▁recordamos":11542,"▁guaido":11543,"!,":11544,"▁priori":11545,"▁enamor":11546,"▁vivido":11547,"▁herramientas":11548,"▁aislamiento":11549,"▁comprarme":11550,"▁celebramos":11551,"icas,":11552,"▁mk":11553,"▁hipocres":11554,"▁sobran":11555,"▁cr.":11556,"▁inocente":11557,"▁respal":11558,"▁rutina":11559,"▁law":11560,"▁arres":11561,"▁key":11562,"▁transformación":11563,"enme":11564,"▁coraje":11565,"▁colla":11566,"▁shi":11567,"▁criminales":11568,"uli":11569,"▁herrera":11570,"▁sensible":11571,"gros":11572,"▁working":11573,"▁stories":11574,"▁concur":11575,"ada.":11576,"ferencia":11577,"▁fidel":11578,"▁quinta":11579,"tex":11580,"▁actualidad":11581,"▁01":11582,"▁¿est":11583,"▁gusta,":11584,"liga":11585,"▁fútbol.":11586,"▁dulces":11587,"▁fiz":11588,"▁¡vamos":11589,"▁llevado":11590,"▁seok":11591,"▁santander":11592,"▁quan":11593,"▁als":11594,"iner":11595,"re,":11596,"▁podrías":11597,"sy":11598,"▁otros.":11599,"▁ilusion":11600,"▁eat":11601,"▁pierdan":11602,"▁tasa":11603,"▁confirmado":11604,"arez":11605,"▁tomó":11606,"▁calderón":11607,"▁política.":11608,"▁fritas":11609,"▁acuerdo,":11610,"▁imbecil":11611,"▁gobierna":11612,"▁campes":11613,"▁apoyan":11614,"▁defens":11615,"▁nut":11616,"▁meses,":11617,"▁filosof":11618,"▁4,":11619,"▁vehículos":11620,"6,":11621,"nis":11622,"vana":11623,"▁lost":11624,"jas.":11625,"rena":11626,"▁mediocre":11627,"▁iss":11628,"した":11629,"▁kk":11630,"▁boletos":11631,"▁muera":11632,"▁cria":11633,"▁incluye":11634,"▁salta":11635,"doni":11636,"▁incapa":11637,"▁10%":11638,"▁amistades":11639,"▁quite":11640,"▁refiero":11641,"zon":11642,"▁consci":11643,"▁entendido":11644,"▁point":11645,"▁1)":11646,"2016":11647,"▁exámenes":11648,"▁darles":11649,"▁national":11650,"vieron":11651,"▁máquina":11652,"▁ay,":11653,"▁conflicto":11654,"-se":11655,"▁pí":11656,"▁tratan":11657,"plan":11658,"▁iré":11659,"▁activos":11660,"▁match":11661,"▁justicia.":11662,"▁odiar":11663,"▁chara":11664,"▁cú":11665,"▁mid":11666,"▁maradona":11667,"▁parlamento":11668,"▁barde":11669,"▁///":11670,"▁yeah":11671,"▁vendiendo":11672,"▁simón":11673,"iosos":11674,"you":11675,"asu":11676,"▁sufriendo":11677,"▁hueco":11678,"▁perdón,":11679,"▁gring":11680,"▁(por":11681,"▁indirec":11682,"▁descuento":11683,"▁random":11684,"bly":11685,"▁insomn":11686,"▁jubilados":11687,"▁equiparacion":11688,"▁solar":11689,"▁ave":11690,"▁contento":11691,"▁mochi":11692,"▁\"co":11693,"▁tulip":11694,"jeras":11695,"▁receta":11696,"▁39":11697,"▁nubes":11698,"dom":11699,"▁cín":11700,"▁balance":11701,"▁hijueputa":11702,"▁tkm":11703,"▁mundial.":11704,"▁dominicana":11705,"▁señor,":11706,"▁¿como":11707,"▁veracruz":11708,"▁ariana":11709,"▁carcel":11710,"▁búsqueda":11711,"▁urgencia":11712,"▁anno":11713,"▁fama":11714,"▁robado":11715,"▁kara":11716,"▁formal":11717,"▁gues":11718,"hr":11719,"▁wn":11720,"▁sabías":11721,"años":11722,"clas":11723,"▁lasti":11724,"▁600":11725,"puestos":11726,"▁ninguém":11727,"▁¡la":11728,"el_":11729,"▁ecuator":11730,"▁used":11731,"▁international":11732,"▁reemp":11733,"▁explico":11734,"▁2)":11735,"▁cámar":11736,"▁didnt":11737,"▁equili":11738,"▁distinto":11739,"▁deseamos":11740,"▁ç":11741,"enciales":11742,"▁conmigo,":11743,"▁repeti":11744,"▁2010":11745,"▁posibles":11746,"▁magistra":11747,"▁tribuna":11748,"▁pensamientos":11749,"▁corn":11750,"▁merce":11751,"▁pás":11752,"▁bicho":11753,"▁trajo":11754,"▁xdd":11755,"▁coronavirus,":11756,"▁himno":11757,"▁roy":11758,"▁déj":11759,"eer":11760,"▁mogol":11761,"▁woo":11762,"▁roll":11763,"▁literatura":11764,"▁representante":11765,"_de_mano":11766,"▁pensiones":11767,"▁miedo,":11768,"▁zid":11769,"▁hyun":11770,"▁concentración":11771,"▁aé":11772,"▁electri":11773,"▁real,":11774,"tención":11775,"▁comprando":11776,"▁empezaron":11777,"▁erra":11778,"▁explique":11779,"▁vacío":11780,"▁ministros":11781,"cencia":11782,"▁guti":11783,"▁presi":11784,"▁vale,":11785,"▁spoiler":11786,"▁tulipán":11787,"▁latest":11788,"mit":11789,"▁hua":11790,"▁patio":11791,"▁traigo":11792,"▁compartiendo":11793,".30":11794,"gones":11795,"aal":11796,"xe":11797,"▁아":11798,"▁de:":11799,"▁golden":11800,"/as":11801,"▁dispu":11802,"▁teníamos":11803,"▁acuerdo.":11804,"habilita":11805,"▁inneces":11806,"▁callate":11807,"▁0,":11808,"▁nou":11809,"▁pán":11810,"selo":11811,"▁pymes":11812,"▁miriam":11813,"▁enfermer":11814,"▁invis":11815,"▁chiquito":11816,"dula":11817,"▁estadouniden":11818,"▁:(((":11819,"▁prácticamente":11820,"ees":11821,"titud":11822,"▁actualmente":11823,"▁vontade":11824,"▁presta":11825,"▁solucionar":11826,"▁cobertura":11827,"night":11828,"▁sección":11829,"▁sonora":11830,"▁agr":11831,"▁documento":11832,"▁sev":11833,"▁diana":11834,"▁chia":11835,"▁falto":11836,"▁meses.":11837,"▁renova":11838,"etas":11839,"▁duel":11840,"▁sanciones":11841,"▁lateral":11842,"ta..":11843,"▁canto":11844,"▁fría":11845,"▁reciben":11846,"▁narra":11847,"▁cifra":11848,"▁bases":11849,"▁saba":11850,"▁\"su":11851,"abas":11852,"▁ahh":11853,"▁canales":11854,"▁escuchas":11855,"▁francés":11856,"▁fac":11857,"▁eyes":11858,"▁perjud":11859,"goo":11860,"▁curioso":11861,"▁aumenta":11862,"▁divina":11863,"▁creemos":11864,"▁ferro":11865,"▁valorar":11866,"▁distribu":11867,"▁ayude":11868,"▁olvidó":11869,"▁mola":11870,"▁atropel":11871,"íso":11872,"izados":11873,"▁latinoamérica":11874,"cipe":11875,"▁tomate":11876,"_la_derecha":11877,"▁colombia,":11878,"▁hacien":11879,"▁va,":11880,"▁panza":11881,"▁¿no?":11882,"uty":11883,"▁matrimonio":11884,"▁mujeres.":11885,"▁canc":11886,"▁falsas":11887,"▁típico":11888,"▁persegui":11889,"ging":11890,"▁ño":11891,"▁morr":11892,"▁soporto":11893,"▁estúpi":11894,"bete":11895,"▁found":11896,"▁calle.":11897,"▁twitch":11898,"vido":11899,"▁empate":11900,"▁inspi":11901,"▁jaime":11902,"▁hamburguesa":11903,"▁entran":11904,"▁desarrolla":11905,"▁¡felici":11906,"dl":11907,"▁niños,":11908,"▁ejecutivo":11909,"▁karma":11910,"▁abe":11911,"viar":11912,"▁pelic":11913,"▁ídolo":11914,"▁aci":11915,"▁mili":11916,"▁pasado.":11917,"▁minor":11918,"▁bosque":11919,"95":11920,"▁confirmar":11921,"çar":11922,"▁miembro":11923,"ès":11924,"onia":11925,"tit":11926,"grafia":11927,"▁favoritos":11928,"▁\"ex":11929,"▁cruzar":11930,"▁metan":11931,"▁creía":11932,"▁visitas":11933,"▁gómez":11934,"▁vous":11935,"▁finally":11936,"▁vicente":11937,"▁llame":11938,"meno":11939,"▁breaking":11940,"▁seguí":11941,"▁kpop":11942,"▁invitados":11943,"▁tareas":11944,"▁empatía":11945,"▁de.":11946,"▁falando":11947,"ta...":11948,"▁chale":11949,"▁saludar":11950,"▁objetivos":11951,"▁covid19.":11952,"▁tenías":11953,"tizar":11954,"▁som":11955,"▁opinion":11956,"▁falleció":11957,"▁reivin":11958,"▁span":11959,"▁barato":11960,"▁chistes":11961,"▁¡se":11962,"▁egoís":11963,"sima":11964,"ende":11965,"ize":11966,"▁pesca":11967,"cié":11968,"▁volar":11969,"▁háb":11970,"▁liberal":11971,"▁skuad":11972,"el,":11973,"▁dorso_de_mano":11974,"tion,":11975,"▁déjame":11976,"_con_índice":11977,"▁dorso_de_mano_con_índice":11978,"man.":11979,"▁cis":11980,"▁muchachos":11981,"▁sencilla":11982,"▁adorno":11983,"▁tqm":11984,"▁novel":11985,"ge,":11986,"ves,":11987,"▁democrática":11988,"▁sierra":11989,"▁envidio":11990,"▁foot":11991,"▁aline":11992,"▁ataca":11993,"▁lac":11994,"▁miedo.":11995,"▁faltaba":11996,"▁subnor":11997,"▁¿el":11998,"▁gastos":11999,"▁revela":12000,"▁crónica":12001,"▁iván":12002,"▁suscri":12003,"▁impu":12004,"▁speak":12005,"▁pd:":12006,"▁elo":12007,"ents":12008,"▁especí":12009,"▁cristal":12010,"▁pales":12011,"▁atentos":12012,"gió":12013,"▁you!":12014,"▁celebración":12015,"▁causas":12016,"▁influencer":12017,"▁arau":12018,"▁rif":12019,"▁caído":12020,"37":12021,"▁reach":12022,"ently":12023,"▁entendi":12024,"▁voca":12025,"▁fija":12026,"▁didn't":12027,"▁td":12028,"▁voten":12029,"▁\\":12030,"▁perfect":12031,"▁low":12032,"▁2012":12033,"▁ks":12034,"▁invertir":12035,"jes,":12036,"venez":12037,"▁tonter":12038,"▁ako":12039,"▁propaganda":12040,"▁votando":12041,"▁zoom":12042,"▁lisa":12043,"▁iii":12044,"▁cache":12045,"▁cry":12046,"▁corpora":12047,"▁domina":12048,"▁directiva":12049,"▁worl":12050,"▁biblioteca":12051,"guera":12052,"tena":12053,"▁traidor":12054,"▁chinos":12055,"▁protocolo":12056,"▁identifica":12057,"▁jean":12058,"▁intensidad":12059,"▁carácter":12060,"daba":12061,"▁namo":12062,"▁mira,":12063,"▁anni":12064,"▁peñar":12065,"▁casado":12066,"▁film":12067,"entre":12068,"▁secretaría":12069,"▁asumir":12070,"▁mtvlaic":12071,"▁memb":12072,"olla":12073,"▁mató":12074,"▁carolina":12075,"▁ک":12076,"elas":12077,"▁racismo":12078,"▁ascenso":12079,"▁repi":12080,"▁queridos":12081,"▁120":12082,"▁idiotas":12083,"▁hí":12084,"▁ital":12085,"▁música,":12086,"▁liderazgo":12087,"▁hablaba":12088,"▁さ":12089,"▁sueldos":12090,"▁brother":12091,"▁habra":12092,"mentales":12093,"▁trabajamos":12094,"▁incomo":12095,"▁pegue":12096,"▁terreno":12097,"pefa":12098,"guna":12099,"▁lenta":12100,"tween":12101,"▁zapatos":12102,"88":12103,"▁tac":12104,"▁trasla":12105,"▁minas":12106,"▁u.u":12107,"▁mezcla":12108,"▁mona":12109,"mular":12110,"▁late":12111,"▁pande":12112,"▁pain":12113,"wi":12114,"▁maga":12115,"▁productores":12116,"▁pat":12117,"▁hueva":12118,"▁reempla":12119,"▁jugo":12120,"▁beyon":12121,"ficar":12122,"onga":12123,"▁zaragoza":12124,"▁importan":12125,"▁define":12126,"▁cachor":12127,"▁puras":12128,"▁síntomas":12129,"▁asist":12130,"-o":12131,"▁firmar":12132,"▁límite":12133,"▁envía":12134,"▁juliantina":12135,"▁es...":12136,"▁bandera_":12137,"▁zombi":12138,"▁olha":12139,"▁talking":12140,"▁combate":12141,"▁ibas":12142,"▁duela":12143,"▁suele":12144,"▁mtvlainsta":12145,"▁simples":12146,"▁comprado":12147,"▁descansa":12148,"▁justamente":12149,"▁tramp":12150,"▁potencia":12151,"fthe":12152,"▁presentamos":12153,"mbio":12154,"▁borde":12155,"▁sospechos":12156,"▁diabetes":12157,"▁descara":12158,"ee,":12159,"▁chile.":12160,"▁contratos":12161,"▁hai":12162,"gos.":12163,"▁champion":12164,"▁organizaciones":12165,"▁entonces,":12166,"rd":12167,"▁oto":12168,"icas.":12169,"▁responsabil":12170,"▁potencial":12171,"▁cartas":12172,"▁gallar":12173,"▁tenerte":12174,"▁lupa":12175,"hop":12176,"▁wear":12177,"▁cambió":12178,"▁2019,":12179,"▁boludeces":12180,"▁south":12181,"▁arsen":12182,"▁estupefa":12183,"▁clasifica":12184,"▁conclusión":12185,"▁dc":12186,"▁chen":12187,"▁giveaway":12188,"▁ronda":12189,"▁unfollowers":12190,"▁sports":12191,"▁útil":12192,"▁retirar":12193,"▁vegan":12194,"▁inventar":12195,"▁hacían":12196,"'ve":12197,"▁tire":12198,"▁agricultura":12199,"▁aficion":12200,"▁engor":12201,"▁yatra":12202,"▁pareció":12203,"▁hostia":12204,"▁universidades":12205,"diz":12206,"▁fasti":12207,"▁oms":12208,"▁subido":12209,"▁suces":12210,"▁perez":12211,"▁tend":12212,"▁ship":12213,"▁#이":12214,"▁emprendimiento":12215,"▁deri":12216,"▁sul":12217,"▁florida":12218,"▁dejemos":12219,"▁whis":12220,"▁came":12221,"ctivo":12222,"...?":12223,"▁habitación":12224,"▁inglaterra":12225,"▁quitan":12226,"▁sobrevivir":12227,"▁escribió":12228,"▁diseña":12229,"▁profundo":12230,"▁lento":12231,"▁thinking":12232,"▁borracho":12233,"▁fif":12234,"os..":12235,"▁track":12236,"▁wars":12237,"male":12238,"eok":12239,"▁profesora":12240,"▁magní":12241,"argent":12242,"loga":12243,"sive":12244,"▁coc":12245,"▁street":12246,"▁agregar":12247,"▁chavismo":12248,"▁supuestamente":12249,"▁opina":12250,"▁amado":12251,"▁admira":12252,"▁bloquear":12253,"▁\"cuando":12254,"itud":12255,"▁sabéis":12256,"▁pierna":12257,"▁propias":12258,"▁cuna":12259,"tial":12260,"▁poli":12261,"▁supl":12262,"▁cancún":12263,"▁pretende":12264,"▁angusti":12265,"donde":12266,"▁desor":12267,"ientos":12268,"▁shawn":12269,"▁chido":12270,"▁podria":12271,"bui":12272,"▁sepas":12273,"▁alegre":12274,"▁peligroso":12275,"▁niger":12276,"▁juegue":12277,"▁hermano,":12278,"che.":12279,"▁plays":12280,"▁empiece":12281,"▁reclamar":12282,"▁cue":12283,"oya":12284,"▁¿la":12285,"▁it,":12286,"▁teas":12287,"▁paguen":12288,"pun":12289,"▁fet":12290,"▁tocan":12291,"▁¿para":12292,"óstico":12293,"j.":12294,"▁short":12295,"▁asistir":12296,"▁guillermo":12297,"▁diverti":12298,"hoo":12299,"▁joya":12300,"▁living":12301,"▁usurpa":12302,"ladoli":12303,"▁líneas":12304,"▁between":12305,"▁temporal":12306,"▁\"to":12307,"set":12308,"▁rug":12309,"▁evita":12310,"▁alquiler":12311,"gina":12312,"cion,":12313,"▁então":12314,"▁encier":12315,"▁conductor":12316,"▁correa":12317,"▁telef":12318,"▁monar":12319,"▁nostal":12320,"▁otgala":12321,"▁culti":12322,"▁cartag":12323,"ves.":12324,"kis":12325,"▁feb":12326,"▁karol":12327,"▁diosa":12328,"▁ht":12329,"▁sea.":12330,"▁lugar.":12331,"▁religión":12332,"▁recicla":12333,"▁elegido":12334,"▁pasear":12335,"▁job":12336,"mericano":12337,"▁rayo":12338,"▁hours":12339,"iada":12340,"▁fútbol,":12341,"▁terrorista":12342,"▁mae":12343,"▁mataron":12344,"▁repri":12345,"▁entrando":12346,"fort":12347,"▁respirar":12348,"▁inscrip":12349,"▁tox":12350,"▁tips":12351,"▁juli":12352,"▁🏟":12353,"▁desse":12354,"▁llan":12355,"▁actores":12356,"▁ucl":12357,"▁aclara":12358,"_de_pi":12359,"▁guap":12360,"▁tabla":12361,"▁gun":12362,"▁quiénes":12363,"▁tala":12364,"▁uf":12365,"▁comparar":12366,"▁bach":12367,"▁marta":12368,"▁pareci":12369,"_de_piel_":12370,"▁\"le":12371,"horario":12372,"▁abuelos":12373,"asco":12374,"▁medio.":12375,"▁dia,":12376,"▁2020,":12377,"▁tn":12378,"dos..":12379,"▁fallo":12380,"gie":12381,"▁197":12382,"▁londres":12383,"▁\"ya":12384,"▁abas":12385,"ín,":12386,"▁cuántas":12387,"tono_de_piel_":12388,"▁decidido":12389,"▁plantilla":12390,"▁recorrido":12391,"▁aprendiendo":12392,"▁rojos":12393,"▁bajos":12394,"▁11.":12395,"▁doesn't":12396,"hion":12397,"▁compromis":12398,"_tono_de_piel_":12399,"centa":12400,"no.":12401,"▁fortalecer":12402,"▁dormida":12403,"▁performan":12404,"res.":12405,"verdad":12406,"▁luv":12407,"▁ronaldo":12408,"▁cara.":12409,"▁puta.":12410,"▁politica":12411,"▁intimi":12412,"▁cose":12413,"▁→":12414,"▁entró":12415,"▁logrado":12416,"▁arrepiento":12417,"uar":12418,"▁el,":12419,"▁afron":12420,"▁afectados":12421,"▁coña":12422,"▁passar":12423,"▁marx":12424,"▁suc":12425,"▁predic":12426,"▁gritos":12427,"▁하":12428,"▁ramón":12429,"▁csm":12430,"▁fí":12431,"▁especie":12432,"▁informó":12433,"▁soberan":12434,"▁abandono":12435,"ets":12436,"usion":12437,"ona,":12438,"▁antes.":12439,"▁cenar":12440,"▁kilo":12441,"▁stran":12442,"▁luz,":12443,"▁reglas":12444,"ot":12445,"▁quiero.":12446,"▁talent":12447,"precia":12448,"▁mention":12449,"▁pokemon":12450,"▁alli":12451,"▁darnos":12452,"▁valenci":12453,"▁evidente":12454,"▁08":12455,"▁cade":12456,"▁condición":12457,"▁oct":12458,"▁carreras":12459,"▁sopa":12460,"▁destrucción":12461,"▁emprendedores":12462,"▁2-0":12463,"▁poder,":12464,"▁escribí":12465,"▁normas":12466,"▁dinero.":12467,"mann":12468,"▁massa":12469,"▁jajas":12470,"▁announ":12471,"▁second":12472,"▁mán":12473,"▁descubri":12474,"▁marcas":12475,"▁futuro.":12476,"▁estupideces":12477,"▁listas":12478,"▁mail":12479,"▁climático":12480,"▁chir":12481,"terios":12482,"▁veces.":12483,"▁bondoni":12484,"andra":12485,"▁nada..":12486,"▁escribi":12487,"...)":12488,"mira":12489,"inge":12490,"▁level":12491,"▁fia":12492,"▁melilla":12493,"▁c'est":12494,"▁vd":12495,"▁votantes":12496,"▁adn":12497,"9,":12498,"▁enemigos":12499,"▁modern":12500,"▁libertador":12501,"▁chile,":12502,"▁ato":12503,"▁individual":12504,"▁ais":12505,"▁-&gt;":12506,"rre":12507,"▁c/":12508,"bús":12509,"zas,":12510,"ês":12511,"▁estemos":12512,"▁millonarios":12513,"mido":12514,"▁levanté":12515,"▁traen":12516,"▁tontos":12517,"▁lad":12518,"▁indign":12519,"▁might":12520,"▁simpson":12521,"frien":12522,"▁serp":12523,"▁frank":12524,"info":12525,"▁irresponsable":12526,"▁atual":12527,"▁besitos":12528,"íe":12529,"linson":12530,"▁12.":12531,"gru":12532,"▁spider":12533,"▁recons":12534,"▁manden":12535,"▁señala":12536,"icol":12537,"▁activo":12538,"▁vida...":12539,"directo":12540,"▁hib":12541,"▁ciencias":12542,"▁benefi":12543,"▁\"una":12544,"▁tumba":12545,"▁vives":12546,"▁mandarina":12547,"▁cariños":12548,"▁citas":12549,"▁road":12550,"▁sorprender":12551,"▁dedicado":12552,"▁carabineros":12553,"rú":12554,"▁previs":12555,"▁infar":12556,"▁gimnasio":12557,"simo":12558,"▁abr":12559,"▁gaming":12560,"▁oídos":12561,"tent":12562,"▁robert":12563,"es...":12564,"▁weon":12565,"▁occi":12566,"▁scien":12567,"▁noite":12568,"▁suger":12569,"▁decime":12570,"▁palmera":12571,"▁alan":12572,"▁castigo":12573,"ety":12574,"▁barca":12575,"▁madrile":12576,"▁susten":12577,"▁alejar":12578,"▁árbitro":12579,"▁sebastián":12580,"▁polvo":12581,"▁abogados":12582,"▁duelo":12583,"▁europeo":12584,"▁divul":12585,"▁fortnite":12586,"▁biggest":12587,"▁cloud":12588,"ahora":12589,"▁sys":12590,"▁vege":12591,"▁mamá,":12592,"▁pick":12593,"▁descor":12594,"▁crossing":12595,"▁awww":12596,"▁'s":12597,"tazo":12598,"▁ooo":12599,"▁west":12600,"▁tropical":12601,"▁mp":12602,"redo":12603,"▁paragua":12604,"ation":12605,"▁chavez":12606,"▁bombilla":12607,"▁capítulos":12608,"▁bin":12609,"▁acepta":12610,"▁descubr":12611,"▁death":12612,"▁mallor":12613,"▁debu":12614,"▁estúpida":12615,"▁efe":12616,"▁hora,":12617,"▁sanitarios":12618,"grada":12619,"▁\"li":12620,"▁11:":12621,"▁cuadra":12622,"▁seguros":12623,"es!":12624,"▁japan":12625,"▁elementos":12626,"tones":12627,"▁aburrida":12628,"▁monterrey":12629,"▁maneras":12630,"▁cállate":12631,"▁train":12632,"▁perre":12633,"bo,":12634,"った":12635,"▁forro":12636,"▁few":12637,"▁llevaron":12638,"▁rural":12639,"▁side":12640,"▁queden":12641,"▁\"para":12642,"▁pierda":12643,"fobia":12644,"▁conseguido":12645,"▁embarazada":12646,"▁palma":12647,"▁biz":12648,"side":12649,"▁5,":12650,"▁lui":12651,"hit":12652,"▁tierno":12653,"▁(3":12654,"▁hospita":12655,"▁acordé":12656,"▁herramienta":12657,"▁moro":12658,"▁pasa,":12659,"▁bonitos":12660,"▁office":12661,"▁sociales,":12662,"militar":12663,"▁todxs":12664,"kit":12665,"▁microbio":12666,"▁aventura":12667,"▁bien!":12668,"▁esposo":12669,"▁corrupción.":12670,"▁periodo":12671,"▁diversidad":12672,"▁felicitar":12673,"▁encantó":12674,"▁aer":12675,"▁thrones":12676,"▁ota":12677,"▁consciente":12678,"▁tela":12679,"▁body":12680,"▁cierta":12681,"▁vargas":12682,"▁realidad,":12683,"▁sed":12684,"cha.":12685,"émica":12686,"milla":12687,"▁podia":12688,"o...":12689,"▁piro":12690,"▁▶":12691,"into":12692,"▁voice":12693,"▁safe":12694,"▁actriz":12695,"▁copo":12696,"bloque":12697,"▁público.":12698,"▁miel":12699,"▁encuestas":12700,"▁alone":12701,"▁techo":12702,"▁now.":12703,"▁decirles":12704,"▁promover":12705,"▁escan":12706,"▁valer":12707,"▁presentado":12708,"▁enojar":12709,"▁muchacho":12710,"▁resid":12711,"▁fiebre":12712,"▁panel":12713,"▁rip":12714,"▁pray":12715,"▁galería":12716,"▁omar":12717,"▁diosito":12718,"uh":12719,"▁lay":12720,"jua":12721,"▁loz":12722,"▁disfruten":12723,"▁iren":12724,"▁kit":12725,"▁jura":12726,"lida":12727,"▁viejas":12728,"▁critican":12729,"▁egres":12730,"▁violación":12731,"▁tomlinson":12732,"▁ee.uu.":12733,"▁reggaet":12734,"zen":12735,"▁verdaderos":12736,"▁no..":12737,"▁conmigo.":12738,"▁batman":12739,"...es":12740,"▁emprendedor":12741,"icientes":12742,"▁postura":12743,"vé":12744,"▁remin":12745,"▁-¿":12746,"▁sie":12747,"▁mamen":12748,"▁comuna":12749,"▁dos,":12750,"▁creado":12751,"▁bruno":12752,"▁arbi":12753,"▁laburar":12754,"▁hijas":12755,"pando":12756,"mona":12757,"▁mecán":12758,"chor":12759,"▁liqui":12760,"▁lamento":12761,"▁reit":12762,"▁procesos":12763,"▁feministas":12764,"▁convirtió":12765,"▁bolsas":12766,"▁críticas":12767,"▁hibisco":12768,"didad":12769,"▁carpe":12770,"▁esqui":12771,"▁drop":12772,"ta\"":12773,"▁sai":12774,"▁buenísimo":12775,"▁cron":12776,"▁needs":12777,"▁confi":12778,"▁temporadas":12779,"▁convencer":12780,"voy":12781,"▁among":12782,"▁colectivos":12783,"▁anual":12784,"▁tip":12785,"▁cierto.":12786,"▁teen":12787,"▁wol":12788,"▁tendrás":12789,"▁daños":12790,"▁víctor":12791,"▁clau":12792,"▁punto.":12793,"5,":12794,"hel":12795,"▁s'":12796,"▁inclusión":12797,"▁corresponde":12798,"▁vizcarra":12799,"▁platafor":12800,"▁amanhã":12801,"▁califica":12802,"▁rc":12803,"▁sum":12804,"▁supervi":12805,"▁reclama":12806,"▁tuiter":12807,"▁pera":12808,"▁seca":12809,"▁gamer":12810,"▁pelis":12811,"▁disposición":12812,"às":12813,"▁fór":12814,"▁maxi":12815,"▁1:":12816,"▁jodido":12817,"▁coup":12818,"▁riendo":12819,"mez":12820,"▁asigna":12821,"▁hec":12822,"▁invas":12823,"▁(in":12824,"▁phil":12825,"os...":12826,"▁suy":12827,"▁científicos":12828,"▁foda":12829,"▁son.":12830,"▁remera":12831,"▁close":12832,"o?":12833,"▁deport":12834,"▁resenti":12835,"▁kevin":12836,"▁impresenta":12837,"▁educación,":12838,"▁posible.":12839,"▁pok":12840,"▁taxi":12841,"▁previo":12842,"iedad":12843,"▁burro":12844,"▁vengas":12845,"▁hora.":12846,"▁direction":12847,"▁p.m.":12848,"▁definición":12849,"▁lagri":12850,"▁risas":12851,"▁scen":12852,"mito":12853,"cora":12854,"woo":12855,"▁tomé":12856,"ándonos":12857,"▁victorias":12858,"his":12859,"8,":12860,"▁content":12861,"garse":12862,"▁afil":12863,"▁es:":12864,"pear":12865,"▁prés":12866,"▁depos":12867,"▁infraestructura":12868,"▁sams":12869,"▁dos.":12870,"tors":12871,"tics":12872,"▁om":12873,"▁enchu":12874,"▁wpp":12875,"gidos":12876,"▁televis":12877,"▁terre":12878,"▁decidió":12879,"▁orgullosos":12880,"▁cómplice":12881,"▁club.":12882,"▁curiosidad":12883,"▁modera":12884,"▁ez":12885,"▁agencia":12886,"▁(se":12887,"▁muse":12888,"▁conversaciones":12889,"áticos":12890,"▁tirado":12891,"▁queréis":12892,"▁unidas":12893,"▁lleguen":12894,"▁♫":12895,"▁factor":12896,"▁monitor":12897,"▁fantasía":12898,"▁人":12899,"▁recol":12900,"▁paren":12901,"rás":12902,"chita":12903,"▁went":12904,"▁navide":12905,"▁domicilio":12906,"▁releas":12907,"traron":12908,"▁using":12909,"▁galaxy":12910,"ménez":12911,"▁hablado":12912,"▁n.":12913,"▁discrimina":12914,"▁vial":12915,"▁pelicula":12916,"▁xi":12917,"▁escapar":12918,"▁reele":12919,"▁agua.":12920,"▁acercar":12921,"/19":12922,"tiemp":12923,"uer":12924,"▁nó":12925,"▁delantero":12926,"bili":12927,"ison":12928,"▁alvar":12929,"▁pongas":12930,"▁ines":12931,"oo!!!":12932,"▁legado":12933,"▁andre":12934,"mentado":12935,"▁hacerlo.":12936,"▁sistemas":12937,"▁gio":12938,"▁evalua":12939,"▁---&gt;":12940,"▁¡y":12941,"▁revol":12942,"▁bueno...":12943,"▁quo":12944,"▁polo":12945,"▁fede":12946,"▁alternativa":12947,"▁deseando":12948,"▁vicio":12949,"▁lemb":12950,"▁convenio":12951,"▁suave":12952,"▁encontramos":12953,"▁bt":12954,"|.":12955,"▁satur":12956,"▁vergüenza.":12957,"▁siguientes":12958,"▁piensen":12959,"▁triste,":12960,"▁ladrón":12961,"▁space":12962,"▁impotencia":12963,"▁marina":12964,"▁grita":12965,"▁profesión":12966,"▁ausencia":12967,"▁nerviosa":12968,"igo":12969,"스트":12970,"▁muestran":12971,"▁si...":12972,"▁valladoli":12973,"chet":12974,"▁podré":12975,"▁hijuepu":12976,"jaaj":12977,"ónimo":12978,"▁fact":12979,"▁mandaron":12980,"▁dispara":12981,"▁escas":12982,"▁viaja":12983,"▁history":12984,"▁patas":12985,"madrid":12986,"▁peñarol":12987,"▁psico":12988,"▁fez":12989,"▁conting":12990,"▁4t":12991,"▁problema.":12992,"anos.":12993,"▁encen":12994,"▁mamita":12995,"▁indígenas":12996,"▁solo.":12997,"▁comenzamos":12998,"▁afp":12999,"▁actualiza":13000,"▁outro":13001,"aba":13002,"▁respeto,":13003,"▁incendios":13004,"▁canadá":13005,"▁⠀⠀":13006,"sado":13007,"▁despla":13008,"▁asegurar":13009,"▁inolvi":13010,"▁nacho":13011,"▁46":13012,"▁vuestros":13013,"▁lang":13014,"▁quedaba":13015,"fonos":13016,"▁determina":13017,"▁besar":13018,"▁dicha":13019,"solo":13020,"dador":13021,"▁deno":13022,"▁uk":13023,"landia":13024,"▁else":13025,"▁materias":13026,"most":13027,"▁compli":13028,"▁machista":13029,"▁penales":13030,"▁expan":13031,"▁maquillaje":13032,"▁llamando":13033,"e!":13034,"ition":13035,"▁parro":13036,"▁acompa":13037,"▁colección":13038,"▁volvieron":13039,"▁alfa":13040,"▁controla":13041,"▁más?":13042,"ona.":13043,"trá":13044,"▁temblor":13045,"엑소":13046,"▁tope":13047,"▁vida..":13048,"▁rescate":13049,"▁conquis":13050,"▁maracaibo":13051,"to\"":13052,"▁mandando":13053,"quei":13054,"doro":13055,"▁-no":13056,"▁shows":13057,"▁cv":13058,"▁casta":13059,"▁aceite":13060,"▁gaga":13061,"▁descarga":13062,"te...":13063,"▁serían":13064,"▁fallar":13065,"▁47":13066,"yeon":13067,"▁jsjs":13068,"▁estupefacta":13069,"▁cayendo":13070,"abra":13071,"▁marchas":13072,"bul":13073,"itores":13074,"▁distan":13075,"▁instalaciones":13076,"▁anunciar":13077,"▁chon":13078,"▁x2":13079,"▁celos":13080,"▁la.":13081,"▁chicos,":13082,"▁clínica":13083,"▁garganta":13084,"▁gin":13085,"▁malo,":13086,"▁conciertos":13087,"▁cuña":13088,"▁saw":13089,"jol":13090,"▁dolar":13091,"갓세븐":13092,"▁pequeñas":13093,"▁justicia,":13094,"▁saga":13095,"▁perver":13096,"anted":13097,"▁pqp":13098,"▁plantel":13099,"▁notifica":13100,"▁colle":13101,"brio":13102,"▁petróleo":13103,"ly.":13104,"▁remon":13105,"▁molestar":13106,"▁sufrimiento":13107,"▁quil":13108,"▁imprescin":13109,"▁delivery":13110,"▁tóxica":13111,"▁vamos,":13112,"▁inscripción":13113,"▁conozca":13114,"69":13115,"ormal":13116,"▁order":13117,"▁avengers":13118,"vd":13119,"▁llover":13120,"▁lock":13121,"▁barras":13122,"▁suman":13123,"hí":13124,"mientos,":13125,"▁vita":13126,"▁sufren":13127,"▁cuerpos":13128,"chis":13129,"▁leave":13130,"▁aportar":13131,"▁maltrato":13132,"▁twice":13133,"▁42":13134,"▁amenazas":13135,"mago":13136,"▁cule":13137,"▁nacimiento":13138,"▁piscina":13139,"▁aprendido":13140,"▁cheque":13141,"s?":13142,"eros,":13143,"▁juntos.":13144,"▁exacto":13145,"▁hip":13146,"▁ud.":13147,"▁incómo":13148,"▁comprender":13149,"▁progreso":13150,"▁95":13151,"▁órden":13152,"▁supe":13153,"▁seguidos":13154,"▁infeliz":13155,"▁gabinete":13156,"▁生":13157,"▁¿sabes":13158,"▁baut":13159,"▁fazendo":13160,"▁espos":13161,"▁estabilidad":13162,"▁nacido":13163,"▁06":13164,"▁escritor":13165,"▁sucio":13166,"dicación":13167,"▁juntos,":13168,"▁exigimos":13169,"▁tocado":13170,"▁despedir":13171,"bron":13172,"▁pade":13173,"▁sau":13174,"▁pink":13175,"▁piense":13176,"▁catalan":13177,"▁miras":13178,"hope":13179,"▁editorial":13180,"▁tone":13181,"da..":13182,"▁nací":13183,"▁3-":13184,"▁otros,":13185,"▁ventaja":13186,"vely":13187,"▁strong":13188,"▁básica":13189,"▁escobar":13190,"▁salto":13191,"▁municipales":13192,"▁preparados":13193,"▁pf":13194,"▁bie":13195,"▁esperas":13196,"do?":13197,"▁dice:":13198,"▁buscamos":13199,"▁disposi":13200,"▁nooo,":13201,"▁sexta":13202,"▁entérate":13203,"▁meren":13204,"▁bro,":13205,"at.":13206,"anos,":13207,"▁peleando":13208,"▁veamos":13209,"ram":13210,"▁geta":13211,"▁boca.":13212,"▁list":13213,"▁difíciles":13214,"▁chucha":13215,"▁perdiste":13216,"▁alma.":13217,"▁restaurante":13218,"▁juego.":13219,"▁nostalgia":13220,"▁favoritas":13221,"▁violar":13222,"▁cál":13223,"t-":13224,"▁favo":13225,"▁acapul":13226,"tienes":13227,"▁expo":13228,"▁pesadilla":13229,":15":13230,"▁sancion":13231,"▁bestia":13232,"▁pedirle":13233,"▁fortuna":13234,"▁confirmo":13235,"ológica":13236,"▁obe":13237,"▁cambiando":13238,"▁pagamos":13239,"▁ann":13240,"os!":13241,"▁convic":13242,"hei":13243,"▁rs":13244,"▁confío":13245,"▁desco":13246,"▁mom":13247,"▁prín":13248,"▁víde":13249,"▁rojas":13250,"fera":13251,"▁cuáles":13252,"▁pinto":13253,"▁preocupación":13254,"▁sobretodo":13255,"▁jodan":13256,"▁comerciales":13257,"▁essas":13258,"vos.":13259,"▁past":13260,"▁natalia":13261,"▁chileno":13262,"▁ath":13263,"▁rodilla":13264,"▁valverde":13265,"▁choco":13266,"▁atardecer":13267,"▁1a":13268,"▁hpta":13269,"▁infla":13270,"▁\"nos":13271,"▁plazas":13272,"ution":13273,"▁llorar,":13274,"▁sociales.":13275,"▁manchester":13276,"▁coffee":13277,"▁bendito":13278,"▁reverencia":13279,"▁demócra":13280,"▁inu":13281,"cenas":13282,"▁posibilidades":13283,"▁mano.":13284,"▁lugar,":13285,"▁permis":13286,"▁deep":13287,"▁andrea":13288,"▁dessa":13289,"▁cámaras":13290,"fis":13291,"▁alicante":13292,"▁filtro":13293,"▁capitalismo":13294,"▁habido":13295,"aa!!!":13296,"▁posicion":13297,"▁pui":13298,"▁industrial":13299,"glish":13300,"▁fiscales":13301,"bala":13302,"▁dear":13303,"▁agustín":13304,"▁taba":13305,"▁seokjin":13306,"_tono_de_piel_claro":13307,"▁lentes":13308,"▁sair":13309,"ts:":13310,"minos":13311,"▁kiss":13312,"▁video:":13313,"▁gallo":13314,"▁hech":13315,"▁tole":13316,"...!":13317,"▁todo!":13318,"▁beh":13319,"▁elige":13320,"▁bronce":13321,"▁adolescentes":13322,"ieras":13323,"que,":13324,"▁ordin":13325,"▁:'(":13326,"▁famosa":13327,"▁normal,":13328,"▁nun":13329,"▁nec":13330,"▁cancela":13331,"ña,":13332,"▁sujeto":13333,"▁washing":13334,"▁doesnt":13335,"▁dora":13336,"▁¿quien":13337,"▁candidata":13338,"yd":13339,"▁quilo":13340,"▁belgran":13341,"/07":13342,"▁daddy":13343,"▁dejaste":13344,"▁tóxico":13345,"ti.":13346,"▁votación":13347,"▁instante":13348,"▁permanente":13349,"▁oba":13350,"▁polla":13351,"▁ocupar":13352,"▁kat":13353,"▁nadie:.":13354,"zul":13355,"▁vestir":13356,"▁educativa":13357,"▁semin":13358,"▁irregular":13359,"▁divis":13360,"tren":13361,"▁plá":13362,"ín.":13363,"▁estaria":13364,"▁recortable":13365,"▁cooperativa":13366,"▁descal":13367,"inado":13368,"quera":13369,"▁vecina":13370,"▁gosto":13371,"▁macar":13372,"▁dirán":13373,"▁dirigir":13374,"▁seus":13375,"▁repara":13376,"▁imaginate":13377,"▁juárez":13378,"▁respect":13379,"▁piedras":13380,"▁س":13381,"▁expe":13382,"heiro":13383,"▁continui":13384,"mejor":13385,"▁waiting":13386,"nan":13387,"grafo":13388,"▁fácil,":13389,"▁weekend":13390,"▁three":13391,"▁presa":13392,"อง":13393,"▁jk":13394,"▁wants":13395,"▁antigua":13396,"▁emis":13397,"▁plis":13398,"▁abrazo.":13399,"▁deve":13400,"▁casar":13401,"▁psg":13402,"▁preparada":13403,"▁arregla":13404,"▁poeta":13405,"▁vocal":13406,"▁legí":13407,"▁son,":13408,"▁personales":13409,"▁tapabo":13410,"▁ventila":13411,"▁lord":13412,"▁imponer":13413,"yeol":13414,"▁followers":13415,"▁obligación":13416,"▁fut":13417,"▁créditos":13418,"▁certeza":13419,"▁jj":13420,"▁duelen":13421,"cido.":13422,"▁oq":13423,"▁masiva":13424,"▁merecido":13425,"▁gratuita":13426,"war":13427,"▁presentes":13428,"▁foto,":13429,"▁vivos":13430,"▁reuniones":13431,"▁presidentes":13432,"▁samsung":13433,"▁ls":13434,"bera":13435,"pá":13436,"▁desayunar":13437,"▁eso...":13438,"▁justice":13439,"▁escándalo":13440,"▁lik":13441,"▁odio,":13442,"▁graba":13443,"▁generos":13444,"▁viernes,":13445,"tarlo":13446,"▁nath":13447,"▁manifestantes":13448,"▁mutuals":13449,"re.":13450,"▁pila":13451,"▁flip":13452,"▁alcaldesa":13453,"dista":13454,"▁regi":13455,"▁maratón":13456,"▁llorar.":13457,"▁austria":13458,"▁maya":13459,"ilo":13460,"▁sombra":13461,"▁net":13462,"▁delf":13463,"▁stalke":13464,"▁someti":13465,"▁veinte":13466,"▁chingada":13467,"▁fuma":13468,"▁fernandez":13469,"uñas":13470,"▁ayu":13471,"▁boca,":13472,"▁vill":13473,"wood":13474,"▁sens":13475,"▁porcenta":13476,"▁cepeda":13477,"▁cumplido":13478,"hun":13479,"▁skin":13480,"▁penas":13481,"cú":13482,"▁achaga":13483,"▁atodos":13484,"▁reún":13485,"▁nueve":13486,"▁libra":13487,"▁frenar":13488,"▁privilegio":13489,"▁década":13490,"▁pior":13491,"▁jama":13492,"▁presentan":13493,"▁volverá":13494,"▁parís":13495,"▁smal":13496,"▁obligatorio":13497,"▁oz":13498,"camp":13499,"ries":13500,"▁acepto":13501,"▁alcance":13502,"▁patada":13503,"▁secundaria":13504,"▁harto":13505,"▁cabrón":13506,"▁cancelar":13507,"▁ofertas":13508,"▁más..":13509,"▁manipu":13510,"gobier":13511,"▁(al":13512,"▁aprecia":13513,"da?":13514,"▁goal":13515,"▁votamos":13516,"▁moneda":13517,"▁levantarse":13518,"▁pésimo":13519,"dumbre":13520,"▁valió":13521,"▁descorchada":13522,"▁preguntó":13523,"▁mochila":13524,"▁aprendizaje":13525,"▁obligar":13526,"mundo":13527,"▁enojo":13528,"where":13529,"venezuela":13530,"▁llamó":13531,"▁cuartos":13532,"nia":13533,"▁idioma":13534,"▁agradecemos":13535,"▁azer":13536,"▁congratula":13537,"▁ich":13538,"▁cubrebo":13539,"▁todo...":13540,"/5":13541,"▁told":13542,"▁competir":13543,"▁ع":13544,"▁hong":13545,"▁presion":13546,"cat":13547,"▁hoseok":13548,"▁asqueroso":13549,"▁delicioso":13550,"sia":13551,"yoff":13552,"▁està":13553,"▁lección":13554,"▁#갓세븐":13555,"▁marihu":13556,"▁seja":13557,"ingui":13558,"▁césar":13559,"▁pón":13560,"▁loves":13561,"▁danilo":13562,"▁lealtad":13563,"▁això":13564,"▁volta":13565,"▁duda,":13566,"▁cierran":13567,"▁zidane":13568,"▁rebo":13569,"▁cabra":13570,"▁tradicional":13571,"▁tiros":13572,"▁denuncian":13573,"▁esfor":13574,"máticos":13575,"▁imperio":13576,"0.":13577,"▁piñas":13578,"▁antihorario":13579,"▁oscars":13580,"▁abusos":13581,"ette":13582,"▁pues,":13583,"▁pertenece":13584,"▁paula":13585,"▁caso.":13586,"▁positiva":13587,"▁vuelos":13588,"riles":13589,"▁mencionar":13590,"▁views":13591,"▁california":13592,"▁bajas":13593,"▁bell":13594,"▁espir":13595,"▁mariano":13596,"▁inqui":13597,"alla":13598,"▁despedida":13599,"éc":13600,"▁poses":13601,"▁dormirme":13602,"ub":13603,"▁̄":13604,"▁uuu":13605,"▁bien...":13606,"▁sentado":13607,"▁avui":13608,"lá":13609,"▁crazy":13610,"▁siii,":13611,"entas":13612,"▁bendición":13613,"▁lli":13614,"▁petar":13615,"ína":13616,"▁2do":13617,"▁tweet.":13618,"▁reproducción":13619,"▁mera":13620,"▁americano":13621,"▁anar":13622,"▁robó":13623,"▁apprecia":13624,"brech":13625,"▁algo?":13626,"▁metiendo":13627,"▁mandas":13628,"▁páginas":13629,"nel":13630,"▁mba":13631,"▁armando":13632,"▁paname":13633,"▁antojo":13634,"▁pintor":13635,",no":13636,"tía":13637,"▁coch":13638,"▁domingo.":13639,"vos,":13640,"▁pension":13641,"▁límites":13642,"▁ricas":13643,"▁soo":13644,"▁polémica":13645,"2015":13646,"chile":13647,"▁renunciar":13648,"▁logros":13649,"▁neoliberal":13650,"▁nombra":13651,"▁nike":13652,"▁votado":13653,"▁community":13654,"から":13655,"▁clausura":13656,"▁efectivo":13657,"▁contund":13658,"▁canso":13659,"▁robando":13660,"ors":13661,"▁contradic":13662,"▁rn":13663,"▁digamos":13664,"▁peter":13665,"▁lluvias":13666,"▁arquero":13667,"▁simula":13668,"▁campos":13669,"tures":13670,"▁rayos":13671,"guito":13672,"▁85":13673,"t!":13674,"zas.":13675,"▁pou":13676,"▁selec":13677,"▁goes":13678,"▁hecho.":13679,"▁peace":13680,"▁golpes":13681,"▁fabr":13682,"▁plano":13683,"▁mike":13684,"gador":13685,"▁ésto":13686,"▁ilumina":13687,"▁detiene":13688,"▁conser":13689,"▁mortal":13690,"wan":13691,"▁digitales":13692,"▁oficinas":13693,"ização":13694,"▁peronismo":13695,"viva":13696,"▁compl":13697,"▁celu":13698,"▁faltas":13699,"fri":13700,"ida,":13701,"▁aclarar":13702,"▁politicos":13703,"▁ash":13704,"▁terminamos":13705,"asta":13706,"▁half":13707,"rity":13708,"▁ganadores":13709,"▁importante.":13710,"▁nesse":13711,"eme":13712,"▁haremos":13713,"▁inspec":13714,"▁asia":13715,"▁aconse":13716,"▁definir":13717,"▁sra":13718,"▁meo":13719,"▁parió":13720,"▁expresar":13721,"▁llenos":13722,"▁corro":13723,"▁álvaro":13724,"▁ña":13725,"▁number":13726,"ech":13727,"▁devel":13728,"▁nobel":13729,"▁pleas":13730,"▁vuela":13731,"▁pena,":13732,"▁***":13733,"▁smile":13734,"olog":13735,"▁humanitaria":13736,"▁colegas":13737,"▁mito":13738,"▁aboga":13739,"▁parás":13740,"▁menuda":13741,"▁meterse":13742,"▁eléctrica":13743,"log":13744,"▁respondió":13745,"▁¿con":13746,"▁niega":13747,"▁privilegios":13748,"▁words":13749,"cracia":13750,"▁palabras.":13751,"▁estraté":13752,"▁público,":13753,"&gt;&gt;&gt;&gt;&gt;&gt;&gt;&gt;":13754,"▁aliení":13755,"▁alguien.":13756,"▁п":13757,"▁jodiendo":13758,"▁started":13759,"▁islas":13760,"▁90%":13761,"▁cubanos":13762,"eu":13763,"▁act":13764,"▁rene":13765,"▁oído":13766,"ished":13767,"▁pere":13768,"▁circunstancias":13769,"▁importante,":13770,"▁tatuaje":13771,"▁eus":13772,"pada":13773,"▁graves":13774,"argentina":13775,"▁washington":13776,"▁olla":13777,"▁estructura":13778,"lt":13779,"▁wanted":13780,"▁dosis":13781,"▁humildad":13782,"▁seremos":13783,"▁four":13784,"▁modelos":13785,"▁conmemo":13786,"enciar":13787,"▁vivan":13788,"▁cí":13789,"▁tristes":13790,"▁empezado":13791,"zos,":13792,"▁programación":13793,"tine":13794,"▁selena":13795,"▁funciones":13796,"▁sentimos":13797,"cedentes":13798,"▁pezuñas":13799,"▁vara":13800,"▁temporada.":13801,"▁minutos.":13802,"▁fenó":13803,"▁felicito":13804,"▁acá,":13805,"▁ava":13806,"▁coal":13807,"▁sola,":13808,"▁roo":13809,"▁así...":13810,"▁estuvimos":13811,"▁contrar":13812,"▁contrario,":13813,"▁¡gracias!":13814,"▁f.":13815,"▁aran":13816,"▁nós":13817,"▁persecu":13818,"▁smo":13819,"▁vacunas":13820,"▁dolores":13821,"▁entiendan":13822,"ñana":13823,"▁llamadas":13824,"▁ustedes.":13825,"▁gara":13826,"po,":13827,"▁libertad.":13828,"ment.":13829,"▁serio.":13830,"▁enfrenta":13831,"▁coo":13832,"cci":13833,"▁¿será":13834,"ias.":13835,"▁integrantes":13836,"▁recib":13837,"▁informes":13838,"▁laugh":13839,"▁azerbai":13840,"▁👁":13841,"▁pregún":13842,"dú":13843,"▁temo":13844,"▁yours":13845,"ass":13846,"▁ejemplar":13847,"▁productor":13848,"▁horri":13849,"▁arruin":13850,"▁extranjeros":13851,"▁acceder":13852,"pd":13853,"▁사":13854,"▁sill":13855,"▁ceuta":13856,"▁quedará":13857,"▁chanyeol":13858,"▁build":13859,"ี่":13860,"▁postu":13861,"▁cumpla":13862,"▁explotar":13863,"▁reporta":13864,"▁imi":13865,"▁recordando":13866,"▁ocurrido":13867,"▁álvarez":13868,"/11":13869,"▁ciudad,":13870,"yi":13871,"▁azu":13872,"▁corriente":13873,"▁zulia":13874,"▁rig":13875,"▁clasificación":13876,"▁doler":13877,"▁temazo":13878,"zos.":13879,"▁spre":13880,"▁hijos,":13881,"juan":13882,"▁infectados":13883,"kg":13884,"▁\"¡":13885,"▁lleven":13886,"as!":13887,"▁ahora?":13888,"▁ocasiones":13889,"dum":13890,"▁buscas":13891,"▁efica":13892,"pit":13893,"nado":13894,"▁conocemos":13895,"▁muñeco":13896,"▁¡muchas":13897,"▁detenidos":13898,"▁alturas":13899,"trio":13900,"geno":13901,"fun":13902,"▁dándole":13903,"▁tengo,":13904,"vándose":13905,"▁solo,":13906,"▁recoger":13907,"▁pintura":13908,"▁ciego":13909,"▁boba":13910,"▁''":13911,"▁refres":13912,"▁dispuesto":13913,"▁cebol":13914,"▁disi":13915,"▁semáforo":13916,"▁migrantes":13917,"▁pronuncia":13918,"▁cartagena":13919,"ivos":13920,"▁confirmó":13921,"▁hables":13922,"mió":13923,"▁problema,":13924,"▁energy":13925,"▁pagina":13926,"esen":13927,"siempre":13928,"▁atencion":13929,"roga":13930,"▁follower":13931,"▁embajador":13932,"▁héroe":13933,"▁sitios":13934,"▁union":13935,"▁vendi":13936,"▁wed":13937,"▁llueva":13938,"dental":13939,"▁shot":13940,"▁cuén":13941,"▁salía":13942,"▁raja":13943,"▁básicamente":13944,"reros":13945,"▁parezco":13946,"▁41":13947,"▁44":13948,"aria.":13949,"▁guayaquil":13950,"▁called":13951,"▁dure":13952,"▁deal":13953,"te..":13954,"tegui":13955,"▁suya":13956,"▁viviendas":13957,"▁inauguración":13958,"▁tots":13959,"▁understand":13960,"ird":13961,"▁marica":13962,"▁butter":13963,"▁gets":13964,"▁estrena":13965,"ritual":13966,"human":13967,"▁oye,":13968,"▁secretaria":13969,"▁nudes":13970,"▁1/2":13971,"▁química":13972,"▁tp":13973,"respe":13974,"▁pintar":13975,"▁qualquer":13976,"▁shoo":13977,"▁smith":13978,"▁soft":13979,"▁nome":13980,"▁retos":13981,"▁valientes":13982,"▁esto...":13983,"▁sabían":13984,"▁anuncios":13985,"lli":13986,"▁pedidos":13987,"▁xxi":13988,"▁paloma":13989,"▁13.":13990,"▁\"po":13991,"▁áreas":13992,"▁propos":13993,"▁capacitación":13994,"▁considero":13995,"▁apetece":13996,"▁¡con":13997,"▁científica":13998,"▁término":13999,"▁с":14000,"▁f1":14001,"▁silue":14002,"▁deserve":14003,"▁gem":14004,"▁tibur":14005,"▁verdades":14006,"▁estud":14007,"▁vip":14008,"▁¿po":14009,"mous":14010,"▁\"ay":14011,"▁credibilidad":14012,"▁invitado":14013,"rus":14014,"▁barto":14015,"▁ganadora":14016,"▁jd":14017,"▁lavado":14018,"▁outfit":14019,"▁concejal":14020,"▁hidalgo":14021,"▁dobla":14022,"▁oriente":14023,"▁poin":14024,"▁pre-":14025,"▁continue":14026,"▁campañ":14027,"▁compon":14028,"mientos.":14029,"▁monsta":14030,"▁comparación":14031,"▁attack":14032,"▁coti":14033,"▁jajaa":14034,"▁moo":14035,"▁salarios":14036,"▁tomamos":14037,"▁tiendas":14038,"▁pasa.":14039,"▁chiquita":14040,"▁phone":14041,"▁billboard":14042,"v,":14043,"▁costó":14044,"▁tbm":14045,"di,":14046,"▁caballero":14047,"▁mtvlainstaar":14048,"▁alemán":14049,"▁\"mo":14050,"danos":14051,"▁protagonista":14052,"jul":14053,"▁cansar":14054,"▁descubier":14055,"▁semifin":14056,"▁arrepentir":14057,"▁ensayo":14058,"▁ف":14059,"▁ib":14060,"▁peca":14061,"▁cristian":14062,"▁viu":14063,"▁marchar":14064,"▁garcia":14065,"▁yo?":14066,"ologías":14067,"▁0.0":14068,"▁mío,":14069,"▁décadas":14070,"▁outra":14071,"▁plataformas":14072,"▁t.":14073,"▁igna":14074,"▁poesía":14075,"▁pene":14076,"▁correcta":14077,"▁sinton":14078,"▁deixa":14079,"▁bienes":14080,"▁cosita":14081,"▁inflación":14082,"micas":14083,"aron,":14084,"iela":14085,"▁experto":14086,"ários":14087,"▁yor":14088,"▁stri":14089,"▁fashion":14090,"▁inevi":14091,"▁parte,":14092,"▁responden":14093,"▁jisoo":14094,"▁pantalones":14095,"▁children":14096,"▁espany":14097,"▁otra.":14098,"▁partidazo":14099,"ない":14100,"▁destaca":14101,"▁discus":14102,"▁habilita":14103,"▁acuerdos":14104,"▁puta,":14105,"▁fuerte,":14106,"▁odio.":14107,"▁acabado":14108,"▁situ":14109,"▁enojada":14110,"dies":14111,"jk":14112,"▁delicia":14113,"▁juju":14114,":)":14115,"▁que.":14116,"▁dois":14117,"creo":14118,"▁ayer.":14119,"▁hour":14120,"▁quiere,":14121,"▁___":14122,"▁gusta.":14123,"▁rubia":14124,"▁representación":14125,"▁mecan":14126,"▁reason":14127,"▁noble":14128,"▁hinchada":14129,"▁almost":14130,"▁traves":14131,"ficas":14132,"ñal":14133,"▁podríamos":14134,"▁episode":14135,"▁temor":14136,"▁naturales":14137,"▁vida!":14138,"▁refiere":14139,"▁derra":14140,"▁lác":14141,"▁firmas":14142,"tei":14143,"▁feed":14144,"▁rajoy":14145,"ten,":14146,"▁lose":14147,"guer":14148,"▁vienes":14149,"▁realizan":14150,"▁porro":14151,"▁\"bu":14152,"▁apunta":14153,"▁respaldo":14154,"chat":14155,"▁javi":14156,"▁funcionario":14157,"▁mam":14158,"▁esq":14159,"▁wu":14160,"▁maldad":14161,"ña.":14162,"▁yanke":14163,"▁peat":14164,"▁¡hola":14165,"▁coman":14166,"▁vega":14167,"mani":14168,"▁votan":14169,"▁nada!":14170,"▁usen":14171,"▁sorr":14172,"▁acredi":14173,"▁portal":14174,"▁youtuber":14175,"▁dedicar":14176,"▁relato":14177,"▁hoy:":14178,"▁pronun":14179,"tas?":14180,"▁perdonar":14181,"▁xo":14182,"▁nicolas":14183,"ecre":14184,"s..":14185,"▁き":14186,"▁poderes":14187,"▁apruebo":14188,"inter":14189,"▁2:":14190,"▁compas":14191,"che,":14192,"▁07":14193,"▁identificar":14194,"니다":14195,"▁gracias!!!":14196,"eno,":14197,"▁jara":14198,"▁desinfec":14199,"▁capric":14200,"▁poké":14201,"▁sic":14202,"rill":14203,"▁aburro":14204,"▁supermercado":14205,"▁blas":14206,"▁escuchan":14207,"▁antoja":14208,"▁desbloque":14209,"▁chivas":14210,"▁aprueba":14211,"fla":14212,"▁medina":14213,"▁hacernos":14214,"▁colaborar":14215,"▁insomnio":14216,"▁elef":14217,"▁refuer":14218,"▁avisar":14219,"▁parce":14220,"▁lucía":14221,"kel":14222,"▁orientada":14223,"▁│":14224,"▁hig":14225,"▁time.":14226,"▁view":14227,"▁ivan":14228,"▁falte":14229,"▁esconder":14230,"▁pm.":14231,"▁movistar":14232,"os?":14233,"▁band":14234,"desde":14235,"▁garra":14236,"▁tak":14237,"▁pareces":14238,"ly,":14239,"▁arquitectura":14240,"quel":14241,"grama":14242,"piz":14243,"▁sars":14244,"titui":14245,"▁mañanas":14246,"▁agradecido":14247,"▁condo":14248,"▁extrañ":14249,"▁silva":14250,"▁condicion":14251,"onó":14252,"▁gur":14253,"aa!":14254,"old":14255,"same":14256,"ticos,":14257,"ee.":14258,"▁extremo":14259,"▁gob":14260,"▁suicidio":14261,"▁epide":14262,"▁sobres":14263,"▁absoluta":14264,"ctive":14265,"▁adolescente":14266,"▁decia":14267,"▁por:":14268,
[...]
