{
    "version": "1.0",
    "truncation": null,
    "padding": null,
    "added_tokens": [
        {
            "id": 0,
            "special": true,
            "content": "<s>",
            "single_word": false,
            "lstrip": false,
            "rstrip": false,
            "normalized": false
        },
        {
            "id": 1,
            "special": true,
            "content": "<pad>",
            "single_word": false,
            "lstrip": false,
            "rstrip": false,
            "normalized": false
        },
        {
            "id": 2,
            "special": true,
            "content": "</s>",
            "single_word": false,
            "lstrip": false,
            "rstrip": false,
            "normalized": false
        },
        {
            "id": 3,
            "special": true,
            "content": "<unk>",
            "single_word": false,
            "lstrip": false,
            "rstrip": false,
            "normalized": false
        },
        {
            "id": 4,
            "special": true,
            "content": "<mask>",
            "single_word": false,
            "lstrip": false,
            "rstrip": false,
            "normalized": false
        },
        {
            "id": 5,
            "special": false,
            "content": "@usuario",
            "single_word": false,
            "lstrip": false,
            "rstrip": false,
            "normalized": false
        },
        {
            "id": 6,
            "special": false,
            "content": "url",
            "single_word": false,
            "lstrip": false,
            "rstrip": false,
            "normalized": false
        },
        {
            "id": 7,
            "special": false,
            "content": "hashtag",
            "single_word": false,
            "lstrip": false,
            "rstrip": false,
            "normalized": false
        },
        {
            "id": 8,
            "special": false,
            "content": "emoji",
            "single_word": false,
            "lstrip": false,
            "rstrip": false,
            "normalized": false
        }
    ],
    "normalizer": {
        "type": "Sequence",
        "normalizers": [
            {
                "type": "NFKC"
            },
            {
                "type": "BertNormalizer",
                "clean_text": true,
                "handle_chinese_chars": true,
                "strip_accents": false,
                "lowercase": true
            }
        ]
    },
    "pre_tokenizer": {
        "type": "Metaspace",
        "replacement": "▁",
        "add_prefix_space": true
    },
    "post_processor": {
        "type": "RobertaProcessing",
        "sep": [
            "</s>",
            2
        ],
        "cls": [
            "<s>",
            0
        ],
        "trim_offsets": true,
        "add_prefix_space": true
    },
    "decoder": {
        "type": "Metaspace",
        "replacement": "▁",
        "add_prefix_space": true
    },
    "model": {
        "type": "BPE",
        "dropout": null,
        "unk_token": null,
        "continuing_subword_prefix": null,
        "end_of_word_suffix": null,
        "fuse_unk": false,
        "vocab": {
            "0": 24,
            "1": 25,
            "2": 26,
            "3": 27,
            "4": 28,
            "5": 29,
            "6": 30,
            "7": 31,
            "8": 32,
            "9": 33,
            "10": 2064,
            "11": 3137,
            "12": 3028,
            "13": 4341,
            "14": 3982,
            "15": 3208,
            "16": 3647,
            "17": 3364,
            "18": 2403,
            "19": 1023,
            "20": 907,
            "21": 2879,
            "22": 5361,
            "23": 6000,
            "24": 5153,
            "25": 5167,
            "26": 6883,
            "27": 6995,
            "28": 6897,
            "29": 7465,
            "30": 2095,
            "31": 14166,
            "32": 15752,
            "33": 7840,
            "34": 15390,
            "35": 9372,
            "36": 10516,
            "37": 10440,
            "38": 9915,
            "39": 11465,
            "40": 4190,
            "41": 14850,
            "42": 14961,
            "43": 11755,
            "44": 8910,
            "45": 6555,
            "46": 9697,
            "47": 9324,
            "48": 9374,
            "49": 10988,
            "50": 3381,
            "51": 27898,
            "52": 27237,
            "53": 29842,
            "54": 25788,
            "55": 12937,
            "56": 16973,
            "57": 15901,
            "58": 14908,
            "59": 23467,
            "60": 5755,
            "62": 27699,
            "63": 27364,
            "64": 22055,
            "65": 9427,
            "66": 11782,
            "67": 15214,
            "68": 14143,
            "69": 12802,
            "70": 6661,
            "72": 27542,
            "73": 25962,
            "74": 23651,
            "75": 8772,
            "76": 19707,
            "77": 10014,
            "78": 13176,
            "79": 17102,
            "80": 6125,
            "82": 22909,
            "83": 25133,
            "84": 21422,
            "85": 18916,
            "86": 20176,
            "87": 22961,
            "88": 12107,
            "89": 21432,
            "90": 6570,
            "92": 20063,
            "93": 24838,
            "94": 24317,
            "95": 10711,
            "96": 20164,
            "97": 15302,
            "98": 13808,
            "99": 5607,
            "100": 6361,
            "101": 29079,
            "120": 28601,
            "127": 21731,
            "200": 7885,
            "300": 14950,
            "400": 18962,
            "500": 7776,
            "600": 20887,
            "700": 24285,
            "800": 19516,
            "900": 29651,
            "1000": 16275,
            "2014": 19052,
            "2015": 13582,
            "2016": 11072,
            "2017": 7758,
            "2018": 4292,
            "2019": 2892,
            "2020": 2690,
            "2021": 15944,
            "<s>": 0,
            "<pad>": 1,
            "</s>": 2,
            "<unk>": 3,
            "<mask>": 4,
            "@usuario": 5,
            "url": 6,
            "hashtag": 7,
            "emoji": 8,
            "!": 9,
            "\"": 10,
            "#": 11,
            "$": 12,
            "%": 13,
            "&": 14,
            "'": 15,
            "(": 16,
            ")": 17,
            "*": 18,
            "+": 19,
            ",": 20,
            "-": 21,
            ".": 22,
            "/": 23,
            ":": 34,
            ";": 35,
            "=": 36,
            "?": 37,
            "@": 38,
            "[": 39,
            "\\": 40,
            "]": 41,
            "^": 42,
            "_": 43,
            "`": 44,
            "a": 45,
            "b": 46,
            "c": 47,
            "d": 48,
            "e": 49,
            "f": 50,
            "g": 51,
            "h": 52,
            "i": 53,
            "j": 54,
            "k": 55,
            "l": 56,
            "m": 57,
            "n": 58,
            "o": 59,
            "p": 60,
            "q": 61,
            "r": 62,
            "s": 63,
            "t": 64,
            "u": 65,
            "v": 66,
            "w": 67,
            "x": 68,
            "y": 69,
            "z": 70,
            "{": 71,
            "|": 72,
            "}": 73,
            "¡": 74,
            "¿": 75,
            "à": 76,
            "á": 77,
            "â": 78,
            "ã": 79,
            "ä": 80,
            "å": 81,
            "ç": 82,
            "è": 83,
            "é": 84,
            "ê": 85,
            "ì": 86,
            "í": 87,
            "ï": 88,
            "ñ": 89,
            "ò": 90,
            "ó": 91,
            "ô": 92,
            "õ": 93,
            "ö": 94,
            "ù": 95,
            "ú": 96,
            "ü": 97,
            "ğ": 98,
            "ı": 99,
            "ł": 100,
            "ş": 101,
            "ɪ": 102,
            "ɴ": 103,
            "ʀ": 104,
            "ʟ": 105,
            "̄": 106,
            "̇": 107,
            "̶": 108,
            "α": 109,
            "ι": 110,
            "а": 111,
            "б": 112,
            "в": 113,
            "д": 114,
            "е": 115,
            "и": 116,
            "к": 117,
            "л": 118,
            "м": 119,
            "н": 120,
            "о": 121,
            "п": 122,
            "р": 123,
            "с": 124,
            "т": 125,
            "у": 126,
            "я": 127,
            "،": 128,
            "أ": 129,
            "ب": 130,
            "ة": 131,
            "ت": 132,
            "ج": 133,
            "ح": 134,
            "خ": 135,
            "د": 136,
            "ر": 137,
            "ز": 138,
            "س": 139,
            "ش": 140,
            "ص": 141,
            "ض": 142,
            "ط": 143,
            "ع": 144,
            "ف": 145,
            "ق": 146,
            "ك": 147,
            "ل": 148,
            "م": 149,
            "ن": 150,
            "ه": 151,
            "و": 152,
            "ى": 153,
            "ي": 154,
            "َ": 155,
            "ک": 156,
            "ں": 157,
            "ہ": 158,
            "ی": 159,
            "ے": 160,
            "ं": 161,
            "क": 162,
            "ज": 163,
            "त": 164,
            "द": 165,
            "न": 166,
            "प": 167,
            "ब": 168,
            "म": 169,
            "य": 170,
            "र": 171,
            "ल": 172,
            "स": 173,
            "ह": 174,
            "ा": 175,
            "ि": 176,
            "ी": 177,
            "े": 178,
            "ो": 179,
            "्": 180,
            "க": 181,
            "த": 182,
            "ா": 183,
            "ி": 184,
            "ு": 185,
            "்": 186,
            "ก": 187,
            "ข": 188,
            "ค": 189,
            "ง": 190,
            "จ": 191,
            "ช": 192,
            "ด": 193,
            "ต": 194,
            "ท": 195,
            "น": 196,
            "บ": 197,
            "ป": 198,
            "พ": 199,
            "ม": 200,
            "ย": 201,
            "ร": 202,
            "ล": 203,
            "ว": 204,
            "ส": 205,
            "ห": 206,
            "อ": 207,
            "ะ": 208,
            "ั": 209,
            "า": 210,
            "ิ": 211,
            "ี": 212,
            "ื": 213,
            "ุ": 214,
            "ู": 215,
            "เ": 216,
            "แ": 217,
            "ใ": 218,
            "ไ": 219,
            "็": 220,
            "่": 221,
            "้": 222,
            "์": 223,
            "ᄏ": 224,
            "ᅠ": 225,
            "ᅲ": 226,
            "ᥱ": 227,
            "ᴀ": 228,
            "ᴅ": 229,
            "ᴇ": 230,
            "ᴏ": 231,
            "ᴛ": 232,
            "ᴜ": 233,
            "⃣": 234,
            "→": 235,
            "─": 236,
            "━": 237,
            "┃": 238,
            "┓": 239,
            "═": 240,
            "▁": 241,
            "█": 242,
            "▶": 243,
            "►": 244,
            "☀": 245,
            "★": 246,
            "☆": 247,
            "♪": 248,
            "♫": 249,
            "⚠": 250,
            "✔": 251,
            "❣": 252,
            "➡": 253,
            "⠀": 254,
            "⬇": 255,
            "、": 256,
            "。": 257,
            "「": 258,
            "」": 259,
            "【": 260,
            "】": 261,
            "あ": 262,
            "い": 263,
            "う": 264,
            "え": 265,
            "お": 266,
            "か": 267,
            "が": 268,
            "き": 269,
            "く": 270,
            "け": 271,
            "こ": 272,
            "ご": 273,
            "さ": 274,
            "し": 275,
            "す": 276,
            "た": 277,
            "だ": 278,
            "ち": 279,
            "っ": 280,
            "つ": 281,
            "て": 282,
            "で": 283,
            "と": 284,
            "ど": 285,
            "な": 286,
            "に": 287,
            "の": 288,
            "は": 289,
            "ま": 290,
            "み": 291,
            "め": 292,
            "も": 293,
            "ゃ": 294,
            "や": 295,
            "よ": 296,
            "ら": 297,
            "り": 298,
            "る": 299,
            "れ": 300,
            "を": 301,
            "ん": 302,
            "゚": 303,
            "ア": 304,
            "イ": 305,
            "カ": 306,
            "キ": 307,
            "ク": 308,
            "コ": 309,
            "シ": 310,
            "ジ": 311,
            "ス": 312,
            "タ": 313,
            "チ": 314,
            "ッ": 315,
            "ト": 316,
            "ド": 317,
            "フ": 318,
            "プ": 319,
            "マ": 320,
            "ラ": 321,
            "リ": 322,
            "ル": 323,
            "レ": 324,
            "ロ": 325,
            "ン": 326,
            "・": 327,
            "人": 328,
            "日": 329,
            "生": 330,
            "가": 331,
            "갓": 332,
            "게": 333,
            "고": 334,
            "국": 335,
            "그": 336,
            "기": 337,
            "김": 338,
            "나": 339,
            "년": 340,
            "는": 341,
            "니": 342,
            "다": 343,
            "단": 344,
            "대": 345,
            "더": 346,
            "도": 347,
            "드": 348,
            "들": 349,
            "라": 350,
            "랑": 351,
            "레": 352,
            "로": 353,
            "리": 354,
            "마": 355,
            "만": 356,
            "무": 357,
            "미": 358,
            "민": 359,
            "방": 360,
            "보": 361,
            "븐": 362,
            "사": 363,
            "생": 364,
            "서": 365,
            "세": 366,
            "소": 367,
            "수": 368,
            "스": 369,
            "시": 370,
            "아": 371,
            "어": 372,
            "에": 373,
            "엑": 374,
            "여": 375,
            "영": 376,
            "오": 377,
            "요": 378,
            "우": 379,
            "원": 380,
            "은": 381,
            "을": 382,
            "의": 383,
            "이": 384,
            "인": 385,
            "일": 386,
            "자": 387,
            "정": 388,
            "제": 389,
            "주": 390,
            "준": 391,
            "즈": 392,
            "지": 393,
            "진": 394,
            "크": 395,
            "타": 396,
            "탄": 397,
            "태": 398,
            "트": 399,
            "하": 400,
            "한": 401,
            "해": 402,
            "현": 403,
            "호": 404,
            "🎙": 405,
            "🏟": 406,
            "👁": 407,
            "🗣": 408,
            "▁e": 409,
            "ar": 410,
            "▁d": 411,
            "▁c": 412,
            "mo": 413,
            "▁p": 414,
            "▁l": 415,
            "▁a": 416,
            "▁de": 417,
            "io": 418,
            "▁s": 419,
            "er": 420,
            "as": 421,
            "en": 422,
            "▁m": 423,
            "us": 424,
            "an": 425,
            "ji": 426,
            "▁emo": 427,
            "▁emoji": 428,
            "▁t": 429,
            "os": 430,
            "ario": 431,
            "usu": 432,
            "usuario": 433,
            "ue": 434,
            "▁@usuario": 435,
            "or": 436,
            "on": 437,
            "▁h": 438,
            "▁u": 439,
            "ta": 440,
            "es": 441,
            "▁q": 442,
            "do": 443,
            "▁n": 444,
            "▁es": 445,
            "▁que": 446,
            "in": 447,
            "▁y": 448,
            "▁la": 449,
            "▁v": 450,
            "re": 451,
            "rl": 452,
            "al": 453,
            "▁url": 454,
            "▁en": 455,
            "▁f": 456,
            "ci": 457,
            "▁b": 458,
            "te": 459,
            "ara": 460,
            "is": 461,
            "▁el": 462,
            "da": 463,
            "▁con": 464,
            "▁has": 465,
            "ra": 466,
            "▁no": 467,
            "tag": 468,
            "htag": 469,
            "▁hashtag": 470,
            "to": 471,
            "ic": 472,
            "▁g": 473,
            "▁un": 474,
            "..": 475,
            "ien": 476,
            "▁me": 477,
            "▁se": 478,
            "ro": 479,
            "▁o": 480,
            "ón": 481,
            "ja": 482,
            "ol": 483,
            "▁cara": 484,
            "▁ha": 485,
            "ando": 486,
            "le": 487,
            "ti": 488,
            "la": 489,
            "▁co": 490,
            "mp": 491,
            "▁por": 492,
            "de": 493,
            "▁re": 494,
            "▁al": 495,
            "un": 496,
            "ch": 497,
            "▁r": 498,
            "▁lo": 499,
            "▁los": 500,
            "▁to": 501,
            "▁per": 502,
            "el": 503,
            "▁i": 504,
            "▁si": 505,
            "ui": 506,
            "ri": 507,
            "▁in": 508,
            "mos": 509,
            "▁mi": 510,
            "▁j": 511,
            "ora": 512,
            "ma": 513,
            "▁.": 514,
            "ia": 515,
            "▁para": 516,
            "go": 517,
            "▁cu": 518,
            "▁te": 519,
            "ía": 520,
            "lo": 521,
            "ca": 522,
            "▁est": 523,
            "▁ca": 524,
            "dos": 525,
            "▁su": 526,
            "ción": 527,
            "▁del": 528,
            "ion": 529,
            "ente": 530,
            "ba": 531,
            "▁las": 532,
            "jaja": 533,
            "▁una": 534,
            "di": 535,
            "vi": 536,
            "▁man": 537,
            "▁ma": 538,
            "▁le": 539,
            "ás": 540,
            "era": 541,
            "mb": 542,
            "iendo": 543,
            "...": 544,
            "dad": 545,
            "▁mu": 546,
            "cu": 547,
            "▁son": 548,
            "mi": 549,
            "▁des": 550,
            "▁w": 551,
            "ga": 552,
            "res": 553,
            "me": 554,
            "▁an": 555,
            "ec": 556,
            "co": 557,
            "ent": 558,
            "▁di": 559,
            "!!": 560,
            "▁vi": 561,
            "gu": 562,
            "▁th": 563,
            "▁yo": 564,
            "oy": 565,
            "cia": 566,
            "▁pa": 567,
            "▁ch": 568,
            "▁mo": 569,
            "que": 570,
            "tr": 571,
            "▁ll": 572,
            "▁cora": 573,
            "ica": 574,
            "▁\"": 575,
            "▁coraz": 576,
            "it": 577,
            "ce": 578,
            "ero": 579,
            "▁1": 580,
            "▁ten": 581,
            "▁qu": 582,
            "▁esta": 583,
            "jo": 584,
            "▁pero": 585,
            "▁como": 586,
            "▁na": 587,
            "za": 588,
            "tu": 589,
            "▁pro": 590,
            "▁pi": 591,
            "▁más": 592,
            "▁llor": 593,
            "isa": 594,
            "▁so": 595,
            "▁ver": 596,
            "▁ser": 597,
            "lar": 598,
            "▁as": 599,
            "ter": 600,
            "ran": 601,
            "tra": 602,
            "ab": 603,
            "▁ya": 604,
            "▁2": 605,
            "▁ap": 606,
            "▁ex": 607,
            "▁ar": 608,
            "ues": 609,
            "▁corazón": 610,
            "ing": 611,
            "cion": 612,
            "tos": 613,
            "▁llorando": 614,
            "▁po": 615,
            "▁par": 616,
            "il": 617,
            "pa": 618,
            "▁risa": 619,
            "tes": 620,
            "va": 621,
            "▁sonr": 622,
            "jos": 623,
            "tas": 624,
            "tar": 625,
            "▁qui": 626,
            "▁bu": 627,
            "▁tu": 628,
            "ve": 629,
            "ico": 630,
            "▁va": 631,
            "ul": 632,
            "ana": 633,
            "▁fa": 634,
            "das": 635,
            "ono": 636,
            "ir": 637,
            "se": 638,
            "▁sal": 639,
            "án": 640,
            "én": 641,
            "dio": 642,
            "▁pas": 643,
            "▁the": 644,
            "son": 645,
            "▁fu": 646,
            "vo": 647,
            "ez": 648,
            "ina": 649,
            "▁pue": 650,
            "▁ni": 651,
            "tor": 652,
            "▁k": 653,
            "▁sonriendo": 654,
            "▁ro": 655,
            "ten": 656,
            "▁ojos": 657,
            "qui": 658,
            "▁pe": 659,
            "▁sol": 660,
            "▁todo": 661,
            "▁ti": 662,
            "cer": 663,
            "dor": 664,
            "cha": 665,
            "men": 666,
            "ver": 667,
            "▁tra": 668,
            "▁person": 669,
            "tro": 670,
            "▁esto": 671,
            "ios": 672,
            "▁ta": 673,
            "der": 674,
            "▁ah": 675,
            "▁li": 676,
            "▁jaja": 677,
            "li": 678,
            "emp": 679,
            "▁pre": 680,
            "▁buen": 681,
            "mente": 682,
            "▁tien": 683,
            "no": 684,
            "sa": 685,
            "lan": 686,
            "▁ab": 687,
            "▁ac": 688,
            "▁hab": 689,
            "gar": 690,
            "▁res": 691,
            "ur": 692,
            "▁cas": 693,
            "▁(": 694,
            "▁mis": 695,
            "so": 696,
            "▁sin": 697,
            "▁da": 698,
            "▁mar": 699,
            "▁nos": 700,
            "ble": 701,
            "▁tan": 702,
            "▁este": 703,
            "ño": 704,
            "▁mano": 705,
            "cho": 706,
            "▁piel": 707,
            "▁hay": 708,
            "▁cuando": 709,
            "▁comp": 710,
            "ha": 711,
            "per": 712,
            "ud": 713,
            "▁tono": 714,
            "si": 715,
            "ru": 716,
            "iz": 717,
            "▁pu": 718,
            "▁-": 719,
            "▁¿": 720,
            "▁clar": 721,
            "▁com": 722,
            "▁cre": 723,
            "qu": 724,
            "▁he": 725,
            "▁ra": 726,
            "pe": 727,
            "tan": 728,
            "▁can": 729,
            "po": 730,
            "cias": 731,
            "▁gra": 732,
            "▁claro": 733,
            "bre": 734,
            "▁pen": 735,
            "ice": 736,
            "▁sa": 737,
            "▁cor": 738,
            "idad": 739,
            "oo": 740,
            "las": 741,
            "▁ne": 742,
            "▁men": 743,
            "▁sab": 744,
            "ales": 745,
            "ier": 746,
            "les": 747,
            "▁ven": 748,
            "▁hoy": 749,
            "▁lle": 750,
            "!!!": 751,
            "▁todos": 752,
            "den": 753,
            "des": 754,
            "és": 755,
            "00": 756,
            "je": 757,
            "▁manos": 758,
            "min": 759,
            "▁está": 760,
            "jor": 761,
            "▁porque": 762,
            "??": 763,
            "▁car": 764,
            "los": 765,
            "man": 766,
            "ños": 767,
            "▁mal": 768,
            "▁do": 769,
            "▁ba": 770,
            "▁mejor": 771,
            "▁ent": 772,
            "▁bo": 773,
            "▁ho": 774,
            "be": 775,
            "ita": 776,
            "▁eso": 777,
            "▁mas": 778,
            "▁bien": 779,
            "▁for": 780,
            "▁dis": 781,
            "▁of": 782,
            "erte": 783,
            "mas": 784,
            "▁día": 785,
            "ones": 786,
            "mar": 787,
            "eces": 788,
            "du": 789,
            "ici": 790,
            "ín": 791,
            "▁go": 792,
            "ras": 793,
            "▁ju": 794,
            "▁qué": 795,
            "▁persona": 796,
            "▁sus": 797,
            "▁be": 798,
            "▁imp": 799,
            "ciones": 800,
            "▁cos": 801,
            "▁fel": 802,
            "▁pres": 803,
            "▁amo": 804,
            "▁ban": 805,
            "ren": 806,
            "▁3": 807,
            "▁col": 808,
            "▁hacer": 809,
            "ts": 810,
            "▁¡": 811,
            "gun": 812,
            "▁and": 813,
            "▁medio": 814,
            "▁rev": 815,
            "▁cal": 816,
            "ún": 817,
            "▁lu": 818,
            "▁así": 819,
            "▁nada": 820,
            "ista": 821,
            "▁gran": 822,
            "ña": 823,
            "▁pri": 824,
            "▁vo": 825,
            "▁or": 826,
            "ber": 827,
            "▁fue": 828,
            "gan": 829,
            "na": 830,
            "▁muy": 831,
            "▁us": 832,
            "▁fr": 833,
            "ión": 834,
            "▁fin": 835,
            "iento": 836,
            "▁hace": 837,
            "▁les": 838,
            "▁on": 839,
            "▁vida": 840,
            "▁tiene": 841,
            "ho": 842,
            "▁ami": 843,
            "car": 844,
            "ías": 845,
            "▁estoy": 846,
            "ere": 847,
            "empre": 848,
            "ces": 849,
            "mbi": 850,
            "▁solo": 851,
            "▁x": 852,
            "▁ve": 853,
            "▁dor": 854,
            "▁quiero": 855,
            "▁nues": 856,
            "ito": 857,
            "▁siempre": 858,
            "▁gente": 859,
            "▁pr": 860,
            "▁fav": 861,
            "▁emp": 862,
            "▁20": 863,
            "tal": 864,
            "▁tengo": 865,
            "▁ahora": 866,
            "et": 867,
            "ado": 868,
            "por": 869,
            "▁pol": 870,
            "gui": 871,
            "o,": 872,
            "▁gracias": 873,
            "▁san": 874,
            "▁ter": 875,
            "che": 876,
            "▁ay": 877,
            "gra": 878,
            "▁you": 879,
            "▁is": 880,
            "▁hi": 881,
            "▁nue": 882,
            "ena": 883,
            "▁fal": 884,
            "▁gan": 885,
            "▁fo": 886,
            "▁favor": 887,
            "ven": 888,
            "pu": 889,
            "▁don": 890,
            "dera": 891,
            "dose": 892,
            "▁mun": 893,
            "id": 894,
            "▁her": 895,
            "uel": 896,
            "for": 897,
            "iste": 898,
            "zo": 899,
            "aa": 900,
            "▁pon": 901,
            "th": 902,
            "ís": 903,
            "▁fuerte": 904,
            "▁dos": 905,
            "▁gus": 906,
            "olvi": 908,
            "con": 909,
            "tros": 910,
            "ke": 911,
            "▁:": 912,
            "▁esp": 913,
            "▁hacia": 914,
            "▁deci": 915,
            "▁gu": 916,
            "endo": 917,
            "▁é": 918,
            "enta": 919,
            "ona": 920,
            "bajo": 921,
            "mer": 922,
            "encia": 923,
            "▁,": 924,
            "▁fe": 925,
            "▁voy": 926,
            "▁hu": 927,
            "▁sobre": 928,
            "▁estar": 929,
            "ll": 930,
            "van": 931,
            "▁au": 932,
            "jer": 933,
            "▁años": 934,
            "▁ir": 935,
            "▁4": 936,
            "bo": 937,
            "emos": 938,
            "at": 939,
            "éndose": 940,
            "▁hasta": 941,
            "ros": 942,
            "▁du": 943,
            "▁inter": 944,
            "▁ja": 945,
            "ido": 946,
            "dar": 947,
            "jar": 948,
            "can": 949,
            "ck": 950,
            "▁val": 951,
            "▁neces": 952,
            "▁bes": 953,
            "rar": 954,
            "▁cer": 955,
            "▁feliz": 956,
            "▁real": 957,
            "▁5": 958,
            "olviéndose": 959,
            "▁jjaja": 960,
            "▁revolviéndose": 961,
            "▁vez": 962,
            "tic": 963,
            "unca": 964,
            "mbre": 965,
            "o.": 966,
            "▁pla": 967,
            "▁algo": 968,
            "▁min": 969,
            "▁bandera": 970,
            "▁ga": 971,
            "▁parti": 972,
            "▁mucho": 973,
            "pon": 974,
            "ya": 975,
            "▁nunca": 976,
            "▁ese": 977,
            "ee": 978,
            "▁soy": 979,
            "tiva": 980,
            "ig": 981,
            "▁mad": 982,
            "▁casa": 983,
            "▁puede": 984,
            "▁pel": 985,
            "fer": 986,
            "▁entre": 987,
            "dr": 988,
            "▁os": 989,
            "▁much": 990,
            "▁desde": 991,
            "ante": 992,
            "cial": 993,
            "gue": 994,
            "▁jo": 995,
            "▁ins": 996,
            "if": 997,
            "erda": 998,
            "lla": 999,
            "▁esc": 1000,
            "▁pos": 1001,
            "tras": 1002,
            "▁apla": 1003,
            "gos": 1004,
            "▁toda": 1005,
            "par": 1006,
            "▁ob": 1007,
            "guien": 1008,
            "▁quien": 1009,
            "▁esa": 1010,
            "mbién": 1011,
            "ed": 1012,
            "▁tw": 1013,
            "miento": 1014,
            "bl": 1015,
            "▁sen": 1016,
            "gua": 1017,
            "▁también": 1018,
            "▁@usuario.": 1019,
            "▁ci": 1020,
            "▁señ": 1021,
            "▁bar": 1022,
            "▁exp": 1024,
            "▁conf": 1025,
            "ment": 1026,
            "ino": 1027,
            "bi": 1028,
            "▁vol": 1029,
            "▁aplaud": 1030,
            "as,": 1031,
            "▁eu": 1032,
            "▁dere": 1033,
            "▁reg": 1034,
            "▁mes": 1035,
            "ly": 1036,
            "ciendo": 1037,
            "▁aplaudiendo": 1038,
            "nos": 1039,
            "eron": 1040,
            "▁lin": 1041,
            "▁dar": 1042,
            "▁menos": 1043,
            "mento": 1044,
            "pi": 1045,
            "▁jun": 1046,
            "ola": 1047,
            "▁tiemp": 1048,
            "▁quer": 1049,
            "es,": 1050,
            "cep": 1051,
            "dice": 1052,
            "tir": 1053,
            "▁fle": 1054,
            "▁era": 1055,
            "▁ce": 1056,
            "▁we": 1057,
            "▁dios": 1058,
            "▁aca": 1059,
            "ut": 1060,
            "▁ín": 1061,
            "▁cons": 1062,
            "tando": 1063,
            "▁tener": 1064,
            "▁his": 1065,
            "bier": 1066,
            "\".": 1067,
            "▁segui": 1068,
            "▁ad": 1069,
            "▁op": 1070,
            "▁cr": 1071,
            "▁sea": 1072,
            "▁sí": 1073,
            "▁verdad": 1074,
            "ada": 1075,
            "cen": 1076,
            "▁días": 1077,
            "▁cosas": 1078,
            "gas": 1079,
            "▁estu": 1080,
            "ece": 1081,
            "▁índice": 1082,
            "▁jus": 1083,
            "▁mundo": 1084,
            "▁alguien": 1085,
            "bol": 1086,
            "▁cada": 1087,
            "▁có": 1088,
            "▁dic": 1089,
            "▁contra": 1090,
            "die": 1091,
            "toria": 1092,
            "ão": 1093,
            "▁mujer": 1094,
            "▁dorso": 1095,
            "▁espa": 1096,
            "lti": 1097,
            "▁están": 1098,
            "ismo": 1099,
            "es.": 1100,
            "▁pues": 1101,
            "ala": 1102,
            "▁mon": 1103,
            "mana": 1104,
            "cio": 1105,
            "▁tr": 1106,
            "tica": 1107,
            "cas": 1108,
            "▁at": 1109,
            "▁vis": 1110,
            "▁corazones": 1111,
            "ie": 1112,
            "ientes": 1113,
            "▁igu": 1114,
            "▁mañ": 1115,
            "os,": 1116,
            "ge": 1117,
            "rado": 1118,
            "▁hor": 1119,
            "▁amor": 1120,
            "▁vamos": 1121,
            "?.": 1122,
            "uela": 1123,
            "ío": 1124,
            "▁jue": 1125,
            "▁uno": 1126,
            "▁rec": 1127,
            "tado": 1128,
            "ano": 1129,
            "▁fi": 1130,
            "gi": 1131,
            "▁tar": 1132,
            "▁donde": 1133,
            "▁país": 1134,
            "▁it": 1135,
            "deo": 1136,
            "tin": 1137,
            "▁escu": 1138,
            "▁igual": 1139,
            "▁han": 1140,
            "▁gen": 1141,
            "tion": 1142,
            "zando": 1143,
            "▁nadie": 1144,
            "dores": 1145,
            "cional": 1146,
            "▁mañana": 1147,
            "br": 1148,
            "▁blan": 1149,
            "vir": 1150,
            "istas": 1151,
            "iza": 1152,
            "▁lla": 1153,
            "to,": 1154,
            "▁equi": 1155,
            "▁impor": 1156,
            "quí": 1157,
            "▁mismo": 1158,
            "▁cha": 1159,
            "▁tran": 1160,
            "▁cono": 1161,
            "▁gobier": 1162,
            "▁am": 1163,
            "▁frente": 1164,
            "▁año": 1165,
            "▁rep": 1166,
            "os.": 1167,
            "▁personas": 1168,
            "▁6": 1169,
            "dia": 1170,
            "▁def": 1171,
            "▁10": 1172,
            "▁lan": 1173,
            "▁mé": 1174,
            "▁ganas": 1175,
            "▁van": 1176,
            "▁creo": 1177,
            "ves": 1178,
            "???": 1179,
            "▁rojo": 1180,
            "lu": 1181,
            "▁z": 1182,
            "rec": 1183,
            "▁af": 1184,
            "▁bol": 1185,
            "▁segu": 1186,
            "aron": 1187,
            "!.": 1188,
            "▁bus": 1189,
            "▁may": 1190,
            "▁traba": 1191,
            "▁puedo": 1192,
            "▁super": 1193,
            "▁dia": 1194,
            "s.": 1195,
            "▁tanto": 1196,
            "ine": 1197,
            "▁pasa": 1198,
            "más": 1199,
            "tura": 1200,
            "▁pal": 1201,
            "▁aquí": 1202,
            "do.": 1203,
            "▁otro": 1204,
            "▁mer": 1205,
            "cuer": 1206,
            "▁decir": 1207,
            "▁mus": 1208,
            "▁...": 1209,
            "gen": 1210,
            "▁vos": 1211,
            "▁levan": 1212,
            "do,": 1213,
            "▁otra": 1214,
            "▁ol": 1215,
            "mil": 1216,
            "via": 1217,
            "▁cuenta": 1218,
            "▁inf": 1219,
            "▁tienen": 1220,
            "xico": 1221,
            "ad": 1222,
            "▁cump": 1223,
            "cre": 1224,
            "▁bueno": 1225,
            "▁pens": 1226,
            "▁pan": 1227,
            "var": 1228,
            "tivo": 1229,
            "▁#": 1230,
            "culo": 1231,
            "vid": 1232,
            "▁cómo": 1233,
            "▁tiempo": 1234,
            "▁venez": 1235,
            "▁bas": 1236,
            "▁pes": 1237,
            "cal": 1238,
            "▁7": 1239,
            "t;": 1240,
            "to.": 1241,
            "▁cual": 1242,
            "fe": 1243,
            "▁haciendo": 1244,
            "▁gobierno": 1245,
            "▁final": 1246,
            "ima": 1247,
            "▁quier": 1248,
            "dic": 1249,
            "▁boca": 1250,
            "▁mil": 1251,
            "tó": 1252,
            "pas": 1253,
            "▁8": 1254,
            "ias": 1255,
            "▁this": 1256,
            "pués": 1257,
            "▁plan": 1258,
            "▁dice": 1259,
            "▁camp": 1260,
            "▁grande": 1261,
            "gn": 1262,
            "jajajaja": 1263,
            "▁vuel": 1264,
            "▁nuevo": 1265,
            "má": 1266,
            "ted": 1267,
            "▁my": 1268,
            "▁después": 1269,
            "▁abajo": 1270,
            "▁beso": 1271,
            "gent": 1272,
            "tre": 1273,
            "▁algun": 1274,
            "▁cul": 1275,
            "ír": 1276,
            "▁ú": 1277,
            "ern": 1278,
            "▁tal": 1279,
            "▁mierda": 1280,
            "▁prim": 1281,
            "am": 1282,
            "iente": 1283,
            "bu": 1284,
            "tri": 1285,
            "vos": 1286,
            "ban": 1287,
            "ían": 1288,
            "js": 1289,
            "fa": 1290,
            "▁den": 1291,
            "▁esper": 1292,
            "pues": 1293,
            "▁semana": 1294,
            "▁az": 1295,
            "pen": 1296,
            "▁todas": 1297,
            "▁uni": 1298,
            "▁bal": 1299,
            "arios": 1300,
            "cel": 1301,
            "una": 1302,
            "forma": 1303,
            "▁gusta": 1304,
            "▁eres": 1305,
            "▁chi": 1306,
            "▁dan": 1307,
            "mir": 1308,
            "'s": 1309,
            "▁arri": 1310,
            "as.": 1311,
            "▁pensa": 1312,
            "dan": 1313,
            "tada": 1314,
            "▁antes": 1315,
            "ea": 1316,
            "▁poco": 1317,
            "▁abra": 1318,
            "cil": 1319,
            "▁9": 1320,
            "▁gol": 1321,
            "▁nuestro": 1322,
            "▁últi": 1323,
            "▁ale": 1324,
            "blo": 1325,
            "ril": 1326,
            "▁sé": 1327,
            "▁poder": 1328,
            "ores": 1329,
            "tico": 1330,
            "▁só": 1331,
            "▁sonrientes": 1332,
            "tbol": 1333,
            "▁sh": 1334,
            "▁derecha": 1335,
            "▁estamos": 1336,
            "▁temp": 1337,
            "▁reci": 1338,
            "▁gi": 1339,
            "▁extra": 1340,
            "▁&": 1341,
            "▁estos": 1342,
            "▁blanco": 1343,
            "▁ag": 1344,
            "▁mie": 1345,
            "iones": 1346,
            "esta": 1347,
            "▁foto": 1348,
            "▁wit": 1349,
            "▁rt": 1350,
            "entes": 1351,
            "▁wh": 1352,
            "olo": 1353,
            "▁ri": 1354,
            "▁fun": 1355,
            "▁pregun": 1356,
            "▁url.": 1357,
            "haha": 1358,
            "▁polí": 1359,
            "▁presid": 1360,
            "mal": 1361,
            "▁all": 1362,
            "▁that": 1363,
            "ér": 1364,
            "▁dej": 1365,
            "▁ún": 1366,
            "▁veces": 1367,
            ").": 1368,
            "zar": 1369,
            "▁tú": 1370,
            "ne": 1371,
            "imo": 1372,
            ":.": 1373,
            "▁sue": 1374,
            "▁tus": 1375,
            "gh": 1376,
            "▁pun": 1377,
            "ds": 1378,
            "▁parte": 1379,
            "▁momento": 1380,
            "oración": 1381,
            "▁trabajo": 1382,
            "udad": 1383,
            "ay": 1384,
            "mes": 1385,
            "▁vía": 1386,
            "icos": 1387,
            "char": 1388,
            "▁parece": 1389,
            "▁har": 1390,
            "tante": 1391,
            "▁sos": 1392,
            "▁tor": 1393,
            "▁falta": 1394,
            "vis": 1395,
            "▁gui": 1396,
            "▁cele": 1397,
            "▁ima": 1398,
            "a,": 1399,
            "▁hermos": 1400,
            "vel": 1401,
            "▁arriba": 1402,
            "vio": 1403,
            "ral": 1404,
            "▁twit": 1405,
            "▁comun": 1406,
            "▁0": 1407,
            "▁argent": 1408,
            "▁somos": 1409,
            "▁noche": 1410,
            "ible": 1411,
            "icio": 1412,
            "▁cap": 1413,
            "cl": 1414,
            "rá": 1415,
            "uda": 1416,
            "▁ciudad": 1417,
            "▁ahí": 1418,
            "▁with": 1419,
            "▁bon": 1420,
            "▁video": 1421,
            "▁perf": 1422,
            "a.": 1423,
            "▁music": 1424,
            "bar": 1425,
            "▁apro": 1426,
            "▁apoy": 1427,
            "▁pin": 1428,
            "▁via": 1429,
            "▁hora": 1430,
            "▁estas": 1431,
            "▁|": 1432,
            "cri": 1433,
            "▁azul": 1434,
            "ta,": 1435,
            "▁ellos": 1436,
            "icar": 1437,
            "▁ojo": 1438,
            "▁vas": 1439,
            "yo": 1440,
            "tv": 1441,
            "cción": 1442,
            "pp": 1443,
            "▁sub": 1444,
            "▁venezuela": 1445,
            "▁salud": 1446,
            "▁queda": 1447,
            "....": 1448,
            "▁presidente": 1449,
            "▁colo": 1450,
            "▁nueva": 1451,
            "ta.": 1452,
            "▁vio": 1453,
            "vas": 1454,
            "▁ella": 1455,
            "tad": 1456,
            "▁quiere": 1457,
            "ctor": 1458,
            "llo": 1459,
            "▁ben": 1460,
            "▁direc": 1461,
            "▁madre": 1462,
            "▁aun": 1463,
            "▁covid": 1464,
            "úbl": 1465,
            "iene": 1466,
            "mis": 1467,
            "mina": 1468,
            "▁mí": 1469,
            "▁dejar": 1470,
            "▁?": 1471,
            "▁sor": 1472,
            "ff": 1473,
            "▁ade": 1474,
            "▁cabe": 1475,
            "titu": 1476,
            "ridad": 1477,
            "▁201": 1478,
            "▁cuar": 1479,
            "▁respon": 1480,
            "▁debe": 1481,
            "▁estaba": 1482,
            "▁lanzando": 1483,
            "ill": 1484,
            "▁nuestra": 1485,
            "rr": 1486,
            "▁dormir": 1487,
            "▁fan": 1488,
            "▁fuego": 1489,
            "ks": 1490,
            "ian": 1491,
            "trar": 1492,
            "lante": 1493,
            "▁clas": 1494,
            "▁oración": 1495,
            "da,": 1496,
            "lor": 1497,
            "▁termin": 1498,
            "tual": 1499,
            "▁nor": 1500,
            "▁amigos": 1501,
            "qué": 1502,
            "▁señal": 1503,
            "icación": 1504,
            "▁prof": 1505,
            "▁deja": 1506,
            "▁proble": 1507,
            "▁será": 1508,
            "▁je": 1509,
            "▁buena": 1510,
            "ka": 1511,
            "▁mill": 1512,
            "▁seguir": 1513,
            "▁historia": 1514,
            "▁@usuario,": 1515,
            "▁salir": 1516,
            "gt;": 1517,
            "gún": 1518,
            "▁19": 1519,
            "útbol": 1520,
            "▁!": 1521,
            "▁flecha": 1522,
            "mia": 1523,
            "▁pelo": 1524,
            "▁á": 1525,
            "▁estado": 1526,
            "▁gri": 1527,
            "▁escri": 1528,
            "ionado": 1529,
            "len": 1530,
            "pos": 1531,
            "mon": 1532,
            "▁primer": 1533,
            "gres": 1534,
            "low": 1535,
            "cios": 1536,
            "▁corona": 1537,
            "cur": 1538,
            "▁trans": 1539,
            "▁unos": 1540,
            "▁fútbol": 1541,
            "one": 1542,
            "ss": 1543,
            "tón": 1544,
            "▁españa": 1545,
            "da.": 1546,
            "▁perd": 1547,
            "ac": 1548,
            "▁muchas": 1549,
            "▁tenemos": 1550,
            "▁miedo": 1551,
            "▁social": 1552,
            "tif": 1553,
            "▁bel": 1554,
            "▁ide": 1555,
            "jas": 1556,
            "ich": 1557,
            "mbia": 1558,
            "▁comer": 1559,
            "▁marca": 1560,
            "▁..": 1561,
            "cos": 1562,
            "▁homb": 1563,
            "▁cri": 1564,
            "▁are": 1565,
            "gro": 1566,
            "val": 1567,
            "▁méxico": 1568,
            "milia": 1569,
            "anos": 1570,
            "▁vic": 1571,
            "▁cent": 1572,
            "quier": 1573,
            "▁lib": 1574,
            "rid": 1575,
            "▁cír": 1576,
            "use": 1577,
            "▁cuer": 1578,
            "▁compar": 1579,
            "cuerdo": 1580,
            "▁él": 1581,
            "dir": 1582,
            "▁amigo": 1583,
            "▁cl": 1584,
            "▁círculo": 1585,
            "▁equipo": 1586,
            "▁fuera": 1587,
            "▁segun": 1588,
            "op": 1589,
            "▁dijo": 1590,
            "itar": 1591,
            "▁estre": 1592,
            "▁flex": 1593,
            "▁mtv": 1594,
            "▁cier": 1595,
            "▁felici": 1596,
            "▁hablar": 1597,
            "▁cabeza": 1598,
            "▁hecho": 1599,
            "eando": 1600,
            "▁desa": 1601,
            "s,": 1602,
            "▁twitter": 1603,
            "ger": 1604,
            "▁puta": 1605,
            "▁peor": 1606,
            "000": 1607,
            "▁amar": 1608,
            "eros": 1609,
            "y.": 1610,
            "▁hacen": 1611,
            "▁sabe": 1612,
            "lea": 1613,
            "▁pasar": 1614,
            "ñando": 1615,
            "▁cá": 1616,
            "▁forma": 1617,
            "▁siento": 1618,
            "▁dif": 1619,
            "▁din": 1620,
            "▁mien": 1621,
            "otros": 1622,
            "eo": 1623,
            "▁não": 1624,
            "▁deber": 1625,
            "▁familia": 1626,
            "▁bí": 1627,
            "ús": 1628,
            "▁frío": 1629,
            "▁len": 1630,
            "▁ru": 1631,
            "▁argentina": 1632,
            "▁esos": 1633,
            "▁vie": 1634,
            "▁asi": 1635,
            "▁buenos": 1636,
            "▁juga": 1637,
            "▁by": 1638,
            "▁saber": 1639,
            "▁sólo": 1640,
            "▁poner": 1641,
            "ceps": 1642,
            "▁che": 1643,
            "▁bíceps": 1644,
            "▁comi": 1645,
            "▁ning": 1646,
            "▁ví": 1647,
            "▁elec": 1648,
            "dido": 1649,
            "▁pul": 1650,
            "▁veo": 1651,
            "▁tri": 1652,
            "ale": 1653,
            "▁sudor": 1654,
            "▁informa": 1655,
            "mm": 1656,
            "▁flexionado": 1657,
            "vil": 1658,
            "▁wha": 1659,
            "bil": 1660,
            "▁primera": 1661,
            "▁br": 1662,
            "▁pra": 1663,
            "ii": 1664,
            "▁mira": 1665,
            "▁chis": 1666,
            "▁partido": 1667,
            "itos": 1668,
            "▁xd": 1669,
            "▁sigue": 1670,
            "▁nacional": 1671,
            "▁necesito": 1672,
            "▁bab": 1673,
            "ticia": 1674,
            "rir": 1675,
            "▁domin": 1676,
            "▁públ": 1677,
            "tadas": 1678,
            "antes": 1679,
            "▁medi": 1680,
            "t.": 1681,
            "▁conse": 1682,
            "añ": 1683,
            "tis": 1684,
            "alo": 1685,
            "▁invi": 1686,
            "▁pensativa": 1687,
            "▁your": 1688,
            "▁lugar": 1689,
            "▁olvi": 1690,
            "▁cris": 1691,
            "▁tro": 1692,
            "▁encan": 1693,
            "eral": 1694,
            "izo": 1695,
            "ior": 1696,
            "ción.": 1697,
            "tido": 1698,
            "▁pueblo": 1699,
            "▁cru": 1700,
            "▁ros": 1701,
            "ty": 1702,
            "tru": 1703,
            "bles": 1704,
            "▁pueden": 1705,
            "ton": 1706,
            "▁ley": 1707,
            "tedes": 1708,
            "dades": 1709,
            "kk": 1710,
            "▁triste": 1711,
            "▁morado": 1712,
            "uego": 1713,
            "▁mientras": 1714,
            "▁pien": 1715,
            "▁ali": 1716,
            "▁hombre": 1717,
            "▁enten": 1718,
            "▁[": 1719,
            "um": 1720,
            "▁mayor": 1721,
            "▁podr": 1722,
            "hi": 1723,
            "para": 1724,
            "▁espero": 1725,
            "▁tienes": 1726,
            "▁oj": 1727,
            "ida": 1728,
            "demos": 1729,
            "▁cui": 1730,
            "bación": 1731,
            "▁defen": 1732,
            "port": 1733,
            "▁recor": 1734,
            "▁espe": 1735,
            "▁15": 1736,
            "ital": 1737,
            "▁auto": 1738,
            "▁gana": 1739,
            "dre": 1740,
            "▁nar": 1741,
            "hh": 1742,
            "▁aten": 1743,
            "▁*": 1744,
            "rup": 1745,
            "▁sho": 1746,
            "ecto": 1747,
            "▁madrid": 1748,
            "▁imag": 1749,
            "▁mos": 1750,
            "uu": 1751,
            "▁wor": 1752,
            "ys": 1753,
            "\",": 1754,
            "llas": 1755,
            "▁volver": 1756,
            "▁love": 1757,
            "icas": 1758,
            "olu": 1759,
            "e.": 1760,
            "▁gar": 1761,
            "▁aunque": 1762,
            "▁ustedes": 1763,
            "▁liber": 1764,
            "ual": 1765,
            "▁llega": 1766,
            "▁amiga": 1767,
            "▁pap": 1768,
            "▁disf": 1769,
            "onces": 1770,
            "▁/": 1771,
            "fi": 1772,
            "bas": 1773,
            "cando": 1774,
            "▁respe": 1775,
            "amp": 1776,
            "bal": 1777,
            "▁'": 1778,
            "tados": 1779,
            "▁apar": 1780,
            "▁produ": 1781,
            "guen": 1782,
            "elo": 1783,
            "sab": 1784,
            "▁ayer": 1785,
            "▁edu": 1786,
            "▁fotos": 1787,
            "mu": 1788,
            "▁bril": 1789,
            "▁muchos": 1790,
            "▁guiñando": 1791,
            "▁otros": 1792,
            "▁apren": 1793,
            "▁encon": 1794,
            "▁horas": 1795,
            "▁ani": 1796,
            "▁tarde": 1797,
            "tua": 1798,
            "ísi": 1799,
            "entar": 1800,
            "▁cambi": 1801,
            "▁what": 1802,
            "▁muer": 1803,
            "▁cur": 1804,
            "▁rela": 1805,
            "▁new": 1806,
            "▁casi": 1807,
            "▁like": 1808,
            "▁lindo": 1809,
            "pm": 1810,
            "▁llama": 1811,
            "▁luego": 1812,
            "▁polic": 1813,
            "ción,": 1814,
            "▁fran": 1815,
            "▁:(": 1816,
            "eta": 1817,
            "tamente": 1818,
            "ting": 1819,
            "don": 1820,
            "▁hizo": 1821,
            "vers": 1822,
            "▁aún": 1823,
            "▁profes": 1824,
            "▁mor": 1825,
            "lica": 1826,
            "illo": 1827,
            "▁ele": 1828,
            "▁ren": 1829,
            "▁digo": 1830,
            "sión": 1831,
            "▁habla": 1832,
            "▁dicen": 1833,
            "bado": 1834,
            "▁12": 1835,
            "▁haber": 1836,
            "ers": 1837,
            "▁gua": 1838,
            "▁tipo": 1839,
            "▁loco": 1840,
            "▁gas": 1841,
            "lando": 1842,
            "▁viene": 1843,
            "▁vir": 1844,
            "▁deb": 1845,
            "▁gru": 1846,
            "▁espera": 1847,
            "virus": 1848,
            "bra": 1849,
            "▁cosa": 1850,
            "esti": 1851,
            "erra": 1852,
            "▁ante": 1853,
            "amp;": 1854,
            "▁amb": 1855,
            "▁!!!": 1856,
            "cía": 1857,
            "▁not": 1858,
            "ura": 1859,
            "▁fuer": 1860,
            "mor": 1861,
            "▁tras": 1862,
            "cuent": 1863,
            "▁bor": 1864,
            "ular": 1865,
            "▁nosotros": 1866,
            "▁notas": 1867,
            "chos": 1868,
            "▁llegar": 1869,
            "▁+": 1870,
            "▁ama": 1871,
            "te.": 1872,
            "▁estudi": 1873,
            "cis": 1874,
            "tina": 1875,
            "gando": 1876,
            "▁ur": 1877,
            "▁sido": 1878,
            "▁cualquier": 1879,
            "entena": 1880,
            "▁progra": 1881,
            "óx": 1882,
            "▁minu": 1883,
            "▁odio": 1884,
            "ial": 1885,
            "ear": 1886,
            "▁raz": 1887,
            "▁publ": 1888,
            "mien": 1889,
            "▁hola": 1890,
            "y,": 1891,
            "comp": 1892,
            "▁em": 1893,
            "▁estás": 1894,
            "▁tomar": 1895,
            "cido": 1896,
            "▁bro": 1897,
            "▁había": 1898,
            "brando": 1899,
            "▁camb": 1900,
            "▁come": 1901,
            "e,": 1902,
            "pera": 1903,
            "pro": 1904,
            "▁coronavirus": 1905,
            "ándo": 1906,
            "▁empres": 1907,
            "&gt;": 1908,
            "▁mucha": 1909,
            "uso": 1910,
            "mentos": 1911,
            "▁paso": 1912,
            "▁interes": 1913,
            "▁soci": 1914,
            "▁lengua": 1915,
            "▁difer": 1916,
            "▁dol": 1917,
            "▁but": 1918,
            "fas": 1919,
            "dica": 1920,
            "edad": 1921,
            "d.": 1922,
            "▁chispas": 1923,
            "▁palab": 1924,
            "▁sex": 1925,
            "king": 1926,
            "dió": 1927,
            "▁dinero": 1928,
            "alá": 1929,
            "ria": 1930,
            "▁único": 1931,
            "ció": 1932,
            "▁11": 1933,
            "▁bts": 1934,
            "▁no,": 1935,
            "cul": 1936,
            "m.": 1937,
            "▁suf": 1938,
            "té": 1939,
            "te,": 1940,
            "▁one": 1941,
            "▁goo": 1942,
            "▁comple": 1943,
            "▁quieren": 1944,
            "cor": 1945,
            "▁sueño": 1946,
            "ícu": 1947,
            "▁viern": 1948,
            "▁human": 1949,
            "▁was": 1950,
            "▁cuarentena": 1951,
            "▁señor": 1952,
            "fo": 1953,
            "ollow": 1954,
            "có": 1955,
            "▁balón": 1956,
            "▁cla": 1957,
            "vía": 1958,
            "▁total": 1959,
            "ió": 1960,
            "til": 1961,
            "cip": 1962,
            "cn": 1963,
            "▁visto": 1964,
            "▁herman": 1965,
            "ook": 1966,
            "▁up": 1967,
            "▁just": 1968,
            "▁brillante": 1969,
            "▁esas": 1970,
            "▁disfru": 1971,
            "col": 1972,
            "▁pulgar": 1973,
            "dos.": 1974,
            "▁chile": 1975,
            "▁celebrando": 1976,
            "éis": 1977,
            "▁ai": 1978,
            "▁hue": 1979,
            "rante": 1980,
            "▁blo": 1981,
            "▁serv": 1982,
            "▁pod": 1983,
            "▁agu": 1984,
            "▁tele": 1985,
            "▁seguro": 1986,
            "▁cho": 1987,
            "▁unas": 1988,
            "▁tenía": 1989,
            "▁pasado": 1990,
            "mara": 1991,
            "▁agua": 1992,
            "▁cel": 1993,
            "▁corrup": 1994,
            "▁have": 1995,
            "imada": 1996,
            "▁quién": 1997,
            "ches": 1998,
            "vin": 1999,
            "▁domingo": 2000,
            "▁fir": 2001,
            "est": 2002,
            "▁2020": 2003,
            "▁entonces": 2004,
            "▁necesita": 2005,
            "▁$": 2006,
            "eti": 2007,
            "▁pare": 2008,
            "itas": 2009,
            "▁jugar": 2010,
            "▁nuestros": 2011,
            "izar": 2012,
            "▁calle": 2013,
            "▁jajajaja": 2014,
            "▁empez": 2015,
            "▁lit": 2016,
            "menta": 2017,
            "▁educa": 2018,
            "▁desan": 2019,
            "gía": 2020,
            "▁camin": 2021,
            "▁lar": 2022,
            "▁prin": 2023,
            "▁um": 2024,
            "▁pensar": 2025,
            "▁ojalá": 2026,
            "▁18": 2027,
            "▁encuent": 2028,
            "▁quedar": 2029,
            "▁agra": 2030,
            "▁resul": 2031,
            "▁iz": 2032,
            "dida": 2033,
            "▁alto": 2034,
            "▁tema": 2035,
            "ps": 2036,
            "▁inten": 2037,
            "▁wa": 2038,
            "▁oscu": 2039,
            "▁millones": 2040,
            "▁euro": 2041,
            "▁salu": 2042,
            "▁acuerdo": 2043,
            "▁hos": 2044,
            "and": 2045,
            "ant": 2046,
            "▁musicales": 2047,
            "gida": 2048,
            "▁chin": 2049,
            "▁tru": 2050,
            "▁colombia": 2051,
            "ini": 2052,
            "▁ref": 2053,
            "▁reco": 2054,
            "▁inte": 2055,
            "▁próx": 2056,
            "▁recu": 2057,
            "▁verde": 2058,
            "▁romp": 2059,
            "▁abo": 2060,
            "wn": 2061,
            "ms": 2062,
            "rados": 2063,
            "aria": 2065,
            "▁ji": 2066,
            "lo.": 2067,
            "▁mujeres": 2068,
            "▁levantadas": 2069,
            "idades": 2070,
            "▁hici": 2071,
            "▁acá": 2072,
            "▁prop": 2073,
            "▁paz": 2074,
            "▁guar": 2075,
            "▁tur": 2076,
            "▁puedes": 2077,
            "vidad": 2078,
            "yas": 2079,
            "▁desanimada": 2080,
            "ye": 2081,
            "migo": 2082,
            "▁iba": 2083,
            "▁jul": 2084,
            "▁&amp;": 2085,
            "▁sabes": 2086,
            "▁vaya": 2087,
            "▁et": 2088,
            "jes": 2089,
            "▁sale": 2090,
            "▁pl": 2091,
            "'t": 2092,
            "▁fro": 2093,
            "▁caso": 2094,
            "▁gal": 2096,
            "▁ases": 2097,
            "▁jor": 2098,
            "▁viernes": 2099,
            "▁buenas": 2100,
            "▁cuan": 2101,
            "lado": 2102,
            "embre": 2103,
            "▁posi": 2104,
            "▁mejores": 2105,
            "▁ayud": 2106,
            "▁wo": 2107,
            "▁negro": 2108,
            "▁sino": 2109,
            "gó": 2110,
            "dez": 2111,
            "icial": 2112,
            "▁lun": 2113,
            "▁entr": 2114,
            "eet": 2115,
            "▁tres": 2116,
            "▁av": 2117,
            "▁actual": 2118,
            "▁100": 2119,
            "▁victoria": 2120,
            "▁ps": 2121,
            "tel": 2122,
            "gado": 2123,
            "▁top": 2124,
            "tencia": 2125,
            "▁mamá": 2126,
            "▁compañ": 2127,
            "▁enci": 2128,
            "chas": 2129,
            "▁enco": 2130,
            "lub": 2131,
            "dial": 2132,
            "lo,": 2133,
            "▁due": 2134,
            "▁sá": 2135,
            "▁misma": 2136,
            "▁hago": 2137,
            "gre": 2138,
            "▁entra": 2139,
            "pre": 2140,
            "▁problema": 2141,
            "jaj": 2142,
            "▁lado": 2143,
            "ell": 2144,
            "▁more": 2145,
            "dal": 2146,
            "▁ej": 2147,
            "▁tre": 2148,
            "▁sig": 2149,
            "zas": 2150,
            "▁opin": 2151,
            "▁art": 2152,
            "▁simp": 2153,
            "cado": 2154,
            "▁mara": 2155,
            "▁vivir": 2156,
            "▁ever": 2157,
            "igh": 2158,
            "has": 2159,
            "▁than": 2160,
            "he": 2161,
            "▁llorar": 2162,
            "▁nota": 2163,
            "▁mono": 2164,
            "▁out": 2165,
            "▁manera": 2166,
            "gia": 2167,
            "▁lleva": 2168,
            "erto": 2169,
            "▁importante": 2170,
            "dos,": 2171,
            "bir": 2172,
            "illa": 2173,
            "ñas": 2174,
            "▁perio": 2175,
            "▁prem": 2176,
            "▁programa": 2177,
            "▁usted": 2178,
            "▁comida": 2179,
            "gal": 2180,
            "▁30": 2181,
            "▁lab": 2182,
            "▁nivel": 2183,
            "▁peque": 2184,
            "ki": 2185,
            "▁grupo": 2186,
            "▁ton": 2187,
            "diendo": 2188,
            "ry": 2189,
            "tima": 2190,
            "▁extraño": 2191,
            "▁ganar": 2192,
            "▁algún": 2193,
            "▁hombros": 2194,
            "▁escuchar": 2195,
            "usa": 2196,
            "▁grandes": 2197,
            "▁chu": 2198,
            "▁capa": 2199,
            "▁proy": 2200,
            "▁hijo": 2201,
            "ocu": 2202,
            "▁fami": 2203,
            "▁club": 2204,
            "▁il": 2205,
            "▁from": 2206,
            "tos,": 2207,
            "▁policía": 2208,
            "inos": 2209,
            "rea": 2210,
            "▁pier": 2211,
            "zos": 2212,
            "▁some": 2213,
            "▁pobre": 2214,
            "dy": 2215,
            "mpo": 2216,
            "▁sur": 2217,
            "st": 2218,
            "▁incre": 2219,
            "▁flor": 2220,
            "▁tui": 2221,
            "ist": 2222,
            "▁trabaja": 2223,
            "gü": 2224,
            "▁sería": 2225,
            "cono": 2226,
            "cra": 2227,
            "demia": 2228,
            "▁consi": 2229,
            "▁bra": 2230,
            "▁podemos": 2231,
            "▁má": 2232,
            "tivos": 2233,
            "eno": 2234,
            "▁comprar": 2235,
            "iden": 2236,
            "▁encogida": 2237,
            "▁entiendo": 2238,
            "▁és": 2239,
            "ticos": 2240,
            "▁dur": 2241,
            "iado": 2242,
            "▁enfer": 2243,
            "▁interna": 2244,
            "▁vale": 2245,
            "▁cien": 2246,
            "▁tapa": 2247,
            "▁mensa": 2248,
            "tos.": 2249,
            "▁sacar": 2250,
            "▁will": 2251,
            "▁nu": 2252,
            "▁ayuda": 2253,
            "▁pq": 2254,
            "ko": 2255,
            "▁prote": 2256,
            "ite": 2257,
            "▁oscuro": 2258,
            "▁exper": 2259,
            "▁cambio": 2260,
            "▁mundial": 2261,
            "▁información": 2262,
            "▁mús": 2263,
            "▁pende": 2264,
            "▁viendo": 2265,
            "▁they": 2266,
            "▁conta": 2267,
            "▁aque": 2268,
            "ex": 2269,
            "ñar": 2270,
            "▁play": 2271,
            "▁juego": 2272,
            "▁gato": 2273,
            "▁fil": 2274,
            "▁cumplea": 2275,
            "▁siendo": 2276,
            "▁demas": 2277,
            "▁vivo": 2278,
            "▁enf": 2279,
            "day": 2280,
            "pres": 2281,
            "gel": 2282,
            "▁suerte": 2283,
            "dado": 2284,
            "▁2019": 2285,
            "▁!!": 2286,
            "▁especial": 2287,
            "▁funcion": 2288,
            "▁int": 2289,
            "icios": 2290,
            "▁nombre": 2291,
            "▁ig": 2292,
            "▁gor": 2293,
            "▁menti": 2294,
            "ase": 2295,
            "tia": 2296,
            "▁pron": 2297,
            ":00": 2298,
            "▁demo": 2299,
            "▁organ": 2300,
            "▁sentir": 2301,
            "▁españ": 2302,
            "▁tendr": 2303,
            "▁durante": 2304,
            "▁haga": 2305,
            "▁meses": 2306,
            "▁depor": 2307,
            "▁preocu": 2308,
            "ional": 2309,
            "▁fiesta": 2310,
            "▁encima": 2311,
            "uld": 2312,
            "tigo": 2313,
            "▁niños": 2314,
            "▁saben": 2315,
            "▁realidad": 2316,
            "▁sta": 2317,
            "▁var": 2318,
            "▁pone": 2319,
            "▁futu": 2320,
            "ung": 2321,
            "▁conmigo": 2322,
            "▁if": 2323,
            "▁minis": 2324,
            "▁cumpleaños": 2325,
            "▁perfil": 2326,
            "▁juan": 2327,
            "▁normal": 2328,
            "ong": 2329,
            "▁im": 2330,
            "gio": 2331,
            "▁leer": 2332,
            "▁14": 2333,
            "cidad": 2334,
            "ctu": 2335,
            "▁sigo": 2336,
            "▁política": 2337,
            "▁todavía": 2338,
            "▁edi": 2339,
            "▁now": 2340,
            "ix": 2341,
            "▁repres": 2342,
            "▁hijos": 2343,
            "▁primero": 2344,
            "▁za": 2345,
            "vent": 2346,
            "▁justicia": 2347,
            "▁mic": 2348,
            "▁gafas": 2349,
            "▁babeando": 2350,
            "▁fra": 2351,
            "▁period": 2352,
            "▁kkk": 2353,
            "▁i'": 2354,
            "▁anda": 2355,
            "▁mtvla": 2356,
            "▁cues": 2357,
            "▁tempora": 2358,
            "▁ano": 2359,
            "▁¿qué": 2360,
            "bla": 2361,
            "▁sola": 2362,
            "▁emb": 2363,
            "▁dé": 2364,
            "▁radi": 2365,
            "mpoco": 2366,
            "aña": 2367,
            "▁24": 2368,
            "▁aprobación": 2369,
            "ciente": 2370,
            "▁confeti": 2371,
            "inas": 2372,
            "▁arre": 2373,
            "▁contin": 2374,
            "fono": 2375,
            "▁ata": 2376,
            "uncia": 2377,
            "ría": 2378,
            "▁media": 2379,
            "▁expres": 2380,
            "güen": 2381,
            "ecer": 2382,
            "▁trabajar": 2383,
            "▁tampoco": 2384,
            "▁lpm": 2385,
            "▁campe": 2386,
            "▁inde": 2387,
            "ál": 2388,
            "▁ka": 2389,
            "▁viol": 2390,
            "▁situa": 2391,
            "▁si,": 2392,
            "▁partici": 2393,
            "ese": 2394,
            "▁acaba": 2395,
            "taron": 2396,
            "▁tranqui": 2397,
            "▁dio": 2398,
            "▁importa": 2399,
            "amo": 2400,
            "▁radiante": 2401,
            "▁roto": 2402,
            "▁copa": 2404,
            "▁ago": 2405,
            "▁serio": 2406,
            "▁jajajajajaja": 2407,
            "▁cua": 2408,
            "ador": 2409,
            "quierda": 2410,
            "▁beb": 2411,
            "▁orgu": 2412,
            "▁razón": 2413,
            "dora": 2414,
            "▁lis": 2415,
            "esto": 2416,
            "ick": 2417,
            "▁además": 2418,
            "▁fer": 2419,
            "▁personal": 2420,
            "ris": 2421,
            "▁desper": 2422,
            "▁bla": 2423,
            "ard": 2424,
            "▁contro": 2425,
            "▁bb": 2426,
            "▁mala": 2427,
            "▁sele": 2428,
            "▁estrellas": 2429,
            "ph": 2430,
            "▁demás": 2431,
            "▁radio": 2432,
            "▁chan": 2433,
            "ican": 2434,
            "▁tir": 2435,
            "ght": 2436,
            "ther": 2437,
            "▁meu": 2438,
            "mando": 2439,
            "rada": 2440,
            "▁fá": 2441,
            "▁plata": 2442,
            "tiendo": 2443,
            "▁13": 2444,
            "▁day": 2445,
            "ça": 2446,
            "sos": 2447,
            "▁música": 2448,
            "cimiento": 2449,
            "ar,": 2450,
            "tagra": 2451,
            "erta": 2452,
            "▁izquierda": 2453,
            "▁dec": 2454,
            "▁inves": 2455,
            "▁follow": 2456,
            "▁gritando": 2457,
            "▁creer": 2458,
            "vés": 2459,
            "▁ef": 2460,
            "mba": 2461,
            "▁desp": 2462,
            "▁famili": 2463,
            "tación": 2464,
            "▁coment": 2465,
            "▁última": 2466,
            "▁pelícu": 2467,
            "ificación": 2468,
            "▁lunes": 2469,
            "ar.": 2470,
            "lt;": 2471,
            "▁anti": 2472,
            "icia": 2473,
            "▁toma": 2474,
            "▁quis": 2475,
            "▁glo": 2476,
            "▁ok": 2477,
            "▁confir": 2478,
            "▁abrazando": 2479,
            "▁serie": 2480,
            "▁haya": 2481,
            "▁jos": 2482,
            "▁ves": 2483,
            "tt": 2484,
            "m,": 2485,
            "▁pis": 2486,
            "▁encanta": 2487,
            "ró": 2488,
            "▁pagar": 2489,
            "▁bi": 2490,
            "▁16": 2491,
            "▁linda": 2492,
            "ticas": 2493,
            "▁amarillo": 2494,
            "▁abier": 2495,
            "ifica": 2496,
            "▁perro": 2497,
            "▁cerrados": 2498,
            "rio": 2499,
            "tá": 2500,
            "▁perder": 2501,
            "▁incl": 2502,
            "▁cole": 2503,
            "▁cámara": 2504,
            "▁punto": 2505,
            "portun": 2506,
            "▁17": 2507,
            "▁aw": 2508,
            "▁evi": 2509,
            "▁quere": 2510,
            "ler": 2511,
            "jada": 2512,
            "▁alguna": 2513,
            "▁luz": 2514,
            "quiera": 2515,
            "▁ejemp": 2516,
            "▁fui": 2517,
            "chi": 2518,
            "ua": 2519,
            "ento": 2520,
            "gada": 2521,
            "ser": 2522,
            "ónde": 2523,
            "▁permi": 2524,
            "▁hubi": 2525,
            "▁face": 2526,
            "▁acabo": 2527,
            "▁libre": 2528,
            "▁debería": 2529,
            "▁excel": 2530,
            "ity": 2531,
            "ecta": 2532,
            "▁expl": 2533,
            "bel": 2534,
            "dando": 2535,
            "▁canción": 2536,
            "ct": 2537,
            "ición": 2538,
            "mó": 2539,
            "ror": 2540,
            "dito": 2541,
            "▁través": 2542,
            "▁presenta": 2543,
            "▁cañ": 2544,
            "▁vs": 2545,
            "▁uma": 2546,
            "▁mais": 2547,
            "▁movi": 2548,
            "▁pandemia": 2549,
            "▁pena": 2550,
            "▁abs": 2551,
            "▁símb": 2552,
            "▁prue": 2553,
            "▁dig": 2554,
            "▁:)": 2555,
            "▁dra": 2556,
            "▁get": 2557,
            "▁investi": 2558,
            "pan": 2559,
            "▁peop": 2560,
            "now": 2561,
            "tamos": 2562,
            "▁apoyo": 2563,
            "▁noti": 2564,
            "▁llevar": 2565,
            "▁otras": 2566,
            "▁fre": 2567,
            "▁infor": 2568,
            "▁responsab": 2569,
            "▁\"el": 2570,
            "usión": 2571,
            "▁contigo": 2572,
            "▁tenga": 2573,
            "pol": 2574,
            "▁far": 2575,
            "▁exis": 2576,
            "▁junto": 2577,
            "▁último": 2578,
            "dó": 2579,
            "jsjs": 2580,
            "▁difí": 2581,
            "▁pren": 2582,
            "▁gre": 2583,
            "▁bras": 2584,
            "▁compro": 2585,
            "ioridad": 2586,
            "▁dicho": 2587,
            "güenza": 2588,
            "▁general": 2589,
            "cito": 2590,
            "▁people": 2591,
            "pero": 2592,
            "▁orden": 2593,
            "▁liga": 2594,
            "und": 2595,
            "▁seguridad": 2596,
            "pido": 2597,
            "▁acomp": 2598,
            "ies": 2599,
            "cla": 2600,
            "▁tamb": 2601,
            "taría": 2602,
            "▁algunos": 2603,
            "▁derecho": 2604,
            "▁tí": 2605,
            "▁pelotu": 2606,
            "▁sir": 2607,
            "▁log": 2608,
            "▁abrazo": 2609,
            "ancia": 2610,
            "▁cine": 2611,
            "eras": 2612,
            "▁centro": 2613,
            "▁oportun": 2614,
            "▁idea": 2615,
            "ok": 2616,
            "▁dije": 2617,
            "▁ke": 2618,
            "▁fis": 2619,
            "▁tweet": 2620,
            "▁1.": 2621,
            "▁quieres": 2622,
            "▁conver": 2623,
            "▁fueron": 2624,
            "ísimo": 2625,
            "t,": 2626,
            "▁indi": 2627,
            "ia,": 2628,
            "óg": 2629,
            "yy": 2630,
            "▁quienes": 2631,
            "▁culpa": 2632,
            "▁rico": 2633,
            "ld": 2634,
            "▁show": 2635,
            "▁acti": 2636,
            "▁resp": 2637,
            "▁nego": 2638,
            "▁princip": 2639,
            "▁time": 2640,
            "▁autor": 2641,
            "▁univer": 2642,
            "▁siste": 2643,
            "▁ign": 2644,
            "dios": 2645,
            "▁hermosa": 2646,
            "▁corr": 2647,
            "▁bai": 2648,
            "-19": 2649,
            "▁enamo": 2650,
            "ins": 2651,
            "▁vídeo": 2652,
            "trás": 2653,
            "isión": 2654,
            "ciar": 2655,
            "▁pasó": 2656,
            "▁200": 2657,
            "▁libertad": 2658,
            "bilidad": 2659,
            "▁when": 2660,
            "fu": 2661,
            "▁minutos": 2662,
            "▁alta": 2663,
            "▁regres": 2664,
            "▁cañón": 2665,
            "▁cabre": 2666,
            "▁payas": 2667,
            "▁clase": 2668,
            "▁hosp": 2669,
            "▁how": 2670,
            "eza": 2671,
            "la,": 2672,
            "puesta": 2673,
            "▁conocer": 2674,
            "▁got": 2675,
            "▁sábado": 2676,
            "▁senti": 2677,
            "▁hermoso": 2678,
            "▁precios": 2679,
            "▁palabras": 2680,
            "llos": 2681,
            "▁hon": 2682,
            "▁hablando": 2683,
            "▁trump": 2684,
            "tw": 2685,
            "▁botón": 2686,
            "▁cuernos": 2687,
            "▁char": 2688,
            "▁eh": 2689,
            "del": 2691,
            "tf": 2692,
            "▁queremos": 2693,
            "▁agrade": 2694,
            "mientos": 2695,
            "▁dentro": 2696,
            "▁patri": 2697,
            "▁hemos": 2698,
            "▁tel": 2699,
            "▁about": 2700,
            "▁acos": 2701,
            "rible": 2702,
            "au": 2703,
            "gente": 2704,
            "dí": 2705,
            "▁mex": 2706,
            "▁conci": 2707,
            "▁bir": 2708,
            "▁star": 2709,
            "▁futuro": 2710,
            "my": 2711,
            "▁madu": 2712,
            "▁happ": 2713,
            "▁envi": 2714,
            "▁gro": 2715,
            "▁25": 2716,
            "rera": 2717,
            "▁\"la": 2718,
            "▁escuch": 2719,
            "▁recono": 2720,
            "her": 2721,
            "miendo": 2722,
            "mero": 2723,
            "tural": 2724,
            "▁fuerza": 2725,
            "▁única": 2726,
            "▁pase": 2727,
            "arro": 2728,
            "mica": 2729,
            "icip": 2730,
            "la.": 2731,
            "▁servicio": 2732,
            ".000": 2733,
            "uestra": 2734,
            "▁cir": 2735,
            "▁entender": 2736,
            "▁existe": 2737,
            "pez": 2738,
            "ooo": 2739,
            "▁esperando": 2740,
            "▁cuerpo": 2741,
            "dro": 2742,
            "▁español": 2743,
            "▁nú": 2744,
            "▁entien": 2745,
            "tera": 2746,
            "▁cansa": 2747,
            "▁21": 2748,
            "jan": 2749,
            "▁regal": 2750,
            "▁sean": 2751,
            "▁juntos": 2752,
            "▁municip": 2753,
            "▁lí": 2754,
            "▁voz": 2755,
            "jando": 2756,
            "▁estan": 2757,
            "▁posible": 2758,
            "▁fon": 2759,
            "▁libro": 2760,
            "),": 2761,
            "▁gober": 2762,
            "▁acor": 2763,
            "ia.": 2764,
            "▁án": 2765,
            "▁every": 2766,
            "ni": 2767,
            "▁fácil": 2768,
            "vista": 2769,
            "ju": 2770,
            "▁no.": 2771,
            "▁bonito": 2772,
            "▁alma": 2773,
            "▁vergüenza": 2774,
            "▁bueno,": 2775,
            "▁rey": 2776,
            "▁cabreada": 2777,
            "▁puño": 2778,
            "▁tv": 2779,
            "▁dejo": 2780,
            "tancia": 2781,
            "▁stre": 2782,
            "cto": 2783,
            "aaa": 2784,
            "érica": 2785,
            "ess": 2786,
            "▁fern": 2787,
            "▁calor": 2788,
            "ía,": 2789,
            "▁see": 2790,
            "▁instagra": 2791,
            "▁novio": 2792,
            "▁know": 2793,
            "▁mue": 2794,
            "ales.": 2795,
            "▁querer": 2796,
            "ización": 2797,
            "▁ado": 2798,
            "▁our": 2799,
            "▁der": 2800,
            "▁haces": 2801,
            "enas": 2802,
            "▁vec": 2803,
            "▁temporada": 2804,
            "tero": 2805,
            "tran": 2806,
            "dencia": 2807,
            "▁perdón": 2808,
            "osa": 2809,
            "yan": 2810,
            "▁simple": 2811,
            "▁realmente": 2812,
            "▁sabor": 2813,
            "▁cin": 2814,
            "▁podría": 2815,
            "▁etc": 2816,
            "▁difícil": 2817,
            "▁venezol": 2818,
            "▁\"no": 2819,
            "▁morir": 2820,
            "este": 2821,
            "▁pesso": 2822,
            "▁atención": 2823,
            "ales,": 2824,
            "gencia": 2825,
            "▁cambiar": 2826,
            "ight": 2827,
            "▁luna": 2828,
            "su": 2829,
            "mbo": 2830,
            "▁sacando": 2831,
            "▁diga": 2832,
            "▁who": 2833,
            "▁ense": 2834,
            "▁50": 2835,
            "▁dolor": 2836,
            "tener": 2837,
            "▁dónde": 2838,
            "▁estrella": 2839,
            "das.": 2840,
            "▁fla": 2841,
            "▁hice": 2842,
            "▁sign": 2843,
            "imos": 2844,
            "book": 2845,
            "▁padre": 2846,
            "▁noticias": 2847,
            "▁comen": 2848,
            "▁acep": 2849,
            "▁premios": 2850,
            "▁no?": 2851,
            "voca": 2852,
            "▁salva": 2853,
            "▁asco": 2854,
            "▁rá": 2855,
            "▁dias": 2856,
            "iencia": 2857,
            "▁aqui": 2858,
            "▁muerte": 2859,
            "▁sú": 2860,
            "▁er": 2861,
            "▁increí": 2862,
            "▁usar": 2863,
            "dis": 2864,
            "▁das": 2865,
            "▁cruz": 2866,
            "▁según": 2867,
            "net": 2868,
            "▁good": 2869,
            "▁verificación": 2870,
            "▁busca": 2871,
            "▁bloque": 2872,
            "▁voto": 2873,
            "▁bail": 2874,
            "tur": 2875,
            "▁econo": 2876,
            "▁santa": 2877,
            "das,": 2878,
            "▁fas": 2880,
            "rez": 2881,
            "▁lista": 2882,
            "▁cuent": 2883,
            "▁aj": 2884,
            "greso": 2885,
            "ef": 2886,
            "▁cuba": 2887,
            "▁priva": 2888,
            "▁casos": 2889,
            "▁ignor": 2890,
            "▁toca": 2891,
            "▁descu": 2893,
            "▁buscar": 2894,
            "▁ou": 2895,
            "mena": 2896,
            "▁i'm": 2897,
            "▁nada,": 2898,
            "▁xq": 2899,
            "arse": 2900,
            "dico": 2901,
            "▁ple": 2902,
            "▁valor": 2903,
            "▁proces": 2904,
            "▁sep": 2905,
            "tter": 2906,
            "▁covid-19": 2907,
            "▁llamar": 2908,
            "▁\"a": 2909,
            "▁luis": 2910,
            "▁redes": 2911,
            "▁ningún": 2912,
            "▁hahaha": 2913,
            "▁cumple": 2914,
            "ía.": 2915,
            "▁sistema": 2916,
            "▁desarro": 2917,
            "&gt;&gt;": 2918,
            "▁té": 2919,
            "▁bajo": 2920,
            "▁diciendo": 2921,
            "▁encontrar": 2922,
            "▁covid19": 2923,
            "▁pregunta": 2924,
            "bro": 2925,
            "▁llu": 2926,
            "▁pedo": 2927,
            "▁dale": 2928,
            "d,": 2929,
            "▁contes": 2930,
            "san": 2931,
            "▁verga": 2932,
            "aro": 2933,
            "▁público": 2934,
            "ecen": 2935,
            "▁canal": 2936,
            "▁crisis": 2937,
            "▁nada.": 2938,
            "▁excelente": 2939,
            "▁mater": 2940,
            "ág": 2941,
            "▁happy": 2942,
            "quito": 2943,
            "▁saludos": 2944,
            "▁vide": 2945,
            "rando": 2946,
            "io,": 2947,
            "▁agar": 2948,
            "ra.": 2949,
            "▁dando": 2950,
            "vera": 2951,
            "▁bien,": 2952,
            "uir": 2953,
            "▁solu": 2954,
            "ra,": 2955,
            "▁cama": 2956,
            "▁papá": 2957,
            "▁moles": 2958,
            "▁carlos": 2959,
            "▁exa": 2960,
            "▁sí,": 2961,
            "▁nuestras": 2962,
            "▁quería": 2963,
            "▁demasiado": 2964,
            "▁hel": 2965,
            "cin": 2966,
            "encias": 2967,
            "thing": 2968,
            "fico": 2969,
            "eramente": 2970,
            "▁ayudar": 2971,
            "▁maduro": 2972,
            "▁doy": 2973,
            "▁deba": 2974,
            "io.": 2975,
            "ish": 2976,
            "ques": 2977,
            "▁segunda": 2978,
            "▁jueves": 2979,
            "▁err": 2980,
            "▁eli": 2981,
            "▁alcal": 2982,
            "▁hombres": 2983,
            "▁brasil": 2984,
            "dita": 2985,
            "ink": 2986,
            "▁avan": 2987,
            "ices": 2988,
            "▁@usuario:": 2989,
            "▁live": 2990,
            "▁secre": 2991,
            "▁vida.": 2992,
            "▁22": 2993,
            "▁problemas": 2994,
            "▁tanta": 2995,
            "▁segundo": 2996,
            "▁violencia": 2997,
            "▁obli": 2998,
            "▁trata": 2999,
            "▁deses": 3000,
            "▁here": 3001,
            "▁gira": 3002,
            "▁cerve": 3003,
            "▁siguen": 3004,
            "▁internacional": 3005,
            "▁mama": 3006,
            "▁oficial": 3007,
            "▁ep": 3008,
            "▁vuelta": 3009,
            "sidad": 3010,
            "oso": 3011,
            "ep": 3012,
            "ados": 3013,
            "sion": 3014,
            "▁pensando": 3015,
            "▁amer": 3016,
            "▁limp": 3017,
            "▁year": 3018,
            "▁explo": 3019,
            "▁mensaje": 3020,
            "din": 3021,
            "▁payaso": 3022,
            "▁sw": 3023,
            "▁pana": 3024,
            "i,": 3025,
            "gran": 3026,
            "ieron": 3027,
            "▁aman": 3029,
            "rió": 3030,
            "▁martes": 3031,
            "ção": 3032,
            "dé": 3033,
            "▁its": 3034,
            "▁vaca": 3035,
            "mun": 3036,
            "lación": 3037,
            "▁&lt;": 3038,
            "▁lucha": 3039,
            "ác": 3040,
            "▁gon": 3041,
            "▁promo": 3042,
            "▁pedir": 3043,
            "are": 3044,
            "sas": 3045,
            "▁eno": 3046,
            "rate": 3047,
            "▁impos": 3048,
            "tas,": 3049,
            "r.": 3050,
            "▁niño": 3051,
            "▁ecu": 3052,
            "hu": 3053,
            "▁increíble": 3054,
            "▁econ": 3055,
            "go,": 3056,
            "▁off": 3057,
            "▁crea": 3058,
            "▁jamás": 3059,
            "torios": 3060,
            "▁literal": 3061,
            "▁unidos": 3062,
            "▁2.": 3063,
            "nn": 3064,
            "▁corre": 3065,
            "▁superioridad": 3066,
            "▁jugador": 3067,
            "▁abur": 3068,
            "▁dispon": 3069,
            "▁ki": 3070,
            "istra": 3071,
            "▁cli": 3072,
            "dd": 3073,
            "▁sent": 3074,
            "▁nie": 3075,
            "▁facebook": 3076,
            "tral": 3077,
            "▁vuelve": 3078,
            "▁revés": 3079,
            "nada": 3080,
            "▁brin": 3081,
            "▁even": 3082,
            "▁reun": 3083,
            "▁recuer": 3084,
            "▁situación": 3085,
            "gl": 3086,
            "tantes": 3087,
            "quen": 3088,
            "▁elecciones": 3089,
            "▁tit": 3090,
            "▁sentido": 3091,
            "ked": 3092,
            "ses": 3093,
            "ner": 3094,
            "▁wee": 3095,
            "▁mandar": 3096,
            "tas.": 3097,
            "▁indepen": 3098,
            "fica": 3099,
            "▁best": 3100,
            "cómo": 3101,
            "▁aguan": 3102,
            "▁manda": 3103,
            "▁hermano": 3104,
            "▁mó": 3105,
            "▁instagram": 3106,
            "▁termina": 3107,
            "▁contag": 3108,
            "▁histor": 3109,
            "▁súper": 3110,
            "▁econó": 3111,
            "▁hicieron": 3112,
            "ído": 3113,
            "ículo": 3114,
            "▁.@usuario": 3115,
            "▁puntos": 3116,
            "▁respeto": 3117,
            "▁vac": 3118,
            "▁matar": 3119,
            "all": 3120,
            "▁institu": 3121,
            "▁sector": 3122,
            "me,": 3123,
            "taciones": 3124,
            "brar": 3125,
            "▁suel": 3126,
            "pren": 3127,
            "▁duele": 3128,
            "▁empezar": 3129,
            "▁red": 3130,
            "table": 3131,
            "▁mane": 3132,
            "▁pienso": 3133,
            "▁constitu": 3134,
            "able": 3135,
            "visión": 3136,
            "▁dejen": 3138,
            "▁creciente": 3139,
            "▁cierto": 3140,
            "▁ge": 3141,
            "▁lea": 3142,
            "▁cuatro": 3143,
            "▁bur": 3144,
            "▁jajaj": 3145,
            "▁messi": 3146,
            "▁tem": 3147,
            "▁viv": 3148,
            "ning": 3149,
            "terio": 3150,
            "▁esperan": 3151,
            "▁vien": 3152,
            "way": 3153,
            "▁ahor": 3154,
            "▁hagan": 3155,
            "▁ener": 3156,
            "▁vino": 3157,
            "▁bailando": 3158,
            "▁bil": 3159,
            "▁cuad": 3160,
            "▁nic": 3161,
            "▁back": 3162,
            "▁23": 3163,
            "▁proyecto": 3164,
            "▁nuevos": 3165,
            "▁votar": 3166,
            "▁educación": 3167,
            "▁impres": 3168,
            "▁acer": 3169,
            "cina": 3170,
            "!!!.": 3171,
            "cir": 3172,
            "date": 3173,
            "como": 3174,
            "▁tremen": 3175,
            "▁terminar": 3176,
            "▁culo": 3177,
            "▁justo": 3178,
            "▁más.": 3179,
            "▁derechos": 3180,
            "▁dipu": 3181,
            "hora": 3182,
            "gación": 3183,
            "▁2018": 3184,
            "▁bola": 3185,
            "▁hol": 3186,
            "▁tenes": 3187,
            "tidad": 3188,
            "▁decep": 3189,
            "uno": 3190,
            "▁;": 3191,
            "▁sociedad": 3192,
            "▁deben": 3193,
            "▁esperar": 3194,
            "tino": 3195,
            "▁desapro": 3196,
            "idos": 3197,
            "▁campaña": 3198,
            "pare": 3199,
            "▁//": 3200,
            "▁black": 3201,
            "▁virus": 3202,
            "▁ré": 3203,
            "ang": 3204,
            "▁enter": 3205,
            "▁tren": 3206,
            "tador": 3207,
            "teo": 3209,
            "▁vive": 3210,
            "sar": 3211,
            "▁cari": 3212,
            "▁econom": 3213,
            "dres": 3214,
            "coles": 3215,
            "▁app": 3216,
            "▁seas": 3217,
            "▁darle": 3218,
            "▁cuanto": 3219,
            "▁candida": 3220,
            "▁genera": 3221,
            "mite": 3222,
            "▁team": 3223,
            "▁próximo": 3224,
            "tió": 3225,
            "▁guerra": 3226,
            "tili": 3227,
            "▁dro": 3228,
            "▁idio": 3229,
            "▁imagen": 3230,
            "▁seman": 3231,
            "▁bru": 3232,
            "▁caf": 3233,
            "▁vin": 3234,
            "▁pasando": 3235,
            "▁democra": 3236,
            "▁camino": 3237,
            "▁faz": 3238,
            "▁descan": 3239,
            "ología": 3240,
            "▁estados": 3241,
            "▁&gt;": 3242,
            "▁agotada": 3243,
            "▁momentos": 3244,
            "▁usa": 3245,
            "▁diri": 3246,
            "▁aaa": 3247,
            "▁ber": 3248,
            "▁ninguna": 3249,
            "▁aus": 3250,
            "dente": 3251,
            "torio": 3252,
            "diente": 3253,
            "uito": 3254,
            "▁40": 3255,
            "▁cerca": 3256,
            "▁win": 3257,
            "bes": 3258,
            "▁silen": 3259,
            "▁alcan": 3260,
            "▁she": 3261,
            "▁pronto": 3262,
            "▁jes": 3263,
            "tí": 3264,
            "al.": 3265,
            "-0": 3266,
            "▁hambre": 3267,
            "▁rosa": 3268,
            "ieza": 3269,
            "udo": 3270,
            "▁sup": 3271,
            "gon": 3272,
            "▁any": 3273,
            "▁llevo": 3274,
            "▁bebé": 3275,
            "▁amigas": 3276,
            "▁mel": 3277,
            "▁ejemplo": 3278,
            "gué": 3279,
            "▁esté": 3280,
            "▁gesto": 3281,
            "▁meter": 3282,
            "▁fuck": 3283,
            "▁arran": 3284,
            "iro": 3285,
            "▁prepara": 3286,
            "▁onda": 3287,
            "mn": 3288,
            "▁señora": 3289,
            "▁ó": 3290,
            "▁allá": 3291,
            "▁¿por": 3292,
            "▁partidos": 3293,
            "▁vida,": 3294,
            "▁entrar": 3295,
            "▁ocur": 3296,
            "mente,": 3297,
            "▁produc": 3298,
            "▁conoce": 3299,
            "▁bomb": 3300,
            "▁avis": 3301,
            "▁felicidad": 3302,
            "▁quiera": 3303,
            "▁sec": 3304,
            "ans": 3305,
            "p.": 3306,
            "arme": 3307,
            "▁tierra": 3308,
            "▁obje": 3309,
            "▁conten": 3310,
            "▁noches": 3311,
            "▁web": 3312,
            "▁malo": 3313,
            "▁contar": 3314,
            "▁ala": 3315,
            "ben": 3316,
            "▁saboreando": 3317,
            "▁sabemos": 3318,
            "▁nooo": 3319,
            "▁desaprobación": 3320,
            ":30": 3321,
            "▁puto": 3322,
            "▁puesto": 3323,
            "ugh": 3324,
            "villa": 3325,
            "▁cerveza": 3326,
            "▁hija": 3327,
            "the": 3328,
            "▁beca": 3329,
            "zan": 3330,
            "▁dado": 3331,
            "▁terror": 3332,
            "▁hubiera": 3333,
            "▁ahre": 3334,
            "aste": 3335,
            "▁ko": 3336,
            "▁vai": 3337,
            "▁seu": 3338,
            "art": 3339,
            "▁viejo": 3340,
            "▁color": 3341,
            "▁barcel": 3342,
            "▁repor": 3343,
            "▁local": 3344,
            "graf": 3345,
            "▁alber": 3346,
            "ky": 3347,
            "tivas": 3348,
            "▁cuán": 3349,
            "▁pública": 3350,
            "▁mascar": 3351,
            "▁vivi": 3352,
            "▁stream": 3353,
            "▁defini": 3354,
            "▁vieja": 3355,
            "ude": 3356,
            "▁navidad": 3357,
            "▁sto": 3358,
            "▁preocupa": 3359,
            "▁protes": 3360,
            "▁rato": 3361,
            "▁luces": 3362,
            "▁papel": 3363,
            "cr": 3365,
            "▁cra": 3366,
            ".\"": 3367,
            "▁spo": 3368,
            "▁felicidades": 3369,
            "▁joven": 3370,
            "▁youtu": 3371,
            "guay": 3372,
            "▁bl": 3373,
            "▁consegui": 3374,
            "ete": 3375,
            "▁opinión": 3376,
            "▁signo": 3377,
            "quis": 3378,
            "▁demos": 3379,
            "▁minha": 3380,
            "▁merece": 3382,
            "▁perfec": 3383,
            "dieron": 3384,
            "▁lluvia": 3385,
            "▁oportunidad": 3386,
            "▁fri": 3387,
            "▁desespera": 3388,
            "▁world": 3389,
            "▁blanca": 3390,
            "▁pueda": 3391,
            "▁mando": 3392,
            "▁película": 3393,
            "▁sonro": 3394,
            "▁chil": 3395,
            "▁detal": 3396,
            "▁aso": 3397,
            "mos.": 3398,
            "▁aprove": 3399,
            "icado": 3400,
            "▁labor": 3401,
            "umen": 3402,
            "▁ara": 3403,
            "▁maes": 3404,
            "▁tapados": 3405,
            "▁ár": 3406,
            "cida": 3407,
            "▁sha": 3408,
            "▁boy": 3409,
            "▁noticia": 3410,
            "▁símbolo": 3411,
            "▁eran": 3412,
            "▁comien": 3413,
            "▁habrá": 3414,
            "▁quedo": 3415,
            "ero,": 3416,
            "inal": 3417,
            "▁bastante": 3418,
            "▁hoy,": 3419,
            "▁dev": 3420,
            "▁tambien": 3421,
            "▁venir": 3422,
            "▁basta": 3423,
            "ctura": 3424,
            "ker": 3425,
            "cent": 3426,
            "me.": 3427,
            "▁need": 3428,
            "éndo": 3429,
            "▁américa": 3430,
            "▁escucha": 3431,
            "ding": 3432,
            "▁pensé": 3433,
            "mos,": 3434,
            "▁mari": 3435,
            "▁bri": 3436,
            "\"..": 3437,
            "▁tecn": 3438,
            "ach": 3439,
            "▁trofe": 3440,
            "▁cd": 3441,
            "itan": 3442,
            "▁opera": 3443,
            "icion": 3444,
            "ying": 3445,
            "▁exig": 3446,
            "▁todo,": 3447,
            "▁militar": 3448,
            "ket": 3449,
            "▁amlo": 3450,
            "▁mín": 3451,
            "▁esti": 3452,
            "bia": 3453,
            "i.": 3454,
            "▁josé": 3455,
            "▁tuvi": 3456,
            "▁durmiendo": 3457,
            "▁voc": 3458,
            "▁ulti": 3459,
            "ero.": 3460,
            "tarse": 3461,
            "▁gusto": 3462,
            "▁obvio": 3463,
            "▁sonrojada": 3464,
            "▁presiden": 3465,
            "▁obra": 3466,
            "leo": 3467,
            "▁pais": 3468,
            "▁aleg": 3469,
            "▁éx": 3470,
            "▁rápido": 3471,
            "▁musical": 3472,
            "▁recuerdo": 3473,
            "▁sorpren": 3474,
            "dura": 3475,
            "ianza": 3476,
            "▁opos": 3477,
            "▁carrera": 3478,
            "▁mate": 3479,
            "▁novia": 3480,
            "▁internet": 3481,
            "▁ase": 3482,
            "tín": 3483,
            "▁clases": 3484,
            "▁insta": 3485,
            "icó": 3486,
            "▁número": 3487,
            "▁barcelona": 3488,
            "▁correc": 3489,
            "món": 3490,
            "gor": 3491,
            "▁uso": 3492,
            "▁fecha": 3493,
            "▁)": 3494,
            "▁escuela": 3495,
            "▁hermana": 3496,
            "▁capital": 3497,
            "lidad": 3498,
            "▁precio": 3499,
            "▁fiscal": 3500,
            "▁die": 3501,
            "▁\"s": 3502,
            "▁fras": 3503,
            "hs": 3504,
            "▁conven": 3505,
            "▁llegó": 3506,
            "▁celular": 3507,
            "▁manif": 3508,
            "▁golpe": 3509,
            "▁estudiar": 3510,
            "curso": 3511,
            "▁cree": 3512,
            "▁duda": 3513,
            "▁solid": 3514,
            "rano": 3515,
            "andom": 3516,
            "▁paci": 3517,
            "▁quin": 3518,
            "▁cerrado": 3519,
            "▁trofeo": 3520,
            "▁foi": 3521,
            "gues": 3522,
            "▁mexic": 3523,
            "ma,": 3524,
            "ions": 3525,
            "▁l'": 3526,
            "▁bien.": 3527,
            "día": 3528,
            "▁boli": 3529,
            "áis": 3530,
            "▁aire": 3531,
            "▁entrevista": 3532,
            "zco": 3533,
            "▁datos": 3534,
            "chez": 3535,
            "pular": 3536,
            "▁consul": 3537,
            "bli": 3538,
            "▁prome": 3539,
            "▁europa": 3540,
            "▁kar": 3541,
            "▁jeje": 3542,
            "▁dici": 3543,
            "xs": 3544,
            "▁juega": 3545,
            "▁lín": 3546,
            "▁ran": 3547,
            "▁encuentro": 3548,
            "▁moren": 3549,
            "▁seguimos": 3550,
            "▁viva": 3551,
            "▁rid": 3552,
            "▁regalo": 3553,
            "▁futbol": 3554,
            "▁mente": 3555,
            "line": 3556,
            "▁stor": 3557,
            "▁pequeño": 3558,
            "▁siga": 3559,
            "up": 3560,
            "▁ee": 3561,
            "▁pessoas": 3562,
            "tarme": 3563,
            "▁hospital": 3564,
            "!!.": 3565,
            "respon": 3566,
            "▁memo": 3567,
            "▁oh": 3568,
            "▁llen": 3569,
            "▁denun": 3570,
            "▁niña": 3571,
            "miaw": 3572,
            "▁zona": 3573,
            "▁profesional": 3574,
            "tulo": 3575,
            "zada": 3576,
            "▁significa": 3577,
            "ár": 3578,
            "▁aga": 3579,
            "ares": 3580,
            "▁telé": 3581,
            "▁delin": 3582,
            "▁dó": 3583,
            "▁abor": 3584,
            "diciones": 3585,
            "▁vacaciones": 3586,
            "▁medios": 3587,
            "▁gil": 3588,
            "ré": 3589,
            "▁lor": 3590,
            "lix": 3591,
            "z,": 3592,
            "▁baja": 3593,
            "usi": 3594,
            "ándose": 3595,
            "▁acu": 3596,
            "▁edad": 3597,
            "▁diario": 3598,
            "▁hd": 3599,
            "▁ropa": 3600,
            "▁comunidad": 3601,
            "▁julio": 3602,
            "hy": 3603,
            "▁champ": 3604,
            "▁mur": 3605,
            "▁hin": 3606,
            "▁medidas": 3607,
            "▁rob": 3608,
            "ile": 3609,
            "▁todo.": 3610,
            "▁dont": 3611,
            "▁mexico": 3612,
            "▁joder": 3613,
            "▁imagin": 3614,
            "▁did": 3615,
            "▁orto": 3616,
            "bres": 3617,
            "▁empi": 3618,
            "▁calidad": 3619,
            "▁absolu": 3620,
            "▁lig": 3621,
            "go.": 3622,
            "▁globo": 3623,
            "▁ecuador": 3624,
            "▁móvil": 3625,
            "▁cere": 3626,
            "▁juro": 3627,
            "▁respuesta": 3628,
            "▁jugadores": 3629,
            "▁orig": 3630,
            "▁depen": 3631,
            "▁deje": 3632,
            "▁salió": 3633,
            "ste": 3634,
            "▁cultura": 3635,
            "izado": 3636,
            "bida": 3637,
            "▁partir": 3638,
            "▁cumpl": 3639,
            "▁admi": 3640,
            "▁atrás": 3641,
            "▁patr": 3642,
            "▁apa": 3643,
            "▁chec": 3644,
            "▁pongo": 3645,
            "▁china": 3646,
            "cheta": 3648,
            "▁feel": 3649,
            "jun": 3650,
            "ving": 3651,
            "▁ocu": 3652,
            "▁only": 3653,
            "▁ejer": 3654,
            "▁resto": 3655,
            "al,": 3656,
            "▁uri": 3657,
            "▁bos": 3658,
            "▁utili": 3659,
            "hor": 3660,
            "vios": 3661,
            "▁café": 3662,
            "▁ido": 3663,
            "gura": 3664,
            "ctubre": 3665,
            "▁político": 3666,
            "em": 3667,
            "▁hilo": 3668,
            "gir": 3669,
            "▁chica": 3670,
            "unt": 3671,
            "▁alivio": 3672,
            "▁recomen": 3673,
            "▁info": 3674,
            "▁imposible": 3675,
            "mación": 3676,
            "▁leg": 3677,
            "▁arro": 3678,
            "▁femin": 3679,
            "▁pp": 3680,
            "▁tenido": 3681,
            "▁pele": 3682,
            "▁igles": 3683,
            "iciente": 3684,
            "▁isso": 3685,
            "▁técn": 3686,
            "▁decepcion": 3687,
            "▁¿cu": 3688,
            "cle": 3689,
            "▁viola": 3690,
            "▁decirl": 3691,
            "▁algunas": 3692,
            "▁lejos": 3693,
            "▁loca": 3694,
            "ilidad": 3695,
            "▁apor": 3696,
            "cola": 3697,
            "▁você": 3698,
            "mber": 3699,
            "▁eso,": 3700,
            "▁want": 3701,
            "damos": 3702,
            "▁inicia": 3703,
            "▁chicos": 3704,
            "orn": 3705,
            "▁because": 3706,
            "▁diver": 3707,
            "ens": 3708,
            "▁gratis": 3709,
            "▁inteli": 3710,
            "▁vc": 3711,
            "▁fl": 3712,
            "▁???": 3713,
            "▁youtube": 3714,
            "▁atra": 3715,
            "▁hal": 3716,
            "▁olvidar": 3717,
            "▁mag": 3718,
            "▁dese": 3719,
            "▁repro": 3720,
            "▁their": 3721,
            "fuer": 3722,
            "▁años,": 3723,
            "▁nas": 3724,
            "▁mtvmiaw": 3725,
            "an,": 3726,
            "▁refle": 3727,
            "▁colec": 3728,
            "mg": 3729,
            "▁anun": 3730,
            "▁it's": 3731,
            "2.": 3732,
            "ull": 3733,
            "▁sociales": 3734,
            "▁don't": 3735,
            "▁tá": 3736,
            "pla": 3737,
            "▁maravil": 3738,
            "▁saca": 3739,
            "uras": 3740,
            "▁constru": 3741,
            "▁=": 3742,
            "▁esperamos": 3743,
            "ma.": 3744,
            "▁jugando": 3745,
            "mx": 3746,
            "▁catal": 3747,
            "▁fantas": 3748,
            "▁subir": 3749,
            "▁directo": 3750,
            "▁venga": 3751,
            "puesto": 3752,
            "▁viaje": 3753,
            "▁disfrutar": 3754,
            "▁make": 3755,
            "▁levantada": 3756,
            "▁más,": 3757,
            "zz": 3758,
            "▁exac": 3759,
            "▁naran": 3760,
            "▁refer": 3761,
            "▁tin": 3762,
            "▁defender": 3763,
            "▁participa": 3764,
            "▁dólar": 3765,
            "▁esca": 3766,
            "▁pide": 3767,
            "▁rus": 3768,
            "▁apre": 3769,
            "▁kca": 3770,
            "bió": 3771,
            "▁cambia": 3772,
            "▁chincheta": 3773,
            "▁varios": 3774,
            "▁banda": 3775,
            "▁descar": 3776,
            "▁(@usuario": 3777,
            "▁doble": 3778,
            "▁pé": 3779,
            "▁ind": 3780,
            "iso": 3781,
            "▁flas": 3782,
            "rito": 3783,
            "▁control": 3784,
            "co,": 3785,
            "▁vemos": 3786,
            "▁jornada": 3787,
            "▁river": 3788,
            "▁ponen": 3789,
            "▁mayoría": 3790,
            "▁giratorios": 3791,
            "▁anal": 3792,
            "▁preven": 3793,
            "▁congreso": 3794,
            "▁octubre": 3795,
            "▁libros": 3796,
            "▁ofre": 3797,
            "▁sil": 3798,
            "▁mirar": 3799,
            "3.": 3800,
            "▁distin": 3801,
            "▁sabía": 3802,
            "▁macri": 3803,
            "pec": 3804,
            "▁vomi": 3805,
            "▁over": 3806,
            "▁pelig": 3807,
            "tito": 3808,
            "▁paga": 3809,
            "▁canciones": 3810,
            "▁pareja": 3811,
            "▁adelante": 3812,
            "▁aprender": 3813,
            "tea": 3814,
            "▁políticos": 3815,
            "▁miér": 3816,
            "▁natural": 3817,
            "▁teléfono": 3818,
            "▁amp": 3819,
            "▁totalmente": 3820,
            "▁duer": 3821,
            "biendo": 3822,
            "▁tuve": 3823,
            "lada": 3824,
            "de,": 3825,
            "▁cae": 3826,
            "▁there": 3827,
            "▁thank": 3828,
            "▁creen": 3829,
            "▁cami": 3830,
            "▁frien": 3831,
            "▁marcha": 3832,
            "▁¿cómo": 3833,
            "ustra": 3834,
            "xi": 3835,
            "▁perú": 3836,
            "▁war": 3837,
            "▁falle": 3838,
            "pira": 3839,
            "c.": 3840,
            "ku": 3841,
            "▁ron": 3842,
            "▁impues": 3843,
            "▁tantas": 3844,
            "▁colab": 3845,
            "▁humor": 3846,
            "▁dedo": 3847,
            "cara": 3848,
            "ira": 3849,
            "▁compartir": 3850,
            "▁ل": 3851,
            "▁llegue": 3852,
            "▁supon": 3853,
            "▁celebra": 3854,
            "tio": 3855,
            "ally": 3856,
            "▁quedan": 3857,
            "jd": 3858,
            "▁life": 3859,
            "▁venta": 3860,
            "▁bonita": 3861,
            "▁seria": 3862,
            "▁cam": 3863,
            "end": 3864,
            "▁chor": 3865,
            "▁abril": 3866,
            "▁mayo": 3867,
            "▁proyec": 3868,
            "▁quiz": 3869,
            "▁llev": 3870,
            "▁benef": 3871,
            "▁agre": 3872,
            "cti": 3873,
            "de.": 3874,
            "▁pho": 3875,
            "terna": 3876,
            "tions": 3877,
            "?!": 3878,
            "alu": 3879,
            "▁pablo": 3880,
            "mental": 3881,
            "olución": 3882,
            "▁non": 3883,
            "▁lol": 3884,
            "▁plaza": 3885,
            "quer": 3886,
            "▁pic": 3887,
            "▁despe": 3888,
            "▁tengan": 3889,
            "▁ries": 3890,
            "▁provin": 3891,
            "▁compra": 3892,
            "▁ste": 3893,
            "▁siguien": 3894,
            "▁acuer": 3895,
            "▁democracia": 3896,
            "yendo": 3897,
            "▁wat": 3898,
            "ings": 3899,
            "▁evitar": 3900,
            "▁já": 3901,
            "▁empresa": 3902,
            "▁palabra": 3903,
            "ópez": 3904,
            "▁sala": 3905,
            "▁bron": 3906,
            "▁peda": 3907,
            "ón,": 3908,
            "▁¿y": 3909,
            "▁3.": 3910,
            "tiembre": 3911,
            "▁arte": 3912,
            "sen": 3913,
            "▁adver": 3914,
            "▁js": 3915,
            "ará": 3916,
            "▁funda": 3917,
            "▁estudio": 3918,
            "ric": 3919,
            "▁efec": 3920,
            "▁¡¡": 3921,
            "▁sp": 3922,
            "ciales": 3923,
            "▁cabr": 3924,
            "▁prensa": 3925,
            "itario": 3926,
            "▁siii": 3927,
            "▁visita": 3928,
            "▁big": 3929,
            "iantina": 3930,
            "▁gab": 3931,
            "▁(?": 3932,
            "ft": 3933,
            "▁ana": 3934,
            "▁verano": 3935,
            "▁prohi": 3936,
            "▁goberna": 3937,
            "gle": 3938,
            "an.": 3939,
            "kes": 3940,
            "▁defensa": 3941,
            "▁digan": 3942,
            "rica": 3943,
            "ós": 3944,
            "ny": 3945,
            "rido": 3946,
            "zado": 3947,
            "▁recuerda": 3948,
            "▁lópez": 3949,
            "▁26": 3950,
            "nt": 3951,
            "▁orgullo": 3952,
            "▁concha": 3953,
            "ley": 3954,
            "▁colegio": 3955,
            "▁prepar": 3956,
            "▁líder": 3957,
            "▁game": 3958,
            "▁afec": 3959,
            "▁hacerlo": 3960,
            "bamos": 3961,
            "▁expresión": 3962,
            "▁miles": 3963,
            "▁ner": 3964,
            "▁repe": 3965,
            "▁way": 3966,
            "▁dani": 3967,
            "▁disponible": 3968,
            "▁así,": 3969,
            "taje": 3970,
            "▁28": 3971,
            "▁dieron": 3972,
            "miso": 3973,
            "▁feo": 3974,
            "▁esfuer": 3975,
            "▁tiempos": 3976,
            "▁orgullos": 3977,
            "▁empresas": 3978,
            "▁padres": 3979,
            "▁horrible": 3980,
            "▁oro": 3981,
            "▁tuit": 3983,
            "▁pedi": 3984,
            "▁uru": 3985,
            "▁barrio": 3986,
            "▁basura": 3987,
            "▁cansada": 3988,
            "▁vista": 3989,
            "▁años.": 3990,
            "▁ahi": 3991,
            "▁gustaría": 3992,
            "▁masa": 3993,
            "▁neu": 3994,
            "▁diferencia": 3995,
            "▁vou": 3996,
            "ming": 3997,
            "▁him": 3998,
            "▁enga": 3999,
            "▁bre": 4000,
            "▁caer": 4001,
            "▁error": 4002,
            ",.": 4003,
            "▁emer": 4004,
            "▁mental": 4005,
            "ciona": 4006,
            "▁netf": 4007,
            "▁27": 4008,
            "▁extre": 4009,
            "▁jó": 4010,
            "▁banco": 4011,
            "▁siente": 4012,
            "▁silencio": 4013,
            "▁trabajando": 4014,
            "▁mig": 4015,
            "▁sel": 4016,
            "sel": 4017,
            "k.": 4018,
            "▁suspen": 4019,
            "mico": 4020,
            "▁mode": 4021,
            "▁stan": 4022,
            "eee": 4023,
            "▁really": 4024,
            "▁ses": 4025,
            "▁netflix": 4026,
            "▁máx": 4027,
            "bum": 4028,
            "▁recordar": 4029,
            "fiero": 4030,
            "get": 4031,
            "iar": 4032,
            "▁d'": 4033,
            "▁cic": 4034,
            "ure": 4035,
            "▁tuvo": 4036,
            "▁empieza": 4037,
            "▁pus": 4038,
            "▁been": 4039,
            "za,": 4040,
            "till": 4041,
            "tivamente": 4042,
            "1.": 4043,
            "mexico": 4044,
            "▁iden": 4045,
            "▁crí": 4046,
            "▁tec": 4047,
            "mado": 4048,
            "▁despier": 4049,
            "▁please": 4050,
            "▁esse": 4051,
            "▁septiembre": 4052,
            "mán": 4053,
            "▁jóven": 4054,
            "sapp": 4055,
            "ón.": 4056,
            "isis": 4057,
            "▁jajaja": 4058,
            "mel": 4059,
            "▁palo": 4060,
            "▁mueca": 4061,
            "▁país.": 4062,
            "▁pinche": 4063,
            "//": 4064,
            "▁post": 4065,
            "▁llena": 4066,
            "▁experiencia": 4067,
            "▁critic": 4068,
            "▁exo": 4069,
            ",,": 4070,
            "▁consu": 4071,
            "▁never": 4072,
            "▁insul": 4073,
            "▁volvi": 4074,
            "▁&lt;3": 4075,
            "▁mani": 4076,
            "onas": 4077,
            "▁pedro": 4078,
            "▁naranja": 4079,
            "cí": 4080,
            "▁ansi": 4081,
            "▁fís": 4082,
            "▁dise": 4083,
            "▁flash": 4084,
            "▁delincu": 4085,
            "▁paro": 4086,
            "▁países": 4087,
            "▁curso": 4088,
            "▁hacemos": 4089,
            "▁again": 4090,
            "▁why": 4091,
            "▁explica": 4092,
            "▁segura": 4093,
            "iera": 4094,
            "▁popular": 4095,
            "▁despues": 4096,
            "▁genial": 4097,
            "▁agos": 4098,
            "▁gr": 4099,
            "logo": 4100,
            "ole": 4101,
            "▁ál": 4102,
            "▁oli": 4103,
            "tle": 4104,
            "lin": 4105,
            "▁first": 4106,
            "terior": 4107,
            "▁haz": 4108,
            "cidos": 4109,
            "▁universidad": 4110,
            "▁pasan": 4111,
            "▁puro": 4112,
            "▁intent": 4113,
            "clu": 4114,
            "ula": 4115,
            "▁tb": 4116,
            "▁animal": 4117,
            "▁querido": 4118,
            "▁sán": 4119,
            "tien": 4120,
            "▁recién": 4121,
            "▁europe": 4122,
            "▁jar": 4123,
            "talla": 4124,
            "▁reti": 4125,
            "▁asesina": 4126,
            "▁papa": 4127,
            "fel": 4128,
            "lle": 4129,
            "▁nove": 4130,
            "▁ellas": 4131,
            "▁cualquiera": 4132,
            "▁clara": 4133,
            "▁puso": 4134,
            "▁amaz": 4135,
            "▁buscando": 4136,
            "▁would": 4137,
            "▁santia": 4138,
            "mé": 4139,
            "▁ligeramente": 4140,
            "▁hablan": 4141,
            "▁legal": 4142,
            "▁salen": 4143,
            "▁rin": 4144,
            "▁excla": 4145,
            "▁nuevas": 4146,
            "▁salga": 4147,
            "ducir": 4148,
            "▁contr": 4149,
            "▁histó": 4150,
            "▁enfada": 4151,
            "▁presente": 4152,
            "by": 4153,
            "▁sirve": 4154,
            "▁llego": 4155,
            "▁jajajajaja": 4156,
            "vor": 4157,
            "▁siquiera": 4158,
            "▁cala": 4159,
            "cionar": 4160,
            "▁puerto": 4161,
            "▁army": 4162,
            "▁whatsapp": 4163,
            "▁dormi": 4164,
            "▁quedó": 4165,
            "▁dejan": 4166,
            "trando": 4167,
            "ca,": 4168,
            "▁entrena": 4169,
            "5.": 4170,
            "▁dul": 4171,
            "tale": 4172,
            "▁historias": 4173,
            "▁gustan": 4174,
            "▁miércoles": 4175,
            "▁recha": 4176,
            "▁desarrollo": 4177,
            "▁cola": 4178,
            "▁decl": 4179,
            "za.": 4180,
            "co.": 4181,
            "▁gener": 4182,
            "anti": 4183,
            "▁convi": 4184,
            "▁deseo": 4185,
            "▁tae": 4186,
            "▁after": 4187,
            "▁conversa": 4188,
            "▁estaría": 4189,
            "▁línea": 4191,
            "▁sui": 4192,
            "tilla": 4193,
            "▁digital": 4194,
            "▁cuesta": 4195,
            "▁trai": 4196,
            "▁relación": 4197,
            "▁escribir": 4198,
            "▁dicta": 4199,
            "▁encar": 4200,
            "ví": 4201,
            "▁admin": 4202,
            "▁mío": 4203,
            "▁necesario": 4204,
            "▁too": 4205,
            "▁docu": 4206,
            "▁ministro": 4207,
            "▁nomb": 4208,
            "▁estuvo": 4209,
            "wa": 4210,
            "▁semanas": 4211,
            "▁suce": 4212,
            "▁costa": 4213,
            "▁wey": 4214,
            "▁marzo": 4215,
            "▁caliente": 4216,
            "▁recur": 4217,
            "▁today": 4218,
            "▁mascarilla": 4219,
            "▁mitad": 4220,
            "▁puse": 4221,
            "▁diciembre": 4222,
            "▁largo": 4223,
            "▁pido": 4224,
            "▁muertos": 4225,
            "▁cabal": 4226,
            "▁presu": 4227,
            "▁muero": 4228,
            "gg": 4229,
            "▁mismos": 4230,
            "▁flo": 4231,
            "tiv": 4232,
            "▁week": 4233,
            "mentar": 4234,
            "ezo": 4235,
            "▁carajo": 4236,
            "h,": 4237,
            "▁pendejo": 4238,
            "▁ang": 4239,
            "▁them": 4240,
            "▁podes": 4241,
            "▁pág": 4242,
            "▁bio": 4243,
            "▁tes": 4244,
            "▁calles": 4245,
            "uelo": 4246,
            "▁andar": 4247,
            "▁estren": 4248,
            "▁caga": 4249,
            "ista,": 4250,
            "▁videos": 4251,
            "▁rock": 4252,
            "▁cielo": 4253,
            "▁exclamación": 4254,
            "▁ingres": 4255,
            "7.": 4256,
            "▁eeuu": 4257,
            "▁lamenta": 4258,
            "▁capaz": 4259,
            "ze": 4260,
            "ro,": 4261,
            "▁debate": 4262,
            "▁muito": 4263,
            "▁sou": 4264,
            "▁solici": 4265,
            "▁\"es": 4266,
            "▁cuidar": 4267,
            "▁entrega": 4268,
            "▁desesperada": 4269,
            "h.": 4270,
            "▁mundo.": 4271,
            "▁últimos": 4272,
            "▁amena": 4273,
            "▁sien": 4274,
            "ble.": 4275,
            "ulo": 4276,
            "▁girl": 4277,
            "▁sar": 4278,
            "▁home": 4279,
            "/0": 4280,
            "▁villa": 4281,
            "▁próxima": 4282,
            "▁playa": 4283,
            "▁día,": 4284,
            "▁crimin": 4285,
            "▁corrupción": 4286,
            "▁declara": 4287,
            "▁mata": 4288,
            "▁metro": 4289,
            "▁servicios": 4290,
            "▁anoche": 4291,
            "zó": 4293,
            "tear": 4294,
            "▁apl": 4295,
            "▁colombi": 4296,
            "▁fondo": 4297,
            "▁poquito": 4298,
            "▁resultados": 4299,
            "vez": 4300,
            "tifica": 4301,
            "zados": 4302,
            "▁proba": 4303,
            "▁pobla": 4304,
            "▁finde": 4305,
            "▁pruebas": 4306,
            "▁penal": 4307,
            "queo": 4308,
            "▁cn": 4309,
            "▁espacio": 4310,
            "▁nomas": 4311,
            "rés": 4312,
            "▁vote": 4313,
            "follow": 4314,
            "▁narco": 4315,
            "▁yo,": 4316,
            "▁colisión": 4317,
            "▁seguidores": 4318,
            "cular": 4319,
            "▁porfa": 4320,
            "mente.": 4321,
            "▁acabar": 4322,
            "▁recla": 4323,
            "cta": 4324,
            "▁won": 4325,
            "▁temprano": 4326,
            "males": 4327,
            "▁miguel": 4328,
            "▁mia": 4329,
            "chu": 4330,
            "idad.": 4331,
            "▁hojas": 4332,
            "▁gh": 4333,
            "▁mercado": 4334,
            "▁representa": 4335,
            "▁estuvi": 4336,
            "▁participar": 4337,
            "▁piensa": 4338,
            "ico,": 4339,
            "crip": 4340,
            "▁maría": 4342,
            "ista.": 4343,
            "hol": 4344,
            "tores": 4345,
            "▁fic": 4346,
            "▁deten": 4347,
            "▁think": 4348,
            "▁publicar": 4349,
            "▁vienen": 4350,
            "▁conozco": 4351,
            "isla": 4352,
            "▁recibir": 4353,
            "▁economía": 4354,
            "turas": 4355,
            "bido": 4356,
            "▁pesar": 4357,
            "▁central": 4358,
            "▁polit": 4359,
            "wer": 4360,
            "▁ando": 4361,
            "▁adop": 4362,
            "tiene": 4363,
            "▁novi": 4364,
            "▁corte": 4365,
            "▁causa": 4366,
            "arte": 4367,
            "pia": 4368,
            "▁sánchez": 4369,
            "▁sueños": 4370,
            "jeron": 4371,
            "▁cuentas": 4372,
            "▁capí": 4373,
            "▁maravillos": 4374,
            "▁wan": 4375,
            "▁disco": 4376,
            "▁tenia": 4377,
            "▁éxito": 4378,
            ":(": 4379,
            "▁viento": 4380,
            "▁cagar": 4381,
            "▁publi": 4382,
            "ública": 4383,
            "voz": 4384,
            "▁acompañ": 4385,
            "ñe": 4386,
            "monio": 4387,
            "ters": 4388,
            "cons": 4389,
            "▁baj": 4390,
            "▁mmm": 4391,
            "▁univers": 4392,
            "▁spe": 4393,
            "▁discul": 4394,
            "▁prác": 4395,
            "▁90": 4396,
            "ila": 4397,
            "kook": 4398,
            "▁ger": 4399,
            "gs": 4400,
            "▁denuncia": 4401,
            "▁pala": 4402,
            "▁inicio": 4403,
            "▁bella": 4404,
            "▁moral": 4405,
            "▁camis": 4406,
            "ws": 4407,
            "'re": 4408,
            "▁escuchando": 4409,
            "▁árbol": 4410,
            "tró": 4411,
            "ramos": 4412,
            "▁vea": 4413,
            "▁alco": 4414,
            "▁bienven": 4415,
            "_de": 4416,
            "▁tiro": 4417,
            "▁ud": 4418,
            "▁estadio": 4419,
            "▁sangre": 4420,
            "▁arreg": 4421,
            "▁apenas": 4422,
            "▁incluso": 4423,
            "xa": 4424,
            "▁repu": 4425,
            "ron": 4426,
            "int": 4427,
            "▁bajar": 4428,
            "▁fans": 4429,
            "▁arma": 4430,
            "▁rica": 4431,
            "cus": 4432,
            "▁online": 4433,
            "▁diferente": 4434,
            "▁vayan": 4435,
            "▁decía": 4436,
            "todo": 4437,
            "▁grogui": 4438,
            "▁à": 4439,
            "xt": 4440,
            "▁eje": 4441,
            "▁tho": 4442,
            "-2": 4443,
            "ga,": 4444,
            "▁vent": 4445,
            "▁temas": 4446,
            "tales": 4447,
            "▁yo:": 4448,
            "▁torne": 4449,
            "▁dem": 4450,
            "▁sonrisa": 4451,
            "▁essa": 4452,
            "▁bici": 4453,
            "▁corriendo": 4454,
            "▁televisión": 4455,
            "▁eso.": 4456,
            "jus": 4457,
            "pó": 4458,
            "_de_": 4459,
            "▁reac": 4460,
            "▁daño": 4461,
            "tui": 4462,
            "▁somb": 4463,
            "ina,": 4464,
            "▁mul": 4465,
            "▁mesa": 4466,
            "roso": 4467,
            "▁inver": 4468,
            "▁tour": 4469,
            "▁kcamexico": 4470,
            "medad": 4471,
            "▁amista": 4472,
            "▁ot": 4473,
            "▁lograr": 4474,
            "▁leo": 4475,
            "▁día.": 4476,
            "▁gén": 4477,
            "tes,": 4478,
            "▁huel": 4479,
            "ciones.": 4480,
            "▁consecu": 4481,
            "▁dejó": 4482,
            "▁argu": 4483,
            "▁simplemente": 4484,
            "▁bit": 4485,
            "▁link": 4486,
            "▁80": 4487,
            "▁baby": 4488,
            "▁organiza": 4489,
            "▁dices": 4490,
            "▁mía": 4491,
            "▁jóvenes": 4492,
            "▁asus": 4493,
            "▁república": 4494,
            "▁cab": 4495,
            "▁neta": 4496,
            "cera": 4497,
            "▁let": 4498,
            "▁modo": 4499,
            "▁distancia": 4500,
            "ctr": 4501,
            "▁sexual": 4502,
            "▁comentarios": 4503,
            "lip": 4504,
            "4.": 4505,
            "▁read": 4506,
            "▁mol": 4507,
            "ey": 4508,
            "▁ador": 4509,
            "▁huevo": 4510,
            "▁sigan": 4511,
            "ca.": 4512,
            "▁¿no": 4513,
            "▁recuper": 4514,
            "▁estudiantes": 4515,
            "▁els": 4516,
            "▁chocola": 4517,
            "▁stu": 4518,
            "▁mier": 4519,
            "▁look": 4520,
            "erva": 4521,
            "▁dign": 4522,
            "p:": 4523,
            "▁free": 4524,
            "tem": 4525,
            "▁guer": 4526,
            "▁necesitamos": 4527,
            "▁estaban": 4528,
            "▁caus": 4529,
            "▁into": 4530,
            "▁present": 4531,
            "▁cai": 4532,
            "▁casa,": 4533,
            "gados": 4534,
            "cionales": 4535,
            "▁cuál": 4536,
            "▁prueba": 4537,
            "▁urgente": 4538,
            "▁últimas": 4539,
            "▁trabajadores": 4540,
            "▁pd": 4541,
            "▁stop": 4542,
            "▁sensa": 4543,
            "ro.": 4544,
            "eets": 4545,
            "lito": 4546,
            "ily": 4547,
            "▁tengas": 4548,
            "▁enfadada": 4549,
            "▁conden": 4550,
            "▁enor": 4551,
            "ways": 4552,
            "▁ansiedad": 4553,
            "▁mínimo": 4554,
            "sito": 4555,
            "▁preci": 4556,
            "▁quede": 4557,
            "▁gesti": 4558,
            "▁imb": 4559,
            "▁acces": 4560,
            "ate": 4561,
            "▁ná": 4562,
            "▁feste": 4563,
            "▁latiendo": 4564,
            "pes": 4565,
            "chan": 4566,
            "▁spa": 4567,
            "mática": 4568,
            "▁deberían": 4569,
            "▁jung": 4570,
            "▁medic": 4571,
            "▁bad": 4572,
            "▁condu": 4573,
            "▁fracas": 4574,
            "▁gonz": 4575,
            "▁arco": 4576,
            "dri": 4577,
            "teros": 4578,
            "▁casa.": 4579,
            "▁paja": 4580,
            "▁interesante": 4581,
            "▁elector": 4582,
            "▁mantener": 4583,
            "▁extraña": 4584,
            "▁destru": 4585,
            "▁ras": 4586,
            "gimen": 4587,
            "ciones,": 4588,
            "mate": 4589,
            "▁mach": 4590,
            "pul": 4591,
            "▁wal": 4592,
            "▁mete": 4593,
            "▁cuándo": 4594,
            "▁feder": 4595,
            "rero": 4596,
            "▁miss": 4597,
            "cita": 4598,
            "▁proceso": 4599,
            "▁cristi": 4600,
            "▁ed": 4601,
            "-1": 4602,
            "ana.": 4603,
            "▁que,": 4604,
            "▁quisiera": 4605,
            "▁campo": 4606,
            "▁dura": 4607,
            "▁advertencia": 4608,
            "▁triun": 4609,
            "▁tea": 4610,
            "▁cargo": 4611,
            "bio": 4612,
            "▁vomitando": 4613,
            "▁indus": 4614,
            "▁goles": 4615,
            "puestas": 4616,
            "gracias": 4617,
            "▁épo": 4618,
            "▁vox": 4619,
            "▁still": 4620,
            "▁dibu": 4621,
            "▁zapa": 4622,
            "▁ciudadanos": 4623,
            "▁entrada": 4624,
            "remos": 4625,
            "▁felices": 4626,
            "taria": 4627,
            "▁martín": 4628,
            "ico.": 4629,
            "ense": 4630,
            "chando": 4631,
            "▁resultado": 4632,
            "▁jaja.": 4633,
            "▁tantos": 4634,
            "▁??": 4635,
            "▁equipos": 4636,
            "▁febr": 4637,
            "unta": 4638,
            "▁visit": 4639,
            "▁robo": 4640,
            "▁bás": 4641,
            "▁debemos": 4642,
            "▁anivers": 4643,
            "▁\"@usuario": 4644,
            "▁pobres": 4645,
            "▁contrario": 4646,
            "arias": 4647,
            "ana,": 4648,
            "▁todos.": 4649,
            "▁eta": 4650,
            "dra": 4651,
            "▁santiago": 4652,
            "dilla": 4653,
            "▁puerta": 4654,
            "porte": 4655,
            "z.": 4656,
            "▁listo": 4657,
            "▁preten": 4658,
            "▁suficiente": 4659,
            "hhh": 4660,
            "▁sk": 4661,
            "▁selección": 4662,
            "▁juegos": 4663,
            "fff": 4664,
            "tes.": 4665,
            "▁base": 4666,
            "llar": 4667,
            "▁hablo": 4668,
            "▁sof": 4669,
            "▁caca": 4670,
            "▁clás": 4671,
            "▁anto": 4672,
            "▁necesidad": 4673,
            "▁ass": 4674,
            "ández": 4675,
            "▁siguiente": 4676,
            "talia": 4677,
            "▁ofen": 4678,
            "ture": 4679,
            "ferencia": 4680,
            "ga.": 4681,
            "inda": 4682,
            "u.": 4683,
            "im": 4684,
            "▁patria": 4685,
            "▁campeón": 4686,
            "▁estupi": 4687,
            "ológ": 4688,
            "▁cár": 4689,
            "▁¿a": 4690,
            "▁actu": 4691,
            "▁escon": 4692,
            "▁unfollow": 4693,
            "▁podía": 4694,
            "ards": 4695,
            "▁aur": 4696,
            "▁piz": 4697,
            "ismo.": 4698,
            "▁administra": 4699,
            "▁60": 4700,
            "▁allí": 4701,
            "uros": 4702,
            "▁angel": 4703,
            "▁anton": 4704,
            "inho": 4705,
            "▁conte": 4706,
            "__": 4707,
            "ela": 4708,
            "cate": 4709,
            "▁asis": 4710,
            "eran": 4711,
            "▁lleno": 4712,
            "▁29": 4713,
            "▁cumplir": 4714,
            "▁rea": 4715,
            "▁fab": 4716,
            "olos": 4717,
            "▁mentira": 4718,
            "▁junio": 4719,
            "▁incen": 4720,
            "▁100%": 4721,
            "▁mami": 4722,
            "▁honor": 4723,
            "tm": 4724,
            "buena": 4725,
            "dición": 4726,
            "▁dy": 4727,
            "▁alberto": 4728,
            "▁tex": 4729,
            "▁apoyar": 4730,
            "jue": 4731,
            "▁leche": 4732,
            "▁abierta": 4733,
            "we": 4734,
            "▁finan": 4735,
            "▁parque": 4736,
            "▁manten": 4737,
            "▁tapada": 4738,
            "istemo": 4739,
            "gna": 4740,
            "▁adul": 4741,
            "▁coño": 4742,
            "▁director": 4743,
            "▁confianza": 4744,
            "▁concierto": 4745,
            "mera": 4746,
            "ded": 4747,
            "▁ganó": 4748,
            "ose": 4749,
            "▁esco": 4750,
            "▁dele": 4751,
            "▁tirar": 4752,
            "▁desta": 4753,
            "▁propio": 4754,
            "▁régimen": 4755,
            "▁avi": 4756,
            "cada": 4757,
            "ines": 4758,
            "cura": 4759,
            "▁mc": 4760,
            "▁dudas": 4761,
            "▁alar": 4762,
            "▁cate": 4763,
            "▁brea": 4764,
            "▁difun": 4765,
            "enos": 4766,
            "▁say": 4767,
            "▁petro": 4768,
            "truir": 4769,
            "uliantina": 4770,
            "▁tocar": 4771,
            "▁mal,": 4772,
            "is,": 4773,
            "ip": 4774,
            "▁ela": 4775,
            "▁besando": 4776,
            "▁decisión": 4777,
            "▁tab": 4778,
            "olver": 4779,
            "▁besos": 4780,
            "▁cerrar": 4781,
            "▁represent": 4782,
            "bor": 4783,
            "▁varias": 4784,
            "▁muchísimo": 4785,
            "on,": 4786,
            "▁puer": 4787,
            "▁cantidad": 4788,
            "ney": 4789,
            "▁inv": 4790,
            "▁4.": 4791,
            "▁neg": 4792,
            "▁down": 4793,
            "▁derro": 4794,
            "▁defien": 4795,
            "▁enfr": 4796,
            "▁compren": 4797,
            "▁bomba": 4798,
            "▁watch": 4799,
            "▁acab": 4800,
            "ders": 4801,
            "▁pudi": 4802,
            "tres": 4803,
            "ísima": 4804,
            "▁termine": 4805,
            "▁sevilla": 4806,
            "▁sera": 4807,
            "▁imagina": 4808,
            "ismo,": 4809,
            "▁wow": 4810,
            "cien": 4811,
            "▁pago": 4812,
            "▁same": 4813,
            "erno": 4814,
            "▁premio": 4815,
            "▁há": 4816,
            "▁relo": 4817,
            "▁tol": 4818,
            "on.": 4819,
            "▁crack": 4820,
            "▁emocion": 4821,
            "misión": 4822,
            "▁bara": 4823,
            "idad,": 4824,
            "cy": 4825,
            "▁tudo": 4826,
            "yó": 4827,
            "▁nin": 4828,
            "een": 4829,
            "▁cuento": 4830,
            "▁pidiendo": 4831,
            "▁a.": 4832,
            "▁estará": 4833,
            "▁decepcionada": 4834,
            "▁lear": 4835,
            "▁ángel": 4836,
            "▁empren": 4837,
            "▁enc": 4838,
            "cente": 4839,
            "gios": 4840,
            "▁vender": 4841,
            "▁joh": 4842,
            "▁festi": 4843,
            "▁ada": 4844,
            "▁automa": 4845,
            "▁gos": 4846,
            "▁ladr": 4847,
            "6.": 4848,
            "▁were": 4849,
            "▁quem": 4850,
            "▁rui": 4851,
            "▁belle": 4852,
            "▁altavoz": 4853,
            "▁duro": 4854,
            "▁pie": 4855,
            "ditos": 4856,
            "▁médica": 4857,
            "▁yu": 4858,
            "mí": 4859,
            "▁vecinos": 4860,
            "▁ene": 4861,
            "dina": 4862,
            "▁jorge": 4863,
            "▁ching": 4864,
            "▁hdp": 4865,
            "zo,": 4866,
            "▁verte": 4867,
            "▁alf": 4868,
            "▁lon": 4869,
            "▁queria": 4870,
            "▁ph": 4871,
            "▁ojala": 4872,
            "▁desay": 4873,
            "▁titular": 4874,
            "▁romper": 4875,
            "media": 4876,
            "▁existen": 4877,
            "▁abrir": 4878,
            "iva": 4879,
            "▁esto,": 4880,
            "▁raro": 4881,
            "▁vuelvo": 4882,
            "▁equivo": 4883,
            "doba": 4884,
            "▁comentario": 4885,
            "▁echar": 4886,
            "ls": 4887,
            "▁fron": 4888,
            "cing": 4889,
            "▁actitu": 4890,
            "▁realiz": 4891,
            "▁dijeron": 4892,
            "▁retw": 4893,
            "▁frustra": 4894,
            "▁estorn": 4895,
            "gular": 4896,
            "▁suena": 4897,
            "capa": 4898,
            "▁fres": 4899,
            "▁reír": 4900,
            "▁bogo": 4901,
            "▁omg": 4902,
            "amb": 4903,
            "▁familias": 4904,
            "▁dedos": 4905,
            "▁negocio": 4906,
            "bran": 4907,
            "se.": 4908,
            "▁explicar": 4909,
            "mo,": 4910,
            "▁perdi": 4911,
            "▁always": 4912,
            "ónica": 4913,
            "▁industri": 4914,
            "▁prefiero": 4915,
            "▁grave": 4916,
            "▁terrible": 4917,
            "▁responsabilidad": 4918,
            "▁pied": 4919,
            "▁nem": 4920,
            "▁cero": 4921,
            "▁loo": 4922,
            "test": 4923,
            "▁ejerci": 4924,
            "▁multi": 4925,
            "▁bailar": 4926,
            "▁jimin": 4927,
            "▁bille": 4928,
            "▁hacía": 4929,
            "▁\"@usuario:": 4930,
            "aso": 4931,
            "▁civil": 4932,
            "▁bote": 4933,
            "▁ing": 4934,
            "▁last": 4935,
            "▁detalles": 4936,
            "▁concep": 4937,
            "▁pega": 4938,
            "mpa": 4939,
            "▁cro": 4940,
            "▁agen": 4941,
            "▁riesgo": 4942,
            "▁right": 4943,
            "▁take": 4944,
            "▁días,": 4945,
            "quina": 4946,
            "▁burl": 4947,
            "▁crees": 4948,
            "▁cerebro": 4949,
            "▁market": 4950,
            "▁repar": 4951,
            "unda": 4952,
            "▁birth": 4953,
            "▁heart": 4954,
            "▁toque": 4955,
            "▁chico": 4956,
            "▁descon": 4957,
            "▁sing": 4958,
            "▁sua": 4959,
            "uesta": 4960,
            "▁quando": 4961,
            "vie": 4962,
            "▁serán": 4963,
            "▁episo": 4964,
            "▁glor": 4965,
            "▁mundo,": 4966,
            "▁full": 4967,
            "▁muestra": 4968,
            "▁valencia": 4969,
            "▁oye": 4970,
            "▁nen": 4971,
            "▁cancha": 4972,
            "▁gestión": 4973,
            "▁siesta": 4974,
            "▁viste": 4975,
            "▁conseguir": 4976,
            "▁mtvlaf": 4977,
            "ería": 4978,
            "▁racis": 4979,
            "▁pura": 4980,
            "▁perfecto": 4981,
            "▁propia": 4982,
            "aban": 4983,
            "▁agosto": 4984,
            "▁nervios": 4985,
            "n't": 4986,
            "▁cumpli": 4987,
            "▁estrate": 4988,
            "▁reto": 4989,
            "▁ile": 4990,
            "▁ino": 4991,
            "ce.": 4992,
            "od": 4993,
            "▁espal": 4994,
            "bri": 4995,
            "jaa": 4996,
            "▁alum": 4997,
            "isco": 4998,
            "ood": 4999,
            "▁famos": 5000,
            "segu": 5001,
            "▁dr": 5002,
            "▁sorpres": 5003,
            "▁confirma": 5004,
            "▁tl": 5005,
            "istas,": 5006,
            "udando": 5007,
            "▁mio": 5008,
            "itaria": 5009,
            "▁sena": 5010,
            "▁agora": 5011,
            "▁dm": 5012,
            "▁amor,": 5013,
            "▁bue": 5014,
            "▁cuarto": 5015,
            "▁médic": 5016,
            "itales": 5017,
            "▁hubo": 5018,
            "▁cariño": 5019,
            "▁news": 5020,
            "9.": 5021,
            "▁abuela": 5022,
            "▁encontra": 5023,
            "▁rece": 5024,
            "▁humil": 5025,
            "kd": 5026,
            "dedor": 5027,
            "tch": 5028,
            "▁perdon": 5029,
            "▁adi": 5030,
            "▁deman": 5031,
            "timos": 5032,
            "▁coche": 5033,
            "bit": 5034,
            "▁lou": 5035,
            "ts.": 5036,
            "▁regis": 5037,
            "▁bbmas": 5038,
            "▁jefe": 5039,
            "mic": 5040,
            "▁champions": 5041,
            "quin": 5042,
            "▁esperanza": 5043,
            "▁joa": 5044,
            "ide": 5045,
            "▁votos": 5046,
            "lia": 5047,
            "▁brindando": 5048,
            "▁juz": 5049,
            "useas": 5050,
            "▁lamentable": 5051,
            "▁objetivo": 5052,
            "▁propi": 5053,
            "▁propon": 5054,
            "▁publica": 5055,
            "▁funciona": 5056,
            "▁pocos": 5057,
            "▁cinco": 5058,
            "orar": 5059,
            "iana": 5060,
            "▁calla": 5061,
            "▁comba": 5062,
            "icular": 5063,
            "▁uruguay": 5064,
            "▁joda": 5065,
            "▁placer": 5066,
            "▁perdido": 5067,
            "▁opción": 5068,
            "▁asegu": 5069,
            "tillo": 5070,
            "▁calend": 5071,
            "▁resop": 5072,
            "?\"": 5073,
            "entos": 5074,
            "▁mario": 5075,
            "▁saque": 5076,
            "eco": 5077,
            "▁símbolos": 5078,
            "▁google": 5079,
            "▁responder": 5080,
            "sor": 5081,
            "▁llegan": 5082,
            "hab": 5083,
            "▁bebida": 5084,
            "sal": 5085,
            "siones": 5086,
            "▁resoplando": 5087,
            "tora": 5088,
            "▁siempre.": 5089,
            "en.": 5090,
            "▁aniversario": 5091,
            "▁esfuerzo": 5092,
            "▁menor": 5093,
            "▁cuidado": 5094,
            "▁acciones": 5095,
            "is.": 5096,
            "▁desas": 5097,
            "▁parar": 5098,
            "▁energía": 5099,
            "rue": 5100,
            "▁trá": 5101,
            "▁reloj": 5102,
            "vidades": 5103,
            "▁mediana": 5104,
            "▁frase": 5105,
            "▁obras": 5106,
            "▁ev": 5107,
            "▁embar": 5108,
            "▁pesos": 5109,
            "ful": 5110,
            "▁pinta": 5111,
            "▁gir": 5112,
            "▁alcalde": 5113,
            "▁madru": 5114,
            "▁náuseas": 5115,
            "▁km": 5116,
            "▁going": 5117,
            "▁alre": 5118,
            "▁minuto": 5119,
            "▁verdad,": 5120,
            "en,": 5121,
            "▁gracias.": 5122,
            "gentes": 5123,
            "▁así.": 5124,
            "▁huevos": 5125,
            "ah": 5126,
            "▁ejecu": 5127,
            "▁afu": 5128,
            "▁tas": 5129,
            "▁cuida": 5130,
            "▁photo": 5131,
            "▁had": 5132,
            "▁diferentes": 5133,
            "▁hogar": 5134,
            "▁eter": 5135,
            "▁realizar": 5136,
            "▁pegar": 5137,
            "k,": 5138,
            "▁being": 5139,
            "jj": 5140,
            "▁gala": 5141,
            "▁cocina": 5142,
            "cian": 5143,
            "▁bolsa": 5144,
            "▁medal": 5145,
            "bs": 5146,
            "olina": 5147,
            "▁teniendo": 5148,
            "▁ris": 5149,
            "▁país,": 5150,
            "▁cen": 5151,
            "▁fru": 5152,
            "▁ul": 5154,
            "▁terri": 5155,
            "▁70": 5156,
            "▁imagino": 5157,
            "▁saludando": 5158,
            "▁desapar": 5159,
            "▁calendario": 5160,
            "▁venezolanos": 5161,
            "▁pudo": 5162,
            "▁salvar": 5163,
            "▁resta": 5164,
            "▁solidar": 5165,
            "vamos": 5166,
            "▁entiende": 5168,
            "▁aleman": 5169,
            "▁artículo": 5170,
            "▁prima": 5171,
            "uma": 5172,
            "tagon": 5173,
            "▁vamo": 5174,
            "▁tarta": 5175,
            "▁llevan": 5176,
            "▁cita": 5177,
            "*.": 5178,
            "▁encuentra": 5179,
            "▁rele": 5180,
            "▁norte": 5181,
            "▁tomando": 5182,
            "▁pija": 5183,
            "dremos": 5184,
            "quién": 5185,
            "ind": 5186,
            "▁tweets": 5187,
            "▁explotando": 5188,
            "▁\"si": 5189,
            "era,": 5190,
            "▁ideas": 5191,
            "▁plen": 5192,
            "▁thanks": 5193,
            "▁recomenda": 5194,
            "▁gracia": 5195,
            "▁robar": 5196,
            "▁fol": 5197,
            "▁hones": 5198,
            "▁vidas": 5199,
            "genes": 5200,
            "ardo": 5201,
            "▁encontr": 5202,
            "▁inici": 5203,
            "▁comb": 5204,
            "▁viven": 5205,
            "▁página": 5206,
            "▁enero": 5207,
            "▁lee": 5208,
            "ço": 5209,
            "▁periodista": 5210,
            "lic": 5211,
            "▁reina": 5212,
            "tumb": 5213,
            "viada": 5214,
            "ifa": 5215,
            "▁micró": 5216,
            "▁2017": 5217,
            "▁cc": 5218,
            "▁odi": 5219,
            "▁consejo": 5220,
            "▁faltan": 5221,
            "▁esto.": 5222,
            "▁hy": 5223,
            "▁si.": 5224,
            "▁does": 5225,
            "mo.": 5226,
            "▁alcohol": 5227,
            "▁versión": 5228,
            "tú": 5229,
            "le.": 5230,
            "▁borra": 5231,
            "▁emergencia": 5232,
            "▁impac": 5233,
            "quita": 5234,
            "▁teclas": 5235,
            "▁inclu": 5236,
            "pri": 5237,
            "illas": 5238,
            "▁tira": 5239,
            "▁deus": 5240,
            "tto": 5241,
            "▁recursos": 5242,
            "viendo": 5243,
            "▁preguntas": 5244,
            "▁enca": 5245,
            "tive": 5246,
            "▁obliga": 5247,
            "▁alegría": 5248,
            "▁interesa": 5249,
            "▁micro": 5250,
            "▁salida": 5251,
            "▁noviembre": 5252,
            "▁compañeros": 5253,
            "▁mina": 5254,
            "▁also": 5255,
            "▁desgra": 5256,
            "▁years": 5257,
            "u,": 5258,
            "▁reme": 5259,
            "▁francis": 5260,
            "▁pendeja": 5261,
            "▁completo": 5262,
            "▁mostrando": 5263,
            "▁mejorar": 5264,
            "▁redon": 5265,
            "lez": 5266,
            "ush": 5267,
            "p,": 5268,
            "aragua": 5269,
            "orado": 5270,
            "ak": 5271,
            "▁muerto": 5272,
            "▁tremendo": 5273,
            "▁part": 5274,
            "▁oi": 5275,
            "▁detrás": 5276,
            "▁excl": 5277,
            "ionales": 5278,
            "▁supera": 5279,
            "▁chiste": 5280,
            "icul": 5281,
            "jajajajajajajaja": 5282,
            "▁baño": 5283,
            "▁hable": 5284,
            "esa": 5285,
            "▁sun": 5286,
            "▁necesitan": 5287,
            "▁rio": 5288,
            "▁continu": 5289,
            "▁recupera": 5290,
            "▁humanos": 5291,
            "▁zo": 5292,
            "▁reunión": 5293,
            "▁parecer": 5294,
            "anas": 5295,
            "▁verlo": 5296,
            "▁porq": 5297,
            "▁pso": 5298,
            "tus": 5299,
            "▁alex": 5300,
            "▁compe": 5301,
            "▁influ": 5302,
            "▁well": 5303,
            "iler": 5304,
            "▁give": 5305,
            "▁lic": 5306,
            "▁semp": 5307,
            "▁perros": 5308,
            "minar": 5309,
            "▁caí": 5310,
            "▁primeros": 5311,
            "▁acompaña": 5312,
            "▁tenés": 5313,
            "▁joy": 5314,
            "▁night": 5315,
            "▁bebe": 5316,
            "▁provincia": 5317,
            "▁could": 5318,
            "hay": 5319,
            "▁personaje": 5320,
            "los.": 5321,
            "▁rafa": 5322,
            "hahahaha": 5323,
            "▁maf": 5324,
            "▁grupos": 5325,
            "▁distri": 5326,
            "cán": 5327,
            "ign": 5328,
            "▁@usuario!": 5329,
            "▁should": 5330,
            "eratura": 5331,
            "▁curios": 5332,
            "▁ges": 5333,
            "▁ingl": 5334,
            "▁quieras": 5335,
            "▁crear": 5336,
            "▁ciencia": 5337,
            "▁fren": 5338,
            "▁tendría": 5339,
            "vier": 5340,
            "▁ánimo": 5341,
            "▁dre": 5342,
            "▁memoria": 5343,
            "▁claro,": 5344,
            "▁comunicación": 5345,
            "quilla": 5346,
            "▁gracias,": 5347,
            "ical": 5348,
            "▁investiga": 5349,
            "urs": 5350,
            "▁femen": 5351,
            "▁ao": 5352,
            "elli": 5353,
            "▁es,": 5354,
            "eas": 5355,
            "ráqueo": 5356,
            "▁pregunto": 5357,
            "▁taller": 5358,
            "8.": 5359,
            "mano": 5360,
            "▁chicas": 5362,
            "los,": 5363,
            "▁cré": 5364,
            "▁veh": 5365,
            "tically": 5366,
            "grafía": 5367,
            "▁(a": 5368,
            "▁coin": 5369,
            "▁imper": 5370,
            "▁escol": 5371,
            "▁micrófono": 5372,
            "▁shit": 5373,
            "▁sem": 5374,
            "▁común": 5375,
            "▁grá": 5376,
            "▁imá": 5377,
            "▁inno": 5378,
            "iti": 5379,
            "ire": 5380,
            "rlo": 5381,
            "fans": 5382,
            "ba,": 5383,
            "▁uribe": 5384,
            "gido": 5385,
            "▁celebrar": 5386,
            "▁yes": 5387,
            "▁;)": 5388,
            "▁vul": 5389,
            "▁flores": 5390,
            "▁cárcel": 5391,
            "horabuena": 5392,
            "rita": 5393,
            "lé": 5394,
            "▁médico": 5395,
            "▁negra": 5396,
            "▁debo": 5397,
            "ttp:": 5398,
            "▁andalu": 5399,
            "▁ic": 5400,
            "▁hoje": 5401,
            "c,": 5402,
            "▁hé": 5403,
            "▁most": 5404,
            "▁selector": 5405,
            "▁peru": 5406,
            "%.": 5407,
            "jado": 5408,
            "▁éste": 5409,
            "▁ofic": 5410,
            "▁salvador": 5411,
            "▁periodistas": 5412,
            "▁hagas": 5413,
            "tida": 5414,
            "▁jungkook": 5415,
            "ttp://": 5416,
            "drá": 5417,
            "uta": 5418,
            "jero": 5419,
            "▁harry": 5420,
            "leta": 5421,
            "▁intentar": 5422,
            "▁febrero": 5423,
            "▁estornudando": 5424,
            "icana": 5425,
            "▁carne": 5426,
            "▁películas": 5427,
            "le,": 5428,
            "▁hac": 5429,
            "ww": 5430,
            "▁¡no": 5431,
            "back": 5432,
            "▁aliviada": 5433,
            "▁limi": 5434,
            "ncia": 5435,
            "▁prefer": 5436,
            "ór": 5437,
            "▁help": 5438,
            "▁cs": 5439,
            "▁pm": 5440,
            "▁run": 5441,
            "▁estú": 5442,
            "▁quizás": 5443,
            "▁learn": 5444,
            "▁vuelva": 5445,
            "▁terráqueo": 5446,
            "dent": 5447,
            "▁cabel": 5448,
            "mas,": 5449,
            "▁gobern": 5450,
            "▁chav": 5451,
            "▁realiza": 5452,
            "tería": 5453,
            "▁gente,": 5454,
            "▁porqué": 5455,
            "▁favorito": 5456,
            "▁virtual": 5457,
            "▁cán": 5458,
            "▁emi": 5459,
            "▁ciudadan": 5460,
            "▁complica": 5461,
            "rida": 5462,
            "▁div": 5463,
            "▁gotas": 5464,
            "ges": 5465,
            "▁vues": 5466,
            "▁reli": 5467,
            "▁tratar": 5468,
            "▁mentiras": 5469,
            "▁cór": 5470,
            "álisis": 5471,
            "▁bolivia": 5472,
            "▁tiempo.": 5473,
            "▁nega": 5474,
            "▁event": 5475,
            "land": 5476,
            "▁cantar": 5477,
            "▁sempre": 5478,
            "▁¡a": 5479,
            "▁facul": 5480,
            "▁these": 5481,
            "▁torneo": 5482,
            "▁quedate": 5483,
            "▁diego": 5484,
            "▁hoy.": 5485,
            "▁llamado": 5486,
            "▁hacerme": 5487,
            "▁¿que": 5488,
            "self": 5489,
            "▁checked": 5490,
            "▁birthday": 5491,
            "▁suma": 5492,
            "▁pode": 5493,
            "dientes": 5494,
            "▁estilo": 5495,
            "▁kee": 5496,
            "▁inglés": 5497,
            "▁pude": 5498,
            "tique": 5499,
            "▁tendrá": 5500,
            "▁cdmx": 5501,
            "se,": 5502,
            "cter": 5503,
            "▁ingen": 5504,
            "▁teatro": 5505,
            "▁fortale": 5506,
            "▁trib": 5507,
            "▁acto": 5508,
            "tividad": 5509,
            "▁automatically": 5510,
            "▁chic": 5511,
            "▁end": 5512,
            "rs": 5513,
            "▁aud": 5514,
            "▁acon": 5515,
            "▁resulta": 5516,
            "▁1,": 5517,
            "▁león": 5518,
            "▁económica": 5519,
            "▁acción": 5520,
            "▁empeza": 5521,
            "ble,": 5522,
            "▁capacidad": 5523,
            "▁reflex": 5524,
            "▁clave": 5525,
            "era.": 5526,
            "ctores": 5527,
            "▁todos,": 5528,
            "▁work": 5529,
            "▁ub": 5530,
            "▁series": 5531,
            "▁31": 5532,
            "▁tecnología": 5533,
            "▁elegir": 5534,
            "▁isla": 5535,
            "▁\"me": 5536,
            "▁caden": 5537,
            "tional": 5538,
            "▁better": 5539,
            "gol": 5540,
            "▁noso": 5541,
            "▁favor,": 5542,
            "▁interés": 5543,
            "queros": 5544,
            "deos": 5545,
            "▁ascen": 5546,
            "tario": 5547,
            "▁tío": 5548,
            "▁mal.": 5549,
            "▁deporte": 5550,
            "▁lanza": 5551,
            "▁(?)": 5552,
            "▁vel": 5553,
            "▁edición": 5554,
            "▁carre": 5555,
            "▁coca": 5556,
            "▁mirando": 5557,
            "▁bronca": 5558,
            "▁queres": 5559,
            "▁empleo": 5560,
            "▁daniel": 5561,
            "--": 5562,
            "▁evento": 5563,
            "▁roja": 5564,
            "▁modelo": 5565,
            "▁festival": 5566,
            "▁malas": 5567,
            "▁montón": 5568,
            "▁vice": 5569,
            "▁lá": 5570,
            "▁premi": 5571,
            "▁great": 5572,
            "▁tiempo,": 5573,
            "▁got7": 5574,
            ".0": 5575,
            "▁vá": 5576,
            "▁open": 5577,
            "▁protección": 5578,
            "▁definitivamente": 5579,
            "▁entren": 5580,
            "ce,": 5581,
            "▁refu": 5582,
            "estas": 5583,
            "▁río": 5584,
            "▁http://": 5585,
            "▁dedica": 5586,
            "▁piden": 5587,
            "▁ambos": 5588,
            "▁aparece": 5589,
            "▁arru": 5590,
            "▁hiciste": 5591,
            "▁bang": 5592,
            "▁capit": 5593,
            "ica,": 5594,
            "▁interior": 5595,
            "▁ocas": 5596,
            "▁francia": 5597,
            "gy": 5598,
            "▁tarje": 5599,
            "▁levantar": 5600,
            "▁piso": 5601,
            "▁convoca": 5602,
            "▁pelotudo": 5603,
            "▁gobernador": 5604,
            "▁hit": 5605,
            "▁puedan": 5606,
            "▁fazer": 5608,
            "▁toy": 5609,
            "▁capítulo": 5610,
            "▁comienza": 5611,
            "▁ahhh": 5612,
            "▁época": 5613,
            "▁diá": 5614,
            "▁aut": 5615,
            "▁informe": 5616,
            "mula": 5617,
            "▁pio": 5618,
            "▁env": 5619,
            "▁audio": 5620,
            "▁acco": 5621,
            "sh": 5622,
            "▁humano": 5623,
            "▁coun": 5624,
            "▁acci": 5625,
            "inar": 5626,
            "▁importantes": 5627,
            "▁clima": 5628,
            "▁estuve": 5629,
            "▁rober": 5630,
            "▁aparte": 5631,
            "▁mensajes": 5632,
            "▁ti,": 5633,
            "▁global": 5634,
            "▁verdadero": 5635,
            "▁¿quién": 5636,
            "ba.": 5637,
            "▁followed": 5638,
            "▁god": 5639,
            "▁other": 5640,
            "tán": 5641,
            "▁oposición": 5642,
            "▁escucho": 5643,
            "dade": 5644,
            "▁siempre,": 5645,
            "▁call": 5646,
            "▁ocul": 5647,
            "▁mismo.": 5648,
            "▁miren": 5649,
            "▁meta": 5650,
            "▁barça": 5651,
            "teando": 5652,
            "▁desgracia": 5653,
            "▁judi": 5654,
            "▁pros": 5655,
            "dere": 5656,
            "▁municipal": 5657,
            "fin": 5658,
            "▁fase": 5659,
            "▁presentación": 5660,
            "▁marketing": 5661,
            "mmer": 5662,
            "itor": 5663,
            "han": 5664,
            "▁muere": 5665,
            "▁aplica": 5666,
            "dela": 5667,
            "▁sopor": 5668,
            "▁cach": 5669,
            "▁david": 5670,
            "▁especta": 5671,
            "▁م": 5672,
            "g.": 5673,
            "er,": 5674,
            "quero": 5675,
            "▁gay": 5676,
            "▁italia": 5677,
            "▁vosotros": 5678,
            "▁cuánto": 5679,
            "▁visual": 5680,
            "▁artis": 5681,
            "▁correspon": 5682,
            "▁impresion": 5683,
            "▁parla": 5684,
            "▁tik": 5685,
            "▁días.": 5686,
            "dero": 5687,
            "of": 5688,
            "▁rí": 5689,
            "didos": 5690,
            "▁población": 5691,
            "▁tuyo": 5692,
            "▁lopez": 5693,
            "▁actividades": 5694,
            "▁salgo": 5695,
            "▁empezó": 5696,
            "▁discu": 5697,
            "▁impul": 5698,
            "▁made": 5699,
            "tun": 5700,
            "er.": 5701,
            "▁said": 5702,
            "ns": 5703,
            "rí": 5704,
            "lec": 5705,
            "▁canta": 5706,
            "▁fascis": 5707,
            "▁boo": 5708,
            "▁compromiso": 5709,
            "▁afir": 5710,
            "▁volun": 5711,
            "▁(y": 5712,
            "▁debes": 5713,
            "▁\"de": 5714,
            "▁particip": 5715,
            "aram": 5716,
            "▁carta": 5717,
            "▁saco": 5718,
            "▁vengan": 5719,
            "▁antonio": 5720,
            "▁500": 5721,
            "▁felicitaciones": 5722,
            "▁kid": 5723,
            "▁santo": 5724,
            "▁manuel": 5725,
            "▁aban": 5726,
            "ple": 5727,
            "▁vota": 5728,
            "rán": 5729,
            "▁ambiente": 5730,
            "igu": 5731,
            "▁estén": 5732,
            "▁kil": 5733,
            "▁digas": 5734,
            "▁irme": 5735,
            "guez": 5736,
            "▁condiciones": 5737,
            "▁impuestos": 5738,
            "cun": 5739,
            "▁cuantos": 5740,
            "▁perman": 5741,
            "▁mostra": 5742,
            "▁literalmente": 5743,
            "▁vícti": 5744,
            "ando.": 5745,
            "▁(@usuario)": 5746,
            "▁camiseta": 5747,
            "▁conce": 5748,
            "▁comiendo": 5749,
            "▁wait": 5750,
            "bos": 5751,
            "ñan": 5752,
            "▁cali": 5753,
            "▁obser": 5754,
            "nes": 5756,
            "▁olvid": 5757,
            "▁injus": 5758,
            "▁diputados": 5759,
            "▁independiente": 5760,
            "▁garcía": 5761,
            "▁valen": 5762,
            "▁reforma": 5763,
            "fan": 5764,
            "gin": 5765,
            "▁justif": 5766,
            "▁mtvlapare": 5767,
            "▁little": 5768,
            "▁garanti": 5769,
            "▁reno": 5770,
            "vic": 5771,
            "lón": 5772,
            "▁beau": 5773,
            "▁latino": 5774,
            "▁sube": 5775,
            "é,": 5776,
            "udia": 5777,
            "▁merca": 5778,
            "▁nose": 5779,
            "▁mx": 5780,
            "▁bill": 5781,
            "▁une": 5782,
            "▁pierde": 5783,
            "▁principal": 5784,
            "▁vean": 5785,
            "▁atre": 5786,
            "▁respecto": 5787,
            "▁enorme": 5788,
            "▁sinc": 5789,
            "▁positivo": 5790,
            "▁moment": 5791,
            "▁llegado": 5792,
            "▁hipo": 5793,
            "▁chal": 5794,
            "▁etc.": 5795,
            "ándome": 5796,
            "▁wil": 5797,
            "oos": 5798,
            "▁juvent": 5799,
            "ica.": 5800,
            "▁cant": 5801,
            "▁campeona": 5802,
            "▁favorita": 5803,
            "▁hincha": 5804,
            "▁hp": 5805,
            "▁molesta": 5806,
            "▁league": 5807,
            "▁apo": 5808,
            "▁jesús": 5809,
            "▁altura": 5810,
            "bin": 5811,
            "▁vengo": 5812,
            "▁región": 5813,
            "▁sexo": 5814,
            "▁piensan": 5815,
            "▁dictadura": 5816,
            "centes": 5817,
            "ing.": 5818,
            "▁ello": 5819,
            "▁interven": 5820,
            "▁preguntar": 5821,
            "▁rue": 5822,
            "▁ti.": 5823,
            "ever": 5824,
            "▁ahora,": 5825,
            "▁hablamos": 5826,
            "▁mayores": 5827,
            "▁panamá": 5828,
            "todos": 5829,
            "▁viajar": 5830,
            "▁decirle": 5831,
            "mático": 5832,
            "tti": 5833,
            "▁auricular": 5834,
            "▁actividad": 5835,
            "les.": 5836,
            "▁habría": 5837,
            "▁qual": 5838,
            "nal": 5839,
            "▁pela": 5840,
            "▁acerca": 5841,
            "éctr": 5842,
            "▁millon": 5843,
            "▁cientí": 5844,
            "▁cocin": 5845,
            "icamente": 5846,
            "les,": 5847,
            "▁gustó": 5848,
            "▁progres": 5849,
            "▁leí": 5850,
            "▁martin": 5851,
            "▁high": 5852,
            "▁imágenes": 5853,
            "▁profe": 5854,
            "▁impun": 5855,
            "▁logra": 5856,
            "▁presentar": 5857,
            "▁nicol": 5858,
            "▁friends": 5859,
            "▁anuncia": 5860,
            "▁belleza": 5861,
            "▁horario": 5862,
            "mas.": 5863,
            "pl": 5864,
            "ándole": 5865,
            "▁confun": 5866,
            "meros": 5867,
            "▁quitar": 5868,
            "▁very": 5869,
            "▁jajajaj": 5870,
            "▁peso": 5871,
            "▁5.": 5872,
            "▁cata": 5873,
            "▁ace": 5874,
            "▁hun": 5875,
            "▁culp": 5876,
            "▁coj": 5877,
            "▁gy": 5878,
            "tita": 5879,
            "▁@usuario..": 5880,
            "▁cont": 5881,
            "▁presión": 5882,
            "▁ataque": 5883,
            "ect": 5884,
            "gala": 5885,
            "▁coor": 5886,
            "▁mejor.": 5887,
            "▁ilus": 5888,
            "▁alv": 5889,
            "ito,": 5890,
            "▁movimiento": 5891,
            "▁perió": 5892,
            "▁oc": 5893,
            "▁extran": 5894,
            "▁hotel": 5895,
            "crá": 5896,
            "▁tercera": 5897,
            "▁pizza": 5898,
            "eria": 5899,
            "▁colon": 5900,
            "▁jaj": 5901,
            "▁excep": 5902,
            "colo": 5903,
            "bur": 5904,
            "▁ahorita": 5905,
            "▁examen": 5906,
            "ando,": 5907,
            "▁id": 5908,
            "ducción": 5909,
            "▁agus": 5910,
            "▁culia": 5911,
            "▁cif": 5912,
            "▁cambios": 5913,
            "udas": 5914,
            "▁discurso": 5915,
            "▁fea": 5916,
            "▁motivo": 5917,
            "▁miemb": 5918,
            "estar": 5919,
            "▁encer": 5920,
            "▁desastre": 5921,
            "▁olvida": 5922,
            "▁ponga": 5923,
            "▁asamb": 5924,
            "▁mila": 5925,
            "▁vera": 5926,
            "▁asocia": 5927,
            "▁aero": 5928,
            "&lt;": 5929,
            "▁recibiendo": 5930,
            "yos": 5931,
            "minación": 5932,
            "▁isa": 5933,
            "tec": 5934,
            "▁dios,": 5935,
            "▁abue": 5936,
            "▁chocolate": 5937,
            "l.": 5938,
            "▁considera": 5939,
            "ueva": 5940,
            "jajaja": 5941,
            "ane": 5942,
            "▁sí.": 5943,
            "▁bogotá": 5944,
            "jin": 5945,
            "▁guste": 5946,
            "▁profesor": 5947,
            "sin": 5948,
            "▁neutral": 5949,
            "tadores": 5950,
            "▁animales": 5951,
            "▁entera": 5952,
            "▁abierto": 5953,
            "▁arcoír": 5954,
            "▁\"en": 5955,
            "▁estable": 5956,
            "▁cantando": 5957,
            "▁familiar": 5958,
            "▁sis": 5959,
            "▁bendi": 5960,
            "dor.": 5961,
            "▁jer": 5962,
            "anto": 5963,
            "▁asun": 5964,
            "▁fandom": 5965,
            "▁http://url": 5966,
            "▁solución": 5967,
            "▁vende": 5968,
            "teca": 5969,
            "▁sois": 5970,
            "▁moto": 5971,
            "kaka": 5972,
            "▁cristina": 5973,
            "dimiento": 5974,
            "▁peron": 5975,
            "▁verdad.": 5976,
            "▁medalla": 5977,
            "rique": 5978,
            "▁posta": 5979,
            "▁mostrar": 5980,
            "▁fake": 5981,
            "▁where": 5982,
            "].": 5983,
            "▁máximo": 5984,
            "▁volvió": 5985,
            "pel": 5986,
            "▁unión": 5987,
            "▁unidad": 5988,
            "▁acostumb": 5989,
            "▁sober": 5990,
            "▁integ": 5991,
            "dor,": 5992,
            "▁feria": 5993,
            "▁arcoíris": 5994,
            "▁investigación": 5995,
            "▁pierdas": 5996,
            "▁mez": 5997,
            "▁estima": 5998,
            "▁responsable": 5999,
            "▁asu": 6001,
            "quia": 6002,
            "▁yoon": 6003,
            "▁cáncer": 6004,
            "&amp;": 6005,
            "ime": 6006,
            "▁tarea": 6007,
            "jsj": 6008,
            "▁song": 6009,
            "▁protagon": 6010,
            "▁princes": 6011,
            "▁absolutamente": 6012,
            "▁revis": 6013,
            "▁dona": 6014,
            "cula": 6015,
            "eso": 6016,
            "▁mates": 6017,
            "jeros": 6018,
            "▁preciosa": 6019,
            "▁agres": 6020,
            "▁inau": 6021,
            "▁anterior": 6022,
            "cciones": 6023,
            "▁spotif": 6024,
            "▁diría": 6025,
            "ina.": 6026,
            "▁thre": 6027,
            "▁awards": 6028,
            "▁amigos,": 6029,
            "▁autoridades": 6030,
            "▁marco": 6031,
            "▁emple": 6032,
            "hoy": 6033,
            "▁\"los": 6034,
            "▁concent": 6035,
            "▁sorry": 6036,
            "▁alej": 6037,
            "▁disfruta": 6038,
            "ork": 6039,
            "▁hablas": 6040,
            "istas.": 6041,
            "▁termino": 6042,
            "ged": 6043,
            "▁ola": 6044,
            "▁mons": 6045,
            "▁tardes": 6046,
            "▁querés": 6047,
            "▁¡fel": 6048,
            "row": 6049,
            "let": 6050,
            "▁ninguno": 6051,
            "▁mierda.": 6052,
            "▁carga": 6053,
            "▁hope": 6054,
            "▁importancia": 6055,
            "▁city": 6056,
            "▁hará": 6057,
            "▁murió": 6058,
            "▁comisión": 6059,
            "▁tercer": 6060,
            "b.": 6061,
            "▁trabajos": 6062,
            "▁afuera": 6063,
            "▁dema": 6064,
            "▁córdoba": 6065,
            "▁voltaje": 6066,
            "▁jal": 6067,
            "▁médicos": 6068,
            "▁apun": 6069,
            "▁cago": 6070,
            "\":": 6071,
            "\"...": 6072,
            "ux": 6073,
            "▁análisis": 6074,
            "▁completa": 6075,
            "▁cop": 6076,
            "▁productos": 6077,
            "▁género": 6078,
            "▁psoe": 6079,
            "cón": 6080,
            "▁consulta": 6081,
            "?,": 6082,
            "ats": 6083,
            "ante.": 6084,
            "▁elig": 6085,
            "▁eléctr": 6086,
            "▁mismo,": 6087,
            "har": 6088,
            "▁misera": 6089,
            "▁cuestion": 6090,
            "▁compara": 6091,
            "▁consider": 6092,
            "▁gustado": 6093,
            "▁dirección": 6094,
            "▁trae": 6095,
            "▁aborto": 6096,
            "▁agradecer": 6097,
            "▁\"n": 6098,
            "▁perten": 6099,
            "▁mucho,": 6100,
            "▁descono": 6101,
            "etas": 6102,
            ",000": 6103,
            "▁wtf": 6104,
            "▁2021": 6105,
            "▁congres": 6106,
            "▁depende": 6107,
            "zo.": 6108,
            "▁¿te": 6109,
            "▁francisco": 6110,
            "tieron": 6111,
            "▁oscar": 6112,
            "▁exclusi": 6113,
            "▁mini": 6114,
            "▁jejeje": 6115,
            "▁poniendo": 6116,
            "▁poca": 6117,
            "▁desapare": 6118,
            "▁fc": 6119,
            "▁madres": 6120,
            "tiful": 6121,
            "▁:d": 6122,
            "bón": 6123,
            "puta": 6124,
            "▁extrañar": 6126,
            "antil": 6127,
            "nd": 6128,
            "▁pibe": 6129,
            "▁maestro": 6130,
            "▁lava": 6131,
            "▁niñas": 6132,
            "mestre": 6133,
            "▁sobr": 6134,
            "▁cancel": 6135,
            "andro": 6136,
            "▁proyectos": 6137,
            "▁mv": 6138,
            "▁dyna": 6139,
            "▁c.": 6140,
            "▁vacuna": 6141,
            "▁ocupa": 6142,
            "▁tré": 6143,
            "▁quita": 6144,
            "▁sorteo": 6145,
            "▁apoya": 6146,
            "▁embara": 6147,
            "tali": 6148,
            "▁valent": 6149,
            "▁then": 6150,
            "icano": 6151,
            "ts,": 6152,
            "ller": 6153,
            "▁empa": 6154,
            "▁rit": 6155,
            "▁quieran": 6156,
            "anda": 6157,
            "▁nicaragua": 6158,
            "▁keep": 6159,
            "▁lugares": 6160,
            "▁iglesia": 6161,
            "▁fuerzas": 6162,
            "**": 6163,
            "▁35": 6164,
            "joy": 6165,
            "▁sim": 6166,
            "▁cobrar": 6167,
            "▁depar": 6168,
            "▁party": 6169,
            "▁peña": 6170,
            "▁resis": 6171,
            "▁saludo": 6172,
            "▁plena": 6173,
            "▁maria": 6174,
            "&gt;&gt;&gt;&gt;": 6175,
            "▁bom": 6176,
            "▁rombo": 6177,
            "▁tod": 6178,
            "ipe": 6179,
            "▁renun": 6180,
            "▁infin": 6181,
            "▁nao": 6182,
            "▁transporte": 6183,
            "▁semi": 6184,
            "▁desin": 6185,
            "▁ejercicio": 6186,
            "▁ye": 6187,
            "▁loc": 6188,
            "▁perdió": 6189,
            "▁candidato": 6190,
            "▁cub": 6191,
            "▁trébol": 6192,
            "vile": 6193,
            "▁next": 6194,
            "uro": 6195,
            "▁guardia": 6196,
            "▁dejado": 6197,
            "▁bibl": 6198,
            "▁valle": 6199,
            "▁cierto,": 6200,
            "gus": 6201,
            "▁responde": 6202,
            "▁md": 6203,
            "▁ya.": 6204,
            "▁dólares": 6205,
            "wu": 6206,
            "▁merecen": 6207,
            "▁chupa": 6208,
            "so.": 6209,
            "▁magn": 6210,
            "▁dedic": 6211,
            "▁inso": 6212,
            "▁correr": 6213,
            "idas": 6214,
            "▁sensi": 6215,
            "▁alerta": 6216,
            "▁superar": 6217,
            "▁aven": 6218,
            "phone": 6219,
            "▁aquellos": 6220,
            "▁infec": 6221,
            "▁declar": 6222,
            "▁permitir": 6223,
            "▁quero": 6224,
            "gá": 6225,
            "▁lloro": 6226,
            "▁mareo": 6227,
            "▁dame": 6228,
            "▁deix": 6229,
            "▁fernando": 6230,
            "▁repetir": 6231,
            "fic": 6232,
            "melo": 6233,
            "▁entradas": 6234,
            "cie": 6235,
            "tz": 6236,
            "/10": 6237,
            "responsab": 6238,
            "▁habit": 6239,
            "▁master": 6240,
            "▁carro": 6241,
            "▁confor": 6242,
            "▁sepa": 6243,
            "▁espec": 6244,
            "▁duque": 6245,
            "▁の": 6246,
            "▁frustración": 6247,
            "▁america": 6248,
            "vidu": 6249,
            "▁histór": 6250,
            "enario": 6251,
            "enti": 6252,
            "▁portu": 6253,
            "▁inú": 6254,
            "▁fuiste": 6255,
            "ente,": 6256,
            "óme": 6257,
            "▁cruzados": 6258,
            "▁haha": 6259,
            "iii": 6260,
            "bus": 6261,
            "vaila": 6262,
            "▁ear": 6263,
            "logía": 6264,
            "ficio": 6265,
            "▁mesmo": 6266,
            "▁municipio": 6267,
            "▁monta": 6268,
            "▁¿sab": 6269,
            "gón": 6270,
            "so,": 6271,
            "▁tell": 6272,
            "▁redonda": 6273,
            "▁dulce": 6274,
            "aas": 6275,
            "▁original": 6276,
            "uuu": 6277,
            "▁casas": 6278,
            "▁maldita": 6279,
            "cs": 6280,
            "▁fucking": 6281,
            "▁visitar": 6282,
            "▁!.": 6283,
            "▁estrategia": 6284,
            "▁cultural": 6285,
            "▁volumen": 6286,
            "guém": 6287,
            "▁dignidad": 6288,
            "▁práctica": 6289,
            "jera": 6290,
            "▁ans": 6291,
            "▁acordar": 6292,
            "▁talento": 6293,
            "riendo": 6294,
            "▁dal": 6295,
            "▁fernández": 6296,
            "▁confusión": 6297,
            "▁dí": 6298,
            "▁sei": 6299,
            "▁enhorabuena": 6300,
            "▁abre": 6301,
            "▁cosas,": 6302,
            "▁coger": 6303,
            "▁mierda,": 6304,
            "pal": 6305,
            "▁solamente": 6306,
            "é.": 6307,
            "▁jur": 6308,
            "▁hot": 6309,
            "▁categor": 6310,
            "▁anima": 6311,
            "▁aco": 6312,
            "▁y,": 6313,
            "▁llo": 6314,
            "▁contacto": 6315,
            "▁p.": 6316,
            "▁pensaba": 6317,
            "▁ultima": 6318,
            "▁precisa": 6319,
            "▁\"se": 6320,
            "oli": 6321,
            "dá": 6322,
            "▁mucho.": 6323,
            "tión": 6324,
            "▁principio": 6325,
            "▁enfermedad": 6326,
            "ente.": 6327,
            "▁stay": 6328,
            "▁mega": 6329,
            "▁innova": 6330,
            "sed": 6331,
            "▁corruptos": 6332,
            "▁jard": 6333,
            "▁producción": 6334,
            "yn": 6335,
            "▁2016": 6336,
            "▁tom": 6337,
            "▁leyendo": 6338,
            "▁louis": 6339,
            "▁quédate": 6340,
            "▁chris": 6341,
            "▁beautiful": 6342,
            "▁aceptar": 6343,
            "rle": 6344,
            "▁(o": 6345,
            "▁ame": 6346,
            "▁yo.": 6347,
            "▁planeta": 6348,
            "▁traer": 6349,
            "▁despertar": 6350,
            "▁pocas": 6351,
            "ó,": 6352,
            "▁gente.": 6353,
            "▁doctor": 6354,
            "▁cerezo": 6355,
            "...\"": 6356,
            "▁continú": 6357,
            "inha": 6358,
            "▁motiva": 6359,
            "▁llaman": 6360,
            "▁título": 6362,
            "▁conciencia": 6363,
            "▁española": 6364,
            "▁ms": 6365,
            "▁aguante": 6366,
            "▁yan": 6367,
            "▁amooo": 6368,
            "rer": 6369,
            "▁electoral": 6370,
            "▁siglo": 6371,
            "▁ruta": 6372,
            "iciones": 6373,
            "amer": 6374,
            "▁ministerio": 6375,
            "kan": 6376,
            "▁ainda": 6377,
            "▁pongan": 6378,
            "▁privile": 6379,
            "▁ego": 6380,
            "▁pedazo": 6381,
            "▁rodr": 6382,
            "lie": 6383,
            "ística": 6384,
            "▁homena": 6385,
            "▁euros": 6386,
            "▁yendo": 6387,
            "liza": 6388,
            "▁pleno": 6389,
            "▁pies": 6390,
            "▁pequeña": 6391,
            "▁cana": 6392,
            "▁hs": 6393,
            "▁probable": 6394,
            "▁ganado": 6395,
            "▁criminal": 6396,
            "▁separa": 6397,
            "▁aband": 6398,
            "▁aro": 6399,
            "▁45": 6400,
            "ons": 6401,
            "▁balonces": 6402,
            "▁ficha": 6403,
            "▁assi": 6404,
            "▁constitución": 6405,
            "seguridad": 6406,
            "▁sabado": 6407,
            "▁decre": 6408,
            "vailable": 6409,
            "▁hier": 6410,
            "▁mi,": 6411,
            "▁paciencia": 6412,
            "cru": 6413,
            "▁turismo": 6414,
            "mada": 6415,
            "▁rata": 6416,
            "▁diz": 6417,
            "▁account": 6418,
            "▁trabajo,": 6419,
            "▁facultad": 6420,
            "▁jin": 6421,
            "▁uds": 6422,
            "▁bem": 6423,
            "▁até": 6424,
            "▁tuya": 6425,
            "duras": 6426,
            "▁pref": 6427,
            "▁adelan": 6428,
            "▁agenda": 6429,
            "▁renuncia": 6430,
            "▁cobar": 6431,
            "▁power": 6432,
            "▁cone": 6433,
            "▁و": 6434,
            "▁bun": 6435,
            "▁nosotras": 6436,
            "▁tenho": 6437,
            "▁lastima": 6438,
            "▁corto": 6439,
            "▁esque": 6440,
            "▁jaja,": 6441,
            "▁prohibido": 6442,
            "ken": 6443,
            "▁echa": 6444,
            "▁tristeza": 6445,
            "▁demasia": 6446,
            "ibles": 6447,
            "▁individu": 6448,
            "▁calavera": 6449,
            "▁abandon": 6450,
            "▁gasolina": 6451,
            "▁cuel": 6452,
            "▁cabello": 6453,
            "▁pc": 6454,
            "vemos": 6455,
            "tillas": 6456,
            "▁psic": 6457,
            "▁cierre": 6458,
            "▁ore": 6459,
            "▁abri": 6460,
            "hos": 6461,
            "▁necesitas": 6462,
            "▁aires": 6463,
            "▁maldito": 6464,
            "▁hoja": 6465,
            "▁hern": 6466,
            "▁profun": 6467,
            "▁merec": 6468,
            "▁depres": 6469,
            "▁....": 6470,
            "eres": 6471,
            "▁dejaron": 6472,
            "'.": 6473,
            "▁rap": 6474,
            "▁nes": 6475,
            "▁pantal": 6476,
            "▁indica": 6477,
            "mpl": 6478,
            "▁:'": 6479,
            "▁u.": 6480,
            "▁invito": 6481,
            "ari": 6482,
            "▁artista": 6483,
            "▁políticas": 6484,
            "▁hermanos": 6485,
            "▁aquel": 6486,
            "▁víctimas": 6487,
            "▁helado": 6488,
            "▁hola,": 6489,
            "▁hubiese": 6490,
            "▁periódico": 6491,
            "▁transforma": 6492,
            "▁acabe": 6493,
            "▁leon": 6494,
            "jajaj": 6495,
            "▁material": 6496,
            "▁sesión": 6497,
            "kin": 6498,
            "▁viviendo": 6499,
            "▁llora": 6500,
            "▁amigo,": 6501,
            "▁morena": 6502,
            "▁pesa": 6503,
            "▁planes": 6504,
            "▁fiel": 6505,
            "▁segundos": 6506,
            "▁sueldo": 6507,
            "▁regreso": 6508,
            "pida": 6509,
            "▁moda": 6510,
            "▁irre": 6511,
            "▁actitud": 6512,
            "▁juicio": 6513,
            "▁etique": 6514,
            "▁también.": 6515,
            "ezco": 6516,
            "▁pelota": 6517,
            "menes": 6518,
            "▁mues": 6519,
            "ado,": 6520,
            "▁prac": 6521,
            "▁álbum": 6522,
            "torial": 6523,
            "▁cie": 6524,
            "▁teor": 6525,
            "▁hugo": 6526,
            "▁mere": 6527,
            "▁acaso": 6528,
            "▁clo": 6529,
            "▁nomás": 6530,
            "▁caracas": 6531,
            "▁you're": 6532,
            "▁gordo": 6533,
            "dores,": 6534,
            "▁resca": 6535,
            "▁proteger": 6536,
            "▁hayan": 6537,
            "▁devuel": 6538,
            "▁pasión": 6539,
            "▁chab": 6540,
            "▁etapa": 6541,
            "mmm": 6542,
            "▁arena": 6543,
            "▁medida": 6544,
            "▁can't": 6545,
            "▁funcionarios": 6546,
            "▁paraguay": 6547,
            "/2": 6548,
            "▁masaje": 6549,
            "▁entregar": 6550,
            "▁jap": 6551,
            "▁rusia": 6552,
            "▁perdí": 6553,
            "lados": 6554,
            "▁democrá": 6556,
            "x.": 6557,
            "▁caja": 6558,
            "▁emil": 6559,
            "▁contenido": 6560,
            "▁escribe": 6561,
            "▁económico": 6562,
            "▁jarras": 6563,
            "▁mej": 6564,
            "▁iv": 6565,
            "▁perse": 6566,
            "▁abus": 6567,
            "ó.": 6568,
            "▁salido": 6569,
            "▁obvia": 6571,
            "▁fort": 6572,
            "▁pa'": 6573,
            "▁entero": 6574,
            "▁melhor": 6575,
            "▁casual": 6576,
            "lina": 6577,
            "▁hubier": 6578,
            "▁rode": 6579,
            "▁partida": 6580,
            "▁senta": 6581,
            "digo": 6582,
            "tulos": 6583,
            "▁amistad": 6584,
            "▁profesionales": 6585,
            "▁consejos": 6586,
            "▁billete": 6587,
            "▁encontré": 6588,
            "▁coinci": 6589,
            "▁héro": 6590,
            "▁ponerme": 6591,
            "tric": 6592,
            "▁puebla": 6593,
            "▁alterna": 6594,
            "▁care": 6595,
            "▁locura": 6596,
            "▁igualdad": 6597,
            "▁clásico": 6598,
            "ella": 6599,
            "▁nadie,": 6600,
            "mita": 6601,
            "▁fiestas": 6602,
            "▁air": 6603,
            "▁reproducir": 6604,
            "▁mana": 6605,
            "▁ku": 6606,
            "▁legisla": 6607,
            "ise": 6608,
            "▁andan": 6609,
            "▁incon": 6610,
            "▁usuario": 6611,
            "▁roman": 6612,
            "isimo": 6613,
            "▁usu": 6614,
            "▁amor.": 6615,
            "▁proto": 6616,
            "▁enamorada": 6617,
            "▁tenían": 6618,
            "▁lás": 6619,
            "▁sencil": 6620,
            "▁osea": 6621,
            "▁sr": 6622,
            "▁irresponsab": 6623,
            "▁pecho": 6624,
            "▁baloncesto": 6625,
            "-3": 6626,
            "▁pones": 6627,
            "▁adent": 6628,
            "▁\"yo": 6629,
            "▁supre": 6630,
            "▁rodrí": 6631,
            "▁envidia": 6632,
            "lita": 6633,
            "▁vez,": 6634,
            "▁presencia": 6635,
            "▁buscan": 6636,
            "▁pez": 6637,
            "▁john": 6638,
            "▁ilegal": 6639,
            "▁servi": 6640,
            "▁probar": 6641,
            "▁espalda": 6642,
            "▁manifesta": 6643,
            "▁cabo": 6644,
            "▁estres": 6645,
            "▁use": 6646,
            "ado.": 6647,
            "▁construcción": 6648,
            "▁cuestión": 6649,
            "▁\"re": 6650,
            "▁ya,": 6651,
            "▁lg": 6652,
            "▁lóg": 6653,
            "▁vieron": 6654,
            "▁tomo": 6655,
            "▁conferencia": 6656,
            "▁saliendo": 6657,
            "▁comunica": 6658,
            "▁pit": 6659,
            "▁supuesto": 6660,
            "ek": 6662,
            "▁compañero": 6663,
            "▁conoci": 6664,
            "ced": 6665,
            "▁nadie.": 6666,
            "▁rar": 6667,
            "▁ty": 6668,
            "▁tô": 6669,
            "med": 6670,
            "torno": 6671,
            "▁two": 6672,
            "ved": 6673,
            "▁corta": 6674,
            "▁es.": 6675,
            "▁rompe": 6676,
            "▁superior": 6677,
            "▁piñ": 6678,
            "▁sea,": 6679,
            "gas,": 6680,
            "ppen": 6681,
            "nas": 6682,
            "▁ver,": 6683,
            "▁haría": 6684,
            "▁equivoca": 6685,
            "▁story": 6686,
            "▁rodri": 6687,
            "▁hechos": 6688,
            "▁larga": 6689,
            "▁sitio": 6690,
            "▁diez": 6691,
            "▁gracias!": 6692,
            "▁inteligencia": 6693,
            "▁negocios": 6694,
            "uido": 6695,
            "yen": 6696,
            "zi": 6697,
            "▁dr.": 6698,
            "▁1000": 6699,
            "ccion": 6700,
            "▁jubi": 6701,
            "▁hamb": 6702,
            "▁things": 6703,
            "udes": 6704,
            "▁cena": 6705,
            "▁rosario": 6706,
            "▁playing": 6707,
            "▁moder": 6708,
            "▁inteligente": 6709,
            "▁sabia": 6710,
            "▁tenéis": 6711,
            "▁conjun": 6712,
            "▁vivien": 6713,
            "▁junta": 6714,
            "▁someone": 6715,
            "▁arras": 6716,
            "▁mm": 6717,
            "▁dime": 6718,
            "▁pensamiento": 6719,
            "▁mejor,": 6720,
            "▁something": 6721,
            "▁conec": 6722,
            "▁sobrevi": 6723,
            "▁recuerdos": 6724,
            "iona": 6725,
            "▁unico": 6726,
            "▁adoles": 6727,
            "▁juntas": 6728,
            "▁claramente": 6729,
            "▁insu": 6730,
            "▁set": 6731,
            "▁podcas": 6732,
            "▁300": 6733,
            "▁junior": 6734,
            "any": 6735,
            "▁bole": 6736,
            "▁instru": 6737,
            "▁compañía": 6738,
            "▁cle": 6739,
            "▁señores": 6740,
            "usti": 6741,
            "▁interpre": 6742,
            "ivo": 6743,
            "uelas": 6744,
            "▁diji": 6745,
            "▁intento": 6746,
            "ipol": 6747,
            "led": 6748,
            "ñado": 6749,
            "▁policías": 6750,
            "▁stra": 6751,
            "ross": 6752,
            "▁piern": 6753,
            "▁aver": 6754,
            "yyy": 6755,
            "▁cerdo": 6756,
            "▁ces": 6757,
            "▁javier": 6758,
            "▁favor.": 6759,
            "▁familiares": 6760,
            "▁@usuario's": 6761,
            "▁homenaje": 6762,
            "▁gracios": 6763,
            "▁solidaridad": 6764,
            "ife": 6765,
            "▁permite": 6766,
            "zca": 6767,
            "▁departa": 6768,
            "▁perra": 6769,
            "▁deuda": 6770,
            "▁emba": 6771,
            "aldo": 6772,
            "▁invita": 6773,
            "▁wea": 6774,
            "▁año.": 6775,
            "▁delito": 6776,
            "▁yoongi": 6777,
            "▁jack": 6778,
            "blos": 6779,
            "▁divi": 6780,
            "▁refor": 6781,
            "▁santos": 6782,
            "▁\"f": 6783,
            "lace": 6784,
            "▁uñas": 6785,
            "▁año,": 6786,
            "▁testi": 6787,
            "▁periodismo": 6788,
            "▁meme": 6789,
            "▁querida": 6790,
            "▁king": 6791,
            "▁propa": 6792,
            "jen": 6793,
            "doras": 6794,
            "▁libres": 6795,
            "▁bello": 6796,
            "▁pacientes": 6797,
            "▁propuesta": 6798,
            "▁tremenda": 6799,
            "▁spotify": 6800,
            "▁recon": 6801,
            "▁enviar": 6802,
            "▁everyone": 6803,
            "▁bay": 6804,
            "▁restau": 6805,
            "jito": 6806,
            "▁iglesias": 6807,
            "▁cool": 6808,
            "▁bern": 6809,
            "▁¡el": 6810,
            "▁republ": 6811,
            "mio": 6812,
            "▁thing": 6813,
            "▁infantil": 6814,
            "chen": 6815,
            "▁firma": 6816,
            "tiza": 6817,
            "▁more.": 6818,
            "▁españoles": 6819,
            "▁dream": 6820,
            "▁nieve": 6821,
            "ja,": 6822,
            "▁2015": 6823,
            "▁acceso": 6824,
            "▁tama": 6825,
            "▁pendejos": 6826,
            "▁long": 6827,
            "▁presos": 6828,
            "▁gane": 6829,
            "▁bicicle": 6830,
            "▁iban": 6831,
            "▁ellos.": 6832,
            "cidio": 6833,
            "▁(url": 6834,
            "▁tranquila": 6835,
            "grantes": 6836,
            "▁pagan": 6837,
            "▁judicial": 6838,
            "▁invierno": 6839,
            "▁pata": 6840,
            "▁nena": 6841,
            "▁contagios": 6842,
            "idente": 6843,
            "▁materia": 6844,
            "▁malos": 6845,
            "▁expon": 6846,
            "▁clos": 6847,
            "▁recomiendo": 6848,
            "video": 6849,
            "▁alumnos": 6850,
            "▁diputado": 6851,
            "▁habl": 6852,
            "▁box": 6853,
            "ículos": 6854,
            "jate": 6855,
            "▁pasaron": 6856,
            "tty": 6857,
            "▁ment": 6858,
            "dillo": 6859,
            "▁memes": 6860,
            "▁dynamite": 6861,
            "ones,": 6862,
            "fon": 6863,
            "▁podido": 6864,
            "▁batalla": 6865,
            "▁aprue": 6866,
            "iche": 6867,
            "▁colores": 6868,
            "▁contri": 6869,
            "▁asomb": 6870,
            "hua": 6871,
            "▁ganan": 6872,
            "▁iniciativa": 6873,
            "▁gustar": 6874,
            "▁gratui": 6875,
            "▁asqueros": 6876,
            "ei": 6877,
            "▁dejamos": 6878,
            "▁pérez": 6879,
            "▁aí": 6880,
            "▁acus": 6881,
            "▁decisiones": 6882,
            "km": 6884,
            "▁pasada": 6885,
            "▁ens": 6886,
            "▁befor": 6887,
            "▁py": 6888,
            "▁punta": 6889,
            "▁tía": 6890,
            "red": 6891,
            "olucion": 6892,
            "▁idiota": 6893,
            "▁sana": 6894,
            "▁comparto": 6895,
            "▁crush": 6896,
            "▁matan": 6898,
            "▁blog": 6899,
            "▁delincuentes": 6900,
            "▁plus": 6901,
            "▁imbé": 6902,
            "▁habia": 6903,
            "▁importan": 6904,
            "▁alguno": 6905,
            ":3": 6906,
            "▁aeropu": 6907,
            "▁cuch": 6908,
            "▁orien": 6909,
            "▁participación": 6910,
            "▁cf": 6911,
            "▁laboral": 6912,
            "cemos": 6913,
            "▁peligro": 6914,
            "▁american": 6915,
            "▁chá": 6916,
            "▁seguramente": 6917,
            "▁herra": 6918,
            "▁ridículo": 6919,
            "▁taehy": 6920,
            "ones.": 6921,
            "▁bull": 6922,
            "ante,": 6923,
            "▁provo": 6924,
            "\"?": 6925,
            "uña": 6926,
            "▁quedado": 6927,
            "▁maltra": 6928,
            "▁alba": 6929,
            "gulo": 6930,
            "▁debido": 6931,
            "▁lucas": 6932,
            "jo,": 6933,
            "▁sosten": 6934,
            "▁alemania": 6935,
            "▁gigan": 6936,
            "▁disney": 6937,
            "▁tigre": 6938,
            "▁support": 6939,
            "zamos": 6940,
            "▁album": 6941,
            "▁demostrar": 6942,
            "▁habita": 6943,
            "▁elimina": 6944,
            "▁confina": 6945,
            "▁coming": 6946,
            "▁ufff": 6947,
            "▁veremos": 6948,
            "tidos": 6949,
            "▁charla": 6950,
            "▁6.": 6951,
            "▁formación": 6952,
            "▁gover": 6953,
            "▁luchar": 6954,
            "▁adic": 6955,
            "▁gabri": 6956,
            "▁ésta": 6957,
            "▁corazon": 6958,
            "▁destino": 6959,
            "▁dejes": 6960,
            "▁estaremos": 6961,
            "▁proce": 6962,
            "▁sad": 6963,
            "rael": 6964,
            "udar": 6965,
            "om": 6966,
            "▁coisa": 6967,
            "▁emilio": 6968,
            "▁ب": 6969,
            "rosa": 6970,
            "▁seis": 6971,
            "▁deli": 6972,
            "▁activa": 6973,
            "ught": 6974,
            "▁parecen": 6975,
            "▁necesit": 6976,
            "▁revolución": 6977,
            "▁many": 6978,
            "▁supongo": 6979,
            "▁planta": 6980,
            "▁formas": 6981,
            "▁tiran": 6982,
            "bara": 6983,
            "▁sín": 6984,
            "▁exten": 6985,
            "árez": 6986,
            "▁lados": 6987,
            "▁pedido": 6988,
            "▁nariz": 6989,
            "▁apare": 6990,
            "▁pour": 6991,
            "▁algo,": 6992,
            "▁juez": 6993,
            "▁crecer": 6994,
            "iere": 6996,
            "▁hipó": 6997,
            "▁house": 6998,
            "▁habían": 6999,
            "▁são": 7000,
            "▁reyes": 7001,
            "▁guapo": 7002,
            "mad": 7003,
            "▁espectacular": 7004,
            "ración": 7005,
            "▁estés": 7006,
            "▁avión": 7007,
            "iciales": 7008,
            "▁publicidad": 7009,
            "▁ceja": 7010,
            "▁concl": 7011,
            "alth": 7012,
            "▁peti": 7013,
            "▁deter": 7014,
            "▁entienden": 7015,
            "▁viejos": 7016,
            "▁\"o": 7017,
            "@url": 7018,
            "▁saluda": 7019,
            "▁ignorancia": 7020,
            "▁perdiendo": 7021,
            "eda": 7022,
            "▁piedra": 7023,
            "▁kir": 7024,
            "▁deportivo": 7025,
            "/7": 7026,
            "▁pelea": 7027,
            "▁hear": 7028,
            "▁usando": 7029,
            "▁tratando": 7030,
            "▁melo": 7031,
            "▁magia": 7032,
            "▁exactamente": 7033,
            "▁finales": 7034,
            "▁musica": 7035,
            ")..": 7036,
            "▁asamblea": 7037,
            "less": 7038,
            "▁jajajajaj": 7039,
            "vs": 7040,
            "▁happen": 7041,
            "-.": 7042,
            "▁facil": 7043,
            "▁bolson": 7044,
            "▁cartel": 7045,
            "▁gilipol": 7046,
            "▁guitar": 7047,
            "▁concurso": 7048,
            "▁ques": 7049,
            "▁transpar": 7050,
            "▁medica": 7051,
            "▁orgullosa": 7052,
            "cá": 7053,
            "ball": 7054,
            "▁técnico": 7055,
            "ioso": 7056,
            "▁put": 7057,
            "▁sensación": 7058,
            "▁diseño": 7059,
            "▁smi": 7060,
            "▁públicos": 7061,
            "▁dd": 7062,
            "▁pelu": 7063,
            "▁contac": 7064,
            "▁redu": 7065,
            "▁cayó": 7066,
            "▁enrique": 7067,
            "▁marido": 7068,
            "▁expos": 7069,
            "▁queso": 7070,
            "▁comercial": 7071,
            "ticular": 7072,
            "cks": 7073,
            "▁desea": 7074,
            "▁enser": 7075,
            "▁identif": 7076,
            "▁sergio": 7077,
            "▁friend": 7078,
            "quete": 7079,
            "▁aclar": 7080,
            "▁cosas.": 7081,
            "▁pudiera": 7082,
            "▁util": 7083,
            "▁sé,": 7084,
            "mnas": 7085,
            "▁consecuencias": 7086,
            "▁universo": 7087,
            "pto": 7088,
            "▁ue": 7089,
            "▁once": 7090,
            "▁escribiendo": 7091,
            "▁hospitales": 7092,
            "▁recuperar": 7093,
            "▁entro": 7094,
            "án,": 7095,
            "dona": 7096,
            "isas": 7097,
            "▁ultra": 7098,
            "▁⠀": 7099,
            "▁ocurre": 7100,
            "▁tranquilo": 7101,
            "▁odia": 7102,
            "igna": 7103,
            "ast": 7104,
            "▁temperatura": 7105,
            "▁electr": 7106,
            "▁argentino": 7107,
            "▁drama": 7108,
            "▁actua": 7109,
            "▁\"in": 7110,
            "▁lástima": 7111,
            "pico": 7112,
            "▁nam": 7113,
            "▁disfra": 7114,
            "tar.": 7115,
            "▁2020.": 7116,
            "▁venezuela.": 7117,
            "úl": 7118,
            "▁horror": 7119,
            "n.": 7120,
            "▁¿al": 7121,
            "▁it.": 7122,
            "nera": 7123,
            "cé": 7124,
            "▁suda": 7125,
            "try": 7126,
            "▁herramien": 7127,
            "timi": 7128,
            "gil": 7129,
            "dores.": 7130,
            "▁escena": 7131,
            "▁president": 7132,
            "▁psicó": 7133,
            "▁errores": 7134,
            "▁inmedia": 7135,
            "▁episodio": 7136,
            "▁oferta": 7137,
            "▁supues": 7138,
            "▁cadena": 7139,
            "xo": 7140,
            "▁hahahaha": 7141,
            "▁diálogo": 7142,
            "▁desayun": 7143,
            "▁adió": 7144,
            "▁hey": 7145,
            "ém": 7146,
            "des,": 7147,
            "▁atras": 7148,
            "▁hero": 7149,
            "▁tome": 7150,
            "las.": 7151,
            "▁vuelven": 7152,
            "▁pusieron": 7153,
            "donos": 7154,
            "▁peli": 7155,
            "hip": 7156,
            "▁valores": 7157,
            "▁sorpresa": 7158,
            "▁resumen": 7159,
            "▁monte": 7160,
            "▁seres": 7161,
            "▁hard": 7162,
            "▁compa": 7163,
            "tar,": 7164,
            "▁ey": 7165,
            "▁loren": 7166,
            "▁sombrero": 7167,
            "▁echo": 7168,
            ":0": 7169,
            "mmy": 7170,
            "▁mexicanos": 7171,
            "▁tribun": 7172,
            "▁tatua": 7173,
            "▁asesin": 7174,
            "▁chau": 7175,
            "▁compras": 7176,
            "▁naturaleza": 7177,
            "vida": 7178,
            "▁invent": 7179,
            "▁botella": 7180,
            "▁tendencia": 7181,
            "▁(no": 7182,
            "▁lazo": 7183,
            "▁coordina": 7184,
            "▁aure": 7185,
            "▁harta": 7186,
            "▁rever": 7187,
            "▁ng": 7188,
            "▁labu": 7189,
            "▁calder": 7190,
            "▁inven": 7191,
            "▁baile": 7192,
            "pue": 7193,
            "▁\"con": 7194,
            "...y": 7195,
            "▁under": 7196,
            "cuando": 7197,
            "▁colum": 7198,
            "▁emplea": 7199,
            "▁guapa": 7200,
            "▁humana": 7201,
            "▁abrazar": 7202,
            "▁dejando": 7203,
            "▁fm": 7204,
            "ham": 7205,
            "▁podrían": 7206,
            "▁continua": 7207,
            "▁36": 7208,
            "▁tienda": 7209,
            "▁defin": 7210,
            "▁mismas": 7211,
            "▁prioridad": 7212,
            "▁libertadores": 7213,
            "▁verla": 7214,
            "▁pendiente": 7215,
            "▁7.": 7216,
            "▁expul": 7217,
            "▁capaci": 7218,
            "▁prime": 7219,
            "▁vídeos": 7220,
            "▁personajes": 7221,
            "▁kim": 7222,
            "▁quedé": 7223,
            "▁peores": 7224,
            "▁taehyung": 7225,
            "▁barr": 7226,
            "▁qué?": 7227,
            "clo": 7228,
            "▁¿es": 7229,
            "▁uwu": 7230,
            "▁primar": 7231,
            "▁mg": 7232,
            "▁esperaba": 7233,
            "▁hate": 7234,
            "▁fb": 7235,
            "▁daba": 7236,
            "▁mereces": 7237,
            "opera": 7238,
            "▁acho": 7239,
            "▁felipe": 7240,
            "▁venezolano": 7241,
            "▁aumento": 7242,
            "▁él.": 7243,
[...]
