{"version":"1.0","truncation":null,"padding":null,"added_tokens":[{"id":0,"special":true,"content":"<s>","single_word":false,"lstrip":false,"rstrip":false,"normalized":false},{"id":1,"special":true,"content":"<pad>","single_word":false,"lstrip":false,"rstrip":false,"normalized":false},{"id":2,"special":true,"content":"</s>","single_word":false,"lstrip":false,"rstrip":false,"normalized":false},{"id":3,"special":true,"content":"<unk>","single_word":false,"lstrip":false,"rstrip":false,"normalized":false},{"id":4,"special":true,"content":"<mask>","single_word":false,"lstrip":false,"rstrip":false,"normalized":false}],"normalizer":{"type":"Sequence","normalizers":[{"type":"NFKC"},{"type":"BertNormalizer","clean_text":true,"handle_chinese_chars":true,"strip_accents":false,"lowercase":true},{"type":"Replace","pattern":{"Regex":"(\\W)?@usuario(\\W)"},"content":" @usuario "},{"type":"Replace","pattern":{"String":"hashtag"},"content":" hashtag "},{"type":"Replace","pattern":{"Regex":"(\\W)url(\\W)"},"content":" url "},{"type":"Replace","pattern":{"String":"http://url"},"content":" url "}]},"pre_tokenizer":{"type":"Metaspace","replacement":"▁","add_prefix_space":true},"post_processor":{"type":"RobertaProcessing","sep":["</s>",2],"cls":["<s>",0],"trim_offsets":true,"add_prefix_space":true},"decoder":{"type":"Metaspace","replacement":"▁","add_prefix_space":true},"model":{"type":"BPE","dropout":null,"unk_token":null,"continuing_subword_prefix":null,"end_of_word_suffix":null,"fuse_unk":false,"vocab":{"<s>":0,"<pad>":1,"</s>":2,"<unk>":3,"<mask>":4,"!":5,"\"":6,"#":7,"$":8,"%":9,"&":10,"'":11,"(":12,")":13,"*":14,"+":15,",":16,"-":17,".":18,"/":19,"0":20,"1":21,"2":22,"3":23,"4":24,"5":25,"6":26,"7":27,"8":28,"9":29,":":30,";":31,"=":32,"?":33,"@":34,"[":35,"\\":36,"]":37,"^":38,"_":39,"`":40,"a":41,"b":42,"c":43,"d":44,"e":45,"f":46,"g":47,"h":48,"i":49,"j":50,"k":51,"l":52,"m":53,"n":54,"o":55,"p":56,"q":57,"r":58,"s":59,"t":60,"u":61,"v":62,"w":63,"x":64,"y":65,"z":66,"|":67,"¡":68,"¿":69,"à":70,"á":71,"â":72,"ã":73,"ä":74,"ç":75,"è":76,"é":77,"ê":78,"ì":79,"í":80,"ï":81,"ñ":82,"ò":83,"ó":84,"ô":85,"õ":86,"ö":87,"ù":88,"ú":89,"ü":90,"ğ":91,"ı":92,"ł":93,"ş":94,"ɪ":95,"ɴ":96,"ʀ":97,"ʟ":98,"̄":99,"̇":100,"̶":101,"α":102,"ι":103,"а":104,"б":105,"в":106,"д":107,"е":108,"и":109,"к":110,"л":111,"м":112,"н":113,"о":114,"п":115,"р":116,"с":117,"т":118,"у":119,"я":120,"،":121,"أ":122,"ب":123,"ة":124,"ت":125,"ج":126,"ح":127,"خ":128,"د":129,"ر":130,"ز":131,"س":132,"ش":133,"ص":134,"ط":135,"ع":136,"ف":137,"ق":138,"ك":139,"ل":140,"م":141,"ن":142,"ه":143,"و":144,"ى":145,"ي":146,"َ":147,"ک":148,"ں":149,"ہ":150,"ی":151,"ے":152,"ं":153,"क":154,"ग":155,"ज":156,"त":157,"द":158,"न":159,"प":160,"ब":161,"म":162,"य":163,"र":164,"ल":165,"स":166,"ह":167,"ा":168,"ि":169,"ी":170,"े":171,"ै":172,"ो":173,"्":174,"க":175,"த":176,"ம":177,"ா":178,"ி":179,"ு":180,"்":181,"ก":182,"ข":183,"ค":184,"ง":185,"จ":186,"ช":187,"ด":188,"ต":189,"ท":190,"น":191,"บ":192,"ป":193,"พ":194,"ม":195,"ย":196,"ร":197,"ล":198,"ว":199,"ส":200,"ห":201,"อ":202,"ะ":203,"ั":204,"า":205,"ิ":206,"ี":207,"ื":208,"ุ":209,"ู":210,"เ":211,"แ":212,"ใ":213,"ไ":214,"็":215,"่":216,"้":217,"์":218,"ᄏ":219,"ᅠ":220,"ᅲ":221,"ᥱ":222,"ᴀ":223,"ᴅ":224,"ᴇ":225,"ᴏ":226,"ᴛ":227,"⃣":228,"→":229,"─":230,"━":231,"┃":232,"┓":233,"═":234,"▁":235,"█":236,"▶":237,"►":238,"★":239,"☆":240,"♪":241,"♫":242,"⚠":243,"✔":244,"❣":245,"➡":246,"⠀":247,"⬇":248,"、":249,"。":250,"「":251,"」":252,"【":253,"】":254,"あ":255,"い":256,"う":257,"え":258,"お":259,"か":260,"が":261,"き":262,"く":263,"け":264,"こ":265,"ご":266,"さ":267,"し":268,"す":269,"そ":270,"た":271,"だ":272,"ち":273,"っ":274,"つ":275,"て":276,"で":277,"と":278,"ど":279,"な":280,"に":281,"ね":282,"の":283,"は":284,"ま":285,"み":286,"め":287,"も":288,"ゃ":289,"や":290,"よ":291,"ら":292,"り":293,"る":294,"れ":295,"を":296,"ん":297,"゚":298,"ア":299,"イ":300,"カ":301,"キ":302,"ク":303,"コ":304,"シ":305,"ジ":306,"ス":307,"タ":308,"チ":309,"ッ":310,"テ":311,"ト":312,"ド":313,"フ":314,"プ":315,"マ":316,"メ":317,"ャ":318,"ラ":319,"リ":320,"ル":321,"レ":322,"ロ":323,"ン":324,"・":325,"人":326,"日":327,"生":328,"가":329,"갓":330,"게":331,"고":332,"그":333,"기":334,"김":335,"나":336,"년":337,"는":338,"니":339,"다":340,"단":341,"대":342,"더":343,"도":344,"드":345,"들":346,"라":347,"랑":348,"레":349,"로":350,"리":351,"마":352,"만":353,"무":354,"미":355,"민":356,"방":357,"보":358,"븐":359,"사":360,"생":361,"서":362,"세":363,"소":364,"수":365,"스":366,"시":367,"아":368,"어":369,"에":370,"엑":371,"여":372,"영":373,"오":374,"요":375,"우":376,"원":377,"은":378,"을":379,"의":380,"이":381,"인":382,"일":383,"자":384,"정":385,"제":386,"주":387,"즈":388,"지":389,"진":390,"크":391,"타":392,"탄":393,"태":394,"트":395,"하":396,"한":397,"해":398,"현":399,"호":400,"🎙":401,"🏟":402,"👁":403,"🗣":404,"▁e":405,"ar":406,"▁d":407,"▁c":408,"mo":409,"▁p":410,"▁l":411,"▁a":412,"▁de":413,"io":414,"▁s":415,"er":416,"as":417,"en":418,"▁m":419,"us":420,"an":421,"ji":422,"▁emo":423,"▁emoji":424,"▁t":425,"os":426,"ario":427,"usu":428,"usuario":429,"@usuario":430,"▁@usuario":431,"ue":432,"or":433,"on":434,"▁h":435,"▁u":436,"ta":437,"es":438,"▁q":439,"do":440,"▁n":441,"▁es":442,"▁que":443,"in":444,"▁y":445,"▁la":446,"▁v":447,"re":448,"rl":449,"al":450,"▁url":451,"▁en":452,"▁f":453,"ci":454,"▁b":455,"te":456,"ara":457,"is":458,"▁el":459,"da":460,"▁con":461,"▁has":462,"ra":463,"▁no":464,"tag":465,"▁hash":466,"▁hashtag":467,"to":468,"ic":469,"▁g":470,"▁un":471,"..":472,"ien":473,"▁me":474,"▁se":475,"ro":476,"▁o":477,"ón":478,"ol":479,"ja":480,"▁cara":481,"▁ha":482,"ando":483,"le":484,"ti":485,"la":486,"▁co":487,"mp":488,"▁por":489,"de":490,"▁re":491,"▁al":492,"un":493,"ch":494,"▁r":495,"▁lo":496,"▁los":497,"▁to":498,"▁per":499,"el":500,"▁i":501,"▁si":502,"ui":503,"ri":504,"▁in":505,"mos":506,"▁mi":507,"▁j":508,"ora":509,"ma":510,"▁.":511,"ia":512,"▁para":513,"go":514,"▁cu":515,"▁te":516,"ía":517,"lo":518,"ca":519,"▁est":520,"▁ca":521,"dos":522,"▁su":523,"ción":524,"▁del":525,"ion":526,"ente":527,"ba":528,"▁las":529,"jaja":530,"▁una":531,"di":532,"vi":533,"▁man":534,"▁ma":535,"▁le":536,"ás":537,"era":538,"mb":539,"iendo":540,"...":541,"dad":542,"▁mu":543,"▁son":544,"cu":545,"mi":546,"▁des":547,"▁w":548,"ga":549,"res":550,"ec":551,"▁an":552,"me":553,"co":554,"ent":555,"▁di":556,"!!":557,"▁vi":558,"gu":559,"▁yo":560,"▁th":561,"oy":562,"cia":563,"▁pa":564,"▁ch":565,"▁mo":566,"tr":567,"que":568,"▁ll":569,"ica":570,"▁cora":571,"it":572,"▁coraz":573,"ce":574,"ero":575,"▁\"":576,"▁ten":577,"▁1":578,"▁qu":579,"▁esta":580,"jo":581,"▁como":582,"▁pero":583,"▁na":584,"za":585,"tu":586,"▁pro":587,"▁más":588,"▁pi":589,"▁llor":590,"isa":591,"▁so":592,"▁ser":593,"▁ver":594,"lar":595,"▁as":596,"ter":597,"ran":598,"tra":599,"ab":600,"▁ya":601,"▁ap":602,"▁2":603,"▁ex":604,"▁ar":605,"ues":606,"▁corazón":607,"ing":608,"cion":609,"tos":610,"▁llorando":611,"▁po":612,"▁par":613,"il":614,"pa":615,"▁risa":616,"tes":617,"va":618,"▁sonr":619,"jos":620,"tas":621,"tar":622,"▁qui":623,"▁tu":624,"▁bu":625,"ve":626,"ico":627,"▁va":628,"ul":629,"ana":630,"▁fa":631,"das":632,"ono":633,"ir":634,"se":635,"▁sal":636,"án":637,"én":638,"dio":639,"▁pas":640,"son":641,"▁fu":642,"▁the":643,"vo":644,"ez":645,"ina":646,"▁pue":647,"▁ni":648,"tor":649,"▁k":650,"▁sonriendo":651,"▁ro":652,"ten":653,"▁ojos":654,"qui":655,"▁pe":656,"▁sol":657,"▁todo":658,"▁ti":659,"dor":660,"cer":661,"cha":662,"men":663,"ver":664,"▁tra":665,"▁person":666,"tro":667,"sa":668,"▁esto":669,"der":670,"▁ta":671,"▁ah":672,"▁li":673,"li":674,"▁jaja":675,"emp":676,"so":677,"▁pre":678,"▁tien":679,"▁buen":680,"mente":681,"no":682,"lan":683,"▁ab":684,"▁ac":685,"▁hab":686,"gar":687,"▁res":688,"▁cas":689,"ur":690,"▁mis":691,"▁sin":692,"▁mar":693,"▁da":694,"▁nos":695,"ble":696,"▁este":697,"▁tan":698,"ño":699,"▁mano":700,"cho":701,"▁piel":702,"▁hay":703,"si":704,"ha":705,"▁cuando":706,"per":707,"▁comp":708,"ud":709,"▁tono":710,"▁(":711,"ru":712,"ios":713,"iz":714,"▁pu":715,"▁-":716,"▁¿":717,"▁clar":718,"▁com":719,"▁cre":720,"qu":721,"▁ra":722,"▁he":723,"pe":724,"po":725,"tan":726,"▁can":727,"cias":728,"▁gra":729,"▁claro":730,"bre":731,"▁pen":732,"ice":733,"▁cor":734,"▁sa":735,"las":736,"oo":737,"▁men":738,"▁ne":739,"▁sab":740,"idad":741,"ier":742,"ales":743,"les":744,"▁lle":745,"▁ven":746,"▁hoy":747,"▁todos":748,"!!!":749,"den":750,"des":751,"je":752,"és":753,"▁manos":754,"▁está":755,"min":756,"00":757,"jor":758,"▁porque":759,"los":760,"▁car":761,"??":762,"man":763,"ños":764,"▁mal":765,"▁do":766,"▁ba":767,"▁mejor":768,"▁bo":769,"▁ent":770,"▁ho":771,"ita":772,"be":773,"▁eso":774,"▁bien":775,"▁mas":776,"▁dis":777,"▁for":778,"▁of":779,"mas":780,"erte":781,"ones":782,"▁día":783,"mar":784,"du":785,"eces":786,"ici":787,"ín":788,"▁go":789,"▁ju":790,"ras":791,"▁qué":792,"▁persona":793,"▁sus":794,"▁imp":795,"▁be":796,"▁cos":797,"ciones":798,"▁fel":799,"▁pres":800,"▁amo":801,"▁ban":802,"ren":803,"▁3":804,"▁col":805,"▁hacer":806,"ts":807,"▁¡":808,"gun":809,"▁and":810,"▁medio":811,"▁rev":812,"▁cal":813,"ún":814,"▁lu":815,"▁así":816,"▁nada":817,"▁gran":818,"ista":819,"ña":820,"▁pri":821,"▁vo":822,"▁or":823,"▁fue":824,"ber":825,"gan":826,"na":827,"▁muy":828,"▁us":829,"▁fr":830,"▁fin":831,"ión":832,"iento":833,"▁hace":834,"▁les":835,"▁on":836,"▁vida":837,"▁tiene":838,"car":839,"ho":840,"▁ami":841,"ías":842,"ere":843,"empre":844,"▁estoy":845,"ces":846,"mbi":847,"▁solo":848,"▁x":849,"▁ve":850,"▁dor":851,"▁quiero":852,"▁nues":853,"▁siempre":854,"▁pr":855,"▁gente":856,"▁emp":857,"tal":858,"▁fav":859,"▁20":860,"▁tengo":861,"▁ahora":862,"ito":863,"et":864,"ado":865,"por":866,"▁pol":867,"gui":868,"▁san":869,"▁gracias":870,"▁ter":871,"gra":872,"▁ay":873,"o,":874,"che":875,"▁is":876,"▁you":877,"▁hi":878,"▁fal":879,"▁nue":880,"ena":881,"▁gan":882,"▁fo":883,"pu":884,"▁don":885,"ven":886,"▁favor":887,"dera":888,"dose":889,"▁mun":890,"id":891,"uel":892,"▁her":893,"for":894,"iste":895,"zo":896,"▁pon":897,"aa":898,"ís":899,"th":900,"▁dos":901,"olvi":902,"▁gus":903,"▁fuerte":904,"20":905,"con":906,"tros":907,"ke":908,"▁:":909,"▁esp":910,"▁deci":911,"▁hacia":912,"▁gu":913,"▁é":914,"endo":915,"▁,":916,"mer":917,"ona":918,"bajo":919,"enta":920,"encia":921,"▁fe":922,"▁sobre":923,"▁voy":924,"▁hu":925,"▁estar":926,"ll":927,"jer":928,"van":929,"▁años":930,"▁ir":931,"▁au":932,"bo":933,"▁4":934,"emos":935,"éndose":936,"ros":937,"▁hasta":938,"▁du":939,"at":940,"▁inter":941,"▁ja":942,"ido":943,"dar":944,"ck":945,"jar":946,"can":947,"▁val":948,"▁bes":949,"▁cer":950,"▁feliz":951,"rar":952,"▁neces":953,"olviéndose":954,"▁real":955,"▁revolviéndose":956,"▁vez":957,"▁5":958,"▁jjaja":959,"mbre":960,"unca":961,"tic":962,"▁pla":963,"▁algo":964,"▁min":965,"▁parti":966,"pon":967,"▁bandera":968,"▁ga":969,"o.":970,"▁mucho":971,"ya":972,"▁nunca":973,"▁ese":974,"ee":975,"tiva":976,"▁soy":977,"ig":978,"▁mad":979,"▁pel":980,"▁puede":981,"▁casa":982,"▁os":983,"fer":984,"dr":985,"ante":986,"▁entre":987,"▁much":988,"▁desde":989,"cial":990,"gue":991,"if":992,"▁jo":993,"lla":994,"▁ins":995,"erda":996,"▁esc":997,"▁pos":998,"tras":999,"▁apla":1000,"▁toda":1001,"gos":1002,"par":1003,"▁ob":1004,"▁quien":1005,"▁esa":1006,"guien":1007,"mbién":1008,"▁tw":1009,"ed":1010,"miento":1011,"▁sen":1012,"gua":1013,"▁también":1014,"bl":1015,"cio":1016,"▁ci":1017,"▁bar":1018,"▁señ":1019,"19":1020,"▁conf":1021,"▁exp":1022,"bi":1023,"ment":1024,"ino":1025,"▁vol":1026,"▁eu":1027,"▁aplaud":1028,"as,":1029,"▁mes":1030,"▁dere":1031,"ly":1032,"▁reg":1033,"ciendo":1034,"▁aplaudiendo":1035,"nos":1036,"eron":1037,"▁menos":1038,"▁dar":1039,"ola":1040,"▁lin":1041,"mento":1042,"▁quer":1043,"es,":1044,"▁jun":1045,"pi":1046,"cep":1047,"▁tiemp":1048,"▁fle":1049,"tir":1050,"dice":1051,"▁era":1052,"▁ce":1053,"▁we":1054,"ut":1055,"▁cons":1056,"▁aca":1057,"▁tener":1058,"tando":1059,"\".":1060,"▁ín":1061,"bier":1062,"▁his":1063,"▁ad":1064,"▁segui":1065,"▁op":1066,"▁cr":1067,"▁sí":1068,"▁verdad":1069,"▁sea":1070,"cen":1071,"ada":1072,"▁días":1073,"▁cosas":1074,"ece":1075,"bol":1076,"▁estu":1077,"gas":1078,"▁mundo":1079,"▁jus":1080,"▁índice":1081,"▁alguien":1082,"▁có":1083,"▁cada":1084,"▁dic":1085,"▁contra":1086,"▁dios":1087,"toria":1088,"ão":1089,"die":1090,"▁mujer":1091,"▁espa":1092,"▁están":1093,"▁dorso":1094,"ismo":1095,"es.":1096,"lti":1097,"▁pues":1098,"ala":1099,"▁mon":1100,"tica":1101,"mana":1102,"▁corazones":1103,"ientes":1104,"▁at":1105,"ie":1106,"cas":1107,"▁tr":1108,"▁vis":1109,"▁igu":1110,"os,":1111,"rado":1112,"▁mañ":1113,"ge":1114,"▁vamos":1115,"▁hor":1116,"▁amor":1117,"uela":1118,"▁jue":1119,"?.":1120,"ío":1121,"▁uno":1122,"tado":1123,"ano":1124,"▁rec":1125,"▁fi":1126,"▁tar":1127,"gi":1128,"▁donde":1129,"▁país":1130,"tin":1131,"zando":1132,"deo":1133,"▁escu":1134,"▁han":1135,"▁it":1136,"▁igual":1137,"▁gen":1138,"dores":1139,"tion":1140,"▁nadie":1141,"cional":1142,"br":1143,"istas":1144,"▁blan":1145,"▁mañana":1146,"vir":1147,"▁lla":1148,"▁equi":1149,"to,":1150,"iza":1151,"▁cha":1152,"quí":1153,"▁mismo":1154,"▁impor":1155,"▁tran":1156,"▁cono":1157,"▁gobier":1158,"▁año":1159,"▁am":1160,"▁frente":1161,"▁lan":1162,"os.":1163,"▁rep":1164,"▁personas":1165,"▁def":1166,"dia":1167,"▁mé":1168,"▁ganas":1169,"▁van":1170,"▁6":1171,"▁creo":1172,"ves":1173,"▁10":1174,"lu":1175,"???":1176,"▁af":1177,"▁z":1178,"rec":1179,"▁rojo":1180,"aron":1181,"▁segu":1182,"▁bol":1183,"▁bus":1184,"▁dia":1185,"▁may":1186,"▁super":1187,"▁traba":1188,"▁tanto":1189,"▁puedo":1190,"ine":1191,"más":1192,"▁pasa":1193,"s.":1194,"!.":1195,"▁aquí":1196,"tura":1197,"▁otro":1198,"▁pal":1199,"▁decir":1200,"▁...":1201,"do.":1202,"gen":1203,"▁mer":1204,"▁vos":1205,"cuer":1206,"▁mus":1207,"do,":1208,"▁levan":1209,"▁otra":1210,"▁ol":1211,"mil":1212,"▁cuenta":1213,"▁inf":1214,"▁tienen":1215,"▁cump":1216,"ad":1217,"via":1218,"▁pens":1219,"▁bueno":1220,"cre":1221,"tivo":1222,"vid":1223,"xico":1224,"culo":1225,"▁pan":1226,"▁cómo":1227,"var":1228,"▁#":1229,"▁venez":1230,"▁tiempo":1231,"▁bas":1232,"fe":1233,"▁pes":1234,"to.":1235,"▁cual":1236,"▁haciendo":1237,"▁boca":1238,"▁gobierno":1239,"cal":1240,"▁final":1241,"ima":1242,"▁quier":1243,"▁7":1244,"dic":1245,"pas":1246,"▁mil":1247,"tó":1248,"ias":1249,"pués":1250,"▁camp":1251,"t;":1252,"▁8":1253,"▁dice":1254,"▁plan":1255,"▁grande":1256,"▁this":1257,"▁beso":1258,"▁vuel":1259,"gn":1260,"jajajaja":1261,"gent":1262,"▁nuevo":1263,"▁después":1264,"▁abajo":1265,"ted":1266,"má":1267,"▁my":1268,"ír":1269,"▁algun":1270,"▁cul":1271,"tre":1272,"ern":1273,"▁tal":1274,"▁ú":1275,"iente":1276,"▁prim":1277,"▁mierda":1278,"am":1279,"bu":1280,"tri":1281,"ban":1282,"vos":1283,"ían":1284,"▁az":1285,"▁esper":1286,"fa":1287,"pues":1288,"▁den":1289,"js":1290,"▁bal":1291,"▁semana":1292,"pen":1293,"▁todas":1294,"▁uni":1295,"una":1296,"cel":1297,"forma":1298,"arios":1299,"▁eres":1300,"▁gusta":1301,"mir":1302,"▁pensa":1303,"▁chi":1304,"▁dan":1305,"as.":1306,"▁gol":1307,"tada":1308,"▁arri":1309,"dan":1310,"▁antes":1311,"▁abra":1312,"▁poco":1313,"ea":1314,"cil":1315,"▁nuestro":1316,"tbol":1317,"▁9":1318,"▁ale":1319,"ril":1320,"blo":1321,"▁poder":1322,"▁últi":1323,"▁sé":1324,"tico":1325,"▁sonrientes":1326,"▁só":1327,"ores":1328,"▁gi":1329,"▁derecha":1330,"▁estamos":1331,"▁sh":1332,"▁temp":1333,"▁reci":1334,"▁estos":1335,"iones":1336,"▁extra":1337,"▁ag":1338,"▁blanco":1339,"▁&":1340,"▁mie":1341,"vio":1342,"icio":1343,"▁ri":1344,"▁foto":1345,"haha":1346,"esta":1347,"entes":1348,"olo":1349,"▁wit":1350,"▁pregun":1351,"▁wh":1352,"▁fun":1353,"▁rt":1354,"▁presid":1355,"▁polí":1356,"ér":1357,"▁all":1358,"mal":1359,"ne":1360,"▁dej":1361,"▁ún":1362,"▁that":1363,"▁veces":1364,"'s":1365,"zar":1366,"▁tú":1367,"oración":1368,"imo":1369,"▁sue":1370,"▁pun":1371,"▁parte":1372,"▁momento":1373,"udad":1374,"mes":1375,"▁tus":1376,"gh":1377,"ds":1378,"▁trabajo":1379,"▁sos":1380,"char":1381,"ay":1382,"▁parece":1383,"icos":1384,"tante":1385,"▁har":1386,"▁vía":1387,"vis":1388,"▁gui":1389,"▁falta":1390,").":1391,"▁tor":1392,":.":1393,"▁cele":1394,"▁ima":1395,"vel":1396,"▁twit":1397,"▁argent":1398,"▁arriba":1399,"▁hermos":1400,"▁comun":1401,"ral":1402,"ible":1403,"▁somos":1404,"▁cap":1405,"▁noche":1406,"▁ciudad":1407,"▁0":1408,"uda":1409,"rá":1410,"▁ahí":1411,"▁bon":1412,"cl":1413,"a,":1414,"▁with":1415,"tv":1416,"▁video":1417,"bar":1418,"▁apro":1419,"▁..":1420,"▁azul":1421,"▁perf":1422,"▁apoy":1423,"▁music":1424,"cri":1425,"▁hora":1426,"▁pin":1427,"▁estas":1428,"▁ojo":1429,"▁ellos":1430,"▁via":1431,"ta,":1432,"icar":1433,"yo":1434,"▁vas":1435,"pp":1436,"cción":1437,"▁|":1438,"▁salud":1439,"a.":1440,"▁venezuela":1441,"▁sub":1442,"▁queda":1443,"▁presidente":1444,"ta.":1445,"vas":1446,"▁colo":1447,"ctor":1448,"▁nueva":1449,"▁vio":1450,"llo":1451,"▁quiere":1452,"▁ella":1453,"tad":1454,"▁ben":1455,"▁covid":1456,"▁?":1457,"ff":1458,"▁madre":1459,"▁lanzando":1460,"▁aun":1461,"▁direc":1462,"mis":1463,"▁sor":1464,"mina":1465,"iene":1466,"▁mí":1467,"▁dejar":1468,"úbl":1469,"▁ade":1470,"▁201":1471,"ridad":1472,"titu":1473,"▁cabe":1474,"▁fuego":1475,"ill":1476,"▁debe":1477,"▁cuar":1478,"▁respon":1479,"▁estaba":1480,"rr":1481,"▁nuestra":1482,"▁fan":1483,"lante":1484,"▁oración":1485,"▁dormir":1486,"trar":1487,"ian":1488,"ks":1489,"lor":1490,"da,":1491,"▁clas":1492,"▁prof":1493,"▁termin":1494,"▁!":1495,"tual":1496,"▁señal":1497,"▁nor":1498,"útbol":1499,"qué":1500,"▁deja":1501,"▁proble":1502,"icación":1503,"▁será":1504,"▁amigos":1505,"▁buena":1506,"▁je":1507,"▁seguir":1508,"▁mill":1509,"▁historia":1510,"▁salir":1511,"ka":1512,"gún":1513,"▁flecha":1514,"▁19":1515,"mia":1516,"▁pelo":1517,"ionado":1518,"▁fútbol":1519,"▁á":1520,"mon":1521,"▁escri":1522,"pos":1523,"▁estado":1524,"▁primer":1525,"▁gri":1526,"▁corona":1527,"low":1528,"gres":1529,"len":1530,"▁trans":1531,"▁españa":1532,"cur":1533,"▁unos":1534,"ss":1535,"ac":1536,"tón":1537,"▁tenemos":1538,"gt;":1539,"▁perd":1540,"....":1541,"▁muchas":1542,"one":1543,"da.":1544,"▁miedo":1545,"tif":1546,"▁social":1547,"▁ide":1548,"▁marca":1549,"ich":1550,"▁bel":1551,"jas":1552,"▁camb":1553,"▁comer":1554,"rid":1555,"▁lib":1556,"cos":1557,"▁homb":1558,"val":1559,"▁vic":1560,"▁cri":1561,"▁mtv":1562,"gro":1563,"milia":1564,"▁cír":1565,"▁cent":1566,"anos":1567,"▁are":1568,"▁méxico":1569,"▁él":1570,"▁equipo":1571,"▁cl":1572,"quier":1573,"▁compar":1574,"▁amigo":1575,"▁círculo":1576,"use":1577,"dir":1578,"▁cuer":1579,"cuerdo":1580,"▁fuera":1581,"▁segun":1582,"▁flex":1583,"op":1584,"▁estre":1585,"itar":1586,"▁dijo":1587,"eando":1588,"▁twitter":1589,"▁cier":1590,"▁felici":1591,"▁hablar":1592,"▁hecho":1593,"ger":1594,"▁desa":1595,"▁cabeza":1596,"s,":1597,"▁puta":1598,"▁peor":1599,"▁amar":1600,"ñando":1601,"▁sabe":1602,"lea":1603,"y.":1604,"▁hacen":1605,"000":1606,"eros":1607,"▁forma":1608,"▁não":1609,"▁bí":1610,"▁cá":1611,"▁pasar":1612,"▁argentina":1613,"▁dif":1614,"▁juga":1615,"otros":1616,"▁siento":1617,"▁mien":1618,"eo":1619,"▁din":1620,"▁deber":1621,"▁familia":1622,"▁esos":1623,"ceps":1624,"▁frío":1625,"▁bíceps":1626,"▁ru":1627,"▁buenos":1628,"▁by":1629,"ús":1630,"▁vie":1631,"▁asi":1632,"▁len":1633,"▁sólo":1634,"▁che":1635,"▁saber":1636,"dido":1637,"▁comi":1638,"▁ning":1639,"▁flexionado":1640,"ale":1641,"▁poner":1642,"▁informa":1643,"▁ví":1644,"▁elec":1645,"▁pul":1646,"▁veo":1647,"mm":1648,"▁primera":1649,"▁br":1650,"▁sudor":1651,"▁tri":1652,"▁pra":1653,"▁chis":1654,"bil":1655,"▁wha":1656,"▁partido":1657,"vil":1658,"▁mira":1659,"ii":1660,"ticia":1661,"▁nacional":1662,"itos":1663,"▁sigue":1664,"▁xd":1665,"▁necesito":1666,"▁bab":1667,"▁domin":1668,"rir":1669,"antes":1670,"▁medi":1671,"tis":1672,"tadas":1673,"▁públ":1674,"▁conse":1675,"t.":1676,"▁pensativa":1677,"alo":1678,"▁tro":1679,"añ":1680,"▁lugar":1681,"▁cris":1682,"▁ros":1683,"▁invi":1684,"▁olvi":1685,"dades":1686,"▁encan":1687,"▁cru":1688,"izo":1689,"▁your":1690,"ior":1691,"tido":1692,"eral":1693,"kk":1694,"▁pueblo":1695,"ción.":1696,"tru":1697,"▁ley":1698,"▁pueden":1699,"bles":1700,"ty":1701,"▁triste":1702,"▁enten":1703,"ton":1704,"tedes":1705,"▁ali":1706,"▁hombre":1707,"uego":1708,"▁mientras":1709,"para":1710,"▁morado":1711,"▁pien":1712,"hi":1713,"▁mayor":1714,"▁podr":1715,"▁tienes":1716,"um":1717,"▁oj":1718,"▁madrid":1719,"▁defen":1720,"ida":1721,"▁espero":1722,"demos":1723,"▁gana":1724,"port":1725,"▁cui":1726,"bación":1727,"▁recor":1728,"hh":1729,"dre":1730,"ital":1731,"▁espe":1732,"uu":1733,"▁nar":1734,"▁15":1735,"▁auto":1736,"▁imag":1737,"rup":1738,"ecto":1739,"llas":1740,"▁[":1741,"▁sho":1742,"▁wor":1743,"▁volver":1744,"▁mos":1745,"▁aten":1746,"▁*":1747,"icas":1748,"\",":1749,"▁gar":1750,"▁llega":1751,"▁aunque":1752,"▁ustedes":1753,"ys":1754,"e.":1755,"onces":1756,"▁love":1757,"▁liber":1758,"fi":1759,"▁pap":1760,"ual":1761,"olu":1762,"▁disf":1763,"▁amiga":1764,"bas":1765,"▁respe":1766,"cando":1767,"▁produ":1768,"▁'":1769,"amp":1770,"bal":1771,"guen":1772,"▁apar":1773,"▁/":1774,"tados":1775,"mu":1776,"▁bril":1777,"▁guiñando":1778,"elo":1779,"▁muchos":1780,"sab":1781,"▁ayer":1782,"▁edu":1783,"▁otros":1784,"▁encon":1785,"▁fotos":1786,"▁apren":1787,"ísi":1788,"tua":1789,"▁tarde":1790,"▁new":1791,"▁ani":1792,"▁cambi":1793,"▁horas":1794,"▁fran":1795,"entar":1796,"▁muer":1797,"▁rela":1798,"▁cur":1799,"▁what":1800,"▁casi":1801,"▁llama":1802,"▁luego":1803,"▁profes":1804,"ción,":1805,"▁like":1806,"▁polic":1807,"▁lindo":1808,"tamente":1809,"eta":1810,"don":1811,"pm":1812,"▁ele":1813,"▁hizo":1814,"illo":1815,"▁aún":1816,"▁mor":1817,"vers":1818,"▁:(":1819,"ting":1820,"▁ren":1821,"lica":1822,"▁digo":1823,"▁gas":1824,"▁dicen":1825,"sión":1826,"▁habla":1827,"▁haber":1828,"▁tipo":1829,"▁12":1830,"▁loco":1831,"ers":1832,"▁gua":1833,"bado":1834,"▁viene":1835,"lando":1836,"▁vir":1837,"▁espera":1838,"▁deb":1839,"virus":1840,"▁cosa":1841,"▁ante":1842,"▁!!!":1843,"cía":1844,"esti":1845,"▁gru":1846,"erra":1847,"▁amb":1848,"bra":1849,"▁fuer":1850,"amp;":1851,"▁tras":1852,"mor":1853,"ura":1854,"▁not":1855,"cuent":1856,"▁bor":1857,"▁+":1858,"▁nosotros":1859,"ular":1860,"▁notas":1861,"▁estudi":1862,"cis":1863,"▁llegar":1864,"tina":1865,"chos":1866,"▁ama":1867,"gando":1868,"▁sido":1869,"▁cualquier":1870,"entena":1871,"▁minu":1872,"▁pró":1873,"▁progra":1874,"▁ur":1875,"ial":1876,"mien":1877,"▁hola":1878,"te.":1879,"▁odio":1880,"▁raz":1881,"ear":1882,"▁estás":1883,"▁em":1884,"▁publ":1885,"y,":1886,"comp":1887,"cido":1888,"e,":1889,"▁había":1890,"pro":1891,"▁tomar":1892,"mbia":1893,"▁empres":1894,"▁coronavirus":1895,"pera":1896,"▁mucha":1897,"ándo":1898,"brando":1899,"mentos":1900,"uso":1901,"▁bro":1902,"▁soci":1903,"▁interes":1904,"▁paso":1905,"▁chispas":1906,"▁difer":1907,"fas":1908,"▁lengua":1909,"edad":1910,"▁come":1911,"dica":1912,"▁dol":1913,"ria":1914,"d.":1915,"▁palab":1916,"dió":1917,"▁but":1918,"▁único":1919,"ció":1920,"éis":1921,"▁dinero":1922,"▁balón":1923,"cul":1924,"alá":1925,"▁no,":1926,"▁suf":1927,"▁sex":1928,"cor":1929,"te,":1930,"▁goo":1931,"▁comple":1932,"ícu":1933,"▁quieren":1934,"&gt;":1935,"▁11":1936,"▁sueño":1937,"▁one":1938,"cn":1939,"king":1940,"m.":1941,"▁bts":1942,"có":1943,"▁cuarentena":1944,"▁human":1945,"▁viern":1946,"▁was":1947,"ollow":1948,"▁total":1949,"fo":1950,"▁señor":1951,"▁brillante":1952,"ook":1953,"ió":1954,"vía":1955,"cip":1956,"▁cla":1957,"▁herman":1958,"▁esas":1959,"▁visto":1960,"▁ai":1961,"dos.":1962,"▁pulgar":1963,"til":1964,"▁disfru":1965,"▁up":1966,"té":1967,"▁just":1968,"col":1969,"▁hue":1970,"▁tele":1971,"▁celebrando":1972,"▁chile":1973,"▁blo":1974,"rante":1975,"▁agu":1976,"▁tenía":1977,"▁unas":1978,"vin":1979,"▁seguro":1980,"▁pasado":1981,"▁cho":1982,"▁agua":1983,"▁pod":1984,"ches":1985,"▁serv":1986,"▁quién":1987,"mara":1988,"imada":1989,"▁have":1990,"▁corrup":1991,"▁jugar":1992,"eti":1993,"▁domingo":1994,"itas":1995,"▁cel":1996,"▁fir":1997,"▁entonces":1998,"gía":1999,"▁pare":2000,"izar":2001,"▁necesita":2002,"▁nuestros":2003,"▁empez":2004,"est":2005,"▁calle":2006,"▁camin":2007,"menta":2008,"▁um":2009,"▁educa":2010,"▁2020":2011,"▁jajajaja":2012,"▁desan":2013,"▁lar":2014,"▁pensar":2015,"▁prin":2016,"▁lit":2017,"▁encuent":2018,"▁ojalá":2019,"▁hos":2020,"▁tema":2021,"▁agra":2022,"▁quedar":2023,"▁salu":2024,"ps":2025,"▁oscu":2026,"dida":2027,"▁inten":2028,"cios":2029,"▁euro":2030,"▁alto":2031,"▁chin":2032,"▁resul":2033,"▁$":2034,"▁millones":2035,"▁18":2036,"and":2037,"▁tru":2038,"▁acuerdo":2039,"▁wa":2040,"▁ref":2041,"▁iz":2042,"iado":2043,"gida":2044,"ant":2045,"▁musicales":2046,"wn":2047,"▁próx":2048,"rados":2049,"▁abo":2050,"▁inte":2051,"▁reco":2052,"ini":2053,"▁mujeres":2054,"▁romp":2055,"▁recu":2056,"lo.":2057,"▁colombia":2058,"▁prop":2059,"▁guar":2060,"▁tur":2061,"▁acá":2062,"▁hici":2063,"ms":2064,"jes":2065,"▁paz":2066,"ye":2067,"▁levantadas":2068,"vidad":2069,"▁jul":2070,"▁&amp;":2071,"▁et":2072,"▁sabes":2073,"▁pl":2074,"▁ji":2075,"▁desanimada":2076,"▁iba":2077,"▁verde":2078,"10":2079,"yas":2080,"▁vaya":2081,"migo":2082,"aria":2083,"▁puedes":2084,"▁caso":2085,"icial":2086,"▁posi":2087,"▁cuan":2088,"▁fro":2089,"▁jor":2090,"▁sale":2091,"▁entr":2092,"▁negro":2093,"gó":2094,"▁gal":2095,"'t":2096,"idades":2097,"▁wo":2098,"▁mejores":2099,"▁buenas":2100,"▁sino":2101,"▁victoria":2102,"▁viernes":2103,"embre":2104,"dez":2105,"▁ayud":2106,"lado":2107,"▁tres":2108,"eet":2109,"▁av":2110,"▁ases":2111,"30":2112,"lub":2113,"▁lun":2114,"dial":2115,"▁ps":2116,"tencia":2117,"▁100":2118,"▁top":2119,"gado":2120,"▁actual":2121,"tel":2122,"gre":2123,"▁enci":2124,"pre":2125,"▁enco":2126,"▁mamá":2127,"▁due":2128,"lo,":2129,"chas":2130,"▁misma":2131,"▁dio":2132,"▁problema":2133,"▁compañ":2134,"▁more":2135,"▁tre":2136,"▁hago":2137,"ell":2138,"jaj":2139,"dal":2140,"▁entra":2141,"▁opin":2142,"▁sá":2143,"▁lado":2144,"▁ej":2145,"▁sig":2146,"zas":2147,"▁mara":2148,"▁simp":2149,"▁mono":2150,"cado":2151,"▁vivir":2152,"▁nota":2153,"igh":2154,"▁perio":2155,"dos,":2156,"▁ever":2157,"illa":2158,"▁out":2159,"▁importante":2160,"▁manera":2161,"he":2162,"▁lleva":2163,"▁llorar":2164,"▁art":2165,"▁comida":2166,"▁prem":2167,"erto":2168,"bir":2169,"▁than":2170,"gal":2171,"ki":2172,"▁nivel":2173,"ñas":2174,"▁peque":2175,"▁programa":2176,"▁usted":2177,"▁club":2178,"▁ganar":2179,"▁lab":2180,"usa":2181,"diendo":2182,"▁chu":2183,"tima":2184,"▁escuchar":2185,"▁ton":2186,"▁algún":2187,"▁grandes":2188,"▁hombros":2189,"▁il":2190,"ry":2191,"▁grupo":2192,"▁extraño":2193,"tos,":2194,"▁capa":2195,"▁hijo":2196,"▁30":2197,"ocu":2198,"gia":2199,"▁proy":2200,"rea":2201,"zos":2202,"▁fami":2203,"inos":2204,"▁pobre":2205,"▁policía":2206,"▁from":2207,"▁pier":2208,"gü":2209,"st":2210,"dy":2211,"cra":2212,"▁sería":2213,"▁flor":2214,"▁some":2215,"cono":2216,"ist":2217,"mpo":2218,"▁má":2219,"▁!!":2220,"▁incre":2221,"▁trabaja":2222,"▁sur":2223,"demia":2224,"▁tui":2225,"tivos":2226,"▁podemos":2227,"▁bra":2228,"▁consi":2229,"iden":2230,"▁comprar":2231,"gio":2232,"▁encogida":2233,"eno":2234,"▁entiendo":2235,"ticos":2236,"▁enfer":2237,"▁és":2238,"▁dur":2239,"▁tapa":2240,"▁cien":2241,"▁mensa":2242,"▁interna":2243,"tos.":2244,"▁sacar":2245,"▁pq":2246,"▁will":2247,"▁ayuda":2248,"▁vale":2249,"▁mundial":2250,"▁cambio":2251,"▁oscuro":2252,"▁exper":2253,"ite":2254,"▁nu":2255,"▁información":2256,"▁prote":2257,"▁pende":2258,"▁cumplea":2259,"▁viendo":2260,"▁aque":2261,"tia":2262,"ñar":2263,"▁mús":2264,"▁conta":2265,"▁juego":2266,"▁siendo":2267,"day":2268,"▁enf":2269,"▁gato":2270,"▁demas":2271,"ko":2272,"ex":2273,"▁fil":2274,"▁funcion":2275,"▁they":2276,"ase":2277,"pres":2278,"gel":2279,"▁int":2280,"dado":2281,"▁vivo":2282,"▁depor":2283,"▁nombre":2284,"▁suerte":2285,"▁menti":2286,":00":2287,"▁gor":2288,"▁2019":2289,"▁demo":2290,"▁var":2291,"▁pron":2292,"▁especial":2293,"ional":2294,"▁españ":2295,"▁sentir":2296,"▁organ":2297,"▁ig":2298,"▁play":2299,"▁tendr":2300,"▁meses":2301,"▁encima":2302,"▁durante":2303,"▁saben":2304,"▁haga":2305,"▁preocu":2306,"▁futu":2307,"▁niños":2308,"▁realidad":2309,"▁pone":2310,"▁fiesta":2311,"▁mtvla":2312,"▁minis":2313,"▁cumpleaños":2314,"tigo":2315,"▁sta":2316,"▁juan":2317,"uld":2318,"▁conmigo":2319,"▁leer":2320,"ung":2321,"▁sigo":2322,"cidad":2323,"▁kkk":2324,"▁normal":2325,"▁gafas":2326,"▁política":2327,"▁justicia":2328,"▁period":2329,"▁im":2330,"▁todavía":2331,"▁hijos":2332,"▁14":2333,"▁repres":2334,"▁babeando":2335,"▁edi":2336,"ctu":2337,"▁if":2338,"ong":2339,"▁fra":2340,"ix":2341,"▁primero":2342,"▁tempora":2343,"▁mic":2344,"▁za":2345,"▁cues":2346,"vent":2347,"▁anda":2348,"▁precio":2349,"▁dé":2350,"▁perfil":2351,"diante":2352,"▁¿qué":2353,"▁ano":2354,"▁sola":2355,"▁confeti":2356,"bla":2357,"mpoco":2358,"▁now":2359,"aña":2360,"inas":2361,"▁media":2362,"▁emb":2363,"ciente":2364,"▁aprobación":2365,"▁arre":2366,"ecer":2367,"▁24":2368,"▁contin":2369,"ría":2370,"▁ata":2371,"uncia":2372,"güen":2373,"▁campe":2374,"▁expres":2375,"▁copa":2376,"▁inde":2377,"▁trabajar":2378,"ál":2379,"▁i'":2380,"▁tampoco":2381,"fono":2382,"▁situa":2383,"▁lpm":2384,"▁radiante":2385,"taron":2386,"▁si,":2387,"▁ka":2388,"▁bla":2389,"▁tranqui":2390,"18":2391,"ese":2392,"ris":2393,"▁importa":2394,"▁partici":2395,"▁acaba":2396,"▁viol":2397,"amo":2398,"▁serio":2399,"▁radio":2400,"▁lis":2401,"▁desper":2402,"dora":2403,"▁cua":2404,"▁ago":2405,"▁orgu":2406,"▁beb":2407,"▁bb":2408,"▁roto":2409,"▁sele":2410,"ador":2411,"▁además":2412,"▁razón":2413,"▁fer":2414,"ph":2415,"▁jajajajajaja":2416,"esto":2417,"▁contro":2418,"ça":2419,"▁estrellas":2420,"quierda":2421,"▁mala":2422,"▁personal":2423,"ard":2424,"▁tir":2425,"ick":2426,"▁chan":2427,"ght":2428,"▁plata":2429,"▁demás":2430,"▁meu":2431,"▁fá":2432,"mando":2433,"rio":2434,"rada":2435,"ican":2436,"cimiento":2437,"sos":2438,"tiendo":2439,"▁inves":2440,"▁day":2441,"ar,":2442,"▁música":2443,"▁follow":2444,"tagra":2445,"ther":2446,"▁dec":2447,"▁anti":2448,"tación":2449,"▁ef":2450,"mba":2451,"▁13":2452,"▁pelícu":2453,"▁creer":2454,"ificación":2455,"▁izquierda":2456,"▁gritando":2457,"▁confir":2458,"▁serie":2459,"▁quis":2460,"▁coment":2461,"▁desp":2462,"▁última":2463,"▁famili":2464,"▁abrazando":2465,"ar.":2466,"▁glo":2467,"tt":2468,"ró":2469,"▁toma":2470,"▁lunes":2471,"▁ok":2472,"▁pagar":2473,"▁amarillo":2474,"▁pis":2475,"erta":2476,"icia":2477,"▁haya":2478,"▁encanta":2479,"▁quere":2480,"m,":2481,"▁ves":2482,"ifica":2483,"ticas":2484,"lt;":2485,"chi":2486,"vés":2487,"▁perro":2488,"▁abier":2489,"▁cerrados":2490,"▁jos":2491,"▁perder":2492,"▁linda":2493,"▁incl":2494,"ento":2495,"▁punto":2496,"ser":2497,"▁cole":2498,"tá":2499,"▁alguna":2500,"▁ejemp":2501,"▁bi":2502,"ler":2503,"▁luz":2504,"▁fui":2505,"ónde":2506,"▁17":2507,"quiera":2508,"▁16":2509,"▁evi":2510,"portun":2511,"jada":2512,"gada":2513,"▁hubi":2514,"bel":2515,"▁permi":2516,"▁debería":2517,"▁face":2518,"▁acabo":2519,"mó":2520,"ct":2521,"▁cámara":2522,"ity":2523,"dando":2524,"ición":2525,"ror":2526,"▁mais":2527,"ecta":2528,"▁libre":2529,"▁aw":2530,"▁expl":2531,"▁uma":2532,"dito":2533,"▁vs":2534,"ua":2535,"▁excel":2536,"▁pandemia":2537,"▁símb":2538,"▁canción":2539,"▁cañ":2540,"▁abs":2541,"▁dra":2542,"▁pena":2543,"pol":2544,"▁investi":2545,"▁prue":2546,"▁movi":2547,"▁liga":2548,"▁otras":2549,"tamos":2550,"▁apoyo":2551,"▁fre":2552,"▁peop":2553,"▁noti":2554,"▁:)":2555,"▁\"el":2556,"▁dig":2557,"▁llevar":2558,"▁infor":2559,"▁get":2560,"▁presenta":2561,"▁tenga":2562,"▁junto":2563,"usión":2564,"pan":2565,"now":2566,"▁pren":2567,"▁exis":2568,"▁través":2569,"▁último":2570,"▁difí":2571,"▁far":2572,"dó":2573,"güenza":2574,"▁gre":2575,"ioridad":2576,"▁responsab":2577,"▁dicho":2578,"ies":2579,"cito":2580,"▁compro":2581,"▁contigo":2582,"pero":2583,"▁people":2584,"▁orden":2585,"ia,":2586,"▁general":2587,"und":2588,"▁seguridad":2589,"▁acomp":2590,"▁bras":2591,"pido":2592,"▁algunos":2593,"▁tamb":2594,"▁ke":2595,"jsjs":2596,"cla":2597,"▁tí":2598,"▁fis":2599,"▁pelotu":2600,"▁sir":2601,"eras":2602,"taría":2603,"▁abrazo":2604,"▁derecho":2605,"▁idea":2606,"▁centro":2607,"ancia":2608,"ísimo":2609,"▁quieres":2610,"▁quienes":2611,"▁dije":2612,"▁oportun":2613,"▁indi":2614,"▁tweet":2615,"▁log":2616,"▁fueron":2617,"▁conver":2618,"▁culpa":2619,"t,":2620,"▁cine":2621,"▁rico":2622,"ok":2623,"yy":2624,"óg":2625,"▁univer":2626,"▁corr":2627,"▁1.":2628,"▁nego":2629,"▁siste":2630,"-19":2631,"▁resp":2632,"ld":2633,"▁time":2634,"▁acti":2635,"dios":2636,"▁princip":2637,"▁ign":2638,"▁show":2639,"▁autor":2640,"ins":2641,"icios":2642,"trás":2643,"▁enamo":2644,"▁minutos":2645,"▁hosp":2646,"▁bai":2647,"▁vídeo":2648,"ciar":2649,"▁pasó":2650,"▁200":2651,"▁botón":2652,"▁hermosa":2653,"▁cabre":2654,"tf":2655,"▁cañón":2656,"bilidad":2657,"▁regres":2658,"▁queremos":2659,"eza":2660,"la,":2661,"▁trump":2662,"puesta":2663,"▁got":2664,"▁eh":2665,"▁senti":2666,"▁alta":2667,"▁libertad":2668,"llos":2669,"▁hermoso":2670,"▁when":2671,"▁how":2672,"▁payas":2673,"▁clase":2674,"fu":2675,"del":2676,"▁palabras":2677,"▁char":2678,"▁sábado":2679,"▁conocer":2680,"tw":2681,"▁dentro":2682,"▁hon":2683,"▁agrade":2684,"mientos":2685,"▁hablando":2686,"isión":2687,"2020":2688,"▁futuro":2689,"▁madu":2690,"▁hemos":2691,"au":2692,"gente":2693,"▁cuernos":2694,"▁acos":2695,"dí":2696,"rible":2697,"▁about":2698,"pez":2699,"▁escuch":2700,"▁\"la":2701,"▁patri":2702,"▁happ":2703,"▁envi":2704,"▁bir":2705,"▁gro":2706,"▁mex":2707,"▁star":2708,"▁tel":2709,"mica":2710,"▁conci":2711,"▁fuerza":2712,"rera":2713,"miendo":2714,"mero":2715,"▁recono":2716,"▁única":2717,"▁25":2718,".000":2719,"▁pase":2720,"tural":2721,"▁servicio":2722,"uestra":2723,"la.":2724,"arro":2725,"▁entender":2726,"her":2727,"tera":2728,"▁cir":2729,"▁libro":2730,"▁nú":2731,"▁existe":2732,"▁español":2733,"my":2734,"ia.":2735,"▁esperando":2736,"▁entien":2737,"jan":2738,"▁cuerpo":2739,"sidad":2740,"▁juntos":2741,"dro":2742,"▁sean":2743,"▁cansa":2744,"▁regal":2745,"▁lí":2746,"▁án":2747,"ooo":2748,"▁21":2749,"▁fon":2750,"▁rey":2751,"icip":2752,"▁posible":2753,"ni":2754,"▁estan":2755,"▁bonito":2756,"▁acor":2757,"▁vergüenza":2758,"▁fácil":2759,"jando":2760,"▁gober":2761,"ju":2762,"▁cabreada":2763,"▁bueno,":2764,"▁every":2765,"vista":2766,"érica":2767,"▁alma":2768,"▁voz":2769,"▁no.":2770,"tancia":2771,"cto":2772,"▁puño":2773,"▁dejo":2774,"▁municip":2775,"▁calor":2776,"▁fern":2777,"▁temporada":2778,"▁ado":2779,"▁tv":2780,"ía,":2781,"▁stre":2782,"▁see":2783,"▁der":2784,"▁sabor":2785,"▁querer":2786,"▁novio":2787,"ess":2788,"▁vec":2789,"ales.":2790,"mbo":2791,"osa":2792,"▁our":2793,"tran":2794,"▁haces":2795,"▁know":2796,"▁etc":2797,"▁instagra":2798,"yan":2799,"enas":2800,"▁perdón":2801,"▁venezol":2802,"dencia":2803,"▁difícil":2804,"▁podría":2805,"este":2806,"▁\"no":2807,"▁realmente":2808,"tero":2809,"gencia":2810,"su":2811,"▁cin":2812,"▁mue":2813,"aaa":2814,"ización":2815,"▁simple":2816,"▁luna":2817,"▁morir":2818,"▁cambiar":2819,"ales,":2820,"ight":2821,"▁diga":2822,"▁sacando":2823,"▁estrella":2824,"tener":2825,"▁dónde":2826,"▁premios":2827,"iencia":2828,"▁pesso":2829,"▁ense":2830,"▁atención":2831,"book":2832,"▁50":2833,"imos":2834,"das.":2835,"▁who":2836,"▁aqui":2837,"),":2838,"▁dolor":2839,"▁sign":2840,"▁cruz":2841,"▁padre":2842,"▁fla":2843,"▁no?":2844,"▁acep":2845,"▁comen":2846,"▁hice":2847,"▁dias":2848,"▁noticias":2849,"voca":2850,"▁asco":2851,"▁er":2852,"▁muerte":2853,"▁según":2854,"▁verificación":2855,"▁increí":2856,"dis":2857,"net":2858,"▁rá":2859,"▁das":2860,"▁good":2861,"▁usar":2862,"▁bail":2863,"▁sú":2864,"▁econo":2865,"▁fas":2866,"▁casos":2867,"▁salva":2868,"▁santa":2869,"▁bloque":2870,"▁busca":2871,"tur":2872,"▁cuent":2873,"das,":2874,"▁ou":2875,"▁ignor":2876,"▁aj":2877,"rez":2878,"▁toca":2879,"ef":2880,"▁buscar":2881,"▁lista":2882,"mena":2883,"▁covid19":2884,"▁descu":2885,"▁xq":2886,"torio":2887,"▁nada,":2888,"arse":2889,"▁exa":2890,"▁priva":2891,"▁covid-19":2892,"2019":2893,"▁voto":2894,"▁\"a":2895,"▁sep":2896,"dico":2897,"▁valor":2898,"▁hahaha":2899,"▁ningún":2900,"▁té":2901,"▁congres":2902,"21":2903,"▁redes":2904,"▁llamar":2905,"ía.":2906,"▁luis":2907,"▁sistema":2908,"▁proces":2909,"▁bajo":2910,"▁cumple":2911,"▁pregunta":2912,"▁ple":2913,"▁dale":2914,"san":2915,"tter":2916,"▁encontrar":2917,"▁carlos":2918,"bro":2919,"terio":2920,"▁diciendo":2921,"▁contes":2922,"▁crisis":2923,"▁desarro":2924,"▁público":2925,"d,":2926,"ecen":2927,"ág":2928,"▁pedo":2929,"▁nada.":2930,"▁i'm":2931,"▁gira":2932,"▁saludos":2933,"▁happy":2934,"▁mater":2935,"aro":2936,"quito":2937,"▁sí,":2938,"▁verga":2939,"▁solu":2940,"vera":2941,"rando":2942,"uir":2943,"▁dando":2944,"▁excelente":2945,"▁llu":2946,"▁agar":2947,"▁vide":2948,"▁bien,":2949,"▁papá":2950,"▁maduro":2951,"cin":2952,"ra.":2953,"▁cuba":2954,"▁hel":2955,"ish":2956,"▁cama":2957,"▁demasiado":2958,"ink":2959,"encias":2960,"▁moles":2961,"▁quería":2962,"▁eli":2963,"eramente":2964,"▁err":2965,"ra,":2966,"fico":2967,"▁segunda":2968,"ques":2969,"dita":2970,"▁doy":2971,"▁nuestras":2972,"ices":2973,"▁ayudar":2974,"thing":2975,"▁hombres":2976,"▁live":2977,"▁problemas":2978,"&gt;&gt;":2979,"▁oficial":2980,"▁jueves":2981,"▁deba":2982,"▁tanta":2983,"▁secre":2984,"▁vida.":2985,"▁canal":2986,"▁cerve":2987,"▁trata":2988,"▁segundo":2989,"▁avan":2990,"▁obli":2991,"▁siguen":2992,"▁deses":2993,"▁internacional":2994,"▁here":2995,"▁vuelta":2996,"▁22":2997,"▁violencia":2998,"▁mama":2999,"ção":3000,"▁brasil":3001,"▁pensando":3002,"oso":3003,"sion":3004,"▁mensaje":3005,"▁alcal":3006,"▁amer":3007,"gran":3008,"din":3009,"▁year":3010,"i,":3011,"▁limp":3012,"ados":3013,"ieron":3014,"▁explo":3015,"▁gon":3016,"dé":3017,"▁ep":3018,"▁aman":3019,"▁dispon":3020,"12":3021,"ep":3022,"rió":3023,"ens":3024,"▁sw":3025,"▁its":3026,"lación":3027,"▁payaso":3028,"▁pana":3029,"▁pedir":3030,"rate":3031,"▁martes":3032,"▁lucha":3033,"mun":3034,"▁jugador":3035,"ác":3036,"▁vaca":3037,"are":3038,"▁impos":3039,"tas,":3040,"▁niño":3041,"▁eno":3042,"▁ecu":3043,"▁off":3044,"▁&lt;":3045,"▁increíble":3046,"▁crea":3047,"▁econ":3048,"▁jamás":3049,"▁superioridad":3050,"gl":3051,"▁promo":3052,"go,":3053,"▁corre":3054,"▁vuelve":3055,"▁sent":3056,"▁facebook":3057,"▁brin":3058,"▁literal":3059,"hu":3060,"▁abur":3061,"r.":3062,"▁cli":3063,"▁tit":3064,"ner":3065,"▁unidos":3066,"nada":3067,"▁nie":3068,"tantes":3069,"istra":3070,"▁indepen":3071,"▁sentido":3072,"▁situación":3073,"▁elecciones":3074,"tas.":3075,"▁manda":3076,"▁ki":3077,"cómo":3078,"dd":3079,"▁revés":3080,"▁mandar":3081,"▁reun":3082,"▁recuer":3083,"▁termina":3084,"▁wee":3085,"ked":3086,"▁2.":3087,"▁aguan":3088,"▁even":3089,"fica":3090,"tral":3091,"▁contag":3092,"▁hermano":3093,"ído":3094,"▁hicieron":3095,"▁histor":3096,"▁instagram":3097,"▁econó":3098,"nn":3099,"▁súper":3100,"▁puntos":3101,"torios":3102,"▁respeto":3103,"▁matar":3104,"ículo":3105,"▁mó":3106,"taciones":3107,"▁bur":3108,"sas":3109,"brar":3110,"▁suel":3111,"▁institu":3112,"▁sector":3113,"▁cuad":3114,"▁vac":3115,"pren":3116,"▁constitu":3117,"▁duele":3118,"io,":3119,"me,":3120,"visión":3121,"▁best":3122,"▁empezar":3123,"▁messi":3124,"▁pienso":3125,"▁tem":3126,"ning":3127,"all":3128,"table":3129,"quen":3130,"▁lea":3131,"▁cierto":3132,"▁viv":3133,"▁nic":3134,"▁vino":3135,"▁creciente":3136,"▁ge":3137,"able":3138,"▁dejen":3139,"▁mane":3140,"▁cuatro":3141,"▁bailando":3142,"▁jajaj":3143,"▁black":3144,"▁bil":3145,"▁esperan":3146,"cir":3147,"▁hagan":3148,"▁impres":3149,"way":3150,"▁ener":3151,"▁red":3152,"▁ahor":3153,"▁back":3154,"▁acer":3155,"11":3156,"▁votar":3157,"▁vien":3158,"▁educación":3159,"▁proyecto":3160,"como":3161,"▁bola":3162,"▁23":3163,"▁más.":3164,"cina":3165,"▁tremen":3166,"idos":3167,"ología":3168,"▁justo":3169,"▁;":3170,"gación":3171,"hora":3172,"pare":3173,"▁terminar":3174,"▁sociedad":3175,"▁culo":3176,"teo":3177,"tador":3178,"tidad":3179,"▁nuevos":3180,"▁dipu":3181,"io.":3182,"▁tenes":3183,"!!!.":3184,"▁hol":3185,"▁derechos":3186,"ang":3187,"▁ré":3188,"▁deben":3189,"▁2018":3190,"▁esperar":3191,"▁tren":3192,"date":3193,"▁campaña":3194,"▁enter":3195,"▁virus":3196,"tino":3197,"▁desapro":3198,"▁decep":3199,"▁econom":3200,"▁cari":3201,"uno":3202,"▁democra":3203,"▁genera":3204,"dres":3205,"▁vin":3206,"▁caf":3207,"▁cuanto":3208,"▁vive":3209,"▁faz":3210,"coles":3211,"▁darle":3212,"▁bru":3213,"tió":3214,"▁app":3215,"▁candida":3216,"▁diri":3217,"tili":3218,"▁próximo":3219,"▁seas":3220,"▁guerra":3221,"▁team":3222,"▁dro":3223,"▁pasando":3224,"▁imagen":3225,"mite":3226,"diente":3227,"▁idio":3228,"▁camino":3229,"▁seman":3230,"▁descan":3231,"▁//":3232,"▁momentos":3233,"▁cerca":3234,"uito":3235,"▁estados":3236,"▁aus":3237,"▁ninguna":3238,"▁usa":3239,"▁aaa":3240,"▁rosa":3241,"▁agotada":3242,"▁win":3243,"tí":3244,"bes":3245,"-0":3246,"▁hambre":3247,"▁pronto":3248,"ieza":3249,"▁40":3250,"15":3251,"udo":3252,"▁partidos":3253,"▁alcan":3254,"▁ejemplo":3255,"▁mel":3256,"▁bebé":3257,"dente":3258,"▁señora":3259,"gon":3260,"gué":3261,"▁sup":3262,"▁silen":3263,"villa":3264,"iro":3265,"▁jes":3266,"▁she":3267,"▁arran":3268,"▁ó":3269,"▁prepara":3270,"▁esté":3271,"▁meter":3272,"▁llevo":3273,"▁onda":3274,"▁ber":3275,"arme":3276,"inal":3277,"mente,":3278,"ans":3279,"▁any":3280,"▁allá":3281,"▁gesto":3282,"▁¿por":3283,"▁produc":3284,"▁conoce":3285,"ses":3286,"▁entrar":3287,"▁conten":3288,"▁saboreando":3289,"▁ocur":3290,"▁avis":3291,"▁vida,":3292,"mn":3293,"▁fuck":3294,"▁amigas":3295,"the":3296,"▁&gt;":3297,"▁web":3298,"▁ala":3299,"▁felicidad":3300,"▁bomb":3301,"▁malo":3302,"▁obje":3303,"▁quiera":3304,"▁noches":3305,"▁terror":3306,"▁tierra":3307,"▁sec":3308,"▁vai":3309,"p.":3310,"▁ko":3311,"▁barcel":3312,"▁contar":3313,"ky":3314,"zan":3315,"▁alber":3316,"▁puto":3317,"▁nooo":3318,"▁cerveza":3319,"▁sabemos":3320,"▁dado":3321,"aste":3322,"▁desaprobación":3323,"▁hubiera":3324,"▁puesto":3325,"▁beca":3326,"▁hija":3327,"▁local":3328,"ude":3329,"graf":3330,"▁viejo":3331,"tivas":3332,"ugh":3333,"▁mascar":3334,"▁cuán":3335,"▁color":3336,"▁vivi":3337,"▁opinión":3338,"art":3339,"▁ahre":3340,"▁navidad":3341,"ben":3342,"▁repor":3343,"▁defini":3344,"▁rato":3345,"▁sto":3346,"▁preocupa":3347,"▁luces":3348,"▁signo":3349,"▁vieja":3350,"▁minha":3351,":30":3352,"▁seu":3353,".\"":3354,"cr":3355,"▁consegui":3356,"▁youtu":3357,"▁papel":3358,"▁cra":3359,"▁stream":3360,"▁protes":3361,"▁felicidades":3362,"dieron":3363,"▁pública":3364,"▁demos":3365,"17":3366,"▁blanca":3367,"ete":3368,"▁joven":3369,"▁spo":3370,"▁película":3371,"quis":3372,"lin":3373,"▁merece":3374,"▁fri":3375,"▁chil":3376,"▁perfec":3377,"▁aso":3378,"▁detal":3379,"▁ara":3380,"▁world":3381,"▁aprove":3382,"▁pueda":3383,"▁tecn":3384,"▁desespera":3385,"ket":3386,"▁noticia":3387,"▁mando":3388,"▁ár":3389,"▁tapados":3390,"▁trofe":3391,"guay":3392,"▁lluvia":3393,"▁símbolo":3394,"▁oportunidad":3395,"▁comien":3396,"mos.":3397,"▁labor":3398,"▁hoy,":3399,"▁sonro":3400,"▁musical":3401,"▁quedo":3402,"▁habrá":3403,"▁eran":3404,"▁maes":3405,"cida":3406,"▁sha":3407,"umen":3408,"50":3409,"sar":3410,"ctura":3411,"ero,":3412,"▁bastante":3413,"▁américa":3414,"▁mín":3415,"▁basta":3416,"icado":3417,"cent":3418,"icion":3419,"ding":3420,"▁venir":3421,"éndo":3422,"mos,":3423,"▁bri":3424,"▁tambien":3425,"▁mari":3426,"▁voc":3427,"▁amlo":3428,"bia":3429,"▁pensé":3430,"▁need":3431,"▁exig":3432,"me.":3433,"▁todo,":3434,"▁esti":3435,"ero.":3436,"\"..":3437,"▁cd":3438,"▁escucha":3439,"ker":3440,"▁boy":3441,"itan":3442,"▁opera":3443,"▁obra":3444,"▁militar":3445,"▁durmiendo":3446,"▁presiden":3447,"▁dev":3448,"▁opos":3449,"▁trofeo":3450,"ying":3451,"▁barcelona":3452,"▁tuvi":3453,"▁sorpren":3454,"▁internet":3455,"▁obvio":3456,"▁aleg":3457,"▁recuerdo":3458,"tarse":3459,"ach":3460,"▁gusto":3461,"tín":3462,"dura":3463,"i.":3464,"ianza":3465,"▁correc":3466,"▁\"s":3467,"▁carrera":3468,"▁sonrojada":3469,"▁número":3470,"▁josé":3471,"▁rápido":3472,"▁mate":3473,"▁pais":3474,"▁)":3475,"▁fecha":3476,"icó":3477,"▁novia":3478,"▁escuela":3479,"ions":3480,"▁fiscal":3481,"lidad":3482,"andom":3483,"▁insta":3484,"▁ase":3485,"▁conven":3486,"al.":3487,"áis":3488,"▁ulti":3489,"▁estudiar":3490,"leo":3491,"▁hermana":3492,"▁uso":3493,"▁clases":3494,"▁futbol":3495,"gor":3496,"▁duda":3497,"▁profesional":3498,"▁llegó":3499,"▁capital":3500,"▁golpe":3501,"▁ingres":3502,"▁die":3503,"▁manif":3504,"▁cree":3505,"▁cerrado":3506,"line":3507,"▁juega":3508,"món":3509,"rano":3510,"▁aire":3511,"▁foi":3512,"miaw":3513,"▁fras":3514,"▁solid":3515,"▁bien.":3516,"bli":3517,"ma,":3518,"▁celular":3519,"▁éx":3520,"curso":3521,"gues":3522,"▁jeje":3523,"zco":3524,"▁europa":3525,"▁entrevista":3526,"▁kar":3527,"▁paci":3528,"▁encuentro":3529,"▁seguimos":3530,"hs":3531,"▁memo":3532,"▁lín":3533,"▁hospital":3534,"▁rid":3535,"▁lor":3536,"respon":3537,"▁consul":3538,"▁prome":3539,"▁viva":3540,"▁dici":3541,"▁datos":3542,"▁mexic":3543,"▁siga":3544,"▁pequeño":3545,"▁ee":3546,"▁niña":3547,"chez":3548,"▁moren":3549,"▁regalo":3550,"▁llen":3551,"▁stor":3552,"pular":3553,"▁quin":3554,"xs":3555,"▁mente":3556,"▁delin":3557,"▁zona":3558,"ándose":3559,"▁l'":3560,"zada":3561,"ré":3562,"▁baja":3563,"tarme":3564,"▁hin":3565,"día":3566,"ár":3567,"▁significa":3568,"tulo":3569,"▁gil":3570,"▁champ":3571,"▁oh":3572,"▁hd":3573,"▁denun":3574,"▁mur":3575,"lix":3576,"usi":3577,"!!.":3578,"ares":3579,"z,":3580,"▁aga":3581,"▁jugadores":3582,"▁dó":3583,"▁diario":3584,"▁vacaciones":3585,"ile":3586,"diciones":3587,"bida":3588,"▁comunidad":3589,"bres":3590,"▁ropa":3591,"▁medios":3592,"▁edad":3593,"▁pessoas":3594,"▁medidas":3595,"▁julio":3596,"▁joder":3597,"cheta":3598,"▁calidad":3599,"▁dont":3600,"up":3601,"▁cultura":3602,"▁telé":3603,"▁rob":3604,"▁abor":3605,"▁empi":3606,"▁todo.":3607,"▁acu":3608,"▁imagin":3609,"▁lig":3610,"▁boli":3611,"▁absolu":3612,"▁respuesta":3613,"▁mexico":3614,"go.":3615,"▁juro":3616,"▁orto":3617,"hor":3618,"▁globo":3619,"▁ran":3620,"▁depen":3621,"▁apa":3622,"▁atrás":3623,"▁patr":3624,"▁cere":3625,"▁partir":3626,"▁orig":3627,"▁ecuador":3628,"▁deje":3629,"▁café":3630,"▁salió":3631,"▁cumpl":3632,"unt":3633,"▁did":3634,"▁uri":3635,"▁isso":3636,"▁resto":3637,"▁admi":3638,"▁móvil":3639,"▁chec":3640,"al,":3641,"▁técn":3642,"▁pongo":3643,"▁você":3644,"▁igles":3645,"ving":3646,"jun":3647,"▁utili":3648,"izado":3649,"gura":3650,"gir":3651,"▁feel":3652,"▁china":3653,"▁ocu":3654,"▁femin":3655,"em":3656,"cle":3657,"hy":3658,"▁político":3659,"▁only":3660,"mación":3661,"▁viola":3662,"▁ido":3663,"▁alivio":3664,"▁hilo":3665,"▁pele":3666,"▁ejer":3667,"ctubre":3668,"▁chica":3669,"▁info":3670,"▁gratis":3671,"damos":3672,"▁bos":3673,"▁vc":3674,"iciente":3675,"▁imposible":3676,"▁arro":3677,"▁tenido":3678,"▁lejos":3679,"▁recomen":3680,"▁apor":3681,"▁¿cu":3682,"▁decirl":3683,"▁mtvmiaw":3684,"▁pp":3685,"▁leg":3686,"▁because":3687,"▁loca":3688,"▁mag":3689,"ilidad":3690,"▁inteli":3691,"▁eso,":3692,"mber":3693,"ste":3694,"▁algunas":3695,"▁???":3696,"cola":3697,"▁decepcion":3698,"▁youtube":3699,"orn":3700,"▁diver":3701,"▁river":3702,"▁tá":3703,"▁refle":3704,"▁chincheta":3705,"▁inicia":3706,"▁atra":3707,"▁dese":3708,"▁want":3709,"▁años,":3710,"▁levantada":3711,"▁hal":3712,"▁constru":3713,"▁maravil":3714,"fuer":3715,"▁fantas":3716,"▁olvidar":3717,"▁catal":3718,"▁repro":3719,"▁colec":3720,"▁chicos":3721,"▁their":3722,"▁saca":3723,"an,":3724,"zz":3725,"pla":3726,"ull":3727,"▁sociales":3728,"▁jugando":3729,"16":3730,"▁refer":3731,"▁venga":3732,"▁directo":3733,"▁esca":3734,"puesto":3735,"▁esperamos":3736,"▁más,":3737,"▁disfrutar":3738,"ma.":3739,"▁libros":3740,"▁pide":3741,"▁naran":3742,"▁nas":3743,"▁subir":3744,"▁viaje":3745,"▁anun":3746,"▁exac":3747,"lash":3748,"▁defender":3749,"▁giratorios":3750,"▁don't":3751,"mg":3752,"uras":3753,"rito":3754,"▁fl":3755,"bió":3756,"▁varios":3757,"▁make":3758,"▁it's":3759,"▁macri":3760,"▁descar":3761,"▁pé":3762,"▁doble":3763,"▁tin":3764,"▁anal":3765,"▁ofre":3766,"▁rus":3767,"▁ind":3768,"▁dólar":3769,"▁apre":3770,"▁participa":3771,"co,":3772,"▁mayoría":3773,"▁distin":3774,"▁=":3775,"▁ponen":3776,"▁jornada":3777,"▁mirar":3778,"▁vomi":3779,"▁pelig":3780,"▁banda":3781,"▁paga":3782,"▁control":3783,"▁sabía":3784,"▁amp":3785,"▁octubre":3786,"▁sil":3787,"▁vemos":3788,"▁miér":3789,"▁¿cómo":3790,"ku":3791,"▁marcha":3792,"▁over":3793,"ustra":3794,"xi":3795,"▁war":3796,"pec":3797,"tito":3798,"▁impues":3799,"▁totalmente":3800,"tea":3801,"▁creen":3802,"▁natural":3803,"▁adelante":3804,"▁aprender":3805,"alu":3806,"biendo":3807,"lada":3808,"de,":3809,"▁políticos":3810,"▁duer":3811,"▁ron":3812,"▁canciones":3813,"▁pareja":3814,"ira":3815,"▁cae":3816,"▁kca":3817,"2.":3818,"▁frien":3819,"▁tuve":3820,"▁falle":3821,"pira":3822,"▁non":3823,"▁chor":3824,"▁congreso":3825,"▁compartir":3826,"▁there":3827,"▁provin":3828,"ally":3829,"▁tantas":3830,"▁humor":3831,"iso":3832,"cara":3833,"▁bonita":3834,"▁dedo":3835,"▁supon":3836,"tio":3837,"end":3838,"▁quedan":3839,"▁cam":3840,"▁llegue":3841,"▁democracia":3842,"quer":3843,"▁thank":3844,"▁seria":3845,"mx":3846,"▁colab":3847,"de.":3848,"terna":3849,"▁life":3850,"▁celebra":3851,"▁pic":3852,"iantina":3853,"▁ries":3854,"▁quiz":3855,"▁teléfono":3856,"3.":3857,"▁mayo":3858,"tions":3859,"▁proyec":3860,"▁silencio":3861,"▁palabra":3862,"▁llev":3863,"▁pablo":3864,"▁siguien":3865,"▁benef":3866,"▁arte":3867,"ópez":3868,"▁disponible":3869,"▁empresa":3870,"▁plaza":3871,"cti":3872,"mental":3873,"▁tengan":3874,"▁agre":3875,"jd":3876,"ará":3877,"?!":3878,"▁abril":3879,"▁lol":3880,"▁adver":3881,"▁pho":3882,"ón,":3883,"▁ste":3884,"▁já":3885,"▁acuer":3886,"▁bron":3887,"▁¿y":3888,"▁preven":3889,"▁evitar":3890,"▁despe":3891,"itario":3892,"▁cami":3893,"ciales":3894,"ings":3895,"▁compra":3896,"▁efec":3897,"▁visita":3898,"▁peda":3899,"▁wat":3900,"c.":3901,"olución":3902,"▁¡¡":3903,"yendo":3904,"▁(?":3905,"ric":3906,"▁prensa":3907,"▁perú":3908,"gle":3909,"sen":3910,"▁js":3911,"▁sala":3912,"tiembre":3913,"▁sp":3914,"▁lópez":3915,"▁verano":3916,"an.":3917,"▁gab":3918,"▁funda":3919,"▁ana":3920,"ft":3921,"▁big":3922,"ny":3923,"▁cabr":3924,"▁defensa":3925,"▁orgullo":3926,"zado":3927,"▁siii":3928,"▁venta":3929,"▁goberna":3930,"taje":3931,"▁digan":3932,"rica":3933,"▁estudio":3934,"▁3.":3935,"kes":3936,"▁líder":3937,"rido":3938,"▁miles":3939,"▁prohi":3940,"▁prepar":3941,"▁oro":3942,"nt":3943,"▁afec":3944,"▁recuerda":3945,"▁barrio":3946,"▁ner":3947,"▁así,":3948,"▁repe":3949,"▁colegio":3950,"▁concha":3951,"▁feo":3952,"bamos":3953,"▁uru":3954,"▁hacerlo":3955,"▁dani":3956,"▁tiempos":3957,"▁way":3958,"▁game":3959,"▁expresión":3960,"▁26":3961,"▁vista":3962,"▁padres":3963,"▁dieron":3964,"miso":3965,"▁esfuer":3966,"sito":3967,"▁orgullos":3968,"▁pedi":3969,"▁empresas":3970,",.":3971,"▁diferencia":3972,"▁horrible":3973,"▁emer":3974,"▁vou":3975,"▁error":3976,"▁masa":3977,"▁28":3978,"14":3979,"▁años.":3980,"ley":3981,"▁máx":3982,"▁enga":3983,"▁cansada":3984,"▁ahi":3985,"mico":3986,"▁extre":3987,"▁mental":3988,"▁netf":3989,"▁basura":3990,"▁suspen":3991,"▁bre":3992,"▁neu":3993,"▁tuit":3994,"▁ل":3995,"▁caer":3996,"▁siente":3997,"▁trabajando":3998,"▁gustaría":3999,"ure":4000,"eee":4001,"▁tec":4002,"sapp":4003,"ming":4004,"▁netflix":4005,"k.":4006,"ciona":4007,"▁sel":4008,"▁tuvo":4009,"▁crí":4010,"▁mig":4011,"▁jó":4012,"▁27":4013,"fiero":4014,"▁empieza":4015,"▁him":4016,"bum":4017,"mado":4018,"isis":4019,"iar":4020,"▁recordar":4021,"▁mode":4022,"▁pus":4023,"▁iden":4024,"▁stan":4025,"▁really":4026,"sel":4027,"▁cic":4028,"▁ses":4029,"▁esse":4030,"tivamente":4031,"ón.":4032,"za,":4033,"▁banco":4034,"▁llena":4035,"mel":4036,"mán":4037,"▁despier":4038,"▁been":4039,"till":4040,"▁septiembre":4041,"▁dise":4042,"▁flash":4043,"▁experiencia":4044,"▁pinche":4045,"▁jajaja":4046,"▁insul":4047,"▁delincu":4048,"▁país.":4049,"▁jóven":4050,"▁bl":4051,"▁mueca":4052,"▁naranja":4053,"▁ansi":4054,"▁palo":4055,"▁fís":4056,"1.":4057,"onas":4058,"▁santia":4059,"▁d'":4060,"▁gr":4061,"▁mani":4062,"▁volvi":4063,"▁critic":4064,"get":4065,"▁consu":4066,"▁segura":4067,"▁post":4068,"▁pedro":4069,"▁países":4070,"cí":4071,",,":4072,"▁&lt;3":4073,"▁hacemos":4074,"▁paro":4075,"▁please":4076,"ós":4077,"iera":4078,"▁explica":4079,"▁oli":4080,"▁nove":4081,"logo":4082,"▁why":4083,"▁genial":4084,"cidos":4085,"▁puro":4086,"▁never":4087,"terior":4088,"▁papa":4089,"▁again":4090,"▁universidad":4091,"▁despues":4092,"ducir":4093,"▁intent":4094,"▁curso":4095,"▁querido":4096,"clu":4097,"▁ál":4098,"▁tb":4099,"ole":4100,"▁jar":4101,"▁pasan":4102,"fel":4103,"▁haz":4104,"▁reti":4105,"▁first":4106,"ula":4107,"mexico":4108,"▁caliente":4109,"▁popular":4110,"▁europe":4111,"▁clara":4112,"▁amaz":4113,"▁whatsapp":4114,"▁recién":4115,"▁presente":4116,"▁agos":4117,"▁sán":4118,"▁excla":4119,"▁ellas":4120,"▁hablan":4121,"▁animal":4122,"tien":4123,"▁cualquiera":4124,"▁contr":4125,"▁asesina":4126,"▁legal":4127,"▁entrena":4128,"▁histó":4129,"lle":4130,"▁puso":4131,"▁enfada":4132,"tle":4133,"▁salga":4134,"▁salen":4135,"▁ligeramente":4136,"cionar":4137,"▁llego":4138,"▁puerto":4139,"▁rin":4140,"vor":4141,"▁sirve":4142,"▁nuevas":4143,"tilla":4144,"▁historias":4145,"▁decl":4146,"▁siquiera":4147,"▁cola":4148,"▁quedó":4149,"mé":4150,"▁cala":4151,"▁buscando":4152,"wa":4153,"▁miércoles":4154,"▁dejan":4155,"▁jajajajaja":4156,"talla":4157,"▁recha":4158,"anti":4159,"za.":4160,"▁dormi":4161,"▁línea":4162,"▁would":4163,"tale":4164,"▁dul":4165,"▁gener":4166,"▁convi":4167,"▁deseo":4168,"▁cuesta":4169,"ca,":4170,"co.":4171,"▁gustan":4172,"▁conversa":4173,"▁ministro":4174,"▁desarrollo":4175,"▁relación":4176,"▁estaría":4177,"▁docu":4178,"▁rock":4179,"trando":4180,"▁tae":4181,"by":4182,"▁after":4183,"▁escribir":4184,"▁sui":4185,"▁today":4186,"▁nomb":4187,"▁trai":4188,"▁suce":4189,"▁mío":4190,"▁estuvo":4191,"▁encar":4192,"▁pido":4193,"▁wey":4194,"▁muertos":4195,"▁mascarilla":4196,"▁semanas":4197,"▁necesario":4198,"▁mitad":4199,"▁admin":4200,"▁costa":4201,"▁pendejo":4202,"▁dicta":4203,"40":4204,"▁ang":4205,"▁diciembre":4206,"▁pág":4207,"▁presu":4208,"▁puse":4209,"▁carajo":4210,"ulo":4211,"▁mismos":4212,"▁largo":4213,"▁marzo":4214,"mentar":4215,"▁digital":4216,"▁tes":4217,"uelo":4218,"▁recur":4219,"tiv":4220,"ista,":4221,"▁flo":4222,"▁muero":4223,"▁caga":4224,"▁cabal":4225,"▁muito":4226,"ví":4227,"▁army":4228,"h,":4229,"▁podes":4230,"▁calles":4231,"▁exclamación":4232,"gg":4233,"▁eeuu":4234,"▁lamenta":4235,"5.":4236,"▁capaz":4237,"▁\"es":4238,"▁andar":4239,"ze":4240,"▁week":4241,"ezo":4242,"ro,":4243,"▁them":4244,"▁girl":4245,"▁amena":4246,"2018":4247,"▁estren":4248,"▁mundo.":4249,"ble.":4250,"▁videos":4251,"▁bio":4252,"▁cuidar":4253,"▁declara":4254,"▁últimos":4255,"▁desesperada":4256,"▁solici":4257,"▁penal":4258,"▁próxima":4259,"▁sien":4260,"▁sou":4261,"▁vote":4262,"zó":4263,"7.":4264,"▁entrega":4265,"▁fic":4266,"▁mata":4267,"▁cielo":4268,"▁espacio":4269,"zados":4270,"▁too":4271,"tear":4272,"▁exo":4273,"▁sar":4274,"▁fondo":4275,"▁anoche":4276,"▁pruebas":4277,"▁debate":4278,"cular":4279,"▁día,":4280,"rés":4281,"▁hojas":4282,"▁crimin":4283,"▁proba":4284,"▁pobla":4285,"▁finde":4286,"cta":4287,"▁recla":4288,"▁colombi":4289,"▁central":4290,"tifica":4291,"▁corrupción":4292,"▁yo,":4293,"▁poquito":4294,"▁apl":4295,"_de":4296,"queo":4297,"▁playa":4298,"▁porfa":4299,"mente.":4300,"▁metro":4301,"▁maría":4302,"▁home":4303,"crip":4304,"ico,":4305,"ista.":4306,"▁acabar":4307,"▁nomas":4308,"▁representa":4309,"▁gh":4310,"pia":4311,"vez":4312,"▁cn":4313,"▁participar":4314,"▁villa":4315,"▁adop":4316,"/0":4317,"▁estuvi":4318,"13":4319,"▁temprano":4320,"▁vienen":4321,"▁miguel":4322,"▁maravillos":4323,"▁conozco":4324,"chu":4325,"males":4326,"▁sueños":4327,"follow":4328,"▁resultados":4329,"▁univers":4330,"▁recibir":4331,"▁estadio":4332,"▁narco":4333,"wer":4334,"▁causa":4335,"▁mia":4336,"▁pesar":4337,"▁publicar":4338,"▁piensa":4339,"▁ando":4340,"▁publi":4341,"tiene":4342,"▁novi":4343,"▁economía":4344,"▁seguidores":4345,"jeron":4346,"▁deten":4347,"monio":4348,"hol":4349,"ila":4350,"▁bienven":4351,"▁escuchando":4352,"▁online":4353,"ws":4354,"▁corte":4355,"_de_":4356,"arte":4357,"▁prác":4358,"▁cuentas":4359,"h.":4360,"▁think":4361,"bido":4362,"▁sánchez":4363,"tores":4364,"▁camis":4365,"▁cagar":4366,"▁wan":4367,"cons":4368,"ters":4369,"▁servicios":4370,"▁inicio":4371,"ñe":4372,"▁tenia":4373,"▁won":4374,"turas":4375,"▁rica":4376,"▁baj":4377,"tró":4378,"kook":4379,"▁mercado":4380,"▁discul":4381,"▁mmm":4382,"▁polit":4383,"has":4384,"▁capí":4385,"▁acompañ":4386,"▁ger":4387,"▁árbol":4388,"▁sangre":4389,"ron":4390,"▁repu":4391,"▁pala":4392,"▁denuncia":4393,"▁spe":4394,"▁arreg":4395,"ública":4396,"▁tiro":4397,"▁90":4398,"▁vea":4399,"gs":4400,"ramos":4401,"▁bella":4402,"idad.":4403,"voz":4404,"▁disco":4405,"cus":4406,"▁incluso":4407,"isla":4408,"▁bajar":4409,"▁corriendo":4410,"▁tex":4411,"▁apenas":4412,"▁essa":4413,":(":4414,"▁alco":4415,"▁arma":4416,"▁moral":4417,"xa":4418,"▁decía":4419,"▁fans":4420,"▁à":4421,"▁dem":4422,"▁vent":4423,"int":4424,"todo":4425,"-2":4426,"ga,":4427,"▁grogui":4428,"'re":4429,"jus":4430,"▁temas":4431,"ina,":4432,"▁televisión":4433,"▁eje":4434,"▁mul":4435,"▁huel":4436,"tales":4437,"▁bici":4438,"▁ud":4439,"▁vayan":4440,"▁torne":4441,"▁gén":4442,"ctr":4443,"▁colisión":4444,"▁leo":4445,"▁yo:":4446,"▁sonrisa":4447,"▁tho":4448,"▁consecu":4449,"▁eso.":4450,"tui":4451,"▁diferente":4452,"bio":4453,"tes,":4454,"▁estudiantes":4455,"▁tour":4456,"▁mesa":4457,"▁reac":4458,"▁daño":4459,"▁éxito":4460,"▁lograr":4461,"roso":4462,"▁argu":4463,"▁dejó":4464,"pó":4465,"ey":4466,"▁mol":4467,"▁modo":4468,"▁dices":4469,"▁asus":4470,"▁mía":4471,"▁viento":4472,"▁día.":4473,"▁sigan":4474,"▁organiza":4475,"▁dign":4476,"ciones.":4477,"▁somb":4478,"▁80":4479,"▁free":4480,"▁comentarios":4481,"▁simplemente":4482,"erva":4483,"▁neta":4484,"cera":4485,"gados":4486,"▁distancia":4487,"▁let":4488,"▁gonz":4489,"lip":4490,"▁els":4491,"▁tengas":4492,"▁sexual":4493,"▁recuper":4494,"▁jóvenes":4495,"ily":4496,"▁huevo":4497,"▁¿no":4498,"▁inver":4499,"▁stu":4500,"▁link":4501,"▁read":4502,"▁pd":4503,"▁??":4504,"cionales":4505,"▁preci":4506,"▁look":4507,"▁arco":4508,"▁guer":4509,"▁mier":4510,"▁amista":4511,"▁prueba":4512,"▁cuál":4513,"▁stop":4514,"▁república":4515,"▁enfadada":4516,"▁caus":4517,"▁chocola":4518,"▁imb":4519,"▁casa,":4520,"▁enor":4521,"▁mínimo":4522,"▁baby":4523,"▁cai":4524,"▁estaban":4525,"▁ansiedad":4526,"▁present":4527,"chan":4528,"▁miss":4529,"▁urgente":4530,"ca.":4531,"▁gesti":4532,"ro.":4533,"▁necesitamos":4534,"▁trabajadores":4535,"▁ná":4536,"▁goles":4537,"▁conden":4538,"▁sensa":4539,"▁into":4540,"eets":4541,"ate":4542,"dri":4543,"▁campo":4544,"▁feste":4545,"▁medic":4546,"▁ador":4547,"▁quede":4548,"▁santiago":4549,"▁fracas":4550,"gimen":4551,"ways":4552,"itch":4553,"▁cristi":4554,"▁acces":4555,"▁ot":4556,"lito":4557,"p:":4558,"▁deberían":4559,"▁latiendo":4560,"▁advertencia":4561,"▁cab":4562,"▁interesante":4563,"pes":4564,"▁extraña":4565,"mática":4566,"▁paja":4567,"teros":4568,"▁mantener":4569,"▁wal":4570,"▁mach":4571,"ciones,":4572,"▁bad":4573,"▁triun":4574,"▁condu":4575,"mate":4576,"medad":4577,"▁elector":4578,"▁felices":4579,"▁ras":4580,"▁destru":4581,"▁vomitando":4582,"__":4583,"▁que,":4584,"▁cuándo":4585,"▁casa.":4586,"▁spa":4587,"▁jung":4588,"pul":4589,"▁ciudadanos":4590,"▁equipos":4591,"▁quisiera":4592,"ana.":4593,"▁dura":4594,"cita":4595,"▁proceso":4596,"▁resultado":4597,"-1":4598,"▁martín":4599,"▁kcamexico":4600,"▁vox":4601,"▁ed":4602,"unta":4603,"chando":4604,"▁últimas":4605,"▁tea":4606,"▁épo":4607,"▁indus":4608,"gracias":4609,"▁zapa":4610,"▁ital":4611,"puestas":4612,"▁feder":4613,"remos":4614,"ico.":4615,"▁cargo":4616,"▁tantos":4617,"llar":4618,"▁sk":4619,"dra":4620,"▁pobres":4621,"▁contrario":4622,"▁preten":4623,"▁jaja.":4624,"▁selección":4625,"taria":4626,"▁listo":4627,"z.":4628,"▁eta":4629,"rero":4630,"ana,":4631,"hhh":4632,"istemo":4633,"▁clás":4634,"▁still":4635,"▁base":4636,"▁robo":4637,"▁entrada":4638,"▁puerta":4639,"▁suficiente":4640,"4.":4641,"▁campeón":4642,"▁bás":4643,"fff":4644,"ández":4645,"ga.":4646,"ense":4647,"▁todos.":4648,"▁siguiente":4649,"▁dibu":4650,"dilla":4651,"u.":4652,"▁juegos":4653,"▁piz":4654,"tem":4655,"▁caca":4656,"▁cár":4657,"▁debemos":4658,"▁mami":4659,"arias":4660,"▁febr":4661,"▁hablo":4662,"▁anto":4663,"im":4664,"inho":4665,"▁necesidad":4666,"▁escon":4667,"gna":4668,"▁mete":4669,"▁conte":4670,"▁allí":4671,"▁sof":4672,"▁anivers":4673,"ismo.":4674,"porte":4675,"▁alberto":4676,"▁estupi":4677,"tm":4678,"tes.":4679,"▁coño":4680,"uros":4681,"▁leche":4682,"▁ganó":4683,"▁cumplir":4684,"▁actu":4685,"▁¿a":4686,"▁incen":4687,"olos":4688,"▁asis":4689,"▁mentira":4690,"▁podía":4691,"▁administra":4692,"uliantina":4693,"we":4694,"▁visit":4695,"▁sevilla":4696,"▁100%":4697,"▁esco":4698,"▁aur":4699,"ferencia":4700,"▁ass":4701,"ture":4702,"buena":4703,"▁anton":4704,"ológ":4705,"▁difun":4706,"▁junio":4707,"▁60":4708,"▁adul":4709,"▁tapada":4710,"▁fab":4711,"▁lleno":4712,"▁régimen":4713,"eran":4714,"▁desta":4715,"▁honor":4716,"▁29":4717,"▁apoyar":4718,"▁mc":4719,"ela":4720,"▁parque":4721,"ip":4722,"▁confianza":4723,"▁abierta":4724,"▁rea":4725,"▁propio":4726,"dición":4727,"▁relo":4728,"▁tirar":4729,"▁manten":4730,"▁ofen":4731,"▁patria":4732,"cura":4733,"▁alar":4734,"mera":4735,"ded":4736,"▁unfollow":4737,"▁dudas":4738,"ines":4739,"▁dele":4740,"▁ph":4741,"cada":4742,"ards":4743,"cate":4744,"▁angel":4745,"▁ela":4746,"▁cate":4747,"truir":4748,"ose":4749,"▁derro":4750,"xt":4751,"▁dy":4752,"▁finan":4753,"▁director":4754,"▁tab":4755,"▁concierto":4756,"▁tocar":4757,"▁decisión":4758,"▁varias":4759,"▁wow":4760,"▁mal,":4761,"een":4762,"▁bomba":4763,"▁enfr":4764,"jue":4765,"▁inv":4766,"olver":4767,"▁petro":4768,"▁besos":4769,"is,":4770,"▁empren":4771,"▁avi":4772,"▁brea":4773,"ney":4774,"bor":4775,"▁tudo":4776,"▁say":4777,"▁cerrar":4778,"▁muchísimo":4779,"▁lear":4780,"▁cantidad":4781,"▁puer":4782,"▁besando":4783,"▁represent":4784,"ina.":4785,"ismo,":4786,"▁neg":4787,"▁acab":4788,"▁quem":4789,"▁nin":4790,"▁compren":4791,"▁defien":4792,"tres":4793,"▁a.":4794,"▁joh":4795,"▁crack":4796,"▁vender":4797,"▁down":4798,"▁market":4799,"misión":4800,"▁pudi":4801,"▁ángel":4802,"▁cuento":4803,"ísima":4804,"▁cambia":4805,"▁watch":4806,"on,":4807,"▁emocion":4808,"yó":4809,"▁sera":4810,"▁há":4811,"erno":4812,"▁estará":4813,"cien":4814,"enos":4815,"▁pago":4816,"ders":4817,"▁enc":4818,"▁termine":4819,"▁bara":4820,"on.":4821,"▁pie":4822,"▁premio":4823,"▁imagina":4824,"▁pidiendo":4825,"▁tol":4826,"▁rui":4827,"▁ada":4828,"▁precios":4829,"cente":4830,"matic":4831,"▁same":4832,"▁médica":4833,"▁4.":4834,"▁ladr":4835,"▁duro":4836,"▁belle":4837,"zo,":4838,"cy":4839,"▁hdp":4840,"so,":4841,"▁decepcionada":4842,"▁vecinos":4843,"mí":4844,"▁equivo":4845,"▁were":4846,"ditos":4847,"▁titular":4848,"▁queria":4849,"▁ching":4850,"▁yu":4851,"cing":4852,"▁verte":4853,"gular":4854,"▁jorge":4855,"▁retw":4856,"iva":4857,"▁desay":4858,"doba":4859,"▁frustra":4860,"▁existen":4861,"▁alf":4862,"▁abrir":4863,"▁esto,":4864,"▁ojala":4865,"ónica":4866,"▁vuelvo":4867,"▁romper":4868,"▁echar":4869,"▁fron":4870,"▁raro":4871,"bran":4872,"▁nem":4873,"▁actitu":4874,"▁ene":4875,"▁dijeron":4876,"▁altavoz":4877,"▁lon":4878,"se.":4879,"▁progres":4880,"▁dedos":4881,"▁bogo":4882,"▁explicar":4883,"▁reír":4884,"▁omg":4885,"▁gos":4886,"▁festi":4887,"▁perdi":4888,"▁estorn":4889,"▁comentario":4890,"▁fres":4891,"▁ing":4892,"idad,":4893,"▁bote":4894,"inda":4895,"▁negocio":4896,"▁suena":4897,"▁terrible":4898,"▁grave":4899,"capa":4900,"▁riesgo":4901,"mo,":4902,"▁prefiero":4903,"▁detalles":4904,"aso":4905,"▁realiz":4906,"▁hacía":4907,"ls":4908,"▁industri":4909,"▁quando":4910,"▁días,":4911,"mpa":4912,"▁cro":4913,"▁pega":4914,"isco":4915,"▁bille":4916,"▁always":4917,"▁crees":4918,"unda":4919,"▁cancha":4920,"▁responsabilidad":4921,"▁mtvlaf":4922,"▁serán":4923,"▁burl":4924,"▁multi":4925,"▁loo":4926,"▁sua":4927,"▁chico":4928,"▁cero":4929,"▁familias":4930,"▁take":4931,"▁bailar":4932,"▁famos":4933,"▁cerebro":4934,"▁descon":4935,"▁racis":4936,"▁valencia":4937,"ce.":4938,"▁muestra":4939,"ería":4940,"▁pied":4941,"▁glor":4942,"▁ejerci":4943,"▁concep":4944,"▁civil":4945,"▁gestión":4946,"vie":4947,"eco":4948,"test":4949,"▁last":4950,"▁full":4951,"itaria":4952,"uesta":4953,"▁mundo,":4954,"▁sing":4955,"▁oye":4956,"▁estrate":4957,"▁repar":4958,"dina":4959,"▁confirma":4960,"▁conseguir":4961,"▁birth":4962,"▁alum":4963,"bri":4964,"6.":4965,"▁right":4966,"aban":4967,"▁agora":4968,"▁ino":4969,"segu":4970,"▁toque":4971,"▁nen":4972,"▁pura":4973,"amb":4974,"istas,":4975,"▁perfecto":4976,"▁propia":4977,"▁agen":4978,"▁news":4979,"▁cumpli":4980,"▁siesta":4981,"media":4982,"▁jimin":4983,"▁ile":4984,"▁viste":4985,"▁sorpres":4986,"▁tó":4987,"▁bebida":4988,"jaa":4989,"▁champions":4990,"▁mario":4991,"▁joa":4992,"▁dr":4993,"▁dm":4994,"▁encontra":4995,"▁brindando":4996,"udando":4997,"▁espal":4998,"▁mio":4999,"▁deman":5000,"▁médic":5001,"▁bue":5002,"▁reloj":5003,"▁hubo":5004,"dedor":5005,"n't":5006,"od":5007,"▁amor,":5008,"▁reto":5009,"ood":5010,"▁cariño":5011,"▁lou":5012,"orar":5013,"▁propi":5014,"▁bbmas":5015,"itales":5016,"▁sena":5017,"▁humil":5018,"▁abuela":5019,"mic":5020,"tch":5021,"▁agosto":5022,"▁publica":5023,"timos":5024,"tillo":5025,"lia":5026,"ide":5027,"▁esperanza":5028,"▁perdon":5029,"▁funciona":5030,"▁episo":5031,"▁pocos":5032,"▁lamentable":5033,"▁juz":5034,"▁perdido":5035,"ts.":5036,"▁propon":5037,"▁jefe":5038,"▁heart":5039,"▁uruguay":5040,"entos":5041,"useas":5042,"▁objetivo":5043,"quin":5044,"▁llegan":5045,"▁cinco":5046,"▁votos":5047,"kd":5048,"▁calend":5049,"▁google":5050,"▁adi":5051,"bit":5052,"▁símbolos":5053,"▁resop":5054,"▁joda":5055,"▁calla":5056,"▁coche":5057,"tora":5058,"▁comba":5059,"sal":5060,"?\"":5061,"vios":5062,"▁regis":5063,"▁asegu":5064,"▁siempre.":5065,"rue":5066,"▁responder":5067,"▁opción":5068,"▁cuarto":5069,"siones":5070,"▁saque":5071,"▁resoplando":5072,"▁tl":5073,"sor":5074,"▁placer":5075,"iana":5076,"▁tas":5077,"so.":5078,"▁cuidado":5079,"▁parar":5080,"▁verdad,":5081,"jj":5082,"▁desas":5083,"▁frase":5084,"▁esfuerzo":5085,"gentes":5086,"icular":5087,"hab":5088,"▁tarta":5089,"▁energía":5090,"▁gir":5091,"▁rece":5092,"▁náuseas":5093,"is.":5094,"ful":5095,"▁cuida":5096,"▁país,":5097,"en.":5098,"en,":5099,"▁huevos":5100,"▁afu":5101,"cian":5102,"k,":5103,"▁diferentes":5104,"▁pinta":5105,"▁saludando":5106,"▁pegar":5107,"vidades":5108,"▁mediana":5109,"▁medal":5110,"▁going":5111,"9.":5112,"▁eter":5113,"▁embar":5114,"quina":5115,"24":5116,"▁pesos":5117,"vamos":5118,"▁así.":5119,"▁menor":5120,"▁fru":5121,"▁ev":5122,"▁ul":5123,"▁ris":5124,"▁teniendo":5125,"▁madru":5126,"▁rele":5127,"▁cocina":5128,"▁cen":5129,"▁alre":5130,"▁aleman":5131,"▁gala":5132,"▁venezolanos":5133,"▁bolsa":5134,"▁imagino":5135,"▁calendario":5136,"▁obras":5137,"▁realizar":5138,"▁terri":5139,"tagon":5140,"▁70":5141,"▁entiende":5142,"▁had":5143,"▁pudo":5144,"▁resta":5145,"▁gracias.":5146,"▁aniversario":5147,"▁being":5148,"aragua":5149,"▁ejecu":5150,"ifa":5151,"▁minuto":5152,"▁desapar":5153,"▁fol":5154,"▁lee":5155,"▁prima":5156,"▁acciones":5157,"▁trá":5158,"bs":5159,"▁encuentra":5160,"25":5161,"▁pija":5162,"▁\"si":5163,"dremos":5164,"▁alcalde":5165,"▁photo":5166,"▁llevan":5167,"▁hogar":5168,"▁deus":5169,"▁solidar":5170,"▁salvar":5171,"▁gracia":5172,"▁ideas":5173,"▁periodista":5174,"quién":5175,"ço":5176,"▁robar":5177,"pri":5178,"▁viven":5179,"▁encontr":5180,"▁vamo":5181,"ionales":5182,"▁recomenda":5183,"▁thanks":5184,"▁artículo":5185,"tto":5186,"▁emergencia":5187,"▁hones":5188,"▁tomando":5189,"▁impac":5190,"▁comb":5191,"▁teclas":5192,"▁norte":5193,"hahahaha":5194,"▁gasol":5195,"tumb":5196,"viada":5197,"▁tweets":5198,"▁faltan":5199,"▁hable":5200,"▁2017":5201,"▁¡a":5202,"▁explotando":5203,"▁francis":5204,"uma":5205,"lic":5206,"mo.":5207,"▁redon":5208,"▁inclu":5209,"▁preguntas":5210,"ardo":5211,"▁vidas":5212,"▁inici":5213,"ush":5214,"▁consejo":5215,"▁esto.":5216,"era,":5217,"illas":5218,"▁enca":5219,"▁borra":5220,"▁odi":5221,"genes":5222,"tive":5223,"▁si.":5224,"▁tira":5225,"▁semp":5226,"▁part":5227,"▁versión":5228,"▁pso":5229,"▁interesa":5230,"u,":5231,"▁enero":5232,"esa":5233,"viendo":5234,"▁compañeros":5235,"▁obliga":5236,"▁does":5237,"▁cita":5238,"▁(a":5239,"▁desgra":5240,"▁salida":5241,"tú":5242,"quita":5243,"▁pendeja":5244,"▁ciencia":5245,"▁alcohol":5246,"▁provincia":5247,"orado":5248,"▁hy":5249,"▁tenés":5250,"▁years":5251,"▁alegría":5252,"▁baño":5253,"▁plen":5254,"▁supera":5255,"▁micro":5256,"▁noviembre":5257,"▁recursos":5258,"▁muerto":5259,"▁micró":5260,"▁mejorar":5261,"▁sun":5262,"▁tremendo":5263,"▁reme":5264,"▁continu":5265,"▁recupera":5266,"lez":5267,"▁give":5268,"▁cc":5269,"iler":5270,"▁completo":5271,"▁compe":5272,"▁chiste":5273,"▁excl":5274,"mano":5275,"▁influ":5276,"p,":5277,"*.":5278,"▁necesitan":5279,"▁porq":5280,"▁detrás":5281,"▁oi":5282,"▁alex":5283,"▁parecer":5284,"minar":5285,"jajajajajajajaja":5286,"▁maf":5287,"▁personaje":5288,"▁acompaña":5289,"▁night":5290,"hay":5291,"icul":5292,"▁zo":5293,"▁memoria":5294,"▁página":5295,"▁investiga":5296,"▁sem":5297,"quilla":5298,"▁mostrando":5299,"▁verlo":5300,"▁primeros":5301,"cán":5302,"los.":5303,"▁joy":5304,"▁lic":5305,"▁ánimo":5306,"▁andalu":5307,"▁bebe":5308,"▁reunión":5309,"▁caí":5310,"▁dre":5311,"▁well":5312,"▁crear":5313,"▁perros":5314,"urs":5315,"ical":5316,"▁ges":5317,"le.":5318,"▁rio":5319,"ak":5320,"▁ingl":5321,"▁fren":5322,"▁inno":5323,"▁ciudadan":5324,"▁taller":5325,"▁es,":5326,"ign":5327,"▁claro,":5328,"▁km":5329,"▁quieras":5330,"▁tendría":5331,"▁selector":5332,"▁preciosa":5333,"grafía":5334,"▁femen":5335,"▁chicas":5336,"eas":5337,"rlo":5338,"▁htt":5339,"▁humanos":5340,"▁should":5341,"▁gracias,":5342,"▁escol":5343,"fans":5344,"tus":5345,"lé":5346,"p:/":5347,"▁could":5348,"elli":5349,"▁grupos":5350,"▁ao":5351,"▁común":5352,"▁negra":5353,"▁cré":5354,"gido":5355,"▁pregunto":5356,"▁coin":5357,"▁rafa":5358,"los,":5359,"▁curio":5360,"ba,":5361,"▁cs":5362,"▁uribe":5363,"vier":5364,"▁distri":5365,"▁grá":5366,"▁run":5367,"▁vul":5368,"▁comunicación":5369,"▁cárcel":5370,"ráqueo":5371,"c,":5372,"▁ic":5373,"dade":5374,"▁celebrar":5375,"▁tecnología":5376,"iti":5377,"▁;)":5378,"back":5379,"▁mina":5380,"horabuena":5381,"▁reina":5382,"ind":5383,"▁hé":5384,"▁learn":5385,"▁yes":5386,"▁imá":5387,"jado":5388,"jero":5389,"rita":5390,"▁imper":5391,"ire":5392,"▁debo":5393,"▁médico":5394,"drá":5395,"▁periodistas":5396,"22":5397,"▁sempre":5398,"▁éste":5399,"▁hac":5400,"▁cán":5401,"▁shit":5402,"▁hagas":5403,"▁películas":5404,"▁flores":5405,"álisis":5406,"▁veh":5407,"▁intentar":5408,"▁micrófono":5409,"▁ingen":5410,"▁hoje":5411,"▁peru":5412,"ncia":5413,"meric":5414,"▁pm":5415,"▁most":5416,"leta":5417,"▁aliviada":5418,"▁harry":5419,"▁estornudando":5420,"ww":5421,"▁limi":5422,"▁chic":5423,"▁cabel":5424,"▁carne":5425,"le,":5426,"▁estú":5427,"▁prefer":5428,"mas,":5429,"▁gente,":5430,"uta":5431,"tida":5432,"▁jungkook":5433,"▁quizás":5434,"▁virtual":5435,"▁gobern":5436,"▁vuelva":5437,"▁vues":5438,"▁help":5439,"▁ofic":5440,"▁quedate":5441,"tería":5442,"▁chav":5443,"▁complica":5444,"▁porqué":5445,"▁aud":5446,"ges":5447,"dor,":5448,"▁automatic":5449,"▁div":5450,"▁marketing":5451,"▁estilo":5452,"▁mentiras":5453,"▁tratar":5454,"▁trib":5455,"▁pode":5456,"▁cór":5457,"dent":5458,"▁ascen":5459,"▁febrero":5460,"▁nega":5461,"▁¿que":5462,"▁acon":5463,"▁realiza":5464,"▁hoy.":5465,"dientes":5466,"anas":5467,"eratura":5468,"▁reli":5469,"▁suma":5470,"▁terráqueo":5471,"▁http:/":5472,"▁inglés":5473,"▁diego":5474,"▁got7":5475,"se,":5476,"▁facul":5477,"▁¡no":5478,"dor.":5479,"▁tiempo.":5480,"▁series":5481,"▁llamado":5482,"▁(?)":5483,"▁reflex":5484,"▁tendrá":5485,"%.":5486,"▁pude":5487,"▁birthday":5488,"▁these":5489,"▁kee":5490,"▁checked":5491,"ctores":5492,"▁hacerme":5493,"tividad":5494,".0":5495,"▁acto":5496,"▁económica":5497,"▁capacidad":5498,"▁capit":5499,"▁torneo":5500,"▁empeza":5501,"▁cdmx":5502,"cter":5503,"▁automatically":5504,"mmer":5505,"▁elegir":5506,"▁favorito":5507,"ble,":5508,"▁emi":5509,"gol":5510,"era.":5511,"▁resulta":5512,"queros":5513,"▁work":5514,"▁teatro":5515,"▁great":5516,"▁interés":5517,"▁deporte":5518,"▁event":5519,"▁lá":5520,"▁barça":5521,"▁31":5522,"▁todos,":5523,"▁diá":5524,"▁edición":5525,"▁acción":5526,"estas":5527,"--":5528,"▁mal.":5529,"▁fortale":5530,"▁clave":5531,"rs":5532,"▁premi":5533,"▁francia":5534,"deos":5535,"▁cantar":5536,"▁favor,":5537,"▁end":5538,"▁montón":5539,"tional":5540,"▁malas":5541,"▁tío":5542,"tique":5543,"▁open":5544,"▁mirando":5545,"▁noso":5546,"tario":5547,"▁1,":5548,"▁tarje":5549,"self":5550,"▁tiempo,":5551,"▁bronca":5552,"▁roja":5553,"▁lopez":5554,"▁coca":5555,"▁caden":5556,"▁gotas":5557,"land":5558,"ce,":5559,"▁\"me":5560,"▁ocas":5561,"▁queres":5562,"▁ub":5563,"▁also":5564,"▁fazer":5565,"▁entren":5566,"▁aparece":5567,"▁vá":5568,"▁better":5569,"▁protección":5570,"▁dedica":5571,"▁piden":5572,"▁vice":5573,"▁definitivamente":5574,"▁comienza":5575,"▁león":5576,"sh":5577,"▁acco":5578,"▁carre":5579,"▁levantar":5580,"▁hiciste":5581,"▁río":5582,"▁env":5583,"▁italia":5584,"dere":5585,"▁interior":5586,"▁ambos":5587,"▁refu":5588,"ica,":5589,"▁lanza":5590,"▁arru":5591,"▁evento":5592,"▁rober":5593,"▁clima":5594,"▁modelo":5595,"ba.":5596,"ah":5597,"▁vel":5598,"▁ahhh":5599,"teando":5600,"mula":5601,"▁pelotudo":5602,"▁puedan":5603,"▁convoca":5604,"▁pros":5605,"▁isla":5606,"▁pio":5607,"▁piso":5608,"▁época":5609,"▁cont":5610,"▁humano":5611,"▁fase":5612,"▁festival":5613,"itor":5614,"▁importantes":5615,"▁oposición":5616,"▁bang":5617,"▁coun":5618,"▁bolivia":5619,"▁judi":5620,"▁global":5621,"▁followed":5622,"▁estuve":5623,"▁verdadero":5624,"han":5625,"inar":5626,"▁david":5627,"▁mensajes":5628,"▁aparte":5629,"▁ti,":5630,"▁escucho":5631,"rida":5632,"▁god":5633,"▁mismo.":5634,"▁¿quién":5635,"▁vosotros":5636,"▁correspon":5637,"▁ocul":5638,"▁call":5639,"▁toy":5640,"8.":5641,"99":5642,"▁miren":5643,"▁informe":5644,"▁empleo":5645,"▁siempre,":5646,"▁desgracia":5647,"▁audio":5648,"of":5649,"▁especta":5650,"▁capítulo":5651,"▁canta":5652,"▁parla":5653,"g.":5654,"dela":5655,"▁fascis":5656,"▁aut":5657,"lón":5658,"▁other":5659,"er,":5660,"▁muere":5661,"▁meta":5662,"▁impresion":5663,"quero":5664,"▁usuario":5665,"▁cuánto":5666,"▁población":5667,"▁daniel":5668,"▁sopor":5669,"▁discu":5670,"gy":5671,"▁cach":5672,"lec":5673,"▁aplica":5674,"guez":5675,"▁santo":5676,"▁artis":5677,"▁independiente":5678,"▁presentación":5679,"▁(y":5680,"igu":5681,"▁municipal":5682,"▁impuestos":5683,"tán":5684,"dero":5685,"▁condiciones":5686,"▁acci":5687,"▁kil":5688,"▁\"de":5689,"▁salgo":5690,"▁tuyo":5691,"▁camiseta":5692,"▁tik":5693,"▁afir":5694,"▁mtvlapare":5695,"▁empezó":5696,"fan":5697,"▁kid":5698,"▁impul":5699,"▁particip":5700,"▁vengan":5701,"rán":5702,"▁carta":5703,"gin":5704,"▁días.":5705,"didos":5706,"▁conce":5707,"▁vota":5708,"rí":5709,"▁500":5710,"▁debes":5711,"er.":5712,"▁saco":5713,"nes":5714,"▁actividades":5715,"bos":5716,"▁felicitaciones":5717,"fin":5718,"▁garcía":5719,"vic":5720,"▁rí":5721,"▁ambiente":5722,"▁cuantos":5723,"▁obser":5724,"▁antonio":5725,"▁visual":5726,"▁digas":5727,"▁made":5728,"ns":5729,"▁aban":5730,"▁vícti":5731,"▁said":5732,"▁estén":5733,"cun":5734,"▁hit":5735,"▁volun":5736,"▁compromiso":5737,"▁irme":5738,"▁perman":5739,"▁justif":5740,"aram":5741,"ando.":5742,"▁literalmente":5743,"ñan":5744,"▁injus":5745,"▁valen":5746,"▁sexo":5747,"ple":5748,"▁reno":5749,"▁positivo":5750,"▁merca":5751,"▁boo":5752,"▁comiendo":5753,"tti":5754,"▁mostra":5755,"oos":5756,"▁manuel":5757,"▁pierde":5758,"▁vean":5759,"▁garanti":5760,"▁hincha":5761,"▁gay":5762,"▁enorme":5763,"▁bill":5764,"60":5765,"éctr":5766,"▁sinc":5767,"▁wait":5768,"▁hipo":5769,"▁olvid":5770,"▁respecto":5771,"▁llegado":5772,"▁reforma":5773,"bin":5774,"pl":5775,"ica.":5776,"▁diputados":5777,"udia":5778,"é,":5779,"fort":5780,"▁atre":5781,"▁latino":5782,"▁preguntar":5783,"▁etc.":5784,"▁nose":5785,"▁league":5786,"▁qual":5787,"ándome":5788,"▁beau":5789,"▁apo":5790,"nal":5791,"▁vengo":5792,"▁jesús":5793,"▁región":5794,"gios":5795,"▁altura":5796,"▁piensan":5797,"▁ahora,":5798,"▁moment":5799,"▁cientí":5800,"ever":5801,"▁molesta":5802,"▁principal":5803,"ing.":5804,"▁hp":5805,"▁ello":5806,"▁cali":5807,"▁peso":5808,"▁interven":5809,"▁acerca":5810,"▁pela":5811,"▁habría":5812,"centes":5813,"les.":5814,"▁decirle":5815,"▁mx":5816,"▁actividad":5817,"▁martin":5818,"▁cant":5819,"▁alv":5820,"les,":5821,"▁leí":5822,"▁hablamos":5823,"▁viajar":5824,"▁hotel":5825,"▁nicol":5826,"icamente":5827,"▁quitar":5828,"▁ti.":5829,"▁mayores":5830,"ect":5831,"▁dictadura":5832,"▁rue":5833,"▁cocin":5834,"▁logra":5835,"▁very":5836,"▁extran":5837,"▁perió":5838,"▁favorita":5839,"▁auricular":5840,"▁anuncia":5841,"▁juvent":5842,"▁gy":5843,"▁friends":5844,"▁ataque":5845,"▁pizza":5846,"▁coj":5847,"▁wil":5848,"eria":5849,"▁gustó":5850,"mas.":5851,"▁high":5852,"todos":5853,"▁impun":5854,"▁culp":5855,"▁millon":5856,"▁belleza":5857,"tita":5858,"▁ilus":5859,"▁hun":5860,"ór":5861,"▁campeona":5862,"▁examen":5863,"▁confun":5864,"tadores":5865,"▁cambios":5866,"▁ace":5867,"▁fc":5868,"ándole":5869,"▁jaj":5870,"▁imágenes":5871,"▁jajajaj":5872,"▁agus":5873,"mático":5874,"▁horario":5875,"yos":5876,"▁arcoír":5877,"ando,":5878,"crá":5879,"meros":5880,"▁mejor.":5881,"▁cif":5882,"▁motivo":5883,"▁profe":5884,"▁discurso":5885,"▁excep":5886,"▁ponga":5887,"▁movimiento":5888,"▁sube":5889,"▁ahorita":5890,"▁encer":5891,"▁olvida":5892,"▁desastre":5893,"▁chal":5894,"▁asocia":5895,"▁abierto":5896,"▁presentar":5897,"▁peron":5898,"▁\"en":5899,"▁fea":5900,"▁tercera":5901,"▁vera":5902,"▁panamá":5903,"▁vende":5904,"sin":5905,"▁cata":5906,"▁recibiendo":5907,"rique":5908,"ueva":5909,"▁abue":5910,"▁une":5911,"▁sí.":5912,"▁coor":5913,"▁arcoíris":5914,"▁mila":5915,"▁sois":5916,"▁dios,":5917,"jajaja":5918,"▁culia":5919,"bur":5920,"▁asun":5921,"▁miemb":5922,"▁aero":5923,"▁little":5924,"▁protagon":5925,"estar":5926,"▁medalla":5927,"dimiento":5928,"▁considera":5929,"tec":5930,"anto":5931,"▁colon":5932,"▁guste":5933,"▁profesor":5934,"▁entera":5935,"▁sis":5936,"minación":5937,"▁original":5938,"▁dona":5939,"▁solución":5940,"kaka":5941,"▁estable":5942,"ducción":5943,"udas":5944,"▁cáncer":5945,"▁gobernador":5946,"▁isa":5947,"▁familiar":5948,"▁id":5949,"ane":5950,"▁bogotá":5951,"▁oc":5952,"▁5.":5953,"▁mostrar":5954,"▁investigación":5955,"▁máximo":5956,"▁chocolate":5957,"jeros":5958,"▁verdad.":5959,"l.":5960,"▁voltaje":5961,"▁fake":5962,"▁animales":5963,"▁volvió":5964,"▁acostumb":5965,"▁thre":5966,"▁posta":5967,"▁asu":5968,"▁cristina":5969,"gala":5970,"▁mez":5971,"pel":5972,"▁inau":5973,"▁estima":5974,"▁agres":5975,"▁bendi":5976,"ork":5977,"cula":5978,"▁asamb":5979,"▁alej":5980,"▁م":5981,"▁marco":5982,"▁mons":5983,"▁\"los":5984,"▁responsable":5985,"▁absolutamente":5986,"▁anterior":5987,"▁unión":5988,"▁where":5989,"istas.":5990,"▁ola":5991,"▁jer":5992,"&lt;":5993,"colo":5994,"▁jal":5995,"cciones":5996,"▁concent":5997,"ime":5998,"▁hablas":5999,"▁neutral":6000,"▁diría":6001,"▁integ":6002,"▁song":6003,"▁eléctr":6004,"▁sorry":6005,"▁análisis":6006,"quia":6007,"▁nao":6008,"23":6009,"▁psoe":6010,"▁yoon":6011,"▁productos":6012,"eso":6013,"▁fandom":6014,"▁mates":6015,"▁autoridades":6016,"▁amigos,":6017,"▁querés":6018,"▁feria":6019,"ito,":6020,"▁tarea":6021,"ged":6022,"▁gustado":6023,"▁ninguno":6024,"teca":6025,"jsj":6026,"▁revis":6027,"hoy":6028,"▁princes":6029,"▁sober":6030,"▁dema":6031,"▁importancia":6032,"▁city":6033,"▁completa":6034,"▁mierda.":6035,"\":":6036,"▁unidad":6037,"▁termino":6038,"b.":6039,"▁rombo":6040,"▁sorteo":6041,"▁elig":6042,"cón":6043,"▁cantando":6044,"▁córdoba":6045,"▁moto":6046,"▁tardes":6047,"\"...":6048,"▁nicaragua":6049,"▁disfruta":6050,"▁¡fel":6051,"jin":6052,"▁género":6053,"▁afuera":6054,"▁carga":6055,"▁médicos":6056,"▁murió":6057,"▁apun":6058,"▁spotif":6059,"▁presión":6060,"▁francisco":6061,"▁agradecer":6062,"zo.":6063,"▁jejeje":6064,"▁emple":6065,"▁hará":6066,"▁pierdas":6067,"▁cago":6068,"▁fort":6069,"▁hope":6070,"ts,":6071,"▁quero":6072,"▁misera":6073,"tali":6074,"▁trae":6075,"kan":6076,"▁compara":6077,"▁mismo,":6078,"ante.":6079,"▁comisión":6080,"etas":6081,"▁consider":6082,"▁dirección":6083,"▁tercer":6084,"▁descono":6085,"▁\"n":6086,"▁cuestion":6087,"▁poca":6088,"▁saludo":6089,"▁lava":6090,"▁consulta":6091,"▁lugares":6092,"▁sobr":6093,"tieron":6094,"▁pibe":6095,"▁iglesia":6096,"▁oscar":6097,"▁desapare":6098,"▁poniendo":6099,"▁mucho,":6100,"row":6101,"▁wtf":6102,"▁empa":6103,"▁cancel":6104,"▁depende":6105,"nd":6106,"andro":6107,"▁extrañar":6108,"▁trabajos":6109,"▁¿te":6110,"▁の":6111,"▁peña":6112,"antil":6113,"mestre":6114,"▁valent":6115,"har":6116,"▁maestro":6117,"▁exclusi":6118,"▁madres":6119,"▁sim":6120,"let":6121,"▁perten":6122,"80":6123,"ller":6124,"▁proyectos":6125,"▁awards":6126,"▁inso":6127,"▁quieran":6128,"▁valle":6129,"?,":6130,"bón":6131,"].":6132,"▁:d":6133,"▁quita":6134,"▁cobrar":6135,"tiful":6136,"▁salvador":6137,"▁tré":6138,"▁cop":6139,"▁dyna":6140,"▁embara":6141,"&amp;":6142,"▁plena":6143,"ipe":6144,"▁!.":6145,"puta":6146,"/10":6147,"joy":6148,"▁apoya":6149,"▁resis":6150,"▁2021":6151,"▁desin":6152,"▁ya.":6153,"▁aborto":6154,"▁semi":6155,",000":6156,"▁ocupa":6157,"**":6158,"▁perdió":6159,"▁renun":6160,"ux":6161,"▁fuerzas":6162,"▁tod":6163,"▁mareo":6164,"▁niñas":6165,"▁ministerio":6166,"vile":6167,"▁keep":6168,"▁35":6169,"▁infin":6170,"▁correr":6171,"▁mini":6172,"▁candidato":6173,"▁dejado":6174,"▁rit":6175,"gus":6176,"▁cierto,":6177,"▁chupa":6178,"▁bom":6179,"▁portu":6180,"▁dólares":6181,"▁trébol":6182,"▁maria":6183,"ats":6184,"▁bibl":6185,"▁deix":6186,"▁vacuna":6187,"▁repetir":6188,"▁mv":6189,"▁then":6190,"▁aquellos":6191,"▁loc":6192,"▁redonda":6193,"▁guardia":6194,"vaila":6195,"▁dedic":6196,"▁merecen":6197,"fic":6198,"responsab":6199,"▁next":6200,"pal":6201,"▁mesmo":6202,"▁infec":6203,"phone":6204,"idas":6205,"&gt;&gt;&gt;&gt;":6206,"▁ejercicio":6207,"▁america":6208,"▁sei":6209,"uuu":6210,"▁superar":6211,"▁frustración":6212,"▁responde":6213,"wu":6214,"▁ye":6215,"▁permitir":6216,"▁depar":6217,"▁cruzados":6218,"▁declar":6219,"gá":6220,"ente,":6221,"cie":6222,"gón":6223,"▁party":6224,"▁magn":6225,"óme":6226,"▁sensi":6227,"vidu":6228,"melo":6229,"▁fernández":6230,"▁dame":6231,"▁histór":6232,"▁espec":6233,"▁¿sab":6234,"▁lloro":6235,"▁fernando":6236,"▁monta":6237,"enti":6238,"▁sepa":6239,"▁duque":6240,"▁carro":6241,"▁aven":6242,"guém":6243,"▁fuiste":6244,"▁md":6245,"▁p.":6246,"▁inú":6247,"▁casas":6248,"▁habit":6249,"▁precisa":6250,"▁estrategia":6251,"▁innova":6252,"ficio":6253,"▁talento":6254,"▁entradas":6255,"▁cub":6256,"aas":6257,"▁abre":6258,"▁dignidad":6259,"▁práctica":6260,"▁ans":6261,"▁solamente":6262,"▁pc":6263,"▁coger":6264,"▁transporte":6265,"▁fucking":6266,"tz":6267,"▁louis":6268,"▁visitar":6269,"é.":6270,"iii":6271,"jera":6272,"▁ficha":6273,"▁y,":6274,"▁haha":6275,"▁maldita":6276,"▁mierda,":6277,"▁enhorabuena":6278,"▁dí":6279,"▁rodr":6280,"▁confusión":6281,"riendo":6282,"▁\"se":6283,"▁pensaba":6284,"▁tom":6285,"enario":6286,"▁dulce":6287,"▁producción":6288,"▁cultural":6289,"▁acordar":6290,"▁(o":6291,"dá":6292,"▁cosas,":6293,"▁2016":6294,"▁principio":6295,"▁tell":6296,"▁llo":6297,"bus":6298,"▁hier":6299,"▁leyendo":6300,"ente.":6301,"tión":6302,"oli":6303,"▁española":6304,"▁título":6305,"logía":6306,"▁categor":6307,"▁jur":6308,"▁anima":6309,"▁traer":6310,"▁doctor":6311,"▁mucho.":6312,"▁contacto":6313,"▁aco":6314,"iciones":6315,"...\"":6316,"▁despertar":6317,"sed":6318,"rle":6319,"gt":6320,"▁llaman":6321,"▁aceptar":6322,"vailable":6323,"▁esque":6324,"▁gente.":6325,"ó,":6326,"▁ainda":6327,"▁yo.":6328,"▁assi":6329,"ística":6330,"mada":6331,"▁account":6332,"▁juicio":6333,"▁chris":6334,"▁siglo":6335,"▁ear":6336,"▁hot":6337,"rer":6338,"▁c.":6339,"▁pongan":6340,"▁cone":6341,"▁privile":6342,"▁jard":6343,"yn":6344,"▁pocas":6345,"▁pedazo":6346,"anda":6347,"▁aband":6348,"▁aguante":6349,"seguridad":6350,"ons":6351,"▁volumen":6352,"▁conciencia":6353,"▁ruta":6354,"inha":6355,"▁electoral":6356,"▁corruptos":6357,"▁continú":6358,"▁hs":6359,"▁aro":6360,"▁decre":6361,"liza":6362,"▁ego":6363,"▁caracas":6364,"▁balonces":6365,"▁beautiful":6366,"▁enfermedad":6367,"▁constitución":6368,"▁yendo":6369,"▁ame":6370,"▁ganado":6371,"▁municipio":6372,"▁amooo":6373,"▁quédate":6374,"▁master":6375,"▁diz":6376,"▁bem":6377,"▁criminal":6378,"▁pies":6379,"▁stay":6380,"▁homena":6381,"▁cana":6382,"▁probable":6383,"▁motiva":6384,"100":6385,"▁pequeña":6386,"▁rata":6387,"▁cerezo":6388,"▁power":6389,"▁mega":6390,"▁euros":6391,"▁bit":6392,"▁alerta":6393,"▁mi,":6394,"▁até":6395,"▁leon":6396,"▁uds":6397,"▁tenho":6398,"▁turismo":6399,"▁bun":6400,"cs":6401,"▁echa":6402,"cru":6403,"hos":6404,"lie":6405,"▁yan":6406,"▁separa":6407,"▁corto":6408,"ibles":6409,"▁dal":6410,"▁necesitas":6411,"▁ultima":6412,"uro":6413,"▁trabajo,":6414,"▁45":6415,"▁pref":6416,"▁ms":6417,"▁lastima":6418,"▁individu":6419,"▁periódico":6420,"▁adelan":6421,"tillas":6422,"▁pleno":6423,"▁cobar":6424,"▁facultad":6425,"▁cabello":6426,"▁clo":6427,"▁jaja,":6428,"eres":6429,"▁aires":6430,"▁abandon":6431,"▁hern":6432,"▁demasia":6433,"▁renuncia":6434,"▁psic":6435,"▁invito":6436,"▁tristeza":6437,"▁planeta":6438,"▁merec":6439,"▁calavera":6440,"▁maldito":6441,"▁sabado":6442,"▁nosotras":6443,"ari":6444,"▁segundos":6445,"▁dejaron":6446,"▁abri":6447,"▁puebla":6448,"▁profun":6449,"▁morena":6450,"▁hermanos":6451,"▁políticas":6452,"▁tuya":6453,"▁nes":6454,"▁planes":6455,"▁cuel":6456,"▁amigo,":6457,"▁paciencia":6458,"duras":6459,"▁transforma":6460,"▁irre":6461,"▁aquel":6462,"▁u.":6463,"▁profesionales":6464,"▁material":6465,"▁víctimas":6466,"▁depres":6467,"▁hoja":6468,"menes":6469,"▁fiel":6470,"▁ore":6471,"▁hubiese":6472,"▁agenda":6473,"▁acabe":6474,"▁moda":6475,"▁pantal":6476,"▁cierre":6477,"▁prohibido":6478,"pida":6479,"▁sueldo":6480,"▁viviendo":6481,"▁pesa":6482,"▁....":6483,"▁nomás":6484,"▁:'":6485,"▁llora":6486,"▁mues":6487,"▁también.":6488,"▁reproducir":6489,"jajaj":6490,"▁teor":6491,"▁pelota":6492,"▁actitud":6493,"torial":6494,"▁cie":6495,"▁indica":6496,"▁funcionarios":6497,"mpl":6498,"▁mere":6499,"'.":6500,"ezco":6501,"▁emil":6502,"kin":6503,"▁helado":6504,"/2":6505,"vemos":6506,"▁rap":6507,"▁regreso":6508,"▁pasión":6509,"▁hola,":6510,"▁proteger":6511,"▁etapa":6512,"▁prac":6513,"ado,":6514,"▁medida":6515,"▁jap":6516,"▁jarras":6517,"▁escribe":6518,"▁clásico":6519,"ken":6520,"dores,":6521,"▁contenido":6522,"▁acaso":6523,"▁melhor":6524,"lina":6525,"▁caja":6526,"▁hayan":6527,"lados":6528,"▁sesión":6529,"▁pa'":6530,"digo":6531,"▁rusia":6532,"▁gordo":6533,"▁masaje":6534,"▁álbum":6535,"▁pez":6536,"▁entero":6537,"mmm":6538,"▁resca":6539,"▁chab":6540,"▁lás":6541,"▁rodrí":6542,"▁salido":6543,"mita":6544,"▁casual":6545,"▁sr":6546,"▁democrá":6547,"▁fiestas":6548,"▁perdí":6549,"▁partida":6550,"▁igualdad":6551,"▁senta":6552,"x.":6553,"▁alterna":6554,"▁rode":6555,"▁perse":6556,"45":6557,"▁obvia":6558,"▁abus":6559,"▁mej":6560,"▁coinci":6561,"▁económico":6562,"▁héro":6563,"▁can't":6564,"▁mana":6565,"▁iv":6566,"▁etique":6567,"tulos":6568,"ó.":6569,"▁encontré":6570,"▁you're":6571,"▁supre":6572,"tric":6573,"▁nadie,":6574,"▁locura":6575,"▁entregar":6576,"▁andan":6577,"▁irresponsab":6578,"▁proto":6579,"▁construcción":6580,"▁ponerme":6581,"▁\"yo":6582,"▁baloncesto":6583,"▁billete":6584,"▁john":6585,"▁care":6586,"▁pecho":6587,"▁hubier":6588,"▁tenían":6589,"▁usu":6590,"▁lóg":6591,"▁probar":6592,"▁adent":6593,"▁jubi":6594,"▁artista":6595,"▁incon":6596,"▁comunica":6597,"ella":6598,"▁sencil":6599,"▁envidia":6600,"▁jin":6601,"▁consejos":6602,"▁presencia":6603,"90":6604,"▁vez,":6605,"▁\"re":6606,"▁ilegal":6607,"▁rosario":6608,"▁ya,":6609,"▁osea":6610,"▁story":6611,"▁servi":6612,"▁ku":6613,"isimo":6614,"▁estres":6615,"▁pones":6616,"▁buscan":6617,"▁devuel":6618,"▁superior":6619,"▁arena":6620,"nas":6621,"▁diez":6622,"▁cuestión":6623,"▁saliendo":6624,"▁amor.":6625,"ado.":6626,"▁manifesta":6627,"▁bole":6628,"▁espalda":6629,"▁use":6630,"▁supuesto":6631,"▁vieron":6632,"▁conoci":6633,"▁confor":6634,"▁nadie.":6635,"▁stra":6636,"yen":6637,"▁tomo":6638,"▁hugo":6639,"▁compañero":6640,"▁gracias!":6641,"▁sea,":6642,"▁es.":6643,"▁tenéis":6644,"▁rodri":6645,"▁aver":6646,"▁inteligencia":6647,"▁corta":6648,"ccion":6649,"▁ver,":6650,"▁interpre":6651,"▁cf":6652,"▁ty":6653,"▁vivien":6654,"ced":6655,"lita":6656,"▁inteligente":6657,"-3":6658,"▁junta":6659,"▁negocios":6660,"▁larga":6661,"▁rompe":6662,"▁1000":6663,"zi":6664,"▁air":6665,"▁cabo":6666,"ipol":6667,"▁enamorada":6668,"iona":6669,"▁hechos":6670,"▁amistad":6671,"▁pensamiento":6672,"▁paraguay":6673,"▁equivoca":6674,"▁sobrevi":6675,"70":6676,"torno":6677,"ise":6678,"uido":6679,"▁mejor,":6680,"udes":6681,"▁unico":6682,"▁piñ":6683,"▁querida":6684,"▁roman":6685,"med":6686,"▁moder":6687,"ved":6688,"▁bern":6689,"▁dr.":6690,"▁ces":6691,"▁haría":6692,"▁cerdo":6693,"▁sabia":6694,"▁rar":6695,"any":6696,"▁claramente":6697,"▁mm":6698,"▁arras":6699,"▁adoles":6700,"▁legisla":6701,"uelas":6702,"▁things":6703,"▁two":6704,"▁diji":6705,"gas,":6706,"ñado":6707,"▁señores":6708,"▁juntas":6709,"ppen":6710,"▁tô":6711,"▁cena":6712,"ivo":6713,"▁recuerdos":6714,"▁periodismo":6715,"▁permite":6716,"▁hamb":6717,"▁intento":6718,"▁sitio":6719,"jito":6720,"▁conferencia":6721,"▁testi":6722,"▁favor.":6723,"dillo":6724,"▁someone":6725,"▁deuda":6726,"usti":6727,"▁something":6728,"▁more.":6729,"▁conjun":6730,"▁bicicle":6731,"▁junior":6732,"▁emba":6733,"▁و":6734,"▁restau":6735,"▁libres":6736,"▁300":6737,"jen":6738,"▁cool":6739,"▁bay":6740,"led":6741,"▁piern":6742,"▁santos":6743,"yyy":6744,"▁set":6745,"▁familiares":6746,"blos":6747,"▁año,":6748,"ross":6749,"▁\"f":6750,"▁iglesias":6751,"▁cle":6752,"▁refor":6753,"▁homenaje":6754,"ek":6755,"▁año.":6756,"zca":6757,"▁gasolina":6758,"doras":6759,"▁perra":6760,"▁tama":6761,"▁recon":6762,"▁py":6763,"▁instru":6764,"▁memes":6765,"▁republ":6766,"▁pendejos":6767,"▁policías":6768,"▁everyone":6769,"▁gane":6770,"▁delito":6771,"▁jack":6772,"▁propuesta":6773,"▁dream":6774,"cidio":6775,"▁bello":6776,"▁solidaridad":6777,"▁conec":6778,"▁2015":6779,"▁enviar":6780,"▁tremenda":6781,"▁invita":6782,"▁meme":6783,"jate":6784,"ei":6785,"▁judicial":6786,"aldo":6787,"▁propa":6788,"▁pacientes":6789,"▁king":6790,"▁expon":6791,"▁ellos.":6792,"▁infantil":6793,"ja,":6794,"▁alumnos":6795,"▁malos":6796,"iche":6797,"▁clos":6798,"▁nieve":6799,"▁iban":6800,"mio":6801,"▁firma":6802,"▁divi":6803,"ones,":6804,"lace":6805,"uña":6806,"▁yoongi":6807,"▁uñas":6808,"fon":6809,"▁thing":6810,"▁pagan":6811,"▁españoles":6812,"▁gratui":6813,"▁insu":6814,"tty":6815,"video":6816,"▁pata":6817,"zamos":6818,"▁javier":6819,"▁habl":6820,"▁dejamos":6821,"▁pasaron":6822,"▁aprue":6823,"grantes":6824,"▁recomiendo":6825,"▁invierno":6826,"▁asomb":6827,"▁colores":6828,"▁tranquila":6829,"▁departa":6830,"▁dime":6831,"▁acceso":6832,"▁herra":6833,"▁presos":6834,"▁box":6835,"▁orien":6836,"▁sana":6837,"▁decisiones":6838,"▁long":6839,"▁nena":6840,"▁acus":6841,"▁compañía":6842,"▁delincuentes":6843,"bara":6844,"▁pasada":6845,"▁asqueros":6846,"▁aí":6847,"▁diputado":6848,"▁ens":6849,"▁dynamite":6850,"▁¡el":6851,"▁imbé":6852,"▁ment":6853,"▁contri":6854,"▁plus":6855,"▁ridículo":6856,"▁podido":6857,"idente":6858,"▁iniciativa":6859,"▁blog":6860,"ife":6861,"▁ganan":6862,"ículos":6863,"▁emilio":6864,"cemos":6865,"▁tía":6866,"▁spotify":6867,"▁matan":6868,"tará":6869,"▁crush":6870,"▁alguno":6871,"▁cuch":6872,"▁materia":6873,"▁peligro":6874,"▁lucas":6875,"▁laboral":6876,"sa,":6877,"▁sosten":6878,"▁charla":6879,"▁pérez":6880,"▁elimina":6881,"▁provo":6882,"fore":6883,"▁gigan":6884,"28":6885,"▁punta":6886,"▁comparto":6887,"▁confina":6888,"tidos":6889,"▁aeropu":6890,"▁seguramente":6891,"\"?":6892,"▁tigre":6893,"▁quedado":6894,"ones.":6895,"▁maltra":6896,"jo,":6897,"▁idiota":6898,"▁batalla":6899,"▁reyes":6900,"▁support":6901,"▁gover":6902,"▁habia":6903,"▁importan":6904,"iere":6905,"km":6906,"▁juez":6907,"▁alemania":6908,"tar.":6909,"▁demostrar":6910,"▁dejes":6911,"▁são":6912,"▁estaremos":6913,"▁deportivo":6914,"▁publicidad":6915,"▁debido":6916,"▁deli":6917,"▁adic":6918,"▁dd":6919,"▁disney":6920,"▁veremos":6921,"▁coisa":6922,"▁album":6923,"udar":6924,"ante,":6925,"▁proce":6926,"hip":6927,"▁participación":6928,"▁habita":6929,"▁ésta":6930,"▁luchar":6931,"26":6932,"▁bull":6933,"▁ufff":6934,"rosa":6935,"27":6936,"▁formas":6937,"vs":6938,"▁gabri":6939,"red":6940,"▁seis":6941,"▁tiran":6942,"▁pedido":6943,"árez":6944,"olucion":6945,"▁\"o":6946,"▁many":6947,"▁exten":6948,"▁deter":6949,"▁planta":6950,"▁supongo":6951,"▁parecen":6952,"▁algo,":6953,"▁perdiendo":6954,"▁dominic":6955,"▁corazon":6956,"▁once":6957,"▁kir":6958,"mad":6959,"▁lados":6960,"▁técnico":6961,"▁sín":6962,"▁espectacular":6963,"▁apare":6964,"▁ques":6965,"▁coming":6966,"tar,":6967,"▁necesit":6968,"iciales":6969,"▁sad":6970,"▁wea":6971,"▁destino":6972,"▁guapo":6973,"▁crecer":6974,"▁bolson":6975,"▁alba":6976,"▁loren":6977,"▁saluda":6978,"▁pelea":6979,"▁magia":6980,"▁nariz":6981,"▁gilipol":6982,")..":6983,"▁taehy":6984,"▁cuadrado":6985,"▁ignorancia":6986,"▁diseño":6987,"▁podcas":6988,"▁estés":6989,"▁revolución":6990,"▁ceja":6991,"▁avión":6992,"▁habían":6993,"alth":6994,"▁concl":6995,"less":6996,"▁peti":6997,"▁usando":6998,"▁pour":6999,"eda":7000,"▁hipó":7001,"▁entienden":7002,"▁expos":7003,"▁activa":7004,"/7":7005,"▁viejos":7006,"▁tratando":7007,":3":7008,"▁playing":7009,"ración":7010,"▁enrique":7011,"▁finales":7012,"ball":7013,"▁comercial":7014,"▁consecuencias":7015,"ught":7016,"▁marido":7017,"▁exactamente":7018,"▁lazo":7019,"▁universo":7020,"▁american":7021,"▁medica":7022,"▁chá":7023,"mnas":7024,"▁hear":7025,"▁redu":7026,"▁lástima":7027,"▁guitar":7028,"▁ue":7029,"-.":7030,"pto":7031,"▁6.":7032,"ticular":7033,"▁piedra":7034,"▁st":7035,"▁hospitales":7036,"▁enser":7037,"▁aclar":7038,"▁ng":7039,"▁contac":7040,"án,":7041,"▁argentino":7042,"▁disponible!":7043,"▁suda":7044,"tiza":7045,"▁cayó":7046,"▁happen":7047,"quete":7048,"▁tranquilo":7049,"▁ultra":7050,"▁house":7051,"▁herramien":7052,"rael":7053,"▁escribiendo":7054,"pico":7055,"▁⠀":7056,"igna":7057,"▁cosas.":7058,"▁sé,":7059,"▁ocurre":7060,"▁melo":7061,"cks":7062,"▁¿al":7063,"▁orgullosa":7064,"▁transpar":7065,"▁desea":7066,"▁entro":7067,"▁queso":7068,"▁smi":7069,"▁facil":7070,"dona":7071,"ém":7072,"▁escena":7073,"▁formación":7074,"▁sensación":7075,"▁jajajajaj":7076,"▁públicos":7077,"▁recuperar":7078,"▁actua":7079,"▁errores":7080,"▁pudiera":7081,"timi":7082,"▁odia":7083,"om":7084,"▁friend":7085,"▁put":7086,"▁\"in":7087,"▁hahahaha":7088,"cá":7089,"isas":7090,"nera":7091,"dores.":7092,"▁hero":7093,"▁horror":7094,"▁identif":7095,"▁concurso":7096,"▁asamblea":7097,"▁disfra":7098,"cé":7099,"▁diálogo":7100,"▁pelu":7101,"▁president":7102,"▁sorpresa":7103,"hua":7104,"try":7105,"▁nam":7106,"▁rever":7107,"▁psicó":7108,"▁vuelven":7109,"chen":7110,"▁supues":7111,"las.":7112,"▁monte":7113,"▁libertadores":7114,"▁venezuela.":7115,"▁adió":7116,"▁pusieron":7117,"▁aure":7118,"▁peli":7119,"xo":7120,"ast":7121,"▁hey":7122,"▁desayun":7123,"▁atras":7124,"des,":7125,"▁musica":7126,"donos":7127,"▁botella":7128,"▁seres":7129,"▁it.":7130,"▁tome":7131,"▁colum":7132,"▁invent":7133,"▁chau":7134,"▁\"con":7135,"▁?.":7136,"mmy":7137,"▁cartel":7138,"▁(no":7139,"▁resumen":7140,"cuando":7141,"▁tribun":7142,"▁esperaba":7143,"▁competi":7144,"▁labu":7145,"▁inmedia":7146,"gulo":7147,"▁tendencia":7148,"gil":7149,"▁guapa":7150,"▁emplea":7151,"▁echo":7152,"▁defin":7153,"▁under":7154,"▁continua":7155,"▁guad":7156,"▁tatua":7157,"▁personajes":7158,"úl":7159,"▁primar":7160,"▁humana":7161,"▁rival":7162,"▁summer":7163,"▁inven":7164,"▁calder":7165,"▁verla":7166,"▁compa":7167,"▁harta":7168,"▁peores":7169,"▁quedé":7170,"▁baile":7171,"▁expul":7172,"▁mereces":7173,"pue":7174,"▁cadena":7175,"▁prime":7176,"▁dejando":7177,"▁mismas":7178,"opera":7179,"▁aumento":7180,"▁pobreza":7181,"▁prioridad":7182,"▁electr":7183,"▁pendiente":7184,"▁qué?":7185,"▁naturaleza":7186,"ald":7187,"▁barr":7188,"▁mexicanos":7189,"▁área":7190,"▁acho":7191,"uri":7192,"▁eras":7193,":0":7194,"▁aprende":7195,"▁rivera":7196,"▁util":7197,"▁¿es":7198,"▁abrazar":7199,"▁hard":7200,"▁2020.":7201,"▁hacerse":7202,"▁venezolano":7203,"▁sergio":7204,"ele":7205,"▁tão":7206,"▁later":7207,"▁daba":7208,"▁enfrentar":7209,"▁mañana,":7210,"▁reconocer":7211,"▁¡gracias":7212,"▁assim":7213,"▁felipe":7214,"▁atle":7215,"iss":7216,"▁experien":7217,"▁él.":7218,"▁fb":7219,"▁vídeos":7220,"▁hate":7221,"▁pá":7222,"▁tonto":7223,"▁urib":7224,"▁vos,":7225,"▁duermo":7226,"con_":7227,"▁gimnas":7228,"ciles":7229,"▁36":7230,"▁uwu":7231,"ezas":7232,"▁before":7233,"▁capaci":7234,"▁m.":7235,"▁olor":7236,"▁fraude":7237,"▁existir":7238,"pop":7239,"▁pers":7240,"▁tmb":7241,"▁decís":7242,"▁fm":7243,"▁muertes":7244,"▁compras":7245,"▁verdadera":7246,"▁actor":7247,"▁damos":7248,"▁sombrero":7249,"▁asesin":7250,"▁lidera":7251,"▁tera":7252,"▁\"i":7253,"▁acaban":7254,"vision":7255,"▁ey":7256,"▁gonna":7257,"▁tienda":7258,"▁pur":7259,"▁completamente":7260,"▁fit":7261,"ano,":7262,"▁inep":7263,"▁reve":7264,"▁goool":7265,"▁virgen":7266,"▁nal":7267,"fir":7268,"▁fumar":7269,"▁iphone":7270,"gr":7271,"▁manga":7272,"▁unido":7273,"▁diablo":7274,"▁puente":7275,"▁valores":7276,"...y":7277,"vida":7278,"▁met":7279,"▁taehyung":7280,"▁contagios":7281,"▁posición":7282,"▁corrupto":7283,"▁own":7284,"mbra":7285,"▁pit":7286,"▁coordina":7287,"▁generación":7288,"▁\"que":7289,"▁arranca":7290,"gers":7291,"▁pequeños":7292,"▁monó":7293,"ham":7294,"n.":7295,"▁alas":7296,"▁jen":7297,"taba":7298,"▁ill":7299,"▁drama":7300,"▁conme":7301,"▁episodio":7302,"▁dispos":7303,"▁gobiernos":7304,"▁chiqui":7305,"▁maca":7306,"▁dea":7307,"ja.":7308,"▁llamada":7309,"▁¡qué":7310,"▁tier":7311,"ões":7312,"▁descen":7313,"▁kill":7314,"v.":7315,"▁morning":7316,"ness":7317,"2,":7318,"ueve":7319,"▁dato":7320,"▁:3":7321,"▁imagín":7322,"▁miran":7323,"▁:/":7324,"▁oferta":7325,"▁sacan":7326,"▁vivimos":7327,"ali":7328,"▁turno":7329,"graph":7330,"imas":7331,"▁7.":7332,"▁informar":7333,"▁è":7334,"teras":7335,"▁mirada":7336,"▁amazon":7337,"ped":7338,"▁podrá":7339,"zy":7340,"▁sit":7341,"▁victor":7342,"▁retro":7343,"timo":7344,"▁cy":7345,"▁israel":7346,"▁pag":7347,"▁ora":7348,"▁mg":7349,"box":7350,"▁jose":7351,"▁bendiciones":7352,"▁figu":7353,"pir":7354,"▁retweet":7355,"▁oy":7356,"▁podrían":7357,"come":7358,"▁respuestas":7359,"▁federal":7360,"▁ine":7361,"▁perfecta":7362,"▁aristemo":7363,"tely":7364,"_a":7365,"▁ec":7366,"▁fues":7367,"▁tarjeta":7368,"▁razones":7369,"queta":7370,"▁terminó":7371,"dicion":7372,"▁remo":7373,"▁sufrir":7374,"▁papas":7375,"últi":7376,"▁dispar":7377,"▁everything":7378,"▁fli":7379,"▁andrés":7380,"▁gloria":7381,"▁num":7382,"▁privado":7383,"mpe":7384,"▁pantalla":7385,"▁velo":7386,"▁cuader":7387,"gías":7388,"▁days":7389,"▁lectura":7390,"▁tanto,":7391,"▁aviso":7392,"itarios":7393,"encial":7394,"▁jajs":7395,"▁bran":7396,"▁llegando":7397,"▁aper":7398,"▁trabajo.":7399,"▁bala":7400,"▁you.":7401,"▁sufri":7402,"▁frio":7403,"▁centros":7404,"▁temperatura":7405,"▁pasen":7406,"rias":7407,"▁lavar":7408,"clo":7409,"▁darme":7410,"fl":7411,"▁més":7412,"▁igual,":7413,"sa.":7414,"▁agradez":7415,"▁militares":7416,"tivo.":7417,"▁tara":7418,"▁sinceramente":7419,"▁ml":7420,"▁pico":7421,"▁hacerle":7422,"pool":7423,"gb":7424,"▁(s":7425,"▁gonzá":7426,"▁veía":7427,"▁listen":7428,"▁pero,":7429,"▁kim":7430,"▁dió":7431,"▁2,":7432,"ance":7433,"▁vez.":7434,"▁juventud":7435,"▁incor":7436,"ieve":7437,"▁199":7438,"ificar":7439,"):":7440,"▁vuelto":7441,"▁ejér":7442,"▁jjaja,":7443,"▁hijue":7444,"ik":7445,"▁constante":7446,"▁ب":7447,"▁carna":7448,"las,":7449,"▁brutal":7450,"fil":7451,"ñé":7452,"ano.":7453,"izando":7454,"▁mentir":7455,"▁comenzar":7456,"▁mix":7457,"▁ellos,":7458,"▁eval":7459,"▁recibe":7460,"▁mtvlafandom":7461,"▁audiencia":7462,"▁satis":7463,"▁últimamente":7464,"▁irse":7465,"▁deportiva":7466,"▁posibilidad":7467,"▁criticar":7468,"▁thats":7469,"▁historia.":7470,"▁discri":7471,"cela":7472,"▁uy":7473,"▁empec":7474,"▁descub":7475,"▁habil":7476,"▁gorda":7477,"as?":7478,"iados":7479,"miento.":7480,"▁pelotuda":7481,"▁aler":7482,"▁gobierno,":7483,"▁pop":7484,"▁sebas":7485,"▁cens":7486,"▁gym":7487,"▁ideal":7488,"ics":7489,"▁comprome":7490,"▁incomp":7491,"tage":7492,"▁nuevamente":7493,"play":7494,"▁maravilla":7495,"▁max":7496,"▁demuestra":7497,"ique":7498,"dible":7499,"▁ciclo":7500,"▁adap":7501,"▁ayunta":7502,"_con_":7503,"29":7504,"▁mencion":7505,"gether":7506,"aa,":7507,"▁ultimo":7508,"▁armas":7509,"▁bravo":7510,"▁reconocimiento":7511,"▁contrato":7512,"▁vz":7513,"▁quedarse":7514,"▁pollo":7515,"ágri":7516,"▁suelo":7517,"▁fox":7518,"▁mac":7519,"▁(+":7520,"▁mato":7521,"▁old":7522,"▁falso":7523,"▁ocho":7524,"▁gobierno.":7525,"▁voluntad":7526,"▁ficar":7527,"▁tos":7528,"▁reino":7529,"▁fuente":7530,"▁eso?":7531,"▁paul":7532,"▁¿se":7533,"▁registra":7534,"▁test":7535,"▁relaciones":7536,"▁putas":7537,"pr":7538,"tara":7539,"▁galle":7540,"▁rendir":7541,"▁estaré":7542,"▁mim":7543,"▁mexicano":7544,"▁oa":7545,"▁ii":7546,"kw":7547,"▁poten":7548,"pula":7549,"▁atender":7550,"▁mtvlaparejaj":7551,"iam":7552,"▁niñ":7553,"▁infier":7554,"él":7555,"▁particular":7556,"tienen":7557,"mus":7558,"▁emoción":7559,"▁eva":7560,"juliantina":7561,"madre":7562,"▁vergon":7563,"▁mtvlaparejajuliantina":7564,"▁ayyy":7565,"▁rol":7566,"▁parec":7567,"▁lágri":7568,"▁accidente":7569,"als":7570,"icando":7571,"▁ox":7572,"▁\"te":7573,"▁exc":7574,"▁vulnera":7575,"mino":7576,"▁aho":7577,"rt":7578,"▁nefas":7579,"uales":7580,"ísimas":7581,"▁fifa":7582,"▁mtvlafandomjuliantina":7583,"rey":7584,"▁giras":7585,"f.":7586,"▁todavia":7587,"igual":7588,"urar":7589,"▁polític":7590,"▁copas":7591,"▁amas":7592,"deces":7593,"▁mora":7594,"▁quar":7595,"ritu":7596,"▁darte":7597,"▁\"h":7598,"▁torre":7599,"▁personas,":7600,"cano":7601,"▁nervio":7602,"▁esposa":7603,"list":7604,"▁gustar":7605,"talidad":7606,":5":7607,"▁temporar":7608,"▁artes":7609,"▁destro":7610,"▁¿cuál":7611,"izada":7612,"▁sába":7613,"bras":7614,"▁bec":7615,"▁ilu":7616,"▁revista":7617,"bles.":7618,"cieron":7619,"▁guay":7620,"▁zor":7621,"▁bolas":7622,"cia.":7623,"▁\"¿":7624,"▁those":7625,"▁tot":7626,"▁¿de":7627,"▁gola":7628,"dell":7629,"lano":7630,"▁-.":7631,"▁españa.":7632,"▁él,":7633,"dencias":7634,"▁ate":7635,"▁enseñar":7636,"▁conflic":7637,"aj":7638,"▁hagamos":7639,"▁bols":7640,"▁sna":7641,"▁#1":7642,"plo":7643,"▁supone":7644,"▁ordenador":7645,"▁gracio":7646,"▁challen":7647,"▁tatu":7648,"▁cura":7649,"▁pibes":7650,"▁semana.":7651,"▁urge":7652,"fes":7653,"ito.":7654,"▁agarrar":7655,"▁alimentos":7656,"▁austral":7657,"▁wanna":7658,"▁domi":7659,"▁intera":7660,"▁encuesta":7661,"▁2019.":7662,"in.":7663,"▁programas":7664,"ling":7665,"▁leído":7666,"▁acusa":7667,"tion.":7668,"▁demostra":7669,"▁reca":7670,"▁atro":7671,"▁white":7672,"arlo":7673,"enda":7674,"▁madrid.":7675,"▁tech":7676,"▁rein":7677,"▁gue":7678,"▁conocimiento":7679,"án.":7680,"▁roba":7681,"▁hur":7682,"▁intereses":7683,"▁apos":7684,"tiz":7685,"cero":7686,"▁이":7687,"▁construir":7688,"▁escrib":7689,"cripción":7690,"ita,":7691,"mul":7692,"▁zur":7693,"▁desemp":7694,"▁miro":7695,"▁%":7696,"▁tér":7697,"▁olvido":7698,"▁financi":7699,"▁nombres":7700,"hyun":7701,"▁thro":7702,"▁transmi":7703,"kers":7704,"crí":7705,"▁family":7706,"▁latina":7707,"▁¡¡¡":7708,"▁letra":7709,"▁recuerden":7710,"▁comis":7711,"2017":7712,"▁mt":7713,"quez":7714,"▁castro":7715,"▁dela":7716,"▁cute":7717,"ario.":7718,"jó":7719,"▁violates":7720,"jo.":7721,"▁sospe":7722,"ani":7723,"▁amiga,":7724,"▁emocional":7725,"▁socio":7726,"▁spi":7727,"key":7728,"▁breve":7729,"▁women":7730,"▁wacho":7731,"▁salí":7732,"▁\"lo":7733,"▁ly":7734,"body":7735,"pris":7736,"▁し":7737,"illos":7738,"▁despertador":7739,"▁single":7740,"▁triunfo":7741,"▁vaina":7742,"▁another":7743,"▁cojones":7744,"▁guaid":7745,"dical":7746,"▁bienestar":7747,"▁directamente":7748,"▁hambur":7749,"culos":7750,"▁millón":7751,"fit":7752,"fr":7753,"▁caro":7754,"▁extrema":7755,"▁sacri":7756,"gica":7757,"▁inci":7758,"ezca":7759,"des.":7760,"▁compor":7761,"▁reserva":7762,"▁lindas":7763,"▁ts":7764,"▁alzada":7765,"▁difundir":7766,"▁avent":7767,"▁oportunidades":7768,"▁sorprende":7769,"▁tax":7770,"▁publicado":7771,"tado.":7772,"▁mexican":7773,"▁enserio":7774,"▁plataforma":7775,"▁sr.":7776,"▁pidió":7777,"▁preso":7778,"▁ny":7779,"cia,":7780,"▁né":7781,"▁mendo":7782,"▁policy.":7783,"▁sco":7784,"ctora":7785,"▁infierno":7786,"▁temporarily":7787,"▁manifes":7788,"▁evid":7789,"éndome":7790,"▁comentar":7791,"▁abrazos":7792,"▁pessoa":7793,"▁mich":7794,"pa.":7795,"▁que?":7796,"▁dejas":7797,"500":7798,"▁invitamos":7799,"▁arroz":7800,"orada":7801,"▁:((":7802,"▁mat":7803,"¡¡":7804,"▁convertir":7805,"▁unavailable":7806,"▁obviamente":7807,"▁independencia":7808,"▁fire":7809,"▁rodríguez":7810,"▁tendremos":7811,"▁aprendi":7812,"▁regalar":7813,"chner":7814,"▁comparte":7815,"▁rechazo":7816,"▁suje":7817,"▁eterno":7818,"▁división":7819,"▁venezuela,":7820,"temala":7821,"▁epi":7822,"gri":7823,"dría":7824,"▁に":7825,"▁aureola":7826,"▁ñ":7827,"▁quizá":7828,"▁aliment":7829,"▁:v":7830,"kas":7831,"▁respetar":7832,"in,":7833,"▁absur":7834,"▁seme":7835,"▁trato":7836,"▁novela":7837,"▁cnco":7838,"▁matri":7839,"tate":7840,"▁unfollowed":7841,"▁foo":7842,"▁insis":7843,"▁crecimiento":7844,"▁contex":7845,"▁usan":7846,"dable":7847,"iales":7848,"▁franco":7849,"▁ken":7850,"▁desn":7851,"▁ór":7852,"▁familia,":7853,"▁pea":7854,"▁¿ya":7855,"▁conocido":7856,"▁critica":7857,"33":7858,"▁personas.":7859,"▁doing":7860,"cui":7861,"▁estando":7862,"▁dead":7863,"▁conversación":7864,"▁droga":7865,"vip":7866,"mentación":7867,"▁desaf":7868,"▁inversión":7869,"▁asesino":7870,"▁latin":7871,"▁semestre":7872,"▁bat":7873,"▁menores":7874,"▁obs":7875,"▁bolude":7876,"▁generar":7877,"▁humo":7878,"▁amén":7879,"▁prevención":7880,"iel":7881,"milar":7882,"chada":7883,"▁libera":7884,"▁yea":7885,"▁japon":7886,"▁that's":7887,"lera":7888,"chool":7889,"▁fantasma":7890,"▁sentimientos":7891,"▁decir,":7892,"lon":7893,"▁(1":7894,"▁anci":7895,"▁escal":7896,"▁presidencial":7897,"▁también,":7898,"▁campeonato":7899,"▁zara":7900,"▁clientes":7901,"▁ningun":7902,"tivo,":7903,"▁itali":7904,"▁tap":7905,"▁eco":7906,"▁cristiano":7907,"▁sobra":7908,"▁cau":7909,"▁miercoles":7910,"▁persona,":7911,"▁aña":7912,"▁aguanto":7913,"▁presupuesto":7914,"▁industria":7915,"cord":7916,"▁ak":7917,"▁infer":7918,"viene":7919,"▁respira":7920,"▁together":7921,"▁constitucional":7922,"▁ode":7923,"▁guarda":7924,"mex":7925,"ports":7926,"▁temb":7927,"▁away":7928,"▁nación":7929,"▁quí":7930,"ary":7931,"cies":7932,"▁mamar":7933,"▁cuantas":7934,"miento,":7935,"/3":7936,"▁llevamos":7937,"▁oficina":7938,"bieron":7939,"▁girasol":7940,"▁labios":7941,"▁beat":7942,"▁\"un":7943,"▁olimp":7944,"▁hand":7945,"',":7946,"▁sabiendo":7947,"▁salud,":7948,"▁cafe":7949,"time":7950,"▁papi":7951,"-4":7952,"▁mtvlafandomjuliantinafans":7953,"▁trop":7954,"tud":7955,"▁transmisión":7956,"vando":7957,"▁health":7958,"▁física":7959,"▁previa":7960,"▁nba":7961,"▁rafael":7962,"▁colabora":7963,"▁leyes":7964,"▁cup":7965,"▁números":7966,"wh":7967,"▁which":7968,"▁vesti":7969,"▁sumar":7970,"tás":7971,"▁compre":7972,"▁artistas":7973,"▁guatemala":7974,"200":7975,"▁tok":7976,"▁locos":7977,"▁bicicleta":7978,"▁izquier":7979,"▁evan":7980,"▁foro":7981,"▁sanidad":7982,"(?":7983,"▁ministra":7984,"▁tuviera":7985,"▁liver":7986,"▁ilusión":7987,"▁producto":7988,"▁0.":7989,"far":7990,"▁mi.":7991,"ctima":7992,"▁boa":7993,"▁alqui":7994,"▁adentro":7995,"▁regla":7996,"▁tú,":7997,"viste":7998,"▁kids":7999,"▁enamorar":8000,"▁podrán":8001,"▁conejo":8002,"▁zu":8003,"▁10.":8004,"▁gent":8005,"▁sara":8006,"▁since":8007,"▁escrito":8008,"▁cuales":8009,"▁conoces":8010,"▁tay":8011,"guas":8012,"▁piernas":8013,"▁aburri":8014,"▁afecta":8015,"▁¿en":8016,"á,":8017,"▁partes":8018,"▁mover":8019,"▁farma":8020,"▁infra":8021,"▁costu":8022,"▁bolí":8023,"▁hacerte":8024,"▁protesta":8025,"▁line":8026,"▁pési":8027,"nor":8028,"cres":8029,"▁s.":8030,"▁arm":8031,"▁edificio":8032,"▁fuimos":8033,"▁tigres":8034,"▁nube":8035,"▁me.":8036,"▁caminar":8037,"▁chino":8038,"▁rema":8039,"▁youre":8040,"cher":8041,"▁esperemos":8042,"▁dir":8043,"▁primeras":8044,"▁mean":8045,"▁impresionante":8046,"▁imple":8047,"▁relacion":8048,"▁curr":8049,"tico.":8050,"▁humanidad":8051,"▁regional":8052,"▁organización":8053,"desa":8054,"▁manejo":8055,"▁méxico.":8056,"▁caracter":8057,"▁habéis":8058,"▁jan":8059,"▁ensa":8060,"▁nacional.":8061,"▁pér":8062,"▁hen":8063,"nia":8064,"▁monóculo":8065,"▁vete":8066,"▁moreno":8067,"▁nomina":8068,"▁tóx":8069,"▁pisto":8070,"▁deser":8071,"▁comercio":8072,"▁dueño":8073,"▁nervios":8074,"▁bic":8075,"▁birra":8076,"▁ella.":8077,"▁camion":8078,"▁pases":8079,"hael":8080,"?...":8081,"▁ído":8082,"mía":8083,"exual":8084,"▁aquí,":8085,"▁anime":8086,"▁palacio":8087,"¿¿":8088,"▁víctima":8089,"▁doming":8090,"▁conserva":8091,"▁inmun":8092,"▁tipos":8093,"▁soon":8094,"tiles":8095,"▁lider":8096,"▁porta":8097,"▁gif":8098,"tly":8099,"▁bene":8100,"▁55":8101,"▁agui":8102,"eada":8103,"▁alejandro":8104,"▁bolu":8105,"▁salvo":8106,"▁aja":8107,"▁ambien":8108,"▁pense":8109,"▁sede":8110,"▁dt":8111,"iness":8112,"▁pud":8113,"▁comunicado":8114,"▁pasos":8115,"▁acha":8116,"▁ranking":8117,"▁seamos":8118,"taste":8119,"▁check":8120,"gaste":8121,"fc":8122,"game":8123,"▁vacun":8124,"▁repos":8125,"▁enti":8126,"▁dark":8127,"▁histórico":8128,"sea":8129,"▁pay":8130,"▁enfo":8131,"▁encuentran":8132,"▁cus":8133,"▁mostrador":8134,"▁pep":8135,"▁busco":8136,"▁correcto":8137,"▁young":8138,"▁arreglar":8139,"▁comunista":8140,"▁shor":8141,"▁haci":8142,"▁forever":8143,"▁obses":8144,"▁marcel":8145,"▁piñera":8146,"▁matter":8147,"▁provoca":8148,"▁resu":8149,"ias,":8150,"▁podcast":8151,"▁decirte":8152,"▁remember":8153,"▁kirchner":8154,"▁maravilloso":8155,"nic":8156,"/o":8157,"final":8158,"▁méxico,":8159,"▁empresarios":8160,"▁actuar":8161,"▁33":8162,"▁vencer":8163,"▁wish":8164,"▁str":8165,"▁andalucía":8166,"▁delante":8167,"▁8.":8168,"▁controlar":8169,"▁gradu":8170,"▁pica":8171,"quien":8172,"▁chat":8173,"▁retras":8174,"▁carmen":8175,"▁ney":8176,"▁miembros":8177,"bon":8178,"▁alu":8179,"ías,":8180,"???.":8181,"▁martínez":8182,"▁lindos":8183,"▁vayas":8184,"▁espacios":8185,"tiva.":8186,"▁frases":8187,"porque":8188,"▁198":8189,"▁veracru":8190,"▁find":8191,"▁pilo":8192,"quiere":8193,"▁hahahahaha":8194,"ibilidad":8195,"▁estreno":8196,"▁pinches":8197,"▁además,":8198,"▁season":8199,"ioso":8200,"▁atlé":8201,"▁dios.":8202,"▁aguantar":8203,"dias":8204,"monos":8205,"▁dri":8206,"▁quise":8207,"▁negar":8208,"▁puertas":8209,"▁tun":8210,"▁logro":8211,"▁conocen":8212,"▁cobra":8213,"tell":8214,"▁nicolás":8215,"▁pac":8216,"▁dire":8217,"▁beneficio":8218,"mora":8219,"▁sentí":8220,"▁falsa":8221,"▁adiós":8222,"▁podéis":8223,"▁alien":8224,"▁alegra":8225,"▁james":8226,"▁noch":8227,"encia.":8228,"íz":8229,"▁mandan":8230,"▁regresar":8231,"morrow":8232,"▁competencia":8233,"▁arrep":8234,"▁beber":8235,"▁cortar":8236,"mart":8237,"▁esto?":8238,"▁ready":8239,"▁tikto":8240,"▁coopera":8241,"▁self":8242,"▁intentando":8243,"▁ella,":8244,"▁parcial":8245,"▁caminando":8246,"▁estru":8247,"▁convir":8248,"boy":8249,"/a":8250,"▁boludo":8251,"▁familia.":8252,"▁gestion":8253,"▁boluda":8254,"▁ia":8255,"▁adivin":8256,"▁contestar":8257,"▁instituciones":8258,"titos":8259,"▁copi":8260,"▁carita":8261,"▁levante":8262,"capacidad":8263,"▁hecha":8264,"fec":8265,"▁formar":8266,"▁debut":8267,"▁delicio":8268,"▁soñar":8269,"▁primo":8270,"icos,":8271,"▁denunciar":8272,"ables":8273,"l,":8274,"▁estudios":8275,"▁gano":8276,"▁while":8277,"hout":8278,"encia,":8279,"▁empat":8280,"▁bendiga":8281,"▁momento,":8282,"▁entendí":8283,"▁castillo":8284,"teriores":8285,"▁tq":8286,"▁empe":8287,"▁posted":8288,"▁letras":8289,"gamos":8290,"iano":8291,"ordin":8292,"▁agradezco":8293,"▁bloqueo":8294,"▁hamburgues":8295,"g,":8296,"jal":8297,"▁mire":8298,"▁mañana.":8299,"▁toman":8300,"▁march":8301,"▁indigna":8302,"▁日":8303,"▁sebasti":8304,"▁ah,":8305,"▁cohe":8306,"▁bui":8307,"▁date":8308,"▁geor":8309,"ficos":8310,"cas,":8311,"▁empiez":8312,"▁muriendo":8313,"▁alarma":8314,"▁monter":8315,"▁dá":8316,"▁columna":8317,"▁venden":8318,"▁ciel":8319,"▁ponerse":8320,"fal":8321,"▁cliente":8322,"▁legen":8323,"▁hipócri":8324,"▁alianza":8325,"▁oso":8326,"▁\"mi":8327,"▁liverpool":8328,"▁empezamos":8329,"▁colaboración":8330,"...no":8331,"▁efecto":8332,"▁concre":8333,"▁blue":8334,"▁espí":8335,"▁juegan":8336,"▁bolsonaro":8337,"▁audi":8338,"▁2014":8339,"▁residen":8340,"▁mejora":8341,"▁gastar":8342,"▁xddd":8343,"▁ricos":8344,"ksks":8345,"▁fracaso":8346,"▁choice":8347,"▁commun":8348,"▁||":8349,"▁correo":8350,"▁soul":8351,"▁geno":8352,"▁pueblos":8353,"adas":8354,"▁resolver":8355,"▁gatos":8356,"▁compu":8357,"▁milan":8358,"tado,":8359,"▁despi":8360,"▁apple":8361,"▁arqui":8362,"▁fala":8363,"▁máxima":8364,"▁prove":8365,"later":8366,"▁sm":8367,"▁argentinos":8368,"▁persona.":8369,"▁princesa":8370,"▁propó":8371,"1,":8372,"▁actos":8373,"▁wel":8374,"▁lma":8375,"▁indí":8376,"▁oper":8377,"▁month":8378,"▁bolivar":8379,"▁plane":8380,"▁raya":8381,"▁patrio":8382,"▁motor":8383,"▁fuertes":8384,"▁descanso":8385,"tame":8386,"▁archi":8387,"jud":8388,"▁tomorrow":8389,"▁sonre":8390,"▁hallow":8391,"▁cuaderno":8392,"▁portada":8393,"▁xx":8394,"▁ricar":8395,"▁mood":8396,"▁concer":8397,"▁sty":8398,"▁masco":8399,"▁beneficios":8400,"▁álvar":8401,"neces":8402,"/20":8403,"▁inseguridad":8404,"real":8405,"▁americ":8406,"▁frun":8407,"▁nothing":8408,"▁inútil":8409,"▁semana,":8410,"▁mande":8411,"▁tenis":8412,"▁chávez":8413,"▁vuestra":8414,"▁alrededor":8415,"yu":8416,"▁empiezo":8417,"▁quejar":8418,"▁promes":8419,"▁aeropuerto":8420,"▁change":8421,"▁ramos":8422,"▁yourself":8423,"mix":8424,"▁head":8425,"▁espi":8426,"▁tempo":8427,"▁intro":8428,"▁ejército":8429,"▁rut":8430,"▁vecino":8431,"view":8432,"▁siete":8433,"▁negocia":8434,"▁lives":8435,"▁mind":8436,"▁¡bu":8437,"frica":8438,"▁dad":8439,"▁despierta":8440,"▁empu":8441,"▁llamo":8442,"▁ray":8443,"▁poe":8444,"▁bs":8445,"▁cover":8446,"wor":8447,"derecha":8448,"▁aument":8449,"▁propuestas":8450,"ve.":8451,"▁creí":8452,"▁estrés":8453,"▁lets":8454,"▁sigues":8455,"▁ddhh":8456,"▁ee.":8457,"▁jardín":8458,"entemente":8459,"▁fuese":8460,"▁avance":8461,"▁podés":8462,"▁ahora.":8463,"▁permiso":8464,"▁pato":8465,"▁estra":8466,"tico,":8467,"▁sienten":8468,"▁salgan":8469,"ario,":8470,"▁chur":8471,"▁ahí,":8472,"tana":8473,"▁escuelas":8474,"▁group":8475,"▁andro":8476,"lido":8477,"▁españa,":8478,"▁defiende":8479,"▁pass":8480,"▁wonder":8481,"jara":8482,"▁estupidez":8483,"▁queriendo":8484,"▁apoyando":8485,"▁cabron":8486,"lit":8487,"▁parecido":8488,"▁rei":8489,"▁lorenzo":8490,"cho,":8491,"▁líderes":8492,"pa,":8493,"▁madre,":8494,"pping":8495,"quieres":8496,"▁escor":8497,"▁fundamental":8498,"▁coronavirus.":8499,"▁school":8500,"▁lil":8501,"▁\"p":8502,"▁क":8503,"▁llegaron":8504,"▁alla":8505,"▁quemar":8506,"▁ciudadano":8507,"▁subs":8508,"▁rique":8509,"▁estad":8510,"▁despre":8511,"zón":8512,"▁tocó":8513,"▁fondos":8514,"▁data":8515,"▁00":8516,"▁ambas":8517,"▁servir":8518,"▁tuvieron":8519,"▁autoridad":8520,"▁jueces":8521,"▁getting":8522,"▁megá":8523,"▁aisla":8524,"ng":8525,"▁nova":8526,"▁salieron":8527,"▁racing":8528,"▁abuso":8529,"▁chance":8530,"▁continuar":8531,"▁experi":8532,"▁expli":8533,"▁artic":8534,"▁descri":8535,"clar":8536,"▁terra":8537,"arnos":8538,"▁subi":8539,"▁secretario":8540,"▁rd":8541,"▁pensado":8542,"▁jajajajajajaja":8543,"▁román":8544,"▁trabajan":8545,"▁departamento":8546,"venil":8547,"▁biblio":8548,"_19":8549,"▁camila":8550,"▁ritmo":8551,"teles":8552,"▁(que":8553,"▁ceño":8554,"▁colectivo":8555,"▁alegro":8556,"ché":8557,"▁aplicar":8558,"▁crítica":8559,"▁arrancar":8560,"▁¡mu":8561,"▁abro":8562,"▁hea":8563,"▁megáfono":8564,"entes.":8565,"▁stic":8566,"á.":8567,"▁ajus":8568,"▁gabriel":8569,"cau":8570,"jitos":8571,"aan":8572,"▁medicina":8573,"abo":8574,"-s":8575,"didas":8576,"▁guys":8577,"▁igual.":8578,"▁madrugada":8579,"▁barbar":8580,"▁respir":8581,"▁cortes":8582,"fra":8583,"▁caen":8584,"▁jode":8585,"tamiento":8586,"▁ganando":8587,"▁evolución":8588,"▁respec":8589,"▁true":8590,"▁eliminar":8591,"amos":8592,"▁sexy":8593,"ifi":8594,"▁ayudas":8595,"▁sinver":8596,"▁clín":8597,"▁pau":8598,"▁noche,":8599,"nie":8600,"íamos":8601,"▁perfor":8602,"unya":8603,"▁broma":8604,"▁nan":8605,"▁cans":8606,"▁similar":8607,"▁cerra":8608,"▁milit":8609,"▁socor":8610,"▁halloween":8611,"▁bús":8612,"▁decían":8613,"▁papás":8614,"uco":8615,"▁escenario":8616,"▁amazing":8617,"▁impe":8618,"▁falla":8619,"▁final.":8620,"▁break":8621,"bb":8622,"▁vil":8623,"▁amenaza":8624,"▁volví":8625,"▁ghvip":8626,"▁engan":8627,"▁mantiene":8628,"▁mí,":8629,"▁tou":8630,"▁extraordin":8631,"▁lot":8632,"▁adoro":8633,"minis":8634,"▁sanitario":8635,"▁madrid,":8636,"dimos":8637,"gena":8638,"▁acabó":8639,"▁razon":8640,"▁consumo":8641,"rie":8642,"rillo":8643,"▁brazos":8644,"▁torres":8645,"▁maripos":8646,"hd":8647,"▁rich":8648,"▁elección":8649,"▁ganador":8650,"▁jjaja.":8651,"▁cristo":8652,"▁\"al":8653,"▁banca":8654,"▁vestido":8655,"▁desen":8656,"▁arrepen":8657,"▁granada":8658,"▁zoo":8659,"▁_":8660,"▁vaso":8661,"▁bangtan":8662,"▁cumplen":8663,"▁convocatoria":8664,"▁sure":8665,"▁regala":8666,"▁enlace":8667,"uestas":8668,"▁secreto":8669,"▁actú":8670,"▁policia":8671,"▁qe":8672,"▁japonés":8673,"n,":8674,"▁apertura":8675,"▁momento.":8676,"▁perrito":8677,"jante":8678,"▁miami":8679,"gara":8680,"▁kan":8681,"pado":8682,"▁porfavor":8683,"▁cit":8684,"▁mori":8685,"▁chef":8686,"▁gasto":8687,"▁lima":8688,"guar":8689,"▁yall":8690,"ios,":8691,"▁mames":8692,"▁aprovecha":8693,"▁alcanza":8694,"oor":8695,"▁dj":8696,"emb":8697,"▁pasaba":8698,"thers":8699,"va,":8700,"▁dile":8701,"pora":8702,"▁llevó":8703,"▁pieza":8704,"▁acre":8705,"tendo":8706,"▁regular":8707,"▁covid_19":8708,"▁9.":8709,"▁inspira":8710,"▁cour":8711,"▁bolívar":8712,"▁guardar":8713,"▁exist":8714,"▁bitch":8715,"quía":8716,"ritos":8717,"▁ofrece":8718,"▁avisa":8719,"▁quedaron":8720,"▁thread":8721,"▁amanecer":8722,"▁von":8723,"▁enfren":8724,"▁matando":8725,"▁cataluña":8726,"▁borrar":8727,"▁quedarme":8728,"▁aprox":8729,"▁trián":8730,"ão,":8731,"▁quiso":8732,"▁dormí":8733,"▁3,":8734,"▁metros":8735,"▁compartimos":8736,"▁tio":8737,"itat":8738,"tain":8739,"▁nice":8740,"orio":8741,"▁empol":8742,"▁administración":8743,"ments":8744,"▁conex":8745,"▁huellas":8746,"cados":8747,"jajajaj":8748,"▁excusa":8749,"▁ps4":8750,"side":8751,"▁impon":8752,"direc":8753,"▁jesus":8754,"▁bueno.":8755,"▁through":8756,"▁depresión":8757,"▁disc":8758,"▁amores":8759,"cés":8760,"▁apelli":8761,"▁fora":8762,"▁ina":8763,"▁soledad":8764,"▁passa":8765,"▁vendo":8766,"▁firme":8767,"gico":8768,"▁vueltas":8769,"▁distra":8770,"▁empecé":8771,"▁utilizar":8772,"▁:.":8773,"!\"":8774,"▁challenge":8775,"▁onu":8776,"▁lady":8777,"com":8778,"bando":8779,"▁perre":8780,"hot":8781,"deras":8782,"▁tic":8783,"▁\"ma":8784,"▁class":8785,"▁aprovechar":8786,"cilla":8787,"▁demues":8788,"▁oaxa":8789,"▁importar":8790,"▁estáis":8791,"▁memori":8792,"▁llevas":8793,"▁ponte":8794,"entes,":8795,"▁➡":8796,"▁entrenador":8797,"dados":8798,"▁gü":8799,"▁haré":8800,"▁lleve":8801,"▁bye":8802,"▁michael":8803,"▁¡feliz":8804,"▁vuestro":8805,"▁paciente":8806,"▁infancia":8807,"▁culpable":8808,"vy":8809,"▁impro":8810,"▁dou":8811,"▁código":8812,"▁corazón.":8813,"▁zonas":8814,"▁en:":8815,"▁asal":8816,"▁paral":8817,"▁mascarillas":8818,"ene":8819,"▁preguntan":8820,"▁jorna":8821,"migos":8822,"▁04":8823,"▁imbe":8824,"bó":8825,"icos.":8826,"guiendo":8827,"▁url.":8828,"▁sentimiento":8829,"▁uber":8830,"▁baila":8831,"▁hicimos":8832,"▁vue":8833,"▁xa":8834,"tiva,":8835,"▁aux":8836,"dicional":8837,"▁ayuntamiento":8838,"▁misión":8839,"▁eas":8840,"mitas":8841,"ensa":8842,"▁nunca.":8843,"▁historia,":8844,"▁cerro":8845,"▁águi":8846,"▁anos":8847,"▁differ":8848,"▁puedas":8849,"▁responsables":8850,"▁rumbo":8851,"▁plo":8852,"lóg":8853,"ino.":8854,"▁justin":8855,"▁quedas":8856,"▁popul":8857,"▁limpieza":8858,"▁incendio":8859,"▁guaidó":8860,"▁¡que":8861,"guenza":8862,"quín":8863,"▁callar":8864,"▁impacto":8865,"▁unir":8866,"▁juvenil":8867,"▁triángulo":8868,"▁prox":8869,"▁trabal":8870,"▁cómpl":8871,"wo":8872,"▁costumbre":8873,"▁flu":8874,"▁child":8875,"plica":8876,"▁tt":8877,"▁hacer.":8878,"▁tuits":8879,"▁d.":8880,"▁--":8881,"dillas":8882,"▁kor":8883,"75":8884,"▁financia":8885,"▁dijiste":8886,"▁(19":8887,"▁okay":8888,"toso":8889,"▁pls":8890,"bien":8891,"▁empiezan":8892,"uesto":8893,"▁salimos":8894,"metro":8895,"▁exitos":8896,"▁inscri":8897,"▁playlist":8898,"▁amigui":8899,"hasta":8900,"▁civi":8901,"▁observa":8902,"▁levanto":8903,"?¿":8904,"▁orgulloso":8905,"▁ff":8906,"▁hues":8907,"▁cm":8908,"▁carr":8909,"▁sch":8910,"▁escuche":8911,"▁desperté":8912,"▁partido.":8913,"▁pelotudos":8914,"▁despierto":8915,"▁recibi":8916,"▁renta":8917,"▁evo":8918,"▁switch":8919,"▁algo.":8920,"▁fing":8921,"▁salario":8922,"visa":8923,"▁mutual":8924,"▁silla":8925,"▁bienvenido":8926,"▁enemigo":8927,"▁terren":8928,"▁pris":8929,"▁wall":8930,"▁feliz.":8931,"yor":8932,"▁propios":8933,"▁asombrada":8934,"▁bis":8935,"▁york":8936,"▁alguém":8937,"comun":8938,"▁transfor":8939,"▁aveces":8940,"3,":8941,"▁\"the":8942,"▁caras":8943,"tancias":8944,"iros":8945,"tha":8946,"▁fueran":8947,"▁novo":8948,"▁laura":8949,"ita.":8950,"▁modi":8951,"▁nel":8952,"fortun":8953,"▁menos.":8954,"▁hala":8955,"sp":8956,"▁congra":8957,"▁deportes":8958,"▁pueblo.":8959,"▁fos":8960,"▁without":8961,"▁preocupada":8962,"ário":8963,"cturas":8964,"▁cuentan":8965,"▁sirven":8966,"▁ax":8967,"▁cierra":8968,"▁start":8969,"américa":8970,"rones":8971,"▁encantan":8972,"▁perdona":8973,"▁eterna":8974,"▁ayudan":8975,"▁fico":8976,"▁android":8977,"▁putos":8978,"▁carnaval":8979,"▁atacar":8980,"▁proud":8981,"ady":8982,"▁comenta":8983,"▁water":8984,"ta?":8985,"▁imbécil":8986,"ned":8987,"gem":8988,"▁porra":8989,"▁empollón":8990,"▁autoesti":8991,"▁times":8992,"quista":8993,"▁esla":8994,"▁empezando":8995,"▁decidir":8996,"▁nació":8997,"▁namjo":8998,"ulos":8999,"▁done":9000,"▁try":9001,"tim":9002,"▁entreten":9003,"▁feliz,":9004,"▁difici":9005,"trui":9006,"▁united":9007,"▁actualización":9008,"▁abuelo":9009,"▁gráfica":9010,"▁influen":9011,"▁eventos":9012,"▁documental":9013,"▁natal":9014,"live":9015,"ertos":9016,"▁presidencia":9017,"▁ajena":9018,"ladas":9019,"▁lado,":9020,"ónico":9021,"▁olvides":9022,"▁taylor":9023,"dea":9024,"▁dictador":9025,"▁yaaa":9026,"▁merda":9027,"▁excus":9028,"▁artist":9029,"▁estado.":9030,"▁stal":9031,"▁lujo":9032,"▁queja":9033,"▁orte":9034,"▁chel":9035,"▁roberto":9036,"▁believe":9037,"ricul":9038,"▁gla":9039,"▁instituto":9040,"▁sle":9041,"its":9042,"▁depo":9043,"▁medell":9044,"uto":9045,"ino,":9046,"▁(en":9047,"▁oí":9048,"▁madre.":9049,"▁nct":9050,"undar":9051,"rla":9052,"▁\"las":9053,"▁soñé":9054,"temos":9055,"oro":9056,"así":9057,"▁jugue":9058,"▁い":9059,"▁gustavo":9060,"▁neymar":9061,"▁rebel":9062,"▁hinchas":9063,"▁honduras":9064,"▁catalan":9065,"▁secu":9066,"▁cigar":9067,"▁crimen":9068,"▁ciudades":9069,"▁comienzo":9070,"▁adecu":9071,"▁rabia":9072,"micas":9073,"izan":9074,"▁talk":9075,"▁hubieran":9076,"▁coco":9077,"▁400":9078,"▁caball":9079,"▁aaaa":9080,"▁revolucion":9081,"▁kind":9082,"▁humedad":9083,"44":9084,"▁precioso":9085,"▁rub":9086,"sible":9087,"▁espíritu":9088,"onso":9089,"▁territorio":9090,"▁sentar":9091,"▁brasile":9092,"▁abogado":9093,"▁comenzó":9094,"▁obri":9095,"ías.":9096,"▁portugal":9097,"▁e.":9098,"▁esquina":9099,"▁gonzález":9100,"cidas":9101,"▁aa":9102,"▁confiar":9103,"laciones":9104,"▁menos,":9105,"indo":9106,"▁fin,":9107,"reas":9108,"▁figura":9109,"▁antic":9110,"▁traje":9111,"▁candidatos":9112,"tismo":9113,"▁valiente":9114,"▁prisión":9115,"▁verdad?":9116,"▁urb":9117,"▁ball":9118,"▁twitch":9119,"▁escla":9120,"▁tráfico":9121,"▁sigamos":9122,"va.":9123,"▁genio":9124,"▁tendrán":9125,"▁deu":9126,"▁deca":9127,"pink":9128,"▁necesitaba":9129,"▁reba":9130,"▁intervención":9131,"!?":9132,"kkk":9133,"▁convo":9134,"▁contribu":9135,"▁asustada":9136,"▁torta":9137,"ural":9138,"vide":9139,"▁pastel":9140,"bles,":9141,"▁tern":9142,"grá":9143,"sss":9144,"▁campeones":9145,"▁quema":9146,"▁ingreso":9147,"▁block":9148,"▁despa":9149,"▁queen":9150,"▁el.":9151,"▁\"e":9152,"▁asegura":9153,"▁relig":9154,"▁impunidad":9155,"▁empleados":9156,"▁alcanzar":9157,"▁chinga":9158,"vol":9159,"▁abiertas":9160,"▁deberías":9161,"...a":9162,"▁vicepres":9163,"▁meet":9164,"▁conocí":9165,"▁ganamos":9166,"▁jsjsjs":9167,"▁fé":9168,"▁paz.":9169,"tria":9170,"▁enseñ":9171,"dale":9172,"▁pego":9173,"▁viajes":9174,"▁luci":9175,"▁core":9176,"▁cifras":9177,"citos":9178,"▁llegada":9179,"▁registro":9180,"▁paté":9181,"▁razón,":9182,"ética":9183,"es?":9184,"▁explicación":9185,"▁horas.":9186,"▁name":9187,"▁benefici":9188,"sidades":9189,"▁cross":9190,"▁bañar":9191,"▁cuban":9192,"lio":9193,"▁naz":9194,"▁verás":9195,"▁urban":9196,"▁ini":9197,"▁presidenta":9198,"▁poes":9199,"▁preocup":9200,"▁escuchado":9201,"vada":9202,"▁podrás":9203,"▁you,":9204,"▁mála":9205,"▁estudiando":9206,"oo,":9207,"▁against":9208,"▁sky":9209,"▁around":9210,"▁catalunya":9211,"▁puestos":9212,"▁atlético":9213,"▁sam":9214,"▁manz":9215,"▁crista":9216,"▁costo":9217,"▁estarán":9218,"▁fica":9219,"▁ricardo":9220,"▁estou":9221,"í,":9222,"▁asesinos":9223,"▁destruir":9224,"▁barra":9225,"▁¿quieres":9226,"jita":9227,"tias":9228,"▁privada":9229,"▁streaming":9230,"▁portá":9231,"▁espn":9232,"ione":9233,"ın":9234,"▁sound":9235,"▁light":9236,"▁tempor":9237,"▁adri":9238,"▁dieta":9239,"▁flamen":9240,"▁salud.":9241,"▁hil":9242,"▁fechas":9243,"▁guitarra":9244,"▁tarde,":9245,"▁jamas":9246,"jeje":9247,"imiento":9248,"48":9249,"▁contando":9250,"▁pack":9251,"dada":9252,"▁join":9253,"pio":9254,"▁compré":9255,"▁wi":9256,"▁arries":9257,"▁investigar":9258,"▁resuel":9259,"ason":9260,"▁viz":9261,"▁jajajajajajajajajaja":9262,"▁existencia":9263,"mín":9264,"dónde":9265,"▁faltar":9266,"▁interro":9267,"tte":9268,"▁bff":9269,"▁sorte":9270,"▁must":9271,"▁agricul":9272,"▁animo":9273,"▁atien":9274,"▁latest":9275,"▁tranquilidad":9276,"▁credi":9277,"▁inaugura":9278,"▁ira":9279,"▁wr":9280,"▁defendiendo":9281,"▁lobo":9282,"zaron":9283,"▁subo":9284,"ência":9285,"▁sientes":9286,"▁traicion":9287,"mes,":9288,"tl":9289,"éndole":9290,"▁ver.":9291,"▁huele":9292,"35":9293,"▁igualmente":9294,"▁tirando":9295,"▁pese":9296,"▁trendy":9297,"▁opciones":9298,"▁eslabón":9299,"▁xfa":9300,"▁drogas":9301,"▁argentina.":9302,"▁cohete":9303,"der.":9304,"ou":9305,"▁regu":9306,"micos":9307,"▁propósito":9308,"▁visión":9309,"▁gritar":9310,"▁dl":9311,"▁implica":9312,"▁uc":9313,"▁mr":9314,"▁no...":9315,"▁mark":9316,"▁hablen":9317,"▁robaron":9318,"▁quito":9319,"▁preparado":9320,"▁cicl":9321,"▁quie":9322,"▁consigo":9323,"▁pared":9324,"▁mueve":9325,"▁limpiar":9326,"ulas":9327,"▁fuji":9328,"▁estación":9329,"tano":9330,"▁looks":9331,"bd":9332,"cho.":9333,"▁reir":9334,"▁agarra":9335,"▁24/7":9336,"▁comes":9337,"gera":9338,"▁declaraciones":9339,"fs":9340,"▁llegué":9341,"▁entrenar":9342,"▁convers":9343,"▁garant":9344,"duca":9345,"down":9346,"▁manejar":9347,"▁olvide":9348,"▁amigos.":9349,"▁pasas":9350,"▁bot":9351,"▁aquí:":9352,"▁integra":9353,"▁iron":9354,"▁profesores":9355,"▁hacer,":9356,"▁necesaria":9357,"istes":9358,"sivo":9359,"▁solos":9360,"▁barbi":9361,"▁garantizar":9362,"▁vaquero":9363,"▁camara":9364,"-20":9365,"▁secon":9366,"▁tradu":9367,"fici":9368,"▁plu":9369,"▁send":9370,"▁io":9371,"▁ᅠ":9372,"▁mtvlaic":9373,"ith":9374,".00":9375,"▁probablemente":9376,"▁artif":9377,"▁sii":9378,"▁envia":9379,"▁desear":9380,"▁debajo":9381,"▁dará":9382,"▁pich":9383,"▁embaja":9384,"▁final,":9385,"▁cerrada":9386,"▁で":9387,"estamos":9388,"▁calma":9389,"▁cuen":9390,"▁48":9391,"65":9392,"▁estafa":9393,"▁logo":9394,"▁conjunto":9395,"▁revi":9396,"us.":9397,"▁viral":9398,"▁!!!.":9399,"▁aconte":9400,"▁pilar":9401,"▁operación":9402,"▁continúa":9403,"zgo":9404,"47":9405,"▁fen":9406,"▁ahí.":9407,"▁evidencia":9408,"▁aprendí":9409,"▁listos":9410,"▁tava":9411,"▁famoso":9412,"▁caída":9413,"▁usuarios":9414,"ota":9415,"vado":9416,"cos,":9417,"▁horarios":9418,"▁saquen":9419,"▁respeta":9420,"▁identidad":9421,"gos,":9422,"▁barba":9423,"▁demon":9424,"▁scre":9425,"yec":9426,"▁nintendo":9427,"▁daily":9428,"▁tomas":9429,"▁sy":9430,"▁ss":9431,"??.":9432,"▁resistencia":9433,"▁coher":9434,"▁ofer":9435,"▁censura":9436,"▁semb":9437,"▁mujer,":9438,"▁fiscalía":9439,"▁aplicación":9440,"▁pasamos":9441,"▁contamos":9442,"▁mui":9443,"▁dudo":9444,"▁vidal":9445,"▁paz,":9446,"▁disfrutando":9447,"▁mafia":9448,"▁blin":9449,"▁32":9450,"▁tratamiento":9451,"▁destin":9452,"▁nosotros.":9453,"▁ingles":9454,"hon":9455,"▁depri":9456,"▁histórica":9457,"▁:c":9458,"decer":9459,"▁marcar":9460,"___":9461,"▁veces,":9462,"▁violen":9463,"▁diplo":9464,"nos.":9465,"▁hermosas":9466,"▁faltó":9467,"▁hela":9468,"▁recomien":9469,"▁preparando":9470,"▁función":9471,"▁divers":9472,"▁cagada":9473,"▁pueblo,":9474,"▁ech":9475,"▁ecua":9476,"▁noche.":9477,"▁opinion":9478,"▁propagan":9479,"▁escolar":9480,"▁tribu":9481,"ctur":9482,"▁chingo":9483,"▁tendré":9484,"▁desayuno":9485,"▁porno":9486,"▁seré":9487,"▁save":9488,"▁sindica":9489,"▁texto":9490,"▁amen":9491,"▁miserable":9492,"▁levantarme":9493,"▁]":9494,"▁gonzalo":9495,"▁enjoy":9496,"▁cocinar":9497,"▁girls":9498,"bitro":9499,"▁joaquin":9500,"▁salsa":9501,"▁place":9502,"▁duran":9503,"asa":9504,"▁tulip":9505,"arial":9506,"▁fruncido":9507,"▁estabas":9508,"▁portátil":9509,"▁amo,":9510,"▁autón":9511,"▁piña":9512,"▁lp":9513,"▁betis":9514,"▁demais":9515,"▁concepto":9516,"▁casti":9517,"▁enamorado":9518,"uk":9519,"▁vos.":9520,"▁cató":9521,"dón":9522,"t:":9523,"▁dejé":9524,"uevo":9525,"▁cuántos":9526,"▁status":9527,"dalo":9528,"▁equipo.":9529,"▁jugó":9530,"▁autóno":9531,"▁llegamos":9532,"▁aquí.":9533,"▁\"ca":9534,"▁argumentos":9535,"▁velocidad":9536,"▁amo.":9537,"▁daría":9538,"ios.":9539,"▁mínima":9540,"▁ole":9541,"▁traged":9542,"▁gros":9543,"▁anuncio":9544,"▁ema":9545,"▁practic":9546,"▁imaginan":9547,"mites":9548,"olas":9549,"▁compañera":9550,"▁contemp":9551,"▁grand":9552,"▁tortu":9553,"bis":9554,"sta":9555,"▁ruido":9556,"▁muchísimas":9557,"ionar":9558,"▁plás":9559,"▁¿cuán":9560,"éramos":9561,"yeron":9562,"▁raza":9563,"quitos":9564,"▁próximos":9565,"▁golazo":9566,"ame":9567,"▁socorro":9568,"▁ofrecer":9569,"▁seguirá":9570,"▁ladrones":9571,"▁mascul":9572,"amer":9573,"▁combina":9574,"▁tempran":9575,"▁cuenta.":9576,"▁agradece":9577,"▁tulipán":9578,"▁corri":9579,"▁sc":9580,"▁satisfa":9581,"▁38":9582,"▁asociación":9583,"▁bea":9584,"hing":9585,"▁plazo":9586,"itos.":9587,"▁argumento":9588,"▁armar":9589,"but":9590,"▁pelear":9591,"▁intención":9592,"▁jajajajajaj":9593,"diste":9594,"▁corea":9595,"▁acce":9596,"▁looking":9597,"▁quedamos":9598,"temp":9599,"▁espejo":9600,"▁crédito":9601,"te?":9602,"dad.":9603,"▁me:":9604,"▁maquilla":9605,"▁pretty":9606,"▁detalle":9607,"▁social.":9608,"▁money":9609,"▁solucion":9610,"to?":9611,"ísticas":9612,"▁pelotas":9613,"▁actualidad":9614,"▁separ":9615,"▁feeling":9616,"▁macr":9617,"zadas":9618,"▁triple":9619,"▁indic":9620,"je,":9621,"ros,":9622,"▁altos":9623,"▁34":9624,"▁exigir":9625,"▁però":9626,"▁ن":9627,"▁iguales":9628,"▁socialismo":9629,"▁mai":9630,"▁\"per":9631,"▁spain":9632,"▁tetas":9633,"▁vais":9634,"▁already":9635,"▁domicil":9636,"▁docente":9637,"▁convierte":9638,"to!":9639,"iosa":9640,"▁socios":9641,"▁retiro":9642,"▁encantaría":9643,"▁aix":9644,"▁km/":9645,"cris":9646,"▁metas":9647,"▁darse":9648,"▁í":9649,"▁dialo":9650,"▁principales":9651,"▁corazón,":9652,"▁pacto":9653,"▁cuchillo":9654,"lis":9655,"▁nis":9656,"▁subiendo":9657,"▁ende":9658,"▁wri":9659,"cadas":9660,"▁cruel":9661,"▁mulher":9662,"▁terminan":9663,"▁state":9664,"▁imagínate":9665,"▁park":9666,"▁origen":9667,"▁demonio":9668,"▁sn":9669,"▁apretón":9670,"liga":9671,"▁ignorante":9672,"▁\"pro":9673,"▁falar":9674,"▁twitter,":9675,"▁motivos":9676,"▁europea":9677,"▁guy":9678,"▁perspec":9679,"▁fall":9680,"▁meus":9681,"▁pagando":9682,"▁seguido":9683,"▁expertos":9684,"▁mir":9685,"▁lata":9686,"▁voces":9687,"▁inmen":9688,"▁gris":9689,"▁estado,":9690,"▁luchando":9691,"ño,":9692,"▁cacer":9693,"▁homo":9694,"▁adultos":9695,"//":9696,"▁recibió":9697,"▁insopor":9698,"▁locu":9699,"▁duerme":9700,"▁golp":9701,"ched":9702,"▁habitantes":9703,"▁descubre":9704,"lite":9705,"▁enfermo":9706,"▁let's":9707,"▁vé":9708,"▁diosss":9709,"▁190":9710,"▁bienvenida":9711,"▁elimin":9712,"▁nace":9713,"▁exces":9714,"▁salio":9715,"▁cancer":9716,"▁twitter.":9717,"▁^":9718,"▁making":9719,"tern":9720,"▁academia":9721,"▁propiedad":9722,"▁japón":9723,"▁depois":9724,"▁09":9725,"▁ayú":9726,"▁carol":9727,"▁neur":9728,"▁75":9729,"aca":9730,"▁naaa":9731,"▁horas,":9732,"▁demanda":9733,"▁públicas":9734,"tanos":9735,"▁sv":9736,"▁mapa":9737,"▁sectores":9738,"▁físico":9739,"▁(de":9740,"▁frí":9741,"ties":9742,"dad,":9743,"▁govern":9744,"▁pelos":9745,"ática":9746,"▁dientes":9747,"gaz":9748,"▁lamentablemente":9749,"ils":9750,"▁paseo":9751,"▁claro.":9752,"▁metió":9753,"▁exterior":9754,"▁comunistas":9755,"▁tribunal":9756,"▁primavera":9757,",,,":9758,"▁vine":9759,"▁navar":9760,"▁hr":9761,"▁andas":9762,"▁licencia":9763,"▁sencillo":9764,"▁nacional,":9765,"▁ventana":9766,"▁presidente,":9767,"ción!":9768,"▁suárez":9769,"▁ze":9770,"▁ft":9771,"▁desarrolla":9772,"▁increible":9773,"▁hair":9774,"▁circun":9775,"ditas":9776,"rarse":9777,"▁añ":9778,"▁áfrica":9779,"▁festejar":9780,"▁caral":9781,"▁sacó":9782,"▁secues":9783,"▁espectá":9784,"▁domingos":9785,"▁2000":9786,"▁caso,":9787,"▁fich":9788,"▁makes":9789,"▁aquella":9790,"▁death":9791,"elle":9792,"▁aprobar":9793,"rilla":9794,"▁suici":9795,"▁gel":9796,"▁¡ya":9797,"▁feminismo":9798,"ismos":9799,"▁confes":9800,"ence":9801,"▁fernet":9802,"▁enferma":9803,"▁estuviera":9804,"drán":9805,"▁femenino":9806,"▁decide":9807,"▁acomo":9808,"▁ser,":9809,"▁embargo":9810,"▁nacionales":9811,"▁biden":9812,"▁cantante":9813,"▁150":9814,"▁olvidado":9815,"▁juliantina":9816,"▁namjoon":9817,"▁jarra":9818,"▁justificar":9819,"▁pt":9820,"▁exá":9821,"▁veracruz":9822,"▁altas":9823,"▁bonitas":9824,"▁mã":9825,"▁díaz":9826,"dame":9827,"방탄":9828,"▁busque":9829,"hacia":9830,"▁grito":9831,"▁sport":9832,"▁agente":9833,"▁colombiano":9834,"▁situaciones":9835,"▁muñ":9836,"▁cuello":9837,"▁senador":9838,"▁sl":9839,"▁ee.uu":9840,"vias":9841,"▁facu":9842,"▁llenar":9843,"▁special":9844,"▁blackpink":9845,"wl":9846,"▁caballo":9847,"▁rr":9848,"▁preocupar":9849,"▁vem":9850,"▁bob":9851,"▁equipara":9852,"tal.":9853,"▁sentirme":9854,"▁reacción":9855,"▁asesor":9856,"▁demás.":9857,"▁batal":9858,"▁levanta":9859,"board":9860,"ars":9861,"▁vuelo":9862,"▁rick":9863,"▁publicación":9864,"▁jugada":9865,"▁(2":9866,"▁patrimonio":9867,"▁mediante":9868,"▁plas":9869,"▁verme":9870,"érate":9871,"▁fundación":9872,"▁barbara":9873,"▁góme":9874,"▁reser":9875,"))":9876,"▁colombianos":9877,"▁ptm":9878,"▁agro":9879,"yon":9880,"▁1-":9881,"ficar":9882,"áles":9883,"▁merecemos":9884,"▁parlante":9885,"▁pn":9886,"▁museo":9887,"▁pací":9888,"dedores":9889,"▁fijo":9890,"▁uh":9891,"▁ciudadanía":9892,"inking":9893,"▁dormido":9894,"cena":9895,"▁mirá":9896,"▁hernández":9897,"▁amamos":9898,"hã":9899,"▁locales":9900,"▁comparti":9901,"▁cé":9902,"▁asistencia":9903,"▁unica":9904,"bilidades":9905,"tente":9906,"▁camión":9907,"▁acadé":9908,"anza":9909,"▁dormir,":9910,"▁anteriores":9911,"▁perfectamente":9912,"jón":9913,"▁asesinato":9914,"▁aquello":9915,"eña":9916,"▁autoestima":9917,"▁especialmente":9918,"▁mendoza":9919,"▁ask":9920,"re.":9921,"ez,":9922,"▁digno":9923,"titas":9924,"dl":9925,"▁flaco":9926,"▁australia":9927,"▁ridic":9928,"▁mexicana":9929,"amor":9930,"o!":9931,"▁astu":9932,"▁leal":9933,"▁ajaja":9934,"▁mens":9935,"▁migra":9936,"▁votaron":9937,"tela":9938,"▁sonido":9939,"idade":9940,"verde":9941,"▁feminista":9942,"▁ponerle":9943,"▁sepan":9944,"46":9945,"▁bebés":9946,"▁aguas":9947,"▁social,":9948,"▁travel":9949,"▁mtvlafando":9950,"▁gracioso":9951,"▁internacionales":9952,"cc":9953,"▁estudiante":9954,"▁volviendo":9955,"▁ky":9956,"▁hermosos":9957,"turales":9958,"▁alguien,":9959,"▁santan":9960,"▁i've":9961,"▁imaginar":9962,"▁ser.":9963,"/2020":9964,"▁meloco":9965,"hat":9966,"▁clan":9967,"▁fila":9968,"38":9969,"▁detec":9970,"▁devolver":9971,"▁respues":9972,"▁pedimos":9973,"orable":9974,"s!":9975,"▁official":9976,"▁poke":9977,"▁lau":9978,"▁actually":9979,"dom":9980,"▁guía":9981,"▁soluciones":9982,"▁cubre":9983,"▁flow":9984,"▁50%":9985,"▁uff":9986,"▁george":9987,"▁morales":9988,"▁revolo":9989,"▁miente":9990,"alajara":9991,"imp":9992,"▁yang":9993,"▁decimos":9994,"▁sínto":9995,"▁crean":9996,"▁bc":9997,"▁nosotros,":9998,"'a":9999,"triz":10000,"▁cambiado":10001,"▁fines":10002,"andez":10003,"▁hib":10004,"oliber":10005,"▁icon":10006,"▁caiga":10007,"éisbol":10008,"w.":10009,"▁¡s":10010,"▁pollito":10011,"▁cagan":10012,"▁rena":10013,"▁suben":10014,"▁hes":10015,"▁categoría":10016,"▁pib":10017,"ciando":10018,"▁pero...":10019,"▁salón":10020,"▁decreto":10021,"▁pistola":10022,"▁maestra":10023,"▁consigue":10024,"▁pandemia.":10025,"▁lágrimas":10026,"▁delitos":10027,"▁mariposa":10028,"liar":10029,"ing,":10030,"▁paran":10031,"▁ida":10032,"▁squ":10033,"/4":10034,"▁report":10035,"ter.":10036,"ístico":10037,"▁frances":10038,"taro":10039,"▁estábamos":10040,"▁abandona":10041,"▁chavista":10042,"▁béisbol":10043,"▁ach":10044,"▁contexto":10045,"▁\"des":10046,"▁uns":10047,"▁isabel":10048,"▁cuanta":10049,"▁restauran":10050,"▁pentagra":10051,"▁juntar":10052,"hah":10053,"▁espan":10054,"▁cansado":10055,"▁damn":10056,"▁búsque":10057,"▁pira":10058,"▁otor":10059,"▁¡es":10060,"ático":10061,"▁verguenza":10062,"▁coma":10063,"ñal":10064,"▁oigan":10065,"▁nah":10066,"iori":10067,"▁obrador":10068,"▁delant":10069,"nos,":10070,"▁se,":10071,"▁hierba":10072,"▁tia":10073,"▁cargar":10074,"▁reflexión":10075,"▁muuu":10076,"win":10077,"▁roban":10078,"▁ratito":10079,"▁pí":10080,"▁remix":10081,"re,":10082,"▁mtvlaicono":10083,"▁semejante":10084,"▁meten":10085,"gencias":10086,"▁caos":10087,"▁circo":10088,"fen":10089,"▁soltar":10090,"▁derech":10091,"▁smart":10092,"▁gargan":10093,"▁amig":10094,"▁vdd":10095,"▁partido,":10096,"▁teoría":10097,"▁guaya":10098,"▁pentagrama":10099,"▁revoloteando":10100,"casa":10101,"▁atleti":10102,"▁milagro":10103,"▁subió":10104,"▁recibido":10105,"▁🗣":10106,"giendo":10107,"▁tucu":10108,"▁sigui":10109,"▁sanitaria":10110,"▁menudo":10111,"▁expecta":10112,"▁stand":10113,"▁confinamiento":10114,"▁acuerdan":10115,"▁¿o":10116,"▁cuí":10117,"▁comunidades":10118,"▁faci":10119,"▁country":10120,"pin":10121,"▁\"y":10122,"▁comeback":10123,"▁saludos.":10124,"▁jud":10125,"estru":10126,"▁favorite":10127,"tuvo":10128,"▁presidente.":10129,"ras,":10130,"▁dels":10131,"▁¿me":10132,"▁cosa.":10133,"▁imaginas":10134,"tadora":10135,"▁octa":10136,"▁nuevo,":10137,"ya,":10138,"▁precisamente":10139,"▁bancar":10140,"▁suyo":10141,"▁olimpia":10142,"▁\"pa":10143,"▁hibisco":10144,"teria":10145,"te!":10146,"▁maybe":10147,"tat":10148,"▁hrs":10149,"▁melocotón":10150,"▁poco,":10151,"▁aplau":10152,"▁sev":10153,"▁urugua":10154,"▁trying":10155,"▁capitán":10156,"-a":10157,"▁sales":10158,"▁vzla":10159,"▁trabajador":10160,"▁maravillosa":10161,"▁finalmente":10162,"▁parlament":10163,"▁afirma":10164,"tou":10165,"▁gilipollas":10166,"▁chill":10167,"▁trán":10168,"▁éxitos":10169,"je.":10170,"kf":10171,"ència":10172,"▁únicos":10173,"▁bomberos":10174,"▁both":10175,"very":10176,"▁derrota":10177,"▁exhi":10178,"▁indis":10179,"▁hj":10180,"37":10181,"▁capaces":10182,"jas,":10183,"▁shar":10184,"▁movilidad":10185,"▁sentencia":10186,"▁labora":10187,"poche":10188,"▁lado.":10189,"vó":10190,"▁gp":10191,"▁digo,":10192,"tula":10193,"▁\"por":10194,"▁sleep":10195,"▁protestas":10196,"▁pastor":10197,"cámara":10198,"ábamos":10199,"▁bona":10200,"▁h.":10201,"▁paquete":10202,"▁lxs":10203,"▁positivos":10204,"▁book":10205,"gias":10206,"army":10207,"pers":10208,"▁desaparecer":10209,"▁virtu":10210,"▁sd":10211,"itos,":10212,"▁premier":10213,"▁roma":10214,"ológico":10215,"▁acorde":10216,"▁descargar":10217,"▁mmmm":10218,"▁moon":10219,"▁ideología":10220,"▁ramo":10221,"ándote":10222,"▁carabin":10223,"▁dog":10224,"▁eles":10225,"▁maestros":10226,"▁donald":10227,"▁¿dónde":10228,"▁recomendaciones":10229,"úcar":10230,"▁principios":10231,"▁bah":10232,"osos":10233,"iores":10234,"소년":10235,"▁rompió":10236,"cipa":10237,"iones,":10238,"cas.":10239,"▁dina":10240,"▁caribe":10241,"▁dep":10242,"▁molt":10243,"▁\".":10244,"▁encontrado":10245,"▁friday":10246,"▁nada...":10247,"▁norma":10248,"▁such":10249,"▁compla":10250,"▁(con":10251,"▁cientos":10252,"▁chabon":10253,"▁limón":10254,"aa.":10255,"▁proj":10256,"▁trailer":10257,"▁olviden":10258,"▁inclusi":10259,"ya.":10260,"▁tiktok":10261,"▁nunca,":10262,"▁ت":10263,"▁sacaron":10264,"▁contagio":10265,"▁ratas":10266,"▁solar":10267,"▁técnica":10268,"ili":10269,"▁empana":10270,"▁volvemos":10271,"▁gallina":10272,"▁ayer,":10273,"▁prometo":10274,"▁dificil":10275,"▁nossa":10276,"▁enseñan":10277,"▁grup":10278,"▁rt.":10279,"▁colonia":10280,"sey":10281,"▁complicado":10282,"▁record":10283,"▁vivienda":10284,"pe,":10285,"uli":10286,"▁enferme":10287,"▁metal":10288,"▁male":10289,"▁cuarentena.":10290,"▁marvel":10291,"▁habló":10292,"▁avanza":10293,"▁beren":10294,"▁venía":10295,"▁cuarta":10296,"▁descansar":10297,"▁camar":10298,"▁hura":10299,"▁enoja":10300,"▁aburrido":10301,"▁ademas":10302,"ingü":10303,"▁y...":10304,"▁miser":10305,"▁design":10306,"▁divertido":10307,"▁sono":10308,"rón":10309,"▁197":10310,"▁maneja":10311,"▁récord":10312,"▁mano,":10313,"ologia":10314,"logos":10315,"▁hablemos":10316,"▁whats":10317,"▁dance":10318,"▁veas":10319,".\".":10320,"▁socialista":10321,";.":10322,"▁food":10323,"▁day.":10324,"▁circu":10325,"▁ک":10326,"▁lora":10327,"▁cancion":10328,"pica":10329,"ve,":10330,"▁sentirse":10331,"entando":10332,"▁confirmar":10333,"▁guadalajara":10334,"ada,":10335,"aar":10336,"▁frontera":10337,"▁quiero,":10338,"nar":10339,"▁tron":10340,"▁ça":10341,"▁pendientes":10342,"▁ingenier":10343,"▁tortura":10344,"▁reales":10345,"▁tuy":10346,"▁pasará":10347,"▁dominicana":10348,"gest":10349,"▁mas,":10350,"소년단":10351,"▁villar":10352,"▁refuer":10353,"▁sienta":10354,"▁amplia":10355,"siva":10356,"torias":10357,"▁vehículo":10358,"ward":10359,"▁recuperación":10360,"▁usur":10361,"▁¡te":10362,"▁woman":10363,"▁otro.":10364,"▁pierdo":10365,"x,":10366,"▁recien":10367,"▁gustaba":10368,"▁nuevo.":10369,"▁nene":10370,"▁sucede":10371,"▁serio,":10372,"mén":10373,"▁tonight":10374,"▁imagine":10375,"ções":10376,"▁version":10377,"▁guaido":10378,"▁invers":10379,"▁prefier":10380,"▁cosa,":10381,"zu":10382,"▁tuvimos":10383,"quil":10384,"▁macho":10385,"▁parecía":10386,"▁jiji":10387,"polit":10388,"▁supermer":10389,"▁med":10390,"▁cagando":10391,"▁during":10392,"▁o.":10393,"▁¡en":10394,"▁perdida":10395,"▁pista":10396,"ony":10397,"▁mañan":10398,"▁likes":10399,"ter,":10400,"▁días!":10401,"▁maraca":10402,"▁exci":10403,"▁tengamos":10404,"▁llegará":10405,"▁jajajajajajajaja":10406,"la_":10407,"▁baek":10408,"▁cb":10409,"방탄소년단":10410,"▁reaccion":10411,"▁coach":10412,"▁califor":10413,"▁clubes":10414,"▁lgb":10415,"▁descuento":10416,"▁doña":10417,"▁note":10418,"▁paco":10419,"hit":10420,"ienta":10421,"▁audios":10422,"vé":10423,"dian":10424,"damente":10425,"cam":10426,"f,":10427,"▁requiere":10428,"▁agua,":10429,"▁toler":10430,"isima":10431,"▁(si":10432,"▁kara":10433,"us,":10434,"▁jajsjs":10435,"▁carretera":10436,"▁día!":10437,"▁veni":10438,"▁reda":10439,"▁invitar":10440,"▁afición":10441,"-)":10442,"vió":10443,"▁grado":10444,"▁repente":10445,"▁produce":10446,"49":10447,"brado":10448,"▁requis":10449,"▁madri":10450,"▁promoción":10451,"▁1-0":10452,"▁vigil":10453,"▁envío":10454,"▁avenida":10455,"▁assis":10456,"ño.":10457,"▁razón.":10458,"▁galicia":10459,"▁títulos":10460,"▁¿alguien":10461,"▁hombre,":10462,"▁sali":10463,"▁puesta":10464,"▁shi":10465,"tade":10466,"▁crema":10467,"▁vibra":10468,"36":10469,"jajs":10470,"▁sweet":10471,"xd":10472,"▁tomen":10473,"hal":10474,"nite":10475,"▁maur":10476,"▁exposición":10477,"▁sant":10478,"▁zarago":10479,"ros.":10480,"▁kkkk":10481,"quiero":10482,"muy":10483,"▁piensas":10484,"▁aparecer":10485,"mes.":10486,"▁involu":10487,"▁pierden":10488,"▁dueños":10489,"cha,":10490,"_hacia":10491,"▁cés":10492,"peda":10493,"▁metido":10494,"▁neoliber":10495,"▁kilos":10496,"▁patro":10497,"▁detenido":10498,"▁descubrir":10499,"▁delincuente":10500,"▁vs.":10501,"▁rostro":10502,"▁estudia":10503,"▁compos":10504,"as...":10505,"▁promedio":10506,"▁plato":10507,"▁tarde.":10508,"▁mone":10509,"▁jurí":10510,"▁bien?":10511,"▁padr":10512,"'ll":10513,"▁detes":10514,"▁vizcar":10515,"tencias":10516,"▁mandó":10517,"▁dragon":10518,"▁persi":10519,"▁homi":10520,"▁barran":10521,"▁captura":10522,"▁bende":10523,"▁campa":10524,"▁inspi":10525,"▁impar":10526,"▁disculpa":10527,"ed.":10528,"▁secundar":10529,"▁querían":10530,"▁intenta":10531,"▁comunicar":10532,"asi":10533,"▁jour":10534,"▁coron":10535,"▁federa":10536,"▁institucional":10537,"▁having":10538,"▁eduardo":10539,"▁laburo":10540,"▁decirme":10541,"iones.":10542,"▁mentiroso":10543,"calley":10544,"▁videocámara":10545,"▁cuenta,":10546,"▁brown":10547,"▁india":10548,"▁destina":10549,"▁until":10550,"▁stories":10551,"ction":10552,"▁37":10553,"▁escán":10554,"▁cursos":10555,"▁entrenamiento":10556,"ándolo":10557,"▁anything":10558,"▁claudia":10559,"▁fotograf":10560,"...!!!":10561,"▁caigo":10562,"ism":10563,"▁pilas":10564,"▁cansan":10565,"▁empo":10566,"▁gras":10567,"▁tomado":10568,"▁を":10569,"▁poco.":10570,"▁pasé":10571,"aría":10572,"▁enamora":10573,"▁ea":10574,"▁monterrey":10575,"▁gata":10576,"rich":10577,"▁obtener":10578,"▁b.":10579,"▁jefa":10580,"▁ocurrió":10581,"▁pereza":10582,"▁が":10583,"arios,":10584,"▁chama":10585,"▁dificul":10586,"▁peligros":10587,"▁barrios":10588,"▁independent":10589,"▁primaria":10590,"unes":10591,"▁terminé":10592,"▁whole":10593,"▁llevando":10594,"▁sincer":10595,"▁tumb":10596,"▁mí.":10597,"▁declaración":10598,"▁incons":10599,"▁though":10600,"▁inmo":10601,"▁brazo":10602,"▁boys":10603,"▁rueda":10604,"usos":10605,"▁movie":10606,"ibo":10607,"mela":10608,"to...":10609,"▁mtvlaiconocalley":10610,"▁uno,":10611,"▁uno.":10612,"▁terapia":10613,"▁nov":10614,"gela":10615,"▁fallecidos":10616,"▁regresa":10617,"máticas":10618,"▁c'":10619,"▁games":10620,"▁quejan":10621,"no,":10622,"hion":10623,"▁ful":10624,"▁misa":10625,"▁rara":10626,"▁cat":10627,"vistas":10628,"▁discutir":10629,"ada.":10630,"▁combatir":10631,"▁institución":10632,"▁equipo,":10633,"▁cobran":10634,"ta!":10635,"▁extrañaba":10636,"▁reprodu":10637,"tades":10638,"▁liv":10639,"▁hoy?":10640,"diar":10641,"▁politi":10642,"▁left":10643,"▁defensor":10644,"▁j.":10645,"▁efectos":10646,"top":10647,"jame":10648,"▁unders":10649,"▁cercan":10650,"▁gráfico":10651,"▁valora":10652,"▁gigante":10653,"▁marcos":10654,"▁seguiremos":10655,"chito":10656,"▁chaval":10657,"muer":10658,"▁enfermer":10659,"▁i'll":10660,"▁entorno":10661,"▁gota":10662,"▁unifor":10663,"▁terminado":10664,"▁cuarentena,":10665,"▁reporte":10666,"▁pudieron":10667,"▁xi":10668,"▁jugamos":10669,"chado":10670,"▁:p":10671,"▁docentes":10672,"▁lac":10673,"▁boda":10674,"▁realidad.":10675,"▁says":10676,"▁sangu":10677,"▁escribo":10678,"foro":10679,"▁colocar":10680,"mante":10681,"▁maric":10682,"▁boletos":10683,"▁revisar":10684,"▁pedí":10685,"▁avec":10686,"talo":10687,"▁consumi":10688,"dur":10689,"?\".":10690,"▁ocasión":10691,"▁misterio":10692,"▁filoso":10693,"▁rm":10694,"▁de...":10695,"▁conviene":10696,"▁confia":10697,"▁inmi":10698,"quillo":10699,"▁huev":10700,"▁hecho,":10701,"▁logró":10702,"▁autén":10703,"▁reducir":10704,"iao":10705,"▁amigo.":10706,"▁covid-19.":10707,"no.":10708,"▁opinar":10709,"▁porquer":10710,"der,":10711,"▁biz":10712,"▁vuelvan":10713,"▁autos":10714,"▁discip":10715,"yente":10716,"▁otro,":10717,"▁muerta":10718,"▁welcome":10719,"estoy":10720,"▁sentía":10721,"▁llueve":10722,"▁colombia.":10723,"▁experiencias":10724,"▁borre":10725,"▁vocês":10726,"▁tonta":10727,"dw":10728,"▁terroristas":10729,"▁cause":10730,"▁manzana":10731,"▁deseos":10732,"▁\"ha":10733,"bios":10734,"▁sanchez":10735,"▁tormenta":10736,"mericana":10737,"▁joaquín":10738,"▁personalidad":10739,"▁scar":10740,"▁algu":10741,"▁ash":10742,"▁om":10743,"▁pasado,":10744,"▁lean":10745,"▁creación":10746,"blan":10747,"▁porte":10748,"▁grabar":10749,"▁cara,":10750,"▁limpia":10751,"▁todos!":10752,"▁irán":10753,"▁atropel":10754,"fiel":10755,"▁policial":10756,"jon":10757,"deros":10758,"▁manu":10759,"▁mimos":10760,"▁bocadillo":10761,"▁veter":10762,"▁mas.":10763,"▁asado":10764,"▁ater":10765,"▁grande.":10766,"▁podamos":10767,"iten":10768,"▁thought":10769,"▁montaña":10770,"habil":10771,"▁---":10772,"▁bayern":10773,"▁table":10774,"▁diaria":10775,"▁ي":10776,"▁senado":10777,"▁que...":10778,"▁também":10779,"▁comunismo":10780,"es..":10781,"▁murcia":10782,"▁harán":10783,"▁contigo.":10784,"▁pague":10785,"▁ponemos":10786,"▁sense":10787,"▁así?":10788,"▁circuns":10789,"▁explos":10790,"▁monstru":10791,"més":10792,"▁actuación":10793,"dería":10794,"▁dun":10795,"▁grande,":10796,"9,":10797,"▁cabeza.":10798,"▁equipa":10799,"!,":10800,"▁sla":10801,"as..":10802,"▁inglater":10803,"▁chich":10804,"▁triunf":10805,"trans":10806,"ion.":10807,"▁casualidad":10808,"▁cobarde":10809,"▁cambian":10810,"▁conexión":10811,"▁geo":10812,"▁organizado":10813,"▁firmar":10814,"▁alo":10815,"▁serás":10816,"ume":10817,"4,":10818,"▁bei":10819,"▁quedando":10820,"▁nacer":10821,"▁inex":10822,"▁tene":10823,"▁enough":10824,"▁irá":10825,"▁flaca":10826,"▁move":10827,"▁barri":10828,"▁sai":10829,"bada":10830,"▁flechas":10831,"▁dismin":10832,"▁comand":10833,"vales":10834,"▁y/o":10835,"▁¡la":10836,"▁distintos":10837,"▁discapacidad":10838,"▁hell":10839,"telo":10840,"▁compañer":10841,"▁impo":10842,"▁cry":10843,"▁gustas":10844,"▁sacado":10845,"▁ive":10846,"▁más...":10847,"▁discusión":10848,"▁tú.":10849,"▁case":10850,"▁málaga":10851,"izó":10852,"って":10853,"▁righ":10854,"▁snap":10855,"▁eee":10856,"▁llamas":10857,"▁opiniones":10858,"pita":10859,"▁joe":10860,"▁afortun":10861,"▁integral":10862,"▁águila":10863,"▁estatal":10864,"idi":10865,"▁rega":10866,"▁enseña":10867,"▁lanzamiento":10868,"▁photos":10869,"▁antes,":10870,"▁arquite":10871,"▁necesidades":10872,"▁sigueme":10873,"▁galax":10874,"▁1er":10875,"to..":10876,"▁caes":10877,"▁deberíamos":10878,"▁rollo":10879,"pe.":10880,"lectual":10881,"fthe":10882,"▁organizar":10883,"▁cargos":10884,"▁calle,":10885,"▁huelga":10886,"▁ov":10887,"cos.":10888,"▁ok,":10889,"▁loco,":10890,"▁buy":10891,"doni":10892,"▁gn":10893,"▁regalos":10894,"▁prevenir":10895,"▁ciudadana":10896,"▁avanzar":10897,"▁troll":10898,"▁luck":10899,"▁denuncias":10900,"▁siguiendo":10901,"▁héroes":10902,"kar":10903,"mill":10904,"▁manches":10905,"▁palos":10906,"▁sano":10907,"▁normalidad":10908,"▁inclui":10909,"▁pena.":10910,"▁antigu":10911,"▁til":10912,"▁es?":10913,"▁piola":10914,"graphy":10915,"ます":10916,"▁capo":10917,"▁は":10918,"▁marcelo":10919,"▁dama":10920,"▁inaugu":10921,"▁camisa":10922,"▁hello":10923,"▁anyone":10924,"▁apareció":10925,"▁medias":10926,"▁share":10927,"▁vela":10928,"▁escuchas":10929,"▁ciru":10930,"abe":10931,"▁representantes":10932,"▁xbox":10933,"▁aumentar":10934,"tez":10935,"▁iniciar":10936,"▁ped":10937,"▁retra":10938,"▁dans":10939,"arios.":10940,"▁recomp":10941,"▁fantás":10942,"▁carác":10943,"clas":10944,"▁myself":10945,"▁incu":10946,"▁bancos":10947,"▁dete":10948,"▁eng":10949,"▁noel":10950,"tan.":10951,"▁novedades":10952,"▁mujeres,":10953,"▁simón":10954,"▁jugado":10955,"▁linea":10956,"▁lesbi":10957,"▁queee":10958,"▁shawn":10959,"▁interrogación":10960,"▁relevan":10961,"▁disculpas":10962,"▁indo":10963,"turo":10964,"ely":10965,"▁green":10966,"▁vezes":10967,"▁!!.":10968,"_de_mano":10969,"▁ya!":10970,"▁ako":10971,"▁verlos":10972,"▁encu":10973,"▁cabeza,":10974,"xx":10975,"▁innovación":10976,"▁propor":10977,"▁energ":10978,"▁bono":10979,"▁prácticas":10980,"▁elab":10981,"▁public":10982,"▁suba":10983,"▁meto":10984,"▁ambul":10985,"▁lógica":10986,"▁diana":10987,"jf":10988,"▁tapar":10989,"▁ridícu":10990,"▁perdieron":10991,"▁\\":10992,"▁preciso":10993,"▁aval":10994,"▁click":10995,"▁ternura":10996,"▁police":10997,"gas.":10998,"▁bunny":10999,"...pero":11000,"▁bár":11001,"▁novios":11002,"▁acar":11003,"espa":11004,"▁profunda":11005,"▁pai":11006,"▁shin":11007,"vencia":11008,"▁juzgar":11009,"gadas":11010,"▁bring":11011,"▁defienden":11012,"▁lanzar":11013,"▁ayuso":11014,"▁exclusiva":11015,"ación":11016,"▁infel":11017,"▁xd.":11018,"▁hayas":11019,"ganme":11020,"▁suces":11021,"▁lara":11022,"▁preparar":11023,"▁apete":11024,"▁medellín":11025,"▁coisas":11026,"▁ع":11027,"▁wrong":11028,"▁\"hay":11029,"▁engañar":11030,"▁ustedes,":11031,"▁detener":11032,"▁ecuator":11033,"▁ctm":11034,"▁noo":11035,"▁presun":11036,"new":11037,"▁parada":11038,"ímp":11039,"▁argentina,":11040,"▁niveles":11041,"íos":11042,"▁아":11043,"▁dirigentes":11044,"▁cumpliendo":11045,"▁mentiros":11046,"ap":11047,"ciado":11048,"2016":11049,"ísimos":11050,"▁propone":11051,"▁).":11052,"▁word":11053,"▁débil":11054,"▁alcaldía":11055,"▁digna":11056,"▁deberia":11057,"▁llevaba":11058,"▁contesta":11059,"▁venti":11060,"▁mica":11061,"▁incapa":11062,"▁farc":11063,"▁tendencias":11064,"▁expor":11065,"▁manija":11066,"onomía":11067,"▁berenj":11068,"7,":11069,"▁tqm":11070,"▁jogo":11071,"▁\"w":11072,"▁mueren":11073,"▁camina":11074,"▁nut":11075,"▁azúcar":11076,"▁tacos":11077,"▁recordamos":11078,"grado":11079,"▁bt":11080,"▁nico":11081,"cilia":11082,"▁different":11083,"lico":11084,"▁pasta":11085,"▁transpor":11086,"▁jornadas":11087,"tivar":11088,"▁pandemia,":11089,"nis":11090,"menos":11091,"▁estúpido":11092,"▁rou":11093,"▁mp":11094,"▁grin":11095,"ti,":11096,"▁gastr":11097,"▁enfermedades":11098,"▁venido":11099,"▁ingresos":11100,"▁woo":11101,"▁ortega":11102,"▁osorio":11103,"ibil":11104,"▁debió":11105,"zon":11106,"▁invitación":11107,"▁demostrado":11108,"▁caralho":11109,"▁demás,":11110,"▁tanto.":11111,"▁referencia":11112,"▁65":11113,"▁quan":11114,"▁mediocre":11115,"▁criterio":11116,"▁tla":11117,"▁distintas":11118,"▁suprema":11119,"▁psi":11120,"▁asunto":11121,"▁herramientas":11122,"_la_":11123,"▁sacas":11124,"▁business":11125,"▁gustos":11126,"▁match":11127,"▁sanitar":11128,"▁lmao":11129,"▁oficialmente":11130,"unque":11131,"s:":11132,"▁condena":11133,"▁roy":11134,"▁mtvlaiconocalleypoche":11135,"▁piba":11136,"▁gobernar":11137,"▁chupar":11138,"▁seok":11139,"▁evangel":11140,"▁atar":11141,"▁bajón":11142,"índice":11143,"jeras":11144,"▁exi":11145,"▁mauricio":11146,"▁jackson":11147,"▁diná":11148,"▁déj":11149,"▁justifica":11150,"▁intensa":11151,"ust":11152,"▁potter":11153,"6,":11154,"▁almo":11155,"▁pales":11156,"▁vimos":11157,"▁ataques":11158,"▁poder.":11159,"▁trauma":11160,"▁publico":11161,"...que":11162,"▁adivinen":11163,"?!?!":11164,"▁saying":11165,"▁margar":11166,"▁cance":11167,"▁escuché":11168,"▁enfermos":11169,"▁fin.":11170,"▁peor,":11171,"▁10%":11172,"▁utiliza":11173,"▁reen":11174,"▁receta":11175,"95":11176,"ão.":11177,"▁exige":11178,"▁miseria":11179,"▁800":11180,"▁estão":11181,"▁08":11182,"▁frecu":11183,"▁paisa":11184,"▁aha":11185,"▁más!":11186,"▁dibujo":11187,"▁medicamentos":11188,"▁pokemon":11189,"▁ayude":11190,"▁ciudad.":11191,"▁coraje":11192,"▁romero":11193,"▁main":11194,"chin":11195,"▁portero":11196,"▁barco":11197,"▁impuesto":11198,"▁ice":11199,"▁rompiendo":11200,"▁colegios":11201,"▁fama":11202,"▁kk":11203,"rin":11204,"▁falsos":11205,"▁zul":11206,"▁fight":11207,"▁hipocres":11208,"▁reconoce":11209,"▁ciertas":11210,"▁01":11211,"▁már":11212,"cked":11213,"▁decirlo":11214,"▁hip":11215,"▁chale":11216,"▁real.":11217,"▁manipula":11218,"oo.":11219,"▁ética":11220,"▁clausu":11221,"▁vcs":11222,"ring":11223,"marca":11224,"▁amis":11225,"▁diste":11226,"▁emociones":11227,"▁atta":11228,"▁key":11229,"▁train":11230,"▁transi":11231,"▁acoso":11232,"▁\"so":11233,"▁creyendo":11234,"▁2-":11235,"▁bn":11236,"▁sensible":11237,"▁tamaño":11238,"▁pintarse":11239,"▁anillo":11240,"▁bandera_":11241,"▁humilde":11242,"▁lana":11243,"▁som":11244,"▁noctur":11245,"▁vergonzos":11246,"▁me,":11247,"girl":11248,"cala":11249,"▁contras":11250,"▁2013":11251,"▁adqui":11252,"▁guiller":11253,"▁(la":11254,"▁equiparacion":11255,"ttle":11256,"▁literatura":11257,"▁realizó":11258,"▁dorso_de_mano":11259,"_con_índice":11260,"▁dorso_de_mano_con_índice":11261,"▁outfit":11262,"bé":11263,"▁he's":11264,"▁saldrá":11265,"▁aguanta":11266,"▁inocente":11267,"▁braz":11268,"▁suscri":11269,"gros":11270,"▁pensamientos":11271,"▁fotografía":11272,"▁raúl":11273,"▁baje":11274,"▁coo":11275,"▁diré":11276,"venez":11277,"▁insomn":11278,"▁universitario":11279,"▁peor.":11280,"▁intelectual":11281,"▁admiro":11282,"▁convertido":11283,"▁future":11284,"▁parejas":11285,"raron":11286,"▁vein":11287,"dem":11288,"▁(el":11289,"▁mame":11290,"▁lateral":11291,"ge.":11292,"▁patio":11293,"▁mujer.":11294,"▁comité":11295,"▁amistades":11296,"▁als":11297,"▁figh":11298,"▁dulces":11299,"▁difusión":11300,"▁revel":11301,"▁necesitar":11302,"▁oficiales":11303,"▁understan":11304,"▁cuadro":11305,"dense":11306,"▁priori":11307,"▁custo":11308,"▁hiper":11309,"▁fur":11310,"▁sonreír":11311,"▁oaxaca":11312,"▁fly":11313,"▁caba":11314,"▁negros":11315,"man.":11316,"icen":11317,"ras.":11318,"▁acompañar":11319,"▁dormir.":11320,"▁pérdida":11321,"▁traigo":11322,"▁🎙":11323,"vana":11324,"▁rodrigo":11325,"▁forget":11326,"antes,":11327,"▁parado":11328,"▁dinero,":11329,"▁fana":11330,"izados":11331,"cencia":11332,"▁【":11333,"▁nave":11334,"▁efe":11335,"cipe":11336,"ta..":11337,"▁tragedia":11338,"▁gusta,":11339,"tan,":11340,"▁otros.":11341,"▁estuvieron":11342,"▁mareada":11343,"▁ronda":11344,"genas":11345,"▁llegas":11346,"▁fútbol.":11347,"ieran":11348,"rist":11349,"▁cres":11350,"▁acuerdo,":11351,"▁arres":11352,"▁insoportable":11353,"▁acel":11354,"▁pleas":11355,"▁leyenda":11356,"diz":11357,"▁sobran":11358,"será":11359,"▁grados":11360,"▁represión":11361,"▁luv":11362,"▁(e":11363,"▁600":11364,"▁voten":11365,"tion,":11366,"lara":11367,"▁aporte":11368,"man,":11369,"▁secuestra":11370,"▁petró":11371,"▁aparecen":11372,"▁✔":11373,"▁malditos":11374,"▁cú":11375,"▁cín":11376,"▁meses,":11377,"▁andaba":11378,"▁dispu":11379,"▁interca":11380,"▁universal":11381,"▁1)":11382,"▁factura":11383,"▁berenjena":11384,"▁iii":11385,"▁fuentes":11386,"▁pino":11387,"tit":11388,"▁donar":11389,"▁each":11390,"▁pás":11391,"▁disponibles":11392,"▁job":11393,"▁lasti":11394,"▁toco":11395,"nya":11396,"▁zar":11397,"▁tinha":11398,"▁2018.":11399,"wi":11400,"▁canto":11401,"▁pelic":11402,"▁ventas":11403,"df":11404,"ias.":11405,"cales":11406,"tex":11407,"▁golden":11408,"tian":11409,"▁yet":11410,"▁correa":11411,"▁vivido":11412,"▁bolsillo":11413,"▁talleres":11414,"ghts":11415,"▁#방탄소년단":11416,"▁polé":11417,"▁colap":11418,"▁r.":11419,"▁chiquito":11420,"▁pepe":11421,"▁¿est":11422,"bete":11423,"▁bosque":11424,"▁watching":11425,"▁hijueputa":11426,"▁karma":11427,"▁merezco":11428,"-5":11429,"▁cria":11430,"gentina":11431,"▁realizado":11432,"▁fritas":11433,"▁almuer":11434,"▁eri":11435,"▁terrorismo":11436,"frien":11437,"▁beco":11438,"▁paris":11439,"▁4,":11440,"▁perdón,":11441,"▁rutina":11442,"uñas":11443,"chera":11444,"fle":11445,"▁regga":11446,"▁abogados":11447,"▁mierdas":11448,"▁spoiler":11449,"rú":11450,"▁0,":11451,"▁ganaron":11452,"▁venezolana":11453,"▁restric":11454,"▁máquina":11455,"pt":11456,"▁creciendo":11457,"▁ahorrar":11458,"▁precau":11459,"▁activo":11460,"▁burla":11461,"▁analizar":11462,"▁cambie":11463,"hop":11464,"▁exagera":11465,"▁decis":11466,"▁homos":11467,"▁seleccion":11468,"▁reemp":11469,"▁diputada":11470,"-se":11471,"reta":11472,"▁lost":11473,"▁seen":11474,"▁señor,":11475,"▁lenguaje":11476,"/12":11477,"▁comandante":11478,"▁¡vamos":11479,"▁llevado":11480,"▁marta":11481,"▁comprarme":11482,"▁vendiendo":11483,"▁0.0":11484,"▁-&gt;":11485,"tta":11486,"▁quinta":11487,"▁apoyan":11488,"tivos.":11489,"▁conmigo,":11490,"▁ay,":11491,"▁brindar":11492,"▁jon":11493,"▁golea":11494,"tivos,":11495,"▁política,":11496,"▁darles":11497,"▁trin":11498,"▁inva":11499,"▁sufre":11500,"▁tomó":11501,"▁pañ":11502,"guna":11503,"▁explico":11504,"▁rain":11505,"▁cálla":11506,"▁comí":11507,"▁important":11508,"▁aprendiza":11509,"▁adn":11510,"▁million":11511,"you":11512,"▁consol":11513,"▁saba":11514,"wing":11515,"▁wifi":11516,"▁ejemplo,":11517,"íso":11518,"tena":11519,"▁jong":11520,"▁canarias":11521,"▁bondoni":11522,"antes.":11523,"abas":11524,"▁directora":11525,"uniden":11526,"▁conflicto":11527,"rieron":11528,"▁gring":11529,"▁calderón":11530,"▁11.":11531,"▁activos":11532,"▁hueco":11533,"▁rápida":11534,"▁tasa":11535,"ites":11536,"▁cartag":11537,"▁roll":11538,"▁invitados":11539,"▁iran":11540,"cke":11541,"39":11542,"▁manifestación":11543,"▁lang":11544,"pid":11545,"▁hua":11546,"▁sufriendo":11547,"▁protocolo":11548,"kis":11549,"▁matrimonio":11550,"▁herrera":11551,"▁filosof":11552,"ore":11553,"▁aku":11554,"▁podrías":11555,"▁narra":11556,"▁aula":11557,"▁transformación":11558,"▁política.":11559,"▁estimado":11560,"▁decision":11561,"▁bienvenidos":11562,"▁vous":11563,"ende":11564,"enme":11565,"mit":11566,"▁rell":11567,"▁déjame":11568,"▁anunció":11569,"▁diferencias":11570,"▁2)":11571,"▁span":11572,"▁besitos":11573,"▁muera":11574,"▁ambiental":11575,"▁volunt":11576,"▁municipios":11577,"▁numero":11578,"▁yeah":11579,"▁ascenso":11580,"▁no!":11581,"▁crece":11582,"▁escudo":11583,"▁verdes":11584,"iosos":11585,"▁robado":11586,"▁novel":11587,"▁working":11588,"▁literally":11589,"▁paulo":11590,"▁ks":11591,"▁próximas":11592,"▁¿no?":11593,"▁exámenes":11594,"▁point":11595,"▁talent":11596,"▁auxil":11597,"▁rapido":11598,"than":11599,"▁iré":11600,"▁protocol":11601,"▁tratan":11602,"▁law":11603,"▁indirec":11604,"▁ídolo":11605,"▁espectáculo":11606,"▁refiero":11607,"▁equili":11608,"▁recicla":11609,"▁bobo":11610,"▁pán":11611,"▁guz":11612,"▁whis":11613,"▁hamburguesa":11614,"▁unfollowers":11615,"▁zombi":11616,"▁amarilla":11617,"ientos":11618,"tizar":11619,"▁metan":11620,"▁incluye":11621,"▁visitas":11622,"▁av.":11623,"▁chara":11624,"▁trajo":11625,"▁plante":11626,"▁&gt;&gt;":11627,"▁bicho":11628,"▁fiz":11629,"▁moviliza":11630,"▁ramón":11631,"titud":11632,"▁vacío":11633,"▁nick":11634,"▁acuerdo.":11635,"dula":11636,"▁clip":11637,"▁radical":11638,"▁minor":11639,"vistar":11640,"▁embargo,":11641,"▁aé":11642,"▁estúpi":11643,"▁respal":11644,"▁curioso":11645,"▁peñar":11646,"▁ف":11647,"▁tips":11648,"▁reciben":11649,"▁cable":11650,"▁feb":11651,"linson":11652,"▁update":11653,"▁desarrollar":11654,"▁odiar":11655,"▁explique":11656,"▁divina":11657,"cimientos":11658,"▁tkm":11659,"▁\"ten":11660,"▁duel":11661,"▁semá":11662,"▁tonter":11663,"cion.":11664,"selo":11665,"▁hacien":11666,"▁apuesta":11667,"got":11668,"▁real,":11669,"▁contento":11670,"▁muchachos":11671,"▁yg":11672,"▁salta":11673,"▁weather":11674,"▁consci":11675,"▁emprendimiento":11676,"▁mundial.":11677,"▁electri":11678,"▁namo":11679,"▁repeti":11680,"▁volar":11681,"▁pezuñas":11682,"▁international":11683,"eer":11684,"▁coronavirus,":11685,"▁iván":11686,"▁quite":11687,"▁presta":11688,"gió":11689,"▁va,":11690,"▁cis":11691,"▁miedo,":11692,"▁persegui":11693,"óstico":11694,"▁foot":11695,"▁(por":11696,"▁aci":11697,"▁comprando":11698,"▁imbecil":11699,"▁confirmado":11700,"bly":11701,"cha.":11702,"milla":11703,"▁carcel":11704,"▁covid19.":11705,"▁ahh":11706,"▁tomate":11707,"66":11708,"▁colombia,":11709,"▁sonora":11710,"▁origin":11711,"▁cober":11712,"▁mãe":11713,"▁defens":11714,"▁celebramos":11715,"▁fría":11716,"onga":11717,"aal":11718,"▁asist":11719,"▁ilustra":11720,"▁egoís":11721,"bús":11722,"▁favoritos":11723,"▁desigual":11724,"▁¿como":11725,"▁idiotas":11726,"çar":11727,"▁perpe":11728,"▁cámar":11729,"ès":11730,"riz":11731,"▁casado":11732,"▁하":11733,"▁racismo":11734,"▁rug":11735,"▁certe":11736,"▁hai":11737,"した":11738,"▁ninguém":11739,"_la_derecha":11740,"▁tenías":11741,"▁teníamos":11742,"▁republic":11743,"▁oje":11744,"▁posibles":11745,"▁aba":11746,"▁aficion":11747,"▁minas":11748,"▁barde":11749,"▁posicion":11750,"▁faltaba":11751,"▁cristal":11752,"▁politica":11753,"jas.":11754,"▁thrones":11755,"▁presentó":11756,"▁subsi":11757,"▁xdd":11758,"▁contigo,":11759,"ently":11760,"▁cr.":11761,"▁perfe":11762,"▁we're":11763,"▁falto":11764,"▁taxi":11765,"▁especiales":11766,"▁voca":11767,"▁típico":11768,"▁frank":11769,"▁jaime":11770,"▁extin":11771,"▁vale,":11772,"▁apellido":11773,"8,":11774,"▁u.u":11775,"el,":11776,"▁francés":11777,"años":11778,"▁inneces":11779,"▁adorno":11780,"▁himno":11781,"▁certif":11782,"▁actualmente":11783,"▁late":11784,"▁memb":11785,"▁sismo":11786,"olla":11787,"▁falsas":11788,"▁perjud":11789,"▁borde":11790,"▁eat":11791,"cking":11792,"▁manual":11793,"▁entendido":11794,"▁distribu":11795,"▁renova":11796,"▁elo":11797,"▁barato":11798,"▁cambiemos":11799,"▁entérate":11800,"▁robert":11801,"▁meses.":11802,"▁99":11803,"▁perfect":11804,"▁ño":11805,"▁tomlinson":11806,"izon":11807,"▁gómez":11808,"▁descarga":11809,"madrid":11810,"▁edo":11811,"▁enamor":11812,"▁sabéis":11813,"▁campes":11814,"plan":11815,"▁angusti":11816,"▁organizaciones":11817,"cana":11818,"▁compartiendo":11819,"▁carreras":11820,"▁combate":11821,"▁pensiones":11822,"▁castel":11823,"▁creía":11824,"▁presupues":11825,"▁búsqueda":11826,"▁zoom":11827,"▁ministros":11828,"▁seguí":11829,"hen":11830,"▁bie":11831,"▁distinto":11832,"▁gues":11833,"es...":11834,"▁reempla":11835,"▁hueva":11836,"dig":11837,"▁agr":11838,"▁cachor":11839,"ta...":11840,"▁12.":11841,"▁entonces,":11842,"vieron":11843,"▁descansa":11844,"▁atentos":11845,"▁tenerte":11846,"▁soporto":11847,"▁desma":11848,"▁pareció":11849,"▁llave":11850,"▁seguros":11851,"▁prácticamente":11852,"▁2020,":11853,"gí":11854,"▁fija":11855,"▁infraestru":11856,"▁ath":11857,"43":11858,"tible":11859,"▁representante":11860,"zen":11861,"▁didnt":11862,"▁religión":11863,"▁sanciones":11864,"▁mona":11865,"rena":11866,"▁lenta":11867,"▁vehículos":11868,"▁maradona":11869,"▁caído":11870,"▁reclamar":11871,"▁tropical":11872,"▁used":11873,"▁liberal":11874,"▁alan":11875,"세븐":11876,"▁justicia.":11877,"bui":11878,"▁celebración":11879,"▁wars":11880,"▁hí":11881,"▁aventura":11882,"▁rojos":11883,"xe":11884,"77":11885,"ves,":11886,"▁consen":11887,"▁baekhyun":11888,"▁mk":11889,"/as":11890,"▁ejecutivo":11891,"▁karol":11892,"▁falando":11893,"▁:(((":11894,"ners":11895,"▁enemigos":11896,"▁س":11897,"▁zapatos":11898,"tent":11899,"▁kon":11900,"▁jugo":11901,"▁niños,":11902,"▁de:":11903,"▁film":11904,"▁habitación":11905,"▁pande":11906,"▁colla":11907,"▁distrito":11908,"▁especí":11909,"enio":11910,"ña,":11911,"▁votando":11912,"▁guap":11913,"▁onde":11914,"zcan":11915,"▁poli":11916,"jes,":11917,"▁supl":11918,"▁hidal":11919,"▁\"ex":11920,"▁solucionar":11921,"▁sabías":11922,"▁entran":11923,"▁erra":11924,"▁\"co":11925,"▁sencilla":11926,"▁hablaba":11927,"▁revela":11928,"▁¡se":11929,"▁chilenos":11930,"▁es...":11931,"os..":11932,"▁scor":11933,"▁entendi":11934,"mócra":11935,"▁directiva":11936,"gos.":11937,"dentes":11938,"▁llame":11939,"▁incomo":11940,"▁tramp":11941,"▁fué":11942,"▁uf":11943,"▁olvidó":11944,"▁ubica":11945,"▁descara":11946,"▁chavismo":11947,"ticias":11948,"ñez":11949,"▁ariana":11950,"cro":11951,"▁panza":11952,"▁national":11953,"▁creemos":11954,"▁profesora":11955,"pc":11956,"▁cambió":11957,"▁cartas":11958,"▁envidio":11959,"▁43":11960,"▁rif":11961,"▁guerr":11962,"mann":11963,"▁random":11964,"▁champion":11965,"onia":11966,"daba":11967,"riam":11968,"▁invis":11969,"▁mezcla":11970,"▁fatal":11971,"▁tag":11972,"▁revisa":11973,"▁calle.":11974,"▁canales":11975,"-o":11976,"▁suele":11977,"▁envía":11978,"▁valorar":11979,"▁empatía":11980,"▁mujeres.":11981,"es!":11982,"▁oto":11983,"▁inscrip":11984,"▁potencial":11985,"▁guerrero":11986,"▁mtvlapareja":11987,"▁intensidad":11988,"▁restaurante":11989,"▁empezaron":11990,"viar":11991,"▁gold":11992,"▁límite":11993,"vido":11994,"ee,":11995,"sy":11996,"ladoli":11997,"▁you!":11998,"▁estadouniden":11999,"fobia":12000,"▁miedo.":12001,"▁tareas":12002,"▁fortnite":12003,"gones":12004,"▁editorial":12005,"▁cruzar":12006,"▁bonitos":12007,"▁¿el":12008,"▁fac":12009,"more":12010,"▁miembro":12011,"▁asistir":12012,"▁influencer":12013,"▁sección":12014,"▁ibas":12015,"▁s'":12016,"▁iss":12017,"▁potencia":12018,"▁mola":12019,"▁breaking":12020,"▁gastos":12021,"▁2010":12022,"▁peligroso":12023,"▁latinoamérica":12024,"▁fashion":12025,"▁propaganda":12026,"▁seo":12027,"▁domina":12028,"▁vege":12029,"▁\"su":12030,"bloque":12031,"▁cenar":12032,"▁oms":12033,"▁body":12034,"cones":12035,"▁levanté":12036,"▁respirar":12037,"▁gallar":12038,"▁saludar":12039,"▁performan":12040,"▁descor":12041,"▁bin":12042,"▁chido":12043,"▁callate":12044,"▁mamen":12045,"▁condición":12046,"▁carácter":12047,"▁pd:":12048,"▁ib":12049,"▁ship":12050,"ves.":12051,"▁gabine":12052,"▁entrando":12053,"อง":12054,"▁pasado.":12055,"▁hermano,":12056,"ging":12057,"▁alternativa":12058,"▁pain":12059,"▁comprado":12060,"▁deri":12061,"▁sie":12062,"▁define":12063,"▁árbitro":12064,"▁brother":12065,"▁aer":12066,"▁parlamento":12067,"▁democrática":12068,"▁empiece":12069,"▁mán":12070,"▁universidades":12071,"▁roo":12072,"▁automática":12073,"▁bach":12074,"▁queridos":12075,"▁needs":12076,"▁diosa":12077,"▁conclusión":12078,"▁prom":12079,"▁selec":12080,"▁duela":12081,"▁escribió":12082,"▁usurpa":12083,"▁documento":12084,"▁guti":12085,"▁bases":12086,"▁vontade":12087,"▁repi":12088,"▁marcas":12089,"insta":12090,"b,":12091,"▁finally":12092,"▁embarazada":12093,"▁fútbol,":12094,"▁mtvlafandomar":12095,"▁→":12096,"▁fet":12097,"▁dormida":12098,"j.":12099,"▁pierna":12100,"▁fif":12101,"▁dejemos":12102,"▁olímp":12103,"▁plantilla":12104,"▁pcas":12105,"▁presentamos":12106,"▁meteor":12107,"▁pegue":12108,"gru":12109,"tation":12110,"▁hoseo":12111,"▁didn't":12112,"▁sea.":12113,"▁pierdan":12114,"▁arrepiento":12115,"▁simpson":12116,"▁mau":12117,"▁n1":12118,"▁quitan":12119,"▁invertir":12120,"nel":12121,"ona,":12122,"piro":12123,"▁tox":12124,"▁muse":12125,"▁hospita":12126,"▁admira":12127,"/19":12128,"▁empate":12129,"▁terrorista":12130,"▁aislamiento":12131,"▁ilusion":12132,"▁puras":12133,"▁pareci":12134,"▁inolvi":12135,"▁barras":12136,"▁alquiler":12137,"o...":12138,"▁39":12139,"▁carpe":12140,"▁individual":12141,"▁mató":12142,"▁wn":12143,"▁chile.":12144,"▁cue":12145,"▁telef":12146,"▁juli":12147,"▁▶":12148,"▁reach":12149,"▁intendente":12150,"▁cache":12151,"▁supuestamente":12152,"▁vital":12153,"▁(in":12154,"às":12155,"donde":12156,"▁olha":12157,"▁foda":12158,"...?":12159,"▁mtvhot":12160,"▁polvo":12161,"▁quiénes":12162,"▁hacían":12163,"▁pretende":12164,"▁sorprender":12165,"▁traen":12166,"▁reproducción":12167,"▁dolar":12168,"▁propias":12169,"▁¡felici":12170,"▁c/":12171,"▁ronaldo":12172,"▁lui":12173,"▁pilla":12174,"▁agregar":12175,"▁oct":12176,"▁road":12177,"▁conquis":12178,"▁thinking":12179,"oya":12180,"▁pesca":12181,"▁americano":12182,"icas,":12183,"▁mira,":12184,"▁decidido":12185,"▁joya":12186,"▁entró":12187,"cd":12188,"▁jk":12189,"▁criminales":12190,"male":12191,"▁psico":12192,"▁fie":12193,"▁tire":12194,"▁confer":12195,"▁repri":12196,"▁¡buenos":12197,"▁antes.":12198,"▁\"ya":12199,"▁poder,":12200,"▁seokjin":12201,"▁luz,":12202,"his":12203,"▁awww":12204,"▁abandono":12205,"▁hostia":12206,"▁domingo,":12207,"▁chinos":12208,"▁enví":12209,"▁combusti":12210,"▁contratos":12211,"▁sobrevivir":12212,"▁alone":12213,"▁kit":12214,"▁estúpida":12215,"▁líneas":12216,"▁música,":12217,"▁ds":12218,"▁cuántas":12219,"▁sierra":12220,"hoo":12221,"uar":12222,"▁chile,":12223,"▁ht":12224,"▁\"to":12225,"▁fidel":12226,"▁eyes":12227,"▁concur":12228,"▁predic":12229,"▁peñarol":12230,"centa":12231,"▁pasear":12232,"love":12233,"▁recons":12234,"▁sostenible":12235,"▁2012":12236,"▁elementos":12237,"▁vicente":12238,"▁fallo":12239,"mentales":12240,"▁paguen":12241,"▁desor":12242,"▁\"cuando":12243,"anos.":12244,"▁então":12245,"▁intimi":12246,"▁-¿":12247,"▁microbio":12248,"▁piro":12249,"▁(0":12250,"▁tela":12251,"▁manden":12252,"▁libertador":12253,"▁living":12254,"▁identifica":12255,"▁tránsito":12256,"▁pray":12257,"▁tumba":12258,"▁uk":12259,"▁boludeces":12260,"▁drop":12261,"▁dies":12262,"▁found":12263,"▁útil":12264,"▁bul":12265,"ge,":12266,"▁ato":12267,"pefa":12268,"▁chir":12269,"▁mogol":12270,"▁sas":12271,"88":12272,"hí":12273,"▁urgencia":12274,"▁voice":12275,"aristemo":12276,"▁worl":12277,"▁objetivos":12278,"▁puñ":12279,"▁mataron":12280,"▁gritos":12281,"▁capitulo":12282,"▁estemos":12283,"▁causas":12284,"▁vizcarra":12285,"dos..":12286,"quera":12287,"mira":12288,"▁aburrida":12289,"▁diosito":12290,"▁reglas":12291,"▁engor":12292,"▁pierda":12293,"▁tontos":12294,"▁pájar":12295,"▁gobierna":12296,"▁pera":12297,"▁aline":12298,"▁¿para":12299,"▁asumir":12300,"▁2019,":12301,"icante":12302,"▁ataca":12303,"▁ee.uu.":12304,"▁capítulos":12305,"▁vecin":12306,"▁justamente":12307,"▁tend":12308,"▁mili":12309,"fre":12310,"▁arsen":12311,"▁w/":12312,"▁tala":12313,"▁plantel":12314,"▁nada..":12315,"▁teen":12316,"▁aprendiendo":12317,"▁mention":12318,"▁reivin":12319,"▁mtvlafandomaristemo":12320,"▁quiero.":12321,"▁serp":12322,"▁fia":12323,"▁guillermo":12324,"▁cariños":12325,"▁operativo":12326,"▁pelicula":12327,"▁omar":12328,"▁mtvhottest":12329,"inge":12330,"▁diseña":12331,"▁inventar":12332,"▁copia":12333,"5,":12334,"▁formal":12335,"▁trasla":12336,"terios":12337,"▁ave":12338,"▁veces.":12339,"ub":12340,"▁cloud":12341,"▁trabajamos":12342,"tween":12343,"▁transparencia":12344,"▁rip":12345,"'ve":12346,"▁si...":12347,"▁buenísimo":12348,"▁abr":12349,"cié":12350,"▁liqui":12351,"pando":12352,"▁futuro.":12353,"mular":12354,"▁120":12355,"ize":12356,"▁agua.":12357,"▁earth":12358,"▁¿la":12359,"▁subnor":12360,"▁tocando":12361,"▁loz":12362,"▁presi":12363,"▁retirar":12364,"▁ez":12365,"▁abas":12366,"▁resid":12367,"▁cierta":12368,"▁mochi":12369,"▁merce":12370,"▁aumenta":12371,"andra":12372,"▁traidor":12373,"▁kilo":12374,"▁cara.":12375,"▁logrado":12376,"▁claqueta":12377,"▁fí":12378,"▁comparar":12379,"▁cuadra":12380,"▁casta":12381,"▁bloquear":12382,"▁nou":12383,"cion,":12384,"▁mtvlaparejaaristemo":12385,"sive":12386,"▁coc":12387,"▁vd":12388,"▁estupefa":12389,"▁hora,":12390,"ts:":12391,"▁descubri":12392,"▁profundo":12393,"▁saga":12394,"▁conseguido":12395,"▁castigo":12396,"▁monar":12397,"▁claves":12398,"▁perez":12399,"▁pelis":12400,"grada":12401,"▁alfa":12402,"kit":12403,"set":12404,"sí":12405,"▁chivas":12406,"▁creado":12407,"didad":12408,"▁kpop":12409,"▁encier":12410,"zas,":12411,"▁liderazgo":12412,"▁dc":12413,"▁soberan":12414,"▁juegue":12415,"tures":12416,"▁cierto.":12417,"▁desse":12418,"▁it,":12419,"▁maneras":12420,"▁científicos":12421,"meno":12422,"69":12423,"to\"":12424,"▁tierno":12425,"▁encantó":12426,"▁sed":12427,"▁actores":12428,"▁sueldos":12429,"▁gun":12430,"▁escribi":12431,"▁mamá,":12432,"▁melilla":12433,"▁ह":12434,"pear":12435,"aba":12436,"▁dinero.":12437,"▁ç":12438,"▁rayo":12439,"▁elegido":12440,"▁inglaterra":12441,"▁̄":12442,"▁el,":12443,"▁skin":12444,"▁temporadas":12445,"▁opina":12446,"▁arbi":12447,"militar":12448,"▁mid":12449,"▁pat":12450,"▁pick":12451,"▁bolsas":12452,"▁street":12453,"▁5,":12454,"loga":12455,"▁abe":12456,"chor":12457,"▁nostal":12458,"uidad":12459,"reo":12460,"▁cest":12461,"ónimo":12462,"▁talking":12463,"▁zid":12464,"▁nacho":12465,"▁lugar.":12466,"▁hours":12467,"gina":12468,"▁viaja":12469,"▁invas":12470,"cker":12471,"▁podria":12472,"▁sepas":12473,"▁agentes":12474,"▁conductor":12475,"▁evidente":12476,"▁ais":12477,"▁fasti":12478,"ents":12479,"▁queréis":12480,"▁elegan":12481,"sima":12482,"▁miel":12483,"▁n.":12484,"▁pok":12485,"verdad":12486,"▁bajos":12487,"▁valladoli":12488,"▁clasifica":12489,"▁jean":12490,"os...":12491,"▁ciber":12492,"mejor":12493,"▁christ":12494,"▁destrucción":12495,"▁anni":12496,"▁👁":12497,"▁falleció":12498,"▁gio":12499,"▁second":12500,"▁level":12501,"▁consciente":12502,"▁community":12503,"▁dedicado":12504,"▁between":12505,"▁aspec":12506,"▁vida...":12507,"▁marihu":12508,"▁vengas":12509,"py":12510,"▁ferro":12511,"▁instante":12512,"▁dia,":12513,"hun":12514,"jaaj":12515,"▁agencia":12516,"▁viña":12517,"▁exter":12518,"ees":12519,"▁suave":12520,"tazo":12521,"▁cose":12522,"▁estupideces":12523,"▁vill":12524,"▁(es":12525,"▁verdaderos":12526,"mbio":12527,"▁susten":12528,"▁magistra":12529,"。.":12530,"▁muchacho":12531,"▁passar":12532,"▁hijas":12533,"▁escribí":12534,"▁boca.":12535,"▁riendo":12536,"▁dos,":12537,"▁procesos":12538,"▁tabla":12539,"do?":12540,"hola":12541,"▁no..":12542,"▁mae":12543,"▁¡y":12544,"▁abuelos":12545,"▁clau":12546,"▁llevaron":12547,"▁vives":12548,"▁1:":12549,"▁might":12550,"▁especie":12551,"▁ysi":12552,"▁lento":12553,"▁discrimina":12554,"os!":12555,"▁ooo":12556,"▁complejo":12557,"▁crónica":12558,"▁domicilio":12559,"▁profesión":12560,"▁cambiando":12561,"▁\"una":12562,"▁cade":12563,"▁normas":12564,"▁lad":12565,"▁modern":12566,"▁sopa":12567,"▁sanitarios":12568,"▁alejar":12569,"▁benefi":12570,"▁fór":12571,"่า":12572,"▁compromis":12573,"▁insi":12574,"▁impresenta":12575,"▁responsabil":12576,"▁patas":12577,"áticos":12578,"▁escan":12579,"▁agricultura":12580,"▁procura":12581,"▁compli":12582,"▁valer":12583,"tors":12584,"▁indign":12585,"how":12586,"▁scen":12587,"▁enojar":12588,"▁cacas":12589,"tienes":12590,"▁infar":12591,"▁lamento":12592,"▁sonrí":12593,"▁plazas":12594,"▁dos.":12595,"▁egres":12596,"▁acepta":12597,"▁bueno...":12598,"▁gallo":12599,"▁paren":12600,"▁low":12601,"chile":12602,"▁jajas":12603,"▁navide":12604,"▁conmigo.":12605,"▁stran":12606,"info":12607,"▁pasa,":12608,"▁gimnasio":12609,"oney":12610,"▁critican":12611,"▁csm":12612,"▁son.":12613,"ona.":12614,"▁doesn't":12615,"▁europeo":12616,"▁culti":12617,"▁morr":12618,"▁jura":12619,"▁copo":12620,"▁chia":12621,"▁came":12622,"hue":12623,"tones":12624,"bo,":12625,"ta\"":12626,"fonos":12627,"duro":12628,"▁descubr":12629,"▁cifra":12630,"▁mandarina":12631,"▁vocal":12632,"▁disfruten":12633,"▁sys":12634,"▁afron":12635,"▁burro":12636,"▁suy":12637,"▁chingada":12638,"▁buscamos":12639,"ahora":12640,"garse":12641,"▁amado":12642,"into":12643,"▁anno":12644,"▁postura":12645,"▁reverencia":12646,"▁califica":12647,"▁esperas":12648,"▁sociales,":12649,"▁club.":12650,"▁es:":12651,"▁palmera":12652,"▁acordé":12653,"▁►":12654,"itud":12655,"▁piensen":12656,"▁platafor":12657,"▁recortable":12658,"▁votantes":12659,"5%":12660,"▁wpp":12661,"jk":12662,"▁suc":12663,"▁gaga":12664,"▁aclara":12665,"▁eléctrico":12666,"▁deseando":12667,"▁sebastián":12668,"bron":12669,"▁selena":12670,"night":12671,"▁evita":12672,"▁unidades":12673,"▁maxi":12674,"jua":12675,"$.":12676,"▁alli":12677,"solo":12678,"▁pongas":12679,"▁bruno":12680,"▁periodo":12681,"▁wear":12682,"▁decirles":12683,"voy":12684,"te...":12685,"iada":12686,"▁marx":12687,"▁tóxica":12688,"▁punto.":12689,"▁deseamos":12690,"▁señala":12691,"▁mtvbr":12692,"▁quo":12693,"▁lali":12694,"▁ota":12695,"ี่":12696,"▁programación":12697,"▁decime":12698,"▁azu":12699,"simo":12700,"▁críticas":12701,"▁biblioteca":12702,"▁tn":12703,"▁obe":12704,"▁magní":12705,"▁west":12706,"▁video:":12707,"▁problema.":12708,"▁polo":12709,"chita":12710,"▁ladrón":12711,"▁chistes":12712,"▁jsjs":12713,"▁petar":12714,"▁south":12715,"▁followers":12716,"▁2-0":12717,"▁vr":12718,"▁confi":12719,"ês":12720,"usion":12721,"▁facha":12722,"▁lagri":12723,"▁deport":12724,"▁juntos.":12725,"▁4t":12726,"mericano":12727,"▁más?":12728,"▁oba":12729,"soo":12730,"▁debu":12731,"▁hora.":12732,"▁\"le":12733,"▁space":12734,"▁parro":12735,"mido":12736,"▁ines":12737,"▁bien!":12738,"▁ventaja":12739,"▁podia":12740,"e!":12741,"▁escapar":12742,"▁borracho":12743,"▁biggest":12744,"▁encen":12745,"▁tendrás":12746,"▁colección":12747,"▁massa":12748,"▁canadá":12749,"▁paula":12750,"▁caza":12751,"mito":12752,"▁vida..":12753,"▁reggaet":12754,"▁subido":12755,"▁laburar":12756,"/11":12757,"▁dispara":12758,"▁herramienta":12759,"edades":12760,"▁piscina":12761,"▁esqui":12762,"▁depos":12763,"tial":12764,"▁cállate":12765,"▁conversaciones":12766,"▁violación":12767,"▁viejas":12768,"▁impotencia":12769,"▁convirtió":12770,"▁resenti":12771,"rás":12772,"drome":12773,"▁chavez":12774,"▁favoritas":12775,"▁podré":12776,"▁panel":12777,"78":12778,"v,":12779,"▁ae":12780,"▁público.":12781,"▁escritor":12782,"▁jd":12783,"▁rajoy":12784,"venezuela":12785,"trá":12786,"▁wed":12787,"▁terreno":12788,"▁few":12789,"▁oídos":12790,"▁shows":12791,"▁provincial":12792,"▁fantasía":12793,"▁encuestas":12794,"▁asigna":12795,"▁hablado":12796,"vándose":12797,"▁climático":12798,"gano":12799,"gidos":12800,"▁delantero":12801,"▁enchu":12802,"anos,":12803,"▁cayendo":12804,"▁factor":12805,"▁afectados":12806,"▁serían":12807,"▁sospechos":12808,"entre":12809,"▁nacimiento":12810,"▁curiosidad":12811,"▁sociales.":12812,"▁siguientes":12813,"▁tirado":12814,"▁secretaría":12815,"grafo":12816,"▁side":12817,"▁\"para":12818,"▁duelo":12819,"▁jalisco":12820,"▁nicolas":12821,"▁recorrido":12822,"geno":12823,"▁reclama":12824,"▁notifica":12825,"▁promover":12826,"oo!!!":12827,"▁short":12828,"pho":12829,"▁techo":12830,"▁síntomas":12831,"▁daños":12832,"mez":12833,"▁niger":12834,"▁anar":12835,"▁garganta":12836,"▁materias":12837,"▁llover":12838,"▁fiebre":12839,"▁hacerlo.":12840,"ña.":12841,"▁robó":12842,"▁vial":12843,"▁vicio":12844,"...)":12845,"▁santander":12846,"▁alcaldesa":12847,"itores":12848,"▁sum":12849,":15":12850,"ológica":12851,"uh":12852,"...es":12853,"▁fallar":12854,"▁rescate":12855,"▁preparada":12856,"▁f1":12857,"▁ordin":12858,"▁definición":12859,"▁concentración":12860,"▁quedaba":12861,"▁aceite":12862,"▁feministas":12863,"▁salto":12864,"▁malo,":12865,"▁fortuna":12866,"landia":12867,"▁realidad,":12868,"icientes":12869,"bt":12870,"▁satur":12871,"▁convencer":12872,"▁lleguen":12873,"▁molestar":12874,"ette":12875,"lida":12876,"anted":12877,"▁kat":12878,"▁controla":12879,"bria":12880,"▁deep":12881,"▁history":12882,"▁tuiter":12883,"ition":12884,"▁anuncios":12885,"igo":12886,"▁revol":12887,"-6":12888,"▁toro":12889,"▁acercar":12890,"▁paragua":12891,"▁triste,":12892,"▁fortalecer":12893,"▁decidió":12894,"▁elige":12895,"▁tomé":12896,"abra":12897,"mona":12898,"▁mercados":12899,"▁confío":12900,"▁among":12901,"▁sucio":12902,"▁nerviosa":12903,"▁ciencias":12904,"▁llorar,":12905,"▁x2":12906,"▁jodido":12907,"▁recol":12908,"ford":12909,"▁simples":12910,"▁ausencia":12911,"zul":12912,"▁cuerpos":12913,"ti.":12914,"▁nueve":12915,"▁remon":12916,"▁expan":12917,"▁(se":12918,"▁close":12919,"mago":12920,"▁taba":12921,"▁descorchada":12922,"ram":12923,"▁muestran":12924,"▁office":12925,"▁danilo":12926,"▁queden":12927,"/5":12928,"wards":12929,"▁(3":12930,"▁víde":12931,"▁kiss":12932,"▁nadie:.":12933,"▁tip":12934,"▁aliení":12935,"▁pequeñas":12936,"▁safe":12937,"▁prín":12938,"▁44":12939,"▁mandando":12940,"▁amanhã":12941,"▁todxs":12942,"▁esposo":12943,"▁millonarios":12944,"▁determina":12945,"▁otros,":12946,"▁perver":12947,"▁pagina":12948,"▁imprescin":12949,"▁puta.":12950,"▁instalaciones":12951,"▁pesadilla":12952,"▁piense":12953,"glish":12954,"▁afp":12955,"▁alfre":12956,"▁fez":12957,"▁legado":12958,"▁listas":12959,"▁¿sabes":12960,"▁cómplice":12961,"▁darnos":12962,"▁órden":12963,"▁vergüenza.":12964,"▁nooo,":12965,"▁carabineros":12966,"▁#이":12967,"▁tocado":12968,"▁california":12969,"▁celos":12970,"▁igna":12971,"▁rodilla":12972,"rre":12973,"▁prés":12974,"▁anual":12975,"▁remin":12976,"▁pascu":12977,"▁víctor":12978,"arle":12979,"▁ann":12980,"▁maltrato":12981,"▁alegre":12982,"▁suger":12983,"▁normal,":12984,"dador":12985,"wan":12986,"▁corresponde":12987,"▁lugar,":12988,"▁perdiste":12989,"▁teas":12990,"▁sufrimiento":12991,"▁'s":12992,"ation":12993,"▁impu":12994,"chet":12995,"▁marina":12996,"▁spider":12997,"asco":12998,"▁vuestros":12999,"▁cál":13000,"remo":13001,"▁pqp":13002,"▁vestir":13003,"▁polla":13004,"▁televis":13005,"▁went":13006,"▁lucía":13007,"▁leave":13008,"▁exigimos":13009,"▁racha":13010,"▁logros":13011,"▁forro":13012,"▁moneda":13013,"sado":13014,"▁reit":13015,"▁valió":13016,"guera":13017,"▁content":13018,"▁colle":13019,"▁plá":13020,"▁kevin":13021,"▁anunciar":13022,"▁pere":13023,"▁mail":13024,"▁soo":13025,"chis":13026,"▁diabe":13027,"▁otgala":13028,"▁grita":13029,"directo":13030,"▁exacto":13031,"▁presentado":13032,"▁encontramos":13033,"▁asegurar":13034,"▁això":13035,"▁cartagena":13036,"war":13037,"▁monu":13038,"▁vargas":13039,"s?":13040,"▁mano.":13041,"▁confirmo":13042,"▁uuu":13043,"▁き":13044,"gobier":13045,"coin":13046,"▁kay":13047,"▁direction":13048,"▁justice":13049,"▁londres":13050,"▁incómo":13051,"▁wol":13052,"▁jodan":13053,"▁previs":13054,"▁graba":13055,"▁háb":13056,"▁llamando":13057,"▁beh":13058,"▁espos":13059,"▁nacido":13060,"▁discus":13061,"▁ejemplar":13062,"▁comenzamos":13063,"habilita":13064,"▁campos":13065,"้า":13066,"▁alter":13067,"▁chon":13068,"▁divul":13069,"▁deno":13070,"▁desayunar":13071,"▁previo":13072,"▁cobertura":13073,"▁else":13074,"▁rural":13075,"yd":13076,"▁mandaron":13077,"▁juego.":13078,"vos.":13079,"camp":13080,"▁volvieron":13081,"▁respeto,":13082,"▁choco":13083,"▁solo.":13084,"▁eso...":13085,"▁abrazo.":13086,"▁disposición":13087,"▁alvar":13088,"▁balance":13089,"▁llan":13090,"▁supe":13091,"▁boca,":13092,"tant":13093,"▁lisa":13094,"▁dicha":13095,"▁sra":13096,"▁''":13097,"▁ud.":13098,"▁basket":13099,"s..":13100,"▁fede":13101,"▁remera":13102,"▁nací":13103,"▁washing":13104,"▁evalua":13105,"▁lé":13106,"▁atual":13107,"▁47":13108,"▁capitalismo":13109,"▁volverá":13110,"▁digitales":13111,"▁miras":13112,"▁duda,":13113,"▁álvaro":13114,"▁obligación":13115,"▁gracias!!!":13116,"▁horizon":13117,"▁estabilidad":13118,"ety":13119,"▁veamos":13120,"▁elef":13121,"▁risas":13122,"▁piñas":13123,"▁stray":13124,"dy.":13125,"▁dejaste":13126,"mie":13127,"▁temporal":13128,"▁actual.":13129,"▁maratón":13130,"▁peter":13131,"▁46":13132,"▁madrile":13133,"▁cuáles":13134,"▁cuadros":13135,"▁justicia,":13136,"▁década":13137,"▁saw":13138,"brio":13139,"▁lay":13140,"▁06":13141,"▁peleando":13142,"▁viernes,":13143,"った":13144,"mientos,":13145,"ándonos":13146,"▁corn":13147,"yoff":13148,"▁macar":13149,"kak":13150,"▁sombra":13151,"▁lemb":13152,"▁acepto":13153,"res.":13154,"▁weon":13155,"▁patada":13156,"▁vamos,":13157,"▁la.":13158,"▁seca":13159,"...!":13160,"▁tocan":13161,"▁bell":13162,"▁secundaria":13163,"▁cuña":13164,"▁expo":13165,"▁infla":13166,"▁jae":13167,"▁aprendido":13168,"▁todo!":13169,"▁cron":13170,"▁ucl":13171,"▁c'est":13172,"▁adolescentes":13173,"2019.":13174,"▁lentes":13175,"▁educación,":13176,"──":13177,"▁actualiza":13178,"▁smal":13179,"icas.":13180,"▁despedir":13181,"▁juju":13182,"fis":13183,"▁infeliz":13184,"▁idioma":13185,"eros,":13186,"▁-no":13187,"▁42":13188,"▁fácil,":13189,"▁hoseok":13190,"▁especi":13191,"▁obten":13192,"▁fazendo":13193,"▁pila":13194,"▁quilo":13195,"aa!!!":13196,"▁sill":13197,"▁tóxico":13198,"▁química":13199,"▁escas":13200,"▁sair":13201,"▁od":13202,"▁florida":13203,"▁mutuals":13204,"▁gratuita":13205,"dicación":13206,"▁hech":13207,"▁unidas":13208,"▁despla":13209,"▁andre":13210,"▁generos":13211,"▁pedirle":13212,"▁votación":13213,"▁fernandez":13214,"▁fact":13215,"▁hec":13216,"▁pues,":13217,"traron":13218,"▁inu":13219,"▁pón":13220,"▁más..":13221,"▁vuelos":13222,"▁nec":13223,"▁protagonista":13224,"▁antojo":13225,"▁afil":13226,"▁levantarse":13227,"▁disposi":13228,"▁dice:":13229,"▁atardecer":13230,"lli":13231,"▁robando":13232,"inado":13233,"▁marchas":13234,"▁cabrón":13235,":)":13236,"▁acompa":13237,"▁beyon":13238,"▁meo":13239,"medio":13240,"vote":13241,"▁사":13242,"▁vita":13243,"precia":13244,"éc":13245,"bala":13246,"▁temporada.":13247,"as!":13248,"▁libra":13249,"▁duelen":13250,"▁comerci":13251,"▁estupefacta":13252,"▁chucha":13253,"▁armando":13254,"icol":13255,"▁juntos,":13256,"▁lealtad":13257,"▁descal":13258,"▁japan":13259,"ménez":13260,"▁conciertos":13261,"▁rc":13262,"▁sufren":13263,"▁valverde":13264,"▁nó":13265,"▁colectivos":13266,"▁yanke":13267,"▁nostalgia":13268,"▁vecina":13269,"▁simula":13270,"▁bronce":13271,"▁temo":13272,"met":13273,"▁castilla":13274,"▁harto":13275,"▁vuela":13276,"▁contrar":13277,"▁andrea":13278,"tarlo":13279,"iela":13280,"▁informó":13281,"minos":13282,"▁lección":13283,"▁2do":13284,"▁bien...":13285,"▁sports":13286,"▁comprender":13287,"▁stalke":13288,"pada":13289,"▁(al":13290,"▁desco":13291,"▁violar":13292,"▁pagamos":13293,"▁td":13294,"▁arquero":13295,"▁cheque":13296,"at.":13297,"nan":13298,"▁penales":13299,"▁machista":13300,"▁pésimo":13301,"▁sinton":13302,"▁now.":13303,"bul":13304,"▁:'(":13305,"pá":13306,"▁cámaras":13307,"▁lluvias":13308,"▁phone":13309,"▁merecido":13310,"▁outro":13311,"tren":13312,"▁sistemas":13313,"▁imperio":13314,"▁posible.":13315,"▁using":13316,"▁manipu":13317,"tono":13318,"▁children":13319,"▁gin":13320,"▁sobretodo":13321,"▁palma":13322,"ution":13323,"grama":13324,"▁difíciles":13325,",no":13326,"▁oq":13327,"bili":13328,"▁actriz":13329,"▁plis":13330,"▁casar":13331,"▁pymes":13332,"ัน":13333,"▁billboard":13334,"▁capric":13335,"▁huracán":13336,"▁sancion":13337,"▁mito":13338,"▁suman":13339,"mentado":13340,"▁asqueroso":13341,"▁gosto":13342,"▁releas":13343,"▁ofertas":13344,"te..":13345,"▁pade":13346,"▁masiva":13347,"▁posibilidades":13348,"▁portal":13349,"▁foto,":13350,"▁rebo":13351,"▁repara":13352,"▁estaria":13353,"▁bendición":13354,"▁goal":13355,"▁twice":13356,"▁habido":13357,"▁noite":13358,"▁privilegio":13359,"ieras":13360,"▁varia":13361,"▁siii,":13362,"▁obligar":13363,"▁clínica":13364,"▁preparados":13365,"▁penas":13366,"▁filtro":13367,"cloud":13368,"▁dear":13369,"▁domingo.":13370,"▁páginas":13371,"▁canso":13372,"▁manchester":13373,"▁tope":13374,"asta":13375,"▁batman":13376,"hel":13377,"▁fuma":13378,"▁antigua":13379,"▁algo?":13380,"▁personales":13381,"▁cancela":13382,"▁monitor":13383,"▁famosa":13384,"▁llorar.":13385,"▁announ":13386,"▁tradicional":13387,"▁90%":13388,"▁irregular":13389,"iedad":13390,"▁daddy":13391,"▁son,":13392,"▁build":13393,"▁vivos":13394,"▁fut":13395,"▁स":13396,"▁porcenta":13397,"▁convic":13398,"▁alienígena":13399,"▁ceuta":13400,"▁hijuepu":13401,"▁conozca":13402,"▁haremos":13403,"▁imaginate":13404,"▁moro":13405,"▁crazy":13406,"▁fiscales":13407,"aria.":13408,"▁cule":13409,"▁iren":13410,"▁petróleo":13411,"▁mandas":13412,"▁views":13413,"▁extremo":13414,"▁invitado":13415,"▁number":13416,"guito":13417,"▁aboga":13418,"▁esfor":13419,"▁sentado":13420,"▁funciones":13421,"▁¿quien":13422,"dista":13423,"most":13424,"▁lli":13425,"▁quil":13426,"▁mañanas":13427,"jol":13428,"▁wanted":13429,"▁occi":13430,"▁delicia":13431,"▁three":13432,"▁dirán":13433,"▁minutos.":13434,"▁empezado":13435,"▁municipales":13436,"▁mamita":13437,"▁vip":13438,"▁héroe":13439,"▁desbloque":13440,"▁cepeda":13441,"▁13.":13442,"▁manifestantes":13443,"▁sujeto":13444,"▁plano":13445,"▁ocasiones":13446,"▁preguntó":13447,"cú":13448,"cido.":13449,"▁industrial":13450,"▁enojo":13451,"▁compl":13452,"▁piedras":13453,"zos,":13454,"▁persecu":13455,"▁semin":13456,"▁golf":13457,"▁km/h":13458,"ss,":13459,"▁seus":13460,"▁diversidad":13461,"▁imponer":13462,"▁despedida":13463,"siempre":13464,"▁cierran":13465,"▁parís":13466,"▁flip":13467,"▁ricas":13468,"▁rojas":13469,"▁tiros":13470,"▁renunciar":13471,"ida,":13472,"▁detenidos":13473,"▁progreso":13474,"pun":13475,"▁amenazas":13476,"vos,":13477,"▁habra":13478,"55":13479,"▁valenci":13480,"▁hpta":13481,"▁aportar":13482,"▁deve":13483,"▁strong":13484,"▁dormirme":13485,"▁todo...":13486,"times":13487,"▁metiendo":13488,"domin":13489,"▁plantas":13490,"▁ustedes.":13491,"▁politicos":13492,"▁efectivo":13493,"▁alemán":13494,"▁esq":13495,"ín,":13496,"tics":13497,"▁vienes":13498,"▁zaragoza":13499,"away":13500,"▁hijos,":13501,"▁lik":13502,"▁faltas":13503,"▁delicioso":13504,"▁dessa":13505,"ritual":13506,"▁psg":13507,"▁odio,":13508,"dumbre":13509,"▁presa":13510,"▁permanente":13511,"▁conting":13512,"▁panama":13513,"▁mencionar":13514,"▁episode":13515,"▁experto":13516,"▁trip":13517,"bao":13518,"▁cancelar":13519,"▁ganadores":13520,"▁sens":13521,"quei":13522,"bile":13523,"▁odebre":13524,"▁essas":13525,"▁terminamos":13526,"▁reuniones":13527,"!...":13528,"máticos":13529,"▁arruin":13530,"▁cubrebo":13531,"▁informes":13532,"kal":13533,"da?":13534,"▁dirigir":13535,"▁ر":13536,"tine":13537,"guer":13538,"▁parió":13539,"▁poses":13540,"▁mera":13541,"▁considero":13542,"ly.":13543,"ficas":13544,"▁\"nos":13545,"▁presentes":13546,"▁teach":13547,"▁libr":13548,"▁tots":13549,"▁escándalo":13550,"▁pena,":13551,"▁colegas":13552,"where":13553,"▁ventila":13554,"▁humanitaria":13555,"▁modera":13556,"▁smile":13557,"▁creatividad":13558,"▁alma.":13559,"bera":13560,"▁pelicul":13561,"▁arregla":13562,"▁weekend":13563,"▁medina":13564,"▁arce":13565,"cora":13566,"▁espir":13567,"cht":13568,"▁jajaa":13569,"▁order":13570,"▁límites":13571,"ornio":13572,"▁aquest":13573,"▁conser":13574,"▁tapabo":13575,"▁permis":13576,"▁demócra":13577,"▁pinto":13578,"▁inqui":13579,"zas.":13580,"▁sau":13581,"▁competir":13582,"▁ensal":13583,"▁importante.":13584,"▁presentan":13585,"▁de.":13586,"▁favo":13587,"▁conocemos":13588,"▁tc":13589,"▁ocupar":13590,"os?":13591,"▁bajas":13592,"▁mom":13593,"▁fenó":13594,"▁meren":13595,"zos.":13596,"tía":13597,"▁celu":13598,"▁niega":13599,"▁pf":13600,"▁recordando":13601,"▁explota":13602,"▁chiquita":13603,"▁pot":13604,"▁pintor":13605,"▁preocupación":13606,"▁lavado":13607,"▁aprecia":13608,"▁washington":13609,"▁alcance":13610,"▁chen":13611,"▁mtvlafandomaristemofans":13612,"...\".":13613,"doro":13614,"▁cordoba":13615,"▁alguien.":13616,"▁llamó":13617,"▁sams":13618,"▁maquillaje":13619,"▁dándole":13620,"▁doesnt":13621,"▁1a":13622,"▁bro,":13623,"▁frenar":13624,"caras":13625,"▁humildad":13626,"ment.":13627,"▁sola,":13628,"▁cristian":13629,"▁tatuaje":13630,"fri":13631,"▁pior":13632,"▁denuncian":13633,"esen":13634,"▁goes":13635,"olog":13636,"▁coup":13637,"▁salía":13638,"▁spanish":13639,"▁llenos":13640,"▁barca":13641,"▁golpes":13642,"▁arg":13643,"''":13644,"▁bestia":13645,"▁inscripción":13646,"▁peace":13647,"▁verdades":13648,"▁contrario,":13649,"▁corriente":13650,"ctive":13651,"▁continue":13652,"▁ava":13653,"▁así...":13654,"▁tole":13655,"▁soft":13656,"2015":13657,"t!":13658,"ers,":13659,"▁wants":13660,"▁indígenas":13661,"▁definir":13662,"▁waiting":13663,"▁corro":13664,"same":13665,"▁oye,":13666,"▁人":13667,"▁ayu":13668,"▁recib":13669,"▁jj":13670,"▁muñeco":13671,"▁comuna":13672,"▁perspectiva":13673,"▁cabra":13674,"▁(8":13675,"▁jodiendo":13676,"▁explotar":13677,"▁presidentes":13678,"wood":13679,"▁stri":13680,"▁infraestructura":13681,"▁menuda":13682,"▁xo":13683,"▁expe":13684,"▁pene":13685,"▁quedará":13686,"▁sexta":13687,"▁césar":13688,"▁nesse":13689,"rity":13690,"▁digamos":13691,"▁polémica":13692,"▁pertenece":13693,"▁hecho.":13694,"▁público,":13695,"▁dobla":13696,"alla":13697,"▁palabras.":13698,"▁palmas":13699,"eu":13700,"▁nig":13701,"98":13702,"▁inclusión":13703,"▁\"cu":13704,"que,":13705,"▁rul":13706,"▁neoliberal":13707,"▁vacunas":13708,"▁gara":13709,"▁expresar":13710,"▁kno":13711,"▁pui":13712,"ormal":13713,"▁achaga":13714,"▁acceder":13715,"▁miriam":13716,"▁shoo":13717,"▁f.":13718,"▁asia":13719,"▁insomnio":13720,"▁¡con":13721,"▁¿con":13722,"creo":13723,"▁irresponsable":13724,"▁serio.":13725,"▁horri":13726,"▁congratula":13727,"▁votado":13728,"▁dn":13729,"▁besar":13730,"▁continuidad":13731,"log":13732,"di,":13733,"uty":13734,"▁smith":13735,"▁certeza":13736,"스트":13737,"▁caballero":13738,"▁esto...":13739,"▁estrena":13740,"▁rig":13741,"▁dora":13742,"・・":13743,"▁propos":13744,"▁\"b":13745,"▁sushi":13746,"iero":13747,"▁spre":13748,"mió":13749,"▁cuartos":13750,"▁secretaria":13751,"▁credibilidad":13752,"▁cí":13753,"▁tomamos":13754,"cenas":13755,"▁cositas":13756,"▁seguidos":13757,"eno,":13758,"▁campañ":13759,"▁t.":13760,"▁directa":13761,"cci":13762,"▁william":13763,"▁meterse":13764,"▁past":13765,"▁tengo,":13766,"▁extranjero":13767,"mbe":13768,"▁pregún":13769,"▁\"mo":13770,"▁paper":13771,"▁compas":13772,"▁abusos":13773,"▁electricidad":13774,"▁athle":13775,"▁oído":13776,"▁nada!":13777,"▁hahahahahahaha":13778,"da..":13779,"▁19.":13780,"▁jodas":13781,"▁responden":13782,"▁ésto":13783,"▁lleven":13784,"▁rindo":13785,"res,":13786,"▁solo,":13787,"▁recoger":13788,"▁tweet.":13789,"▁infectados":13790,"▁ivan":13791,"▁básicamente":13792,"▁curvándose":13793,"rd":13794,"hei":13795,"▁chileno":13796,"cracia":13797,"▁told":13798,"▁diverti":13799,"▁poké":13800,"▁efica":13801,"▁coña":13802,"▁seremos":13803,"▁lord":13804,"▁suicidio":13805,"ivos":13806,"▁convenio":13807,"▁started":13808,"ologías":13809,"▁seja":13810,"eremos":13811,"▁felicito":13812,"▁dure":13813,"▁moo":13814,"▁parás":13815,"▁cumpla":13816,"ison":13817,"▁\"li":13818,"viva":13819,"▁half":13820,"▁pintura":13821,"▁pou":13822,"▁llueva":13823,"yi":13824,"▁called":13825,"▁nós":13826,"▁parte,":13827,"heiro":13828,"ors":13829,"▁sugar":13830,"▁fuga":13831,"entas":13832,"▁panda":13833,"manos":13834,"▁jama":13835,"▁words":13836,"▁postu":13837,"▁doler":13838,"▁parezco":13839,"▁importante,":13840,"▁pedidos":13841,"tie":13842,"ten,":13843,"▁cacerola":13844,"▁poesía":13845,"▁spot":13846,"▁problema,":13847,"ilo":13848,"arez":13849,"▁costó":13850,"▁gian":13851,"ína":13852,"▁mba":13853,"▁pintar":13854,"▁qualquer":13855,"▁emis":13856,"fla":13857,"▁obligatorio":13858,"▁acá,":13859,"▁speak":13860,"▁destaca":13861,"▁cebol":13862,"▁ls":13863,"▁ilumina":13864,"▁\"bu":13865,"ech":13866,"▁lgbt":13867,"▁gusta.":13868,"▁descubier":13869,"▁estructura":13870,"woo":13871,"▁shot":13872,"dies":13873,"▁___":13874,"vely":13875,"▁marchar":13876,"▁hables":13877,"▁caso.":13878,"rill":13879,"▁augus":13880,"▁plataformas":13881,"▁deal":13882,"▁marica":13883,"▁correcta":13884,"trio":13885,"▁unic":13886,"▁presen":13887,"▁^^":13888,"▁smo":13889,"paz":13890,"▁understand":13891,"▁tiendas":13892,"▁mike":13893,"▁legí":13894,"▁graves":13895,"▁vence":13896,"▁ignacio":13897,"▁puta,":13898,"▁vivan":13899,"|.":13900,"▁corpora":13901,"▁otra.":13902,"▁coti":13903,"▁pronuncia":13904,"▁respondió":13905,"▁24h":13906,"uit":13907,"▁garra":13908,"▁fabr":13909,"▁contund":13910,"▁discre":13911,"▁educativa":13912,"▁tone":13913,"mientos.":13914,"piz":13915,"▁libertad.":13916,"▁41":13917,"2020.":13918,"mundo":13919,"▁nome":13920,"▁porro":13921,"▁espany":13922,"▁lupa":13923,"mous":13924,"éndolo":13925,"▁islas":13926,"mble":13927,"lá":13928,"etín":13929,"▁olla":13930,"▁email":13931,"▁situ":13932,"▁agradecemos":13933,"▁diarios":13934,"▁nike":13935,"▁yor":13936,"▁partidazo":13937,"▁arrepentir":13938,"▁pasa.":13939,"cológ":13940,"▁etern":13941,"▁ña":13942,"▁enojada":13943,"▁retos":13944,"▁tibur":13945,"▁usen":13946,"claro":13947,"▁refres":13948,"▁11:":13949,"▁oreja":13950,"▁pareces":13951,"▁enfrenta":13952,"▁yo?":13953,"▁alturas":13954,"▁privilegios":13955,"▁devel":13956,"▁mecán":13957,"▁prepa":13958,"ctivo":13959,"ries":13960,"▁gets":13961,"▁áreas":13962,"▁***":13963,"▁joga":13964,"fun":13965,"▁disi":13966,"▁conquista":13967,"▁fábr":13968,"po,":13969,"▁tp":13970,"▁refiere":13971,"▁aclarar":13972,"▁mío,":13973,"▁cuén":13974,"▁fuerte,":13975,"▁2:":13976,"ffee":13977,"▁llamadas":13978,"니다":13979,"sia":13980,"▁regi":13981,"▁circunstancias":13982,"usias":13983,"▁nudes":13984,"▁quedes":13985,"▁arquitectura":13986,"pad":13987,"▁conmemo":13988,"field":13989,"▁extranjeros":13990,"▁four":13991,"▁cubanos":13992,"▁imi":13993,"▁ciudad,":13994,"▁aburro":13995,"▁carolina":13996,"▁temor":13997,"▁rs":13998,"▁hacernos":13999,"%,":14000,"▁juego,":14001,"▁carn":14002,"aa!":14003,"▁vara":14004,"▁natalia":14005,"▁vida?":14006,"▁limpio":14007,"▁hour":14008,"▁\"ay":14009,"uren":14010,"▁coman":14011,"▁caña":14012,"aron,":14013,"▁hielo":14014,"▁mortal":14015,"▁02":14016,"▁modelos":14017,"&gt;&gt;&gt;&gt;&gt;&gt;&gt;&gt;":14018,"▁nobel":14019,"▁chicos,":14020,"▁migrantes":14021,"▁roger":14022,"▁sueño,":14023,"▁deserve":14024,"ñana":14025,"▁apetece":14026,"▁legi":14027,"▁felicitar":14028,"▁absoluta":14029,"▁peronismo":14030,"▁bandas":14031,"▁dispuesto":14032,"▁producir":14033,"▁estraté":14034,"▁pensamos":14035,"▁yours":14036,"o?":14037,"▁dud":14038,"▁sentimos":14039,"▁tak":14040,"▁plays":14041,"▁respect":14042,"▁estud":14043,"▁¿será":14044,"▁acabado":14045,"▁ahora?":14046,"▁bode":14047,"▁¡hoy":14048,"▁ciego":14049,"hope":14050,"▁recar":14051,"▁oriente":14052,"▁gabinete":14053,"▁integrantes":14054,"▁estó":14055,"do..":14056,"▁sabían":14057,"▁rene":14058,"▁sic":14059,"tada.":14060,"gate":14061,"▁estuvimos":14062,"respe":14063,"▁mantenimiento":14064,"▁laugh":14065,"▁volta":14066,"▁maldad":14067,"▁07":14068,"ult":14069,"▁acabas":14070,"▁list":14071,"▁votan":14072,"▁apas":14073,"▁dolió":14074,"▁intenso":14075,"▁ascendente":14076,"▁valientes":14077,"▁giro":14078,"▁mariano":14079,"▁cun":14080,"▁ganadora":14081,"▁solidario":14082,"ctrina":14083,"▁quiere,":14084,"dido.":14085,"▁ayer.":14086,"▁lác":14087,"▁\"¡":14088,"▁barto":14089,"▁orgullosos":14090,"▁suya":14091,"▁dolores":14092,"▁paras":14093,"▁orejas":14094,"▁ignorantes":14095,"▁incendios":14096,"ticos,":14097,"▁jubilados":14098,"▁involuc":14099,"tuito":14100,"▁comparación":14101,"▁dosis":14102,"▁jajajajajajaj":14103,"▁estrategias":14104,"argentina":14105,"▁shado":14106,"▁término":14107,"▁tbm":14108,"▁flamengo":14109,"▁santi":14110,"▁está,":14111,"▁¿pero":14112,"▁inma":14113,"▁productor":14114,"jamos":14115,"▁aber":14116,"▁buscas":14117,"▁amable":14118,"▁pantalones":14119,"▁coch":14120,"▁trabajar,":14121,"tista":14122,"▁poronga":14123,"▁dirá":14124,"▁entiendan":14125,"▁poin":14126,"▁cv":14127,"▁palabras,":14128,"▁etiqueta":14129,"▁ayuden":14130,"▁arrastra":14131,"▁avui":14132,"▁años..":14133,"▁podríamos":14134,"▁embajador":14135,"▁vega":14136,"▁creas":14137,"horario":14138,"▁boxeo":14139,"▁ruedas":14140,"▁rami":14141,"▁nfl":14142,"▁sj":14143,"▁fem":14144,"▁relato":14145,"▁\"po":14146,"▁notici":14147,"opol":14148,"▁agradecido":14149,"▁mecan":14150,"▁llé":14151,"▁youtuber":14152,"icor":14153,"▁inevi":14154,"▁lead":14155,"grande":14156,"ten.":14157,"▁compon":14158,"▁falte":14159,"▁bache":14160,"▁trampa":14161,"▁loves":14162,"ird":14163,"▁fallas":14164,"▁hinchada":14165,"▁encuentras":14166,"▁fred":14167,"▁supi":14168,"▁extrañ":14169,"caso":14170,"el_":14171,"▁detiene":14172,"▁🏟":14173,"▁serpiente":14174,"▁cague":14175,"▁blas":14176,"▁(como":14177,"▁invitan":14178,"▁subí":14179,"▁silva":14180,"▁eurovision":14181,"▁decia":14182,"▁salarios":14183,"▁funcionario":14184,"▁vu":14185,"▁limpi":14186,"▁cuo":14187,"▁parab":14188,"▁metropolit":14189,"▁أ":14190,"▁crying":14191,"tofthe":14192,"▁act":14193,"▁inicial":14194,"▁almor":14195,"▁aconse":14196,"▁inscripciones":14197,"▁supero":14198,"-8":14199,"▁inflación":14200,"▁gracias!!":14201,"▁dedi":14202,"▁analiza":14203,"▁bombilla":14204,"▁valga":14205,"▁aaah":14206,"▁tristes":14207,"▁apagar":14208,"▁l.":14209,"▁realizan":14210,"▁violenta":14211,"▁creo.":14212,"▁supo":14213,"▁bienes":14214,"▁dois":14215,"onó":14216,"▁oficinas":14217,"▁noble":14218,"ces.":14219,"tría":14220,"mers":14221,"▁adopta":14222,"▁autobús":14223,"▁magic":14224,"▁cosita":14225,"▁dudar":14226,"▁hidro":14227,"▁¡muchas":14228,"▁dais":14229,"feliz":14230,"chat":14231,"▁pokémon":14232,"idu":14233,"▁astro":14234,"▁$$":14235,"▁15.":14236,"▁hambre,":14237,"▁cansancio":14238,"▁normal.":14239,"▁windo":14240,"▁contradic":14241,"▁reporta":14242,"▁famí":14243,"▁english":14244,"▁provocar":14245,"▁leas":14246,"▁taaan":14247,"▁juárez":14248,"▁deixa":14249,"▁agresión":14250,"▁pate":14251,"tráfico":14252,"▁atacan":14253,"▁gob":14254,"▁arturo":14255,"▁nefasto":14256,"▁pendejadas":14257,"▁pronun":14258,"▁tema.":14259,"▁outra":14260,"▁temblor":14261,"▁usd":14262,"▁después,":14263,"▁libre.":14264,"▁reún":14265,"ingui":14266,"▁(10":14267,"▁básica":14268,"▁time.":14269,"▁supervi":14270,
[...]
