{"version":"1.0","truncation":null,"padding":null,"added_tokens":[{"id":0,"special":true,"content":"<s>","single_word":false,"lstrip":false,"rstrip":false,"normalized":false},{"id":1,"special":true,"content":"<pad>","single_word":false,"lstrip":false,"rstrip":false,"normalized":false},{"id":2,"special":true,"content":"</s>","single_word":false,"lstrip":false,"rstrip":false,"normalized":false},{"id":3,"special":true,"content":"<unk>","single_word":false,"lstrip":false,"rstrip":false,"normalized":false},{"id":4,"special":true,"content":"<mask>","single_word":false,"lstrip":false,"rstrip":false,"normalized":false}],"normalizer":{"type":"Sequence","normalizers":[{"type":"NFKC"},{"type":"BertNormalizer","clean_text":true,"handle_chinese_chars":true,"strip_accents":true,"lowercase":true},{"type":"Replace","pattern":{"Regex":"(\\W)?@usuario(\\W)"},"content":" @usuario "},{"type":"Replace","pattern":{"String":"hashtag"},"content":" hashtag "},{"type":"Replace","pattern":{"Regex":"(\\W)url(\\W)"},"content":" url "},{"type":"Replace","pattern":{"String":"http://url"},"content":" url "}]},"pre_tokenizer":{"type":"Metaspace","replacement":"▁","add_prefix_space":true},"post_processor":{"type":"RobertaProcessing","sep":["</s>",2],"cls":["<s>",0],"trim_offsets":true,"add_prefix_space":true},"decoder":{"type":"Metaspace","replacement":"▁","add_prefix_space":true},"model":{"type":"BPE","dropout":null,"unk_token":null,"continuing_subword_prefix":null,"end_of_word_suffix":null,"fuse_unk":false,"vocab":{"<s>":0,"<pad>":1,"</s>":2,"<unk>":3,"<mask>":4,"!":5,"\"":6,"#":7,"$":8,"%":9,"&":10,"'":11,"(":12,")":13,"*":14,"+":15,",":16,"-":17,".":18,"/":19,"0":20,"1":21,"2":22,"3":23,"4":24,"5":25,"6":26,"7":27,"8":28,"9":29,":":30,";":31,"=":32,"?":33,"@":34,"[":35,"\\":36,"]":37,"^":38,"_":39,"`":40,"a":41,"b":42,"c":43,"d":44,"e":45,"f":46,"g":47,"h":48,"i":49,"j":50,"k":51,"l":52,"m":53,"n":54,"o":55,"p":56,"q":57,"r":58,"s":59,"t":60,"u":61,"v":62,"w":63,"x":64,"y":65,"z":66,"{":67,"|":68,"}":69,"¡":70,"®":71,"¿":72,"ı":73,"ł":74,"ɪ":75,"ɴ":76,"ʀ":77,"ʟ":78,"α":79,"ε":80,"ι":81,"ο":82,"σ":83,"τ":84,"υ":85,"а":86,"б":87,"в":88,"г":89,"д":90,"е":91,"з":92,"и":93,"к":94,"л":95,"м":96,"н":97,"о":98,"п":99,"р":100,"с":101,"т":102,"у":103,"ч":104,"ы":105,"ь":106,"я":107,"،":108,"ا":109,"ب":110,"ة":111,"ت":112,"ج":113,"ح":114,"خ":115,"د":116,"ذ":117,"ر":118,"ز":119,"س":120,"ش":121,"ص":122,"ض":123,"ط":124,"ع":125,"غ":126,"ف":127,"ق":128,"ك":129,"ل":130,"م":131,"ن":132,"ه":133,"و":134,"ى":135,"ي":136,"پ":137,"ک":138,"گ":139,"ں":140,"ھ":141,"ہ":142,"ی":143,"ے":144,"क":145,"ग":146,"ज":147,"त":148,"द":149,"न":150,"प":151,"ब":152,"म":153,"य":154,"र":155,"ल":156,"व":157,"स":158,"ह":159,"ा":160,"ि":161,"ी":162,"ो":163,"க":164,"ட":165,"த":166,"ன":167,"ப":168,"ம":169,"ர":170,"ல":171,"வ":172,"ா":173,"ி":174,"ு":175,"ก":176,"ข":177,"ค":178,"ง":179,"จ":180,"ช":181,"ด":182,"ต":183,"ถ":184,"ท":185,"น":186,"บ":187,"ป":188,"พ":189,"ม":190,"ย":191,"ร":192,"ล":193,"ว":194,"ส":195,"ห":196,"อ":197,"ะ":198,"า":199,"เ":200,"แ":201,"โ":202,"ใ":203,"ไ":204,"ᄀ":205,"ᄁ":206,"ᄂ":207,"ᄃ":208,"ᄄ":209,"ᄅ":210,"ᄆ":211,"ᄇ":212,"ᄈ":213,"ᄉ":214,"ᄊ":215,"ᄋ":216,"ᄌ":217,"ᄍ":218,"ᄎ":219,"ᄏ":220,"ᄐ":221,"ᄑ":222,"ᄒ":223,"ᅠ":224,"ᅡ":225,"ᅢ":226,"ᅣ":227,"ᅥ":228,"ᅦ":229,"ᅧ":230,"ᅨ":231,"ᅩ":232,"ᅪ":233,"ᅬ":234,"ᅭ":235,"ᅮ":236,"ᅯ":237,"ᅱ":238,"ᅲ":239,"ᅳ":240,"ᅴ":241,"ᅵ":242,"ᆨ":243,"ᆫ":244,"ᆯ":245,"ᆷ":246,"ᆸ":247,"ᆺ":248,"ᆻ":249,"ᆼ":250,"ᇂ":251,"ᥱ":252,"ᥲ":253,"ᴀ":254,"ᴄ":255,"ᴅ":256,"ᴇ":257,"ᴍ":258,"ᴏ":259,"ᴛ":260,"ᴜ":261,"⃣":262,"→":263,"⏱":264,"─":265,"━":266,"┃":267,"┊":268,"┏":269,"┓":270,"┗":271,"┛":272,"═":273,"▁":274,"█":275,"▪":276,"▶":277,"►":278,"☀":279,"★":280,"☆":281,"♪":282,"♫":283,"⚠":284,"✏":285,"✔":286,"❄":287,"❣":288,"➡":289,"⠀":290,"⬇":291,"、":292,"。":293,"》":294,"「":295,"」":296,"『":297,"』":298,"【":299,"】":300,"あ":301,"い":302,"う":303,"え":304,"お":305,"か":306,"き":307,"く":308,"け":309,"こ":310,"さ":311,"し":312,"す":313,"せ":314,"そ":315,"た":316,"ち":317,"っ":318,"つ":319,"て":320,"と":321,"な":322,"に":323,"ね":324,"の":325,"は":326,"ま":327,"み":328,"め":329,"も":330,"ゃ":331,"や":332,"よ":333,"ら":334,"り":335,"る":336,"れ":337,"ろ":338,"わ":339,"を":340,"ん":341,"ア":342,"ィ":343,"イ":344,"ウ":345,"エ":346,"オ":347,"カ":348,"キ":349,"ク":350,"ケ":351,"コ":352,"サ":353,"シ":354,"ス":355,"セ":356,"タ":357,"チ":358,"ッ":359,"ツ":360,"テ":361,"ト":362,"ナ":363,"ニ":364,"ノ":365,"ハ":366,"ヒ":367,"フ":368,"ヘ":369,"ホ":370,"マ":371,"ミ":372,"ム":373,"メ":374,"ャ":375,"ュ":376,"ョ":377,"ラ":378,"リ":379,"ル":380,"レ":381,"ロ":382,"ン":383,"・":384,"一":385,"中":386,"人":387,"今":388,"大":389,"年":390,"日":391,"時":392,"月":393,"本":394,"生":395,"見":396,"🌧":397,"🎙":398,"🏟":399,"👁":400,"📽":401,"🕊":402,"🗓":403,"🗣":404,"▁e":405,"ar":406,"▁d":407,"▁c":408,"mo":409,"io":410,"▁p":411,"▁l":412,"as":413,"▁de":414,"▁a":415,"en":416,"▁s":417,"er":418,"▁m":419,"an":420,"us":421,"ji":422,"▁emo":423,"▁emoji":424,"on":425,"▁t":426,"os":427,"ario":428,"ue":429,"usu":430,"usuario":431,"@usuario":432,"▁@usuario":433,"or":434,"▁h":435,"ta":436,"▁u":437,"es":438,"▁q":439,"do":440,"▁n":441,"▁es":442,"in":443,"▁que":444,"▁y":445,"▁la":446,"re":447,"▁v":448,"al":449,"rl":450,"▁url":451,"▁en":452,"▁f":453,"is":454,"te":455,"ara":456,"▁b":457,"ic":458,"▁el":459,"da":460,"▁con":461,"ra":462,"ia":463,"▁has":464,"ien":465,"▁no":466,"tag":467,"▁hash":468,"▁hashtag":469,"to":470,"▁un":471,"▁g":472,"▁me":473,"..":474,"ro":475,"ac":476,"▁se":477,"▁o":478,"ion":479,"ol":480,"ja":481,"▁cara":482,"ando":483,"le":484,"▁co":485,"un":486,"mp":487,"▁por":488,"de":489,"la":490,"▁re":491,"ti":492,"▁al":493,"▁si":494,"▁lo":495,"▁r":496,"▁los":497,"▁to":498,"▁per":499,"▁i":500,"▁in":501,"el":502,"ch":503,"ab":504,"ui":505,"▁mi":506,"mos":507,"ri":508,"▁j":509,"▁.":510,"go":511,"am":512,"▁para":513,"▁te":514,"▁cu":515,"ora":516,"▁su":517,"ci":518,"▁an":519,"ma":520,"dos":521,"lo":522,"▁del":523,"▁man":524,"iendo":525,"▁las":526,"jaja":527,"ente":528,"il":529,"ida":530,"it":531,"▁una":532,"▁esta":533,"ec":534,"▁le":535,"▁son":536,"era":537,"▁mas":538,"...":539,"ir":540,"ca":541,"▁mu":542,"tr":543,"▁di":544,"▁des":545,"▁w":546,"▁hac":547,"▁ha":548,"res":549,"co":550,"gu":551,"cion":552,"!!":553,"ad":554,"zon":555,"tu":556,"▁so":557,"▁yo":558,"▁th":559,"cu":560,"acion":561,"que":562,"▁mo":563,"ba":564,"▁como":565,"me":566,"▁ch":567,"ent":568,"ga":569,"▁ll":570,"ero":571,"▁cora":572,"▁corazon":573,"▁\"":574,"▁pro":575,"▁ten":576,"jo":577,"▁1":578,"ues":579,"▁pero":580,"▁ca":581,"▁pa":582,"▁est":583,"▁llor":584,"ul":585,"isa":586,"ran":587,"oy":588,"▁ver":589,"ie":590,"▁ar":591,"▁as":592,"ter":593,"▁ex":594,"di":595,"▁ya":596,"▁ap":597,"▁2":598,"▁tu":599,"mb":600,"ica":601,"ing":602,"ana":603,"▁pi":604,"▁llorando":605,"▁po":606,"ez":607,"▁par":608,"uer":609,"▁risa":610,"tos":611,"▁ser":612,"tes":613,"iv":614,"tra":615,"jos":616,"▁sonr":617,"▁ma":618,"id":619,"cia":620,"ico":621,"▁cl":622,"tas":623,"qui":624,"ono":625,"uen":626,"iz":627,"ada":628,"dio":629,"▁ac":630,"▁sol":631,"▁qui":632,"tar":633,"idad":634,"▁sal":635,"mi":636,"▁pas":637,"son":638,"▁the":639,"ier":640,"▁va":641,"se":642,"tor":643,"▁pue":644,"▁esp":645,"▁k":646,"▁sonriendo":647,"ten":648,"▁ro":649,"▁ojos":650,"dad":651,"ina":652,"▁todo":653,"tro":654,"av":655,"ios":656,"▁tra":657,"▁pe":658,"▁person":659,"▁esto":660,"men":661,"▁ah":662,"vo":663,"▁jaja":664,"ib":665,"va":666,"no":667,"ur":668,"▁este":669,"ud":670,"▁pre":671,"aro":672,"▁tien":673,"▁buen":674,"lan":675,"ve":676,"za":677,"▁hab":678,"▁ab":679,"▁com":680,"cha":681,"▁sin":682,"▁res":683,"ita":684,"▁cas":685,"▁mis":686,"▁dia":687,"pa":688,"ice":689,"▁nos":690,"▁mar":691,"gar":692,"▁cuando":693,"▁can":694,"▁tan":695,"mas":696,"so":697,"▁comp":698,"▁mano":699,"▁piel":700,"der":701,"▁hay":702,"das":703,"ce":704,"▁tono":705,"▁ra":706,"▁sab":707,"▁(":708,"ha":709,"▁cre":710,"amb":711,"▁-":712,"ru":713,"cho":714,"tan":715,"po":716,"▁¿":717,"ens":718,"▁gra":719,"ver":720,"▁pu":721,"▁he":722,"ig":723,"ado":724,"je":725,"▁cor":726,"▁claro":727,"oo":728,"▁ne":729,"gun":730,"▁or":731,"ales":732,"▁porque":733,"▁lle":734,"▁ven":735,"▁hoy":736,"tic":737,"▁todos":738,"!!!":739,"▁manos":740,"man":741,"jor":742,"00":743,"les":744,"▁mal":745,"▁asi":746,"▁car":747,"▁qu":748,"ut":749,"??":750,"des":751,"cias":752,"▁mejor":753,"▁sen":754,"per":755,"▁do":756,"▁ni":757,"▁bo":758,"▁ho":759,"▁eso":760,"▁ent":761,"▁for":762,"▁da":763,"▁solo":764,"▁dis":765,"▁bien":766,"ito":767,"min":768,"pe":769,"▁ban":770,"ras":771,"▁of":772,"los":773,"▁men":774,"▁go":775,"mente":776,"eces":777,"▁fuer":778,"bre":779,"▁persona":780,"▁pres":781,"▁imp":782,"▁sus":783,"▁fel":784,"ts":785,"▁cos":786,"▁ju":787,"dor":788,"▁amo":789,"ho":790,"▁3":791,"▁col":792,"▁hacer":793,"▁rev":794,"ena":795,"ista":796,"▁cal":797,"▁ti":798,"▁¡":799,"mar":800,"emos":801,"▁be":802,"ias":803,"▁and":804,"▁medio":805,"▁lu":806,"▁nada":807,"▁fr":808,"▁gran":809,"▁fue":810,"emp":811,"▁pri":812,"▁vo":813,"at":814,"ll":815,"ano":816,"den":817,"▁muy":818,"▁us":819,"ido":820,"▁on":821,"▁fin":822,"iento":823,"▁don":824,"▁les":825,"▁vida":826,"▁tiene":827,"ino":828,"gan":829,"du":830,"▁estoy":831,"▁ta":832,"tal":833,"▁ami":834,"▁x":835,"zo":836,"▁fav":837,"▁dor":838,"▁san":839,"▁quiero":840,"ble":841,"empre":842,"▁nues":843,"▁na":844,"▁siempre":845,"▁gente":846,"▁emp":847,"▁hace":848,"▁20":849,"▁her":850,"▁tengo":851,"▁ter":852,"et":853,"▁ahora":854,"por":855,"fic":856,"▁pol":857,"▁is":858,"gra":859,"▁gracias":860,"▁ve":861,"gui":862,"▁vi":863,"olv":864,"▁ay":865,"iste":866,"▁gu":867,"▁ba":868,"▁mun":869,"▁fal":870,"▁nue":871,"be":872,"che":873,"▁you":874,"uel":875,"▁gan":876,"▁fo":877,"▁pon":878,"▁favor":879,"ren":880,"dose":881,"ven":882,"for":883,"▁hacia":884,"ces":885,"aa":886,"tros":887,"▁quien":888,"mer":889,"▁dos":890,"bl":891,"ke":892,"pues":893,"▁gus":894,"▁fuerte":895,"▁cer":896,"20":897,"o,":898,"▁mad":899,"▁:":900,"▁fe":901,"jer":902,"▁,":903,"car":904,"▁anos":905,"tras":906,"ros":907,"enta":908,"▁cons":909,"▁min":910,"▁traba":911,"▁li":912,"▁hi":913,"▁sobre":914,"▁inter":915,"▁voy":916,"van":917,"dera":918,"encia":919,"▁ja":920,"iendose":921,"▁4":922,"▁hu":923,"▁viv":924,"pon":925,"▁hasta":926,"▁tamb":927,"▁fu":928,"▁val":929,"con":930,"es,":931,"a,":932,"▁cab":933,"ber":934,"▁bes":935,"▁feliz":936,"as,":937,"▁pens":938,"▁jo":939,"ian":940,"▁quier":941,"▁revolv":942,"▁neces":943,"▁real":944,"▁deci":945,"can":946,"▁revolviendose":947,"▁dic":948,"▁vez":949,"▁estar":950,"▁5":951,"▁jjaja":952,"▁ir":953,"jar":954,"▁much":955,"▁nun":956,"▁ind":957,"lar":958,"▁quer":959,"ador":960,"mpo":961,"▁tambien":962,"fe":963,"▁algo":964,"▁bandera":965,"▁cam":966,"▁mucho":967,"▁ese":968,"▁pr":969,"gue":970,"ay":971,"ante":972,"las":973,"▁nunca":974,"▁os":975,"rar":976,"fer":977,"es.":978,"▁ins":979,"▁soy":980,"ee":981,"iente":982,"▁au":983,"th":984,"▁entre":985,"▁puede":986,"▁pel":987,"▁desde":988,"▁pos":989,"erda":990,"▁lin":991,"os,":992,"ip":993,"▁apla":994,"▁toda":995,"tiv":996,"▁esc":997,"▁reg":998,"▁estan":999,"▁via":1000,"a.":1001,"▁rec":1002,"▁lib":1003,"ed":1004,"o.":1005,"▁tw":1006,"▁esa":1007,"▁bar":1008,"vid":1009,"▁pla":1010,"▁du":1011,"mbre":1012,"cial":1013,"▁estu":1014,"dar":1015,"▁dias":1016,"im":1017,"ciones":1018,"19":1019,"▁aplaud":1020,"cer":1021,"tir":1022,"▁mes":1023,"▁exp":1024,"▁donde":1025,"▁eu":1026,"ientes":1027,"ala":1028,"▁dere":1029,"▁tie":1030,"▁aplaudiendo":1031,"bo":1032,"▁mus":1033,"gos":1034,"tiva":1035,"▁era":1036,"dic":1037,"▁jun":1038,"nos":1039,"ece":1040,"▁tener":1041,"▁fle":1042,"ismo":1043,"ly":1044,"▁rep":1045,"▁pais":1046,"▁segui":1047,"▁vide":1048,"dia":1049,"▁dios":1050,"tin":1051,"▁we":1052,"guien":1053,"▁menos":1054,"▁ce":1055,"▁dar":1056,"mento":1057,"\".":1058,"▁his":1059,"bier":1060,"▁algun":1061,"eno":1062,"as.":1063,"▁verdad":1064,"▁casa":1065,"bol":1066,"▁ob":1067,"tido":1068,"ima":1069,"▁cada":1070,"toria":1071,"▁mundo":1072,"qu":1073,"▁jus":1074,"ya":1075,"▁ano":1076,"▁alguien":1077,"▁indice":1078,"▁aqui":1079,"ies":1080,"ton":1081,"▁contra":1082,"▁bol":1083,"▁op":1084,"▁mujer":1085,"▁super":1086,"▁vol":1087,"▁mon":1088,"▁dorso":1089,"▁pues":1090,"amente":1091,"aba":1092,"▁pan":1093,"▁cosas":1094,"▁sa":1095,"▁pen":1096,"▁gen":1097,"mana":1098,"▁igu":1099,"istas":1100,"aron":1101,"▁corazones":1102,"▁ad":1103,"▁nad":1104,"▁hor":1105,"▁aun":1106,"gas":1107,"ge":1108,"rado":1109,"▁estas":1110,"▁sea":1111,"sa":1112,"via":1113,"▁cono":1114,"▁amor":1115,"▁vamos":1116,"tando":1117,"▁vis":1118,"ves":1119,"▁ci":1120,"uela":1121,"▁sac":1122,"▁jue":1123,"par":1124,"ers":1125,"?.":1126,"lti":1127,"um":1128,"▁uno":1129,"▁publ":1130,"tion":1131,"▁mer":1132,"imo":1133,"don":1134,"ria":1135,"▁escu":1136,"rec":1137,"▁fac":1138,"▁ol":1139,"os.":1140,"▁tar":1141,"tado":1142,"▁camb":1143,"▁han":1144,"▁igual":1145,"▁tran":1146,"▁ga":1147,"▁nadie":1148,"▁it":1149,"▁lla":1150,"▁pal":1151,"zando":1152,"ine":1153,"▁manana":1154,"▁blan":1155,"▁at":1156,"▁equi":1157,"▁bas":1158,"▁pun":1159,"ible":1160,"ment":1161,"▁cual":1162,"to,":1163,"▁mismo":1164,"▁impor":1165,"▁gobier":1166,"▁bus":1167,"▁frente":1168,"▁conf":1169,"▁despues":1170,"▁lan":1171,"▁creo":1172,"cio":1173,"tura":1174,"▁tiempo":1175,"▁van":1176,"ones":1177,"ps":1178,"▁6":1179,"gn":1180,"▁mex":1181,"▁10":1182,"cas":1183,"▁ganas":1184,"▁def":1185,"olo":1186,"▁pes":1187,"???":1188,"ris":1189,"▁fam":1190,"▁rojo":1191,"▁may":1192,"if":1193,"▁mam":1194,"▁tanto":1195,"▁puedo":1196,"gua":1197,"▁decir":1198,"▁ulti":1199,"!.":1200,"▁otro":1201,"anos":1202,"▁vos":1203,"▁...":1204,"▁personas":1205,"▁levan":1206,"ial":1207,"ision":1208,"bajo":1209,"▁cuenta":1210,"▁video":1211,"cuer":1212,"▁segu":1213,"▁otra":1214,"▁haciendo":1215,"tre":1216,"▁tienen":1217,"▁cump":1218,"tivo":1219,"iar":1220,"▁presid":1221,"duc":1222,"▁inc":1223,"▁bueno":1224,"▁mil":1225,"▁cap":1226,"▁esper":1227,"▁inf":1228,"▁#":1229,"▁venez":1230,"▁ag":1231,"▁famil":1232,"ck":1233,"▁af":1234,"to.":1235,"▁gobierno":1236,"▁final":1237,"▁boca":1238,"▁7":1239,"▁cul":1240,"ted":1241,"arios":1242,"lla":1243,"t;":1244,"ame":1245,"▁8":1246,"ola":1247,"▁plan":1248,"▁dice":1249,"▁vuel":1250,"▁beso":1251,"▁grande":1252,"itar":1253,"▁this":1254,"pas":1255,"jajajaja":1256,"cal":1257,"▁nuevo":1258,"▁abajo":1259,"▁tal":1260,"▁my":1261,"▁tr":1262,"ach":1263,"▁prim":1264,"▁mierda":1265,"▁polit":1266,"▁dan":1267,"rib":1268,"na":1269,"▁ahi":1270,"ia,":1271,"li":1272,"▁bal":1273,"ores":1274,"js":1275,"▁pasa":1276,"▁az":1277,"eza":1278,"▁den":1279,"icos":1280,"▁am":1281,"illa":1282,"▁semana":1283,"▁infor":1284,"▁todas":1285,"▁cir":1286,"▁fut":1287,"cel":1288,"▁comun":1289,"ile":1290,"▁gusta":1291,"▁eres":1292,"ia.":1293,"▁ale":1294,"gent":1295,"tada":1296,"▁z":1297,"▁abra":1298,"do,":1299,"▁gol":1300,"gen":1301,"ill":1302,"▁sh":1303,"▁antes":1304,"acional":1305,"▁poco":1306,"mon":1307,"do.":1308,"▁nuestro":1309,"▁ima":1310,"▁segun":1311,"miento":1312,"s.":1313,"▁9":1314,"dan":1315,"ril":1316,"▁arri":1317,"▁poder":1318,"ith":1319,"▁sonrientes":1320,"▁estos":1321,"▁pin":1322,"▁vic":1323,"guen":1324,"▁muer":1325,"aciones":1326,"▁derecha":1327,"▁futbol":1328,"▁estamos":1329,"br":1330,"▁foto":1331,"▁pregun":1332,"▁sub":1333,"▁inv":1334,"ea":1335,"una":1336,"▁blanco":1337,"mir":1338,"▁mie":1339,"▁&":1340,"▁camp":1341,"▁fa":1342,"haha":1343,"pen":1344,"▁fun":1345,"▁wh":1346,"▁rt":1347,"▁clas":1348,"ne":1349,"'s":1350,"▁sera":1351,"▁that":1352,"▁queda":1353,"▁veces":1354,"pi":1355,"▁trabajo":1356,"idades":1357,"▁mexico":1358,"▁deb":1359,"▁parte":1360,"ona":1361,"▁tus":1362,"udad":1363,"▁momento":1364,"▁sos":1365,"▁parece":1366,"inos":1367,"▁temp":1368,"ds":1369,"uda":1370,"tante":1371,"culo":1372,"▁falta":1373,"▁cele":1374,"▁tor":1375,").":1376,":.":1377,"e.":1378,"yo":1379,"▁twit":1380,"▁argent":1381,"char":1382,"▁arriba":1383,"▁hermos":1384,"▁acab":1385,"▁dec":1386,"▁extr":1387,"▁bon":1388,"▁felic":1389,"macion":1390,"▁somos":1391,"si":1392,"▁noche":1393,"▁music":1394,"▁ciudad":1395,"til":1396,"mia":1397,"▁0":1398,"▁pod":1399,"▁termin":1400,"xion":1401,"tv":1402,"▁deja":1403,"▁with":1404,"ub":1405,"entes":1406,"alo":1407,"▁trans":1408,"▁apoy":1409,"▁apro":1410,"▁azul":1411,"▁av":1412,"▁perf":1413,"able":1414,"▁..":1415,"icia":1416,"▁fl":1417,"▁vas":1418,"▁estaba":1419,"ta,":1420,"▁ojo":1421,"▁ellos":1422,"▁salud":1423,"▁vio":1424,"ks":1425,"▁cri":1426,"e,":1427,"jas":1428,"▁|":1429,"tad":1430,"ta.":1431,"itos":1432,"▁venezuela":1433,"icio":1434,"▁presidente":1435,"▁hora":1436,"▁colo":1437,"▁paso":1438,"▁ben":1439,"ron":1440,"icion":1441,"▁pra":1442,"ridad":1443,"▁ella":1444,"▁covid":1445,"igh":1446,"irus":1447,"pp":1448,"titu":1449,"▁?":1450,"gia":1451,"amp":1452,"▁lanzando":1453,"▁sor":1454,"▁madre":1455,"lic":1456,"ensa":1457,"▁direc":1458,"▁vien":1459,"tica":1460,"▁ade":1461,"▁pl":1462,"blo":1463,"ular":1464,"▁201":1465,"▁mor":1466,"▁har":1467,"▁oracion":1468,"▁fuego":1469,"▁respon":1470,"tual":1471,"▁frio":1472,"▁cuar":1473,"▁prof":1474,"▁historia":1475,"▁nuestra":1476,"lante":1477,"▁nor":1478,"trar":1479,"pos":1480,"ieron":1481,"mes":1482,"▁dormir":1483,"▁dejar":1484,"ula":1485,"▁nao":1486,"▁mill":1487,"▁sec":1488,"▁proble":1489,"vi":1490,"rr":1491,"var":1492,"▁!":1493,"▁senal":1494,"ack":1495,"quier":1496,"▁quiere":1497,"▁aca":1498,"▁je":1499,"▁salir":1500,"ban":1501,"▁buena":1502,"▁elec":1503,"▁19":1504,"▁pelo":1505,"▁flecha":1506,"▁demas":1507,"gro":1508,"▁partido":1509,"eron":1510,"▁primer":1511,"rid":1512,"▁estado":1513,"▁fi":1514,"▁espana":1515,"low":1516,"▁bel":1517,"▁gri":1518,"▁jug":1519,"vio":1520,"▁fan":1521,"dores":1522,"▁are":1523,"▁em":1524,"zar":1525,"▁unos":1526,"eo":1527,"quen":1528,"▁tenemos":1529,"▁ide":1530,"▁comer":1531,"gt;":1532,"....":1533,"▁muchas":1534,"izo":1535,"▁nueva":1536,"▁miedo":1537,"ite":1538,"aca":1539,"▁social":1540,"ss":1541,"▁marca":1542,"idos":1543,"ff":1544,"eral":1545,"inando":1546,"tico":1547,"▁homb":1548,"illo":1549,"▁mtv":1550,"▁circulo":1551,"ka":1552,"pcion":1553,"iones":1554,"ulo":1555,"mal":1556,"▁mira":1557,"▁fuera":1558,"▁compar":1559,"▁equipo":1560,"▁dol":1561,"▁amigo":1562,"▁cuer":1563,"eando":1564,"iso":1565,"▁pensa":1566,"ich":1567,"▁ning":1568,"adas":1569,"cur":1570,"▁seguir":1571,"ital":1572,"▁dijo":1573,"▁estre":1574,"▁tele":1575,"▁poner":1576,"▁cier":1577,"▁twitter":1578,"▁hecho":1579,"cuerdo":1580,"antes":1581,"▁puta":1582,"▁vie":1583,"▁peor":1584,"gres":1585,"▁hacen":1586,"000":1587,"▁amar":1588,"▁din":1589,"▁sabe":1590,"use":1591,"▁hablar":1592,"▁argentina":1593,"▁mien":1594,"otros":1595,"▁siento":1596,"lus":1597,"▁esos":1598,"▁ec":1599,"▁cuan":1600,"▁amigos":1601,"iceps":1602,"aran":1603,"▁dej":1604,"▁biceps":1605,"▁by":1606,"▁sigue":1607,"xionado":1608,"▁buenos":1609,"▁len":1610,"ii":1611,"▁fer":1612,"eci":1613,"▁cumple":1614,"nes":1615,"ale":1616,"len":1617,"▁saber":1618,"▁flexionado":1619,"y.":1620,"▁recor":1621,"▁pul":1622,"▁veo":1623,"elo":1624,"vil":1625,"▁sudor":1626,"▁deber":1627,"▁primera":1628,"▁chis":1629,"tel":1630,"▁wha":1631,"tru":1632,"▁domin":1633,"tur":1634,"▁debe":1635,"entro":1636,"▁necesito":1637,"uta":1638,"▁cui":1639,"▁bab":1640,"▁nacional":1641,"tis":1642,"▁reci":1643,"▁desa":1644,"▁xd":1645,"iencia":1646,"dido":1647,"llo":1648,"▁tro":1649,"cios":1650,"▁pensativa":1651,"para":1652,"▁lugar":1653,"ior":1654,"▁ros":1655,"▁encan":1656,"▁cris":1657,"▁si,":1658,"tadas":1659,"▁tenia":1660,"▁your":1661,"itas":1662,"▁bu":1663,"kk":1664,"ual":1665,"▁cru":1666,"▁che":1667,"▁pueblo":1668,"op":1669,"▁pien":1670,"ucion":1671,"ere":1672,"icas":1673,"fa":1674,"▁agu":1675,"▁balon":1676,"t.":1677,"sion":1678,"▁pueden":1679,"▁colomb":1680,"jala":1681,"▁enten":1682,"▁triste":1683,"▁interes":1684,"tedes":1685,"▁hombre":1686,"uego":1687,"▁mientras":1688,"ecto":1689,"▁auto":1690,"hh":1691,"▁morado":1692,"bacion":1693,"▁espero":1694,"▁mayor":1695,"▁tienes":1696,"▁ley":1697,"▁madrid":1698,"demos":1699,"▁pasar":1700,"ira":1701,"mm":1702,"uu":1703,"▁intern":1704,"bar":1705,"ep":1706,"rir":1707,"llas":1708,"▁imag":1709,"▁amb":1710,"▁mos":1711,"▁15":1712,"▁habia":1713,"▁*":1714,"cos":1715,"▁aten":1716,"▁cabeza":1717,"▁sho":1718,"▁wor":1719,"▁[":1720,"\",":1721,"▁coron":1722,"▁aunque":1723,"▁med":1724,"▁gru":1725,"ting":1726,"▁unico":1727,"▁ustedes":1728,"▁respe":1729,"▁love":1730,"▁disf":1731,"eta":1732,"▁tec":1733,"▁apar":1734,"entar":1735,"▁seria":1736,"▁ojala":1737,"▁habla":1738,"rom":1739,"▁/":1740,"imos":1741,"▁amiga":1742,"▁'":1743,"▁guinando":1744,"▁muchos":1745,"▁tarde":1746,"▁ayer":1747,"▁forma":1748,"▁otros":1749,"▁encon":1750,"eros":1751,"▁fotos":1752,"▁apren":1753,"gado":1754,"▁ev":1755,"▁new":1756,"▁haber":1757,"▁horas":1758,"▁fran":1759,"ger":1760,"ry":1761,"▁casi":1762,"▁cur":1763,"▁luego":1764,"▁profes":1765,"dir":1766,"▁like":1767,"▁lindo":1768,"ty":1769,"pm":1770,"▁vac":1771,"▁hizo":1772,"▁volver":1773,"cen":1774,"▁familia":1775,"▁:(":1776,"▁unas":1777,"▁liber":1778,"▁gas":1779,"ura":1780,"▁digo":1781,"▁ele":1782,"s,":1783,"▁serv":1784,"▁dicen":1785,"da,":1786,"lando":1787,"▁tipo":1788,"ccion":1789,"▁12":1790,"▁loco":1791,"port":1792,"te.":1793,"▁odio":1794,"ticia":1795,"▁cosa":1796,"▁tras":1797,"▁!!!":1798,"▁bril":1799,"ive":1800,"izar":1801,"one":1802,"▁bor":1803,"amp;":1804,"▁hue":1805,"bi":1806,"zas":1807,"▁ante":1808,"▁perio":1809,"▁nosotros":1810,"▁+":1811,"▁notas":1812,"avirus":1813,"ific":1814,"▁ur":1815,"▁sido":1816,"▁partic":1817,"▁cualquier":1818,"entena":1819,"▁llama":1820,"▁progra":1821,"ear":1822,"te,":1823,"▁minu":1824,"fas":1825,"▁ens":1826,"▁coronavirus":1827,"▁mama":1828,"inas":1829,"ivers":1830,"▁all":1831,"▁not":1832,"▁bro":1833,"▁pad":1834,"mor":1835,"▁empres":1836,"▁prox":1837,"▁estudi":1838,"▁prop":1839,"fo":1840,"pro":1841,"▁tre":1842,"comp":1843,"▁vier":1844,"brando":1845,"da.":1846,"▁viene":1847,"▁tomar":1848,"ys":1849,"ados":1850,"▁difer":1851,"aria":1852,"▁econo":1853,"▁chispas":1854,"eb":1855,"▁soci":1856,"▁ayud":1857,"▁but":1858,"▁empez":1859,"▁palab":1860,"io,":1861,"▁encu":1862,"esta":1863,"▁no,":1864,"▁ref":1865,"bas":1866,"▁bts":1867,"ecta":1868,"cra":1869,"ilidad":1870,"▁dinero":1871,"▁disfru":1872,"▁sex":1873,"▁lengua":1874,"▁cla":1875,"king":1876,"▁tend":1877,"▁razon":1878,"▁comple":1879,"▁goo":1880,"gh":1881,"▁lab":1882,"onces":1883,"&gt;":1884,"▁quieren":1885,"tina":1886,"diendo":1887,"▁11":1888,"all":1889,"ell":1890,"▁human":1891,"inci":1892,"ight":1893,"▁one":1894,"▁cuarentena":1895,"▁senor":1896,"▁was":1897,"ollow":1898,"▁total":1899,"▁mono":1900,"▁brillante":1901,"ook":1902,"▁pac":1903,"▁esas":1904,"▁herman":1905,"tia":1906,"▁llegar":1907,"▁desp":1908,"▁visto":1909,"▁conse":1910,"▁pulgar":1911,"▁cho":1912,"▁pier":1913,"cog":1914,"▁medi":1915,"▁lit":1916,"▁fies":1917,"▁celebrando":1918,"▁chile":1919,"▁nuev":1920,"dida":1921,"▁blo":1922,"▁tema":1923,"▁cha":1924,"▁just":1925,"▁pena":1926,"▁inten":1927,"▁ren":1928,"d.":1929,"y,":1930,"▁tri":1931,"▁seguro":1932,"▁pasado":1933,"▁corru":1934,"▁fir":1935,"▁necesita":1936,"rio":1937,"imada":1938,"▁fis":1939,"▁have":1940,"▁cel":1941,"▁come":1942,"menta":1943,"▁domingo":1944,"▁entonces":1945,"rados":1946,"tima":1947,"▁compan":1948,"▁um":1949,"tri":1950,"cri":1951,"▁nuestros":1952,"▁perdon":1953,"▁¿que":1954,"▁gua":1955,"▁calle":1956,"▁ges":1957,"▁amer":1958,"▁iba":1959,"rante":1960,"▁desan":1961,"adores":1962,"▁sabes":1963,"▁mac":1964,"como":1965,"▁2020":1966,"▁jajajaja":1967,"▁hos":1968,"▁lar":1969,"tif":1970,"▁agra":1971,"▁up":1972,"▁oscu":1973,"ila":1974,"al.":1975,"migo":1976,"▁alto":1977,"▁resul":1978,"ches":1979,"▁euro":1980,"▁llega":1981,"▁$":1982,"ivel":1983,"▁lun":1984,"ix":1985,"▁18":1986,"▁salu":1987,"▁acuerdo":1988,"▁period":1989,"uro":1990,"▁bl":1991,"▁hic":1992,"▁espan":1993,"▁comida":1994,"▁iz":1995,"wn":1996,"ar,":1997,"▁funcion":1998,"▁musicales":1999,"jes":2000,"▁jugar":2001,"▁abo":2002,"▁espe":2003,"▁mujeres":2004,"▁tres":2005,"▁recu":2006,"endo":2007,"chos":2008,"▁jul":2009,"▁caso":2010,"iado":2011,"▁ama":2012,"▁paz":2013,"▁levantadas":2014,"▁ji":2015,"▁et":2016,"resion":2017,"▁&amp;":2018,"▁sino":2019,"▁verde":2020,"▁desanimada":2021,"10":2022,"▁informacion":2023,"▁public":2024,"ientos":2025,"▁espera":2026,"▁puedes":2027,"▁sueno":2028,"▁problema":2029,"▁guar":2030,"col":2031,"▁produc":2032,"ye":2033,"yas":2034,"▁rel":2035,"▁jor":2036,"ar.":2037,"▁victoria":2038,"▁sale":2039,"▁sup":2040,"▁negro":2041,"▁wo":2042,"'t":2043,"m.":2044,"▁mejores":2045,"▁buenas":2046,"amiento":2047,"tencia":2048,"dez":2049,"▁viernes":2050,"▁gana":2051,"io.":2052,"iver":2053,"ento":2054,"ose":2055,"eet":2056,"▁policia":2057,"▁ases":2058,"lo.":2059,"30":2060,"▁romp":2061,"▁tru":2062,"▁todavia":2063,"▁quedar":2064,"▁top":2065,"▁100":2066,"▁actual":2067,"taria":2068,"▁ps":2069,"dos.":2070,"▁parti":2071,"▁misma":2072,"dicion":2073,"mina":2074,"▁prem":2075,"▁more":2076,"▁hago":2077,"▁hola":2078,"vers":2079,"▁ningun":2080,"▁millones":2081,"▁recib":2082,"jaj":2083,"▁lado":2084,"▁out":2085,"em":2086,"cul":2087,"▁ton":2088,"▁sig":2089,"▁reco":2090,"▁simp":2091,"lo,":2092,"▁dejo":2093,"▁sabado":2094,"▁nota":2095,"▁mara":2096,"▁pensar":2097,"al,":2098,"▁ever":2099,"and":2100,"▁entra":2101,"cogida":2102,"▁escrib":2103,"▁nivel":2104,"▁importante":2105,"▁br":2106,"▁manera":2107,"mit":2108,"▁musica":2109,"▁vaya":2110,"▁than":2111,"tamente":2112,"▁enci":2113,"ong":2114,"▁usted":2115,"▁club":2116,"▁gar":2117,"▁dio":2118,"▁mundi":2119,"▁vivir":2120,"▁demo":2121,"▁puer":2122,"tivos":2123,"ocu":2124,"▁tur":2125,"▁ang":2126,"▁grandes":2127,"▁hombros":2128,"▁escuchar":2129,"▁grupo":2130,"he":2131,"▁viol":2132,"▁tir":2133,"▁hijo":2134,"▁dific":2135,"din":2136,"▁nar":2137,"▁30":2138,"i,":2139,"▁cancion":2140,"▁papa":2141,"▁from":2142,"▁proy":2143,"▁organ":2144,"▁ofic":2145,"▁pobre":2146,"▁entr":2147,"▁ayuda":2148,"▁flor":2149,"▁conta":2150,"▁pelic":2151,"▁incre":2152,"▁viendo":2153,"zos":2154,"▁some":2155,"▁sur":2156,"▁extrano":2157,"▁mucha":2158,"erte":2159,"▁ves":2160,"▁trabaja":2161,"bra":2162,"▁pequen":2163,"▁chin":2164,"▁tit":2165,"▁!!":2166,"▁tui":2167,"▁enf":2168,"▁play":2169,"ase":2170,"▁cen":2171,"▁what":2172,"▁opin":2173,"ider":2174,"▁podemos":2175,"ram":2176,"lica":2177,"tigo":2178,"▁nav":2179,"ant":2180,"▁exc":2181,"▁bra":2182,"lu":2183,"▁will":2184,"sab":2185,"izacion":2186,"▁comprar":2187,"▁encogida":2188,"▁entiendo":2189,"▁ai":2190,"▁enfer":2191,"vin":2192,"▁prote":2193,"▁ademas":2194,"dy":2195,"chas":2196,"▁facil":2197,"▁politica":2198,"▁media":2199,"▁tecn":2200,"▁aque":2201,"her":2202,"▁mensa":2203,"isimo":2204,"▁pq":2205,"▁nu":2206,"▁exper":2207,"ama":2208,"▁oscuro":2209,"▁vale":2210,"▁pende":2211,"▁haga":2212,"▁siendo":2213,"▁gor":2214,"ko":2215,"▁patr":2216,"▁fil":2217,"▁situ":2218,"▁juego":2219,"▁ru":2220,"▁menti":2221,"▁mala":2222,"▁gato":2223,"▁rap":2224,"▁ultimo":2225,"▁depor":2226,"▁bail":2227,"day":2228,"▁they":2229,"▁pone":2230,"▁anda":2231,"▁nombre":2232,"▁cambio":2233,"▁preocu":2234,":00":2235,"▁2019":2236,"▁pron":2237,"mentos":2238,"▁especial":2239,"▁acabo":2240,"uso":2241,"lado":2242,"▁fra":2243,"ins":2244,"▁im":2245,"▁programa":2246,"▁lleva":2247,"▁queria":2248,"▁meses":2249,"▁encima":2250,"▁colombia":2251,"▁durante":2252,"▁sta":2253,"▁camara":2254,"iza":2255,"▁saben":2256,"guenza":2257,"▁leg":2258,"▁vir":2259,"amo":2260,"cado":2261,"▁minis":2262,"▁realidad":2263,"▁histor":2264,"▁lis":2265,"tio":2266,"dos,":2267,"▁juan":2268,"▁nac":2269,"uld":2270,"▁log":2271,"▁gal":2272,"▁conmigo":2273,"gada":2274,"ung":2275,"▁cr":2276,"▁confe":2277,"▁sigo":2278,"▁leer":2279,"idas":2280,"▁exis":2281,"▁arre":2282,"▁kkk":2283,"▁normal":2284,"▁gafas":2285,"are":2286,"▁futu":2287,"▁hijos":2288,"▁14":2289,"▁if":2290,"▁babeando":2291,"▁dificil":2292,"▁dur":2293,"▁joven":2294,"▁radi":2295,"▁primero":2296,"▁conc":2297,"tos,":2298,"▁tempora":2299,"▁mic":2300,"▁agua":2301,"entos":2302,"▁perfil":2303,"▁cues":2304,"▁guer":2305,"▁emb":2306,"▁mtvla":2307,"▁indi":2308,"▁pie":2309,"▁sentir":2310,"▁pande":2311,"▁aprobacion":2312,"uncia":2313,"▁confeti":2314,"mpoco":2315,"▁deberia":2316,"▁now":2317,"tral":2318,"▁ata":2319,"▁ig":2320,"▁contin":2321,"▁serie":2322,"mil":2323,"▁24":2324,"ity":2325,"▁ganar":2326,"▁importa":2327,"tiendo":2328,"▁princi":2329,"▁inde":2330,"▁eje":2331,"▁oc":2332,"▁quedo":2333,"▁i'":2334,"▁radio":2335,"▁tampoco":2336,"▁llego":2337,"fono":2338,"▁lpm":2339,"▁radiante":2340,"▁llorar":2341,"▁tranqui":2342,"18":2343,"▁trabajar":2344,"ificacion":2345,"tos.":2346,"titucion":2347,"lor":2348,"ick":2349,"▁desper":2350,"▁bb":2351,"▁orgu":2352,"▁ago":2353,"▁sele":2354,"▁contro":2355,"fi":2356,"▁roto":2357,"▁fiesta":2358,"▁campe":2359,"rada":2360,"▁chu":2361,"▁jajajajajaja":2362,"pan":2363,"atro":2364,"▁chav":2365,"quierda":2366,"gando":2367,"ecer":2368,"▁chan":2369,"▁ultima":2370,"▁plata":2371,"▁copa":2372,"▁meu":2373,"arse":2374,"▁inves":2375,"gio":2376,"▁simb":2377,"pu":2378,"▁atencion":2379,"▁notic":2380,"▁day":2381,"▁traves":2382,"▁cans":2383,"▁suf":2384,"▁quienes":2385,"▁gritando":2386,"▁ok":2387,"▁follow":2388,"▁senti":2389,"▁encanta":2390,"▁univers":2391,"ifica":2392,"▁vivo":2393,"▁13":2394,"cor":2395,"▁volv":2396,"tific":2397,"mando":2398,"▁abrazando":2399,"▁izquierda":2400,"▁confir":2401,"ms":2402,"gre":2403,"이":2404,"▁gre":2405,"▁mais":2406,"est":2407,"▁democra":2408,"▁haya":2409,"▁creer":2410,"▁suerte":2411,"▁fui":2412,"▁glo":2413,"▁estrellas":2414,"▁cumpleanos":2415,"▁econom":2416,"taron":2417,"▁lunes":2418,"▁cerrados":2419,"▁amarillo":2420,"▁pase":2421,"dios":2422,"oso":2423,"cido":2424,"▁cole":2425,"ini":2426,"▁ign":2427,"▁olvid":2428,"lt;":2429,"▁tenes":2430,"▁verguenza":2431,"arme":2432,"▁fre":2433,"▁perro":2434,"portun":2435,"▁abier":2436,"▁enamo":2437,"del":2438,"▁linda":2439,"▁publica":2440,"▁mundial":2441,"ind":2442,"▁abrazo":2443,"▁alguna":2444,"dado":2445,"▁punto":2446,"▁acaba":2447,"▁bebe":2448,"gon":2449,"▁ejemp":2450,"▁toma":2451,"▁repres":2452,"▁luz":2453,"▁perder":2454,"quiera":2455,"▁extran":2456,"▁17":2457,"▁16":2458,"jada":2459,"▁apoyo":2460,"▁orden":2461,"▁tenga":2462,"eca":2463,"▁libre":2464,"usa":2465,"▁excel":2466,"▁nego":2467,"▁profesion":2468,"▁aw":2469,"▁abs":2470,"▁pagar":2471,"▁vs":2472,"▁prue":2473,"cepcion":2474,"▁ninos":2475,"▁medic":2476,"▁uma":2477,"▁imagen":2478,"ror":2479,"▁dra":2480,"hor":2481,"▁escri":2482,"eja":2483,"▁wa":2484,"und":2485,"▁\"el":2486,"▁publico":2487,"▁sir":2488,"▁canon":2489,"t,":2490,"arro":2491,"▁estr":2492,"▁hol":2493,"▁cuanto":2494,"▁coment":2495,"▁sorp":2496,"▁junto":2497,"▁presenta":2498,"▁investi":2499,"▁otras":2500,"vision":2501,"itan":2502,"enas":2503,"isi":2504,"▁peop":2505,"▁:)":2506,"sos":2507,"▁tier":2508,"▁movil":2509,"▁princip":2510,"▁particip":2511,"au":2512,"▁get":2513,"▁defen":2514,"now":2515,"ex":2516,"ioridad":2517,"▁educ":2518,"▁dicho":2519,"▁general":2520,"quer":2521,"▁dig":2522,"▁cine":2523,"▁contigo":2524,"jsjs":2525,"ooo":2526,"▁people":2527,"icios":2528,"▁seguridad":2529,"▁acomp":2530,"ler":2531,"▁bras":2532,"▁ber":2533,"▁boton":2534,"▁algunos":2535,"▁mier":2536,"▁personal":2537,"▁aliv":2538,"esp":2539,"▁oportun":2540,"▁var":2541,"▁corr":2542,"▁sp":2543,"▁pelotu":2544,"▁anim":2545,"▁unica":2546,"teg":2547,"▁centro":2548,"▁justicia":2549,"▁derecho":2550,"▁podria":2551,"▁happ":2552,"ua":2553,"▁emocion":2554,"▁quieres":2555,"▁dije":2556,"cando":2557,"▁idea":2558,"▁siste":2559,"▁fueron":2560,"▁tweet":2561,"▁espanol":2562,"st":2563,"▁rico":2564,"ki":2565,"edad":2566,"▁due":2567,"rera":2568,"▁culpa":2569,"pel":2570,"tien":2571,"puesta":2572,"dito":2573,"▁anti":2574,".000":2575,"-19":2576,"enos":2577,"yy":2578,"▁liga":2579,"cimiento":2580,"aaa":2581,"tores":2582,"▁cuad":2583,"▁time":2584,"▁cin":2585,"jan":2586,"▁regres":2587,"▁resp":2588,"▁show":2589,"tw":2590,"▁hablando":2591,"▁america":2592,"dra":2593,"▁cabre":2594,"▁minutos":2595,"▁hosp":2596,"▁dando":2597,"▁200":2598,"tf":2599,"▁tiemp":2600,"osa":2601,"ner":2602,"▁hermosa":2603,"▁queremos":2604,"▁llevar":2605,"▁eh":2606,"ok":2607,"▁trump":2608,"▁educacion":2609,"▁alta":2610,"ancia":2611,"▁libertad":2612,"tacion":2613,"▁hermoso":2614,"llos":2615,"▁precios":2616,"▁how":2617,"▁payas":2618,"▁when":2619,"▁serio":2620,"▁clase":2621,"▁agrade":2622,"▁palabras":2623,"olog":2624,"▁got":2625,"▁dentro":2626,"▁hon":2627,"acio":2628,"▁mia":2629,"▁chi":2630,"▁diciendo":2631,"▁olv":2632,"▁sacar":2633,"▁esperando":2634,"▁conv":2635,"2020":2636,"▁futuro":2637,"ld":2638,"▁hemos":2639,"▁hamb":2640,"▁situacion":2641,"bern":2642,"rible":2643,"ph":2644,"▁conocer":2645,"vie":2646,"▁about":2647,"fia":2648,"ace":2649,"▁\"la":2650,"▁cuernos":2651,"▁activ":2652,"eras":2653,"▁bir":2654,"la,":2655,"▁gro":2656,"▁jamas":2657,"▁pregunta":2658,"▁star":2659,"▁pop":2660,"vel":2661,"uestra":2662,"▁entien":2663,"miendo":2664,"jando":2665,"▁recono":2666,"▁cruz":2667,"cis":2668,"▁fuerza":2669,"pez":2670,"▁int":2671,"▁explic":2672,"▁25":2673,"▁1.":2674,"▁libro":2675,"▁ef":2676,"▁ke":2677,"▁servicio":2678,"tancia":2679,"idad.":2680,"ans":2681,"▁existe":2682,"i.":2683,"▁bre":2684,"▁fon":2685,"icip":2686,"▁cuerpo":2687,"▁descu":2688,"▁increible":2689,"▁juntos":2690,"▁sean":2691,"▁cambiar":2692,"▁\"s":2693,"ciente":2694,"▁za":2695,"▁escuch":2696,"▁ep":2697,"▁fes":2698,"▁char":2699,"▁21":2700,"▁rey":2701,"tera":2702,"▁util":2703,"▁posible":2704,"eria":2705,"▁bonito":2706,"▁acor":2707,"▁entender":2708,"▁er":2709,"▁cabreada":2710,"my":2711,"▁empie":2712,"▁autor":2713,"ugh":2714,"▁no.":2715,"▁querer":2716,"▁bueno,":2717,"▁gusto":2718,"▁tv":2719,"▁instag":2720,"▁every":2721,"▁municip":2722,"▁sep":2723,"▁voz":2724,"▁voto":2725,"erv":2726,"eis":2727,"▁puno":2728,"la.":2729,"tt":2730,"▁calor":2731,"▁bajo":2732,"▁ado":2733,"cito":2734,"▁vec":2735,"olucion":2736,"▁peru":2737,"▁temporada":2738,"ra.":2739,"▁far":2740,"▁stre":2741,"▁regal":2742,"▁sabor":2743,"irl":2744,"▁der":2745,"▁novio":2746,"rando":2747,"ang":2748,"ales.":2749,"ques":2750,"tero":2751,"▁sacando":2752,"▁know":2753,"▁our":2754,"▁mue":2755,"inar":2756,"▁\"no":2757,"▁sign":2758,"▁venezol":2759,"▁realmente":2760,"guay":2761,"▁valor":2762,"▁diga":2763,"unci":2764,"▁simple":2765,"▁ed":2766,"▁corre":2767,"iga":2768,"bal":2769,"ales,":2770,"▁unidos":2771,"▁noticias":2772,"▁sola":2773,"▁dif":2774,"▁fern":2775,"tener":2776,"▁premios":2777,"▁sistema":2778,"▁estrella":2779,"▁fas":2780,"▁acep":2781,"▁sentido":2782,"▁mag":2783,"▁brasil":2784,"▁pesso":2785,"▁etc":2786,"▁50":2787,"▁ka":2788,"▁pedo":2789,"▁who":2790,"),":2791,"ra,":2792,"▁dolor":2793,"▁no?":2794,"▁padre":2795,"▁siguen":2796,"▁hice":2797,"▁lopez":2798,"▁asco":2799,"▁beb":2800,"▁comen":2801,"▁max":2802,"▁llevo":2803,"▁good":2804,"▁mio":2805,"▁das":2806,"▁verificacion":2807,"▁ignor":2808,"▁anal":2809,"▁proces":2810,"▁haces":2811,"▁pelicula":2812,"greso":2813,"▁doc":2814,"ish":2815,"▁zon":2816,"▁pag":2817,"▁gener":2818,"▁casos":2819,"▁dev":2820,"idad,":2821,"▁pele":2822,"▁santa":2823,"▁trata":2824,"▁invita":2825,"▁mas.":2826,"ju":2827,"▁luis":2828,"▁lig":2829,"▁camino":2830,"mbo":2831,"ther":2832,"▁coc":2833,"▁lista":2834,"▁covid19":2835,"▁gobern":2836,"iro":2837,"▁xq":2838,"▁bloque":2839,"▁nada,":2840,"▁mater":2841,"▁covid-19":2842,"▁num":2843,"2019":2844,"▁contes":2845,"▁ple":2846,"tino":2847,"cre":2848,"▁reun":2849,"▁hahaha":2850,"21":2851,"▁redes":2852,"▁alb":2853,"▁ans":2854,"tural":2855,"▁cumpl":2856,"pero":2857,"an,":2858,"▁agar":2859,"▁pense":2860,"▁repu":2861,"▁morir":2862,"▁carlos":2863,"▁crisis":2864,"ecen":2865,"▁opinion":2866,"▁desarro":2867,"alu":2868,"▁gira":2869,"▁nada.":2870,"mena":2871,"▁i'm":2872,"▁saludos":2873,"quito":2874,"▁alma":2875,"▁happy":2876,"▁llamar":2877,"aco":2878,"tados":2879,"▁tapa":2880,"▁ou":2881,"mite":2882,"▁buscar":2883,"ard":2884,"▁angel":2885,"▁emple":2886,"▁atras":2887,"▁excelente":2888,"▁bien,":2889,"▁see":2890,"▁maduro":2891,"▁nie":2892,"▁mexic":2893,"▁llu":2894,"▁encontrar":2895,"▁hel":2896,"tidad":2897,"ink":2898,"▁demasiado":2899,"remos":2900,"▁cuent":2901,"▁moles":2902,"▁ass":2903,"▁acos":2904,"▁cuba":2905,"▁verga":2906,"▁violencia":2907,"▁gon":2908,"▁polic":2909,"▁hagan":2910,"▁dejen":2911,"▁manda":2912,"▁corrup":2913,"▁relacion":2914,"nn":2915,"▁obl":2916,"▁pensando":2917,"▁instagram":2918,"uir":2919,"bles":2920,"▁segunda":2921,"▁sabia":2922,"▁doy":2923,"▁nuestras":2924,"▁luna":2925,"▁hombres":2926,"▁aman":2927,"▁problemas":2928,"▁tes":2929,"&gt;&gt;":2930,"▁vino":2931,"▁oficial":2932,"▁jose":2933,"▁even":2934,"▁gui":2935,"pre":2936,"▁tem":2937,"▁edu":2938,"tter":2939,"▁secre":2940,"▁jueves":2941,"▁tanta":2942,"forma":2943,"▁busca":2944,"▁vida.":2945,"istra":2946,"▁cerv":2947,"dro":2948,"▁segundo":2949,"▁avan":2950,"▁internacional":2951,"▁ejer":2952,"▁usar":2953,"▁vuelta":2954,"▁campana":2955,"▁22":2956,"▁nino":2957,"▁toca":2958,"thing":2959,"m,":2960,"▁mensaje":2961,"▁limp":2962,"ise":2963,"▁dispon":2964,"ticas":2965,"▁cafe":2966,"ak":2967,"▁year":2968,"▁deba":2969,"▁alla":2970,"▁pandemia":2971,"▁explo":2972,"12":2973,"▁sw":2974,"▁its":2975,"▁mando":2976,"ah":2977,"▁payaso":2978,"▁cien":2979,"udo":2980,"▁pedir":2981,"▁bur":2982,"teo":2983,"▁martes":2984,"▁jugador":2985,"▁red":2986,"▁actu":2987,"▁eno":2988,"▁rela":2989,"ebook":2990,"▁ido":2991,"▁entrev":2992,"▁impos":2993,"mun":2994,"▁ecu":2995,"▁vuelve":2996,"▁deje":2997,"hib":2998,"▁perdi":2999,"ude":3000,"▁&lt;":3001,"▁aj":3002,"torios":3003,"voca":3004,"▁superioridad":3005,"an.":3006,"▁promo":3007,"go,":3008,"ese":3009,"▁dale":3010,"▁recuer":3011,"▁prac":3012,"▁facebook":3013,"▁literal":3014,"▁err":3015,"ked":3016,"▁abur":3017,"▁rod":3018,"iedad":3019,"▁jorn":3020,"cier":3021,"▁sens":3022,"▁bene":3023,"▁miercol":3024,"▁art":3025,"▁indepen":3026,"▁entren":3027,"▁best":3028,"▁llev":3029,"izado":3030,"pada":3031,"▁alcal":3032,"▁sigu":3033,"gacion":3034,"▁suel":3035,"▁sociedad":3036,"▁obs":3037,"ologia":3038,"bu":3039,"▁jar":3040,"▁mascar":3041,"▁proximo":3042,"▁wee":3043,"▁mandar":3044,"▁contag":3045,"▁respeto":3046,"dd":3047,"▁2.":3048,"tantes":3049,"▁hermano":3050,"▁aguan":3051,"▁decision":3052,"▁hicieron":3053,"▁canal":3054,"▁ing":3055,"terio":3056,"▁puntos":3057,"▁boliv":3058,"dita":3059,"imiento":3060,"▁numero":3061,"▁ener":3062,"aste":3063,"▁jes":3064,"acer":3065,"▁diri":3066,"ning":3067,"▁duele":3068,"▁pienso":3069,"▁bri":3070,"▁maria":3071,"▁rapido":3072,"▁ahor":3073,"zan":3074,"r.":3075,"▁matar":3076,"▁cierto":3077,"▁creciente":3078,"▁acer":3079,"▁bailando":3080,"duci":3081,"▁cuatro":3082,"▁dud":3083,"yan":3084,"▁messi":3085,"up":3086,"gamos":3087,"▁habra":3088,"ico,":3089,"dencia":3090,"ull":3091,"▁virus":3092,"▁say":3093,"vos":3094,"way":3095,"▁jajaj":3096,"▁pis":3097,"▁conoce":3098,"ric":3099,"11":3100,"▁proyecto":3101,"pol":3102,"▁live":3103,"ares":3104,"▁prepara":3105,"▁reves":3106,"▁muerte":3107,"▁tremen":3108,"▁esperan":3109,"▁23":3110,"▁justo":3111,"▁bru":3112,"▁capac":3113,"▁;":3114,"ulos":3115,"▁pasando":3116,"▁culo":3117,"cep":3118,"▁vin":3119,"▁nic":3120,"▁salio":3121,"▁black":3122,"▁martin":3123,"▁ocu":3124,"dis":3125,"▁nuevos":3126,"!!!.":3127,"▁derechos":3128,"▁deben":3129,"▁2018":3130,"▁nomas":3131,"ete":3132,"▁desc":3133,"▁posi":3134,"tas,":3135,"▁desapro":3136,"iva":3137,"▁lider":3138,"usion":3139,"biera":3140,"▁team":3141,"▁alcan":3142,"aban":3143,"▁tren":3144,"▁candida":3145,"iano":3146,"▁faz":3147,"▁seman":3148,"▁darle":3149,"▁stream":3150,"▁votar":3151,"ist":3152,"▁dro":3153,"d,":3154,"encias":3155,"tas.":3156,"▁seas":3157,"▁lucha":3158,"▁silen":3159,"▁idio":3160,"▁micro":3161,"diente":3162,"▁consegui":3163,"▁llegue":3164,"▁enter":3165,"uito":3166,"▁inclus":3167,"▁mas,":3168,"▁hubiera":3169,"▁descan":3170,"▁//":3171,"▁dado":3172,"▁momentos":3173,"▁bil":3174,"▁cerca":3175,"▁aus":3176,"▁estados":3177,"▁fantas":3178,"▁back":3179,"▁agotada":3180,"▁bomb":3181,"-0":3182,"▁enc":3183,"top":3184,"▁pronto":3185,"▁hambre":3186,"15":3187,"▁app":3188,"▁40":3189,"▁partidos":3190,"▁web":3191,"mba":3192,"▁senora":3193,"tamos":3194,"▁ejemplo":3195,"▁termina":3196,"▁arran":3197,"osicion":3198,"▁corrupcion":3199,"gran":3200,"espera":3201,"▁fic":3202,"▁repor":3203,"igo":3204,"▁aaa":3205,"▁videos":3206,"▁republ":3207,"▁gesto":3208,"mientos":3209,"▁fri":3210,"▁onda":3211,"▁any":3212,"uelo":3213,"▁nin":3214,"▁sk":3215,"▁conten":3216,"▁¿por":3217,"▁meter":3218,"ero,":3219,"▁rosa":3220,"▁saboreando":3221,"▁empezar":3222,"▁vida,":3223,"▁fuck":3224,"▁informa":3225,"▁mur":3226,"▁hospital":3227,"umen":3228,"▁&gt;":3229,"▁ko":3230,"lara":3231,"sh":3232,"▁decepcion":3233,"▁env":3234,"nas":3235,"▁malo":3236,"▁nooo":3237,"▁quiera":3238,"mu":3239,"▁ayudar":3240,"▁noches":3241,"▁regalo":3242,"▁esperar":3243,"▁terror":3244,"▁miercoles":3245,"itor":3246,"xico":3247,"▁barcel":3248,"▁leon":3249,"▁mov":3250,"▁she":3251,"tador":3252,"▁alber":3253,"▁obje":3254,"villa":3255,"▁mel":3256,"iana":3257,"▁desaprobacion":3258,"▁sabemos":3259,"▁puto":3260,"torio":3261,"▁puesto":3262,"paz":3263,"▁cra":3264,"dente":3265,"▁rio":3266,"▁protes":3267,"▁local":3268,"▁hija":3269,"▁responsab":3270,"▁il":3271,"ero.":3272,"▁entrar":3273,"tivas":3274,"▁merece":3275,"▁viejo":3276,"▁demos":3277,"▁pedi":3278,"▁pic":3279,"▁ala":3280,"▁color":3281,"▁ahre":3282,"▁win":3283,"▁esti":3284,"▁¿como":3285,"▁cree":3286,"▁vai":3287,"brar":3288,"the":3289,"hu":3290,"▁rato":3291,"▁solucion":3292,"▁quede":3293,"▁signo":3294,"▁luces":3295,"▁vive":3296,"ticos":3297,"▁chil":3298,"▁vieja":3299,"▁compro":3300,":30":3301,"▁seu":3302,"▁youtu":3303,"▁minha":3304,"▁felicidades":3305,"▁aprove":3306,"17":3307,"▁ninguna":3308,"turas":3309,"▁papel":3310,"▁dep":3311,"▁pab":3312,"▁blanca":3313,"▁world":3314,"▁spo":3315,"▁cd":3316,"▁ge":3317,"▁labor":3318,"▁uso":3319,"▁simbolo":3320,"▁amigas":3321,"▁memo":3322,"▁here":3323,"▁aso":3324,"▁trofe":3325,"▁pueda":3326,"ᅡᆫ":3327,"tie":3328,"ico.":3329,"amos":3330,"▁maes":3331,"▁tapados":3332,"▁lluvia":3333,"tran":3334,"mis":3335,"▁piens":3336,"▁bola":3337,"▁hoy,":3338,"▁digan":3339,"▁sonro":3340,"▁comien":3341,"iel":3342,"▁elecciones":3343,"▁podes":3344,"▁terminar":3345,"▁eran":3346,"zco":3347,"▁contar":3348,"art":3349,"50":3350,"▁basta":3351,"▁bastante":3352,"racion":3353,"val":3354,"▁politicos":3355,"ianza":3356,"▁venir":3357,"▁si.":3358,"ure":3359,"▁dir":3360,"▁obvio":3361,"▁boy":3362,"▁nina":3363,"vide":3364,"ables":3365,"gg":3366,"▁exig":3367,"▁bic":3368,"▁sorpren":3369,"▁amlo":3370,"puta":3371,"▁civ":3372,"eccion":3373,"▁whats":3374,"▁mate":3375,"▁need":3376,"▁cad":3377,"ines":3378,"table":3379,"\"..":3380,"▁todo,":3381,"gues":3382,"▁durmiendo":3383,"▁capital":3384,"▁obra":3385,"▁militar":3386,"▁mayoria":3387,"▁ara":3388,"gal":3389,"▁verano":3390,"▁beca":3391,"▁desapar":3392,"▁rid":3393,"▁ilus":3394,"dp":3395,"▁trofeo":3396,"▁priv":3397,"▁correc":3398,"▁comunic":3399,"▁seguimos":3400,"dando":3401,"▁consul":3402,"▁internet":3403,"▁medidas":3404,"▁recuerdo":3405,"line":3406,"▁riv":3407,"▁sonrojada":3408,"▁carrera":3409,"andom":3410,"▁artic":3411,"▁electr":3412,"▁conven":3413,"ica,":3414,"▁novia":3415,"tec":3416,"▁)":3417,"▁recien":3418,"ique":3419,"▁fiscal":3420,"▁escuela":3421,"▁cerveza":3422,"▁ase":3423,".\"":3424,"▁clases":3425,"▁duda":3426,"▁millon":3427,"▁golpe":3428,"▁edad":3429,"▁aire":3430,"▁aleg":3431,"mic":3432,"▁manif":3433,"▁cerrado":3434,"▁hermana":3435,"▁orig":3436,"▁benefic":3437,"▁juega":3438,"▁ital":3439,"▁bien.":3440,"inal":3441,"▁quin":3442,"miaw":3443,"▁fras":3444,"▁detal":3445,"arte":3446,"▁foi":3447,"tarse":3448,"iada":3449,"▁celular":3450,"curso":3451,"▁musical":3452,"▁solid":3453,"▁jeje":3454,"▁baja":3455,"tarme":3456,"▁diario":3457,"▁fecha":3458,"respon":3459,"▁entrevista":3460,"▁europa":3461,"▁prome":3462,"▁cama":3463,"▁encuentro":3464,"acho":3465,"▁pp":3466,"ding":3467,"▁lor":3468,"xs":3469,"icado":3470,"vier":3471,"ime":3472,"puesto":3473,"▁estudiar":3474,"rian":3475,"▁datos":3476,"▁aut":3477,"▁kar":3478,"jec":3479,"imen":3480,"▁ee":3481,"▁capit":3482,"chez":3483,"▁delin":3484,"▁mente":3485,"ket":3486,"▁campeon":3487,"fuer":3488,"▁oh":3489,"▁ensen":3490,"esion":3491,"gente":3492,"▁l'":3493,"▁eleg":3494,"amer":3495,"adora":3496,"▁acompan":3497,"▁intel":3498,"▁champ":3499,"ker":3500,"ivo":3501,"ions":3502,"zada":3503,"▁asi,":3504,"dura":3505,"!!.":3506,"iti":3507,"hy":3508,"▁guerra":3509,"▁absol":3510,"ide":3511,"▁\"es":3512,"▁jugadores":3513,"quis":3514,"▁juro":3515,"▁gil":3516,"▁stor":3517,"▁tempran":3518,"▁precio":3519,"▁gestion":3520,"▁medios":3521,"▁julio":3522,"▁gano":3523,"diciones":3524,"▁sector":3525,"▁rob":3526,"▁ropa":3527,"▁depen":3528,"▁pessoas":3529,"▁expres":3530,"orn":3531,"▁joder":3532,"▁chec":3533,"ign":3534,"▁hin":3535,"lash":3536,"▁pide":3537,"▁dont":3538,"▁cultura":3539,"▁conver":3540,"▁abor":3541,"▁todo.":3542,"▁esperamos":3543,"▁partir":3544,"▁die":3545,"▁mane":3546,"▁femin":3547,"ica.":3548,"▁constitucion":3549,"▁respuesta":3550,"▁significa":3551,"▁usa":3552,"jun":3553,"▁jornada":3554,"▁varios":3555,"mber":3556,"▁quedate":3557,"▁orto":3558,"▁pil":3559,"▁telefono":3560,"▁queres":3561,"▁compe":3562,"▁anos,":3563,"▁region":3564,"▁ecuador":3565,"▁pongo":3566,"▁resto":3567,"jon":3568,"ectos":3569,"end":3570,"▁tenido":3571,"▁recuper":3572,"▁album":3573,"▁mental":3574,"▁reac":3575,"▁desespera":3576,"▁isso":3577,"▁navidad":3578,"▁gratis":3579,"▁globo":3580,"▁vc":3581,"truc":3582,"ista,":3583,"▁contac":3584,"▁vemos":3585,"▁prohib":3586,"vis":3587,"▁pequeno":3588,"▁igles":3589,"tubre":3590,"yn":3591,"▁dese":3592,"ina,":3593,"amen":3594,"▁feel":3595,"ik":3596,"▁familiar":3597,"▁totalmente":3598,"▁only":3599,"dal":3600,"▁oportunidad":3601,"▁hilo":3602,"▁¿cu":3603,"▁off":3604,"unt":3605,"▁hal":3606,"cheta":3607,"acion.":3608,"dora":3609,"▁imposible":3610,"▁gustaria":3611,"▁lejos":3612,"▁recomen":3613,"▁apor":3614,"▁info":3615,"▁eso,":3616,"▁decirl":3617,"▁refer":3618,"▁mtvmiaw":3619,"▁felicidad":3620,"▁alivio":3621,"▁noticia":3622,"▁refle":3623,"tle":3624,"ulas":3625,"ficiente":3626,"▁algunas":3627,"▁sanchez":3628,"▁intelig":3629,"▁arro":3630,"▁???":3631,"tito":3632,"▁atra":3633,"▁ᄋ":3634,"▁youtube":3635,"go.":3636,"ilo":3637,"▁ridic":3638,"▁because":3639,"icamente":3640,"▁termino":3641,"▁chincheta":3642,"▁compra":3643,"▁salv":3644,"▁want":3645,"▁levantada":3646,"▁nas":3647,"▁rus":3648,"▁inicia":3649,"▁estaria":3650,"▁jugando":3651,"▁viaje":3652,"▁repro":3653,"▁chicos":3654,"erta":3655,"▁their":3656,"ducir":3657,"▁eli":3658,"▁maravil":3659,"▁falle":3660,"▁sociales":3661,"▁non":3662,"16":3663,"eramente":3664,"▁dia,":3665,"▁loca":3666,"▁duer":3667,"▁exac":3668,"▁ran":3669,"▁escucha":3670,"▁directo":3671,"▁river":3672,"▁naran":3673,"▁paises":3674,"▁ocur":3675,"▁delincu":3676,"▁pelig":3677,"▁libros":3678,"▁did":3679,"▁corona":3680,"▁giratorios":3681,"▁don't":3682,"▁\"a":3683,"▁game":3684,"▁extra":3685,"▁disfrutar":3686,"▁make":3687,"▁ron":3688,"▁doble":3689,"till":3690,"▁it's":3691,"bres":3692,"▁om":3693,"▁=":3694,"▁macri":3695,"▁seleccion":3696,"ally":3697,"▁acuer":3698,"▁distin":3699,"get":3700,"▁ponen":3701,"▁olvida":3702,"▁tol":3703,"zz":3704,"▁ries":3705,"andez":3706,"▁democracia":3707,"ista.":3708,"▁ste":3709,"▁banda":3710,"▁amp":3711,"▁tin":3712,"▁quedan":3713,"▁mirar":3714,"▁bos":3715,"▁mach":3716,"▁sent":3717,"▁adelante":3718,"▁defender":3719,"▁octubre":3720,"ibles":3721,"tivamente":3722,"▁critic":3723,"▁mismos":3724,"lia":3725,"▁creen":3726,"tora":3727,"damos":3728,"▁impues":3729,"▁war":3730,"ings":3731,"▁permi":3732,"▁apa":3733,"▁arte":3734,"▁frien":3735,"▁over":3736,"▁pareja":3737,"leta":3738,"▁cae":3739,"▁dign":3740,"▁agre":3741,"▁supon":3742,"▁concier":3743,"▁tuve":3744,"2.":3745,"▁control":3746,"▁aprender":3747,"gencia":3748,"lon":3749,"lix":3750,"▁aga":3751,"▁cop":3752,"▁chor":3753,"▁marcha":3754,"▁estudio":3755,"▁lol":3756,"▁venga":3757,"▁congreso":3758,"▁pais.":3759,"▁preven":3760,"▁bonita":3761,"▁tierra":3762,"▁tantas":3763,"ny":3764,"▁zona":3765,"▁dedo":3766,"▁life":3767,"▁thank":3768,"▁lad":3769,"▁celebra":3770,"▁colab":3771,"▁tengan":3772,"iantina":3773,"▁viva":3774,"▁expresion":3775,"▁mayo":3776,"▁palabra":3777,"▁pinche":3778,"3.":3779,"▁humor":3780,"▁cont":3781,"▁disponible":3782,"▁visita":3783,"▁emer":3784,"hol":3785,"app":3786,"jd":3787,"▁empresa":3788,"▁evitar":3789,"▁estra":3790,"▁bron":3791,"?!":3792,"▁plaza":3793,"▁abril":3794,"▁automa":3795,"▁pus":3796,"▁siii":3797,"▁cansada":3798,"▁prepar":3799,"medad":3800,"▁hablo":3801,"▁clima":3802,"▁miles":3803,"▁profesional":3804,"▁pho":3805,"▁¿y":3806,"▁subir":3807,"▁mig":3808,"itario":3809,"▁peda":3810,"▁cuestion":3811,"▁gab":3812,"▁sha":3813,"lin":3814,"▁cic":3815,"▁¡¡":3816,"▁compartir":3817,"▁comunidad":3818,"▁wat":3819,"▁(?":3820,"ft":3821,"▁banco":3822,"▁inicio":3823,"quien":3824,"tiembre":3825,"▁linea":3826,"▁acu":3827,"▁big":3828,"▁funda":3829,"▁amig":3830,"▁rin":3831,"▁recuerda":3832,"iales":3833,"dieron":3834,"▁despe":3835,"▁orgullo":3836,"▁asegu":3837,"quin":3838,"▁venta":3839,"▁marzo":3840,"hi":3841,"ni":3842,"taje":3843,"▁js":3844,"▁anos.":3845,"▁3.":3846,"▁civil":3847,"▁reir":3848,"is,":3849,"▁descar":3850,"rido":3851,"yendo":3852,"▁paro":3853,"▁esfuer":3854,"▁repe":3855,"▁decia":3856,"▁crea":3857,"▁fla":3858,"▁ador":3859,"dre":3860,"▁silencio":3861,"▁way":3862,"▁convers":3863,"▁chica":3864,"▁uru":3865,"▁china":3866,"▁feo":3867,"de,":3868,"▁eng":3869,"▁hacerlo":3870,"uras":3871,"nt":3872,"▁tiempos":3873,"▁oro":3874,"▁padres":3875,"▁siente":3876,"▁orgullos":3877,"▁dieron":3878,"cons":3879,"▁diferencia":3880,"▁26":3881,"▁dormi":3882,"▁jesus":3883,"ardo":3884,"▁provin":3885,"▁feder":3886,"▁sil":3887,"▁eter":3888,"▁tiro":3889,"▁concha":3890,"acion,":3891,"fon":3892,"▁hacemos":3893,"▁empresas":3894,"za,":3895,"▁horrible":3896,"▁reti":3897,"▁haz":3898,"kes":3899,"▁historias":3900,"▁ultimos":3901,"lec":3902,"▁hipo":3903,"▁error":3904,"14":3905,"me,":3906,"▁arbol":3907,"▁28":3908,"▁penal":3909,"▁mode":3910,"▁extre":3911,"▁duro":3912,"eee":3913,"uma":3914,"▁netf":3915,"ienta":3916,"sar":3917,"▁termine":3918,"ation":3919,"▁basura":3920,"▁politico":3921,"▁trabajando":3922,"▁tuit":3923,"▁llen":3924,"▁vou":3925,"▁experiencia":3926,"mx":3927,"▁cach":3928,"▁dav":3929,"▁netflix":3930,"▁tuvo":3931,"fico":3932,"▁economia":3933,"illas":3934,"▁podia":3935,"en,":3936,"anas":3937,"▁despier":3938,"▁27":3939,"▁pode":3940,"▁stan":3941,"▁fab":3942,"ense":3943,"▁liv":3944,"▁iden":3945,"▁bad":3946,"▁really":3947,"▁conoci":3948,"▁esse":3949,"▁aplic":3950,"▁animo":3951,"▁canciones":3952,"▁jajaja":3953,"oria":3954,"imp":3955,"▁pasan":3956,"▁accion":3957,"▁dia.":3958,"gle":3959,"▁petro":3960,"ture":3961,"▁calidad":3962,"▁vacaciones":3963,"▁him":3964,"▁opcion":3965,"▁adver":3966,"▁recordar":3967,"▁septiembre":3968,"▁presente":3969,"▁exa":3970,"▁prob":3971,"sel":3972,"▁vote":3973,"▁been":3974,"bia":3975,"▁week":3976,"▁empieza":3977,"▁insul":3978,"▁ot":3979,"▁buscando":3980,"▁flash":3981,"▁minimo":3982,"▁sel":3983,"▁there":3984,"▁digital":3985,"▁santia":3986,"▁pablo":3987,"▁naranja":3988,"▁mueca":3989,"lamacion":3990,"▁palo":3991,"▁d'":3992,"ley":3993,"vado":3994,"fel":3995,"▁segura":3996,"1.":3997,"▁cuida":3998,"▁air":3999,"▁pedro":4000,"▁calla":4001,"▁&lt;3":4002,"mental":4003,"▁genial":4004,"trando":4005,"▁arma":4006,"▁please":4007,"de.":4008,"hs":4009,"has":4010,"▁desarrollo":4011,"▁why":4012,",,":4013,"▁terra":4014,"▁puro":4015,"▁never":4016,"▁barrio":4017,"cl":4018,"z,":4019,"▁nove":4020,"▁europe":4021,"▁selec":4022,"cola":4023,"arias":4024,"▁dejan":4025,"▁rac":4026,"▁curso":4027,"bit":4028,"terior":4029,"▁apre":4030,"▁tb":4031,"▁querido":4032,"▁robo":4033,"quia":4034,"▁llena":4035,"▁barcelona":4036,"▁ingles":4037,"on,":4038,"▁natural":4039,"▁uruguay":4040,"▁hablan":4041,"▁exo":4042,"▁continu":4043,"▁voce":4044,"▁exito":4045,"▁rodri":4046,"▁caliente":4047,"▁popular":4048,"▁ل":4049,"▁clara":4050,"en.":4051,"▁lec":4052,"▁enfada":4053,"mpre":4054,"▁agos":4055,"sable":4056,"▁cualquiera":4057,"▁imagin":4058,"▁puso":4059,"▁defini":4060,"▁calles":4061,"acao":4062,"▁home":4063,"tilla":4064,"▁ligeramente":4065,"▁sirve":4066,"▁deseo":4067,"▁whatsapp":4068,"▁barca":4069,"▁epo":4070,"▁puerto":4071,"▁nuevas":4072,"▁tio":4073,"▁siquiera":4074,"▁avis":4075,"▁jajajajaja":4076,"▁garan":4077,"iembre":4078,"▁first":4079,"▁bio":4080,"▁diver":4081,"▁que,":4082,"▁realiz":4083,"eco":4084,"▁clar":4085,"▁comentarios":4086,"▁contr":4087,"▁pren":4088,"entra":4089,"▁largo":4090,"▁dul":4091,"▁would":4092,"▁cuesta":4093,"▁ministro":4094,"▁gustan":4095,"gri":4096,"talla":4097,"cin":4098,"▁trib":4099,"▁docu":4100,"▁rock":4101,"pla":4102,"▁lastima":4103,"▁hero":4104,"▁capaz":4105,"▁after":4106,"co,":4107,"▁dicta":4108,"▁tae":4109,"era,":4110,"on.":4111,"▁costa":4112,"cap":4113,"u.":4114,"▁today":4115,"igu":4116,"bla":4117,"▁suce":4118,"▁estuvo":4119,"▁pido":4120,"▁mascarilla":4121,"ioso":4122,"truccion":4123,"hhh":4124,"▁alli":4125,"▁muertos":4126,"▁wey":4127,"▁jovenes":4128,"uca":4129,"▁semanas":4130,"▁nomb":4131,"inda":4132,"▁mitad":4133,"▁deberian":4134,"mos,":4135,"enci":4136,"▁admin":4137,"▁pendejo":4138,"40":4139,"▁diciembre":4140,"▁version":4141,"▁carajo":4142,"▁salen":4143,"▁mata":4144,"▁television":4145,"teria":4146,"tara":4147,"▁oposicion":4148,"▁viola":4149,"pres":4150,"bil":4151,"▁admi":4152,"▁ofre":4153,"▁lamenta":4154,"▁flo":4155,"▁encar":4156,"▁confirma":4157,"▁muero":4158,"▁recur":4159,"▁exclamacion":4160,"entando":4161,"▁muito":4162,"▁rub":4163,"▁lea":4164,"▁army":4165,"▁corte":4166,"tres":4167,"▁vayan":4168,"▁discul":4169,"▁miguel":4170,"int":4171,"itch":4172,"▁div":4173,"alla":4174,"▁campo":4175,"▁eeuu":4176,"▁escribir":4177,"▁cn":4178,"▁arreg":4179,"▁sar":4180,"▁puse":4181,"5.":4182,"▁crimin":4183,"▁solic":4184,"ave":4185,"▁saque":4186,"p.":4187,"▁metro":4188,"sas":4189,"▁necesario":4190,"▁recha":4191,"za.":4192,"▁raro":4193,"▁them":4194,"tive":4195,"▁muchisimo":4196,"▁girl":4197,"2018":4198,"ga,":4199,"gados":4200,"▁post":4201,"▁mundo.":4202,"▁declara":4203,"▁escuchando":4204,"ᅳᆫ":4205,"came":4206,"▁regimen":4207,"▁defensa":4208,"▁colegio":4209,"▁caer":4210,"▁desesperada":4211,"▁debate":4212,"▁sigan":4213,"▁narco":4214,"▁alim":4215,"enda":4216,"▁engan":4217,"7.":4218,"is.":4219,"andon":4220,"▁estadio":4221,"▁inver":4222,"▁tig":4223,"ina.":4224,"▁cielo":4225,"▁too":4226,"▁cuidar":4227,"isima":4228,"ku":4229,"ily":4230,"▁gh":4231,"wer":4232,"▁fondo":4233,"▁pruebas":4234,"ky":4235,"▁anoche":4236,"▁prensa":4237,"▁yo,":4238,"▁hojas":4239,"itacion":4240,"▁finde":4241,"▁poquito":4242,"▁disco":4243,"bes":4244,"_de":4245,"▁oper":4246,"▁representa":4247,"ana,":4248,"▁fans":4249,"▁ate":4250,"▁educa":4251,"ws":4252,"▁victi":4253,"▁cola":4254,"13":4255,"▁conte":4256,"/0":4257,"rias":4258,"▁temprano":4259,",.":4260,"buen":4261,"ibilidad":4262,"ming":4263,"▁cata":4264,"▁deten":4265,"▁inte":4266,"▁maravillos":4267,"ters":4268,"▁amena":4269,"▁conozco":4270,"follow":4271,"ana.":4272,"monio":4273,"tear":4274,"cara":4275,"c.":4276,"▁ultimas":4277,"▁familias":4278,"▁ando":4279,"das,":4280,"ze":4281,"▁denuncia":4282,"ma,":4283,"▁seguidores":4284,"▁dano":4285,"▁cuentas":4286,"era.":4287,"▁especi":4288,"mos.":4289,"▁honor":4290,"▁alco":4291,"▁bienven":4292,"▁recla":4293,"▁vista":4294,"ire":4295,"isla":4296,"▁online":4297,"_de_":4298,"▁proxima":4299,"▁pesar":4300,"▁tab":4301,"▁wan":4302,"▁estup":4303,"▁think":4304,"ismo.":4305,"▁servicios":4306,"▁ana":4307,"▁cagar":4308,"encial":4309,"▁simplemente":4310,"aso":4311,"▁mercado":4312,"▁especta":4313,"▁mol":4314,"▁tac":4315,"▁cuantos":4316,"idera":4317,"▁mul":4318,"pec":4319,"▁ger":4320,"olas":4321,"▁mmm":4322,"kook":4323,"▁catal":4324,"viv":4325,"▁sangre":4326,"ustra":4327,"▁multi":4328,"▁cordo":4329,"▁roman":4330,"▁spe":4331,"bel":4332,"▁colision":4333,"uno":4334,"▁aven":4335,"▁link":4336,"mitando":4337,"▁villa":4338,"▁90":4339,"▁pago":4340,"▁ingres":4341,"tria":4342,"▁tex":4343,"▁leo":4344,"▁corriendo":4345,"▁siga":4346,"▁incluso":4347,"▁siguiente":4348,"▁sue":4349,"▁alv":4350,"▁andar":4351,"unta":4352,"voz":4353,"▁apenas":4354,"▁won":4355,":(":4356,"▁miss":4357,"▁ellas":4358,"▁aleman":4359,"▁consec":4360,"cular":4361,"todo":4362,"gs":4363,"▁carcel":4364,"jus":4365,"▁pare":4366,"▁imagina":4367,"▁sam":4368,"-2":4369,"ilio":4370,"▁distancia":4371,"▁els":4372,"▁grogui":4373,"▁gr":4374,"'re":4375,"▁read":4376,"han":4377,"▁temas":4378,"ismo,":4379,"▁torne":4380,"tui":4381,"bon":4382,"ᅡᆼ":4383,"▁eso.":4384,"grafia":4385,"▁dem":4386,"▁nam":4387,"▁arco":4388,"▁stop":4389,"dica":4390,"▁animal":4391,"roso":4392,"▁saco":4393,"▁cancer":4394,"▁tho":4395,"▁sonrisa":4396,"▁capitulo":4397,"▁yo:":4398,"▁argu":4399,"▁salga":4400,"rito":4401,"▁memoria":4402,"▁diferente":4403,"▁estudiantes":4404,"▁ud":4405,"▁bajar":4406,"▁eta":4407,"▁vienen":4408,"das.":4409,"▁revolucion":4410,"▁universidad":4411,"▁mesa":4412,"tions":4413,"▁causa":4414,"▁tour":4415,"▁ic":4416,"cam":4417,"▁dices":4418,"jeron":4419,"▁dias,":4420,"▁modo":4421,"▁asus":4422,"▁pobl":4423,"▁pagina":4424,"me.":4425,"▁mete":4426,"▁imb":4427,"▁viento":4428,"isis":4429,"ela":4430,"▁neta":4431,"▁jud":4432,"h.":4433,"▁somb":4434,"▁enor":4435,"▁quisi":4436,"ierno":4437,"▁80":4438,"▁gonz":4439,"▁bella":4440,"aje":4441,"tian":4442,"▁stu":4443,"▁sexual":4444,"▁let":4445,"▁huevo":4446,"▁kcame":4447,"▁¿no":4448,"▁anton":4449,"chando":4450,"ga.":4451,"▁pd":4452,"▁casa,":4453,"▁japon":4454,"▁asis":4455,"▁kcamexico":4456,"vas":4457,"▁examen":4458,"▁amista":4459,"▁lleno":4460,"▁ansiedad":4461,"▁look":4462,"zado":4463,"▁??":4464,"▁prueba":4465,"▁estaban":4466,"▁cargo":4467,"▁enfadada":4468,"k.":4469,"▁chocola":4470,"▁baby":4471,"puestas":4472,"▁carn":4473,"▁atle":4474,"itaria":4475,"▁mencion":4476,"▁urgente":4477,"▁piensa":4478,"▁free":4479,"▁dialo":4480,"tiene":4481,"▁republica":4482,"▁necesitamos":4483,"▁estara":4484,"▁trabajadores":4485,"▁contrario":4486,"▁goles":4487,"▁cub":4488,"▁acces":4489,"▁varias":4490,"▁que?":4491,"▁tengas":4492,"▁mi,":4493,"eets":4494,"▁essa":4495,"▁into":4496,"▁fracas":4497,"▁uni":4498,"rero":4499,"▁legal":4500,"▁tatu":4501,"▁alegria":4502,"▁santiago":4503,"▁colec":4504,"mision":4505,"▁feste":4506,"▁mc":4507,"ways":4508,"▁cone":4509,"▁automatic":4510,"▁partici":4511,"▁lograr":4512,"▁caus":4513,"▁advertencia":4514,"▁evid":4515,"▁latiendo":4516,"▁jung":4517,"▁interesante":4518,"▁publicar":4519,"▁indus":4520,"▁paja":4521,"▁mantener":4522,"ito,":4523,"▁suena":4524,"▁manten":4525,"▁quisiera":4526,"read":4527,"▁triun":4528,"▁elector":4529,"leza":4530,"▁felices":4531,"▁casa.":4532,"▁proceso":4533,"▁vomitando":4534,"by":4535,"ma.":4536,"▁vid":4537,"▁sem":4538,"queo":4539,"▁ciudadanos":4540,"▁equipos":4541,"▁vox":4542,"inho":4543,"▁cantidad":4544,"▁resultado":4545,"-1":4546,"tes,":4547,"▁same":4548,"▁recibir":4549,"cera":4550,"▁pidiendo":4551,"▁preten":4552,"gracias":4553,"▁ras":4554,"tm":4555,"▁escon":4556,"▁asesina":4557,"▁elimin":4558,"ey":4559,"▁aud":4560,"▁tantos":4561,"▁pregunto":4562,"segu":4563,"▁simbol":4564,"▁prefi":4565,"▁pobres":4566,"ferencia":4567,"▁jaja.":4568,"▁zapa":4569,"▁valencia":4570,"▁listo":4571,"cada":4572,"sen":4573,"istemo":4574,"cura":4575,"▁espacio":4576,"▁still":4577,"▁ph":4578,"mac":4579,"▁efec":4580,"u,":4581,"▁debemos":4582,"arn":4583,"▁entrada":4584,"entan":4585,"▁puerta":4586,"pes":4587,"fff":4588,"een":4589,"▁suficiente":4590,"4.":4591,"mente,":4592,"▁seran":4593,"▁dibu":4594,"지":4595,"fin":4596,"▁todos.":4597,"▁comprom":4598,"▁piz":4599,"iversario":4600,"▁sim":4601,"▁posicion":4602,"log":4603,"▁suspen":4604,"fac":4605,"ienda":4606,"▁gay":4607,"▁infl":4608,"▁americ":4609,"▁cereb":4610,"▁febr":4611,"▁psic":4612,"▁hdp":4613,"▁difun":4614,"p:":4615,"▁insta":4616,"▁equivo":4617,"▁hable":4618,"▁adul":4619,"istas,":4620,"▁ching":4621,"▁alberto":4622,"▁defens":4623,"▁mentira":4624,"▁monton":4625,"▁leche":4626,"▁tapada":4627,"uncio":4628,"▁aur":4629,"▁administra":4630,"▁quem":4631,"uliantina":4632,"gi":4633,"▁encuen":4634,"▁sevilla":4635,"▁100%":4636,"zados":4637,"▁duen":4638,"▁patria":4639,"uros":4640,"▁neu":4641,"▁negocio":4642,"▁incen":4643,"h,":4644,"▁miser":4645,"▁anto":4646,"▁saca":4647,"porte":4648,"▁junio":4649,"▁desta":4650,"▁60":4651,"▁relo":4652,"▁barb":4653,"▁parque":4654,"▁nacion":4655,"▁epoca":4656,"oc":4657,"▁confianza":4658,"▁29":4659,"▁abierta":4660,"▁propio":4661,"uido":4662,"▁dele":4663,"▁lic":4664,"▁presion":4665,"▁premio":4666,"▁suen":4667,"▁brind":4668,"▁nen":4669,"rones":4670,"▁unfollow":4671,"▁alar":4672,"isco":4673,"▁pais,":4674,"▁tendria":4675,"▁dudas":4676,"▁asi.":4677,"▁director":4678,"▁entera":4679,"▁¿quien":4680,"ards":4681,"▁derro":4682,"▁besando":4683,"wa":4684,"ole":4685,"ordin":4686,"▁nerv":4687,"▁institu":4688,"▁esfuerzo":4689,"▁wow":4690,"▁aniversario":4691,"▁finan":4692,"▁concierto":4693,"▁imbeci":4694,"xt":4695,"▁lamentable":4696,"▁mal,":4697,"bado":4698,"▁besos":4699,"chan":4700,"▁garcia":4701,"dific":4702,"▁empren":4703,"▁mega":4704,"ias,":4705,"▁wal":4706,"ecio":4707,"▁cambia":4708,"▁tudo":4709,"tus":4710,"▁alex":4711,"truir":4712,"orar":4713,"▁market":4714,"▁impresion":4715,"▁a.":4716,"▁esto,":4717,"ood":4718,"▁watch":4719,"▁crack":4720,"▁ela":4721,"lle":4722,"▁central":4723,"▁down":4724,"▁tirar":4725,"▁(s":4726,"▁cuento":4727,"▁juegos":4728,"▁abandon":4729,"▁defin":4730,"▁rica":4731,"▁necesidad":4732,"▁resulta":4733,"▁right":4734,"ro,":4735,"▁afec":4736,"▁dura":4737,"▁alcohol":4738,"▁pudi":4739,"▁ada":4740,"iss":4741,"tida":4742,"▁medica":4743,"▁integ":4744,"z.":4745,"▁arbit":4746,"▁bara":4747,"▁articulo":4748,"▁bote":4749,"▁episo":4750,"▁juven":4751,"ded":4752,"ᅳᆯ":4753,"▁base":4754,"▁4.":4755,"pira":4756,"▁visit":4757,"▁vecinos":4758,"▁cumplir":4759,"▁felicita":4760,"▁playa":4761,"ney":4762,"▁vender":4763,"▁vamo":4764,"▁verte":4765,"▁decepcionada":4766,"lio":4767,"▁comision":4768,"viera":4769,"▁line":4770,"▁presu":4771,"▁lon":4772,"▁salida":4773,"itales":4774,"▁resultados":4775,"▁titular":4776,"ᅧᆫ":4777,"__":4778,"▁organiz":4779,"▁crees":4780,"▁glor":4781,"▁¿es":4782,"▁caca":4783,"▁bomba":4784,"jue":4785,"olver":4786,"▁prin":4787,"ful":4788,"▁jorge":4789,"▁existen":4790,"▁desay":4791,"▁toque":4792,"▁frustra":4793,"▁nem":4794,"▁retw":4795,"▁gos":4796,"▁vig":4797,"▁were":4798,"▁acus":4799,"▁reunion":4800,"▁vuelvo":4801,"mel":4802,"▁fron":4803,"▁propon":4804,"gular":4805,"▁cerrar":4806,"cter":4807,"▁actitu":4808,"▁artis":4809,"arlo":4810,"ro.":4811,"▁altavoz":4812,"dem":4813,"▁encontra":4814,"▁dedos":4815,"▁nause":4816,"▁bogo":4817,"▁imagino":4818,"od":4819,"ecido":4820,"▁denunci":4821,"▁estorn":4822,"▁fres":4823,"▁muestra":4824,"tiz":4825,"▁loo":4826,"▁terrible":4827,"▁grave":4828,"▁echar":4829,"vieron":4830,"▁ces":4831,"▁pros":4832,"co.":4833,"▁riesgo":4834,"ing.":4835,"▁prefiero":4836,"▁detalles":4837,"▁bebida":4838,"▁oye":4839,"▁chico":4840,"▁quando":4841,"▁bue":4842,"unda":4843,"▁agora":4844,"▁agui":4845,"▁cro":4846,"▁enfr":4847,"▁always":4848,"▁burl":4849,"스":4850,"▁estres":4851,"▁nes":4852,"▁responsabilidad":4853,"▁mtvlaf":4854,"▁famos":4855,"▁cancha":4856,"▁alter":4857,"▁zo":4858,"erio":4859,"tem":4860,"▁cero":4861,"▁detras":4862,"lada":4863,"▁bille":4864,"gara":4865,"▁propia":4866,"▁take":4867,"▁comb":4868,"▁viste":4869,"▁tira":4870,"▁pers":4871,"▁enfermedad":4872,"▁porta":4873,"▁full":4874,"▁last":4875,"tes.":4876,"▁entrega":4877,"▁mundo,":4878,"▁birth":4879,"▁alum":4880,"▁norte":4881,"test":4882,"▁ile":4883,"ios,":4884,"6.":4885,"▁hub":4886,"▁pura":4887,"cion.":4888,"▁news":4889,"media":4890,"▁dm":4891,"▁romper":4892,"▁resid":4893,"▁sing":4894,"▁mario":4895,"▁impac":4896,"▁¡que":4897,"▁perfecto":4898,"▁humil":4899,"timos":4900,"▁absoluta":4901,"▁sorpres":4902,"▁jimin":4903,"▁perfec":4904,"▁bat":4905,"▁brindando":4906,"▁dolar":4907,"▁genero":4908,"▁tl":4909,"tagon":4910,"iri":4911,"▁descon":4912,"▁juz":4913,"▁espal":4914,"▁apoyar":4915,"▁lee":4916,"▁google":4917,"▁reloj":4918,"▁el.":4919,"▁suma":4920,"▁ene":4921,"n't":4922,"dedor":4923,"▁vent":4924,"▁amor,":4925,"▁meta":4926,"vamos":4927,"▁carino":4928,"▁\"h":4929,"▁bbmas":4930,"▁reto":4931,"ano,":4932,"jaa":4933,"▁dijeron":4934,"▁abuela":4935,"▁agosto":4936,"▁envid":4937,"▁jefe":4938,"tifica":4939,"▁pocos":4940,"▁perdido":4941,"▁inic":4942,"▁simbolos":4943,"▁hubo":4944,"▁regis":4945,"teros":4946,"▁deman":4947,"rue":4948,"▁cordoba":4949,"▁tia":4950,"▁tas":4951,"▁heart":4952,"▁defien":4953,"▁solidar":4954,"▁figu":4955,"▁objetivo":4956,"▁llegan":4957,"▁cinco":4958,"▁nauseas":4959,"▁votos":4960,"▁calend":4961,"▁teniendo":4962,"▁llevan":4963,"gel":4964,"▁ejerc":4965,"urs":4966,"we":4967,"▁suenos":4968,"▁ul":4969,"▁resop":4970,"▁coche":4971,"▁tomando":4972,"▁conseguir":4973,"▁joda":4974,"ying":4975,"▁union":4976,"ito.":4977,"ges":4978,"▁festiv":4979,"▁estupi":4980,"▁siempre.":4981,"uesta":4982,"▁rece":4983,"▁fol":4984,"▁nov":4985,"▁cuarto":4986,"▁comba":4987,"kd":4988,"▁joh":4989,"jj":4990,"▁resoplando":4991,"icular":4992,"▁explica":4993,"▁pinta":4994,"▁sum":4995,"▁vil":4996,"▁tocar":4997,"▁uri":4998,"▁ᄀ":4999,"▁esca":5000,"bro":5001,"▁cuidado":5002,"▁placer":5003,"▁desas":5004,"▁abrir":5005,"▁vea":5006,"▁verdad,":5007,"▁tarta":5008,"ano.":5009,"▁tomo":5010,"se.":5011,"▁tecnologia":5012,"iese":5013,"▁gir":5014,"▁entiende":5015,"▁energia":5016,"▁saludando":5017,"▁gracia":5018,"?\"":5019,"cion,":5020,"▁dam":5021,"▁edicion":5022,"▁colon":5023,"▁chris":5024,"▁huevos":5025,"▁opera":5026,"▁fru":5027,"er.":5028,"▁adi":5029,"▁frase":5030,"▁fernandez":5031,"▁diferentes":5032,"▁tom":5033,"▁inu":5034,"▁rele":5035,"24":5036,"▁had":5037,"▁pesos":5038,"▁calendario":5039,"▁quizas":5040,"▁esto.":5041,"▁responder":5042,"▁perez":5043,"▁ejec":5044,"▁pegar":5045,"9.":5046,"▁embar":5047,"▁titulo":5048,"▁senci":5049,"▁madru":5050,"quina":5051,"▁prima":5052,"▁comentario":5053,"pia":5054,"▁acabar":5055,"▁resta":5056,"▁se,":5057,"▁diputa":5058,"▁venezolanos":5059,"▁obras":5060,"▁\"n":5061,"▁novie":5062,"▁esperanza":5063,"ello":5064,"▁menor":5065,"▁70":5066,"▁pudo":5067,"▁salva":5068,"▁reme":5069,"▁esten":5070,"에":5071,"▁ilusion":5072,"▁gracias.":5073,"▁encuentra":5074,"▁recomenda":5075,"in.":5076,"▁mirando":5077,"▁dipu":5078,"▁decis":5079,"▁acciones":5080,"▁minuto":5081,"▁cc":5082,"▁escucho":5083,"25":5084,"▁emergencia":5085,"▁ciencia":5086,"cida":5087,"▁pija":5088,"▁alcalde":5089,"▁borra":5090,"▁deus":5091,"▁photo":5092,"▁estornud":5093,"▁hogar":5094,"ral":5095,"▁periodista":5096,"▁going":5097,"▁ideas":5098,"er,":5099,"▁amen":5100,"▁preguntas":5101,"▁francis":5102,"▁bla":5103,"▁bib":5104,"▁adop":5105,"▁comi":5106,"ts.":5107,"▁cabron":5108,"▁being":5109,"▁olvidar":5110,"▁thanks":5111,"▁papas":5112,"▁explotando":5113,"▁hones":5114,"▁vota":5115,"▁gasol":5116,"iosa":5117,"acha":5118,"▁sou":5119,"▁preocupa":5120,"▁marco":5121,"▁abus":5122,"▁faltan":5123,"▁tweets":5124,"▁yes":5125,"▁teclas":5126,"▁2017":5127,"hahahaha":5128,"▁camis":5129,"▁sun":5130,"▁redon":5131,"▁completo":5132,"▁parar":5133,"▁dre":5134,"bran":5135,"ca,":5136,"quita":5137,"▁investigacion":5138,"▁vidas":5139,"▁univer":5140,"▁omg":5141,"▁olvido":5142,"▁consejo":5143,"▁victimas":5144,"▁\"p":5145,"tales":5146,"▁moral":5147,"▁desgra":5148,"▁dias.":5149,"▁proteccion":5150,"▁pio":5151,"▁provincia":5152,"ania":5153,"bri":5154,"▁pendeja":5155,"▁companeros":5156,"▁rafa":5157,"▁pso":5158,"▁enero":5159,"tita":5160,"▁does":5161,"▁peliculas":5162,"▁mostrando":5163,"mentar":5164,"anto":5165,"tique":5166,"▁bill":5167,"ush":5168,"▁perfecta":5169,"▁ame":5170,"▁years":5171,"▁hy":5172,"uena":5173,"▁pc":5174,"ifa":5175,"▁incl":5176,"▁joa":5177,"▁also":5178,"▁tendra":5179,"▁muerto":5180,"▁entendi":5181,"▁noviembre":5182,"tric":5183,"▁robar":5184,"▁cs":5185,"▁tremendo":5186,"▁tam":5187,"▁recursos":5188,"horab":5189,"▁garanti":5190,"ente,":5191,"▁resca":5192,"ada.":5193,"▁work":5194,"▁chiste":5195,"ada,":5196,"▁necesitan":5197,"▁andalu":5198,"▁porq":5199,"▁institucion":5200,"▁prefer":5201,"hay":5202,"▁harry":5203,"jajajajajajajaja":5204,"rica":5205,"▁es,":5206,"▁champions":5207,"▁personaje":5208,"▁night":5209,"▁under":5210,"▁lou":5211,"▁salvar":5212,"ls":5213,"▁mediana":5214,"quilla":5215,"▁paga":5216,"reno":5217,"fica":5218,"▁vib":5219,"ado,":5220,"▁cita":5221,"*.":5222,"▁fasc":5223,"▁verlo":5224,"▁empa":5225,"▁primeros":5226,"▁consider":5227,"▁empezo":5228,"▁joy":5229,"▁km":5230,"▁well":5231,"▁compre":5232,"▁repar":5233,"▁chic":5234,"▁carne":5235,"ias.":5236,"▁perros":5237,"▁reaccion":5238,"▁inno":5239,"▁run":5240,"▁oscar":5241,"tch":5242,"▁taller":5243,"▁claro,":5244,"▁sien":5245,"▁gala":5246,"▁quieras":5247,"▁definitivamente":5248,"tumb":5249,"▁femen":5250,"▁selector":5251,"▁microfono":5252,"bs":5253,"▁chicas":5254,"fans":5255,"▁afu":5256,"▁htt":5257,"▁humanos":5258,"▁aprendi":5259,"ane":5260,"▁gracias,":5261,"▁should":5262,"▁escol":5263,"▁hiciste":5264,"▁usuario":5265,"▁esco":5266,"▁could":5267,"p:/":5268,"its":5269,"▁negra":5270,"▁grupos":5271,"duccion":5272,"▁canta":5273,"▁cabez":5274,"uto":5275,"▁sincer":5276,"erva":5277,"▁isla":5278,"▁bolsa":5279,"▁vul":5280,"▁mina":5281,"▁uribe":5282,"▁\"me":5283,"▁rodrigue":5284,"▁hagas":5285,"ente.":5286,"▁maximo":5287,"▁;)":5288,"dian":5289,"tario":5290,"istas.":5291,"jero":5292,"▁help":5293,"▁learn":5294,"▁dolares":5295,"▁parecer":5296,"▁mejorar":5297,"▁caga":5298,"▁guay":5299,"▁genera":5300,"22":5301,"tun":5302,"▁critica":5303,"▁presentacion":5304,"▁diria":5305,"rer":5306,"▁sempre":5307,"▁ingen":5308,"▁reina":5309,"ical":5310,"igan":5311,"▁series":5312,"▁inclu":5313,"ses":5314,"▁dedic":5315,"▁responsable":5316,"▁debo":5317,"ado.":5318,"▁camion":5319,"▁peron":5320,"▁pm":5321,"▁veh":5322,"▁siesta":5323,"▁chal":5324,"▁flores":5325,"▁infan":5326,"hab":5327,"▁crear":5328,"▁sala":5329,"▁ao":5330,"▁hoje":5331,"▁ti,":5332,"▁bronca":5333,"▁most":5334,"▁aliviada":5335,"arez":5336,"▁estornudando":5337,"gol":5338,"ww":5339,"▁participar":5340,"▁impres":5341,"bus":5342,"▁poblacion":5343,"ios.":5344,"▁cerebro":5345,"▁part":5346,"in,":5347,"▁gente,":5348,"ciar":5349,"tea":5350,"▁jungkook":5351,"▁clave":5352,"▁virtual":5353,"▁imagenes":5354,"▁vuelva":5355,"▁vues":5356,"▁mentiras":5357,"▁panama":5358,"▁estilo":5359,"▁gam":5360,"▁entro":5361,"▁forta":5362,"▁acon":5363,"▁febrero":5364,"ciendo":5365,"▁hoy.":5366,"하":5367,"ditos":5368,"▁bailar":5369,"▁disfruta":5370,"▁terraqueo":5371,"eratura":5372,"▁http:/":5373,"▁medico":5374,"▁facul":5375,"▁diego":5376,"▁¡no":5377,"▁got7":5378,"▁hacerme":5379,"iris":5380,"▁audio":5381,"▁paraguay":5382,"g.":5383,"▁cago":5384,"▁llamado":5385,"▁hara":5386,"▁afic":5387,"%.":5388,"▁pude":5389,"▁checked":5390,"▁(?)":5391,"▁these":5392,"▁kee":5393,"▁birthday":5394,"▁avion":5395,"▁shit":5396,".0":5397,"ple":5398,"mo,":5399,"▁acto":5400,"▁end":5401,"▁ridiculo":5402,"▁cdmx":5403,"bilidad":5404,"▁automatically":5405,"▁torneo":5406,"▁apun":5407,"▁miren":5408,"▁habria":5409,"teando":5410,"dientes":5411,"▁volvio":5412,"▁teatro":5413,"▁great":5414,"cy":5415,"▁tiempo.":5416,"▁cantar":5417,"▁italia":5418,"▁ub":5419,"▁guaido":5420,"▁31":5421,"▁salvador":5422,"▁todos,":5423,"dent":5424,"▁piso":5425,"▁deporte":5426,"▁mal.":5427,"dias":5428,"▁neg":5429,"--":5430,"ianos":5431,"ecia":5432,"▁cristi":5433,"▁francia":5434,"▁favor,":5435,"▁malas":5436,"▁\"si":5437,"▁roja":5438,"▁noso":5439,"▁tip":5440,"fav":5441,"▁tarje":5442,"▁piden":5443,"▁1,":5444,"▁tiempo,":5445,"▁aparece":5446,"▁gotas":5447,"▁ᄉ":5448,"amientos":5449,"▁tel":5450,"▁ocas":5451,"▁master":5452,"ipe":5453,"▁cham":5454,"▁encontre":5455,"▁carta":5456,"▁better":5457,"self":5458,"▁open":5459,"esa":5460,"▁marketing":5461,"▁comienza":5462,"tana":5463,"▁abri":5464,"▁ambos":5465,"▁interior":5466,"▁atre":5467,"▁arru":5468,"▁tratar":5469,"▁vice":5470,"▁rober":5471,"▁acco":5472,"▁transfor":5473,"▁dal":5474,"▁interesa":5475,"igue":5476,"▁vean":5477,"▁evento":5478,"▁pasion":5479,"duce":5480,"▁modelo":5481,"▁coinci":5482,"▁nose":5483,"▁ahhh":5484,"▁pelotudo":5485,"k,":5486,"▁intentar":5487,"▁puedan":5488,"▁ris":5489,"orado":5490,"land":5491,"▁mons":5492,"▁humano":5493,"▁fase":5494,"▁informe":5495,"▁gobernador":5496,"▁coca":5497,"▁importantes":5498,"mente.":5499,"▁aparte":5500,"▁ki":5501,"▁perdio":5502,"▁\"de":5503,"ux":5504,"jado":5505,"▁david":5506,"▁estuve":5507,"▁followed":5508,"▁confun":5509,"▁desgracia":5510,"iando":5511,"▁elegir":5512,"▁comiendo":5513,"▁verdadero":5514,"▁premi":5515,"▁medicos":5516,"▁mensajes":5517,"▁sorry":5518,"▁nicara":5519,"99":5520,"▁toy":5521,"▁mismo.":5522,"▁periodistas":5523,"▁vosotros":5524,"▁correspon":5525,"▁convoca":5526,"▁cancel":5527,"▁numer":5528,"▁reflexion":5529,"ele":5530,"▁consecuen":5531,"8.":5532,"▁tox":5533,"▁lei":5534,"▁tome":5535,"▁latino":5536,"▁siempre,":5537,"▁morena":5538,"chi":5539,"▁bang":5540,"eres":5541,"▁direccion":5542,"rs":5543,"▁poniendo":5544,"▁clasico":5545,"▁cerez":5546,"teca":5547,"ipol":5548,"▁mi.":5549,"mera":5550,"▁ques":5551,"▁empleo":5552,"▁debes":5553,"cun":5554,"▁conce":5555,"▁sopor":5556,"▁ti.":5557,"quero":5558,"▁ocul":5559,"▁hid":5560,"▁daniel":5561,"mano":5562,"▁discu":5563,"▁fazer":5564,"lib":5565,"▁pela":5566,"▁(y":5567,"▁antonio":5568,"▁compren":5569,"▁viven":5570,"oro":5571,"▁mtvlapar":5572,"ficial":5573,"▁independiente":5574,"▁pongan":5575,"▁vengan":5576,"▁condiciones":5577,"▁tik":5578,"▁municipal":5579,"tidos":5580,"▁impuestos":5581,"▁tax":5582,"▁terri":5583,"cao":5584,"▁parla":5585,"▁salgo":5586,"▁afir":5587,"▁tuyo":5588,"▁acci":5589,"ct":5590,"▁camiseta":5591,"▁aburri":5592,"ce.":5593,"▁impul":5594,"iler":5595,"▁kid":5596,"▁carre":5597,"▁ali":5598,"▁manuel":5599,"rita":5600,"▁chavez":5601,"tillo":5602,"mamente":5603,"▁dr":5604,"▁explicar":5605,"▁500":5606,"▁actividades":5607,"▁made":5608,"▁ambiente":5609,"▁obliga":5610,"▁santo":5611,"▁said":5612,"▁consu":5613,"▁visual":5614,"▁indign":5615,"▁eleccion":5616,"▁capacidad":5617,"▁arcoiris":5618,"ns":5619,"▁patri":5620,"▁volun":5621,"▁hp":5622,"▁compromiso":5623,"▁irme":5624,"▁caracter":5625,"se,":5626,"▁perman":5627,"▁mostra":5628,"▁pierde":5629,"▁comunicacion":5630,"▁enorme":5631,"▁victor":5632,"▁levantar":5633,"▁literalmente":5634,"▁estable":5635,"▁fc":5636,"▁exclus":5637,"▁injus":5638,"▁reno":5639,"▁manip":5640,"cidos":5641,"▁murio":5642,"▁celebrar":5643,"▁sexo":5644,"cien":5645,"▁positivo":5646,"▁¿a":5647,"▁ric":5648,"▁pega":5649,"▁boo":5650,"▁cocina":5651,"다":5652,"▁beau":5653,"▁acerca":5654,"ham":5655,"▁sube":5656,"▁preocup":5657,"60":5658,"unas":5659,"▁respecto":5660,"▁represent":5661,"▁llegado":5662,"todos":5663,"▁quita":5664,"anda":5665,"▁reforma":5666,"▁brin":5667,"ilia":5668,"▁coun":5669,"▁culp":5670,"▁etc.":5671,"▁vengo":5672,"▁peso":5673,"▁call":5674,"▁god":5675,"▁sad":5676,"▁league":5677,"▁magn":5678,"▁aficion":5679,"mo.":5680,"▁merca":5681,"▁qual":5682,"▁molesta":5683,"▁supera":5684,"▁ine":5685,"los.":5686,"▁preguntar":5687,"▁amazon":5688,"este":5689,"▁apo":5690,"▁altura":5691,"▁ahora,":5692,"▁wait":5693,"▁principal":5694,"▁mato":5695,"▁hotel":5696,"▁ello":5697,"▁el,":5698,"back":5699,"lea":5700,"▁profe":5701,"chu":5702,"ym":5703,"▁festival":5704,"▁dire":5705,"▁horario":5706,"of":5707,"▁lagri":5708,"▁motivo":5709,"▁interven":5710,"tiles":5711,"▁decirle":5712,"▁mx":5713,"▁rue":5714,"ando.":5715,"▁dejas":5716,"red":5717,"▁busque":5718,"▁sao":5719,"▁hablamos":5720,"iera":5721,"▁anuncia":5722,"▁judic":5723,"ever":5724,"▁logra":5725,"cla":5726,"▁aero":5727,"▁ataque":5728,"mpa":5729,"▁mayores":5730,"▁infin":5731,"▁dictadura":5732,"▁friends":5733,"▁bano":5734,"▁protagon":5735,"▁\"f":5736,"los,":5737,"▁favorita":5738,"▁auricular":5739,"▁very":5740,"▁continua":5741,"▁quitar":5742,"▁participa":5743,"hos":5744,"▁invito":5745,"▁high":5746,"horabuena":5747,"▁impun":5748,"▁suic":5749,"▁vende":5750,"▁gig":5751,"aram":5752,"▁progres":5753,"▁belleza":5754,"▁cana":5755,"▁pizza":5756,"bio":5757,"▁agus":5758,"▁une":5759,"▁moment":5760,"tim":5761,"▁mila":5762,"ido.":5763,"jin":5764,"▁jal":5765,"▁resis":5766,"▁firma":5767,"▁sesion":5768,"▁other":5769,"▁cent":5770,"▁\"en":5771,"ante.":5772,"▁mejor.":5773,"didos":5774,"▁jajajaj":5775,"capac":5776,"▁discurso":5777,"oos":5778,"▁exitos":5779,"▁asocia":5780,"▁desastre":5781,"▁movimiento":5782,"rea":5783,"▁ahorita":5784,"▁sois":5785,"▁recibiendo":5786,"▁encer":5787,"▁guste":5788,"▁corto":5789,"▁abierto":5790,"▁digas":5791,"▁valle":5792,"jajaja":5793,"jis":5794,"▁dios,":5795,"inha":5796,"▁cantando":5797,"▁conduc":5798,"▁cie":5799,"dere":5800,"▁practic":5801,"▁colabor":5802,"▁inscri":5803,"▁prec":5804,"▁asun":5805,"▁campeona":5806,"gin":5807,"▁miemb":5808,"▁jaj":5809,"▁vel":5810,"▁little":5811,"▁estes":5812,"▁importancia":5813,"▁cuantas":5814,"▁medalla":5815,"▁autono":5816,"▁cif":5817,"▁drama":5818,"▁loc":5819,"▁viajar":5820,"icana":5821,"amite":5822,"▁profesor":5823,"▁trae":5824,"dela":5825,"▁afecta":5826,"▁tenian":5827,"yen":5828,"fl":5829,"tividad":5830,"▁saludo":5831,"▁olimp":5832,"cle":5833,"ido,":5834,"▁5.":5835,"jeros":5836,"▁chocolate":5837,"ork":5838,"▁verdad.":5839,"▁animales":5840,"▁politic":5841,"▁voltaje":5842,"▁fake":5843,"zo.":5844,"kaka":5845,"mas,":5846,"▁care":5847,"▁complica":5848,"▁piensan":5849,"▁form":5850,"▁funciona":5851,"▁mez":5852,"▁posta":5853,"▁ace":5854,"▁bun":5855,"▁enviar":5856,"▁ola":5857,"▁gane":5858,"rique":5859,"▁quis":5860,"▁consulta":5861,"nd":5862,"▁intento":5863,"▁llaman":5864,"▁cristina":5865,"▁asamb":5866,"▁inau":5867,"▁\"los":5868,"▁propos":5869,"▁anterior":5870,"ibil":5871,"▁dulce":5872,"▁sm":5873,"▁nega":5874,"&lt;":5875,"ava":5876,"▁amigos,":5877,"▁dema":5878,"itando":5879,"ats":5880,"▁lloro":5881,"23":5882,"▁song":5883,"ino,":5884,"▁ninguno":5885,"소":5886,"▁vehic":5887,"▁teneis":5888,"▁logro":5889,"▁mates":5890,"acia":5891,"▁imbecil":5892,"▁productos":5893,"▁fandom":5894,"▁medida":5895,"▁psoe":5896,"▁autoridades":5897,"▁completa":5898,"▁congres":5899,"▁osea":5900,"▁cac":5901,"▁mana":5902,"▁ᄆ":5903,"▁gustado":5904,"▁elig":5905,"▁liberta":5906,"▁promocion":5907,"▁feria":5908,"▁sorteo":5909,"▁princes":5910,"▁valent":5911,"▁sober":5912,"▁preciosa":5913,"asi":5914,"▁espac":5915,"ged":5916,"▁regreso":5917,"▁relig":5918,"▁mierda.":5919,"▁where":5920,"ueva":5921,"▁global":5922,"\":":5923,"▁fernando":5924,"▁city":5925,"▁ofen":5926,"▁unidad":5927,"▁quieran":5928,"▁plas":5929,"▁priva":5930,"uuu":5931,"▁rombo":5932,"▁ses":5933,"▁mostrar":5934,"sal":5935,"\"...":5936,"▁tardes":5937,"▁moto":5938,"▁(a":5939,"▁¡fel":5940,"▁area":5941,"pop":5942,"▁concep":5943,"▁felicitaciones":5944,"▁confor":5945,"▁م":5946,"▁afuera":5947,"▁pensaba":5948,"▁solamente":5949,"▁sepa":5950,"▁spotif":5951,"▁poca":5952,"▁francisco":5953,"▁fea":5954,"bor":5955,"▁meme":5956,"▁sobr":5957,"▁tod":5958,"▁compara":5959,"▁jejeje":5960,"gala":5961,"mita":5962,"▁pierdas":5963,"▁absolutamente":5964,"▁quero":5965,"▁hope":5966,"▁paciencia":5967,"row":5968,"▁destino":5969,"▁perdida":5970,"▁favorito":5971,"▁muere":5972,"▁neutral":5973,"▁mismo,":5974,"▁descono":5975,"▁querida":5976,"▁guardia":5977,"pal":5978,"▁tercer":5979,"▁tercera":5980,"▁ultimamente":5981,"▁bole":5982,"iii":5983,"▁alej":5984,"▁bul":5985,"▁bienes":5986,"▁analisis":5987,"▁levante":5988,"▁hablas":5989,"▁lugares":5990,"▁actividad":5991,"▁dame":5992,"▁espiri":5993,"▁iglesia":5994,"▁pibe":5995,"▁cabal":5996,"▁mucho,":5997,"tud":5998,"▁wtf":5999,"▁cuales":6000,"▁responde":6001,"▁jer":6002,"andro":6003,"idor":6004,"▁¿te":6005,"▁acompana":6006,"iamos":6007,"▁trabajos":6008,"jsj":6009,"▁depende":6010,"▁maestro":6011,"▁rit":6012,"▁antic":6013,"▁madres":6014,"itud":6015,"▁tambien.":6016,"▁perten":6017,"80":6018,"&amp;":6019,"▁aborto":6020,"ices":6021,"▁inso":6022,"▁ninas":6023,"▁proyectos":6024,"▁awards":6025,"▁acostumb":6026,"▁hun":6027,"▁voces":6028,"▁ri":6029,"▁toco":6030,"cita":6031,"▁:d":6032,"uc":6033,"logia":6034,"].":6035,"▁categ":6036,"▁embara":6037,"▁desin":6038,"▁wil":6039,"▁escuche":6040,"▁frustracion":6041,"▁trebol":6042,"tiful":6043,"▁ya.":6044,"▁dirig":6045,"▁agradecer":6046,"/10":6047,"enario":6048,"lac":6049,"▁politicas":6050,"▁2021":6051,"tieron":6052,"▁rode":6053,"**":6054,"ilable":6055,"▁confusion":6056,"▁mareo":6057,"▁dona":6058,"▁abre":6059,",000":6060,"▁ray":6061,"▁andres":6062,"▁coger":6063,"▁fuerzas":6064,"▁bom":6065,"▁bolivar":6066,"▁keep":6067,"gus":6068,"mestre":6069,"▁aquellos":6070,"▁35":6071,"as?":6072,"▁candidato":6073,"▁mm":6074,"▁ira":6075,"uales":6076,"▁depar":6077,"▁の":6078,"idade":6079,"▁culia":6080,"▁dejado":6081,"▁cierto,":6082,"dena":6083,"▁compania":6084,"▁entero":6085,"▁ascen":6086,"▁use":6087,"▁deix":6088,"▁ye":6089,"ᅵᆫ":6090,"ath":6091,"▁mv":6092,"▁portu":6093,"cero":6094,"▁cant":6095,"▁huel":6096,"▁universo":6097,"▁dyn":6098,"▁then":6099,"pir":6100,"▁aguante":6101,"tti":6102,"▁aquel":6103,"▁mori":6104,"com":6105,"▁redonda":6106,"▁alf":6107,"▁formacion":6108,"▁merecen":6109,"▁pass":6110,"▁mesmo":6111,"▁gonzal":6112,"▁ejercicio":6113,"wu":6114,"▁next":6115,"ella":6116,"&gt;&gt;&gt;&gt;":6117,"▁cambie":6118,"riendo":6119,"ca.":6120,"▁ᄌ":6121,"▁!.":6122,"▁sat":6123,"jera":6124,"▁volumen":6125,"ino.":6126,"▁trabajador":6127,"▁cruzados":6128,"▁ainda":6129,"▁estima":6130,"▁party":6131,"▁subs":6132,"▁probable":6133,"▁inaugu":6134,"fan":6135,"▁¿sab":6136,"▁tao":6137,"▁edific":6138,"▁ᄇ":6139,"▁influen":6140,"tz":6141,"▁fuiste":6142,"idio":6143,"▁ministerio":6144,"▁provo":6145,"▁correr":6146,"bin":6147,"▁privile":6148,"▁estacion":6149,"▁deca":6150,"▁p.":6151,"▁cayo":6152,"ller":6153,"?,":6154,"▁yan":6155,"vailable":6156,"▁talento":6157,"▁entradas":6158,"▁ejecu":6159,"avera":6160,"▁escribe":6161,"▁justific":6162,"▁corta":6163,"▁decre":6164,"▁duque":6165,"▁realizar":6166,"▁periodico":6167,"▁pec":6168,"▁transporte":6169,"ticion":6170,"▁contacto":6171,"▁\"que":6172,"▁pref":6173,"▁dignidad":6174,"▁tell":6175,"▁principio":6176,"▁fucking":6177,"▁tu,":6178,"▁habit":6179,"▁joaquin":6180,"▁y,":6181,"▁mierda,":6182,"▁maldita":6183,"▁funcionarios":6184,"▁haha":6185,"video":6186,"▁estrate":6187,"dimiento":6188,"le.":6189,"▁bogota":6190,"▁sei":6191,"▁ponga":6192,"izando":6193,"▁cobrar":6194,"▁cosas,":6195,"▁power":6196,"▁2016":6197,"▁hier":6198,"▁pandem":6199,"▁necesitas":6200,"▁llo":6201,"▁nicolas":6202,"▁envia":6203,"▁pacientes":6204,"eso":6205,"▁inoc":6206,"▁doctor":6207,"sed":6208,"▁mucho.":6209,"ving":6210,"▁hot":6211,"segui":6212,"...\"":6213,"rlo":6214,"▁dialogo":6215,"▁esque":6216,"om":6217,"가":6218,"▁falso":6219,"▁gente.":6220,"▁pedazo":6221,"▁yo.":6222,"▁xx":6223,"▁account":6224,"▁c.":6225,"▁rodriguez":6226,"▁siglo":6227,"ts,":6228,"gt":6229,"▁criminal":6230,"▁casas":6231,"▁conciencia":6232,"seguridad":6233,"▁pies":6234,"▁repetir":6235,"isimas":6236,"▁ficha":6237,"har":6238,"▁municipio":6239,"▁individ":6240,"▁ego":6241,"▁ruta":6242,"▁again":6243,"▁electoral":6244,"▁corruptos":6245,"▁acordar":6246,"▁crimen":6247,"su":6248,"▁haria":6249,"▁diz":6250,"▁interpre":6251,"▁balonces":6252,"▁beautiful":6253,"▁ganado":6254,"▁amooo":6255,"▁stay":6256,"▁gim":6257,"▁bem":6258,"▁diputados":6259,"▁renuncia":6260,"100":6261,"▁falto":6262,"▁homena":6263,"▁leyendo":6264,"▁inven":6265,"ife":6266,"p,":6267,"puer":6268,"▁rata":6269,"▁ms":6270,"▁cerezo":6271,"ble.":6272,"▁separa":6273,"lados":6274,"▁mues":6275,"▁turismo":6276,"▁trabajo,":6277,"▁aro":6278,"ita,":6279,"▁uds":6280,"▁tenho":6281,"▁yendo":6282,"▁md":6283,"▁devuel":6284,"b.":6285,"aldo":6286,"▁euros":6287,"eda":6288,"favor":6289,"yer":6290,"▁queso":6291,"▁construccion":6292,"le,":6293,"ess":6294,"▁pueb":6295,"▁pata":6296,"▁proteger":6297,"▁clo":6298,"▁agenda":6299,"▁cali":6300,"▁cobar":6301,"▁pleno":6302,"▁pocas":6303,"▁despertar":6304,"▁rui":6305,"▁45":6306,"▁facultad":6307,"▁jaja,":6308,"▁tecnico":6309,"▁cabello":6310,"▁cambios":6311,"▁hern":6312,"▁instal":6313,"▁extrana":6314,"▁llamo":6315,"aas":6316,"▁planeta":6317,"▁chab":6318,"▁evolucion":6319,"▁maldito":6320,"▁alerta":6321,"▁habian":6322,"▁aceptar":6323,"▁aja":6324,"▁dejaron":6325,"▁tristeza":6326,"▁nosotras":6327,"▁bolivia":6328,"▁jardin":6329,"▁hit":6330,"▁segundos":6331,"▁cle":6332,"ando,":6333,"mad":6334,"▁hs":6335,"▁diez":6336,"▁hermanos":6337,"chada":6338,"▁adelan":6339,"▁u.":6340,"▁amigo,":6341,"▁planes":6342,"▁moda":6343,"imas":6344,"▁irre":6345,"▁baile":6346,"▁anuncio":6347,"▁material":6348,"▁piedra":6349,"▁louis":6350,"▁give":6351,"▁viviendo":6352,"▁fur":6353,"anos,":6354,"▁visitar":6355,"▁irrespon":6356,"▁dynamite":6357,"▁profesionales":6358,"▁fiel":6359,"▁acabe":6360,"▁hoja":6361,"▁tuy":6362,"zo,":6363,"▁cierre":6364,"▁division":6365,"minacion":6366,"▁calavera":6367,"▁sueldo":6368,"▁¡a":6369,"▁energ":6370,"해":6371,"▁juicio":6372,"▁:'":6373,"digo":6374,"▁gonzalez":6375,"▁pelota":6376,"▁id":6377,"▁hubiese":6378,"▁moder":6379,"▁hola,":6380,"▁etique":6381,"▁iban":6382,"▁actitud":6383,"▁reproducir":6384,"'.":6385,"cus":6386,"ezco":6387,"lico":6388,"jajaj":6389,"▁jos":6390,"▁....":6391,"▁helado":6392,"/2":6393,"▁generacion":6394,"▁etapa":6395,"▁martinez":6396,"▁aumento":6397,"▁produccion":6398,"▁jarras":6399,"tto":6400,"▁ano,":6401,"c,":6402,"▁melhor":6403,"▁acaso":6404,"▁gall":6405,"▁sali":6406,"▁respec":6407,"▁iran":6408,"리":6409,"donde":6410,"▁hayan":6411,"▁estrategia":6412,"ute":6413,"▁caja":6414,"▁gordo":6415,"▁pa'":6416,"▁escan":6417,"▁suda":6418,"▁rusia":6419,"▁masaje":6420,"▁junior":6421,"uri":6422,"▁ano.":6423,"▁sensacion":6424,"▁obvia":6425,"ce,":6426,"n.":6427,"▁barr":6428,"▁complic":6429,"▁igualdad":6430,"▁echo":6431,"▁casual":6432,"▁revis":6433,"▁dream":6434,"lesc":6435,"▁partida":6436,"▁fiestas":6437,"iere":6438,"45":6439,"▁box":6440,"▁record":6441,"▁ponerme":6442,"▁cuel":6443,"▁buscan":6444,"▁can't":6445,"ume":6446,"jen":6447,"▁permite":6448,"▁traicion":6449,"▁conden":6450,"▁you're":6451,"▁presencia":6452,"▁pones":6453,"▁nadie,":6454,"▁#ᄇ":6455,"▁locura":6456,"▁andan":6457,"graf":6458,"▁assim":6459,"▁inteligencia":6460,"▁apos":6461,"▁tarea":6462,"▁junta":6463,"▁superar":6464,"▁cartel":6465,"▁caro":6466,"▁proto":6467,"ba,":6468,"▁\"yo":6469,"▁baloncesto":6470,"▁billete":6471,"▁pecho":6472,"▁hubier":6473,"bos":6474,"▁imper":6475,"▁artista":6476,"▁destru":6477,"90":6478,"▁rosario":6479,"jones":6480,"▁carro":6481,"아":6482,"▁es.":6483,"▁sufri":6484,"▁consejos":6485,"▁ya,":6486,"▁saliendo":6487,"kan":6488,"▁negocios":6489,"▁vez,":6490,"▁mami":6491,"vemos":6492,"▁olvide":6493,"uelas":6494,"▁economica":6495,"▁convier":6496,"▁materia":6497,"▁story":6498,"▁though":6499,"▁superior":6500,"cip":6501,"▁clin":6502,"▁supre":6503,"▁amor.":6504,"▁sea,":6505,"▁frances":6506,"▁manifesta":6507,"▁alterna":6508,"▁nicaragua":6509,"▁espalda":6510,"▁vieron":6511,"▁policias":6512,"▁supuesto":6513,"▁sr":6514,"▁arena":6515,"▁catalan":6516,"▁nadie.":6517,"▁companero":6518,"ivos":6519,"▁stra":6520,"iero":6521,"▁conferencia":6522,"▁hugo":6523,"torno":6524,"▁sitio":6525,"▁larga":6526,"▁gracias!":6527,"▁expon":6528,"▁aver":6529,"▁john":6530,"ross":6531,"▁mande":6532,"▁cf":6533,"▁retro":6534,"▁prohibido":6535,"presid":6536,"니":6537,"▁ver,":6538,"xo":6539,"▁formas":6540,"▁jugo":6541,"▁probar":6542,"-3":6543,"ition":6544,"ante,":6545,"entes.":6546,"▁1000":6547,"▁ng":6548,"▁proce":6549,"▁arch":6550,"▁enamorada":6551,"▁hechos":6552,"▁original":6553,"▁amistad":6554,"umir":6555,"▁pensamiento":6556,"70":6557,"zca":6558,"zamos":6559,"▁mejor,":6560,"▁\"re":6561,"▁intens":6562,"tias":6563,"▁porfa":6564,"▁pequena":6565,"▁conjun":6566,"▁dr.":6567,"▁giv":6568,"▁arras":6569,"▁cerdo":6570,"▁senores":6571,"lace":6572,"▁bicic":6573,"cs":6574,"▁yoong":6575,"entes,":6576,"▁sosten":6577,"▁dejando":6578,"ilos":6579,"▁claramente":6580,"▁gue":6581,"▁plena":6582,"gr":6583,"▁juntas":6584,"▁things":6585,"▁two":6586,"▁gracios":6587,"▁gratui":6588,"▁periodismo":6589,"itarios":6590,"▁incon":6591,"die":6592,"▁refor":6593,"l.":6594,"mn":6595,"▁cuch":6596,"▁memes":6597,"▁recuerdos":6598,"▁infantil":6599,"iden":6600,"▁traer":6601,"▁manifes":6602,"▁jon":6603,"▁ty":6604,"▁more.":6605,"▁favor.":6606,"▁deuda":6607,"▁something":6608,"jito":6609,"▁cool":6610,"▁restau":6611,"als":6612,"▁ganan":6613,"▁libres":6614,"▁salido":6615,"kers":6616,"▁300":6617,"tn":6618,"▁santos":6619,"▁perra":6620,"▁bols":6621,"▁familiares":6622,"▁numeros":6623,"▁set":6624,"▁adolesc":6625,"▁homenaje":6626,"iber":6627,"▁nuevamente":6628,"▁gasolina":6629,"▁resumen":6630,"izada":6631,"▁pendejos":6632,"vacion":6633,"▁participacion":6634,"jo,":6635,"anos.":6636,"▁\"o":6637,"▁propuesta":6638,"▁matan":6639,"pera":6640,"▁bendi":6641,"▁bello":6642,"▁2015":6643,"▁tremenda":6644,"▁jin":6645,"▁solidaridad":6646,"▁pasaron":6647,"▁¿cual":6648,"▁precis":6649,"uelos":6650,"▁salvo":6651,"▁tun":6652,"▁esperaba":6653,"▁emba":6654,"▁judicial":6655,"▁bit":6656,"vimos":6657,"▁ellos.":6658,"▁publicos":6659,"ᅮᆫ":6660,"▁aler":6661,"duras":6662,"▁propa":6663,"▁king":6664,"▁vivimos":6665,"▁entregar":6666,"▁planta":6667,"▁malos":6668,"phone":6669,"▁¡el":6670,"▁espanoles":6671,"▁nieve":6672,"ek":6673,"▁adios":6674,"▁sentimientos":6675,"▁javier":6676,"▁ue":6677,"▁long":6678,"led":6679,"▁fana":6680,"▁thing":6681,"▁guad":6682,"▁tranquila":6683,"▁sua":6684,"▁jack":6685,"▁dejamos":6686,"▁aprue":6687,"▁dime":6688,"▁registra":6689,"▁recomiendo":6690,"▁nena":6691,"▁legisla":6692,"▁asomb":6693,"crib":6694,"▁pate":6695,"▁colores":6696,"▁invierno":6697,"enar":6698,"▁divers":6699,"▁departa":6700,"▁decisiones":6701,"▁acceso":6702,"-s":6703,"▁presos":6704,"▁estare":6705,"▁asquer":6706,"▁bec":6707,"diste":6708,"▁delincuentes":6709,"▁diputado":6710,"▁dd":6711,"iles":6712,"▁cry":6713,"▁podido":6714,"trib":6715,"▁pudiera":6716,"▁alguno":6717,"▁emilio":6718,"▁iniciativa":6719,"▁crush":6720,"▁cabo":6721,"▁peligro":6722,"▁spotify":6723,"abel":6724,"erno":6725,"▁pagan":6726,"▁plus":6727,"▁enhorabuena":6728,"▁inversion":6729,"fore":6730,"▁cadena":6731,"▁bolson":6732,"▁charla":6733,"▁usando":6734,"yyy":6735,"28":6736,"▁ech":6737,"▁dad":6738,"▁punta":6739,"leo":6740,"tar.":6741,"▁comparto":6742,"▁cena":6743,"inado":6744,"▁mim":6745,"▁once":6746,"▁و":6747,"▁ear":6748,"▁ignorancia":6749,"▁contrib":6750,"▁enrique":6751,"colo":6752,"▁podrian":6753,"▁aeropuer":6754,"▁seguramente":6755,"\"?":6756,"▁quedado":6757,"▁costo":6758,"▁tigre":6759,"▁presentar":6760,"▁maltra":6761,"▁dejes":6762,"▁someone":6763,"▁imaginate":6764,"▁idiota":6765,"▁batalla":6766,"▁reyes":6767,"▁mismas":6768,"ieve":6769,"km":6770,"▁ceja":6771,"▁perdiendo":6772,"▁gover":6773,"▁saluda":6774,"ciales":6775,"▁importan":6776,"▁trian":6777,"▁laboral":6778,"▁recon":6779,"▁alemania":6780,"▁estaremos":6781,"arnos":6782,"▁juez":6783,"▁episodio":6784,"어":6785,"▁melo":6786,"▁deportivo":6787,"▁veia":6788,"▁cens":6789,"iados":6790,"▁insu":6791,"▁veremos":6792,"▁kim":6793,"▁podra":6794,"▁disney":6795,"▁many":6796,"sin":6797,"▁virgen":6798,"▁coisa":6799,"26":6800,"▁ufff":6801,"▁adentro":6802,"▁tratando":6803,"27":6804,"▁rompe":6805,"▁escribiendo":6806,"hoy":6807,"▁miro":6808,"▁deter":6809,"▁brutal":6810,"▁seis":6811,"dria":6812,"▁gabri":6813,"▁kir":6814,"▁espectacular":6815,"ba.":6816,"▁pedido":6817,"▁exten":6818,"vic":6819,"▁parecen":6820,"▁supongo":6821,"▁algo,":6822,"tty":6823,"▁agradece":6824,"▁lados":6825,"▁podcas":6826,"▁cerro":6827,"▁coming":6828,"iene":6829,"▁prision":6830,"time":6831,"eas":6832,"▁sof":6833,"▁demostrar":6834,"diar":6835,"▁ey":6836,"▁guapo":6837,"▁caracas":6838,"stan":6839,"vs":6840,"▁pud":6841,"fu":6842,"ben":6843,"▁loren":6844,"less":6845,"▁gilipol":6846,"▁taehy":6847,")..":6848,"▁cuadrado":6849,"vera":6850,"▁blog":6851,"▁(o":6852,"▁debido":6853,"alth":6854,"▁odia":6855,"mada":6856,"▁leido":6857,"▁pour":6858,"▁entienden":6859,"aras":6860,"tillas":6861,"▁fija":6862,"iam":6863,"▁exactamente":6864,"/7":6865,"▁viejos":6866,":3":6867,"▁playing":6868,"▁poll":6869,"▁finales":6870,"▁spa":6871,"▁comercial":6872,"tar,":6873,"▁consecuencias":6874,"fir":6875,"▁lanz":6876,"▁luchar":6877,"▁aprende":6878,"▁lazo":6879,"▁nariz":6880,"▁aviso":6881,"▁tera":6882,"▁organizacion":6883,"▁\"se":6884,"▁cosas.":6885,"eran":6886,"▁cultural":6887,"rael":6888,"▁guitar":6889,"pens":6890,"▁6.":6891,"-.":6892,"▁permit":6893,"▁hospitales":6894,"taciones":6895,"▁argentino":6896,"cuando":6897,"▁hear":6898,"uciones":6899,"box":6900,"▁disponible!":6901,"mica":6902,"▁inutil":6903,"▁tranquilo":6904,"▁herram":6905,"▁ultra":6906,"▁equivoca":6907,"▁mari":6908,"▁transpar":6909,"undo":6910,"▁detec":6911,"▁aure":6912,"▁descen":6913,"▁vision":6914,"▁ocurre":6915,"▁insis":6916,"▁⠀":6917,"melo":6918,"▁rema":6919,"▁py":6920,"서":6921,"▁¿al":6922,"▁monte":6923,"▁acorde":6924,"izan":6925,"▁alumnos":6926,"▁mereces":6927,"▁disfra":6928,"quete":6929,"▁eras":6930,"▁proyec":6931,"▁escena":6932,"▁pasen":6933,"▁errores":6934,"▁urib":6935,"▁primar":6936,"▁concurso":6937,"▁horror":6938,"▁hahahaha":6939,"try":6940,"▁jajajajaj":6941,"▁(no":6942,"▁contenido":6943,"▁trato":6944,"▁tendencia":6945,"▁lesion":6946,"▁armas":6947,"▁sis":6948,"▁friend":6949,"▁sorpresa":6950,"▁vuelven":6951,"▁\"in":6952,"▁lucas":6953,"▁pico":6954,"▁tribun":6955,"▁daba":6956,"▁supues":6957,"wh":6958,"▁echa":6959,"▁rechazo":6960,"▁libertadores":6961,"▁venezuela.":6962,"▁pusieron":6963,"▁pasara":6964,"▁descanso":6965,"uco":6966,"▁desayun":6967,"▁plane":6968,"▁asamblea":6969,"come":6970,"▁fortale":6971,"▁seres":6972,"gulo":6973,"▁hey":6974,"▁milan":6975,"▁botella":6976,"▁it.":6977,"▁colum":6978,"es?":6979,"▁latinoamer":6980,"▁andalucia":6981,"▁arm":6982,"▁lac":6983,"enti":6984,"▁experien":6985,"uy":6986,"▁tranquil":6987,"tell":6988,"▁miran":6989,"▁pez":6990,"▁anima":6991,"▁mexico.":6992,"pado":6993,"▁iglesias":6994,"ped":6995,"▁envio":6996,"ons":6997,"▁chau":6998,"▁inmedia":6999,"▁victima":7000,"▁ill":7001,"▁?.":7002,"▁cm":7003,"illos":7004,"▁crecer":7005,"▁hacerse":7006,"▁habil":7007,"ather":7008,"ald":7009,"▁hate":7010,"▁personajes":7011,"▁mexicanos":7012,"▁harta":7013,"iten":7014,"▁calder":7015,"▁prime":7016,"▁bern":7017,"▁summer":7018,"▁usu":7019,"▁anime":7020,"▁verla":7021,"▁justic":7022,"▁expul":7023,"ken":7024,"▁peores":7025,"▁poke":7026,"▁everyone":7027,"joy":7028,"mmm":7029,"▁naz":7030,"▁dinam":7031,"▁guapa":7032,"▁gimnas":7033,"▁kill":7034,"ball":7035,"▁cristo":7036,"▁prioridad":7037,"▁pendiente":7038,"▁face":7039,"▁aqui,":7040,"▁pobreza":7041,"▁acho":7042,"▁mich":7043,"▁compras":7044,"▁hard":7045,"▁gloria":7046,":0":7047,"▁later":7048,"▁manana,":7049,"▁venezolano":7050,"▁fm":7051,"ational":7052,"▁sancion":7053,"▁rever":7054,"encia.":7055,"▁uwu":7056,"▁socio":7057,"▁2020.":7058,"▁compa":7059,"▁fb":7060,"▁doming":7061,"ax":7062,"ulip":7063,"▁diseno":7064,"▁semi":7065,"▁mision":7066,"▁¡gracias":7067,"▁abrazar":7068,"tira":7069,"▁felipe":7070,"▁amas":7071,"▁nan":7072,"▁fues":7073,"tern":7074,"▁nal":7075,"jal":7076,"▁tradicion":7077,"▁sl":7078,"▁vos,":7079,"let":7080,"fes":7081,"▁tonto":7082,"▁contrato":7083,"▁sto":7084,"▁asesino":7085,"▁duermo":7086,"con_":7087,"▁pego":7088,"▁36":7089,"jara":7090,"▁manga":7091,"▁before":7092,"▁tmb":7093,"▁fraude":7094,"▁olor":7095,"▁m.":7096,"▁muertes":7097,"▁condicion":7098,"▁damos":7099,"▁pidio":7100,"▁actor":7101,"▁inep":7102,"▁hagamos":7103,"▁tienda":7104,"▁sombrero":7105,"▁fox":7106,"▁constru":7107,"▁verdadera":7108,"▁completamente":7109,"ast":7110,"ita.":7111,"ida,":7112,"▁humana":7113,"▁diablo":7114,"▁self":7115,"les,":7116,"▁goool":7117,"...y":7118,"▁fumar":7119,"▁remo":7120,"▁gonna":7121,"▁aplica":7122,"ness":7123,"jud":7124,"▁valores":7125,"▁ejercito":7126,"나":7127,"▁puente":7128,"▁velo":7129,"▁practica":7130,"▁aper":7131,"▁oy":7132,"▁corrupto":7133,"▁taehyung":7134,"▁trop":7135,"▁tambien,":7136,"▁own":7137,"▁sit":7138,"mex":7139,"▁president":7140,"rosa":7141,"les.":7142,"▁jen":7143,"date":7144,"gb":7145,"▁sinto":7146,"▁conme":7147,"mado":7148,"▁dispos":7149,"▁pantal":7150,"ueve":7151,"▁lidera":7152,"▁podran":7153,"▁oblig":7154,"▁alas":7155,"▁llamada":7156,"▁dato":7157,"▁chiqui":7158,"ja,":7159,"▁morning":7160,"▁mg":7161,"▁israel":7162,"▁ocasion":7163,"2,":7164,"taba":7165,"▁independencia":7166,"▁:3":7167,"▁bendiciones":7168,"▁bran":7169,"▁turno":7170,"▁pero,":7171,"▁historia.":7172,"▁considera":7173,"▁:/":7174,"gios":7175,"▁bloqueo":7176,"요":7177,"▁reconocer":7178,"ario.":7179,"▁sacan":7180,"▁oferta":7181,"▁mirada":7182,"▁ox":7183,"▁7.":7184,"queta":7185,"dades":7186,"orio":7187,"▁tomas":7188,"▁bac":7189,"▁llora":7190,"guem":7191,"▁economico":7192,"▁audiencia":7193,"ing,":7194,"▁federal":7195,"▁habeis":7196,"▁respuestas":7197,"▁cy":7198,"▁transmision":7199,"ecemos":7200,"▁retweet":7201,"▁mix":7202,"▁prevencion":7203,"▁acaban":7204,"▁aristemo":7205,"▁delicios":7206,"▁conversacion":7207,"▁darme":7208,"▁tarjeta":7209,"▁し":7210,"▁everything":7211,"ida.":7212,"▁gym":7213,"▁curios":7214,"▁jajs":7215,"▁bolsonaro":7216,"▁white":7217,"▁ak":7218,"▁privado":7219,"▁sana":7220,"itat":7221,"▁yoongi":7222,"▁confin":7223,"▁trabajo.":7224,"▁pantalla":7225,"▁recuperar":7226,"▁days":7227,"▁llegando":7228,"▁lectura":7229,"▁hd":7230,"▁tanto,":7231,"ght":7232,"▁ganador":7233,"▁razones":7234,"▁cup":7235,"▁agradez":7236,"gad":7237,"▁lideres":7238,"ap":7239,"▁you.":7240,"▁centros":7241,"tivo.":7242,"▁temperatura":7243,"▁\"con":7244,"▁present":7245,"▁coordin":7246,"▁tara":7247,"▁listen":7248,"▁igual,":7249,"ahora":7250,"▁tib":7251,"▁adap":7252,"dell":7253,"trado":7254,"isas":7255,"▁sinceramente":7256,"▁lavar":7257,"▁limit":7258,"▁hacerle":7259,"▁mexico,":7260,"▁zara":7261,"vip":7262,"dible":7263,"pool":7264,"iche":7265,"aj":7266,"▁capitan":7267,"▁vez.":7268,"▁2,":7269,"▁envidia":7270,"urar":7271,"▁ml":7272,"▁199":7273,"):":7274,"▁incor":7275,"▁vuelto":7276,"▁jjaja,":7277,"tible":7278,"▁constante":7279,"▁gustar":7280,"▁arranca":7281,"▁iron":7282,"▁conec":7283,"▁peli":7284,"▁demuestra":7285,"▁hipocri":7286,"▁recibe":7287,"▁informar":7288,"▁ellos,":7289,"▁sebas":7290,"▁espanola":7291,"dara":7292,"▁uy":7293,"▁emi":7294,"▁hijue":7295,"demia":7296,"▁paul":7297,"▁mtvlafandom":7298,"▁ciclo":7299,"▁pap":7300,"▁satis":7301,"encia,":7302,"▁sobreviv":7303,"▁irse":7304,"▁gorda":7305,"▁comprome":7306,"▁darte":7307,"vent":7308,"▁thats":7309,"teras":7310,"▁posibilidad":7311,"▁alre":7312,"▁discri":7313,"▁militares":7314,"▁anunci":7315,"▁comparte":7316,"▁delito":7317,"▁deportiva":7318,"▁pelotuda":7319,"▁gobierno,":7320,"abo":7321,"▁maravilla":7322,"▁gome":7323,"abe":7324,"▁incomp":7325,"▁wit":7326,"uk":7327,"▁sergio":7328,"29":7329,"▁sere":7330,"gether":7331,"▁preso":7332,"▁¿s":7333,"▁tuviera":7334,"▁old":7335,"▁torre":7336,"▁ideal":7337,"mio":7338,"▁programas":7339,"_con_":7340,"▁ayunta":7341,"▁vergon":7342,"▁motiv":7343,"▁vz":7344,"▁sone":7345,"▁galle":7346,"▁cron":7347,"▁quedarse":7348,"▁anci":7349,"▁reino":7350,"▁head":7351,"tage":7352,"▁tecnolog":7353,"▁ladron":7354,"▁bravo":7355,"▁reconocimiento":7356,"des,":7357,"▁:v":7358,"▁ofrece":7359,"▁mexicano":7360,"▁ilegal":7361,"▁mentir":7362,"▁pollo":7363,"▁levanto":7364,"ites":7365,"▁eso?":7366,"▁tos":7367,"▁suelo":7368,"tienen":7369,"▁agric":7370,"▁mae":7371,"▁publicidad":7372,"▁mtvlapare":7373,"▁(+":7374,"▁relaciones":7375,"▁dragon":7376,"▁ocho":7377,"▁ب":7378,"▁gobierno.":7379,"zy":7380,"▁mire":7381,"▁ny":7382,"▁voluntad":7383,"hua":7384,"▁putas":7385,"▁fuente":7386,"▁vulner":7387,"▁empeza":7388,"llar":7389,"mentacion":7390,"▁particular":7391,"▁sonar":7392,"▁perm":7393,"▁poten":7394,"▁triunfo":7395,"▁mtvlaparejaj":7396,"▁ment":7397,"▁destro":7398,"▁ayyy":7399,"▁estreno":7400,"▁podeis":7401,"▁aho":7402,"▁intencion":7403,"timo":7404,"ija":7405,"▁marido":7406,"igual":7407,"juliantina":7408,"▁sufrir":7409,"▁rendir":7410,"▁mtvlaparejajuliantina":7411,"▁accidente":7412,"f.":7413,"▁desaf":7414,"pa.":7415,"▁fisica":7416,"▁orgullosa":7417,"jo.":7418,"ore":7419,"▁nefas":7420,"▁sorprende":7421,"▁ts":7422,"▁cerra":7423,"▁financi":7424,"▁mtvlafandomjuliantina":7425,"asion":7426,"▁giras":7427,"▁rut":7428,"▁poe":7429,"fal":7430,"▁orien":7431,"▁fifa":7432,"▁artes":7433,"▁veras":7434,"▁put":7435,"▁aguanto":7436,"deces":7437,"▁suarez":7438,"▁gobiernos":7439,"▁zur":7440,"rle":7441,"rey":7442,"▁personas,":7443,"▁japones":7444,"▁espana.":7445,"▁recuerden":7446,"aa,":7447,"고":7448,"▁fit":7449,"ivas":7450,"▁tuya":7451,":5":7452,"▁temporar":7453,"▁puebla":7454,"▁dedica":7455,"mbra":7456,"▁desea":7457,"▁pibes":7458,"▁latin":7459,"▁escal":7460,"▁permitir":7461,"▁revista":7462,"mora":7463,"▁\"te":7464,"▁busco":7465,"▁tech":7466,"▁bolas":7467,"▁those":7468,"▁lagrimas":7469,"▁\"¿":7470,"▁¿de":7471,"kw":7472,"▁nub":7473,"▁atletico":7474,"▁bach":7475,"▁desn":7476,"ence":7477,"▁conflic":7478,"▁cura":7479,"▁empece":7480,"▁volvi":7481,"ics":7482,"▁urge":7483,"▁ordenador":7484,"olazo":7485,"▁vacuna":7486,"▁support":7487,"▁mora":7488,"▁supone":7489,"▁tap":7490,"▁empat":7491,"▁azu":7492,"▁#1":7493,"▁challen":7494,"▁-.":7495,"▁encuesta":7496,"▁elim":7497,"▁callate":7498,"▁hambur":7499,"▁semana.":7500,"▁bolude":7501,"▁atro":7502,"▁alimentos":7503,"▁hur":7504,"izados":7505,"▁familia,":7506,"ulacion":7507,"▁ii":7508,"▁verac":7509,"▁2019.":7510,"▁esposa":7511,"▁agarrar":7512,"▁madrid.":7513,"rez":7514,"▁conocimiento":7515,"tao":7516,"▁aprox":7517,"▁franco":7518,"▁ia":7519,"▁entrenador":7520,"▁hincha":7521,"▁carnav":7522,"mus":7523,"▁spor":7524,"▁austral":7525,"▁deses":7526,"mpe":7527,"kin":7528,"▁desemp":7529,"▁compor":7530,"▁vayas":7531,"polit":7532,"▁wanna":7533,"▁quiza":7534,"▁%":7535,"▁cute":7536,"▁nombres":7537,"able.":7538,"hyun":7539,"▁thro":7540,"▁pokemon":7541,"▁maxima":7542,"tumbre":7543,"▁ahi,":7544,"▁castro":7545,"▁bajon":7546,"ights":7547,"▁¡¡¡":7548,"2017":7549,"▁intereses":7550,"▁activa":7551,"▁str":7552,"▁rea":7553,"▁estrateg":7554,"▁historico":7555,"ling":7556,"▁afor":7557,"▁criticar":7558,"▁violates":7559,"▁mens":7560,"▁sara":7561,"▁sospe":7562,"▁amiga,":7563,"▁alzada":7564,"▁breve":7565,"▁incomo":7566,"▁women":7567,"▁patrio":7568,"amento":7569,"rup":7570,"▁ranking":7571,"key":7572,"▁house":7573,"madre":7574,"▁ivan":7575,"▁single":7576,"▁sacri":7577,"body":7578,"▁despertador":7579,"▁construir":7580,"▁another":7581,"▁quito":7582,"dical":7583,"▁vaina":7584,"▁lap":7585,"▁directamente":7586,"▁cojones":7587,"▁test":7588,"▁atender":7589,"▁zor":7590,"abas":7591,"▁copas":7592,"nia":7593,"▁adic":7594,"ayo":7595,"▁difundir":7596,"ppen":7597,"▁lindas":7598,"▁limon":7599,"ezca":7600,"▁enserio":7601,"▁tendremos":7602,"▁chupa":7603,"▁\"lo":7604,"far":7605,"▁estais":7606,"▁apoya":7607,"▁oportunidades":7608,"▁pit":7609,"▁humo":7610,"▁empresarios":7611,"list":7612,"▁publicado":7613,"▁industria":7614,"▁nervios":7615,"▁llegara":7616,"▁ded":7617,"▁\"c":7618,"▁plataforma":7619,"▁mej":7620,"▁catalun":7621,"▁mendo":7622,"▁sr.":7623,"orada":7624,"▁policy.":7625,"▁matema":7626,"▁extranar":7627,"▁infierno":7628,"▁latina":7629,"▁temporarily":7630,"▁letra":7631,"▁caminando":7632,"기":7633,"▁existir":7634,"▁abrazos":7635,"gadas":7636,"▁pessoa":7637,"▁cuanta":7638,"▁asesin":7639,"▁arroz":7640,"▁tot":7641,"▁rol":7642,"▁unavailable":7643,"500":7644,"▁luci":7645,"▁:((":7646,"tier":7647,"¡¡":7648,"▁obviamente":7649,"ree":7650,"chner":7651,"▁suje":7652,"▁sco":7653,"▁eterno":7654,"▁diaz":7655,"▁pequenos":7656,"gador":7657,"▁venezuela,":7658,"도":7659,"▁cortes":7660,"▁cabe":7661,"▁dela":7662,"▁aureola":7663,"mero":7664,"▁personas.":7665,"▁invitamos":7666,"▁limpie":7667,"▁iphone":7668,"vir":7669,"ance":7670,"▁seme":7671,"▁manejo":7672,"▁novela":7673,"▁respetar":7674,"▁absur":7675,"▁fire":7676,"▁usan":7677,"▁conoces":7678,"▁lleve":7679,"▁unfollowed":7680,"pris":7681,"▁intentando":7682,"▁contex":7683,"▁guarda":7684,"▁crecimiento":7685,"▁pur":7686,"lique":7687,"▁comentar":7688,"tico.":7689,"rt":7690,"▁previa":7691,"▁estando":7692,"▁¿se":7693,"plo":7694,"▁simil":7695,"pue":7696,"▁conocido":7697,"33":7698,"▁agres":7699,"▁domic":7700,"▁¿ya":7701,"▁dead":7702,"lie":7703,"▁bc":7704,"▁inspi":7705,"▁decirte":7706,"▁amaz":7707,"ary":7708,"▁ficar":7709,"▁cnco":7710,"▁semestre":7711,"▁sabiendo":7712,"▁menores":7713,"▁ode":7714,"es..":7715,"▁fracaso":7716,"▁that's":7717,"▁renunci":7718,"▁nig":7719,"▁fantasma":7720,"chool":7721,"ja.":7722,"▁remember":7723,"▁infer":7724,"▁enfrentar":7725,"tivo,":7726,"▁decir,":7727,"▁\"un":7728,"▁pelu":7729,"▁campeonato":7730,"elli":7731,"▁(1":7732,"▁presidencial":7733,"▁cristiano":7734,"▁clientes":7735,"cela":7736,"▁unido":7737,"▁rein":7738,"▁enfo":7739,"▁apoyando":7740,"▁matri":7741,"▁muchach":7742,"▁presupuesto":7743,"▁sui":7744,"▁に":7745,"▁pasada":7746,"▁ademas,":7747,"▁persona,":7748,"porque":7749,"▁propiedad":7750,"▁か":7751,"▁hacerte":7752,"▁together":7753,"metro":7754,"▁beat":7755,"tado.":7756,"andose":7757,"▁jan":7758,"▁cria":7759,"▁sch":7760,"cula":7761,"▁temb":7762,"▁hand":7763,"▁magia":7764,"▁away":7765,"▁registro":7766,"▁recom":7767,"tructura":7768,"▁caball":7769,"▁llevamos":7770,"/3":7771,"▁piernas":7772,"▁dejame":7773,"▁realiza":7774,"▁girasol":7775,"▁mt":7776,"▁jugue":7777,"▁tok":7778,"▁oficina":7779,"fit":7780,"▁cus":7781,"200":7782,"g,":7783,"▁salud,":7784,"',":7785,"▁doing":7786,"▁ghvip":7787,"▁simon":7788,"▁rafael":7789,"-4":7790,"▁mtvlafandomjuliantinafans":7791,"▁toman":7792,"▁health":7793,"▁refu":7794,"▁¡s":7795,"▁cun":7796,"▁evan":7797,"▁artistas":7798,"▁codigo":7799,"▁which":7800,"mao":7801,"▁mean":7802,"graph":7803,"▁pelea":7804,"▁sentimiento":7805,"▁papi":7806,"(?":7807,"nor":7808,"▁yea":7809,"▁locos":7810,"▁bicicleta":7811,"▁izquier":7812,"▁alqui":7813,"▁tay":7814,"▁foro":7815,"▁comercio":7816,"▁sanidad":7817,"▁ministra":7818,"▁break":7819,"▁liver":7820,"▁producto":7821,"▁ann":7822,"▁kids":7823,"▁0.":7824,"▁regla":7825,"▁conejo":7826,"▁since":7827,"▁angus":7828,"▁escrito":7829,"fr":7830,"▁10.":7831,"▁barbara":7832,"▁vete":7833,"▁geno":7834,"▁bi":7835,"는":7836,"▁aco":7837,"▁conclus":7838,"▁paral":7839,"▁hare":7840,"▁partes":7841,"▁protesta":7842,"▁fuimos":7843,"fc":7844,"lano":7845,"▁electron":7846,"titos":7847,"▁decian":7848,"▁gasto":7849,"▁nube":7850,"vida":7851,"▁ceno":7852,"▁chino":7853,"▁esto?":7854,"▁\"b":7855,"▁tigres":7856,"▁pinera":7857,"▁me.":7858,"▁esperemos":7859,"▁tendre":7860,"▁impresionante":7861,"▁youre":7862,"▁s.":7863,"▁reve":7864,"tly":7865,"▁enamorar":7866,"▁sobra":7867,"▁tempo":7868,"▁primeras":7869,"▁lead":7870,"▁imple":7871,"▁ole":7872,"hael":7873,"▁colaboracion":7874,"▁urb":7875,"pa,":7876,"▁deser":7877,"▁familia.":7878,"▁nacional.":7879,"▁monoculo":7880,"n,":7881,"ami":7882,"▁moreno":7883,"▁carmen":7884,"▁pisto":7885,"▁mostrador":7886,"▁ku":7887,"▁indic":7888,"▁curr":7889,"▁humanidad":7890,"ips":7891,"▁aires":7892,"▁ella.":7893,"▁birra":7894,"▁sencillo":7895,"▁alegra":7896,"▁gradu":7897,"ario,":7898,"ced":7899,"▁contagios":7900,"guas":7901,"▁nba":7902,"▁camila":7903,"▁espiritu":7904,"▁class":7905,"¿¿":7906,"▁inmun":7907,"▁obli":7908,"▁tipos":7909,"▁ly":7910,"▁soon":7911,"▁leyes":7912,"▁generar":7913,"트":7914,"▁gif":7915,"▁55":7916,"▁seamos":7917,"▁sumar":7918,"tiva.":7919,"▁aisla":7920,"▁alegro":7921,"▁caminar":7922,"las.":7923,"▁alejandro":7924,"▁extrema":7925,"▁inteligente":7926,"▁comunicado":7927,"▁cof":7928,"▁pasos":7929,"▁pases":7930,"▁mover":7931,"▁yu":7932,"▁tenis":7933,"로":7934,"▁calma":7935,"▁podcast":7936,"lez":7937,"▁alguem":7938,"▁dt":7939,"▁check":7940,"▁¿en":7941,"quez":7942,"▁sede":7943,"▁conocen":7944,"▁young":7945,"▁pay":7946,"▁desperte":7947,"▁correcto":7948,"▁internacion":7949,"▁queriendo":7950,"▁mare":7951,"세":7952,"▁comunista":7953,"▁muriendo":7954,"▁forever":7955,"▁competencia":7956,"▁pinches":7957,"▁marcel":7958,"▁matter":7959,"▁valen":7960,"▁kirchner":7961,"▁corri":7962,"oot":7963,"▁maravilloso":7964,"▁wish":7965,"cks":7966,"▁operacion":7967,"▁33":7968,"▁delante":7969,"▁retras":7970,"▁estudios":7971,"▁8.":7972,"▁fos":7973,"uron":7974,"▁miembros":7975,"▁group":7976,"???.":7977,"▁lindos":7978,"▁plac":7979,"▁dios.":7980,"▁ney":7981,"▁veracru":7982,"▁beber":7983,"▁carga":7984,"▁avance":7985,"▁dark":7986,"rillo":7987,"▁find":7988,"▁198":7989,"▁rivera":7990,"▁vestido":7991,"real":7992,"?...":7993,"▁arrepen":7994,"▁hahahahaha":7995,"▁noch":7996,"▁chat":7997,"▁cortar":7998,"▁pilo":7999,"▁enfren":8000,"▁season":8001,"▁quise":8002,"▁prove":8003,"te!":8004,"▁boludo":8005,"▁arreglar":8006,"▁ken":8007,"▁puertas":8008,"▁¡buen":8009,"▁distrib":8010,"▁negocia":8011,"cres":8012,"itos.":8013,"▁empi":8014,"▁legen":8015,"▁ponerse":8016,"▁llam":8017,"cidad":8018,"▁aguantar":8019,"▁march":8020,"gentes":8021,"▁natal":8022,"▁james":8023,"las,":8024,"▁bebes":8025,"▁frases":8026,"morrow":8027,"▁male":8028,"▁negar":8029,"▁respir":8030,"▁daria":8031,"▁ella,":8032,"ya,":8033,"▁ready":8034,"▁maf":8035,"▁tikto":8036,"▁sn":8037,"▁parcial":8038,"▁convir":8039,"▁happen":8040,"▁boluda":8041,"▁cobra":8042,"▁controlar":8043,"▁comenzar":8044,"▁primo":8045,"▁uc":8046,"▁infra":8047,"▁instituciones":8048,"▁¿quier":8049,"▁mini":8050,"▁baila":8051,"▁depresion":8052,"gaste":8053,"▁etern":8054,"mart":8055,"hout":8056,"/o":8057,"▁(que":8058,"▁intervencion":8059,"▁venia":8060,"mix":8061,"▁trafico":8062,"▁while":8063,"▁wacho":8064,"▁imagine":8065,"▁momento,":8066,"desa":8067,"trui":8068,"▁letras":8069,"▁manana.":8070,"teriores":8071,"▁bendiga":8072,"▁oso":8073,"▁tq":8074,"▁xddd":8075,"▁posted":8076,"▁pareci":8077,"▁abuso":8078,"bieron":8079,"▁mandan":8080,"▁agradezco":8081,"▁hamburgues":8082,"▁dijis":8083,"uria":8084,"▁veni":8085,"▁日":8086,"estima":8087,"▁ah,":8088,"▁contestar":8089,"▁perfor":8090,"▁kilo":8091,"▁bui":8092,"rin":8093,"▁estudia":8094,"▁agarra":8095,"▁alarma":8096,"▁cohe":8097,"▁arqui":8098,"▁venden":8099,"▁pato":8100,"▁cliente":8101,"tano":8102,"▁boa":8103,"▁ciel":8104,"▁cato":8105,"▁hecha":8106,"▁concre":8107,"▁enca":8108,"▁geor":8109,"...no":8110,"▁motor":8111,"▁gastar":8112,"▁empezamos":8113,"med":8114,"anza":8115,"▁efecto":8116,"▁liverpool":8117,"▁presento":8118,"entre":8119,"▁alianza":8120,"dillo":8121,"▁popul":8122,"▁juegan":8123,"▁ach":8124,"▁secretaria":8125,"▁2014":8126,"▁huev":8127,"▁blue":8128,"ksks":8129,"▁administracion":8130,"▁date":8131,"▁carr":8132,"▁despierta":8133,"▁ricos":8134,"▁compl":8135,"▁choice":8136,"▁encuentran":8137,"▁commun":8138,"▁debut":8139,"시":8140,"▁andro":8141,"▁correo":8142,"tismo":8143,"▁design":8144,"▁||":8145,"▁pueblos":8146,"▁declar":8147,"uth":8148,"▁gatos":8149,"▁hen":8150,"▁ganando":8151,"▁apple":8152,"▁wonder":8153,"culos":8154,"▁て":8155,"▁rique":8156,"oper":8157,"▁soul":8158,"ieran":8159,"▁argentinos":8160,"▁wel":8161,"▁princesa":8162,"▁empleados":8163,"▁persona.":8164,"▁ayuntamiento":8165,"▁change":8166,"1,":8167,"tion.":8168,"▁actos":8169,"tamiento":8170,"icano":8171,"▁month":8172,"▁vencer":8173,"▁oax":8174,"▁bs":8175,"aman":8176,"▁conviv":8177,"▁fuertes":8178,"▁tomorrow":8179,"▁wall":8180,"▁sonre":8181,"▁hallow":8182,"▁masco":8183,"▁limi":8184,"▁cuaderno":8185,"▁portada":8186,"▁mood":8187,"▁sty":8188,"▁filoso":8189,"▁concer":8190,"▁dri":8191,"▁salgan":8192,"/20":8193,"neces":8194,"▁inseguridad":8195,"▁nothing":8196,"▁actualizacion":8197,"des.":8198,"▁semana,":8199,"ate":8200,"▁promes":8201,"▁vuestra":8202,"▁empiezo":8203,"▁alrededor":8204,"▁defiende":8205,"▁vecino":8206,"arle":8207,"▁sienten":8208,"▁confiar":8209,"▁estupidez":8210,"▁aeropuerto":8211,"▁name":8212,"gas,":8213,"▁ramos":8214,"thers":8215,"▁monter":8216,"arra":8217,"▁recupera":8218,"▁intro":8219,"▁siete":8220,"▁beis":8221,"▁coronavirus.":8222,"▁\"al":8223,"▁jode":8224,"vez":8225,"▁carita":8226,"plic":8227,"xa":8228,"▁uber":8229,"▁mind":8230,"pin":8231,"rantes":8232,"erra":8233,"▁lets":8234,"▁cover":8235,"▁usuarios":8236,"ᅥᆫ":8237,"▁propuestas":8238,"▁colombiano":8239,"▁sorte":8240,"▁quejar":8241,"▁sigues":8242,"▁actuar":8243,"▁ddhh":8244,"▁ee.":8245,"final":8246,"▁juventud":8247,"▁estupida":8248,"▁espana,":8249,"▁psicolo":8250,"▁permiso":8251,"derecha":8252,"tico,":8253,"▁descub":8254,"▁dara":8255,"▁ahora.":8256,"iness":8257,"ng":8258,"▁vine":8259,"▁aclar":8260,"▁deberias":8261,"irse":8262,"▁क":8263,"▁requier":8264,"▁ajus":8265,"fs":8266,"▁chur":8267,"tado,":8268,"adas.":8269,"▁yourself":8270,"▁ingreso":8271,"game":8272,"▁fuese":8273,"▁presta":8274,"▁corazon.":8275,"▁parecido":8276,"▁secretario":8277,"▁¿donde":8278,"ifico":8279,"▁lorenzo":8280,"dona":8281,"▁madre,":8282,"▁llegaron":8283,"▁falsa":8284,"▁data":8285,"▁limpiar":8286,"ᅧᆼ":8287,"▁anon":8288,"bb":8289,"▁lives":8290,"▁bis":8291,"▁school":8292,"▁icon":8293,"▁incendio":8294,"▁ciudadano":8295,"clo":8296,"▁mames":8297,"▁megafono":8298,"▁sna":8299,"sp":8300,"▁fondos":8301,"gers":8302,"▁ambas":8303,"▁tuvieron":8304,"▁marip":8305,"▁salieron":8306,"▁tendran":8307,"▁00":8308,"taste":8309,"▁gole":8310,"▁cere":8311,"▁biblio":8312,"▁jueces":8313,"▁getting":8314,"▁rd":8315,"▁paris":8316,"▁paras":8317,"▁hernandez":8318,"▁desen":8319,"▁sabias":8320,"▁chance":8321,"boy":8322,"▁autoridad":8323,"to?":8324,"▁trailer":8325,"▁abro":8326,"▁adivin":8327,"▁formar":8328,"▁rival":8329,"▁jajajajajajaja":8330,"▁pensado":8331,"iu":8332,"▁fundamental":8333,"▁calderon":8334,"▁trabajan":8335,"▁pension":8336,"▁ritmo":8337,"▁quemar":8338,"▁departamento":8339,"▁demues":8340,"_19":8341,"▁resolver":8342,"▁repos":8343,"▁colectivo":8344,"▁sc":8345,"▁hues":8346,"▁evalu":8347,"▁convocatoria":8348,"▁bienestar":8349,"▁stic":8350,"▁gabriel":8351,"jitos":8352,"iros":8353,"▁aer":8354,"▁edificio":8355,"▁guys":8356,"▁madrugada":8357,"▁igual.":8358,"▁medicina":8359,"▁caen":8360,"▁bolu":8361,"as...":8362,"▁preguntan":8363,"re.":8364,"▁intelec":8365,"▁epi":8366,"▁aqui.":8367,"teles":8368,"▁barbar":8369,"▁pasaba":8370,"▁true":8371,"▁matando":8372,"▁hicimos":8373,"▁sinver":8374,"▁consumo":8375,"▁estabamos":8376,"▁sexy":8377,"▁convertir":8378,"▁impon":8379,"▁muchisimas":8380,"▁noche,":8381,"dras":8382,"▁firme":8383,"▁broma":8384,"▁cumplen":8385,"▁infancia":8386,"recio":8387,"dade":8388,"▁\"e":8389,"▁sono":8390,"▁impacto":8391,"▁descri":8392,"▁psico":8393,"▁alien":8394,"▁interac":8395,"▁socor":8396,"wor":8397,"▁inci":8398,"▁adoro":8399,"dran":8400,"rie":8401,"iao":8402,"▁frun":8403,"itos,":8404,"▁final.":8405,"▁extraordin":8406,"▁confinamiento":8407,"jante":8408,"▁madrid,":8409,"▁bob":8410,"▁torres":8411,"aan":8412,"▁rich":8413,"▁lot":8414,"▁homo":8415,"▁brazos":8416,"▁testi":8417,"▁tu.":8418,"▁met":8419,"▁¡mu":8420,"▁jjaja.":8421,"▁naturaleza":8422,"▁senador":8423,"adas,":8424,"▁condena":8425,"▁fiscalia":8426,"▁vaso":8427,"minis":8428,"▁zoo":8429,"mmy":8430,"▁confirmo":8431,"▁ore":8432,"▁bangtan":8433,"▁africa":8434,"▁falla":8435,"re,":8436,"▁ocurr":8437,"▁enlace":8438,"▁apertura":8439,"▁momento.":8440,"▁industri":8441,"▁perrito":8442,"▁necesitaba":8443,"cina":8444,"▁contando":8445,"▁palacio":8446,"▁publicas":8447,"▁ham":8448,"▁historia,":8449,"▁child":8450,"▁porfavor":8451,"▁dueno":8452,"▁comenta":8453,"▁queja":8454,"▁espacios":8455,"▁lil":8456,"▁raul":8457,"▁triangulo":8458,"▁ponte":8459,"▁razon,":8460,"▁miami":8461,"▁yall":8462,"ents":8463,"▁tic":8464,"nic":8465,"▁bitch":8466,"▁roba":8467,"▁qe":8468,"▁nacio":8469,"▁differ":8470,"tendo":8471,"▁covid_19":8472,"▁arrancar":8473,"▁perre":8474,"dencias":8475,"▁quedaron":8476,"▁quedas":8477,"▁9.":8478,"▁dile":8479,"▁presidenta":8480,"▁family":8481,"▁asegura":8482,"play":8483,"donos":8484,"▁von":8485,"▁quedarme":8486,"▁thread":8487,"▁nomina":8488,"▁duran":8489,"▁soledad":8490,"▁tirando":8491,"▁viz":8492,"▁quiso":8493,"▁metros":8494,"▁estaran":8495,"tain":8496,"▁3,":8497,"▁disen":8498,"▁compartimos":8499,"▁_":8500,"▁guia":8501,"▁empol":8502,"▁¡feliz":8503,"▁nice":8504,"▁\"i":8505,"cing":8506,"wo":8507,"gor":8508,"gir":8509,"▁escenario":8510,"▁through":8511,"▁huellas":8512,"▁ps4":8513,"▁bueno.":8514,"▁eco":8515,"▁core":8516,"▁regular":8517,"▁vendo":8518,"▁distra":8519,"▁caida":8520,"▁columna":8521,"jajajaj":8522,"tiva,":8523,"▁chabon":8524,"▁vacun":8525,"▁natur":8526,"▁amores":8527,"▁bala":8528,"▁heroes":8529,"▁excusa":8530,"ason":8531,"▁beisbol":8532,"▁tern":8533,"▁banca":8534,"▁masa":8535,"esto":8536,"▁mecan":8537,"▁vueltas":8538,"▁viern":8539,"▁guardar":8540,"▁e.":8541,"▁telefon":8542,"▁challenge":8543,"▁lady":8544,"▁poss":8545,"trono":8546,"▁obrador":8547,"ders":8548,"▁preocupada":8549,"▁aux":8550,"▁:.":8551,"▁aqui:":8552,"ides":8553,"▁importar":8554,"▁beneficio":8555,"▁secreto":8556,"▁michael":8557,"▁send":8558,"▁➡":8559,"▁regional":8560,"▁ax":8561,"▁vuestro":8562,"▁tratamiento":8563,"▁paciente":8564,"direc":8565,"▁salon":8566,"▁asal":8567,"▁impro":8568,"aya":8569,"▁lima":8570,"▁podras":8571,"▁cientific":8572,"guar":8573,"ius":8574,"▁believe":8575,"▁hib":8576,"▁bendicion":8577,"▁credito":8578,"▁invol":8579,"▁en:":8580,"▁mantiene":8581,"▁borrar":8582,"!\"":8583,"v.":8584,"▁fundacion":8585,"▁ahi.":8586,"▁evo":8587,"▁04":8588,"▁suer":8589,"▁url.":8590,"▁cansa":8591,"▁eas":8592,"▁gomez":8593,"ificar":8594,"▁nunca.":8595,"osos":8596,"▁puedas":8597,"▁bye":8598,"▁metio":8599,"aking":8600,"▁integra":8601,"▁zonas":8602,"▁editor":8603,"▁responsables":8604,"▁plo":8605,"▁dj":8606,"▁rumbo":8607,"▁aprovechar":8608,"▁proposito":8609,"t:":8610,"▁ky":8611,"▁mueve":8612,"▁feliz.":8613,"ifi":8614,"▁cour":8615,"▁justin":8616,"udia":8617,"▁encantaria":8618,"rama":8619,"▁origen":8620,"▁costumbre":8621,"▁financia":8622,"▁trabal":8623,"▁okay":8624,"▁empu":8625,"▁tuits":8626,"▁cog":8627,"▁amigui":8628,"▁shor":8629,"nie":8630,"▁sev":8631,"▁comenzo":8632,"kas":8633,"terra":8634,"▁hacer.":8635,"75":8636,"▁salimos":8637,"▁amazing":8638,"▁(19":8639,"▁d.":8640,"▁amanecer":8641,"hot":8642,"▁empiezan":8643,"▁cacer":8644,"▁cesar":8645,"▁exposicion":8646,"▁pls":8647,"▁emocional":8648,"▁presidencia":8649,"▁onu":8650,"▁respira":8651,"▁ball":8652,"▁prom":8653,"▁--":8654,"▁dijiste":8655,"▁pastel":8656,"▁maca":8657,"▁orgulloso":8658,"▁jubi":8659,"▁callar":8660,"▁saquen":8661,"tall":8662,"▁ss":8663,"▁quejan":8664,"¿?":8665,"▁sebastian":8666,"▁teoria":8667,"▁aconte":8668,"▁retiro":8669,"▁anad":8670,"pul":8671,"▁hec":8672,"▁regresar":8673,"▁renta":8674,"▁pelotudos":8675,"▁kind":8676,"▁habitacion":8677,"tit":8678,"▁descubri":8679,"▁ire":8680,"▁acum":8681,"▁beneficios":8682,"▁switch":8683,"▁respeta":8684,"▁feliz,":8685,"▁partido.":8686,"▁algo.":8687,"▁york":8688,"▁#ᄋ":8689,"hasta":8690,"▁fing":8691,"▁silla":8692,"▁tenias":8693,"▁mutual":8694,"▁enemigo":8695,"▁fisico":8696,"▁salario":8697,"▁twitch":8698,"toso":8699,"▁asombrada":8700,"▁vera":8701,"▁tris":8702,"▁american":8703,"▁encanto":8704,"▁sientes":8705,"▁miserable":8706,"▁done":8707,"▁try":8708,"comun":8709,"3,":8710,"▁aveces":8711,"▁nel":8712,"▁sanitario":8713,"▁grito":8714,"▁fueran":8715,"▁comparti":8716,"▁novo":8717,"▁laura":8718,"▁proud":8719,"▁\"the":8720,"▁menos.":8721,"▁sirven":8722,"▁congra":8723,"▁comes":8724,"▁preparando":8725,"▁deportes":8726,"▁cierra":8727,"▁pueblo.":8728,"▁without":8729,"▁이":8730,"▁arrep":8731,"▁divertido":8732,"▁chup":8733,"▁mas...":8734,"▁encantan":8735,"▁android":8736,"quista":8737,"▁ayudan":8738,"▁cuentan":8739,"▁asociacion":8740,"▁suy":8741,"▁water":8742,"▁discapac":8743,"▁fico":8744,"▁putos":8745,"▁secu":8746,"▁mejora":8747,"queria":8748,"▁empollon":8749,"so,":8750,"▁excus":8751,"▁eliminar":8752,"▁rabia":8753,"▁barcelon":8754,"mall":8755,"▁times":8756,"▁luch":8757,"▁coco":8758,"▁competi":8759,"gem":8760,"▁empezando":8761,"▁start":8762,"▁podre":8763,"▁\"mi":8764,"muer":8765,"▁porra":8766,"▁esla":8767,"▁namjo":8768,"▁tt":8769,"▁united":8770,"▁convo":8771,"▁entreten":8772,"▁abuelo":8773,"▁constitucional":8774,"▁continuar":8775,"▁despierto":8776,"▁eventos":8777,"▁autoestima":8778,"▁documental":8779,"▁genio":8780,"▁reserva":8781,"▁conexion":8782,"hora":8783,"enme":8784,"▁\"las":8785,"▁caras":8786,"temos":8787,"▁ajena":8788,"▁sigamos":8789,"▁lado,":8790,"▁chef":8791,"▁dictador":8792,"▁taylor":8793,"▁merda":8794,"▁decidir":8795,"▁depo":8796,"▁descubre":8797,"▁raza":8798,"▁estado.":8799,"▁yaaa":8800,"▁lujo":8801,"▁(en":8802,"▁humedad":8803,"laro":8804,"▁aix":8805,"pio":8806,"▁levanta":8807,"undar":8808,"▁adecu":8809,"uestas":8810,"▁madre.":8811,"▁crista":8812,"▁sle":8813,"▁consum":8814,"▁medell":8815,"▁rie":8816,"▁opos":8817,"▁denunciar":8818,"▁atacar":8819,"▁gustavo":8820,"▁comienzo":8821,"▁hinchas":8822,"▁neymar":8823,"▁torta":8824,"▁fin,":8825,"▁dia!":8826,"▁honduras":8827,"▁jsjsjs":8828,"▁ayudas":8829,"▁olvides":8830,"▁playlist":8831,"▁horarios":8832,"▁talk":8833,"▁cigar":8834,"▁distri":8835,"hon":8836,"temala":8837,"▁hubieran":8838,"▁mir":8839,"▁followers":8840,"▁instituto":8841,"▁400":8842,"▁fotografia":8843,"▁roberto":8844,"▁menos,":8845,"camb":8846,"ural":8847,"년":8848,"▁chel":8849,"ved":8850,"aqui":8851,"▁kan":8852,"indo":8853,"▁pese":8854,"▁obri":8855,"44":8856,"▁hablen":8857,"▁ask":8858,"▁identidad":8859,"traron":8860,"▁desapareci":8861,"tica.":8862,"▁abogado":8863,"deci":8864,"▁orte":8865,"▁nova":8866,"▁defendiendo":8867,"▁labios":8868,"▁existencia":8869,"▁concent":8870,"▁arries":8871,"▁hela":8872,"▁esquina":8873,"▁lav":8874,"▁verdad?":8875,"▁manz":8876,"▁pana":8877,"kkk":8878,"▁amenaza":8879,"▁traje":8880,"▁candidatos":8881,"▁valiente":8882,"▁campeones":8883,"▁ship":8884,"▁explicacion":8885,"▁escla":8886,"inst":8887,"▁subio":8888,"▁halloween":8889,"▁elimina":8890,"▁seguira":8891,"▁figura":8892,"!?":8893,"▁llore":8894,"tanas":8895,"▁asustada":8896,"▁maquina":8897,"▁grafica":8898,"▁macho":8899,"▁pir":8900,"▁utilizar":8901,"pink":8902,"▁い":8903,"jita":8904,"ibe":8905,"udes":8906,"▁rebel":8907,"▁arquitec":8908,"▁colabora":8909,"▁block":8910,"dados":8911,"▁nct":8912,"▁maneja":8913,"▁disc":8914,"▁laburo":8915,"▁narcotra":8916,"▁clausu":8917,"▁artist":8918,"▁rami":8919,"▁\"v":8920,"bur":8921,"▁zu":8922,"▁estuviera":8923,"▁abiertas":8924,"▁murcia":8925,"▁ganamos":8926,"▁impunidad":8927,"▁denun":8928,"▁dorm":8929,"grantes":8930,"▁academ":8931,"▁levantarme":8932,"▁cifras":8933,"▁viajes":8934,"▁propios":8935,"▁paz.":8936,"▁cross":8937,"▁meet":8938,"▁llegada":8939,"▁poes":8940,"▁estudiando":8941,"▁tou":8942,"/a":8943,"tica,":8944,"▁barra":8945,"▁sii":8946,"▁aaaa":8947,"▁horas.":8948,"▁clos":8949,"▁esta,":8950,"▁categoria":8951,"▁pina":8952,"tua":8953,"ei":8954,"▁autent":8955,"▁ner":8956,"▁ff":8957,"▁ciudades":8958,"▁excepcion":8959,"▁solicita":8960,"▁estupido":8961,"▁escuchado":8962,"▁imaginar":8963,"▁consigo":8964,"▁regu":8965,"no,":8966,"▁you,":8967,"ın":8968,"▁parecia":8969,"▁around":8970,"▁vicepresid":8971,"▁fall":8972,"as..":8973,"▁puestos":8974,"cano":8975,"▁decidi":8976,"ilan":8977,"▁bombon":8978,"▁dudo":8979,"▁espn":8980,"▁privada":8981,"ator":8982,"▁sigueme":8983,"▁asesinos":8984,"▁ricardo":8985,"▁proximos":8986,"ism":8987,"ientas":8988,"▁against":8989,"▁estou":8990,"▁sure":8991,"▁govern":8992,"▁reca":8993,"cas,":8994,"▁resuel":8995,"▁quar":8996,"▁¿quieres":8997,"▁sentar":8998,"▁elite":8999,"▁tarde,":9000,"▁sound":9001,"▁corazon,":9002,"▁crean":9003,"▁light":9004,"▁salud.":9005,"▁dieta":9006,"▁flamen":9007,"▁solar":9008,"▁malaga":9009,"▁evidente":9010,"48":9011,"▁guitarra":9012,"▁resistencia":9013,"▁fechas":9014,"jeje":9015,"▁alba":9016,"gl":9017,"▁faltar":9018,"▁caiga":9019,"so.":9020,"▁join":9021,"▁bff":9022,"▁guatemala":9023,"▁triple":9024,"▁eslabon":9025,"▁alread":9026,"▁jajajajajajajajajaja":9027,"▁#ᄌ":9028,"▁tulip":9029,"▁alcanza":9030,"▁solos":9031,"▁ideolog":9032,"▁must":9033,"▁unicos":9034,"▁no...":9035,"▁interro":9036,"▁queen":9037,"▁nene":9038,"▁agricul":9039,"▁demon":9040,"orias":9041,"▁tempor":9042,"▁latest":9043,"ali":9044,"▁huele":9045,"▁polem":9046,"▁artific":9047,"tte":9048,"▁invitar":9049,"▁duerme":9050,"35":9051,"ed.":9052,"▁opciones":9053,"logo":9054,"▁igualmente":9055,"▁ver.":9056,"▁ramon":9057,"▁psicolog":9058,"▁trendy":9059,"▁portatil":9060,"▁mark":9061,"▁metas":9062,"▁disfrutando":9063,"▁argentina.":9064,"▁aprovecha":9065,"▁sky":9066,"▁cohete":9067,"▁pack":9068,"▁destruir":9069,"▁gritar":9070,"▁dl":9071,"▁recic":9072,"▁pasas":9073,"icon":9074,"minar":9075,"▁ofer":9076,"▁chingo":9077,"▁robaron":9078,"▁dispar":9079,"▁idolo":9080,"▁culpable":9081,"/h":9082,"▁pieza":9083,"▁preparado":9084,"▁precioso":9085,"abilidad":9086,"▁conserv":9087,"ros,":9088,"▁pich":9089,"amentos":9090,"▁declaraciones":9091,"▁mr":9092,"▁darse":9093,"puestos":9094,"▁looks":9095,"oo,":9096,"▁24/7":9097,"nos.":9098,"▁cambian":9099,"▁peticion":9100,"▁liqui":9101,"dres":9102,"▁subo":9103,"▁amigos.":9104,"▁provoca":9105,"▁aplicacion":9106,"▁profesores":9107,"▁hacer,":9108,"▁cuen":9109,"▁vaquero":9110,"▁tulipan":9111,"down":9112,"▁secon":9113,"-20":9114,"▁confia":9115,"▁rompio":9116,"rp":9117,"▁violen":9118,"▁ᅠ":9119,"vias":9120,"▁mafia":9121,"▁golp":9122,"zgo":9123,"▁traged":9124,"▁probablemente":9125,".00":9126,"▁io":9127,"▁debajo":9128,"iempre":9129,"▁embaja":9130,"▁final,":9131,"mbia":9132,"65":9133,"▁bie":9134,"▁cerrada":9135,"▁aument":9136,"▁logo":9137,"bamos":9138,"▁48":9139,"▁sacrific":9140,"▁lucia":9141,"▁masac":9142,"47":9143,"▁cocinar":9144,"estamos":9145,"▁pach":9146,"no.":9147,"▁proteg":9148,"▁listos":9149,"▁amplia":9150,"▁famoso":9151,"▁conjunto":9152,"▁castillo":9153,"▁!!!.":9154,"▁coher":9155,"▁manejar":9156,"mas.":9157,"ass":9158,"▁ciudadania":9159,"▁stal":9160,"yon":9161,"▁scre":9162,"▁desear":9163,"▁precisamente":9164,"▁convierte":9165,"▁mister":9166,"▁nintendo":9167,"▁censura":9168,"▁perri":9169,"▁pentag":9170,"▁querian":9171,"▁entrenar":9172,"idores":9173,"▁daily":9174,"▁declaracion":9175,"??.":9176,"의":9177,"▁fuji":9178,"▁bienvenido":9179,"▁depri":9180,"▁contamos":9181,"▁pasamos":9182,"▁mujer,":9183,"▁diplo":9184,"▁pira":9185,"▁demas.":9186,"▁explico":9187,"▁pagando":9188,"▁regalar":9189,"▁paz,":9190,"▁pau":9191,"▁desayuno":9192,"iosos":9193,"▁:c":9194,"▁lp":9195,"▁ambien":9196,"▁32":9197,"▁nosotros.":9198,"▁periodo":9199,"anta":9200,"▁pacto":9201,"es...":9202,"▁propagan":9203,"▁veces,":9204,"▁escuelas":9205,"wl":9206,"mill":9207,"▁flip":9208,"arial":9209,"▁gonzalo":9210,"▁titulos":9211,"▁asi?":9212,"▁amo,":9213,"▁droga":9214,"▁canto":9215,"▁enfermo":9216,"▁seras":9217,"▁sy":9218,"▁vais":9219,"▁contemp":9220,"▁sema":9221,"hd":9222,"gnos":9223,"▁betis":9224,"▁constitu":9225,"▁racing":9226,"▁cagada":9227,"▁pueblo,":9228,"ᅥᆼ":9229,"▁mui":9230,"bd":9231,"▁noche.":9232,"▁coleccion":9233,"▁acha":9234,"▁argumento":9235,"▁debil":9236,"▁escolar":9237,"▁ende":9238,"▁identific":9239,"▁streaming":9240,"▁origin":9241,"▁cuo":9242,"▁decreto":9243,"▁amo.":9244,"▁azucar":9245,"▁mascarillas":9246,"▁minima":9247,"▁uns":9248,"▁estabas":9249,"▁girls":9250,"ᅦ이":9251,"ils":9252,"▁maraton":9253,"▁demais":9254,"▁borre":9255,"▁fruncido":9256,"uevo":9257,"▁vos.":9258,"▁sv":9259,"▁produce":9260,"▁evangel":9261,"decer":9262,"gos,":9263,"▁enamorado":9264,"▁subiendo":9265,"▁ruido":9266,"___":9267,"▁equipo.":9268,"ments":9269,"▁status":9270,"▁cit":9271,"▁servir":9272,"▁llegamos":9273,"▁argumentos":9274,"▁velocidad":9275,"▁garantizar":9276,"▁transformacion":9277,"▁mas!":9278,"▁alcaldia":9279,"rilla":9280,"▁recibio":9281,"▁decide":9282,"▁tava":9283,"▁companera":9284,"▁concepto":9285,"▁tortu":9286,"▁demonio":9287,"gaba":9288,"x.":9289,"▁acce":9290,"fec":9291,"▁crei":9292,"▁limite":9293,"▁si...":9294,"▁texto":9295,"▁investigar":9296,"▁imaginan":9297,"▁ladrones":9298,"may":9299,"▁golazo":9300,"quitos":9301,"hat":9302,"▁socorro":9303,"▁sindica":9304,"hing":9305,"▁cuenta.":9306,"▁lobo":9307,"▁maquilla":9308,"▁alcanzar":9309,"▁\"per":9310,"▁]":9311,"▁socios":9312,"▁fijo":9313,"meria":9314,"▁38":9315,"▁falar":9316,"titas":9317,"▁hermosas":9318,"▁trauma":9319,"▁plazo":9320,"▁food":9321,"▁quedamos":9322,"▁looking":9323,"▁espejo":9324,"torial":9325,"ervar":9326,"▁pica":9327,"mitas":9328,"▁detalle":9329,"w.":9330,"unca":9331,"▁jajajajajaj":9332,"▁sudamer":9333,"▁me:":9334,"▁produ":9335,"▁tiran":9336,"▁discip":9337,"▁pretty":9338,"es!":9339,"▁mascul":9340,"▁social.":9341,"▁cicl":9342,"▁estadis":9343,"▁apreton":9344,"▁money":9345,"▁entrenamiento":9346,"temp":9347,"▁ᄂ":9348,"▁llevas":9349,"▁paseo":9350,"▁sofia":9351,"▁pelotas":9352,"▁bull":9353,"va,":9354,"tren":9355,"▁armar":9356,"▁actualidad":9357,"▁locu":9358,"▁demanda":9359,"ti,":9360,"▁limpieza":9361,"▁arbitro":9362,"▁altos":9363,"izon":9364,"▁casti":9365,"▁34":9366,"edo":9367,"▁socialismo":9368,"▁iguales":9369,"▁andas":9370,"주":9371,"ely":9372,"▁\"pro":9373,"단":9374,"▁tetas":9375,"▁spain":9376,"▁pep":9377,"▁carol":9378,"▁already":9379,"poche":9380,"▁park":9381,"▁electric":9382,"▁suscri":9383,"caba":9384,"▁lanza":9385,"▁principales":9386,"▁turis":9387,"▁algu":9388,"▁lata":9389,"탄":9390,"▁bici":9391,"▁meus":9392,"▁cuchillo":9393,"▁ov":9394,"gaz":9395,"▁state":9396,"▁sentia":9397,"▁wri":9398,"▁gel":9399,"ship":9400,"▁semb":9401,"ned":9402,"▁hala":9403,"▁place":9404,"▁terminan":9405,"▁pague":9406,"▁plato":9407,"▁ignorante":9408,"viste":9409,"▁gris":9410,"▁ip":9411,"▁diosss":9412,"▁vdd":9413,"▁salsa":9414,"grada":9415,"▁gros":9416,"▁seguido":9417,"▁motivos":9418,"▁twitter,":9419,"▁europea":9420,"▁perspec":9421,"▁movie":9422,"▁dias!":9423,"▁enamora":9424,"▁luchando":9425,"▁cruel":9426,"▁expertos":9427,"▁guy":9428,"▁inmen":9429,"▁manan":9430,"▁estado,":9431,"▁angustia":9432,"▁geo":9433,"hah":9434,"▁exces":9435,"▁pn":9436,"▁insopor":9437,"tifico":9438,"▁adultos":9439,"▁tipico":9440,"sor":9441,"▁bayer":9442,"▁parlament":9443,"▁habitantes":9444,"▁tambem":9445,"l,":9446,"▁excep":9447,"▁dog":9448,"▁bienvenida":9449,"▁pesad":9450,"▁sepan":9451,"▁contesta":9452,"▁let's":9453,"//":9454,"▁sectores":9455,"▁farmac":9456,"caron":9457,"▁making":9458,"▁twitter.":9459,"imientos":9460,"▁cated":9461,"▁gla":9462,"▁hig":9463,"▁mulher":9464,"▁ani":9465,"▁tecnica":9466,"▁depois":9467,"▁special":9468,"▁190":9469,"ble,":9470,"▁75":9471,"▁horas,":9472,"▁demasia":9473,"▁alvaro":9474,"▁sonreir":9475,"▁09":9476,"▁^":9477,"▁traidor":9478,"▁regala":9479,"o!":9480,"▁pelos":9481,"▁aquella":9482,"▁vina":9483,"▁lamentablemente":9484,"▁agrada":9485,"▁tribunal":9486,"▁dientes":9487,"▁vehiculo":9488,"▁comunistas":9489,"▁claro.":9490,"▁nomin":9491,"▁exterior":9492,"▁caso,":9493,"live":9494,"to!":9495,"▁vem":9496,"▁licencia":9497,"▁desarrolla":9498,"▁feeling":9499,"▁nacional,":9500,"tente":9501,"▁presidente,":9502,"▁sienta":9503,"▁centr":9504,"▁ا":9505,"▁ft":9506,"▁raya":9507,"▁(de":9508,"▁pensamientos":9509,"▁tonight":9510,"ismos":9511,"▁patrimonio":9512,"▁hair":9513,"isimos":9514,"aciones,":9515,"▁camin":9516,"▁ventana":9517,"▁acomo":9518,"man,":9519,"gas.":9520,"▁caral":9521,"▁secues":9522,"exual":9523,"▁fria":9524,"▁hr":9525,"▁obsesion":9526,"▁rick":9527,"▁domingos":9528,"▁coraje":9529,"▁embargo":9530,"▁practicas":9531,"▁2000":9532,"▁veracruz":9533,"ou":9534,"tuales":9535,"▁miente":9536,"▁makes":9537,"pora":9538,"▁carnaval":9539,"jas,":9540,"▁feminismo":9541,"▁remix":9542,"▁aa":9543,"▁inca":9544,"▁femenino":9545,"▁volviendo":9546,"▁fernet":9547,"▁circun":9548,"vol":9549,"▁irresponsab":9550,"icono":9551,"▁ser,":9552,"▁nacionales":9553,"▁nace":9554,"▁lava":9555,"▁cantante":9556,"▁situaciones":9557,"arla":9558,"▁olvidado":9559,"rich":9560,"▁150":9561,"▁namjoon":9562,"▁juliantina":9563,"▁ᄎ":9564,"▁jarra":9565,"ars":9566,"az":9567,"▁bonitas":9568,"▁altas":9569,"ᅡᆼ탄":9570,"▁cagan":9571,"nal":9572,"dores,":9573,"▁contagio":9574,"▁yang":9575,"▁agente":9576,"▁coach":9577,"▁note":9578,"dalo":9579,"▁vela":9580,"ulado":9581,"▁flu":9582,"▁festejar":9583,"▁equipara":9584,"▁cuello":9585,"▁entidad":9586,"▁champion":9587,"dor.":9588,"▁verme":9589,"▁ee.uu":9590,"▁tomen":9591,"▁rincon":9592,"▁rr":9593,"ament":9594,"▁¡ya":9595,"_h":9596,"▁consigue":9597,"▁blackpink":9598,"▁caballo":9599,"▁sentirme":9600,"rens":9601,"▁save":9602,"▁cumpli":9603,"▁jugada":9604,"▁australia":9605,"▁vuelo":9606,"▁uh":9607,"▁asp":9608,"▁exigir":9609,"board":9610,"▁mediante":9611,"▁(2":9612,"▁museo":9613,"▁ptm":9614,"▁serio,":9615,"▁agro":9616,"))":9617,"▁colombianos":9618,"▁roban":9619,"▁organizado":9620,"▁rose":9621,"▁sentencia":9622,"ara,":9623,"▁religion":9624,"▁decimos":9625,"▁merecemos":9626,"▁\"y":9627,"▁parlante":9628,"▁fica":9629,"ara.":9630,"dedores":9631,"▁imaginas":9632,"▁aguila":9633,"▁sensible":9634,"▁separ":9635,"▁dormido":9636,"▁nah":9637,"▁amamos":9638,"▁recuperacion":9639,"▁aquello":9640,"▁dormir,":9641,"▁1-":9642,"te?":9643,"▁hes":9644,"▁apell":9645,"▁fich":9646,"▁leal":9647,"▁enferma":9648,"▁asistencia":9649,"▁locales":9650,"▁expecta":9651,"▁ester":9652,"▁cubre":9653,"ta?":9654,"trans":9655,"▁sie":9656,"▁que...":9657,"▁pero...":9658,"▁anteriores":9659,"▁enemi":9660,"▁especialmente":9661,"▁mexicana":9662,"▁canse":9663,"dor,":9664,"▁asesinato":9665,"coton":9666,"▁intenta":9667,"▁votaron":9668,"opera":9669,"yeron":9670,"▁ajaja":9671,"▁alo":9672,"▁mendoza":9673,"▁premier":9674,"nis":9675,"inking":9676,"▁alguien,":9677,"▁angeles":9678,"▁pandemia.":9679,"46":9680,"▁sanitaria":9681,"▁feminista":9682,"▁ponerle":9683,"▁social,":9684,"▁llevando":9685,"▁mtvlafando":9686,"▁internacionales":9687,"▁razon.":9688,"▁estudiante":9689,"triz":9690,"cados":9691,"citos":9692,"▁aguas":9693,"andono":9694,"▁santan":9695,"▁i've":9696,"▁ema":9697,"▁pedimos":9698,"▁ser.":9699,"▁\"des":9700,"▁hermosos":9701,"/2020":9702,"▁derech":9703,"▁pib":9704,"▁fila":9705,"turo":9706,"38":9707,"camara":9708,"▁rc":9709,"icos,":9710,"gam":9711,"▁melocoton":9712,"asa":9713,"▁derrota":9714,"man.":9715,"ene":9716,"▁soluciones":9717,"us.":9718,"▁actually":9719,"▁official":9720,"▁favorite":9721,"dero":9722,"▁mone":9723,"▁indica":9724,"▁flow":9725,"▁morales":9726,"▁granada":9727,"pe,":9728,"▁iv":9729,"▁50%":9730,"▁george":9731,"▁revolo":9732,"liga":9733,"▁pistola":9734,"▁fines":9735,"▁respues":9736,"alajara":9737,"▁ze":9738,"▁esta.":9739,"▁nosotros,":9740,"▁cambiado":9741,"▁tomate":9742,"ras,":9743,"▁confio":9744,"nos,":9745,"▁avisa":9746,"▁moch":9747,"▁pollito":9748,"▁suben":9749,"▁ida":9750,"▁delitos":9751,"▁maestra":9752,"▁pelear":9753,"▁mariposa":9754,"/4":9755,"▁squ":9756,"uem":9757,"▁sacaron":9758,"▁antigu":9759,"▁futbol.":9760,"ena,":9761,"pers":9762,"▁nick":9763,"▁contexto":9764,"▁gracioso":9765,"icanos":9766,"▁cansado":9767,"▁depos":9768,"▁patron":9769,"▁quema":9770,"▁atien":9771,"▁intent":9772,"▁otor":9773,"▁flaco":9774,"▁deberiamos":9775,"▁uff":9776,"paro":9777,"▁alu":9778,"▁innovacion":9779,"▁sd":9780,"▁¿me":9781,"▁agarro":9782,"▁delant":9783,"der.":9784,"▁ileg":9785,"tisimo":9786,"ros.":9787,"▁haran":9788,"▁juntar":9789,"▁enterate":9790,"▁cat":9791,"▁cientos":9792,"▁plante":9793,"▁meten":9794,"▁caos":9795,"▁¿o":9796,"▁ratito":9797,"▁circo":9798,"▁actuacion":9799,"▁mtvlaicono":9800,"▁semejante":9801,"monos":9802,"▁buenisimo":9803,"▁revoloteando":9804,"▁muuu":9805,"verde":9806,"aa.":9807,"▁pentagrama":9808,"tencion":9809,"▁preocupar":9810,"▁smart":9811,"▁milagro":9812,"▁tucu":9813,"▁soltar":9814,"▁🗣":9815,"▁dels":9816,"▁assis":9817,"▁partido,":9818,"▁menudo":9819,"▁reconoce":9820,"▁evidencia":9821,"▁bah":9822,"▁inclui":9823,"▁stand":9824,"tuvo":9825,"▁desesper":9826,"▁acuerdan":9827,"▁comunidades":9828,"▁case":9829,"▁saludos.":9830,"▁implica":9831,"▁cargar":9832,"kf":9833,",,,":9834,"▁presidente.":9835,"tan.":9836,"▁ilu":9837,"▁country":9838,"▁pena.":9839,"▁cosa.":9840,"ᅮᆨ":9841,"▁drogas":9842,"▁fallo":9843,"▁tron":9844,"▁viral":9845,"▁octa":9846,"▁cagando":9847,"sss":9848,"▁nuevo,":9849,"▁poco,":9850,"▁metido":9851,"▁suyo":9852,"▁hibisco":9853,"tuna":9854,"▁hj":9855,"▁territorio":9856,"▁hrs":9857,"▁neol":9858,"bien":9859,"pri":9860,"san":9861,"▁toler":9862,"▁finalmente":9863,"terias":9864,"▁maybe":9865,"xx":9866,"▁vzla":9867,"▁estatal":9868,"▁alon":9869,"taro":9870,"▁compu":9871,"▁fidel":9872,"▁gilipollas":9873,"enomen":9874,"▁pario":9875,"iori":9876,"cono":9877,"▁bomberos":9878,"▁principios":9879,"udas":9880,"▁ᄒ":9881,"▁hierba":9882,"▁vere":9883,"▁protec":9884,"▁shar":9885,"dada":9886,"37":9887,"▁infec":9888,"▁late":9889,"▁enoja":9890,"zi":9891,"▁bander":9892,"▁evita":9893,"▁pastor":9894,"▁such":9895,"▁nada...":9896,"army":9897,"▁atropel":9898,"▁digo,":9899,"sey":9900,"▁lado.":9901,"▁grand":9902,"▁protestas":9903,"viendo":9904,"▁diagnos":9905,"▁liberal":9906,"▁indo":9907,"▁descargar":9908,"▁paquete":9909,"▁lxs":9910,"▁positivos":9911,"▁o.":9912,"▁book":9913,"▁h.":9914,"▁mmmm":9915,"▁indis":9916,"▁colonia":9917,"▁audios":9918,"▁sleep":9919,"▁desac":9920,"▁recomendaciones":9921,"▁moon":9922,"alidad":9923,"▁carabin":9924,"▁donald":9925,"▁maestros":9926,"▁pregunte":9927,"▁aparecio":9928,"▁vacio":9929,"arca":9930,"▁pt":9931,"▁mass":9932,"▁consol":9933,"▁individual":9934,"▁\"por":9935,"▁aprobar":9936,"▁encab":9937,"iores":9938,"cher":9939,"▁metal":9940,"▁friday":9941,"▁encontrado":9942,"tadora":9943,"▁norma":9944,"▁grab":9945,"▁nunca,":9946,"▁agua,":9947,"▁bancar":9948,"▁bea":9949,"▁publicacion":9950,"▁gargan":9951,"▁tiktok":9952,"gela":9953,"▁sales":9954,"▁y...":9955,"▁ratas":9956,"▁portugal":9957,"▁devolver":9958,"mante":9959,"▁isa":9960,"win":9961,"iendas":9962,"tena":9963,"▁volvemos":9964,"▁logica":9965,"▁trying":9966,"▁investig":9967,"▁prometo":9968,"▁ayer,":9969,"▁peligros":9970,"▁rm":9971,"▁empatia":9972,"▁conclusion":9973,"tula":9974,"f,":9975,"▁vivienda":9976,"▁complicado":9977,"as!":9978,"▁rt.":9979,"▁incons":9980,"라":9981,"▁vigil":9982,"▁cuarentena.":9983,"▁cuarta":9984,"▁lean":9985,"▁juvenil":9986,"▁exhib":9987,"▁gallina":9988,"onia":9989,"▁aburrido":9990,"gos.":9991,"▁porno":9992,"▁fora":9993,"▁mano,":9994,"▁\".":9995,"▁hablemos":9996,"ward":9997,"소년":9998,"▁reach":9999,"▁discusion":10000,"pto":10001,"▁afortun":10002,"enciales":10003,"▁197":10004,"▁move":10005,"▁dance":10006,"▁eles":10007,";.":10008,"▁creacion":10009,"▁preca":10010,"ser":10011,"▁beren":10012,"▁queridos":10013,"▁sentirse":10014,"▁¡en":10015,"▁day.":10016,"▁supermer":10017,"▁triunf":10018,"▁socialista":10019,"▁guadalajara":10020,"▁lora":10021,"▁quiero,":10022,"▁refuer":10023,"▁frontera":10024,"▁tortura":10025,"▁hura":10026,"▁pendientes":10027,"▁ingenier":10028,"▁reales":10029,"▁otro.":10030,"lit":10031,"▁projec":10032,"os!":10033,"▁manifestacion":10034,"▁dominicana":10035,"▁rip":10036,"▁corea":10037,"▁supero":10038,"▁califor":10039,"▁nuevo.":10040,"▁noc":10041,"▁¡es":10042,"▁necesaria":10043,"▁nossa":10044,"▁sucede":10045,"▁pierdo":10046,"▁gustaba":10047,"▁tach":10048,"▁both":10049,"▁detes":10050,"▁kara":10051,"▁kiss":10052,"소년단":10053,"▁travel":10054,"fob":10055,"▁pista":10056,"▁destin":10057,"▁llame":10058,"▁ofrecer":10059,"▁meto":10060,"▁podrias":10061,"▁debio":10062,"▁mortal":10063,"▁tuvimos":10064,"▁cosa,":10065,"jajs":10066,"▁tengamos":10067,"▁jiji":10068,"▁coch":10069,"▁asia":10070,"▁cb":10071,"▁cambi":10072,"▁ampl":10073,"▁likes":10074,"▁¿alguien":10075,"▁during":10076,"▁villar":10077,"▁chinga":10078,"▁jajsjs":10079,"▁jugamos":10080,"▁caigo":10081,"▁patro":10082,"▁gigante":10083,"▁jajajajajajajaja":10084,"▁paulo":10085,"▁iniciar":10086,"▁clan":10087,"▁baek":10088,"▁(con":10089,"▁exci":10090,"andome":10091,"▁ocurrio":10092,"ᅡᆼ탄소년단":10093,"▁reda":10094,"▁buy":10095,"▁dou":10096,"▁lgb":10097,"la_":10098,"▁descuento":10099,"to...":10100,"▁boys":10101,"▁gent":10102,"idi":10103,"▁gp":10104,"▁maraca":10105,"▁demas,":10106,"dl":10107,"▁despi":10108,"▁ramo":10109,"▁confirmar":10110,"▁acar":10111,"▁lanzamiento":10112,"▁carretera":10113,"▁comeback":10114,"▁sic":10115,"tencias":10116,"▁reb":10117,"▁primaria":10118,"-)":10119,"▁roma":10120,"▁promedio":10121,"quiero":10122,"uty":10123,"▁grado":10124,"▁maur":10125,"▁futbol,":10126,"49":10127,"진":10128,"▁repente":10129,"▁termo":10130,"▁baje":10131,"▁1-0":10132,"▁avenida":10133,"▁requis":10134,"▁ato":10135,"▁hombre,":10136,"cos,":10137,"▁cataluna":10138,"▁alvar":10139,"36":10140,"▁puesta":10141,"▁servid":10142,"▁quedando":10143,"▁criticas":10144,"▁equiparacion":10145,"▁tumb":10146,"visa":10147,"▁sweet":10148,"▁transito":10149,"tade":10150,"▁se.":10151,"▁secundar":10152,"▁ت":10153,"▁zarago":10154,"▁siguiendo":10155,"▁impar":10156,"tan,":10157,"males":10158,"▁paco":10159,"▁explique":10160,"▁pierden":10161,"cas.":10162,"acia_":10163,"fil":10164,"▁kkkk":10165,"_hacia_":10166,"cacion":10167,"▁bien?":10168,"▁crema":10169,"▁tarde.":10170,"dale":10171,"▁consid":10172,"▁vers":10173,"▁kilos":10174,"▁delincuente":10175,"▁rostro":10176,"▁saldra":10177,"▁sangu":10178,"▁vs.":10179,"peda":10180,"▁marvel":10181,"▁realizo":10182,"▁definicion":10183,"▁molt":10184,"ibo":10185,"▁caido":10186,"▁maravillosa":10187,"how":10188,"▁teniamos":10189,"xd":10190,"▁atleti":10191,"▁huracan":10192,"hal":10193,"▁invitacion":10194,"▁aseguro":10195,"▁labora":10196,"▁dy":10197,"▁coma":10198,"▁captura":10199,"tizar":10200,"▁vizcar":10201,"'ll":10202,"▁claudia":10203,"▁barde":10204,"▁podamos":10205,"▁si!":10206,"os..":10207,"arios,":10208,"▁reporte":10209,"▁olimpia":10210,"▁rapida":10211,"▁decirme":10212,"▁bn":10213,"▁jour":10214,"▁eduardo":10215,"▁que.":10216,"▁mentiroso":10217,"▁veas":10218,"arios.":10219,"▁videocamara":10220,"▁cuenta,":10221,"va.":10222,"leypoche":10223,"▁canada":10224,"▁brown":10225,"워":10226,"...que":10227,"▁until":10228,"▁stories":10229,"lis":10230,"▁seguiremos":10231,"▁poco.":10232,"pe.":10233,"▁ora":10234,"▁pav":10235,"hion":10236,"▁37":10237,"▁abandono":10238,"calleypoche":10239,"▁ᄃ":10240,"▁having":10241,"▁cursos":10242,"▁tire":10243,"▁llevaba":10244,"▁anything":10245,"▁chich":10246,"▁montana":10247,"▁gras":10248,"▁lau":10249,"▁welcome":10250,"▁barran":10251,"▁tomado":10252,"▁dun":10253,"▁consecu":10254,"▁monterrey":10255,"▁docente":10256,"▁hiper":10257,"▁obtener":10258,"▁dificul":10259,"▁capaces":10260,"▁ayude":10261,"▁quedara":10262,"▁oce":10263,"▁b.":10264,"▁pegue":10265,"cump":10266,"▁gun":10267,"▁gata":10268,"▁terapia":10269,"▁independent":10270,"▁barrios":10271,"▁cuidate":10272,"▁posibles":10273,"▁whole":10274,"▁extranaba":10275,"▁tromp":10276,"▁queden":10277,"▁brazo":10278,"▁smi":10279,"▁chill":10280,"▁pared":10281,"▁c'":10282,"ijo":10283,"▁st":10284,"▁rueda":10285,"▁parado":10286,"▁ful":10287,"▁represion":10288,"▁empo":10289,"didas":10290,"▁entran":10291,"▁cobran":10292,"▁desaparecer":10293,"▁uno,":10294,"▁mtvlaiconocalleypoche":10295,"▁uno.":10296,"▁fallecidos":10297,"▁perjud":10298,"▁tonta":10299,"▁descansar":10300,"▁autobus":10301,"▁equipo,":10302,"quillo":10303,"▁hoy?":10304,"▁experiencias":10305,"▁noel":10306,"tnite":10307,"hit":10308,"▁fren":10309,"▁academia":10310,"▁practicamente":10311,"▁olviden":10312,"▁ک":10313,"▁efectos":10314,"▁quan":10315,"▁left":10316,"▁gota":10317,"to..":10318,"▁perdon,":10319,"bada":10320,"▁comunica":10321,"▁を":10322,"▁j.":10323,"▁capo":10324,"▁prefier":10325,"riz":10326,"▁muerta":10327,"▁clubes":10328,"reta":10329,"gest":10330,"▁entorno":10331,"▁marcos":10332,"▁unifor":10333,"istica":10334,"▁policial":10335,"▁realidad.":10336,"▁indigen":10337,"▁biz":10338,"▁i'll":10339,"▁ن":10340,"▁terminado":10341,"▁pudieron":10342,"▁cuarentena,":10343,"▁vuelvan":10344,"▁:p":10345,"▁panam":10346,"▁astu":10347,"▁de...":10348,"▁requiere":10349,"▁tat":10350,"▁examenes":10351,"▁\"m":10352,"▁docentes":10353,"▁boda":10354,"▁says":10355,"▁aguanta":10356,"gy":10357,"▁recibido":10358,"▁boletos":10359,"movil":10360,"▁avec":10361,"▁lenguaje":10362,"▁colombia.":10363,"▁torn":10364,"▁llamas":10365,"▁escor":10366,"▁covid-19.":10367,"▁amigo.":10368,"▁hecho,":10369,"▁abuel":10370,"▁xbox":10371,"▁cob":10372,"orro":10373,"▁votacion":10374,"▁cona":10375,"▁formula":10376,"pping":10377,"▁reba":10378,"▁sano":10379,"▁semafor":10380,"▁wea":10381,"▁rompiendo":10382,"▁solicitud":10383,"▁galax":10384,"▁autos":10385,"vita":10386,"▁nostal":10387,"▁otro,":10388,"▁isabel":10389,"▁llueve":10390,"▁terroristas":10391,"▁toxica":10392,"▁psi":10393,"▁bot":10394,"igna":10395,"ena.":10396,"▁combatir":10397,"...!!!":10398,"▁ideologia":10399,"▁notific":10400,"gera":10401,"▁andre":10402,"▁manzana":10403,"▁inmi":10404,"▁tormenta":10405,"▁transmi":10406,"▁pasado,":10407,"ficientes":10408,"▁escuchas":10409,"antes,":10410,"x,":10411,"▁misa":10412,"▁table":10413,"▁cara,":10414,"▁creia":10415,"▁personalidad":10416,"▁hell":10417,"monia":10418,"▁todos!":10419,"▁retirar":10420,"▁veter":10421,"?\".":10422,"▁grande.":10423,"▁mimos":10424,"▁は":10425,"▁gn":10426,"▁bocadillo":10427,"habil":10428,"▁gustas":10429,"▁contigo.":10430,"▁scar":10431,"dom":10432,"▁ash":10433,"▁unfollowers":10434,"▁guz":10435,"▁asado":10436,"▁fenomen":10437,"▁cabeza.":10438,"▁senado":10439,"tures":10440,"▁grafico":10441,"▁---":10442,"▁caes":10443,"▁sav":10444,"▁comunismo":10445,"▁ponemos":10446,"▁sense":10447,"▁ingla":10448,"▁braz":10449,"▁sonido":10450,"9,":10451,"▁estao":10452,"ter.":10453,"▁ecuator":10454,"▁ive":10455,"fiel":10456,"▁alimentar":10457,"us,":10458,"▁explos":10459,"▁retra":10460,"▁reciente":10461,"▁referencia":10462,"▁grande,":10463,"▁politica,":10464,"▁preciso":10465,"gica":10466,"▁monstru":10467,"▁eee":10468,"▁cobarde":10469,"▁companer":10470,"ize":10471,"▁ambiental":10472,"▁mapa":10473,"▁enough":10474,"▁som":10475,"▁zomb":10476,"▁¡la":10477,"▁medias":10478,"dimos":10479,"▁y/o":10480,"4,":10481,"▁embarazada":10482,"▁piensas":10483,"▁cansan":10484,"▁casualidad":10485,"antes.":10486,"▁urban":10487,"▁inex":10488,"▁lineas":10489,"▁fatal":10490,"▁flechas":10491,"▁fala":10492,"▁es?":10493,"▁denuncias":10494,"ners":10495,"▁dismin":10496,"▁distintos":10497,"▁metodo":10498,"casa":10499,"▁limpia":10500,"▁credi":10501,"▁sacado":10502,"ます":10503,"oor":10504,"▁opiniones":10505,"って":10506,"▁aislamiento":10507,"▁ofrec":10508,"▁comite":10509,"alia":10510,"▁expor":10511,"▁joe":10512,"▁discutir":10513,"▁activo":10514,"▁reducir":10515,"▁interrogacion":10516,"▁calle,":10517,"▁troll":10518,"▁antes,":10519,"▁dani":10520,"▁necesidades":10521,"▁queee":10522,"▁comand":10523,"os...":10524,"▁1er":10525,"▁manches":10526,"▁hacian":10527,"▁frecu":10528,"fthe":10529,"▁rollo":10530,"▁photos":10531,"▁entere":10532,"▁naaa":10533,".\".":10534,"▁¡te":10535,"▁difusion":10536,"▁damn":10537,"▁tranquilidad":10538,"▁opinar":10539,"▁espectaculo":10540,"▁loco,":10541,"▁ok,":10542,"▁manija":10543,"▁desperdic":10544,"▁ya!":10545,"▁luck":10546,"▁relevan":10547,"▁recomp":10548,"▁snap":10549,"ties":10550,"▁ciudadana":10551,"▁llenar":10552,"j.":10553,"damente":10554,"▁equip":10555,"▁capitulos":10556,"▁video:":10557,"▁quere":10558,"eth":10559,"▁recordamos":10560,"chen":10561,"▁avanza":10562,"▁grabar":10563,"▁\\":10564,"▁prevenir":10565,"▁nutr":10566,"▁huelga":10567,"▁politica.":10568,"▁pronos":10569,"▁normalidad":10570,"▁cause":10571,"uidad":10572,"▁dibujo":10573,"▁marcelo":10574,"▁share":10575,"▁cabeza,":10576,"▁piola":10577,"▁vital":10578,"호":10579,"▁disposicion":10580,"▁mod":10581,"▁hello":10582,"ison":10583,"▁camisa":10584,"▁million":10585,"▁ciru":10586,"▁medellin":10587,"▁report":10588,"▁dans":10589,"▁barba":10590,"▁canarias":10591,"▁enjoy":10592,"▁detener":10593,"tou":10594,"▁envi":10595,"doni":10596,"▁myself":10597,"▁bancos":10598,"▁shin":10599,"▁realizado":10600,"▁shawn":10601,"▁beh":10602,"▁mujeres,":10603,"▁jugado":10604,"▁veran":10605,"▁hil":10606,"▁porf":10607,"cales":10608,"ord":10609,"graphy":10610,"▁fotograf":10611,"torias":10612,"▁rab":10613,"▁tag":10614,"olvida":10615,"▁cue":10616,"▁crece":10617,"▁legiti":10618,"▁regresa":10619,"deo":10620,"▁ambul":10621,"▁pedia":10622,"_de_mano":10623,"able,":10624,"▁elab":10625,"▁ako":10626,"▁verlos":10627,"▁different":10628,"▁fantasia":10629,"▁transpor":10630,"▁combin":10631,"▁eramos":10632,"▁bono":10633,"▁propor":10634,"▁descubrir":10635,"▁roll":10636,"▁manu":10637,"jf":10638,"▁digno":10639,"▁perdieron":10640,"▁pilas":10641,"▁cumpliendo":10642,"▁mp":10643,"▁sanitar":10644,"▁novedades":10645,"icos.":10646,"!,":10647,"▁riendo":10648,"▁defienden":10649,"ao":10650,"▁justificar":10651,"▁cervez":10652,"ione":10653,"▁tu?":10654,"▁police":10655,"▁mama,":10656,"▁ternura":10657,"▁click":10658,"xe":10659,"▁escribo":10660,"▁bunny":10661,"ring":10662,"▁profunda":10663,"▁green":10664,"dores.":10665,"▁barri":10666,"▁fight":10667,"ras.":10668,"▁wron":10669,"ticamente":10670,"▁noo":10671,"▁miseria":10672,"▁hayas":10673,"▁vidal":10674,"▁!!.":10675,"▁ayuso":10676,"▁bring":10677,"▁vezes":10678,"▁infel":10679,"▁pandemia,":10680,"▁fijate":10681,"▁odi":10682,"▁apete":10683,"▁xd.":10684,"▁suces":10685,"cab":10686,"▁catalunya":10687,"▁mediocre":10688,"uz":10689,"▁til":10690,"▁dama":10691,"ution":10692,"'a":10693,"grado":10694,"▁cade":10695,"▁\"hay":10696,"new":10697,"▁sob":10698,"▁parada":10699,"▁frag":10700,"▁ustedes,":10701,"▁marcar":10702,"▁ctm":10703,"▁pasta":10704,"▁tendencias":10705,"▁mentiros":10706,"▁pique":10707,"▁presun":10708,"asta":10709,"▁diana":10710,"▁argentina,":10711,"▁games":10712,"2016":10713,"▁seccion":10714,"gencias":10715,"▁cai":10716,"▁oidos":10717,"▁coisas":10718,"▁sla":10719,"▁proximas":10720,"▁mas?":10721,"▁revisar":10722,"▁propone":10723,"▁primavera":10724,"▁flaca":10725,"▁metan":10726,"▁convertido":10727,"▁ahorrar":10728,"▁varon":10729,"▁wach":10730,"▁aplicar":10731,"▁acepto":10732,"▁nico":10733,"▁acoso":10734,"▁match":10735,"os?":10736,"▁lmao":10737,"▁berenj":10738,"▁#에":10739,"7,":10740,"▁ninguem":10741,"▁avanzar":10742,"▁tqm":10743,"▁jogo":10744,"▁unir":10745,"▁perfectamente":10746,"▁mueren":10747,"▁hablame":10748,"▁als":10749,"▁subi":10750,"▁libera":10751,"mitar":10752,"ight.":10753,"▁sand":10754,"▁receta":10755,"▁osorio":10756,"▁jornadas":10757,"▁mauricio":10758,"▁clip":10759,"▁revel":10760,"▁bata":10761,"▁biden":10762,"▁ubic":10763,"ya.":10764,"▁historica":10765,"uesto":10766,"▁reen":10767,"▁demostrado":10768,"▁asu":10769,"▁valora":10770,"enses":10771,"▁zul":10772,"마":10773,"▁lie":10774,"▁fortnite":10775,"mira":10776,"▁tanto.":10777,"▁caralho":10778,"▁pales":10779,"▁organizar":10780,"▁ع":10781,"▁65":10782,"▁roy":10783,"tila":10784,"▁distintas":10785,"▁mio,":10786,"indice":10787,"▁suba":10788,"unes":10789,"▁herramientas":10790,"▁asunto":10791,"▁busqueda":10792,"▁gustos":10793,"or.":10794,"▁bienvenidos":10795,"▁quereis":10796,"▁oficialmente":10797,"▁fin.":10798,"▁pongas":10799,"▁thought":10800,"▁tragedia":10801,"fle":10802,"▁violacion":10803,"▁niveles":10804,"▁piba":10805,"▁ortega":10806,"▁dirigentes":10807,"▁entao":10808,"▁llegas":10809,"▁aparecer":10810,"▁vcs":10811,"▁seok":10812,"▁(el":10813,"▁atar":10814,"▁ib":10815,"▁mica":10816,"▁jackson":10817,"...pero":10818,"▁paisa":10819,"yec":10820,"▁adivinen":10821,"▁muchacho":10822,"dea":10823,"dig":10824,"▁vimos":10825,"▁fotogra":10826,"▁potter":10827,"6,":10828,"▁).":10829,"▁ataques":10830,"▁woo":10831,"▁bandera_":10832,"▁poder.":10833,"▁llave":10834,"algo":10835,"?!?!":10836,"95":10837,"▁exige":10838,"▁kon":10839,"▁deseos":10840,"unque":10841,"▁enfermos":10842,"▁peor,":10843,"▁main":10844,"ari":10845,"▁10%":10846,"▁weon":10847,"▁gastrono":10848,"▁deu":10849,"▁medicamentos":10850,"▁manifies":10851,"▁chupar":10852,"▁800":10853,"▁aber":10854,"▁kk":10855,"▁margar":10856,"▁cooper":10857,"osas":10858,"▁ciudad.":10859,"▁dies":10860,"▁08":10861,"▁traigo":10862,"▁jaime":10863,"▁ensenar":10864,"▁portero":10865,"▁movilidad":10866,"▁gi":10867,"▁barco":10868,"jeras":10869,"▁inutiles":10870,"▁impuesto":10871,"▁diste":10872,"▁hipocres":10873,"▁vein":10874,"▁paso,":10875,"▁tips":10876,"▁admiro":10877,"▁\"so":10878,"je,":10879,"▁ice":10880,"sung":10881,"▁pesimo":10882,"icen":10883,"▁creyendo":10884,"▁regalos":10885,"▁falsos":10886,"▁memb":10887,"▁train":10888,"▁ciertas":10889,"▁almo":10890,"▁2-":10891,"▁decirlo":10892,"yente":10893,"nel":10894,"▁huer":10895,"▁real.":10896,"▁wars":10897,"▁(la":10898,"▁tamano":10899,"▁sabeis":10900,"▁01":10901,"▁key":10902,"▁atta":10903,"▁despre":10904,"▁parecio":10905,"▁ي":10906,"rla":10907,"▁\"w":10908,"▁anillo":10909,"▁informo":10910,"▁palos":10911,"▁bin":10912,"zen":10913,"▁jefa":10914,"▁pintarse":10915,"▁emociones":10916,"▁humilde":10917,"▁amis":10918,"▁cuadro":10919,"▁vergonzos":10920,"▁noctur":10921,"▁similar":10922,"▁contras":10923,"▁me,":10924,"▁luv":10925,"▁farc":10926,"idar":10927,"▁techo":10928,"▁priori":10929,"▁tratan":10930,"▁guiller":10931,"▁loz":10932,"▁2013":10933,"▁poesia":10934,"▁serian":10935,"▁celebracion":10936,"▁patio":10937,"▁(p":10938,"▁migra":10939,"▁literatura":10940,"▁cargos":10941,"▁dorso_de_mano":10942,"_con_indice":10943,"▁dorso_de_mano_con_indice":10944,"▁vill":10945,"▁he's":10946,"▁agustin":10947,"▁comprando":10948,"▁mios":10949,"▁firmar":10950,"▁vandal":10951,"▁observ":10952,"tig":10953,"ge.":10954,"▁pepe":10955,"kis":10956,"▁custo":10957,"▁rei":10958,"▁peor.":10959,"dur":10960,"arol":10961,"▁ks":10962,"wing":10963,"▁future":10964,"▁parejas":10965,"▁coopera":10966,"▁marta":10967,"mito":10968,"tela":10969,"▁ea":10970,"▁lana":10971,"▁cristal":10972,"zaron":10973,"▁mujer.":10974,"▁amistades":10975,"▁exter":10976,"clas":10977,"▁oficiales":10978,"▁dulces":10979,"▁adn":10980,"민":10981,"▁aporte":10982,"▁erra":10983,"▁efe":10984,"▁humildad":10985,"uo":10986,"▁video.":10987,"tisima":10988,"▁understan":10989,"▁fly":10990,"▁lateral":10991,"▁dormir.":10992,"▁graci":10993,"▁tinha":10994,"cia.":10995,"▁vendiendo":10996,"▁negros":10997,"▁job":10998,"▁rodrigo":10999,"▁woman":11000,"doras":11001,"▁complice":11002,"▁duenos":11003,"▁enfermedades":11004,"▁motiva":11005,"ter,":11006,"jas.":11007,"▁dinero,":11008,"▁borracho":11009,"▁forget":11010,"▁film":11011,"▁tapar":11012,"zas,":11013,"▁🎙":11014,"iter":11015,"▁insomn":11016,"▁rug":11017,"gros":11018,"▁guap":11019,"▁fama":11020,"▁conecta":11021,"▁arres":11022,"▁pino":11023,"▁heav":11024,"▁estuvieron":11025,"▁gusta,":11026,"▁hijueputa":11027,"▁otros.":11028,"▁voten":11029,"▁ronda":11030,"▁alvarez":11031,"tire":11032,"▁vivido":11033,"izamos":11034,"▁【":11035,"▁concentracion":11036,"cia,":11037,"▁optim":11038,"▁gobernar":11039,"▁sobran":11040,"▁manden":11041,"frien":11042,"lacion":11043,"▁acuerdo,":11044,"▁venido":11045,"▁leyenda":11046,"▁insoportable":11047,"▁detenido":11048,"▁acel":11049,"▁lang":11050,"▁dandole":11051,"▁balcon":11052,"▁colocar":11053,"cc":11054,"▁predic":11055,"orden":11056,"▁grados":11057,"▁agr":11058,"▁secuestra":11059,"▁600":11060,"▁aparecen":11061,"into":11062,"▁andaba":11063,"or,":11064,"▁nacho":11065,"▁apuesta":11066,"▁vehiculos":11067,"▁malditos":11068,"▁oaxaca":11069,"▁disponibles":11070,"rano":11071,"▁meses,":11072,"▁jimen":11073,"▁moren":11074,"▁pleas":11075,"▁factura":11076,"▁yet":11077,"▁1)":11078,"hop":11079,"▁musica,":11080,"▁escribi":11081,"▁intelectual":11082,"▁eri":11083,"usos":11084,"▁fuentes":11085,"▁programacion":11086,"▁each":11087,"▁quinta":11088,"girl":11089,"▁✔":11090,"▁recorda":11091,"ust":11092,"fra":11093,"▁anyone":11094,"▁recons":11095,"venez":11096,"▁2018.":11097,"oo.":11098,"▁salto":11099,"viar":11100,"▁ingresos":11101,"iliar":11102,"▁bolsillo":11103,"▁atlan":11104,"▁juzgar":11105,"▁#방탄소년단":11106,"▁preparar":11107,"lid":11108,"▁jur":11109,"▁comprarme":11110,"▁chiquito":11111,"tta":11112,"▁quite":11113,"▁salta":11114,"▁almuer":11115,"▁watching":11116,"▁merezco":11117,"dentes":11118,"▁correa":11119,"▁ganaron":11120,"▁karma":11121,"-5":11122,"▁basicamente":11123,"▁fritas":11124,"▁terrorismo":11125,"▁acre":11126,"▁r.":11127,"▁mareada":11128,"▁chingon":11129,"▁generos":11130,"▁mierdas":11131,"▁equilib":11132,"▁beco":11133,"▁tacos":11134,"▁4,":11135,"▁abogados":11136,"▁bosque":11137,"▁regga":11138,"rieron":11139,"▁pai":11140,"df":11141,"▁modern":11142,"▁bell":11143,"▁0,":11144,"▁restric":11145,"▁rutina":11146,"▁adqui":11147,"▁creciendo":11148,"s!":11149,"▁nave":11150,"▁venezolana":11151,"▁trip":11152,"idios":11153,"▁golden":11154,"▁sonando":11155,"eton":11156,"▁senor,":11157,"▁seen":11158,"▁choco":11159,"▁iii":11160,"istar":11161,"almente":11162,"▁homos":11163,"▁reemp":11164,"▁diputada":11165,"▁deliver":11166,"▁lost":11167,"gentina":11168,"▁representantes":11169,"▁¡vamos":11170,"▁oir":11171,"/12":11172,"▁comandante":11173,"gano":11174,"▁ocupa":11175,"▁rocio":11176,"▁suppor":11177,"guna":11178,"▁llevado":11179,"▁trin":11180,"▁0.0":11181,"▁-&gt;":11182,"ched":11183,"▁municipios":11184,"▁sufre":11185,"▁cres":11186,"▁multip":11187,"▁conmigo,":11188,"cimientos":11189,"▁aha":11190,"▁ay,":11191,"게":11192,"▁darles":11193,"▁sufrimiento":11194,"▁irresponsable":11195,"▁gring":11196,"unid":11197,"▁ocup":11198,"▁jong":11199,"▁aumentar":11200,"▁eva":11201,"▁berenjena":11202,"▁aprendiza":11203,"▁no!":11204,"▁ejemplo,":11205,"▁chavista":11206,"▁enamore":11207,"▁sufriendo":11208,"rida":11209,"▁descarga":11210,"▁wifi":11211,"▁directora":11212,"▁impo":11213,"▁conflicto":11214,"▁bondoni":11215,"▁span":11216,"▁(e":11217,"▁talleres":11218,"▁ventas":11219,"▁hueco":11220,"▁activos":11221,"▁cartag":11222,"▁11.":11223,"39":11224,"▁mas..":11225,"▁contesto":11226,"▁duel":11227,"▁protocolo":11228,"▁tla":11229,"▁ave":11230,"▁hoc":11231,"▁german":11232,"▁matrimonio":11233,"▁satisfac":11234,"▁law":11235,"tificado":11236,"▁act":11237,"▁precisa":11238,"▁estimado":11239,"▁herrera":11240,"▁latinoamerica":11241,"▁rain":11242,"os\"":11243,"▁vous":11244,"▁diaria":11245,"▁apoyan":11246,"▁chara":11247,"▁diferencias":11248,"▁helico":11249,"▁mai":11250,"ti.":11251,"▁asesor":11252,"▁aula":11253,"▁escudo":11254,"▁2)":11255,"▁alfon":11256,"▁besitos":11257,"▁rell":11258,"▁coronavirus,":11259,"▁cercan":11260,"sea":11261,"▁volunt":11262,"▁verdes":11263,"aciones.":11264,"elle":11265,"▁compartiendo":11266,"▁intercamb":11267,"cilia":11268,"▁estoma":11269,"▁ascenso":11270,"▁yeah":11271,"▁raton":11272,"▁muera":11273,"▁dejemos":11274,"▁¿no?":11275,"▁robado":11276,"▁soporto":11277,"▁protocol":11278,"▁extin":11279,"▁working":11280,"▁literally":11281,"▁destruccion":11282,"▁universitario":11283,"▁asegurar":11284,"▁ariana":11285,"tivos.":11286,"▁salia":11287,"dit":11288,"▁combus":11289,"▁mogol":11290,"net":11291,"▁feb":11292,"▁meji":11293,"▁anun":11294,"ili":11295,"▁point":11296,"▁politi":11297,"as\"":11298,"▁trajo":11299,"▁incluye":11300,"▁\"ex":11301,"▁universal":11302,"▁indirec":11303,"▁tasa":11304,"▁wi":11305,"▁refiero":11306,"▁whis":11307,"▁cis":11308,"▁visitas":11309,"▁va,":11310,"▁hamburguesa":11311,"▁perpe":11312,"▁\"ten":11313,"▁amarilla":11314,"▁av.":11315,"▁rene":11316,"▁guayaqui":11317,"blan":11318,"▁kca":11319,"▁adopcion":11320,"▁bicho":11321,"▁radical":11322,"▁contento":11323,"▁respi":11324,"zcan":11325,"▁&gt;&gt;":11326,"▁colombia,":11327,"titud":11328,"▁acuerdo.":11329,"▁mira,":11330,"▁mundial.":11331,"▁cable":11332,"▁embargo,":11333,"▁fiz":11334,"▁bona":11335,"▁rar":11336,"▁sies":11337,"anada":11338,"more":11339,"▁novel":11340,"tion,":11341,"linson":11342,"▁profun":11343,"▁estaf":11344,"▁tkm":11345,"▁minim":11346,"▁curioso":11347,"▁yg":11348,"▁weather":11349,"▁real,":11350,"tc":11351,"-se":11352,"tivos,":11353,"▁update":11354,"▁ath":11355,"ote":11356,"▁emprendimiento":11357,"ries":11358,"ᅩᆫ":11359,"▁pereza":11360,"lig":11361,"▁nat":11362,"▁ahh":11363,"▁s'":11364,"▁llamando":11365,"▁macr":11366,"▁pezunas":11367,"▁foot":11368,"▁paginas":11369,"した":11370,"▁miedo,":11371,"66":11372,"▁cambiando":11373,"eer":11374,"▁confirmado":11375,"사":11376,"yol":11377,"▁covid19.":11378,"▁saying":11379,"▁gian":11380,"iberal":11381,"▁facu":11382,"dri":11383,"▁canso":11384,"olla":11385,"▁(por":11386,"▁cober":11387,"mico":11388,"▁sismo":11389,"▁pinto":11390,"▁¿cuan":11391,"▁celebramos":11392,"▁persegui":11393,"▁uf":11394,"itores":11395,"▁desigual":11396,"▁video,":11397,"▁international":11398,"▁perfe":11399,"▁idiotas":11400,"▁favoritos":11401,"zu":11402,"amar":11403,"▁justicia.":11404,"▁edo":11405,"▁mito":11406,"▁casado":11407,"▁julian":11408,"▁racismo":11409,"▁ensal":11410,"▁oje":11411,"▁disculpa":11412,"▁minas":11413,"▁certe":11414,"la_derecha":11415,"▁alan":11416,"ught":11417,"▁luc":11418,"▁escribio":11419,"▁ofens":11420,"▁campes":11421,"▁descans":11422,"je.":11423,"▁adorno":11424,"▁u.u":11425,"▁faltaba":11426,"o?":11427,"▁thrones":11428,"▁contigo,":11429,"▁borde":11430,"▁deseando":11431,"▁cr.":11432,"▁apellido":11433,"lina":11434,"fobia":11435,"▁mat":11436,"enio":11437,"wan":11438,"▁we're":11439,"▁especiales":11440,"▁iss":11441,"o...":11442,"udar":11443,"▁jimenez":11444,"▁vale,":11445,"8,":11446,"▁kpop":11447,"▁rif":11448,"el,":11449,"▁investiga":11450,"▁espec":11451,"▁actualmente":11452,"▁inneces":11453,"▁himno":11454,"▁sanitarios":11455,"▁criminales":11456,"gones":11457,"▁entendido":11458,"▁falsas":11459,"▁manual":11460,"▁enseno":11461,"▁organizaciones":11462,"▁barato":11463,"ently":11464,"▁meses.":11465,"▁vaca":11466,"▁\"to":11467,"▁gues":11468,"▁99":11469,"▁castel":11470,"▁eat":11471,"▁inscrib":11472,"▁random":11473,"▁reserv":11474,"븐":11475,"▁combate":11476,"▁tomlinson":11477,"▁disculpas":11478,"aal":11479,"▁cague":11480,"▁milit":11481,"▁jalisco":11482,"▁guion":11483,"▁pensiones":11484,"▁pena,":11485,"▁death":11486,"▁rara":11487,"solo":11488,"▁zoom":11489,"▁infraes":11490,"▁carreras":11491,"abra":11492,"▁votando":11493,"▁grin":11494,"▁ف":11495,"▁ministros":11496,"▁paula":11497,"▁colla":11498,"▁valio":11499,"▁narra":11500,"▁preguntando":11501,"▁distinto":11502,"▁piro":11503,"▁burla":11504,"▁aceite":11505,"▁pala":11506,"▁quitan":11507,"▁cule":11508,"bete":11509,"▁piedras":11510,"▁entonces,":11511,"ladas":11512,"▁ninos,":11513,"▁atentos":11514,"▁revol":11515,"▁mandando":11516,"▁es...":11517,"▁tropical":11518,"▁12.":11519,"▁divid":11520,"▁frank":11521,"▁fie":11522,"mejor":11523,"▁representante":11524,"▁kat":11525,"43":11526,"▁eg":11527,"ping":11528,"▁danos":11529,"▁sanciones":11530,"der,":11531,"▁seguros":11532,"▁hablaba":11533,"▁didnt":11534,"▁lenta":11535,"▁2020,":11536,"▁inmor":11537,"▁perfect":11538,"▁vita":11539,"▁fach":11540,"▁chim":11541,"▁aventura":11542,"▁acepta":11543,"▁used":11544,"▁taxi":11545,"kets":11546,"sta":11547,"▁asi...":11548,"▁delic":11549,"▁publico.":11550,"▁karol":11551,"▁hostia":11552,"▁¿el":11553,"▁rojos":11554,"77":11555,"▁baekhyun":11556,"mido":11557,"▁tela":11558,"▁sau":11559,"bis":11560,"▁xdd":11561,"▁onde":11562,"▁aku":11563,"▁robert":11564,"▁'s":11565,"▁manipula":11566,"▁ejecutivo":11567,"ster":11568,"▁falando":11569,"▁mk":11570,"▁:(((":11571,"▁zapatos":11572,"▁divina":11573,"▁¿cuando":11574,"▁de:":11575,"▁kor":11576,"▁horizon":11577,"tex":11578,"▁hip":11579,"▁distrito":11580,"▁potencia":11581,"▁pere":11582,"▁empan":11583,"▁heroe":11584,"i:":11585,"▁estrena":11586,"▁gold":11587,"▁sencilla":11588,"ult":11589,"▁scor":11590,"▁chilenos":11591,"▁chavismo":11592,"▁suspens":11593,"▁vecin":11594,"▁creemos":11595,"aar":11596,"▁descara":11597,"▁directiva":11598,"▁perfeccion":11599,"▁paran":11600,"mann":11601,"▁penas":11602,"▁camaras":11603,"▁n.":11604,"▁profesora":11605,"▁fals":11606,"inosa":11607,"▁tramp":11608,"▁cartas":11609,"▁dimision":11610,"▁disfruten":11611,"▁escritor":11612,"▁pilar":11613,"▁arranco":11614,"ican":11615,"▁calle.":11616,"▁petroleo":11617,"อง":11618,"ᅢᆨ":11619,"일":11620,"▁43":11621,"▁enojo":11622,"▁reclamar":11623,"▁eurovision":11624,"▁aliment":11625,"▁escab":11626,"▁compromis":11627,"▁panza":11628,"▁canales":11629,"▁oms":11630,"▁guerr":11631,"▁invis":11632,"▁fide":11633,"▁odiar":11634,"▁reciben":11635,"▁murci":11636,"▁empezaron":11637,"▁editorial":11638,"▁documento":11639,"▁fashion":11640,"ieras":11641,"▁potencial":11642,"▁cristian":11643,"▁defensor":11644,"▁india":11645,"▁suele":11646,"▁mujeres.":11647,"▁tocando":11648,"▁sonora":11649,"▁guerrero":11650,"▁mtvlapareja":11651,"▁restaurante":11652,"eok":11653,"▁mola":11654,"▁amanha":11655,"▁integral":11656,"▁respal":11657,"▁you!":11658,"▁conh":11659,"▁pilla":11660,"▁miedo.":11661,"▁bonitos":11662,"▁homic":11663,"세븐":11664,"▁estadounid":11665,"▁pretende":11666,"▁donar":11667,"▁business":11668,"▁vege":11669,"▁dira":11670,"▁influencer":11671,"▁ibas":11672,"ladolid":11673,"▁miembro":11674,"▁reproduccion":11675,"▁galicia":11676,"▁breaking":11677,"▁menu":11678,"▁facha":11679,"rrr":11680,"▁iria":11681,"▁gastos":11682,"▁peligroso":11683,"▁acorda":11684,"▁2010":11685,"▁cuna":11686,"▁entrando":11687,"▁propaganda":11688,"▁tendras":11689,"▁aval":11690,"▁define":11691,"▁ridicula":11692,"▁meteor":11693,"ta!":11694,"cos.":11695,"▁body":11696,"his":11697,"to\"":11698,"▁gallar":11699,"▁reempla":11700,"▁descor":11701,"▁sintomas":11702,"▁consc":11703,"▁analizar":11704,"▁fallecio":11705,"▁bayern":11706,"▁performan":11707,"pr":11708,"ppe":11709,"▁cultur":11710,"▁arsen":11711,"▁transicion":11712,"▁clinica":11713,"▁maldad":11714,"▁deri":11715,"▁poster":11716,"▁pd:":11717,"▁gabine":11718,"▁verguenza.":11719,"▁chaval":11720,"▁leccion":11721,"▁pasado.":11722,"▁hermano,":11723,"우":11724,"verdad":11725,"즈":11726,"▁fro":11727,"▁infecta":11728,"▁comprado":11729,"▁needs":11730,"▁merce":11731,"▁parlamento":11732,"acate":11733,"▁empiece":11734,"▁cruzar":11735,"▁antojo":11736,"▁wn":11737,"ging":11738,"fen":11739,"▁universidades":11740,"▁tareas":11741,"▁fia":11742,"▁alternativa":11743,"▁respirar":11744,"▁oido":11745,"▁sea.":11746,"▁marcas":11747,"osco":11748,"▁pain":11749,"▁duela":11750,"▁bases":11751,"▁dormida":11752,"▁paguen":11753,"▁vontade":11754,"ee,":11755,"ribles":11756,"▁finally":11757,"▁propias":11758,"plan":11759,"got":11760,"is?":11761,"elas":11762,"▁seo":11763,"▁cache":11764,"▁mtvlafandomar":11765,"▁brindar":11766,"▁presentamos":11767,"am.":11768,"▁volar":11769,"rene":11770,"▁vibra":11771,"▁scien":11772,"▁modific":11773,"▁pierdan":11774,"bloque":11775,"▁resen":11776,"▁plantilla":11777,"▁pcas":11778,"▁dil":11779,"▁determin":11780,"▁→":11781,"▁chinos":11782,"▁cocin":11783,"▁electrico":11784,"▁felix":11785,"▁\"cuando":11786,"▁lasti":11787,"▁didn't":11788,"▁microbio":11789,"▁afirma":11790,"▁merito":11791,"▁castigo":11792,"▁cronica":11793,"▁speak":11794,"/as":11795,"▁ds":11796,"▁ayudo":11797,"▁arrepiento":11798,"▁n1":11799,"▁simpson":11800,"dos..":11801,"▁dn":11802,"te...":11803,"▁talentos":11804,"▁usurp":11805,"▁facil,":11806,"/19":11807,"▁decada":11808,"▁terrorista":11809,"▁transparencia":11810,"▁urgencia":11811,"itado":11812,"▁lamento":11813,"▁zar":11814,"▁dc":11815,"▁puras":11816,"hip":11817,"▁road":11818,"love":11819,"▁penarol":11820,"▁porc":11821,"▁foda":11822,"▁abraz":11823,"▁meti":11824,"▁barras":11825,"▁alquiler":11826,"▁continue":11827,"▁carpe":11828,"▁franqu":11829,"▁uk":11830,"onga":11831,"▁39":11832,"▁inolvida":11833,"▁chile.":11834,"▁nueve":11835,"▁lui":11836,"▁intendente":11837,"▁muse":11838,"▁supuestamente":11839,"▁¡felic":11840,"cked":11841,"▁c/":11842,"▁americano":11843,"▁publique":11844,"▁vivi":11845,"▁polvo":11846,"▁estren":11847,"▁proporcion":11848,"▁mtvhot":11849,"andra":11850,"bles.":11851,"▁cenar":11852,"▁traen":11853,"pciones":11854,"▁detenidos":11855,"▁helicop":11856,"▁repri":11857,"▁ronaldo":11858,"▁camise":11859,"▁thinking":11860,"deria":11861,"▁encontro":11862,"dula":11863,"▁decidido":11864,"▁▶":11865,"nya":11866,"▁biblioteca":11867,"▁doctora":11868,"lish":11869,"▁agua.":11870,"▁hector":11871,"▁hous":11872,"view":11873,"▁antes.":11874,"▁mtvlains":11875,"▁auditor":11876,"▁sabados":11877,"▁poder,":11878,"ors":11879,"▁¡buenos":11880,"▁joya":11881,"▁luz,":11882,"▁jk":11883,"▁limites":11884,"▁entrego":11885,"▁chap":11886,"▁varia":11887,"curs":11888,"▁contratos":11889,"▁solo.":11890,"▁domingo,":11891,"▁compos":11892,"ge,":11893,"you":11894,"▁seokjin":11895,"▁tumba":11896,"vana":11897,"▁mention":11898,"cala":11899,"▁chile,":11900,"▁awww":11901,"▁recicla":11902,"▁eyes":11903,"▁coti":11904,"▁mid":11905,"▁inscripcion":11906,"▁س":11907,"▁found":11908,"▁rios":11909,"▁volvera":11910,"▁invento":11911,"▁2012":11912,"▁sostenible":11913,"▁vicente":11914,"▁elementos":11915,"tez":11916,"selo":11917,"▁noite":11918,"▁aprendiendo":11919,"▁naci":11920,"tors":11921,"▁agregar":11922,"▁¿para":11923,"▁reiv":11924,"▁-¿":11925,"▁libertador":11926,"▁(0":11927,"▁boludeces":11928,"pt":11929,"▁esqui":11930,"info":11931,"▁ecolog":11932,"▁aline":11933,"▁mataron":11934,"▁despedida":11935,"ton,":11936,"88":11937,"▁cierta":11938,"▁estemos":11939,"aristemo":11940,"▁parro":11941,"▁word":11942,"▁toxico":11943,"▁voice":11944,"▁inqui":11945,"-o":11946,"▁objetivos":11947,"▁conquis":11948,"▁cientificos":11949,"▁aumenta":11950,"▁bobo":11951,"metros":11952,"▁gritos":11953,"▁diosito":11954,"▁vizcarra":11955,"▁encier":11956,"quera":11957,"▁omar":11958,"▁serp":11959,"▁pierda":11960,"▁pasear":11961,"▁aburrida":11962,"▁reglas":11963,"▁tontos":11964,"night":11965,"▁valenci":11966,"▁ez":11967,"menos":11968,"▁justamente":11969,"-a":11970,"▁2019,":11971,"▁barbi":11972,"▁juarez":11973,"▁ee.uu.":11974,"▁oigan":11975,"▁plantel":11976,"▁paren":11977,"ivamente":11978,"▁transforma":11979,"▁rayo":11980,"▁nada..":11981,"pefac":11982,"▁especie":11983,"▁formal":11984,"▁quiero.":11985,"▁mtvlafandomaristemo":11986,"▁operativo":11987,"▁guillermo":11988,"▁circ":11989,"▁cuadra":11990,"▁mtvhottest":11991,"5,":11992,"▁confer":11993,"▁chir":11994,"▁trabajamos":11995,"rina":11996,"▁w/":11997,"▁cloud":11998,"▁aran":11999,"▁veces.":12000,"▁genoci":12001,"'ve":12002,"tober":12003,"▁scen":12004,"entimiento":12005,"▁\"co":12006,"▁principe":12007,"▁jura":12008,"▁agencia":12009,"▁felicito":12010,"▁futuro.":12011,"▁earth":12012,"▁escandalo":12013,"▁causas":12014,"▁fabric":12015,"▁diganme":12016,"▁monar":12017,"▁subnor":12018,"▁kit":12019,"▁¿la":12020,"▁120":12021,"▁prov":12022,"▁viaja":12023,"vies":12024,"▁\"ya":12025,"▁intim":12026,"▁abas":12027,"ule":12028,"▁sed":12029,"▁pat":12030,"▁metiendo":12031,"▁cara.":12032,"▁chia":12033,"▁logrado":12034,"▁claqueta":12035,"▁bik":12036,"▁mtvlaparejaaristemo":12037,"ecu":12038,"▁ciber":12039,"iela":12040,"▁hora,":12041,"▁considero":12042,"▁valorar":12043,"▁profundo":12044,"▁conseguido":12045,"▁aprecia":12046,"▁teen":12047,"▁estupefac":12048,"▁¡y":12049,"▁claves":12050,"▁liderazgo":12051,"▁grup":12052,"▁juegue":12053,"▁elegan":12054,"redo":12055,"▁ina":12056,"▁creado":12057,"▁engor":12058,"▁acuerda":12059,"▁apunta":12060,"▁filtro":12061,"▁vengas":12062,"enten":12063,"▁ensena":12064,"▁bud":12065,"▁map":12066,"▁chucha":12067,"▁cierto.":12068,"▁event":12069,"▁inac":12070,"▁cancun":12071,"▁desse":12072,"▁aca,":12073,"▁maneras":12074,"▁betw":12075,"▁copo":12076,"69":12077,"etas":12078,"ditas":12079,"▁it,":12080,"▁permanente":12081,"▁pick":12082,"▁(si":12083,"▁actores":12084,"▁susten":12085,"▁conviene":12086,"▁\"ma":12087,"▁sueldos":12088,"▁jurid":12089,"▁empate":12090,"▁national":12091,"▁decidio":12092,"▁dinero.":12093,"bria":12094,"▁melilla":12095,"▁neuron":12096,"inge":12097,"▁inglaterra":12098,"▁temporadas":12099,"▁fabrica":12100,"▁etica":12101,"i?":12102,"▁chac":12103,"▁incapac":12104,"▁jsjs":12105,"▁bolsas":12106,"▁5,":12107,"▁veamos":12108,"▁street":12109,"▁\"ch":12110,"▁sill":12111,"▁critico":12112,"▁arg":12113,"hun":12114,"▁alcance":12115,"▁\"am":12116,"▁cest":12117,"▁skin":12118,"▁zid":12119,"▁ilustra":12120,"▁talking":12121,"▁convirtio":12122,"▁unic":12123,"▁conto":12124,"▁cadiz":12125,"▁hours":12126,"▁lugar.":12127,"▁bende":12128,"▁gio":12129,"▁si?":12130,"...?":12131,"▁aclara":12132,"▁pelis":12133,"▁agentes":12134,"。.":12135,"▁estupideces":12136,"entas":12137,"▁nou":12138,"▁novios":12139,"kar":12140,"▁ooo":12141,"▁garganta":12142,"▁bay":12143,"rona":12144,"▁bajos":12145,"▁paraiso":12146,"▁vida...":12147,"▁\"pa":12148,"▁jd":12149,"kit":12150,"▁miel":12151,"▁jean":12152,"▁fasti":12153,"▁indig":12154,"▁supl":12155,"▁¿sabes":12156,"을":12157,"▁valladolid":12158,"▁clau":12159,"▁ferro":12160,"▁👁":12161,"▁cose":12162,"▁seguis":12163,"▁ruben":12164,"▁mezcla":12165,"tha":12166,"▁second":12167,"▁no..":12168,"▁consciente":12169,"▁community":12170,"▁colegios":12171,"▁dedicado":12172,"▁bueno...":12173,"▁gila":12174,"▁marihu":12175,"▁grita":12176,"▁monica":12177,"▁inclusion":12178,"▁neoliberal":12179,"▁saga":12180,"▁instante":12181,"▁pasa,":12182,"▁conductor":12183,"acan":12184,"▁siguientes":12185,"jaaj":12186,"▁low":12187,"여":12188,"▁dejara":12189,"vierte":12190,"▁level":12191,"▁domicilio":12192,"▁verdaderos":12193,"▁llevaron":12194,"▁patas":12195,"▁magistra":12196,"▁lara":12197,"▁(in":12198,"▁fus":12199,"▁hijas":12200,"▁boca.":12201,"▁dos,":12202,"hue":12203,"es\"":12204,"▁amado":12205,"chera":12206,"▁tabla":12207,"▁abuelos":12208,"▁suc":12209,"▁gratuita":12210,"at.":12211,"▁inventar":12212,"▁lento":12213,"▁son.":12214,"▁1:":12215,"▁complejo":12216,"oya":12217,"▁tatuaje":12218,"▁critican":12219,"▁la.":12220,"▁sobrevivir":12221,"pso":12222,"▁normas":12223,"militar":12224,"▁penso":12225,"▁olha":12226,"▁ह":12227,"▁proxim":12228,"claro":12229,"tial":12230,"▁revela":12231,"▁impresenta":12232,"▁obligacion":12233,"▁pesca":12234,"▁sopa":12235,"▁agricultura":12236,"▁concepcion":12237,"▁responsabil":12238,"▁\"una":12239,"▁oct":12240,"▁might":12241,"▁incorpor":12242,"▁sys":12243,"▁chivas":12244,"▁libra":12245,"tienes":12246,"ly.":12247,"▁esperas":12248,"▁plazas":12249,"tics":12250,"▁miserables":12251,"▁dos.":12252,"▁jajas":12253,"▁sabian":12254,"▁gallo":12255,"▁publico,":12256,"▁gaga":12257,"▁es:":12258,"o..":12259,"garse":12260,"▁conmigo.":12261,"▁intensa":12262,"▁apres":12263,"▁increibles":12264,"uci":12265,"▁csm":12266,"▁racha":12267,"▁procesos":12268,"▁gimnasio":12269,"▁kil":12270,"▁infar":12271,"▁doesn't":12272,"▁figh":12273,"▁pot":12274,"▁afron":12275,"▁marx":12276,"▁아":12277,"▁perd":12278,"▁oliv":12279,"▁posibil":12280,"▁seguire":12281,"▁probab":12282,"▁mia,":12283,"▁enojar":12284,"▁invers":12285,"▁ota":12286,"▁vocal":12287,"▁revisa":12288,"▁ordenes":12289,"▁diosa":12290,"▁cifra":12291,"▁burro":12292,"▁materias":12293,"▁mandarina":12294,"...a":12295,"ᅢᆼ":12296,"jua":12297,"▁drop":12298,"▁reverencia":12299,"▁comparar":12300,"▁acompanar":12301,"▁anno":12302,"▁alejar":12303,"hen":12304,"▁buscamos":12305,"▁chingada":12306,"▁between":12307,"▁areas":12308,"▁herramienta":12309,"▁criterio":12310,"▁postura":12311,"▁tn":12312,"vandose":12313,"▁sociales,":12314,"▁decime":12315,"▁club.":12316,"▁capacitacion":12317,"▁alegre":12318,"▁platafor":12319,"▁►":12320,"▁votantes":12321,"▁recortable":12322,"▁tope":12323,"▁informes":12324,"5%":12325,"itz":12326,"oney":12327,"▁pera":12328,"uit":12329,"▁pajar":12330,"▁copia":12331,"▁impe":12332,"rill":12333,"▁unidades":12334,"▁controla":12335,"tono":12336,"jk":12337,"자":12338,"dy.":12339,"은":12340,"▁bruno":12341,"▁confes":12342,"$.":12343,"▁mamita":12344,"▁\"le":12345,"▁terreno":12346,"▁impotencia":12347,"duro":12348,"▁comic":12349,"ers.":12350,"▁bateria":12351,"▁obe":12352,"▁alienig":12353,"▁decirles":12354,"▁(f":12355,"▁aleja":12356,"▁saludar":12357,"▁worl":12358,"▁deseamos":12359,"▁punto.":12360,"▁き":12361,"▁wear":12362,"보":12363,"▁role":12364,"▁conversaciones":12365,"▁velez":12366,"▁mtvbr":12367,"▁encen":12368,"▁sas":12369,"▁wpp":12370,"▁efectivamente":12371,"▁oli":12372,"▁cua":12373,"guer":12374,"mexico":12375,"▁jubil":12376,"▁petar":12377,"ts:":12378,"▁problema.":12379,"eto":12380,"▁chistes":12381,"anal":12382,"landia":12383,"▁curs":12384,"▁2-0":12385,"▁declaro":12386,"tizacion":12387,"▁desh":12388,"▁dispara":12389,"▁bien!":12390,"itas,":12391,"▁shows":12392,"▁juntos.":12393,"▁agresion":12394,"▁4t":12395,"▁hora.":12396,"▁hablado":12397,"yu":12398,"▁ausencia":12399,"▁panel":12400,"▁brother":12401,"▁juga":12402,"▁ventaja":12403,"▁\"para":12404,"▁fez":12405,"▁biggest":12406,"▁close":12407,"jes,":12408,"ves,":12409,"te..":12410,"▁miras":12411,"▁recordando":12412,"▁discapacidad":12413,"▁vida..":12414,"▁nacer":12415,"▁automaticamente":12416,"/11":12417,"▁deport":12418,"▁maltrato":12419,"▁piensen":12420,"_a":12421,"▁destina":12422,"▁anuncios":12423,"▁viejas":12424,"▁consen":12425,"▁escandal":12426,"▁solo,":12427,"▁renov":12428,"pid":12429,"etin":12430,"▁gutier":12431,"▁desafio":12432,"▁lleguen":12433,"▁ordin":12434,"78":12435,"▁cucu":12436,"▁diran":12437,"▁favoritas":12438,"▁postu":12439,"▁laburar":12440,"▁tuiter":12441,"▁ciencias":12442,"▁forro":12443,"▁madril":12444,"▁west":12445,"▁wed":12446,"▁few":12447,"ians":12448,"▁gur":12449,"jol":12450,"▁ht":12451,"▁provincial":12452,"▁encuestas":12453,"▁exagera":12454,"▁enchu":12455,"▁mamon":12456,"▁educacion,":12457,"▁oreja":12458,"▁delantero":12459,"▁short":12460,"▁obten":12461,"▁safe":12462,"▁sospechos":12463,"too":12464,"mocra":12465,"▁giro":12466,"aron,":12467,"▁nacimiento":12468,"▁side":12469,"▁sociales.":12470,"▁passa":12471,"▁palmera":12472,"▁tirado":12473,"aba,":12474,"▁tak":12475,"▁duelo":12476,"▁pequenas":12477,"▁recorrido":12478,"▁asumir":12479,"▁mantenimiento":12480,"▁sepas":12481,"▁elige":12482,"▁continuidad":12483,"raron":12484,"▁llorar,":12485,"▁opina":12486,"▁procura":12487,"kak":12488,"▁inflacion":12489,"▁deep":12490,"▁polo":12491,"▁dare":12492,"▁fiebre":12493,"▁enfermer":12494,"▁hacerlo.":12495,"▁recol":12496,"▁pagamos":12497,"isto":12498,"▁alcaldesa":12499,"▁santander":12500,"▁remon":12501,"▁quedaba":12502,":15":12503,"▁preparada":12504,"▁capric":12505,"▁f1":12506,"▁trasla":12507,"▁feministas":12508,"▁wrong":12509,"pita":12510,"▁lemb":12511,"▁ater":12512,"▁malo,":12513,"▁invitados":12514,"▁heridos":12515,"▁satur":12516,"soo":12517,"▁realidad,":12518,"▁nooo,":12519,"▁fif":12520,"rupcion":12521,"▁convencer":12522,"▁robando":12523,"▁mutu":12524,"▁balance":12525,"▁tocan":12526,"▁history":12527,"▁gem":12528,"anted":12529,"▁ain":12530,"cat":12531,"iral":12532,"-6":12533,"ih":12534,"▁passar":12535,"...)":12536,"▁disim":12537,"▁triste,":12538,"▁spi":12539,"▁flex":12540,"madrid":12541,"telo":12542,"uts":12543,"▁bloquear":12544,"▁mercados":12545,"▁sucio":12546,"▁conversa":12547,"▁europeo":12548,"▁(es":12549,"▁among":12550,"▁jodido":12551,"▁x2":12552,"▁reviv":12553,"firma":12554,"▁simples":12555,"▁previo":12556,"▁cuerpos":12557,"▁california":12558,"▁vr":12559,"wards":12560,"▁tenerte":12561,"▁cuiden":12562,"▁danilo":12563,"▁ubica":12564,"...es":12565,"▁descorchada":12566,"ford":12567,"▁pure":12568,"▁office":12569,"/5":12570,"▁muchachos":12571,"deja":12572,"▁russ":12573,"▁(3":12574,"ficiencia":12575,"py":12576,"▁jodan":12577,"▁esposo":12578,"▁darnos":12579,"▁nadie:.":12580,"▁coleg":12581,"▁harto":12582,"▁piense":12583,"bios":12584,"▁instalaciones":12585,"▁christ":12586,"tivar":12587,"▁mutuals":12588,"▁millonarios":12589,"di,":12590,"▁todxs":12591,"tones":12592,"▁44":12593,"▁molestar":12594,"▁otros,":12595,"venezuela":12596,"▁puta.":12597,"▁carl":12598,"▁podriamos":12599,"▁fli":12600,"▁imprescin":12601,"▁legado":12602,"▁felicitar":12603,"▁listas":12604,"▁asistir":12605,"▁marina":12606,"▁anual":12607,"▁perdiste":12608,"▁pascu":12609,"▁pesadilla":12610,"▁carabineros":12611,"▁spider":12612,"▁tocado":12613,"▁vaz":12614,"▁panico":12615,"▁rodilla":12616,"▁remin":12617,"▁invertir":12618,"cieron":12619,"▁chon":12620,"▁suger":12621,"▁bully":12622,"▁describ":12623,"▁normal,":12624,"▁corresponde":12625,"▁lugar,":12626,"dilla":12627,"▁rien":12628,"gina":12629,"▁teas":12630,"▁portugues":12631,"▁nfl":12632,"▁vuestros":12633,"▁volve":12634,"▁exigimos":12635,"▁pqp":12636,"▁quedes":12637,"▁suman":12638,"times":12639,"guera":12640,"▁mariano":12641,"▁presentado":12642,"▁justicia,":12643,"▁wu":12644,"▁spoiler":12645,"▁lleven":12646,"tine":12647,"▁logros":12648,"precia":12649,"▁went":12650,"▁¡n":12651,"▁ibamos":12652,"▁abrazo.":12653,"▁moneda":12654,"eng":12655,"directo":12656,"▁pulmon":12657,"▁admira":12658,"▁mano.":12659,"remo":12660,"▁kevin":12661,"▁expan":12662,"▁hech":12663,"▁living":12664,"▁londres":12665,"set":12666,"es:":12667,"adamente":12668,"▁encontramos":12669,"▁otgala":12670,"▁direction":12671,"▁mail":12672,"tone":12673,"▁entendio":12674,"▁comparacion":12675,"▁rig":12676,"▁eso...":12677,"▁vargas":12678,"▁portal":12679,"▁sarcas":12680,"▁merida":12681,"▁secundaria":12682,"▁soo":12683,"▁cacas":12684,"▁indigenas":12685,"▁polla":12686,"▁respondio":12687,"▁leave":12688,"▁justice":12689,"▁expo":12690,"▁deno":12691,"▁nacido":12692,"▁promover":12693,"▁sra":12694,"▁temo":12695,"▁¡v":12696,"▁sair":12697,"▁respeto,":12698,"domin":12699,"▁divul":12700,"eros,":12701,"toy":12702,"▁hidro":12703,"▁basket":12704,"▁audi":12705,"▁despres":12706,"rre":12707,"▁rural":12708,"▁caribe":12709,"▁reirme":12710,"▁vesti":12711,"▁ejemplar":12712,"▁llevara":12713,"▁mandaron":12714,"▁comenzamos":12715,"▁toro":12716,"▁elo":12717,"cho,":12718,"▁volvieron":12719,"▁cobertura":12720,"▁asqueroso":12721,"cent":12722,"bir":12723,"▁juego.":12724,"▁others":12725,"▁exacto":12726,"▁fallar":12727,"▁siii,":12728,"▁paso.":12729,"▁mamas":12730,"guis":12731,"ves.":12732,"▁saw":12733,"oo!!!":12734,"▁supe":12735,"▁boca,":12736,"▁quilo":12737,"▁namo":12738,"▁ud.":12739,"▁comprens":12740,"▁fede":12741,"▁motivacion":12742,"ᅩᆼ":12743,"▁capitalismo":12744,"ange":12745,"iko":12746,"▁idioma":12747,"▁digitales":12748,"▁atual":12749,"▁mochila":12750,"torsion":12751,"▁duda,":12752,"▁47":12753,"▁descansa":12754,"▁camina":12755,"uilla":12756,"▁washing":12757,"▁gracias!!!":12758,"▁comerci":12759,"▁oz":12760,"▁uuu":12761,"▁dicha":12762,"▁estabilidad":12763,"▁conozca":12764,"▁lisa":12765,"ie,":12766,"▁gav":12767,"▁alfa":12768,"▁actual.":12769,"▁stray":12770,"▁mandas":12771,"book":12772,"▁desayunar":12773,"sy":12774,"▁innov":12775,"▁subido":12776,"▁llover":12777,"▁construc":12778,"t!":12779,"▁else":12780,"▁cuadros":12781,"▁nucle":12782,"▁preocupacion":12783,"▁italiano":12784,"side":12785,"った":12786,"▁campos":12787,"▁dificiles":12788,"▁inspira":12789,"▁muestran":12790,"▁46":12791,"▁miria":12792,"▁valer":12793,"▁dejate":12794,"▁viernes,":12795,"▁tension":12796,"▁sombra":12797,"▁disfrute":12798,"▁escas":12799,"▁nerviosa":12800,"aron.":12801,"▁infeliz":12802,"▁creditos":12803,"▁patada":12804,"▁vamos,":12805,"▁distan":12806,"▁progreso":12807,"▁room":12808,"▁destaca":12809,"yoff":12810,"▁06":12811,"▁odio,":12812,"▁vd":12813,"muy":12814,"▁paj":12815,"▁\"como":12816,"▁cheque":12817,"▁aprendido":12818,"▁peleando":12819,"▁c'est":12820,"──":12821,"▁todo!":12822,"▁florida":12823,"▁simul":12824,"▁pues,":12825,"▁-no":12826,"▁oiga":12827,"ornio":12828,"▁leve":12829,"2019.":12830,"▁adolescentes":12831,"▁hua":12832,"ta..":12833,"▁seguia":12834,"▁rou":12835,"▁alic":12836,"▁dure":12837,"▁lentes":12838,"▁elegido":12839,"▁ucl":12840,"chile":12841,"▁anar":12842,"▁armando":12843,"▁vacunas":12844,"▁nutricion":12845,"▁tc":12846,"yd":12847,"▁afp":12848,"▁vives":12849,"▁hoseok":12850,"▁despedir":12851,"▁ᄑ":12852,"▁pila":12853,"▁track":12854,"...!":12855,"tac":12856,"▁mereci":12857,"tron":12858,"▁42":12859,"▁corn":12860,"▁mame":12861,"▁jac":12862,"▁lali":12863,"▁tatua":12864,"▁unidas":12865,"▁elef":12866,"▁rescate":12867,"▁pedirle":12868,"itas.":12869,"▁fortalecer":12870,"드":12871,"▁resolucion":12872,"▁eterna":12873,"zas.":12874,"po,":12875,"dremos":12876,"▁ayuden":12877,"war":12878,"▁tribu":12879,"o\"":12880,"▁levantarse":12881,"▁quimica":12882,"▁etiqueta":12883,"▁vuelos":12884,"camp":12885,"▁imperio":12886,"▁dejaste":12887,"▁protagonista":12888,"▁jam":12889,"▁recre":12890,"▁magic":12891,"▁dice:":12892,"▁atardecer":12893,"pho":12894,"▁vecina":12895,"▁selena":12896,"▁meo":12897,"▁intente":12898,"▁plen":12899,"▁teach":12900,"▁justifica":12901,"▁mes,":12902,"▁descal":12903,"▁matias":12904,"▁lluvias":12905,"▁sinverguenza":12906,"▁marchas":12907,"▁temporada.":12908,"▁\"su":12909,"▁bien...":12910,"▁arranque":12911,"▁duelen":12912,"mble":12913,"▁estupefacta":12914,"▁japan":12915,"▁juntos,":12916,"▁lealtad":12917,"uv":12918,":)":12919,"▁presentan":12920,"▁mananas":12921,"▁conciertos":12922,"▁risas":12923,"▁sufren":12924,"▁pregunten":12925,"▁colectivos":12926,"medio":12927,"▁mes.":12928,"▁solucionar":12929,"▁arregla":12930,"▁\"esta":12931,"▁valverde":12932,"▁bronce":12933,"▁स":12934,"▁yanke":12935,"▁2do":12936,"인":12937,"▁pute":12938,"▁parab":12939,"▁castilla":12940,"▁(se":12941,"▁bestia":12942,"▁catolica":12943,"▁beyon":12944,"sao":12945,"▁xo":12946,"▁actriz":12947,"dial":12948,"▁andrea":12949,"▁cv":12950,"▁stalke":12951,"▁sinton":12952,"▁decadas":12953,"▁penales":12954,"▁arquero":12955,"▁son,":12956,"▁gobierna":12957,"▁dude":12958,"ton.":12959,"▁contrar":12960,"▁mom":12961,"▁seca":12962,"sol":12963,"an?":12964,"▁now.":12965,"▁:'(":12966,"▁machista":12967,"▁domina":12968,"▁kam":12969,"▁merecido":12970,"s:":12971,"▁de.":12972,"chon":12973,"▁outro":12974,"▁sistemas":12975,"▁posible.":12976,"▁vuela":12977,"ie.":12978,"▁blin":12979,"▁using":12980,"▁peter":12981,"▁violar":12982,"▁xfa":12983,"▁manchester":12984,"▁hpta":12985,"▁sobretodo":12986,"▁monitor":12987,"▁metropolit":12988,"▁culpables":12989,"▁oq":12990,"▁llorar.":12991,"▁reporta":12992,"▁ponia":12993,"▁soft":12994,"▁pymes":12995,"한":12996,"▁aixo":12997,"▁sentado":12998,"▁edi":12999,"▁releas":13000,"▁pinas":13001,"▁sujeto":13002,"▁ofertas":13003,"tista":13004,"chet":13005,"▁billboard":13006,"▁posibilidades":13007,"▁serio.":13008,"▁foto,":13009,"▁cobro":13010,"▁cambiemos":13011,"▁rebo":13012,"▁episode":13013,"▁algo?":13014,"▁twice":13015,"▁gosto":13016,"▁llan":13017,"▁batman":13018,"▁goal":13019,"cha,":13020,"▁abr":13021,"▁preparados":13022,"▁jae":13023,"▁dear":13024,"▁cance":13025,"▁pantalon":13026,"▁domingo.":13027,"▁golf":13028,"▁fazendo":13029,"ss,":13030,"▁contrario,":13031,"mentales":13032,"▁cayendo":13033,"▁three":13034,"▁sai":13035,"▁empezado":13036,"▁oxig":13037,"▁guate":13038,"▁echando":13039,"▁stickers":13040,"▁personales":13041,"▁cruce":13042,"▁semin":13043,"ules":13044,"▁announ":13045,"bron":13046,"▁digamos":13047,"▁irregular":13048,"▁90%":13049,"▁alienigena":13050,"▁extremo":13051,"▁\"nos":13052,"▁haremos":13053,"▁desco":13054,"▁daddy":13055,"▁famosa":13056,"bile":13057,"▁porcenta":13058,"▁moro":13059,"▁ceuta":13060,"▁build":13061,"▁convic":13062,"▁sports":13063,"▁esfor":13064,"▁fiscales":13065,"▁panor":13066,"▁crazy":13067,"▁persec":13068,"bao":13069,"▁repara":13070,"▁aspir":13071,"▁views":13072,"istente":13073,"▁sierra":13074,"▁funciones":13075,"▁invitado":13076,"▁crimenes":13077,"▁psicopa":13078,"▁falte":13079,"▁filosofia":13080,"▁circunstan":13081,"▁imponer":13082,"▁wanted":13083,"ticias":13084,"ta...":13085,"▁tendrian":13086,"▁cepeda":13087,"▁minutos.":13088,"▁municipales":13089,"▁ocasiones":13090,"▁manifestantes":13091,"▁agarre":13092,"ulada":13093,"▁13.":13094,"vieran":13095,"▁neuro":13096,"▁habran":13097,"most":13098,"▁pene":13099,"▁vence":13100,"▁vienes":13101,"▁km/h":13102,"▁seus":13103,"icol":13104,"▁sola,":13105,"▁desbloque":13106,"▁cierran":13107,"▁faltas":13108,"▁todo...":13109,"▁vestir":13110,"▁industrial":13111,"▁rojas":13112,"▁flac":13113,"aa!!!":13114,"▁choque":13115,"▁amenazas":13116,"▁ricas":13117,"▁strong":13118,"inas,":13119,"▁juju":13120,"55":13121,"▁aportar":13122,"▁necesitar":13123,"▁presentes":13124,"▁pida":13125,"ta\"":13126,"▁dormirme":13127,"▁plantas":13128,"▁escapar":13129,"대":13130,"▁eche":13131,"ette":13132,"▁limpio":13133,"gna":13134,"▁hijos,":13135,"kal":13136,"▁permis":13137,"▁ustedes.":13138,"▁efectivo":13139,"▁esq":13140,"▁esto...":13141,"▁plis":13142,"izaciones":13143,"▁smo":13144,"▁movimientos":13145,"▁adopta":13146,"▁incump":13147,"▁lio":13148,"▁ganadores":13149,"mato":13150,"▁came":13151,"oz":13152,"▁pierna":13153,"▁reuniones":13154,"▁ᄏ":13155,"▁lik":13156,"▁bajas":13157,"▁tots":13158,"▁impuls":13159,"▁experto":13160,"▁humanitaria":13161,"▁cubanos":13162,"▁conting":13163,"▁belle":13164,"▁titan":13165,"▁electrica":13166,"▁terminamos":13167,"gobier":13168,"▁psg":13169,"▁deve":13170,"▁zaragoza":13171,"▁despla":13172,"▁kay":13173,"▁llenos":13174,"▁jajaa":13175,"culacion":13176,"nan":13177,"▁essas":13178,"▁lay":13179,"▁odebre":13180,"▁ini":13181,"▁cubrebo":13182,"▁pensas":13183,"▁estudian":13184,"tation":13185,"▁givea":13186,"▁pf":13187,"▁dessa":13188,"drome":13189,"▁volcan":13190,"guito":13191,"▁inco":13192,"▁celos":13193,"▁tim":13194,"▁vip":13195,"▁pray":13196,"cloud":13197,"▁meren":13198,"ados.":13199,"!...":13200,"▁tucuman":13201,"▁enganar":13202,"▁colegas":13203,"▁chip":13204,"cd":13205,"▁smile":13206,"▁weekend":13207,"▁intensidad":13208,"▁instruc":13209,"▁alma.":13210,"▁od":13211,"▁cuide":13212,"▁arce":13213,"▁''":13214,"▁lanzar":13215,"▁lavado":13216,"▁deserve":13217,"▁order":13218,"▁federacion":13219,"▁articulos":13220,"▁comprender":13221,"ados,":13222,"tazo":13223,"▁fat":13224,"▁conocemos":13225,"▁comis":13226,"▁¿sera":13227,"▁importante.":13228,"▁observa":13229,"▁alguien.":13230,"dumbre":13231,"▁important":13232,"e!":13233,"▁suspension":13234,"▁mera":13235,"▁pintar":13236,"po.":13237,"▁jodas":13238,"yor":13239,"▁explotar":13240,"▁advers":13241,"▁jugaba":13242,"▁protege":13243,"icao":13244,"▁pintor":13245,"▁jodiendo":13246,"▁chiquita":13247,"▁occi":13248,"▁celu":13249,"▁bro,":13250,"▁mtvlafandomaristemofans":13251,"▁niega":13252,"aba.":13253,"fam":13254,"▁dolio":13255,"ᅳᆷ":13256,"▁cau":13257,"▁maquillaje":13258,"▁quil":13259,"▁enemigos":13260,"▁smith":13261,"▁recibi":13262,"▁tiros":13263,"▁pior":13264,"▁coal":13265,"▁doesnt":13266,"▁inauguracion":13267,"▁cebol":13268,"▁hipocresia":13269,"▁despues,":13270,"▁navid":13271,"dista":13272,"thon":13273,"▁cagon":13274,"▁delicia":13275,"ᆸ니":13276,"▁imbeciles":13277,"타":13278,"▁romero":13279,"▁pais..":13280,"▁spanish":13281,"tely":13282,"▁inocente":13283,"cho.":13284,"▁frenar":13285,"▁golpes":13286,"▁estafa":13287,"▁kal":13288,"▁perdona":13289,"ader":13290,"wood":13291,"▁ava":13292,"vy":13293,"▁corro":13294,"▁aquest":13295,"▁corriente":13296,"dice":13297,"▁psiquia":13298,"male":13299,"▁oo":13300,"ees":13301,"▁encuentras":13302,"▁muneco":13303,"2015":13304,"▁wants":13305,"▁oye,":13306,"▁denuncian":13307,"▁retor":13308,"''":13309,"▁semaforo":13310,"▁人":13311,"▁demostra":13312,"▁yours":13313,"▁waiting":13314,"▁goes":13315,"▁recomendacion":13316,"▁perspectiva":13317,"▁pertenece":13318,"▁(al":13319,"ech":13320,"▁jj":13321,"itaciones":13322,"▁kno":13323,"▁sexta":13324,"▁presidentes":13325,"▁carden":13326,"▁(8":13327,"▁menuda":13328,"▁gob":13329,"▁medina":13330,"▁infraestructura":13331,"▁invitan":13332,"▁nesse":13333,"▁polemica":13334,"▁td":13335,"▁palmas":13336,"▁hecho.":13337,"inter":13338,"...\".":13339,"98":13340,"▁palabras.":13341,"▁ais":13342,"▁remera":13343,"현":13344,"▁¿porque":13345,"▁este,":13346,"▁model":13347,"▁meterse":13348,"▁corrupcion,":13349,"▁hijuepu":13350,"y!":13351,"▁expresid":13352,"▁(video":13353,"▁presa":13354,"▁stri":13355,"▁maten":13356,"pun":13357,"▁podian":13358,"▁peace":13359,"▁achaga":13360,"▁dobla":13361,"▁usen":13362,"▁hubies":13363,"▁diabe":13364,"▁baj":13365,"▁panda":13366,"▁tierno":13367,"▁institucional":13368,"▁insomnio":13369,"▁verdades":13370,"▁content":13371,"▁f.":13372,"fee":13373,"▁pui":13374,"▁identifica":13375,"▁plano":13376,"▁athle":13377,"▁comportamiento":13378,"▁tengo,":13379,"ipa":13380,"▁diploma":13381,"▁(como":13382,"▁votado":13383,"▁querias":13384,"▁firmo":13385,"▁instru":13386,"▁diab":13387,"▁number":13388,"▁brasile":13389,"▁caballero":13390,"▁rindo":13391,"▁certeza":13392,"▁acceder":13393,"▁astro":13394,"▁credibilidad":13395,"▁directa":13396,"▁cuartos":13397,"▁tomamos":13398,"▁seguidos":13399,"▁(via":13400,"▁egres":13401,"tant":13402,"▁jordan":13403,"garon":13404,"▁cositas":13405,"tent":13406,"▁repite":13407,"▁william":13408,"▁dedi":13409,"▁congratula":13410,"▁explota":13411,"ormal":13412,"▁relato":13413,"▁responden":13414,"▁dedico":13415,"▁extranjero":13416,"tuito":13417,"▁pareces":13418,"▁space":13419,"▁chen":13420,"▁chido":13421,"uos":13422,"▁outfit":13423,"▁nada!":13424,"▁convenio":13425,"▁t.":13426,"▁ls":13427,"▁coup":13428,"▁palma":13429,"▁representacion":13430,"・・":13431,"▁hahahahahahaha":13432,"▁rs":13433,"▁avia":13434,"▁19.":13435,"▁paper":13436,"▁sueno,":13437,"▁seremos":13438,"▁habido":13439,"▁chileno":13440,"▁curvandose":13441,"▁tweet.":13442,"▁told":13443,"스트":13444,"▁horosco":13445,"▁intoler":13446,"▁diarios":13447,"▁alimentacion":13448,"▁yas":13449,"▁hables":13450,"▁clasificacion":13451,"▁half":13452,"▁pronuncia":13453,"▁espos":13454,"do?":13455,"pc":13456,"▁ventila":13457,"▁porten":13458,"▁roo":13459,"▁parte,":13460,"▁seja":13461,"▁started":13462,"▁cano":13463,"▁psicologia":13464,"▁valentin":13465,"▁entiendan":13466,"xual":13467,"▁caso.":13468,"▁pintura":13469,"▁importante,":13470,"▁problema,":13471,"▁acercar":13472,"▁llueva":13473,"▁called":13474,"▁consigu":13475,"heiro":13476,"▁plastico":13477,"▁vias":13478,"▁utiliza":13479,"▁sugar":13480,"▁pingu":13481,"▁words":13482,"▁parezco":13483,"▁contradic":13484,"▁___":13485,"▁pedidos":13486,"▁lord":13487,"▁vulnerables":13488,"▁ruiz":13489,"▁factor":13490,"▁spot":13491,"▁fascista":13492,"▁lgbt":13493,"▁nobel":13494,"▁qualquer":13495,"▁refres":13496,"▁pasa.":13497,"▁coman":13498,"▁football":13499,"▁roger":13500,"▁remedio":13501,"▁recoger":13502,"creo":13503,"▁napol":13504,"tein":13505,"▁atrac":13506,"▁papa,":13507,"▁discre":13508,"▁austria":13509,"▁abusos":13510,"▁gusta.":13511,"▁estructura":13512,"▁descubier":13513,"▁tone":13514,"▁augus":13515,"▁correcta":13516,"▁oriente":13517,"▁plataformas":13518,"nar":13519,"▁deal":13520,"tidas":13521,"▁shot":13522,"▁children":13523,"▁sia":13524,"mias":13525,"▁circunstancias":13526,"▁estomago":13527,"▁natalia":13528,"ilar":13529,"▁tiendas":13530,"mous":13531,"▁understand":13532,"garme":13533,"▁graves":13534,"▁conquista":13535,"dia.":13536,"i...":13537,"woo":13538,"▁mau":13539,"▁puta,":13540,"▁ysi":13541,"▁racis":13542,"▁buscas":13543,"▁mike":13544,"▁salarios":13545,"▁otra.":13546,"▁facil.":13547,"▁garra":13548,"▁stran":13549,"▁hacernos":13550,"▁gara":13551,"▁nike":13552,"▁clasifica":13553,"▁24h":13554,"rd":13555,"cora":13556,"dia,":13557,"▁porro":13558,"▁past":13559,"▁libertad.":13560,"el.":13561,"▁anos..":13562,"▁hum":13563,"▁reit":13564,"2020.":13565,"▁educativa":13566,"▁islas":13567,"▁41":13568,"▁email":13569,"ᆨ소":13570,"▁agradecemos":13571,"utbol":13572,"▁manager":13573,"▁partidazo":13574,"usias":13575,"▁fue,":13576,"▁yo?":13577,"▁lupa":13578,"ir.":13579,"▁nome":13580,"▁enojada":13581,"▁retos":13582,"▁^^":13583,"coin":13584,"▁casar":13585,"▁colombiana":13586,"ᅮᆯ":13587,"▁maradona":13588,"▁respaldo":13589,"▁incendios":13590,"▁porqueria":13591,"rarse":13592,"chado":13593,"espero":13594,"▁gets":13595,"▁alturas":13596,"▁novedad":13597,"▁11:":13598,"▁chale":13599,"▁fuerte,":13600,"|.":13601,"▁hinchada":13602,"ird":13603,"▁jama":13604,"▁contund":13605,"▁sorprender":13606,"▁south":13607,"▁estrategias":13608,"▁***":13609,"▁mba":13610,"▁refiere":13611,"▁caduca":13612,"▁democratico":13613,"▁expresar":13614,"▁prepa":13615,"▁invad":13616,"▁llamadas":13617,"▁quiere,":13618,"▁vida?":13619,"tice":13620,"/s":13621,"▁juego,":13622,"▁2:":13623,"들":13624,"▁ciudad,":13625,"▁arquitectura":13626,"▁conn":13627,"▁expl":13628,"▁glob":13629,"hope":13630,"▁falcon":13631,"▁escuchen":13632,"ecdo":13633,"▁tecnicos":13634,"▁publica.":13635,"▁votan":13636,"▁four":13637,"%,":13638,"▁extranjeros":13639,"▁expe":13640,"horario":13641,"▁aburro":13642,"▁fem":13643,"▁recar":13644,"ecera":13645,"▁hueva":13646,"▁temor":13647,"▁discus":13648,"pazo":13649,"▁decente":13650,"▁band":13651,"▁hielo":13652,"▁hour":13653,"▁funcionario":13654,"respe":13655,"▁squad":13656,"▁modelos":13657,"&gt;&gt;&gt;&gt;&gt;&gt;&gt;&gt;":13658,"▁chicos,":13659,"▁apetece":13660,"▁mascaras":13661,"▁ahora?":13662,"▁peronismo":13663,"▁migrantes":13664,"asco":13665,"▁pensamos":13666,"▁cancelar":13667,"zara":13668,"▁bandas":13669,"▁sentimos":13670,"▁maqu":13671,"▁dispuesto":13672,"▁perver":13673,"human":13674,"▁sauda":13675,"▁plays":13676,"▁acabado":13677,"▁\"ay":13678,"▁solidario":13679,"▁carolina":13680,"▁creo.":13681,"▁02":13682,"field":13683,"ᆸ니다":13684,"▁barto":13685,"▁ciego":13686,"▁galeria":13687,"▁xeno":13688,"▁integrantes":13689,"▁¡hoy":13690,"▁bode":13691,"▁dais":13692,"▁biblia":13693,"▁dia...":13694,"▁dispu":13695,"▁gabinete":13696,"▁volta":13697,"▁actua":13698,"feliz":13699,"rara":13700,"▁democracia.":13701,"▁ganadora":13702,"▁estuvimos":13703,"iciones":13704,"▁serio?":13705,"▁digna":13706,"▁intenso":13707,"▁admiracion":13708,"▁laugh":13709,"▁compon":13710,"▁odio.":13711,"mobil":13712,"▁crio":13713,"▁valientes":13714,"▁ascendente":13715,"▁ataca":13716,"▁collec":13717,"▁maiz":13718,"▁hetero":13719,"▁debia":13720,"▁seguimiento":13721,"argentina":13722,"▁\"tu":13723,"▁seguiran":13724,"▁emision":13725,"▁¿?":13726,"▁avui":13727,"▁dosis":13728,"letas":13729,"▁ayer.":13730,"▁\"¡":13731,"▁trago":13732,"▁kic":13733,"▁dolores":13734,"▁07":13735,"uren":13736,"▁orejas":13737,"▁sant":13738,"▁ignorantes":13739,"▁trabajar,":13740,"▁politicos,":13741,"▁embajador":13742,"▁jubilados":13743,"▁tbm":13744,"▁anato":13745,"▁\"buen":13746,"▁aclarar":13747,"tarios":13748,"▁tp":13749,"dr":13750,"▁¿pero":13751,"s?":13752,"▁shado":13753,"▁flamengo":13754,"▁televis":13755,"▁marchar":13756,"▁palabras,":13757,"▁orgullosos":13758,"▁amable":13759,"na,":13760,"▁boxeo":13761,"▁platic":13762,"▁jajajajajajaj":13763,"▁pantalones":13764,"▁jamon":13765,"▁poronga":13766,"▁blas":13767,"▁enfrenta":13768,"lip":13769,"cesion":13770,"▁ruedas":13771,"▁cumpla":13772,"▁suya":13773,"▁lesb":13774,"▁creas":13775,"▁monto":13776,"▁agradecido":13777,"tiza":13778,"▁seg":13779,"▁campanas":13780,"▁inevita":13781,"▁youtuber":13782,"▁ns":13783,"▁tarda":13784,"▁reggaeton":13785,"▁battle":13786,"▁loves":13787,"▁rena":13788,"▁fallas":13789,"▁prueb":13790,"trio":13791,"▁despo":13792,"▁productor":13793,"▁ups":13794,"dies":13795,"▁serpiente":13796,"▁trampa":13797,"▁explor":13798,"tanos":13799,"▁vao":13800,"el_":13801,"▁corrupcion.":13802,"▁🏟":13803,"▁insulto":13804,"abajo":13805,"tada.":13806,"▁sisi":13807,"▁inscripciones":13808,"▁inicial":13809,"▁leas":13810,"▁aaah":13811,"▁comigo":13812,"tamb":13813,"▁hui":13814,"▁phone":13815,"izacao":13816,"▁silva":13817,"▁otono":13818,"▁almor":13819,"▁atacan":13820,"▁reproduc":13821,"▁gracias!!":13822,"zadas":13823,"orra":13824,"-8":13825,"▁answer":13826,"quei":13827,"▁llamen":13828,"▁avengers":13829,"▁devo":13830,"▁bombilla":13831,"▁mamar":13832,"s..":13833,"▁cancela":13834,"hoo":13835,"▁violenta":13836,"▁hambre,":13837,"▁tristes":13838,"▁noble":13839,"▁ocultar":13840,"tofthe":13841,"▁oficinas":13842,"▁anecdo":13843,"▁pidan":13844,"▁cosita":13845,"▁victim":13846,"▁parabens":13847,"▁fib":13848,"▁santi":13849,"queros":13850,"▁english":13851,"▁¡muchas":13852,"▁taaan":13853,"▁retorno":13854,"▁cansancio":13855,"▁windo":13856,"aa!":13857,"▁minister":13858,"▁normal.":13859,"▁$$":13860,"▁realizan":13861,"▁valga":13862,"▁invent":13863,"▁hiciera":13864,"▁15.":13865,"▁pade":13866,"▁pendejadas":13867,"▁¿con":13868,"▁chama":13869,"aton":13870,"adie":13871,"grande":13872,"▁temblor":13873,"▁libre.":13874,"▁ramirez":13875,"etica":13876,"▁tema.":13877,"▁soberania":13878,"▁respect":13879,"▁outra":13880,"▁nefasto":13881,"▁l.":13882,"▁arturo":13883,"▁usd":13884,"rus":13885,"friend":13886,"▁(10":13887,"▁ree":13888,"▁time.":13889,"tades":13890,"▁escra":13891,"▁paleta":13892,"▁trio":13893,"▁spoil":13894,"▁goleador":13895,"ee.":13896,"▁crossing":13897,"▁ocurrido":13898,"▁yor":13899,"▁dois":13900,"alos":13901,"▁question":13902,"▁odebrech":13903,"▁sitios":13904,"▁pito":13905,"adre":13906,"▁creo,":13907,"/6":13908,"▁1a":13909,"yeol":13910,"▁desigualdad":13911,"▁riesgos":13912,"▁eus":13913,"▁major":13914,"▁oscars":13915,"▁laborales":13916,"deros":13917,"▁capa":13918,"▁10,":13919,"▁tama":13920,"▁lob":13921,"▁renunciar":13922,"▁contenta":13923,"▁comento":13924,"▁vicepresidente":13925,"▁despertarme":13926,"▁aragon":13927,"ity.":13928,"▁sobres":13929,"▁goals":13930,"▁pibas":13931,"▁semifin":13932,"▁cuidados":13933,"▁700":13934,"▁idol":13935,"▁cabra":13936,"▁caz":13937,"▁ess":13938,"▁196":13939,"vada":13940,"▁poin":13941,"▁mona":13942,"▁quiten":13943,"ect":13944,"러":13945,"▁bbb":13946,"▁running":13947,"▁i.":13948,"▁prens":13949,"▁productores":13950,"▁producir":13951,"chito":13952,"▁오":13953,"▁♫":13954,"▁vivan":13955,"▁negri":13956,"▁tea":13957,"▁emprendedores":13958,"dador":13959,"izas":13960,"mara":13961,"▁1/2":13962,"▁soportar":13963,"▁fortuna":13964,"formacion":13965,"▁murciela":13966,"▁paloma":13967,"▁requisitos":13968,"▁3-":13969,"▁tierras":13970,"▁aprueba":13971,"▁suficientes":13972,"hei":13973,"▁basico":13974,"▁empresarial":13975,"▁reason":13976,"▁reele":13977,"quel":13978,"▁ciertos":13979,"▁giveaway":13980,"▁carnet":13981,"▁pagado":13982,"▁teclado":13983,"▁significado":13984,"▁si..":13985,"▁dijo:":13986,"▁incluido":13987,"life":13988,"▁engana":13989,"▁2da":13990,"▁6,":13991,"wi":13992,"▁llenas":13993,"ade":13994,"▁生":13995,"acu":13996,"▁view":13997,"▁fortaleza":13998,"▁sintiendo":13999,"▁¡se":14000,"▁sport":14001,"ez,":14002,"tiemp":14003,"ecre":14004,"▁0-0":14005,"▁excusas":14006,"▁britan":14007,"▁andamos":14008,"▁yer":14009,"to:":14010,"▁pix":14011,"▁vivos":14012,"▁14.":14013,"▁socialistas":14014,"▁esencial":14015,"▁colega":14016,"▁abren":14017,"eciendo":14018,"▁consig":14019,"na.":14020,"ers,":14021,"▁repost":14022,"▁vistazo":14023,"▁parce":14024,"▁silue":14025,"▁ae":14026,"▁ensenan":14027,"▁traidores":14028,"▁tenerlo":14029,"▁acuerdos":14030,"▁climatico":14031,"▁cima":14032,"▁delicioso":14033,"jajajajaj":14034,"▁oscuridad":14035,"▁contagiar":14036,"▁almuerzo":14037,"▁firmas":14038,"▁concejal":14039,"▁rn":14040,"▁gy":14041,"▁agradecida":14042,"▁insultar":14043,"▁geta":14044,"▁rayados":14045,"▁sacas":14046,"▁afectados":14047,"▁basica":14048,"▁samsung":14049,"▁acompanado":14050,"▁laz":14051,"▁sol,":14052,"▁piscina":14053,"▁frio,":14054,"▁ft.":14055,"▁rest":14056,"▁develo":14057,"▁complices":14058,"ministro":14059,"▁iva":14060,"▁#ᄉ":14061,"▁bale":14062,"▁arboles":14063,"▁paraguas":14064,"▁rapi":14065,"▁miriam":14066,"chat":14067,"▁guayaquil":14068,"▁polar":14069,"▁250":14070,"▁ojos,":14071,"▁espiral":14072,"▁¡un":14073,"▁superviv":14074,"chis":14075,"▁recuerdan":14076,"▁pijama":14077,"mela":14078,"▁alcaldes":14079,"▁pajaro":14080,"ied":14081,"fun":14082,"▁sj":14083,"▁nessa":14084,"▁hipocrita":14085,"▁pre-":14086,"▁jugara":14087,"▁suelta":14088,"▁pergun":14089,"▁turn":14090,"▁vida!":14091,"▁merecia":14092,"▁comido":14093,"▁bich":14094,"▁carinos":14095,"▁aba":14096,"▁futbolista":14097,"▁suave":14098,"▁catas":14099,"well":14100,"onde":14101,"▁una,":14102,"oooo":14103,"icas,":14104,"▁videolla":14105,"▁\"cu":14106,"▁energias":14107,"▁melan":14108,"▁performance":14109,"▁⠀⠀":14110,"▁va.":14111,"▁nec":14112,"▁vial":14113,"▁supo":14114,"▁★":14115,"▁xav":14116,"que,":14117,"wal":14118,"▁revie":14119,"▁taking":14120,"▁opon":14121,"▁dice,":14122,"▁increible.":14123,"▁volveremos":14124,"hola":14125,"▁dana":14126,"▁sindrome":14127,"▁referente":14128,"quet":14129,"▁covid-19,":14130,"▁ayu":14131,"▁¿lo":14132,"prisiones":14133,"▁influencia":14134,"fet":14135,"ctr":14136,"▁libre,":14137,"▁adri":14138,"▁sabid":14139,"ies.":14140,"cate":14141,"▁kin":14142,"lay":14143,"▁eme":14144,"▁competir":14145,"▁49":14146,"▁ape":14147,"▁cumpleanos,":14148,"▁esconder":14149,"▁yung":14150,"▁nudes":14151,"ecra":14152,"▁destrui":14153,"▁actitudes":14154,"▁casa?":14155,"▁finish":14156,"▁odian":14157,"▁ello.":14158,"▁maso":14159,"▁gratuito":14160,"ises":14161,"▁raja":14162,"▁inspiracion":14163,"old":14164,"▁riqueza":14165,"tal.":14166,"▁style":14167,"▁minutos,":14168,"▁videojue":14169,"▁tf":14170,"▁unicamente":14171,"▁took":14172,"▁caminos":14173,"▁alfredo":14174,"dum":14175,"▁albert":14176,"▁lago":14177,"▁bendito":14178,"▁estupen":14179,"▁clausura":14180,"▁cuidando":14181,"▁categor":14182,"▁exclusiva":14183,"▁almost":14184,"▁costado":14185,"queno":14186,"▁さ":14187,"▁¿sabias":14188,"▁revision":14189,"▁epidem":14190,"t-":14191,"▁refier":14192,"▁domes":14193,"tp":14194,"▁tene":14195,"▁gib":14196,"unds":14197,"31":14198,
[...]
